[PAD]
[UNK]
[CLS]
[SEP]
[MASK]
"
%
(
)
,
-
.
/
0
1
2
3
4
5
6
7
8
9
:
;
_
a
b
c
d
e
f
g
h
i
j
k
l
m
n
o
p
r
s
t
u
v
w
x
y
z
·
—
“
”
、
。
《
》
「
」
一
丁
七
万
三
上
下
不
与
专
且
世
业
东
两
並
个
中
丹
为
主
举
久
义
之
乐
九
也
乡
书
了
争
事
二
于
五
亚
些
亞
亡
交
亦
产
京
人
今
仍
从
他
代
令
以
们
件
任
份
伊
会
传
伯
似
但
位
低
住
体
何
佛
作
佳
使
來
例
供
依
便
俄
保
信
修
個
們
候
倫
值
做
停
備
傳
像
元
先
光
克
兒
党
入
內
全
兩
八
公
六
兰
共
关
兵
其
具
典
内
再
军
冠
决
准
出
击
分
切
划
列
则
创
初
判
別
利
别
到
制
則
前
剧
副
創
劇
力
办
功
加
务
动
助
勒
動
務
包
化
北
区
區
十
千
升
半
华
协
協
单
南
博
占
卡
卫
印
即
历
原
去
县
参
參
又
及
友
反
发
取
受
变
口
古
另
只
可
台
史
右
号
司
各
合
吉
同
名
后
向
含
告
员
周
命
和
品
哈
員
哥
唐
售
唱
商
問
單
嘉
器
四
回
因
团
国
图
國
圍
園
圖
團
土
圣
在
地
场
均
坦
型
埃
城
域
基
堂
堡
報
場
塔
塞
境
增
士
处
复
夏
外
多
大
天
太
夫
央
失
头
奇
奥
奧
女
她
好
如
姆
始
委
威
子
字
存
季
学
學
宁
它
守
安
完
宗
官
定
实
客
宣
室
家
容
密
富
察
實
对
寺
导
封
射
将
將
專
對
導
小
少
尔
尚
就
尼
局
居
展
属
層
屬
山
岛
岸
島
川
州
工
左
己
已
巴
市
布
师
希
帝
带
師
席
帶
常
平
年
并
广
序
应
底
店
府
度
座
康
廣
延
建
开
式
引
弗
弟
张
張
強
强
当
形
影
役
往
很
律
後
得
從
德
心
必
志
快
念
思
性
总
恩
息
情
想
意
愛
感
應
戏
成
我
或
战
戰
戲
房
所
手
才
打
托
批
承
技
把
投
抗
护
报
担
拉
拔
括
拿
持
指
据
授
排
接
控
推
提
播
擊
擔
據
支
收
改
攻
放
政
故
效
教
数
整
數
文
料
斯
新
方
於
施
旅
族
无
日
早
时
明
易
星
春
是
時
普
景
曲
更
書
曼
曾
最
會
月
有
服
朗
望
朝
期
木
未
本
术
机
权
李
村
条
来
東
构
林
果
架
查
标
校
样
核
根
格
案
梅
條
森
植
業
極
構
樂
標
模
樣
機
權
次
歌
歐
止
正
此
步
武
歷
死
段
母
每
比
毛
氏
民
气
氣
水
永
求
汉
江
決
沒
沙
没
河
油
治
法
波
注
泰
洋
洛
洲
活
派
流
济
海
消
深
清
港
游
湖
源
演
漢
澳
灣
火
点
為
無
然
照
熱
營
爭
父
爾
片
版
牌
牙
物
特
獎
獨
獲
率
王
现
班
現
球
理
瑞
環
瓦
生
產
用
田
由
甲
电
男
界
留
畫
當
病
登
發
白
百
的
皇
皮
盟
目
直
相
省
看
真
眾
着
督
知
短
石
研
破
示
社
祖
神
票
福
离
种
科
积
称
移
程
種
稱
積
究
空
突
立
站
章
端
第
等
筑
策
算
管
節
米
类
精
系
紀
約
納
級
素
索
終
組
結
給
統
經
維
網
線
編
縣
總
繼
續
约
级
纪
纳
线
组
经
结
给
统
维
编
网
罗
置
羅
美
群
義
老
考
者
而
耶
职
联
聖
聯
聲
職
股
育
能
自
至
致
臺
與
興
舉
航
般
船
色
艾
节
花
苏
英
草
莫
莱
获
華
萨
萬
落
著
蒂
蒙
薩
藏
藝
蘇
蘭
處
號
行
術
街
衛
表
被
装
裝
製
西
要
見
規
視
親
觀
规
视
角
解
言
計
記
設
許
評
試
該
認
語
說
調
論
警
議
護
變
讓
计
认
议
记
许
论
设
该
语
说
调
象
負
責
資
質
賽
质
资
赛
走
起
超
越
足
路
身
車
軍
較
輯
轄
轉
车
转
辖
辦
达
过
运
近
还
这
进
连
迪
述
退
选
逐
這
通
速
造
連
進
遊
運
過
道
達
遭
選
還
邊
那
邦
郡
部
都
鄉
配
里
重
野
量
金
錄
鎮
鐵
铁
镇
長
长
門
開
間
關
门
问
间
队
防
阳
阿
附
际
陆
降
限
院
除
陳
陸
隆
隊
随
際
隨
雄
集
雙
離
雷
電
需
青
非
面
革
音
項
領
頭
題
類
项
领
题
風
风
飛
食
館
馆
首
香
馬
马
體
高
魚
鲁
黃
黄
黑
點
黨
龍
龙
（
）
，
：
；
##a
##t
##c
##h
##p
##r
##s
##e
##d
##i
##y
##7
##3
##0
##2
##9
##u
##g
##n
##l
##b
##m
##o
##v
##k
##5
##1
##6
##z
##x
##8
##4
##w
##f
##j
20
19
201
200
##00
10
##er
12
18
##an
199
##or
11
##on
##in
##ar
198
15
##en
##la
16
17
##at
194
197
##es
##al
14
13
##ic
195
196
##is
193
30
for
21
##mu
##it
##le
##he
25
2010
##mula
formula
2009
##am
##el
##ro
192
2011
##st
22
co
##il
2012
24
2013
##et
2016
##ion
23
##ac
2014
2015
2008
zh
##re
191
2001
the
##as
##ou
2017
2007
28
26
2018
2006
27
31
100
st
##ing
##nd
##ol
2005
##ed
##ch
29
##us
##ow
2000
50
in
##id
##ig
190
##ad
##ent
2019
ch
##ur
2004
40
of
##os
000
br
##om
##un
##iv
##ot
2003
##ir
##ia
##im
2002
##ec
35
##20
##ag
al
189
##000
60
##ation
##em
##um
##ter
##50
##od
##ay
00
32
##and
##ap
1999
1990
##ut
han
36
80
45
1998
33
de
and
##op
##oc
1997
70
188
##og
##ul
##ce
90
1980
##av
34
38
re
##th
##ie
##ers
187
1996
##10
ar
500
37
186
1994
##ab
1995
##ip
an
##ak
##ard
##ub
##19
1993
1992
com
##ov
##30
th
tw
39
1991
##ind
##48
sh
1950
##40
48
##ct
42
tr
55
1949
1970
##ik
46
sp
##ist
##ill
le
##ang
1988
##ine
75
1989
hk
te
on
300
hans
sa
1945
mar
47
un
##ud
43
1960
col
pro
##if
41
is
##est
##ok
65
##ob
44
##ra
1985
##80
49
52
ne
1986
##sp
64
56
##11
##ess
1987
##ba
1984
##na
##ell
185
##up
##ice
51
1982
1983
62
am
en
53
##ows
##all
##60
58
ap
##ss
wind
##ian
57
hd
54
##ive
at
##ack
con
1979
or
be
150
##bo
400
##ver
##art
you
1978
windows
ma
##ue
##21
##igh
##ant
to
180
##70
##ph
se
76
59
1981
go
##ge
63
##oh
##ity
##se
##ib
72
1946
73
85
##io
61
68
66
##ii
1958
##te
99
##ich
pr
fr
95
74
184
1920
##bs
##12
sc
ad
69
la
1930
##ong
88
ex
1948
1940
##lay
1975
##ate
ph
67
1937
120
##und
78
77
1956
1947
1000
1941
183
##ry
1976
179
##ta
##bc
98
##ts
1973
##uc
1972
##15
##25
97
1966
1955
1952
cn
79
##one
96
##16
600
##ix
##our
##ord
me
1974
##ly
##22
1977
##ne
1968
86
ac
##17
1954
1938
1964
as
1965
1939
##13
##18
83
87
800
1944
##ff
89
##ace
##ast
1971
1959
jr
84
##ft
##ber
93
cd
1969
##14
1957
##ect
##man
he
1942
##23
1967
bo
##ign
1953
nba
gr
##ah
##end
cl
cent
##24
1961
1935
we
##ore
05
1963
1962
1943
1936
ed
op
160
1951
##ug
##ort
sm
##ith
##ens
94
tv
178
ng
wh
id
##28
##26
##ma
##ust
##29
##iz
1933
##ps
##ies
2020
1927
it
##ire
##ock
##pe
06
##27
1928
##sh
##int
1931
09
ii
##ond
1932
##ux
sch
car
cod
bl
1934
play
sy
dv
##ight
##ick
##ert
inter
hant
gam
ge
07
08
110
cr
##ial
1929
177
##90
##ld
##ina
##ure
700
##ment
ht
par
mac
##son
joh
##ai
1912
lin
##ier
man
hr
ak
##ath
my
new
el
##35
04
130
140
dvd
##ory
dr
1925
##yle
1924
71
1919
wor
mo
##cl
1918
##ern
##ogle
164
158
##az
##xt
mv
google
##ee
ip
1926
av
03
82
250
81
##iss
170
pa
1922
mus
156
1914
ab
##ide
##span
center
175
ro
##so
##ish
##mm
92
157
##1900
##ton
sao
##anc
155
##ube
ag
1913
john
##ey
comp
##ary
ser
01
1917
3d
##36
##ational
1923
b1900
165
##ont
ist
lov
back
codice
1921
176
##ans
##aw
style
##age
1911
3000
##au
##ach
net
##33
105
em
ste
##cc
91
##round
dna
##are
168
sup
su
##38
##ung
met
##ile
166
colspan
sk
##ty
##ain
##34
istat
1900
##ann
159
no
##pl
##ass
##ank
1909
sil
154
##ite
us
##ime
##37
##rom
02
km
##iel
##amp
mic
##ium
im
per
125
101
one
##ost
##land
er
pc
now
##ction
all
106
1910
bar
align
pe
pl
104
108
##ground
##co
##per
bd
yout
##75
##tv
##ool
ngc
##ica
##lat
115
##ck
sn
ps
##ence
##99
900
##ivers
145
##ical
1905
1915
##old
##32
##ance
coun
##pr
1916
##ae
##ley
##iki
will
so
os
##station
##ere
background
##uk
1901
##39
##ase
fre
gre
128
##own
love
fl
cor
107
##act
color
135
playstation
##31
nh
1500
##for
youtube
5000
app
##book
mod
##ome
cp
##iam
gro
##45
1903
gen
##ash
ep
##gr
min
##ys
text
##66
118
ind
intern
127
sw
##ga
rob
gu
##tr
linux
167
live
mat
1906
##ara
med
1908
##ame
1907
mag
109
##ala
##ri
##ual
ic
micro
##les
360
##ml
univers
##tp
res
136
148
des
with
ev
1904
##ood
##km
silver
by
##sc
##ale
##ise
##af
##ins
149
##tc
dav
138
##ild
sou
##ict
face
##46
##ms
137
rec
##me
world
ty
mon
super
##eng
##ose
116
##enn
star
##hel
##ox
##ork
##b48
har
int
##47
bro
cla
gl
##ve
169
##ade
char
##ult
117
chr
##ower
##ony
fe
music
350
##lex
##gb
pet
mm
can
129
air
147
146
bla
her
##49
##ake
school
ib
##ward
1898
##stem
##olog
##42
126
1895
119
stud
##ata
1902
##ana
##ca
139
##oth
##yn
##ics
pol
##ald
iii
##box
##pt
web
sl
jo
##44
facebook
je
ua
str
##ink
mc
ir
part
##br
up
nor
ms
##we
##ha
##86
di
dis
##de
##ner
system
##du
ass
af
##soft
##va
che
##ax
po
dc
akb48
##mer
##be
sur
ra
##41
##ike
ver
##itt
4000
##asa
li
jav
##ls
red
##ille
##sa
##ode
bbc
##orn
102
high
##oci
jam
1890
220
ref
##dp
##ark
##tain
##ius
##ler
##ane
##icon
103
##ude
gn
mark
##roid
gir
del
##ited
inst
1896
##ous
##oo
##ster
##hz
##ep
##att
ele
##da
1200
##sk
hy
not
nowiki
eu
off
##ien
william
1897
microsoft
##eth
##43
##ition
##ream
##ouse
##ave
##dr
mr
##ement
ho
team
1899
a3
android
tvb
##yl
div
##fl
##ars
do
ter
##illa
val
et
are
sol
##55
enter
ss
iv
1889
group
colle
da
##pa
university
game
art
ec
240
international
##pm
##oph
nhk
cy
##oss
sec
pre
##to
##able
##ings
cap
act
show
111
cont
saint
##iro
wal
450
david
iso
##ek
##ject
sd
##rit
cm
##65
##work
##ene
ig
##ico
bu
##vel
##ons
##ari
##oll
pla
big
1860
open
comm
##77
##cr
112
bas
1880
1600
230
##cm
day
1894
ke
xbox
lo
geor
ca
christ
ce
that
ta
##88
210
tech
vi
mor
##let
##ound
du
1800
fin
##way
##ife
pop
##ino
eng
lim
##oun
mk
http
ang
##56
##ott
sam
##ena
##ael
cro
fa
war
1870
paul
280
##td
top
sim
fc
produ
tom
##sm
mich
113
from
national
max
county
kh
##uck
reg
1871
##era
##lo
pat
##ese
rich
##gh
black
6000
1885
don
114
##any
ber
##ield
time
##ng
city
rad
trans
bm
##net
games
##ism
##osh
mp
na
mer
##iver
##95
##85
ts
260
kn
##ron
##za
win
##by
amer
was
##ram
aut
ios
park
vis
##100
##ior
dj
##enc
ha
type
##po
##phone
##ero
il
robert
cal
##mb
lib
rock
##cd
##ya
org
power
bet
##87
tour
sing
inc
king
out
##itter
sal
##ute
##fc
##lin
##port
alex
james
ww
utc
##bur
1886
1892
1884
##ham
##ital
##ven
##aph
##ied
bill
##ble
ol
end
##ear
##79
sun
ga
##64
und
fir
##osa
jap
vol
bur
1888
java
##bl
oricon
class
##iff
cat
122
##pg
only
##89
##ubl
record
123
1887
##ke
750
1893
thom
320
san
ibm
##ex
##ology
jun
michael
fla
##200
##fa
cpu
rna
kar
121
iphone
##itch
ur
1876
##der
2500
##rol
##ution
##app
best
##ater
##ett
##ger
##out
cs
1861
##ka
270
est
ba
tur
1850
##ull
cre
tre
bel
spec
ef
techn
arm
##76
##inc
nat
hot
rom
##por
bre
205
ds
550
##eration
ben
124
##las
gdp
1883
1868
##go
she
boy
bi
1891
##96
##ors
serv
au
stre
mil
mi
dream
club
entertain
japan
##ily
fm
##ric
oh
fil
##ange
vo
mg
vir
sub
650
lam
##ral
entertainment
##78
arch
1862
##ini
jack
life
##ump
media
dan
sg
##ada
der
1848
fire
##clude
##58
1867
##mp
##line
1877
##ui
ul
twitter
1873
es
##fs
##59
hen
ok
##form
apple
1879
ant
kr
ve
##erson
##ipt
award
##ita
##ication
may
mont
1864
dd
van
rev
work
##ugh
1865
tim
1878
1875
152
house
##che
dist
lu
##rop
mart
1882
##ision
abc
1840
hol
pd
1881
8000
##bi
##51
bus
##berg
lou
line
road
##its
737
##bn
unix
##ated
132
##ora
dem
intel
first
##53
##wn
mel
1874
this
phil
richard
dire
ast
##68
good
college
associ
sir
##ano
144
##iew
george
330
hel
##undam
dec
7000
##61
nt
fam
west
adv
hall
si
##ula
##ection
gt
mem
les
acc
wii
##mun
##ho
inf
miss
##ator
1872
gar
py
##gin
##eral
sr
street
1863
##67
franc
##led
##57
##ij
##97
www
mad
if
##ama
ka
##ery
1400
mu
rem
##min
##xy
##ates
##98
133
cv
project
sky
mtv
cam
mid
ger
##include
fo
atp
led
land
##wan
pal
sum
metac
##ican
##ze
##uss
gp
##press
##ensis
1300
unic
ann
free
charles
134
1866
##ney
131
##ety
##xx
north
studio
wr
##ular
1869
rh
ram
ju
lang
256
##ateg
##52
env
##ista
html
##com
mob
over
sar
##ritic
gundam
ko
tc
##ions
pi
ever
gold
##bert
##ware
china
metacritic
jose
port
log
##ris
208
ob
kbs
ear
thomas
##ci
direct
peter
euro
141
ray
kg
##ani
south
sony
##unes
bs
380
mir
##itz
1830
records
wil
##ua
dou
##69
##ford
dig
your
1700
limited
##vin
##ason
grand
unicode
310
sci
bab
##ally
##ns
##mus
##54
##wa
##unt
long
ltd
##ren
pan
##ki
##ander
153
dom
law
lab
mov
but
1100
tem
##72
office
##ker
news
143
151
company
luc
1853
wid
f1
##ste
ah
sbs
##ents
1858
420
fun
##ope
mbc
mb
225
publ
##ville
209
##ella
290
370
aa
fi
mot
cur
##ds
real
form
1859
nasa
tor
##63
##idge
##62
##ester
sig
just
##73
##ny
ham
chin
##ues
##ja
##ura
##ush
##ball
##ady
cct
##74
nm
1854
east
ret
235
1857
tal
203
747
850
camp
##82
roy
az
214
##str
##ning
amd
173
mal
jon
##sch
nov
##orts
pp
202
##84
american
gnu
163
fer
##fe
##ative
instit
andre
##500
blue
lis
production
211
girls
api
340
##red
301
key
##li
nav
##71
##ther
##asc
who
ign
xp
alb
215
1856
batt
##ival
lee
mill
home
sant
soft
gh
##zz
post
hal
kong
soc
162
##agon
association
##81
song
chem
isbn
tou
cast
dos
##ih
elect
dl
hum
##ello
1851
girl
categ
##yo
##83
hong
##els
jul
cc
##ody
band
tai
##mann
480
##ling
network
green
##ko
onlyinclude
name
om
##94
1847
young
410
rap
von
206
far
bb
##pc
142
pres
cour
ova
itunes
leg
1855
ly
hs
##vid
ai
how
hor
##ocal
##91
207
171
nbc
doc
esp
gb
td
category
hist
inv
vict
##my
jean
##gram
##fer
ll
##101
204
ext
##93
champ
lar
##fr
ros
##gbt
##urch
tbs
##ips
two
heart
disc
town
##urus
gala
frank
bal
river
soci
##ague
##ipp
1852
430
221
bank
die
##lad
white
##ws
1841
##92
##use
sat
##ios
218
##ota
row
md
##gen
sv
172
hill
pag
usb
161
great
##gy
##erv
has
anim
##ets
state
##wood
##ids
mak
sin
stand
internet
##olf
##mi
1849
1846
cg
cbs
island
182
##ache
tro
##si
##no
##idae
wat
ut
223
bay
m19
width
book
distr
cctv
217
##obe
1844
rub
##lation
dh
##pp
##ira
under
1820
def
ceo
1815
##ison
238
alph
##cript
216
228
tar
bor
##ima
server
##uel
222
##ape
sen
night
181
united
core
174
##ats
cle
ice
joseph
1843
212
##ely
dev
##oy
commun
m1
10000
401
dar
rt
store
enviro
##ific
let
911
##uth
##ional
##ift
space
440
bon
##ucn
1845
##ree
##ops
1812
henry
##ough
213
db
cas
iucn
ot
ye
litt
cons
run
dep
bob
prof
men
way
tele
##a1
##ather
cry
ny
section
ti
rpg
##001
1814
1842
god
001
##board
##nal
manag
219
##field
tu
sel
pt
model
265
jac
u21
##oid
##isc
##ird
smith
pv
engine
##tps
##rich
hu
##ures
son
##ideo
cross
bit
expl
jump
ry
mas
spr
##azine
battle
##ural
vii
##oro
carl
##cher
##star
##edia
##ister
num
radio
##eee
264
##annel
1789
##atic
mobile
##esh
##ji
dm
jan
cha
##cs
255
party
ru
cho
https
church
control
var
390
crh
general
mur
##den
tok
gi
comic
275
##zy
plus
fox
arr
service
##uct
martin
league
lgbt
ze
##ida
fn
##ington
##rpm
rep
snh
ku
sports
louis
light
##well
magazine
jour
station
snh48
cf
mt
##lam
steam
365
460
box
##dy
pass
1792
ki
##aya
foot
bh
his
resear
online
jim
mit
cir
##ye
610
xml
mult
##raft
moun
m2
bad
little
##ato
wwe
pier
fest
child
720
305
conc
1835
##peg
muse
master
research
226
aug
aust
950
den
sand
sem
poly
640
##inal
lg
sound
like
tg
gal
asia
##eter
1832
mol
moz
##ple
560
##velop
set
3500
corpor
mary
224
##une
special
##ient
##cy
ins
junior
520
vs
##ette
plan
##ship
239
##ization
249
institute
##adem
bea
channel
##aga
229
777
ae
##cast
##ili
##hell
##uch
1793
kw
##asy
530
245
##acy
aw
1839
code
cu
##off
##ks
1821
##gan
234
prot
victor
540
##iana
325
have
##ky
1795
design
brit
##201
fran
marc
pac
##pi
program
glob
501
after
##gar
1824
##igo
visual
##ila
##thon
edward
society
word
308
##oney
low
232
##301
non
1838
small
ml
rd
680
pm
227
next
1836
tel
video
601
2021
develop
nam
tak
vista
##ider
1825
262
express
rs
580
##ni
asp
##orm
##ility
1801
2d
hbo
##ret
251
ieee
##ola
happ
att
maj
##ocket
1644
##burg
bou
##501
galaxy
##ces
##vent
ct
2022
htc
cin
down
fed
1806
data
##ona
final
more
ni
##yp
##cess
syn
470
hard
##ros
bec
jer
##400
spe
map
##ize
rog
1831
311
steph
fu
fal
1837
307
moon
##bit
mach
##olution
##bor
246
##win
mos
taiwan
9000
kir
scott
pala
second
found
nd
pay
233
mom
royal
dor
um
pu
get
science
chinese
##ogr
236
##aker
##rome
brown
##oto
##ago
level
asc
wa
##face
303
mozilla
620
630
francis
every
1833
##wor
build
angel
yu
##ness
##kg
323
suare
237
fly
mini
call
1810
254
285
##ations
union
peop
##stein
explor
cup
hom
1776
film
##arch
som
champion
##mat
##fox
place
3g
##oud
ax
bern
eb
##fo
##ender
aud
liv
what
##ency
pap
##och
242
eric
gov
ns
243
a1
315
adobe
pg
##ym
##ters
##max
##01
##ights
corporation
dam
vr
##ei
flash
ub
318
orig
510
had
wi
left
1834
1822
matt
338
technology
gra
##ao
241
802
1790
1826
mvp
ace
jt
sf
od
cit
660
york
252
263
1799
##vidia
960
m4
mix
248
1828
maria
pent
##force
nvidia
##iue
##iness
which
arts
##over
e3
gard
kl
##agram
##other
summer
digital
fif
vl
last
##row
firefox
##ume
253
christian
tam
258
card
##tl
244
daniel
hold
ren
247
266
1791
vers
##lor
##oe
arc
268
touch
1813
1829
chi
head
1804
ken
global
304
269
##aster
1823
bbs
rain
##vi
press
##sl
##ices
##ury
##ote
##601
beat
exp
978
hit
##res
312
1819
1818
##701
festival
b2
302
##ston
##col
##hd
273
again
cra
ri
sign
bat
cb
adam
operation
software
##cil
##bour
cnn
hand
618
social
##801
cell
hp
year
##ansp
231
psy
##anna
apg
##rie
276
europe
fact
nad
1816
1802
##flix
alexander
257
deb
277
bt
pos
##elle
##401
switch
uss
nu
wood
##umb
570
3ds
public
bc
gm
sav
1775
eg
##onom
295
##ascript
netflix
old
phone
fant
##zo
bey
pen
august
fx
##ika
1780
rail
xx
people
306
272
princ
football
gd
1794
series
286
viv
academ
circ
lady
##omb
386
point
yg
va
explorer
mah
astro
lond
296
1807
1796
4500
279
701
main
ker
pk
1805
hello
##zer
prem
were
##ias
##ges
cop
instagram
1650
dance
og
tan
management
##uter
district
2a
m3
yah
##iga
1750
1809
ash
820
278
billboard
langu
pur
767
ft
block
tcp
##ense
333
##ograph
four
##ible
journal
##ule
1803
fut
bf
np
##yr
2100
2400
375
python
bug
cw
gab
vel
1798
ipad
psp
##rick
1645
family
pagasa
490
emu
1808
fri
awards
water
##key
eff
vocal
force
357
perf
fair
288
298
field
##get
780
pin
rb
##ohc
299
1817
lat
335
meth
##nes
512
##ti
##tor
dark
hop
##kin
##ource
museum
kit
mcc
mun
wom
271
274
council
1788
imp
##gs
##men
gun
mess
gps
bir
##2000
##mar
##inger
1787
sab
##aven
din
259
train
##ident
mnet
nc
rod
bell
por
##hr
alf
dt
gall
rat
##vo
stad
385
ske
mike
ven
313
pdf
b1
dur
##lab
730
javascript
cult
ld
##uest
##kh
##600
319
710
its
##iko
central
ea
##t48
inform
earth
324
market
london
tn
##esis
670
chris
kon
mig
sor
1580
801
901
tvbs
uc
##jo
261
##oma
alt
centre
1592
well
anton
conn
ipod
zero
##rey
2600
frame
1783
##uke
ult
##play
##mon
ide
x86
sche
bud
rou
##mo
1550
arg
##rad
##cho
289
kill
sb
##awa
267
ja
##aka
281
stat
story
590
bul
##300
edition
basic
dun
##iy
round
say
##als
##day
284
friend
ay
328
leon
1568
##cept
757
andrew
##uit
##ines
287
album
309
999
link
ipv
beta
##osp
##vision
our
##je
316
##eta
283
282
##uz
lord
2300
fried
alpha
314
chan
589
they
293
jeff
human
##ful
##caa
sund
ent
1827
stan
kim
##ering
880
##ova
tit
##ania
345
begin
334
note
##mond
2200
760
##iter
drive
aaa
ath
rac
##mhz
317
lake
front
hi
pack
kiss
##cha
##con
##ami
359
transp
405
trip
php
meg
base
326
ten
331
dy
list
joe
830
321
bg
lum
##don
prop
prim
dragon
development
unit
systems
children
742
ncaa
##iii
##yt
327
355
mx
##isa
tra
dim
hay
322
3a
903
amaz
1080
##reg
russ
##heim
1582
secret
test
1811
fort
##car
##ader
soul
fel
tay
425
1553
appl
hiv
583
##lie
758
cook
ball
1570
1571
iec
##nam
407
educ
ia
kat
##ror
dest
kur
ls
wild
1770
##ueen
1648
there
##hs
##alth
##ember
gil
rfc
inn
exc
1583
ill
##anth
tex
const
oc
##kb
356
##ities
hat
zone
607
happy
ff
354
##bus
007
344
uk
##less
404
707
##ria
sport
sla
wond
count
beyond
fan
740
some
##una
fifa
cer
nar
##ves
anth
1777
rowspan
rp
prom
##bsd
pas
##ado
##uber
works
history
kde
lind
person
ple
##hp
921
##of
346
1565
organ
980
villa
##ating
atl
787
baby
##house
297
marie
dol
##anda
govern
las
##mail
##eck
1778
##ole
##ati
##esc
1784
860
690
emi
jyp
##aro
1640
prin
##itte
steve
840
sus
##olk
arth
465
ron
##oul
403
ie
lor
##ran
##elf
their
##ould
291
1661
##db
384
395
dal
621
america
ban
edge
smart
##uer
##uar
930
mass
1797
swe
tokyo
419
cab
virt
court
343
gla
##aris
329
business
##ban
u19
seed
solo
fall
math
start
##uri
three
810
fore
##athan
bmw
other
ted
##iger
saf
scr
spir
ey
got
kin
pot
##lish
s1
bridge
##iano
know
##gi
294
shar
shell
1521
beaut
352
samu
opt
770
caf
292
brand
##ument
dog
ton
diff
ghz
ske48
2030
##icle
##chen
1785
##chi
358
true
feat
profess
wta
336
448
process
add
chap
402
##utv
367
fac
nex
581
johnson
##nm
1760
555
1577
mmc
trav
1586
aven
hip
los
##sson
##ission
libr
dat
rose
##oon
525
conf
fbi
jay
kk
mik
function
right
##erm
##chan
stephen
2700
sea
1368
j2
jess
##urn
order
carol
philip
kan
##iti
alan
337
342
1646
yahoo
406
339
number
aim
tb
4g
dia
esc
870
rx
##itor
##anger
pierre
1a
vp
indust
502
415
break
lr
action
##800
505
548
##lect
##901
rot
cher
1786
cand
##ector
##sky
viutv
gpl
raw
s3
##ef
##anga
abd
##ious
619
bin
##kw
single
moh
##osaurus
stra
ern
language
a2
1781
485
dead
broad
take
##gl
##amin
tod
##pot
1636
347
track
phot
greg
speed
##rent
##ellow
970
boss
mpeg
##ece
bang
ring
##uin
1590
econom
a4
jud
##oli
information
standard
##lan
hotel
double
##untu
cinem
tab
##hi
sha
ess
side
##aki
austral
merc
refer
common
pow
states
##ski
ascii
##uv
##apt
##erty
##bar
academy
bag
##med
##ito
phys
imax
##bon
##erg
##ications
nr
anal
1st
cad
uh
##ming
1610
ruby
##sen
##700
foundation
kd
1622
##iva
hun
dyn
##mad
stage
##utc
williams
mhz
##hed
geforce
collection
virgin
fle
hon
351
348
times
british
920
eos
kenn
##war
##ots
##ief
see
1559
rf
ud
##yd
brt
education
plat
1723
1643
ale
jos
view
1680
rue
produce
fab
p2
1730
via
bac
##ants
1517
435
416
##elli
1763
kam
deep
where
simon
source
##atus
2800
353
427
985
eleven
##die
week
studios
access
arthur
ky
lv
##zi
also
santa
eth
25g
mytv
johann
sug
383
528
gw
hm
ross
1620
1628
most
mam
pun
##her
535
1683
voice
##n1
##mph
341
interact
bsd
rc
wolf
##head
332
##elly
1642
xm
##din
chen
magic
object
pict
##ogue
399
1562
kids
15000
when
flor
lost
ox
laur
jackson
nick
605
##ify
cba
##ments
major
nas
408
kal
socket
1625
398
625
sac
##par
##uf
jones
abs
civ
tower
wiki
cham
371
mp3
file
sta
##urs
361
nik
wall
##rot
409
albert
clark
1782
1772
lac
##kt
##esa
boys
gog
##dle
##dom
1660
chang
lte
sunday
##ved
387
##ante
940
##val
432
days
mba
rand
##iny
1547
gang
##vers
1511
##works
gon
##hor
366
1598
invest
tf
1556
910
css
lc
lp
nicon
t1
yes
1574
irt
apache
##gress
aff
sid
sars
opera
ped
t2
##olo
705
##ified
six
0x
cj
lot
sts
1662
tm
##ril
##wer
##anced
karl
511
fat
tun
##gn
396
division
gpu
##rix
##lah
377
790
blood
prince
ya
20000
1630
niconico
tony
##abeth
shine
into
gor
m16
wel
##light
##ois
##istr
lew
walter
rest
2025
theat
##ental
nec
##ects
1573
walk
golden
tt
reb
412
1779
##zen
never
computer
611
414
rel
368
nmb48
kt
506
virtual
##uy
##bra
##ove
than
3200
hero
u17
1621
ck
fish
made
yam
##change
556
417
418
about
925
sas
##bang
1560
1624
cosp
439
445
eva
surface
kle
make
cole
1774
emp
ddr
any
mind
1490
std
364
378
627
future
##ench
##usion
476
gear
1755
ala
##eri
graph
##iction
oct
##uan
##atory
##alk
talk
avenue
376
abb
georg
1634
iss
645
depart
tl
479
player
enc
sega
infin
electron
wonder
samuel
pix
##rough
389
##prise
##worth
aj
mand
pf
00utc
ccc
gc
1637
475
442
atr
pont
theory
455
426
library
bah
##kins
519
hx
io
mh
##iant
727
##issement
##cle
369
1649
english
bot
ci
1748
381
466
full
nico
ing
kab
388
bil
f4
1535
memor
cosplay
taip
1627
1720
508
443
1541
seven
ik
451
wo
chart
shad
##ists
518
##inae
lay
##utt
397
robin
magn
taylor
b9
1724
349
486
499
kevin
christoph
gem
kc
##uis
363
capital
cel
here
1629
428
lamb
vita
373
mars
a320
rade
1736
brian
nfl
##esco
423
hyd
mw
rr
453
422
european
stadium
ow
death
567
mega
method
##icus
552
433
js
1250
1529
617
generation
arrond
648
committe
711
aur
##ardo
639
board
eliz
arrondissement
372
413
chrome
##omo
##umi
890
contin
##ners
##vis
1631
framework
loc
pad
comb
990
patrick
jet
##zh
sex
1765
joy
dohc
##isk
362
##enger
pers
##back
sho
1585
##lis
1727
436
paris
parad
##ergy
1538
411
ubuntu
1616
509
##ides
907
715
lan
rn
##ete
622
area
services
dp
pak
##gam
stone
##ages
##ando
##ogen
##pson
five
1618
##ches
##oda
495
priv
##ological
##ount
721
825
cant
kom
##ali
533
radeon
kv
##view
##eld
457
##ocr
offic
transport
815
1740
rele
379
1771
1647
1769
717
dip
pb
pink
michel
##vet
606
mode
advance
##oni
blu
ps2
wilson
table
##ites
585
garden
df
##cp
1745
tri
hkt48
1651
metal
doug
wing
##uce
##uction
##bach
tgv
nac
##ten
655
movie
jacob
theatre
lie
nich
392
394
pit
5500
515
615
friedrich
haw
tot
529
4k
##mas
alice
454
1773
1762
pci
stop
424
##iance
anti
4a
lm
gs
1619
##uma
050
cz
##tern
committee
ric
1615
1735
926
won
##ray
##acle
374
438
very
mission
gsm
lav
##raw
lisp
aer
jenn
pse
##han
503
sher
549
1505
762
##eep
1493
pacific
g1
nok
nord
553
532
lisa
building
age
det
dir
1670
554
coll
modern
spring
dns
health
lucas
713
wave
##acs
secur
##ollow
taipei
mis
deut
1689
republ
cart
daw
him
12000
##inus
##het
##iller
431
##reme
6500
1502
1603
cube
##rod
458
468
women
bow
amp
##oho
s2
xe
been
roll
sap
393
534
watch
sweet
ali
1609
1757
usa
1487
original
hart
2023
##aria
3600
537
575
bmt
wik
1450
##illy
447
a330
805
smk
pia
pasc
##ives
1545
##action
mrna
vv
##fri
stor
anne
come
538
ati
bes
fd
fda
ix
kb
504
1667
pentium
jar
mes
1725
vocaloid
alfred
dynam
jp
##wh
##ido
429
##ways
concert
##bourg
##vey
##ken
##arm
hyp
1370
614
1688
1544
resp
ost
##ulat
551
##ification
obs
rab
##ori
##leg
##iron
536
freder
##ences
1623
tvn
gene
gamespot
##cf
494
valley
712
bour
money
576
1578
c1
1635
604
marsh
fred
##tdown
portable
523
675
##mes
##ols
##ige
active
auto
716
hyper
lud
##v2
421
531
carr
1764
lem
1050
##iday
fs
vt
522
545
stars
##helm
718
tas
1466
ara
2nd
##bre
##mal
##eland
inte
sail
565
1759
##uki
mount
fast
jason
vit
##rd
##mg
437
547
4d
dx
##hard
1728
391
##ucle
review
g4
wester
##ht
body
gate
hell
##stic
##oke
1768
archive
##oom
1260
1150
shop
##bro
##ians
espn
mut
##case
##har
452
##109
765
1752
ville
##nie
##ils
1756
1659
index
harris
##03
1733
anna
626
ps3
autom
lcd
##yan
##uen
##lon
##stal
382
think
546
gnome
roger
918
472
624
1569
1758
1652
507
brad
energy
632
species
g3
kid
##ature
thr
962
perl
fantasy
lewis
929
658
524
1601
fami
##uro
##nel
557
oper
v8
smap
lyn
tell
##oper
acid
harry
poem
fern
##air
exper
struct
cia
##self
relat
516
termin
##time
##iers
1632
##otion
586
1664
barb
lock
##380
1729
7500
countdown
fem
gas
603
755
mathe
castle
bp
case
pic
##down
444
527
561
1654
1457
ek
##asia
##omy
467
ital
blog
complex
msn
912
npc
##yer
##etta
##ulu
1604
freed
look
rol
667
adhd
##ancy
did
rib
##sd
##aver
neo
##endo
cut
nin
cost
march
##ether
456
being
##scape
planet
version
dre
spect
496
snow
differ
bol
577
1655
719
bart
e5
kap
1613
544
684
ccd
sak
492
anthony
pascal
vip
1638
##ione
##ading
arn
1567
##ennis
juan
714
##oi
cos
493
1572
hur
nan
pra
wong
464
596
1584
1701
##peria
915
food
##can
1540
##ande
568
cath
k2
u20
1626
634
487
498
628
668
hein
1767
1684
machine
nokia
cash
##uart
1614
484
651
446
598
636
##ized
##tran
1369
ryan
b9tl
fis
t3
##oa
441
season
969
##mark
trib
enterprise
christopher
c4
gib
vcd
xi
##aa
avex
davis
commission
holdings
interactive
hosp
nig
##len
1721
alg
##inder
559
541
612
alexand
##py
1350
gamec
k11
path
zen
1713
##atan
731
dk
f2
vent
629
orient
1595
classic
748
fro
ful
nak
rank
ufo
##rt
1526
report
ans
short
##tex
1478
engineering
hms
mn
sud
1589
bigbang
histor
ipv6
818
xperia
1612
andr
1751
1575
c2
kore
3166
metro
cav
hub
tap
##a2
##thers
483
434
936
##intosh
miller
elizabeth
923
mort
sens
##ced
##pur
905
482
489
477
449
1754
wilhelm
##fly
562
973
archit
ois
tag
##alis
751
863
based
rud
##bers
##elo
##oche
616
685
704
##ifi
666
gord
past
tang
vor
##pro
product
calif
tnt
department
e2
rick
##rum
756
635
1561
jane
1280
##olic
759
514
step
1469
directx
813
##imo
706
through
##ension
cx
wash
##icip
##itan
602
471
1766
showcase
memory
826
bun
u2
zip
1639
arena
spot
lev
526
517
587
681
das
##uad
##onic
478
##berry
room
1658
1761
tog
558
539
613
876
1753
piece
pseud
597
682
amazon
californ
812
lap
yosh
623
##bury
821
jas
oly
rg
vin
##yth
609
3300
469
government
kel
##hen
##dc
1690
tea
##ifer
573
allen
perfect
diam
dash
vic
##sche
927
ling
nk
##dm
##osph
isa
571
mail
macos
1707
advanced
howard
823
##rian
##ev
1732
atom
1587
victoria
3c
914
oce
pip
sad
##arc
gamer
1685
811
##music
##ference
1520
1496
pga
vinc
1475
##ential
brun
##agar
itv
##azz
1593
mall
nl
##iment
459
need
563
997
945
peace
hospital
hem
lad
storm
521
975
gram
##scr
2k
817
928
ble
##cat
##02
1524
then
twins
sain
imag
universal
vhs
##odon
488
637
638
1607
feel
effect
816
##di
shin
gran
##anny
ultra
cis
pul
1710
##ente
turbo
eug
##hal
##dit
##3d
##uid
1726
574
hey
4x
hab
mou
##bell
##ones
1718
497
formation
industr
948
d1
##onia
##ales
1460
656
588
gaon
lag
1717
##cht
symb
nic
r2
1611
1737
725
735
775
1555
vision
natural
572
##arts
catal
bios
revolution
rca
##hip
##bow
1530
708
543
688
##ours
polit
matthe
nob
##asure
youtuber
1453
mountain
western
gamecube
824
919
1130
##enz
579
686
edu
attack
##lev
463
542
atm
scope
1588
studies
lun
##mw
1430
##ads
##eman
dear
582
exile
roman
nucle
xf
1532
1633
1675
1715
1380
##hedr
##imate
643
1657
nap
pw
##iac
1525
986
1454
princip
4c
dsp
hack
k1
##do
702
965
cycl
##iner
461
france
796
barr
1679
khan
d2
pon
##ination
1523
1738
##epend
triple
bos
cass
gary
lion
##uant
##atch
908
474
649
1681
1666
nova
local
nv
nf
ral
rim
ther
##uda
578
768
prime
937
1481
000rpm
608
002
971
antonio
5a
kick
tp
##gu
##kn
1714
1734
1747
808
1591
match
##haus
championship
kad
722
##under
1492
security
1731
##ysis
h1
m5
m18
ncc
ras
want
##fore
902
1581
1653
donald
ks
wm
xl
##fan
1514
andy
996
698
888
##ancer
independ
olymp
819
bj
mond
sent
wc
1722
569
dlc
dick
xiii
##3c
contr
##sey
1641
##ucky
##ogo
657
self
lt
m60
tat
##ype
##bu
709
659
761
689
naver
california
828
a5
hud
kind
##ilton
##ulus
473
1564
pear
plaza
k10
ria
wu
cool
##acter
cond
1672
airport
##oshi
ghost
bak
hav
1739
##ross
481
595
661
875
johnny
km2
command
1742
947
epic
mater
logo
carlos
822
bord
##craft
1699
intell
1697
singap
moham
##wick
1234
004
commer
633
886
##bridge
forever
hl
pod
sie
##cff
642
785
macintosh
imper
premium
ez
gig
wp
##wart
##mur
513
951
civil
1744
##agne
687
tree
treat
924
dual
##ulation
##bb
##itive
25000
593
738
grav
living
hxd
dub
lip
pel
penn
##olis
another
shir
1605
1709
support
dn
lic
##iful
641
564
openg
1665
fate
##istry
653
644
662
1563
middle
years
francisco
827
913
kay
mf
page
##aux
##df
orange
beh
741
692
asian
medium
##ienne
##ography
b3
dw
lil
##gas
##mc
cosm
prote
020
bass
hugh
ug
2024
676
perfor
ferr
against
friends
m11
1602
army
dreamcast
dota
etc
put
##lass
1749
1415
lear
957
azure
##zzo
ach
##lim
anderson
ange
594
798
dave
a380
democr
integr
easy
fp
##lav
1001
##istic
491
646
584
cdma
medical
television
ccccff
sailor
h5
pn
##uick
##greg
683
##tech
979
1669
##ween
fit
follow
##gie
1536
1741
##agen
652
1576
1673
legend
##lection
##edy
these
margar
image
community
country
atlant
jal
use
wang
##een
maur
##ashi
sams
##office
kent
occ
sed
806
754
647
955
829
hope
##lu
##more
##anch
1180
1127
##icular
trust
729
##oster
freebsd
songs
jag
jord
r1
whe
##orf
566
exchange
##uster
guy
lamigo
singapore
917
bom
hg
jes
sul
orch
726
giov
bing
tax
1230
##aru
##ening
##icy
##iph
845
938
d3
kol
oz
pil
bruce
monster
viii
honey
ris
sz
##orph
##itude
teau
881
933
labor
pictures
eye
fur
josh
m6
vf
canada
palm
audio
debian
village
mathemat
##uff
##uary
##vc
##aku
ident
1542
gaga
l1
nit
rm
wan
1537
shah
##space
whit
jimmy
848
1519
##aco
window
exe
exo
raid
delta
walker
gaz
##tz
coco
809
spin
855
995
981
1558
winter
spirit
##script
916
1617
##odes
seu
968
935
1599
author
urban
german
wright
eyes
010
##erts
##angel
592
admin
temple
fund
kp
tet
##aten
##oca
##ards
leo
30000
599
669
745
lambda
nation
1024
1522
##stone
##ilog
change
##uto
##phal
1687
##world
gent
kelly
##pent
##lete
1674
demo
culture
republic
gordon
922
e4
must
netscape
1597
1676
##point
bed
##rid
904
motor
012
benn
ner
ober
u18
##iation
##enberg
1435
##stra
784
976
835
843
flo
nature
ian
1220
1527
1712
##ische
##igan
##adi
##iri
##estra
evolution
texas
##bf
934
partners
factory
nem
ster
771
cloud
1606
hunter
ocean
za
##town
##rence
##eno
toy
sevent
gray
1566
1656
between
benj
beautiful
cec
d4
ji
kara
yellow
cover
724
732
695
885
root
##anni
flight
activ
perfume
gay
kai
lh
wars
##met
##overy
conference
beau
678
1371
blackp
frederick
matthew
5g
gy
##gio
##bis
1746
forest
25t
3800
seg
733
781
1579
sdk
environ
morn
1440
803
766
score
jacues
opengl
samsung
4b
hug
imm
sj
sle
##wd
##chester
url
midi
##atherine
814
bomb
##rin
##ras
##mund
search
882
idol
flow
##othy
president
px
v6
##reis
stay
##thing
cert
jpeg
kun
nom
ws
wol
xt
xy
##hn
##e1
1510
##stad
##inton
plc
grow
medic
1472
015
##anne
1711
##phy
699
887
used
ibn
financ
v2
ward
1508
786
boot
##ittor
016
ein
ges
iu
iw
lf
nn
##ress
##wig
##lace
##usa
##iah
##emy
scien
691
moore
1702
alliance
daily
bert
kot
mate
would
703
display
e6
fight
##rov
##reen
462
amb
beach
998
scar
939
plant
brook
princess
douglas
architect
bird
oem
vc
679
1464
transform
hz
u23
wanna
1512
##eless
repr
apm
acp
842
1276
sarah
shinee
them
chu
syl
canon
turn
creek
025
wifi
##05
ark
malay
763
788
agency
morris
henri
ej
host
1534
##hem
##ules
prov
728
663
783
kingdom
remix
books
russell
bn
appro
jonathan
tin
003
before
672
988
865
1703
such
gui
technolog
professional
a6
eh
##bol
incl
1663
valve
bis
hc
iz
1010
twice
neg
591
acg
christmas
creative
iup
uv
uf
##iler
trade
897
advent
diamond
wise
1719
1499
##ovi
amx
961
846
1682
1668
##uka
brothers
iron
skype
electric
psych
##bw
1528
743
982
noinclude
rece
benjamin
k5
kor
l2
nint
obe
wy
##bes
1040
1420
##itar
673
792
895
##pal
##riel
##ability
##oker
883
solid
premier
blackpink
aba
xxx
##1000
1070
##emb
906
##izon
1277
hydro
bib
mul
##bird
1340
##edd
804
1506
mast
794
1552
pixel
hir
coup
909
952
889
862
##ired
1705
administr
jak
##put
##mum
##imi
alc
youth
##aceae
##mance
ipa
bw
lon
##rs
##ju
1275
##iser
trin
constr
723
smile
without
earl
030
gill
h2
pav
##nik
1125
ford
still
967
moment
powers
ee
1390
665
877
##onda
synd
##ample
publish
jtbc
memorial
together
g2
gust
1330
##rah
heaven
##aha
billy
southern
vari
##uil
##feld
1516
1513
##otte
proble
852
779
864
052
cris
akb
psv
berg
franz
bernard
washington
m24
soph
tib
##idi
thunder
677
838
##roll
lumia
##su
##band
thor
752
##ibili
664
874
1546
spacex
crh380
born
ips
sit
##cus
##oft
##fort
898
1596
total
bish
dod
fw
vice
##imp
##aba
lex
696
##ains
user
1451
1678
080
gym
k8
wow
##uld
april
631
744
693
1557
oliver
cub
dut
##nh
##aron
saw
virginia
bilibili
freedom
a8
gur
nel
##ser
##dh
##900
807
753
8500
892
##shop
distrib
environment
b7
c3
lux
nts
tma
yo
##hol
1011
##amo
##abe
4800
select
956
694
946
minor
charl
crystal
intellig
ue
##kir
851
1543
municip
morning
nintendo
nike
##rat
##jan
##ador
grad
grace
1554
study
sigma
fig
vm
##cer
##iu
##mod
1716
##eller
789
buff
present
late
mother
##sy
##eron
##lag
005
3700
##oko
654
847
ntt
primary
analysis
jin
pom
rif
sang
2050
shot
769
crit
england
sciences
3m
a7
m8
1170
1548
chic
##iae
trax
spy
943
lovel
1594
1445
1320
coff
##105
959
958
##lands
1382
dll
abdul
bod
bond
xc
##hai
##9e
##kan
1433
stock
006
prod
french
972
869
##ende
snap
1691
della
bobby
staff
technologies
tz
vill
1270
rex
##rain
1704
##lines
movement
origin
margaret
pir
987
983
833
931
1692
belie
019
##kar
1240
##ema
896
##anche
1066
value
utf
ground
ming
rio
764
993
guide
1694
police
cafe
material
dsm
rig
wir
##bank
##zza
1533
##osoph
##emi
##ocus
797
sncf
graham
rainbow
iata
kec
tiger
v1
1030
1480
adm
exec
831
942
1686
charlie
lawrence
candy
jb
oak
shel
##08
##0000
1442
lead
columb
746
scot
697
866
891
841
thompson
running
hid
##alo
839
worms
1385
factor
performance
jordan
financial
give
p22
##ience
cot
##illon
typ
justin
productions
p2p
013
mong
tolk
##px
25k
bra
736
aks
norman
terr
##color
velvet
giovanni
ei
lane
rgb
##base
1190
1515
##aca
dean
teen
amc
734
782
1608
steven
1278
tommy
##vention
ipv4
jd
mile
u16
##gate
brig
4200
992
roberts
away
##wc
##oria
chun
reich
care
baron
1696
tk
##iod
1743
1360
954
phill
776
##uality
hamilton
messenger
cann
e1
haz
rid
##hib
##wr
977
963
1693
deutsch
sainte
tolkien
cem
##04
##lock
1140
chung
aps
795
944
emb
universit
doctor
federation
destiny
later
##hl
##osis
##107
##106
why
1404
oliv
##ledge
promotion
674
century
941
1708
1549
cyber
clear
multi
application
eag
fb
jst
pick
pure
##hu
1470
##aps
1204
ifpi
##friend
017
cbe
e23
rights
tol
##ario
##ilia
##ipe
1403
jew
scheme
bam
keep
less
lant
nb
vb
1129
##omi
arab
##uez
899
844
932
grant
1279
bmg
justice
vvv
jung
mack
wn
##alle
774
894
maker
multip
organization
references
buck
duke
nut
ping
##x2
1135
##203
3400
read
third
symph
dram
1376
upd
rapper
gabriel
hend
nine
zu
coast
##asi
##103
thing
provid
854
phen
milit
northern
return
##ythm
font
nag
null
tls
##06
##gg
##116
1706
kitty
iupac
060
both
##orum
choc
##omet
##owski
ps4
travel
broadcast
k7
##lac
##room
749
clos
gener
1677
##brid
poin
railway
connect
##hedral
dag
roc
sib
yang
##ring
##bal
##wo
1448
40000
989
868
while
legacy
nexus
observ
bull
dz
echo
hunt
j1
kil
##avi
tru
964
832
878
893
metrop
check
korea
ctv
mang
s4
##side
##log
2900
984
791
release
070
f3
kath
mck
tes
##07
##gon
theod
dei
##104
pret
671
778
##cloud
1392
luis
animation
craig
today
electronic
yoshiki
hob
k6
lak
tec
##ben
1214
991
1206
1551
scient
motion
half
beauty
private
jen
yak
##tion
##iles
ship
prize
meet
flower
##ska
holly
gogoro
robinson
040
3rd
1539
leop
884
jerry
flying
cum
dennis
own
wool
xen
##rh
##illo
event
##oen
50000
shaw
saab
sever
799
1406
extra
australia
kaz
wish
##char
##102
atv
858
849
artist
gallery
jk
rip
raf
sohc
vogue
##lar
1120
##eda
ansi
isp
974
corp
1695
much
find
glad
nim
tong
##rus
##dn
##yon
1138
##vert
853
veh
palazzo
vpn
amu
koh
rk
##a3
##omer
##tha
concept
739
836
philosoph
million
sense
shadow
lovelive
nes
pie
1215
##ava
oracle
867
icao
early
ecl
k3
pocket
sod
1225
##ended
personal
h5n1
dise
gmail
ov
##pos
##edo
##eder
chall
##boy
ads
clar
element
keith
campbell
emule
011
lif
grande
discovery
otto
##iven
hang
1509
857
859
##shire
calc
crazy
fine
ich
mud
sip
##hy
##ping
1413
chrom
772
873
1388
animax
protoc
heinrich
gg
gf
hb
wer
##bat
3100
##igen
thre
##ahl
##idea
normal
raj
cathedral
tow
1020
1375
##sta
##irus
india
guard
1671
circle
excel
1b
2b
drop
udp
1439
994
837
872
suite
swing
domin
kj
##isch
chief
deg
beast
879
##shine
1407
comput
grey
bund
##zj
1060
##late
##ede
##uli
ana
##osaur
retrie
fib
node
ran
suc
##ru
##amatan
##oux
stream
compet
1498
a340
crown
senior
ernest
kenneth
sugar
empire
2m
bald
dg
fg
horn
jur
tum
##pie
##dl
1328
##ipedia
marine
sept
##iza
drama
stewart
simple
kecamatan
rw
ui
x1
##mit
##jet
1290
1399
atc
sco
949
1356
magnet
structure
lz
colon
prest
773
793
1494
afi
ntfs
annivers
aid
bent
fia
fra
nx
sata
tau
1531
1412
1425
##rys
character
winner
bgcolor
duc
gap
hag
liter
##eb
##yes
##nar
##stream
brain
##ecraft
trna
##oku
basil
shoot
municipal
gul
k9
vie
##king
1219
anime
phi
param
1698
aircraft
ivan
cmos
rockstar
powerpc
training
economic
ralph
hudson
includ
manga
ole
##yu
##kit
##etic
##opter
##iste
clo
1067
strong
instr
woman
nathan
yf
1421
1449
chand
##oki
1504
ultr
1d
around
o2
sis
##pan
1137
##chin
shang
spl
1295
anniversary
jis
ome
vas
##fun
##anus
1160
##ilis
##olla
##ighter
856
barry
june
aux
ela
gith
1424
1501
maz
##aza
##wiki
##enti
ens
966
imdb
films
draw
tank
##mel
##wal
1016
sti
1503
crist
many
hybrid
faith
visa
flag
github
018
g5
rer
site
tob
writ
zn
##set
##nell
amy
stein
salv
melon
seventeen
f6
hh
kas
mta
1518
##mul
##lec
##owa
##ipse
appe
mechan
051
aggreg
epis
1364
stanley
got7
continu
bog
baker
risc
sult
vh
fortran
953
example
m1911
communications
hide
sse
soho
##imes
##ango
berlin
logic
lucasarts
riv
##ares
##eca
##enson
psr
strateg
raymond
yourself
toul
paper
1f
fav
gmb
##elin
##etz
prix
larry
professor
ernst
2te
bapt
d5
kamp
pub
ufc
1110
chal
tee
871
1394
dup
lod
rus
rah
shock
heat
##ances
crh2
signal
titan
canton
vincent
ces
noth
rate
1211
1224
1507
gren
1402
suica
region
conserv
during
csm
msc
tir
tard
##uh
##fish
init
##esta
ade
ssl
captain
knight
hills
##uther
ptt
cord
jazz
ktv
rin
race
##ail
1115
##arn
forum
##tek
phase
834
smack
1409
##386
nhl
sonic
marcus
bishop
lb
rush
wes
w3c
##mers
##mont
##aser
##unch
heav
carter
holy
each
roth
wake
##pin
try
agm
canad
afr
##utions
rhythm
nab
range
tx
vik
##gel
unt
myster
bae
##fire
alive
##asha
sunshine
gangan
independent
048
4e
dab
nog
pant
sold
vac
wto
##the
##iya
##ket
1213
1111
##aman
arms
500rpm
butter
islands
mlb
repres
8b
sung
##wald
1333
##imax
##uta
##oka
053
emba
sns
terry
greatest
gmbh
bk
len
##lich
1099
1210
1122
##ilo
##ogn
##ourt
##izer
complete
1185
1471
herbert
dreams
pedro
aub
gly
size
1428
always
##aste
interface
##plus
html5
doll
pand
utr
vern
##rac
11000
##news
griff
monte
bust
bure
cust
lanc
ou
pid
##ku
##amer
theater
##ims
5200
schm
morgan
communication
b6
cbc
g8
jc
jab
lia
tact
##card
1217
1126
##isy
##itation
##ased
insp
##uring
spark
price
861
rule
safari
gonz
hed
##cal
##olas
1075
1227
##orp
1438
cooper
054
transit
wait
##ittorrent
architecture
hut
sister
##kreis
cow
##ovich
pep
loop
lit
##pet
##sia
##uve
##inary
1429
friday
minister
matrix
innov
dawn
era
llo
##cin
##pat
1025
##olar
##ades
##iola
##fff
evangel
cele
document
alphago
aeg
gregory
hung
kos
m7
sbl
xd
##a4
##gp
##khz
##sten
stem
too
##sea
##123
laura
##tains
bloom
1274
assist
##opsis
manager
eclipse
smackdown
dot
same
vector
##onne
##apa
##108
sph
mysl
graphics
chicago
tig
##orus
##enge
##roph
sean
opens
itu
minecraft
1497
mrs
solaris
cgi
chiang
cinemasc
1266
##inn
##ined
ald
altern
1405
1253
genie
1161
1265
joint
wasp
federal
jessica
retrieved
represent
dong
fusion
gian
kink
sos
1410
cheng
1495
warren
##etti
helen
someth
ludwig
hou
lite
##nic
##link
##elia
##eco
##ahn
1374
cultural
022
2g
aes
pled
wit
##come
1216
##last
##eler
cox
##aci
##ingen
progress
bear
ngo
content
dsi
ikon
roh
rise
##ration
##lr
1414
##roy
##chu
##aby
##ession
1488
1387
1381
1465
wwf
nato
leonard
nelson
aac
d9
hus
nfc
##nn
##vest
##wich
include
conso
macbook
estate
eastern
cfm
foreign
platform
wikipedia
3b
flat
kaw
wald
##iot
##jects
1018
1229
##onna
##enet
##lap
alm
ari
thank
truth
##ichi
myspace
ultimate
oxford
official
medicine
024
bittorrent
clay
zf
##cent
##dale
1123
1002
##izen
##issa
abu
indian
help
glass
datab
learning
d7
kf
nds
1235
chain
brav
ard
shift
uni
ats
genesis
airlines
1476
cherry
australian
industrial
sultan
flex
mpa
wz
1116
##eli
##etf
009
##opa
drm
##auer
suv
suz
peak
oscar
claude
joey
afric
devil
birth
amazing
jf
nct
voc
vall
1119
##stand
##edes
##ived
##enda
serge
lovely
1189
1367
mcg
disney
better
howe
choice
palace
b12
fash
rl
xii
##rik
##gins
##kv
1236
1241
1004
alp
congress
cnbc
##igny
##ensen
1086
students
verd
ssd
route
investment
nicholas
piazza
035
bott
danny
ftp
sag
##ieu
neil
beats
pew
1155
liu
lotus
bahn
vvvf
protocol
eld
gan
gob
gcc
nano
##aj
##gro
4400
neu
##ugg
1351
##flow
transfer
domain
current
lig
xb
yan
1418
theor
##olin
4700
##iform
##ength
athlon
believe
pledis
2s
e7
ion
kala
nod
pam
##tes
##pad
##vm
##kov
##asis
##umont
##iev
teach
bee
1208
blues
intro
viet
virus
ddg
llc
large
different
ced
focus
kum
m9
ment
m14
tsh
##gun
1139
13000
4300
pri
elf
stev
universe
move
victory
rodr
coffee
bai
buk
fh
nou
nos
nancy
rosa
xv
zo
##ea
##enu
##itas
spac
##izz
allmusic
gross
swift
francesco
letter
aggregate
cinemascore
g6
jh
##tb
1329
##olitan
share
laugh
##anco
1271
1485
openoffice
eif
hf
kings
tj
##ez
1218
1128
##lem
##eline
alber
##apur
##ardi
##113
1377
assemb
maxim
##blue
karen
rogers
affair
dipl
marshall
symbian
military
disease
014
jum
p1
p4
vog
1221
##alia
##ilus
##eto
1358
1162
valent
##look
krist
mirror
temp
safety
infinite
update
eco
ih
tiff
ups
##rup
##vd
##via
1141
##arin
##etal
##imir
comics
shield
parl
elle
1153
1372
1391
fuj
constit
episode
fellow
hin
sx
sdr
1419
1444
##idas
##ivan
hdmi
1373
1477
philipp
rrna
orchestra
something
mant
rum
raz
rout
##rise
##wi
1048
1118
0001
##iman
alone
anders
adrian
##orton
1044
1397
csi
defense
barbara
gamerank
4s
dial
fung
rang
vre
woo
1035
16000
1427
##outh
##iden
near
1285
##vais
##itions
caen
##uchus
ebay
ericsson
venus
frontier
cinema
klein
gamerankings
kang
pdp
##09
##body
##water
1226
##orpg
chies
##iral
ready
##ipop
thumb
##ober
mala
pract
close
steel
##type
1282
1482
policy
##yll
bmp
##bye
parker
kirk
021
aus
aaron
dro
lob
ntv
tsa
##cia
18000
1348
##ivity
eddie
1283
eagle
bureau
kern
nur
uci
##bas
##enburg
1314
##ams
react
##raf
phd
##berger
centro
avbw
1258
1071
1362
feed
temper
crypt
austin
synth
rachel
protein
eid
wav
expo
1207
##km2
maxi
berry
ets
pda
poss
##ises
##etch
##osc
##omon
##othe
dee
##uced
1073
higher
argent
##v240
##stadt
oro
1019
1131
008
##andal
drum
driver
039
1281
##former
gaud
belle
susan
fashion
2pm
job
rpm
vlad
##bel
##aton
1436
##olia
syd
mans
1408
mmorpg
simula
adams
fleet
##where
chiesa
loll
mim
vy
wiz
##ppm
##bot
##jang
1175
1147
1142
##utive
rein
##117
##115
093
090
elli
iptv
##pler
1456
evans
1389
1461
landkreis
wrc
cbd
1080p
lantis
vehicle
b4
mers
mama
nerv
pok
uri
1013
##orrow
##ono
##itis
twin
geo
emil
a300
montb
course
ott
murray
m240
constant
bio
danc
gba
mine
chick
##uts
##ieux
snk
1467
1398
##bras
surv
singh
fnc
kkbox
lloyd
gk
ppm
rome
zim
2026
1017
initi
chat
bright
4600
##111
frs
##ships
1187
canal
melody
varia
beca
everything
paradise
shanghai
dock
kok
vert
##kel
1124
1324
##ternal
apec
##ucci
1259
##track
monkey
relig
syndrome
029
dio
ietf
oss
wend
##vs
1014
1238
1121
##arth
1416
1005
##abi
##uba
phoen
056
emacs
1072
1183
1192
a350
director
animal
because
cet
dome
naz
pbs
wah
##gir
1233
1337
##road
stuart
##emon
1455
1284
1264
##epp
duo
turner
bgm
##html
dic
diction
gau
kem
##yg
##120
##fur
1366
##lee
reaction
trig
leed
amiga
##ibility
065
para
manuel
afl
georges
cctld
boulev
chamber
hollywood
b8
e8
hil
hipp
jor
sic
sist
x2
##dal
##nas
##ving
1411
spa
selection
extr
1101
1307
abl
1257
1085
##itional
libre
alexa
gtk
member
lucky
oil
tac
uber
##gest
##etime
convention
##126
##ffic
suad
1365
1483
regional
technical
julia
cells
reference
028
igbt
kra
vod
##nt
1134
1346
##204
##307
orth
laz
mev
##ective
carn
perry
1355
bye
1468
reddit
pred
tomorrow
beck
6a
c5
dft
nest
##eh
1223
##atar
14000
##iche
##ocy
things
though
boom
067
stefan
1252
pcr
harold
liberty
japanese
jeremy
dak
dbc
hap
rhe
sut
##hot
##van
##inum
1322
1336
##urance
##ivo
##abad
##ovan
##icket
robot
camera
lyc
nuclear
cemet
boulevard
cort
ves
wide
##low
2040
1248
1246
##uru
alto
##andro
##190
##ibus
##text
fresh
photo
1054
1157
1452
eve
1378
1297
1395
upper
astron
account
bala
catherine
eun
emm
gis
kla
k12
l3
wb
##rell
##uent
##lia
1034
1113
1143
1441
forward
##utes
sax
1103
emd
1287
guid
piet
racing
##diepie
layer
imperial
cemetery
chel
fk
hash
rag
rup
ssh
1228
##istics
colin
going
pride
ask
ella
import
##formula
medal
trinity
distribution
database
pewdiepie
hog
lons
##aign
##erd
1231
1437
seba
ada
1205
##iley
hermann
1261
crow
cvt
curt
arnold
columbia
aver
danger
fell
fighter
k13
nand
##enne
##ikh
5600
newton
1308
1484
sunrise
volume
1m
lily
vul
##chell
##var
1232
##ires
said
lai
##layer
1291
cyan
label
tonight
philippe
georgia
infinity
problem
console
aero
kop
khz
ln
mj
nj
pps
trop
1199
##ished
##mut
could
agent
##ampa
mono
1194
survey
##burn
momo
fisher
nothing
eur
jj
kak
pfa
rv
##uation
1114
1132
1313
1335
##ised
1008
trad
mario
##onex
mean
044
compos
barc
claud
device
miguel
##icularia
2c
cald
eso
fps
gav
hour
pig
t4
tah
##erve
##onse
1417
1323
##isi
##sport
ipo
1156
1396
tournam
##borough
h1n1
riaa
toulouse
023
cern
gol
muk
sans
vick
wag
##uet
##eni
1443
1325
##ilt
##202
##rypt
macro
macau
1042
counter
1167
sales
posix
bullet
gj
peng
##aur
##mah
1037
##amoo
stern
##eme
##oga
##305
dvb
drag
1076
1363
##load
watson
secretary
maurice
celebr
ao
cable
ere
nations
rak
1349
##idt
##umn
##apy
cold
6400
##phi
print
geoff
1107
agre
1286
working
profile
inside
please
photosh
challenge
bound
dell
fad
mick
sier
1012
##arus
1426
##cep
trim
ord
hex
corn
1191
##encer
filter
remember
##vince
gdi
sharp
utricularia
f8
kee
luke
oxy
rice
vid
##ually
##gang
##wall
##aly
1327
##omys
unity
7200
exid
carlo
037
period
1386
glory
1198
buzz
salt
illust
##gamer
charlotte
tardis
photoshop
dry
gtp
nde
tul
stro
sau
ata
wei
##hof
extreme
sandy
title
following
authority
lollipop
aiko
d6
jpg
kre
lol
nay
sara
##zan
##zip
##isen
##ogl
therm
shall
atlas
1106
highway
chemical
pvc
words
##uarter
catholic
administration
b5
fcc
fuck
hood
ting
##cial
##born
1027
1310
##real
##ingo
##edi
3900
##istan
isis
##anti
##ources
weap
compact
1352
ireland
##duction
ronald
physical
collins
sleep
lower
wine
##kes
1028
##oly
ars
thy
province
isab
5300
##125
smg
085
1095
tyler
collect
article
gilbert
spotify
jalan
canadian
ioc
nir
nah
##life
##jun
1112
1117
1146
1345
##ager
##erse
spider
##112
5400
seas
6600
elite
cortex
##graph
brother
1294
plate
outlook
navig
making
ucla
industry
dynamic
bash
dop
hass
pj
sull
vk
##bie
1136
webs
075
mann
pau
1055
1174
1474
schools
irc
showtime
target
btob
fen
fus
hak
xhtml
##v1
1148
1326
chuck
##aye
##api
should
##esse
atenu
072
htm
##away
1256
psi
sword
chron
strike
commod
electro
borough
atlantic
vietnam
b0
lal
mia
n1
v3
##rim
##360
##agn
##elling
beam
scp
##annon
corps
1357
1177
disk
##burgh
##starter
father
kate
lung
push
soh
save
v10
xo
##lus
##mill
1015
1090
##ores
1166
##arian
##lain
1422
1434
apt
1203
paint
1272
starship
afc
etf
##etype
operations
russian
cookie
knowledge
##ifying
phoenix
hod
male
png
sue
ttc
1006
##iving
##ecca
##illes
once
##lyn
092
lincol
##anner
1459
1359
1273
haj
julius
journey
protection
secondary
felix
johannes
encore
fernando
border
construction
heavy
2n
ffe
gto
rie
wai
##uency
1239
1347
##asse
attr
##122
##262
066
1251
1078
guer
1097
1486
student
goodbye
campaign
docomo
message
owen
tournament
fitz
m48
mist
mint
1242
cohen
islam
5800
##217
##129
9600
1181
capit
benz
kirara
circus
sorry
dyna
combat
political
publishing
lincoln
bub
g7
gond
icc
rsa
wings
yet
##dd
##ators
##ames
##tery
##akes
##neo
1102
liner
silva
muham
lucy
campus
ferdin
omni
since
rubber
##cycl
paypal
arcade
kabup
kickstarter
gaudens
dra
duck
gom
gec
m13
vib
##bin
reu
shan
300er
frag
pain
bdsm
1094
1163
1171
1473
1462
disp
contem
sdn
depend
mitchell
idea
objective
laboratory
success
dictionary
aig
folk
json
mbe
sri
##enia
1431
##isan
##igi
##andra
##akh
shu
6800
##ffer
clin
imf
pcie
1049
##web
diy
bush
cambridge
telecom
##donald
honor
jesus
hugo
kabupaten
dum
hits
nsa
nbl
yun
brave
branch
##opus
##aks
##okawa
myc
1303
##acht
error
1154
models
riot
egg
points
african
9k
giant
mason
pou
pab
rss
##cell
##pen
##gus
1237
1299
##ared
anto
1209
clock
schw
drug
sof
1267
term
catch
welcome
##uantum
phenom
eee
gad
g20
gius
s5
tcl
##fet
1133
1447
##isse
chip
##otype
goes
1202
using
1479
1263
notes
finance
postscript
franklin
saturn
enviro500
script
broadcasting
9m
a9
bach
dix
lj
pitch
tung
##elt
cogn
##agan
##124
acm
##manuel
1301
corner
guitar
evan
sunny
ahmad
novell
trail
caroline
task
terminal
executive
baz
fix
gif
k4
tic
##wave
##anie
forces
1003
##istol
sala
##114
prada
screen
ngt48
1104
1302
emily
1151
1158
1458
1179
pete
##lett
kinki
sydney
6b
cun
goth
hib
lut
lpl
niss
vil
##pass
##gt
##acon
edwin
068
##erner
corre
1491
1393
##liner
bandar
laser
uhf
random
however
assembly
ain
bath
##rp
##dan
##mor
1038
1247
1144
1341
informer
##unk
cliff
schwar
gaming
elena
1059
1063
##forge
month
1195
networks
##ktop
sebast
pz
s6
##jon
##arat
##rem
1009
##omm
##uten
096
peg
snake
1463
cyp
mountains
fedora
kurt
kadokawa
africa
bone
fans
jax
wagon
##tic
1222
##onica
##onkey
##icz
##child
coming
adult
##136
emma
1152
within
petit
##aldi
format
jennifer
beauvais
2ch
bast
dart
dame
fai
jy
##aries
1446
cock
##aper
reed
marco
apoll
ate
at1
##order
073
crj
1056
icd
1262
commander
louise
julian
##frame
kiha
adventure
##v240zj
beth
iau
joker
loss
ruth
yui
zam
##uo
1311
1318
temu
##essa
phant
carbon
erik
1384
harm
faa
singles
andrea
doremi
chapter
symphony
ij
kub
lcc
sne
##hg
1145
coaster
##chus
##ovo
##okie
##uca
##ected
##ensive
1309
##eek
aviation
supreme
1254
1077
result
blade
leslie
crh1
jtwc
persona
027
dian
hn
kus
p3
##cock
##phe
1023
trance
5700
sep
071
##ieri
musical
claire
1293
##inois
known
##apping
miles
accord
rapid
excell
metropolitan
pretty
d100
gim
heter
might
vu
##ault
##vor
1021
##enzo
ching
##206
##ults
rey
1201
mee
played
1069
1096
harvey
1173
##itten
boyz
diego
7b
ligo
##rc
##2k
##uate
##mt
1029
1033
1212
##chat
##irs
apu
##ouri
1401
1081
swan
fear
##oides
experience
eugene
olympic
computing
aec
fsa
gast
jup
mri
mips
##ture
##talk
2029
##205
trap
061
097
099
##icks
1289
1186
1184
even
1196
##atti
warri
hammer
nikola
malaysia
cala
hind
k15
tenn
##sw
##mf
##fx
coach
brid
##ako
shap
##obo
enh
prism
055
editor
034
##ishi
1093
rocket
waters
programming
##ermont
deutsche
bind
ore
pang
pale
pump
rav
s7
sett
##rab
##nos
##night
##bad
##4e1
##step
##igne
##207
##ogy
thir
##118
074
1109
043
avc
1041
1159
1182
1489
1296
dc600
cyt
register
gerald
ppp
july
huang
array
jeffrey
jesse
products
rifle
cie
ned
nice
ridge
wins
##zel
##eria
100km
chs
##agh
leaf
amg
scale
##sha
##ertr
cornel
##iament
iris
##dress
betty
burn
reality
umts
ratp
ffe4e1
dc600v
026
cul
cah
cream
gin
lga
saga
yonex
##non
##aren
##olph
##oce
arp
isle
##anto
clermont
players
falls
custom
agreement
5d
aster
fol
k16
wiss
##cas
##hill
##ew
##np
##bet
1032
##urst
##teen
8859
064
047
1068
##duct
warner
##ucker
##ched
holiday
linear
rosen
languages
kennedy
uefa
gott
ller
oy
render
##arium
1315
##itage
0000
relation
tha
spencer
079
johan
1255
resist
harper
talent
wayne
bruno
license
phillips
muhammad
5s
dies
kung
lok
##uya
chak
span
neut
exit
##riue
hoch
alternative
giusep
eps
ecc
foster
gou
gfriend
s8
##hood
##fb
##orh
1312
1316
##ament
stell
##chy
mari
4100
amar
meyer
083
else
049
##ansas
##anning
stray
cape
called
november
bugs
athlet
mamamoo
vorbis
8a
fon
gx
mph
nih
och
tip
wet
xiv
##ting
##kell
##121
2035
1039
stack
bron
ado
069
032
1083
1361
glen
1292
farm
falcon
##radio
kanon
hmv
terminus
gibson
kindle
pearl
treaty
intelligence
parliament
cid
d8
het
hik
rj
##des
##bla
##wide
##esia
##ici
##roc
mex
058
interchange
gamma
barn
1087
##afe
##ports
##porary
##ija
hearts
feature
laurent
ajax
joshua
growth
giuseppe
aoa
dad
due
ew
ride
tub
yuk
##tt
##had
##vr
1149
##leh
hanna
##iper
isra
6300
grid
opent
##uga
078
emerg
##prs
##aea
##gres
1176
1268
extended
controller
gustav
sdram
3x
gut
gone
mbs
mund
##gers
##fi
##lable
1423
sham
tep
amr
mai
098
carpent
1108
paralle
mvc
1288
strat
groups
copy
ddr3
harrison
recept
8x
dob
ict
tus
zet
##zig
##ising
##acc
als
5100
atari
lau
062
elis
045
046
##ampton
##latz
evil
1269
lsd
fischer
wnba
esa
hw
jade
pour
uta
zepp
##core
##ply
1022
##lash
##lement
##208
##308
##128
##mania
095
038
above
visc
josef
eurogamer
rebecca
ninja
ladies
industries
meeting
basilica
8k
aol
rare
tid
##rel
##ding
##mart
##fm
cout
chia
chess
chase
##ecd
orb
059
itf
089
088
crime
1197
roberto
timothy
wells
cookies
michelle
commercial
avbwu
sierra
4gb
9x
ech
h3
hulu
m82
##pd
##aland
1432
1344
##sty
##idence
##opy
marg
apa
hdr
scsi
##ucl
edmund
##erton
cr400
1074
1165
harmon
blake
hook
khal
craw
punk
##break
angela
mystery
dancing
fid
mab
nana
sia
sov
sob
wen
##gis
##erie
##aran
1338
##enty
35mm
anat
##inda
maru
unesco
encycl
sexy
edit
crim
1169
upon
popular
julie
presents
horse
championships
artsvision
latin
destr
atlus
identity
eidos
variable
commodore
2x
5b
aids
bible
foss
hj
lik
sram
xa
yi
zi
##dia
##aling
35000
rez
##este
##iani
##mani
click
blanc
1379
irish
incre
fiba
angeles
baseball
property
todd
approach
fiction
lub
rz
sinc
zb
##horn
##run
##oor
2047
1339
##iso
##omp
##ctic
isu
bean
maus
goal
##atha
1065
1046
gnz
hoff
does
capcom
translation
chaos
circuit
porter
economics
bard
