[PAD]
[UNK]
[CLS]
[SEP]
[MASK]
"
%
(
)
,
-
.
/
0
1
2
3
4
5
6
7
8
9
:
;
_
a
b
c
d
e
f
g
h
i
j
k
l
m
n
o
p
r
s
t
u
v
w
x
y
z
·
—
“
”
、
。
《
》
「
」
一
丁
七
万
三
上
下
不
与
专
且
世
业
东
两
並
个
中
丹
为
主
举
久
义
之
乐
九
也
乡
书
了
争
事
二
于
五
亚
些
亞
亡
交
亦
产
京
人
今
仍
从
他
代
令
以
们
件
任
份
伊
会
传
伯
似
但
位
低
住
体
何
佛
作
佳
使
來
例
供
依
便
俄
保
信
修
個
們
候
倫
值
做
停
備
傳
像
元
先
光
克
兒
党
入
內
全
兩
八
公
六
兰
共
关
兵
其
具
典
内
再
军
冠
决
准
出
击
分
切
划
列
则
创
初
判
別
利
别
到
制
則
前
剧
副
創
劇
力
办
功
加
务
动
助
勒
動
務
包
化
北
区
區
十
千
升
半
华
协
協
单
南
博
占
卡
卫
印
即
历
原
去
县
参
參
又
及
友
反
发
取
受
变
口
古
另
只
可
台
史
右
号
司
各
合
吉
同
名
后
向
含
告
员
周
命
和
品
哈
員
哥
唐
售
唱
商
問
單
嘉
器
四
回
因
团
国
图
國
圍
園
圖
團
土
圣
在
地
场
均
坦
型
埃
城
域
基
堂
堡
報
場
塔
塞
境
增
士
处
复
夏
外
多
大
天
太
夫
央
失
头
奇
奥
奧
女
她
好
如
姆
始
委
威
子
字
存
季
学
學
宁
它
守
安
完
宗
官
定
实
客
宣
室
家
容
密
富
察
實
对
寺
导
封
射
将
將
專
對
導
小
少
尔
尚
就
尼
局
居
展
属
層
屬
山
岛
岸
島
川
州
工
左
己
已
巴
市
布
师
希
帝
带
師
席
帶
常
平
年
并
广
序
应
底
店
府
度
座
康
廣
延
建
开
式
引
弗
弟
张
張
強
强
当
形
影
役
往
很
律
後
得
從
德
心
必
志
快
念
思
性
总
恩
息
情
想
意
愛
感
應
戏
成
我
或
战
戰
戲
房
所
手
才
打
托
批
承
技
把
投
抗
护
报
担
拉
拔
括
拿
持
指
据
授
排
接
控
推
提
播
擊
擔
據
支
收
改
攻
放
政
故
效
教
数
整
數
文
料
斯
新
方
於
施
旅
族
无
日
早
时
明
易
星
春
是
時
普
景
曲
更
書
曼
曾
最
會
月
有
服
朗
望
朝
期
木
未
本
术
机
权
李
村
条
来
東
构
林
果
架
查
标
校
样
核
根
格
案
梅
條
森
植
業
極
構
樂
標
模
樣
機
權
次
歌
歐
止
正
此
步
武
歷
死
段
母
每
比
毛
氏
民
气
氣
水
永
求
汉
江
決
沒
沙
没
河
油
治
法
波
注
泰
洋
洛
洲
活
派
流
济
海
消
深
清
港
游
湖
源
演
漢
澳
灣
火
点
為
無
然
照
熱
營
爭
父
爾
片
版
牌
牙
物
特
獎
獨
獲
率
王
现
班
現
球
理
瑞
環
瓦
生
產
用
田
由
甲
电
男
界
留
畫
當
病
登
發
白
百
的
皇
皮
盟
目
直
相
省
看
真
眾
着
督
知
短
石
研
破
示
社
祖
神
票
福
离
种
科
积
称
移
程
種
稱
積
究
空
突
立
站
章
端
第
等
筑
策
算
管
節
米
类
精
系
紀
約
納
級
素
索
終
組
結
給
統
經
維
網
線
編
縣
總
繼
續
约
级
纪
纳
线
组
经
结
给
统
维
编
网
罗
置
羅
美
群
義
老
考
者
而
耶
职
联
聖
聯
聲
職
股
育
能
自
至
致
臺
與
興
舉
航
般
船
色
艾
节
花
苏
英
草
莫
莱
获
華
萨
萬
落
著
蒂
蒙
薩
藏
藝
蘇
蘭
處
號
行
術
街
衛
表
被
装
裝
製
西
要
見
規
視
親
觀
规
视
角
解
言
計
記
設
許
評
試
該
認
語
說
調
論
警
議
護
變
讓
计
认
议
记
许
论
设
该
语
说
调
象
負
責
資
質
賽
质
资
赛
走
起
超
越
足
路
身
車
軍
較
輯
轄
轉
车
转
辖
辦
达
过
运
近
还
这
进
连
迪
述
退
选
逐
這
通
速
造
連
進
遊
運
過
道
達
遭
選
還
邊
那
邦
郡
部
都
鄉
配
里
重
野
量
金
錄
鎮
鐵
铁
镇
長
长
門
開
間
關
门
问
间
队
防
阳
阿
附
际
陆
降
限
院
除
陳
陸
隆
隊
随
際
隨
雄
集
雙
離
雷
電
需
青
非
面
革
音
項
領
頭
題
類
项
领
题
風
风
飛
食
館
馆
首
香
馬
马
體
高
魚
鲁
黃
黄
黑
點
黨
龍
龙
（
）
，
：
；
##i
##t
##s
##e
##r
##9
##5
##l
##u
##a
##c
##k
##3
##0
##7
##6
##4
##2
##y
##p
##o
##g
##v
##n
##h
##x
##d
##m
##z
##b
##j
##8
##1
##f
##w
20
19
201
200
##00
10
##er
12
18
##an
199
##or
11
##on
##in
##ar
198
15
##en
##la
16
17
##at
194
197
##es
##al
14
13
##ic
195
196
##is
193
30
for
21
##mu
##it
##le
##he
25
2010
##mula
formula
2009
##am
##el
##ro
192
2011
##st
22
co
##il
2012
24
2013
##et
2016
##ion
23
##ac
2014
2015
2008
zh
##re
191
2001
the
##as
##ou
2017
2007
28
26
2018
2006
27
31
100
st
##ing
##nd
##ol
2005
##ed
##ch
29
##us
##ow
2000
50
in
##id
##ig
190
##ad
##ent
2019
ch
##ur
2004
40
of
##os
000
br
##om
##un
##iv
##ot
2003
##ir
##ia
##im
2002
##ec
35
##20
##ag
al
189
##000
60
##ation
##em
##um
##ter
##50
##od
##ay
00
32
##and
##ap
1999
1990
##ut
han
36
80
45
1998
33
de
and
##op
##oc
1997
70
188
##og
##ul
##ce
90
1980
##av
34
38
re
##th
##ie
##ers
187
1996
##10
ar
500
37
186
1994
##ab
1995
##ip
an
##ak
##ard
##ub
##19
1993
1992
com
##ov
##30
th
tw
39
1991
##ind
##48
sh
1950
##40
48
##ct
42
tr
55
1949
1970
##ik
46
sp
##ist
##ill
le
##ang
1988
##ine
75
1989
hk
te
on
300
hans
sa
1945
mar
47
un
##ud
43
1960
col
pro
##if
41
is
##est
##ok
65
##ob
44
##ra
1985
##80
49
52
ne
1986
##sp
64
56
##11
##ess
1987
##ba
1984
##na
##ell
185
##up
##ice
51
1982
1983
62
am
en
53
##ows
##all
##60
58
ap
##ss
wind
##ian
57
hd
54
##ive
at
##ack
con
1979
or
be
150
##bo
400
##ver
##art
you
1978
windows
ma
##ue
##21
##igh
##ant
to
180
##70
##ph
se
76
59
1981
go
##ge
63
##oh
##ity
##se
##ib
72
1946
73
85
##io
61
68
66
##ii
1958
##te
99
##ich
pr
fr
95
74
184
1920
##bs
##12
sc
ad
69
la
1930
##ong
88
ex
1948
1940
##lay
1975
##ate
ph
67
1937
120
##und
78
77
1956
1947
1000
1941
183
##ry
1976
179
##ta
##bc
98
##ts
1973
##uc
1972
##15
##25
97
1966
1955
1952
cn
79
##one
96
##16
600
##ix
##our
##ord
me
1974
##ly
##22
1977
##ne
1968
86
ac
##17
1954
1938
1964
as
1965
1939
##13
##18
83
87
800
1944
##ff
89
##ace
##ast
1971
1959
jr
84
##ft
##ber
93
cd
1969
##14
1957
##ect
##man
he
1942
##23
1967
bo
##ign
1953
nba
gr
##ah
##end
cl
cent
##24
1961
1935
we
##ore
05
1963
1962
1943
1936
ed
op
160
1951
##ug
##ort
sm
##ith
##ens
94
tv
178
ng
wh
id
##28
##26
##ma
##ust
##29
##iz
1933
##ps
##ies
2020
1927
it
##ire
##ock
##pe
06
##27
1928
##sh
##int
1931
09
ii
##ond
1932
##ux
sch
car
cod
bl
1934
play
sy
dv
##ight
##ick
##ert
inter
hant
gam
ge
07
08
110
cr
##ial
1929
177
##90
##ld
##ina
##ure
700
##ment
ht
par
mac
##son
joh
##ai
1912
lin
##ier
man
hr
ak
##ath
my
new
el
##35
04
130
140
dvd
##ory
dr
1925
##yle
1924
71
1919
wor
mo
##cl
1918
##ern
##ogle
164
158
##az
##xt
mv
google
##ee
ip
1926
av
03
82
250
81
##iss
170
pa
1922
mus
156
1914
ab
##ide
##span
center
175
ro
##so
##ish
##mm
92
157
##1900
##ton
sao
##anc
155
##ube
ag
1913
john
##ey
comp
##ary
ser
01
1917
3d
##36
##ational
1923
b1900
165
##ont
ist
lov
back
codice
1921
176
##ans
##aw
style
##age
1911
3000
##au
##ach
net
##33
105
em
ste
##cc
91
##round
dna
##are
168
sup
su
##38
##ung
met
##ile
166
colspan
sk
##ty
##ain
##34
istat
1900
##ann
159
no
##pl
##ass
##ank
1909
sil
154
##ite
us
##ime
##37
##rom
02
km
##iel
##amp
mic
##ium
im
per
125
101
one
##ost
##land
er
pc
now
##ction
all
106
1910
bar
align
pe
pl
104
108
##ground
##co
##per
bd
yout
##75
##tv
##ool
ngc
##ica
##lat
115
##ck
sn
ps
##ence
##99
900
##ivers
145
##ical
1905
1915
##old
##32
##ance
coun
##pr
1916
##ae
##ley
##iki
will
so
os
##station
##ere
background
##uk
1901
##39
##ase
fre
gre
128
##own
love
fl
cor
107
##act
color
135
playstation
##31
nh
1500
##for
youtube
5000
app
##book
mod
##ome
cp
##iam
gro
##45
1903
gen
##ash
ep
##gr
min
##ys
text
##66
118
ind
intern
127
sw
##ga
rob
gu
##tr
linux
167
live
mat
1906
##ara
med
1908
##ame
1907
mag
109
##ala
##ri
##ual
ic
micro
##les
360
##ml
univers
##tp
res
136
148
des
with
ev
1904
##ood
##km
silver
by
##sc
##ale
##ise
##af
##ins
149
##tc
dav
138
##ild
sou
##ict
face
##46
##ms
137
rec
##me
world
ty
mon
super
##eng
##ose
116
##enn
star
##hel
##ox
##ork
##b48
har
int
##47
bro
cla
gl
##ve
169
##ade
char
##ult
117
chr
##ower
##ony
fe
music
350
##lex
##gb
pet
mm
can
129
air
147
146
bla
her
##49
##ake
school
ib
##ward
1898
##stem
##olog
##42
126
1895
119
stud
##ata
1902
##ana
##ca
139
##oth
##yn
##ics
pol
##ald
iii
##box
##pt
web
sl
jo
##44
facebook
je
ua
str
##ink
mc
ir
part
##br
up
nor
ms
##we
##ha
##86
di
dis
##de
##ner
system
##du
ass
af
##soft
##va
che
##ax
po
dc
akb48
##mer
##be
sur
ra
##41
##ike
ver
##itt
4000
##asa
li
jav
##ls
red
##ille
##sa
##ode
bbc
##orn
102
high
##oci
jam
1890
220
ref
##dp
##ark
##tain
##ius
##ler
##ane
##icon
103
##ude
gn
mark
##roid
gir
del
##ited
inst
1896
##ous
##oo
##ster
##hz
##ep
##att
ele
##da
1200
##sk
hy
not
nowiki
eu
off
##ien
william
1897
microsoft
##eth
##43
##ition
##ream
##ouse
##ave
##dr
mr
##ement
ho
team
1899
a3
android
tvb
##yl
div
##fl
##ars
do
ter
##illa
val
et
are
sol
##55
enter
ss
iv
1889
group
colle
da
##pa
university
game
art
ec
240
international
##pm
##oph
nhk
cy
##oss
sec
pre
##to
##able
##ings
cap
act
show
111
cont
saint
##iro
wal
450
david
iso
##ek
##ject
sd
##rit
cm
##65
##work
##ene
ig
##ico
bu
##vel
##ons
##ari
##oll
pla
big
1860
open
comm
##77
##cr
112
bas
1880
1600
230
##cm
day
1894
ke
xbox
lo
geor
ca
christ
ce
that
ta
##88
210
tech
vi
mor
##let
##ound
du
1800
fin
##way
##ife
pop
##ino
eng
lim
##oun
mk
http
ang
##56
##ott
sam
##ena
##ael
cro
fa
war
1870
paul
280
##td
top
sim
fc
produ
tom
##sm
mich
113
from
national
max
county
kh
##uck
reg
1871
##era
##lo
pat
##ese
rich
##gh
black
6000
1885
don
114
##any
ber
##ield
time
##ng
city
rad
trans
bm
##net
games
##ism
##osh
mp
na
mer
##iver
##95
##85
ts
260
kn
##ron
##za
win
##by
amer
was
##ram
aut
ios
park
vis
##100
##ior
dj
##enc
ha
type
##po
##phone
##ero
il
robert
cal
##mb
lib
rock
##cd
##ya
org
power
bet
##87
tour
sing
inc
king
out
##itter
sal
##ute
##fc
##lin
##port
alex
james
ww
utc
##bur
1886
1892
1884
##ham
##ital
##ven
##aph
##ied
bill
##ble
ol
end
##ear
##79
sun
ga
##64
und
fir
##osa
jap
vol
bur
1888
java
##bl
oricon
class
##iff
cat
122
##pg
only
##89
##ubl
record
123
1887
##ke
750
1893
thom
320
san
ibm
##ex
##ology
jun
michael
fla
##200
##fa
cpu
rna
kar
121
iphone
##itch
ur
1876
##der
2500
##rol
##ution
##app
best
##ater
##ett
##ger
##out
cs
1861
##ka
270
est
ba
tur
1850
##ull
cre
tre
bel
spec
ef
techn
arm
##76
##inc
nat
hot
rom
##por
bre
205
ds
550
##eration
ben
124
##las
gdp
1883
1868
##go
she
boy
bi
1891
##96
##ors
serv
au
stre
mil
mi
dream
club
entertain
japan
##ily
fm
##ric
oh
fil
##ange
vo
mg
vir
sub
650
lam
##ral
entertainment
##78
arch
1862
##ini
jack
life
##ump
media
dan
sg
##ada
der
1848
fire
##clude
##58
1867
##mp
##line
1877
##ui
ul
twitter
1873
es
##fs
##59
hen
ok
##form
apple
1879
ant
kr
ve
##erson
##ipt
award
##ita
##ication
may
mont
1864
dd
van
rev
work
##ugh
1865
tim
1878
1875
152
house
##che
dist
lu
##rop
mart
1882
##ision
abc
1840
hol
pd
1881
8000
##bi
##51
bus
##berg
lou
line
road
##its
737
##bn
unix
##ated
132
##ora
dem
intel
first
##53
##wn
mel
1874
this
phil
richard
dire
ast
##68
good
college
associ
sir
##ano
144
##iew
george
330
hel
##undam
dec
7000
##61
nt
fam
west
adv
hall
si
##ula
##ection
gt
mem
les
acc
wii
##mun
##ho
inf
miss
##ator
1872
gar
py
##gin
##eral
sr
street
1863
##67
franc
##led
##57
##ij
##97
www
mad
if
##ama
ka
##ery
1400
mu
rem
##xy
##min
##ates
##98
133
cv
project
sky
mtv
cam
mid
ger
##include
fo
atp
led
land
##wan
pal
sum
metac
##ican
##ze
##uss
gp
##press
##ensis
1300
unic
ann
free
charles
134
1866
##ney
131
##ety
##xx
north
studio
wr
##ular
1869
rh
ram
ju
lang
256
##ateg
##52
env
##ista
html
##com
mob
over
sar
##ritic
gundam
ko
tc
##ions
pi
ever
gold
##bert
##ware
china
metacritic
jose
port
log
##ris
208
ob
kbs
ear
thomas
##ci
direct
peter
euro
141
ray
kg
##ani
south
sony
##unes
bs
380
mir
##itz
1830
records
wil
##ua
dou
##69
##ford
dig
your
1700
limited
##vin
##ason
grand
unicode
310
sci
bab
##ally
##ns
##mus
##54
##wa
##unt
long
ltd
##ren
pan
##ki
##ander
153
dom
law
lab
mov
but
1100
tem
##72
office
##ker
news
143
151
company
luc
1853
wid
f1
##ste
ah
sbs
##ents
1858
420
fun
##ope
mbc
mb
225
publ
##ville
209
##ella
290
370
aa
fi
mot
cur
##ds
real
form
1859
nasa
tor
##63
##idge
##62
##ester
sig
just
##73
##ny
ham
chin
##ues
##ja
##ura
##ush
##ball
##ady
cct
##74
nm
1854
east
ret
235
1857
tal
203
747
850
camp
##82
roy
az
214
##str
##ning
amd
173
mal
jon
##sch
nov
##orts
pp
202
##84
american
gnu
163
fer
##fe
##ative
instit
andre
##500
blue
lis
production
211
girls
api
340
##red
301
key
##li
nav
##71
##ther
##asc
who
ign
xp
alb
215
1856
batt
##ival
lee
mill
home
sant
soft
gh
##zz
post
hal
kong
soc
162
##agon
association
##81
song
chem
isbn
tou
cast
dos
##ih
elect
dl
hum
##ello
1851
girl
categ
##yo
##83
hong
##els
jul
cc
##ody
band
tai
##mann
480
##ling
network
green
##ko
onlyinclude
name
om
##94
1847
young
410
rap
von
206
far
bb
##pc
142
pres
cour
ova
itunes
leg
1855
ly
hs
##vid
ai
how
hor
##ocal
##91
207
171
nbc
doc
esp
gb
td
category
hist
inv
vict
##my
jean
##gram
##fer
ll
##101
204
ext
##93
champ
lar
##fr
ros
##gbt
##urch
tbs
##ips
two
heart
disc
town
##urus
gala
frank
bal
river
soci
##ague
##ipp
1852
430
221
bank
die
##lad
white
##ws
1841
##92
##use
sat
##ios
218
##ota
row
md
##gen
sv
172
hill
pag
usb
161
great
##gy
##erv
has
anim
##ets
state
##wood
##ids
mak
sin
stand
internet
##olf
##mi
1849
1846
cg
cbs
island
182
##ache
tro
##si
##no
##idae
wat
ut
223
bay
m19
width
book
distr
cctv
217
##obe
1844
rub
##lation
dh
##pp
##ira
under
1820
def
ceo
1815
##ison
238
alph
##cript
216
228
tar
bor
##ima
server
##uel
222
##ape
sen
night
181
united
core
174
##ats
cle
ice
joseph
1843
212
##ely
dev
##oy
commun
m1
10000
401
dar
rt
store
enviro
##ific
let
911
##uth
##ional
##ift
space
440
bon
##ucn
1845
##ree
##ops
1812
henry
##ough
213
db
cas
iucn
ot
ye
litt
cons
run
dep
bob
prof
men
way
tele
##a1
##ather
cry
ny
section
ti
rpg
##001
1814
1842
god
001
##board
##nal
manag
219
##field
tu
sel
pt
model
265
jac
u21
##oid
##isc
##ird
smith
pv
engine
##tps
##rich
hu
##ures
son
##ideo
cross
bit
expl
jump
ry
mas
spr
##azine
battle
##ural
vii
##oro
carl
##cher
##star
##edia
##ister
num
radio
##eee
264
##annel
1789
##atic
mobile
##esh
##ji
dm
jan
cha
##cs
255
party
ru
cho
https
church
control
var
390
crh
general
mur
##den
tok
gi
comic
275
##zy
plus
fox
arr
service
##uct
martin
league
lgbt
ze
##ida
fn
##ington
##rpm
rep
snh
ku
sports
louis
light
##well
magazine
jour
station
snh48
cf
mt
##lam
steam
365
460
box
##dy
pass
1792
ki
##aya
foot
bh
his
resear
online
jim
mit
cir
##ye
610
xml
mult
##raft
moun
m2
bad
little
##ato
wwe
pier
fest
child
720
305
conc
1835
##peg
muse
master
research
226
aug
aust
950
den
sand
sem
poly
640
##inal
lg
sound
like
tg
gal
asia
##eter
1832
mol
moz
##ple
560
##velop
set
3500
corpor
mary
224
##une
special
##ient
##cy
ins
junior
520
vs
##ette
plan
##ship
239
##ization
249
institute
##adem
bea
channel
##aga
229
777
ae
##cast
##ili
##hell
##uch
1793
kw
##asy
530
245
##acy
aw
1839
code
cu
##off
##ks
1821
##gan
234
prot
victor
540
##iana
325
have
##ky
1795
design
brit
##201
fran
marc
pac
##pi
program
glob
501
after
##gar
1824
##igo
visual
##ila
##thon
edward
society
word
308
##oney
low
232
##301
non
1838
small
ml
rd
680
pm
227
next
1836
tel
video
601
2021
develop
nam
tak
vista
##ider
1825
262
express
rs
580
##ni
asp
##orm
##ility
1801
2d
hbo
##ret
251
ieee
##ola
happ
att
maj
##ocket
1644
##burg
bou
##501
galaxy
##ces
##vent
ct
2022
htc
cin
down
fed
1806
data
##ona
final
more
ni
##yp
##cess
syn
470
hard
##ros
bec
jer
##400
spe
map
##ize
rog
1831
311
steph
fu
fal
1837
307
moon
##bit
mach
##olution
##bor
246
##win
mos
taiwan
9000
kir
scott
pala
second
found
nd
pay
233
mom
royal
dor
um
pu
get
science
chinese
##ogr
236
##aker
##rome
brown
##oto
##ago
level
asc
wa
##face
303
mozilla
620
630
francis
every
1833
##wor
build
angel
yu
##kg
##ness
323
suare
237
fly
mini
call
1810
254
285
##ations
union
peop
##stein
explor
cup
hom
1776
film
##arch
som
champion
##mat
##fox
place
3g
##oud
ax
bern
eb
##fo
##ender
aud
liv
what
##ency
pap
##och
242
eric
gov
ns
243
a1
315
adobe
pg
##ym
##ters
##max
##01
##ights
corporation
dam
vr
##ei
flash
ub
318
orig
510
had
wi
left
1834
1822
matt
338
technology
gra
##ao
241
802
1790
1826
mvp
ace
jt
sf
od
cit
660
york
252
263
1799
##vidia
960
m4
mix
248
1828
maria
pent
##force
nvidia
##iue
##iness
which
arts
##over
e3
gard
kl
##agram
##other
summer
digital
fif
vl
last
##row
firefox
##ume
253
christian
tam
258
card
##tl
244
daniel
hold
ren
247
266
1791
vers
##lor
##oe
arc
268
touch
1813
1829
chi
head
1804
ken
global
304
269
##aster
1823
bbs
rain
##vi
press
##sl
##ices
##ury
##ote
##601
beat
exp
978
hit
##res
312
1819
1818
##701
festival
b2
302
##ston
##col
##hd
273
again
cra
ri
sign
bat
cb
adam
operation
software
##cil
##bour
cnn
hand
618
social
##801
cell
hp
year
##ansp
231
psy
##anna
apg
##rie
276
europe
fact
nad
1816
1802
##flix
alexander
257
deb
277
bt
pos
##elle
##401
switch
uss
nu
wood
##umb
570
3ds
public
bc
gm
sav
1775
eg
##onom
295
##ascript
netflix
old
phone
fant
##zo
bey
pen
august
fx
##ika
1780
rail
xx
people
306
272
princ
football
gd
1794
series
286
viv
academ
circ
lady
##omb
386
point
yg
va
explorer
mah
astro
lond
296
1807
1796
4500
279
701
main
ker
pk
1805
hello
##zer
prem
were
##ias
##ges
cop
instagram
1650
dance
og
tan
management
##uter
district
2a
m3
yah
##iga
1750
1809
ash
820
278
billboard
langu
pur
767
ft
block
tcp
##ense
333
##ograph
four
##ible
journal
##ule
1803
fut
bf
np
##yr
2100
2400
375
python
bug
cw
gab
vel
1798
ipad
psp
##rick
1645
family
pagasa
490
emu
1808
fri
awards
water
##key
eff
vocal
force
357
perf
fair
288
298
field
##get
780
pin
rb
##ohc
299
1817
lat
335
meth
##nes
512
##ti
##tor
dark
hop
##kin
##ource
museum
kit
mcc
mun
wom
274
271
council
1788
imp
##gs
##men
gun
mess
gps
bir
##2000
##mar
##inger
1787
sab
##aven
din
259
train
##ident
mnet
nc
rod
bell
por
##hr
alf
dt
gall
rat
##vo
stad
385
ske
mike
ven
313
pdf
b1
dur
##lab
730
javascript
cult
ld
##uest
##kh
##600
319
710
its
##iko
central
ea
##t48
inform
earth
324
market
london
tn
##esis
670
chris
kon
mig
sor
1580
801
901
tvbs
uc
##jo
261
##oma
alt
centre
1592
well
anton
conn
ipod
zero
##rey
2600
frame
1783
##uke
ult
##play
##mon
ide
x86
sche
bud
rou
##mo
1550
arg
##rad
##cho
289
kill
sb
##awa
267
ja
##aka
281
stat
story
590
bul
##300
edition
basic
dun
##iy
round
say
##als
##day
284
friend
ay
328
leon
1568
##cept
757
andrew
##uit
##ines
287
album
309
999
link
ipv
beta
##osp
##vision
our
##je
316
##eta
283
282
##uz
lord
2300
fried
alpha
314
chan
589
they
293
jeff
human
##ful
##caa
sund
ent
1827
stan
kim
##ering
880
##ova
tit
##ania
345
begin
334
note
##mond
2200
760
##iter
drive
aaa
ath
rac
##mhz
317
lake
front
hi
pack
kiss
##cha
##con
##ami
359
transp
405
trip
php
meg
base
326
ten
331
dy
list
joe
830
321
bg
lum
##don
prop
prim
dragon
development
unit
systems
children
742
ncaa
##iii
##yt
327
355
mx
##isa
tra
dim
hay
322
3a
903
amaz
1080
##reg
russ
##heim
1582
secret
test
1811
fort
##car
##ader
soul
fel
tay
425
1553
appl
hiv
583
##lie
758
cook
ball
1570
1571
iec
##nam
407
educ
ia
kat
##ror
dest
kur
ls
wild
1770
##ueen
1648
there
##hs
##alth
##ember
gil
rfc
inn
exc
1583
ill
##anth
tex
const
oc
##kb
356
##ities
hat
zone
607
happy
ff
354
##bus
007
344
uk
##less
404
707
##ria
sport
sla
wond
count
beyond
fan
740
some
##una
fifa
cer
nar
##ves
anth
1777
rowspan
rp
prom
##bsd
pas
##ado
##uber
works
history
kde
lind
person
ple
##hp
921
##of
346
1565
organ
980
villa
##ating
atl
787
baby
##house
297
marie
dol
##anda
govern
las
##mail
##eck
1778
##ole
##ati
##esc
1784
860
690
emi
jyp
##aro
1640
prin
##itte
steve
840
sus
##olk
arth
465
ron
##oul
403
ie
lor
##ran
##elf
their
##ould
291
1661
##db
384
395
dal
621
america
ban
edge
smart
##uer
##uar
930
mass
1797
swe
tokyo
419
cab
virt
court
343
gla
##aris
329
business
##ban
u19
seed
solo
fall
math
start
##uri
three
810
fore
##athan
bmw
other
ted
##iger
saf
scr
spir
ey
got
kin
pot
##lish
s1
bridge
##iano
know
##gi
294
shar
shell
1521
beaut
352
samu
opt
770
caf
292
brand
##ument
dog
ton
diff
ghz
ske48
2030
##icle
##chen
1785
##chi
358
true
feat
profess
wta
336
448
process
add
chap
402
##utv
367
fac
nex
581
johnson
##nm
1760
555
1577
mmc
trav
1586
aven
hip
los
##sson
##ission
libr
dat
rose
##oon
525
conf
fbi
jay
kk
mik
function
right
##erm
##chan
stephen
2700
sea
1368
j2
jess
##urn
order
carol
philip
kan
##iti
alan
337
342
1646
yahoo
406
339
number
aim
tb
4g
dia
esc
870
rx
##itor
##anger
pierre
1a
vp
indust
502
415
break
lr
action
##800
505
548
##lect
##901
rot
cher
1786
cand
##ector
##sky
viutv
gpl
raw
s3
##ef
##anga
abd
##ious
619
bin
##kw
single
moh
##osaurus
stra
ern
language
a2
1781
485
dead
broad
take
##gl
##amin
tod
##pot
1636
347
track
phot
greg
speed
##rent
##ellow
970
boss
mpeg
##ece
bang
ring
##uin
1590
econom
a4
jud
##oli
information
standard
##lan
hotel
double
##untu
cinem
tab
##hi
sha
ess
side
##aki
austral
merc
refer
common
pow
states
##ski
ascii
##uv
##apt
##erty
##bar
academy
bag
##med
##ito
phys
imax
##bon
##erg
##ications
nr
anal
1st
cad
uh
##ming
1610
ruby
##sen
##700
foundation
kd
1622
##iva
hun
dyn
##mad
stage
##utc
williams
mhz
##hed
geforce
collection
virgin
fle
hon
351
348
times
british
920
eos
kenn
##war
##ots
##ief
see
1559
rf
ud
##yd
brt
education
plat
1723
1643
ale
jos
view
1680
rue
produce
fab
p2
1730
via
bac
##ants
1517
435
416
##elli
1763
kam
deep
where
simon
source
##atus
2800
353
427
985
eleven
##die
week
studios
access
arthur
ky
lv
##zi
also
santa
eth
25g
mytv
johann
sug
383
528
gw
hm
ross
1620
1628
most
mam
pun
##her
535
1683
voice
##n1
##mph
341
interact
bsd
rc
wolf
##head
332
##elly
1642
xm
##din
chen
magic
object
pict
##ogue
399
1562
kids
15000
when
flor
lost
ox
laur
jackson
nick
605
##ify
cba
##ments
major
nas
408
kal
socket
1625
398
625
sac
##uf
##par
jones
abs
civ
tower
wiki
cham
371
mp3
file
sta
##urs
361
nik
wall
##rot
409
albert
clark
1782
1772
lac
##kt
##esa
boys
gog
##dle
##dom
1660
chang
lte
sunday
##ved
387
##ante
940
##val
432
days
mba
rand
##iny
1547
gang
##vers
1511
##works
gon
##hor
366
1598
invest
tf
1556
910
css
lc
lp
nicon
t1
yes
1574
irt
apache
##gress
aff
sid
sars
opera
ped
t2
##olo
705
##ified
six
0x
cj
lot
sts
1662
tm
##ril
##wer
##anced
karl
511
fat
tun
##gn
396
division
gpu
##rix
##lah
377
790
blood
prince
ya
20000
1630
niconico
tony
##abeth
shine
into
gor
m16
wel
##light
##ois
##istr
lew
walter
rest
2025
theat
##ental
nec
##ects
1573
walk
golden
tt
reb
412
1779
##zen
never
computer
611
414
rel
368
nmb48
kt
506
virtual
##uy
##bra
##ove
than
3200
hero
u17
1621
ck
fish
made
yam
##change
556
417
418
about
925
sas
##bang
1560
1624
cosp
439
445
eva
surface
kle
make
cole
1774
emp
ddr
any
mind
1490
std
364
378
627
future
##ench
##usion
476
gear
1755
ala
##eri
graph
##iction
oct
##uan
##atory
##alk
talk
avenue
376
abb
georg
1634
iss
645
depart
tl
479
player
enc
sega
infin
electron
wonder
samuel
pix
##rough
389
##prise
##worth
aj
mand
pf
00utc
ccc
gc
1637
475
442
atr
pont
theory
455
426
library
bah
##kins
519
hx
io
mh
##iant
727
##issement
##cle
369
1649
english
bot
ci
1748
381
466
full
nico
ing
kab
388
bil
f4
1535
memor
cosplay
taip
1627
1720
508
443
1541
seven
ik
451
wo
chart
shad
##ists
518
##inae
lay
##utt
397
robin
magn
taylor
b9
1724
349
486
499
kevin
christoph
gem
kc
##uis
363
capital
cel
here
1629
428
lamb
vita
373
mars
a320
rade
1736
brian
nfl
##esco
423
hyd
mw
rr
453
422
european
stadium
ow
death
567
mega
method
##icus
552
433
js
1250
1529
617
generation
arrond
648
committe
711
aur
##ardo
639
board
eliz
arrondissement
372
413
chrome
##omo
##umi
890
contin
##vis
##ners
1631
framework
loc
pad
comb
990
patrick
jet
##zh
sex
1765
joy
dohc
##isk
362
##enger
pers
##back
sho
1585
##lis
1727
436
paris
parad
##ergy
1538
411
ubuntu
1616
509
##ides
907
715
lan
rn
##ete
622
area
services
dp
pak
##gam
stone
##ages
##ando
##ogen
##pson
five
1618
##ches
##oda
495
priv
##ological
##ount
721
825
cant
kom
##ali
533
radeon
kv
##view
##eld
457
##ocr
offic
transport
815
1740
rele
379
1771
1647
1769
717
dip
pb
pink
michel
##vet
606
mode
advance
##oni
blu
ps2
wilson
table
##ites
585
garden
df
##cp
1745
tri
hkt48
1651
metal
doug
wing
##uce
##uction
##bach
tgv
nac
##ten
655
movie
jacob
theatre
lie
nich
394
392
pit
5500
515
615
friedrich
haw
tot
529
4k
##mas
alice
454
1773
1762
pci
stop
424
##iance
anti
4a
lm
gs
1619
##uma
050
cz
##tern
committee
ric
1615
1735
926
won
##ray
##acle
374
438
very
mission
gsm
lav
##raw
lisp
aer
jenn
pse
##han
503
sher
549
1505
762
##eep
1493
pacific
g1
nok
nord
553
532
lisa
building
age
det
dir
1670
554
coll
modern
spring
dns
health
lucas
713
wave
##acs
secur
##ollow
taipei
mis
deut
1689
republ
cart
daw
him
12000
##inus
##het
##iller
431
##reme
6500
1502
1603
cube
##rod
458
468
women
bow
amp
##oho
s2
xe
been
roll
sap
393
534
watch
sweet
ali
1609
1757
usa
1487
original
hart
2023
##aria
3600
537
575
bmt
wik
1450
##illy
447
a330
805
smk
pia
pasc
##ives
1545
##action
mrna
vv
##fri
stor
anne
come
538
ati
bes
fd
fda
ix
kb
504
1667
pentium
jar
mes
1725
vocaloid
alfred
dynam
jp
##wh
##ido
429
##ways
concert
##bourg
##ken
##vey
##arm
hyp
1370
614
1688
1544
resp
ost
##ulat
551
##ification
obs
rab
##ori
##leg
##iron
536
freder
##ences
1623
tvn
gene
gamespot
##cf
494
valley
712
bour
money
576
1578
c1
1635
604
marsh
fred
##tdown
portable
523
675
##mes
##ols
##ige
active
auto
716
hyper
lud
##v2
421
531
carr
1764
lem
1050
##iday
fs
vt
522
545
stars
##helm
718
tas
1466
ara
2nd
##mal
##bre
##eland
inte
sail
565
1759
##uki
mount
fast
jason
vit
##rd
##mg
437
547
4d
dx
##hard
1728
391
##ucle
review
g4
wester
##ht
body
gate
hell
##stic
##oke
1768
archive
##oom
1260
1150
shop
##bro
##ians
espn
mut
##case
##har
452
##109
765
1752
ville
##nie
##ils
1756
1659
index
harris
##03
1733
anna
626
ps3
autom
lcd
##lon
##uen
##yan
##stal
382
think
546
gnome
roger
918
472
624
1569
1758
1652
507
brad
energy
632
species
g3
kid
##ature
thr
962
perl
fantasy
lewis
929
658
524
1601
fami
##uro
##nel
557
oper
v8
smap
lyn
tell
##oper
acid
harry
poem
fern
##air
exper
struct
cia
##self
relat
516
termin
##iers
##time
1632
##otion
586
1664
barb
lock
##380
1729
7500
countdown
fem
gas
603
755
mathe
castle
bp
case
pic
##down
444
527
561
1654
1457
ek
##asia
##omy
467
ital
blog
complex
msn
912
npc
##yer
##etta
##ulu
1604
freed
look
rol
667
adhd
##ancy
did
rib
##sd
##aver
neo
##endo
cut
nin
cost
march
##ether
456
being
##scape
planet
version
dre
spect
496
snow
differ
bol
577
1655
719
bart
e5
kap
1613
544
684
ccd
sak
492
anthony
pascal
vip
1638
##ione
##ading
arn
1567
##ennis
juan
714
##oi
cos
493
1572
hur
nan
pra
wong
464
596
1584
1701
##peria
915
food
##can
1540
##ande
568
cath
k2
u20
1626
634
487
498
628
668
hein
1767
1684
machine
nokia
cash
##uart
1614
484
651
446
598
636
##ized
##tran
1369
ryan
b9tl
fis
t3
##oa
441
season
969
##mark
trib
enterprise
christopher
c4
gib
vcd
xi
##aa
avex
davis
commission
holdings
interactive
hosp
nig
##len
1721
alg
##inder
559
541
612
alexand
##py
1350
gamec
k11
path
zen
1713
##atan
731
dk
f2
vent
629
orient
1595
classic
748
fro
ful
nak
rank
ufo
##rt
1526
report
ans
short
##tex
1478
engineering
hms
mn
sud
1589
bigbang
histor
ipv6
818
xperia
1612
andr
1751
1575
c2
kore
3166
metro
cav
hub
tap
##a2
##thers
483
434
936
##intosh
miller
elizabeth
923
mort
sens
##ced
##pur
905
489
482
477
449
1754
wilhelm
##fly
562
973
archit
ois
tag
##alis
751
863
based
rud
##bers
##elo
##oche
616
685
704
##ifi
666
gord
past
tang
vor
##pro
product
calif
tnt
department
e2
rick
##rum
756
635
1561
jane
1280
##olic
759
514
step
1469
directx
813
##imo
706
through
##ension
cx
wash
##icip
##itan
602
471
1766
showcase
memory
826
bun
u2
zip
1639
arena
spot
lev
526
517
587
681
das
##uad
##onic
478
##berry
room
1658
1761
tog
558
539
613
876
1753
piece
pseud
597
682
amazon
californ
812
lap
yosh
623
##bury
821
jas
oly
rg
vin
##yth
609
3300
469
government
kel
##hen
##dc
1690
tea
##ifer
573
allen
perfect
diam
dash
vic
##sche
927
ling
nk
##dm
##osph
isa
571
mail
macos
1707
advanced
howard
823
##ev
##rian
1732
atom
1587
victoria
3c
914
oce
pip
sad
##arc
gamer
1685
811
##music
##ference
1520
1496
pga
vinc
1475
##ential
brun
##agar
itv
##azz
1593
mall
nl
##iment
459
need
563
997
945
peace
hospital
hem
lad
storm
521
975
gram
##scr
2k
817
928
ble
##cat
##02
1524
then
twins
sain
imag
universal
vhs
##odon
488
637
638
1607
feel
effect
816
##di
shin
gran
##anny
ultra
cis
pul
1710
##ente
turbo
eug
##uid
##3d
##hal
##dit
1726
574
hey
4x
hab
mou
##bell
##ones
1718
497
formation
industr
948
d1
##onia
##ales
1460
656
588
gaon
lag
1717
##cht
symb
nic
r2
1611
1737
725
735
775
1555
vision
natural
572
##arts
catal
bios
revolution
rca
##hip
##bow
1530
708
543
688
##ours
polit
matthe
nob
##asure
youtuber
1453
mountain
western
gamecube
824
919
1130
##enz
579
686
edu
attack
##lev
463
542
atm
scope
1588
studies
lun
##mw
1430
##ads
##eman
dear
582
exile
roman
nucle
xf
1532
1633
1675
1715
1380
##hedr
##imate
643
1657
nap
pw
##iac
1525
986
1454
princip
4c
dsp
hack
k1
##do
702
965
cycl
##iner
461
france
796
barr
1679
khan
d2
pon
##ination
1523
1738
##epend
triple
bos
cass
gary
lion
##uant
##atch
908
474
649
1681
1666
nova
local
nv
nf
ral
rim
ther
##uda
578
768
prime
937
1481
000rpm
608
002
971
antonio
5a
kick
tp
##kn
##gu
1714
1734
1747
808
1591
match
##haus
championship
kad
722
##under
1492
security
1731
##ysis
h1
m5
m18
ncc
ras
want
##fore
902
1581
1653
donald
ks
wm
xl
##fan
1514
andy
996
698
888
##ancer
independ
olymp
819
bj
mond
sent
wc
1722
569
dlc
dick
xiii
##3c
contr
##sey
1641
##ucky
##ogo
657
self
lt
m60
tat
##ype
##bu
709
659
761
689
naver
california
828
a5
hud
kind
##ilton
##ulus
473
1564
pear
plaza
k10
ria
wu
cool
##acter
cond
1672
airport
##oshi
ghost
bak
hav
1739
##ross
481
595
661
875
johnny
km2
command
1742
947
epic
mater
logo
carlos
822
bord
##craft
1699
intell
1697
singap
moham
##wick
1234
004
commer
633
886
##bridge
forever
hl
pod
sie
##cff
642
785
macintosh
imper
premium
ez
gig
wp
##wart
##mur
513
951
civil
1744
##agne
687
tree
treat
924
dual
##ulation
##bb
##itive
25000
593
738
grav
living
hxd
dub
lip
pel
penn
##olis
another
shir
1605
1709
support
dn
lic
##iful
641
564
openg
1665
fate
##istry
653
644
662
1563
middle
years
francisco
827
913
kay
mf
page
##aux
##df
orange
beh
741
692
asian
medium
##ienne
##ography
b3
dw
lil
##gas
##mc
cosm
prote
020
bass
hugh
ug
2024
676
perfor
ferr
against
friends
m11
1602
army
dreamcast
dota
etc
put
##lass
1749
1415
lear
957
azure
##zzo
ach
##lim
anderson
ange
594
798
dave
a380
democr
integr
easy
fp
##lav
1001
##istic
491
646
584
cdma
medical
television
ccccff
sailor
h5
pn
##uick
##greg
683
##tech
979
1669
##ween
fit
follow
##gie
1536
1741
##agen
652
1576
1673
legend
##lection
##edy
these
margar
image
community
country
atlant
jal
use
wang
##een
maur
##ashi
sams
##office
kent
occ
sed
806
754
647
955
829
hope
##lu
##more
##anch
1180
1127
##icular
trust
729
##oster
freebsd
songs
jag
jord
r1
whe
##orf
566
exchange
##uster
guy
lamigo
singapore
917
bom
hg
jes
sul
orch
726
giov
bing
tax
1230
##aru
##ening
##icy
##iph
845
938
d3
kol
oz
pil
bruce
monster
viii
honey
ris
sz
##orph
##itude
teau
881
933
labor
pictures
eye
fur
josh
m6
vf
canada
palm
audio
debian
village
mathemat
##uff
##uary
##vc
##aku
ident
1542
gaga
l1
nit
rm
wan
1537
shah
##space
whit
jimmy
848
1519
##aco
window
exe
exo
raid
delta
walker
gaz
##tz
coco
809
spin
855
995
981
1558
winter
spirit
##script
916
1617
##odes
seu
968
935
1599
author
urban
german
wright
eyes
010
##erts
##angel
592
admin
temple
fund
kp
tet
##aten
##oca
##ards
leo
30000
599
669
745
lambda
nation
1024
1522
##stone
##ilog
change
##uto
##phal
1687
##world
gent
kelly
##pent
##lete
1674
demo
culture
republic
gordon
922
e4
must
netscape
1597
1676
##point
bed
##rid
904
motor
012
benn
ner
ober
u18
##iation
##enberg
1435
##stra
784
976
835
843
flo
nature
ian
1220
1527
1712
##ische
##igan
##adi
##iri
##estra
evolution
texas
##bf
934
partners
factory
nem
ster
771
cloud
1606
hunter
ocean
za
##town
##rence
##eno
toy
sevent
gray
1566
1656
between
benj
beautiful
cec
d4
ji
kara
yellow
cover
724
732
695
885
root
##anni
flight
activ
perfume
gay
kai
lh
wars
##met
##overy
conference
beau
678
1371
blackp
frederick
matthew
5g
gy
##gio
##bis
1746
forest
25t
3800
seg
733
781
1579
sdk
environ
morn
1440
803
766
score
jacues
opengl
samsung
4b
hug
imm
sj
sle
##wd
##chester
url
midi
##atherine
814
bomb
##rin
##ras
##mund
search
882
idol
flow
##othy
president
px
v6
##reis
stay
##thing
cert
jpeg
kun
nom
ws
wol
xt
xy
##e1
##hn
1510
##stad
##inton
plc
grow
medic
1472
015
##anne
1711
##phy
699
887
used
ibn
financ
v2
ward
1508
786
boot
##ittor
016
ein
ges
iu
iw
lf
nn
##ress
##wig
##lace
##usa
##iah
##emy
scien
691
moore
1702
alliance
daily
bert
kot
mate
would
703
display
e6
fight
##rov
##reen
462
amb
beach
998
scar
939
plant
brook
princess
douglas
architect
bird
oem
vc
679
1464
transform
hz
u23
wanna
1512
##eless
repr
apm
acp
842
1276
sarah
shinee
them
chu
syl
canon
turn
creek
025
wifi
##05
ark
malay
763
788
agency
morris
henri
ej
host
1534
##hem
##ules
prov
728
663
783
kingdom
remix
books
russell
bn
appro
jonathan
tin
003
before
672
988
865
1703
such
gui
technolog
professional
a6
eh
##bol
incl
1663
valve
bis
hc
iz
1010
twice
neg
591
acg
christmas
creative
iup
uv
uf
##iler
trade
897
advent
diamond
wise
1719
1499
##ovi
amx
961
846
1682
1668
##uka
brothers
iron
skype
electric
psych
##bw
1528
743
982
noinclude
rece
benjamin
k5
kor
l2
nint
obe
wy
##bes
1040
1420
##itar
673
792
895
##riel
##pal
##ability
##oker
883
solid
premier
blackpink
aba
xxx
##1000
1070
##emb
906
##izon
1277
hydro
bib
mul
##bird
1340
##edd
804
1506
mast
794
1552
pixel
hir
coup
909
952
889
862
##ired
1705
administr
jak
##put
##mum
##imi
alc
youth
##aceae
##mance
ipa
bw
lon
##rs
##ju
1275
##iser
trin
constr
723
smile
without
earl
030
gill
h2
pav
##nik
1125
ford
still
967
moment
powers
ee
1390
665
877
##onda
synd
##ample
publish
jtbc
memorial
together
g2
gust
1330
##rah
heaven
##aha
billy
southern
vari
##uil
##feld
1516
1513
##otte
proble
852
779
864
052
cris
akb
psv
berg
franz
bernard
washington
m24
soph
tib
##idi
thunder
677
838
##roll
lumia
##su
##band
thor
752
##ibili
664
874
1546
spacex
crh380
born
ips
sit
##cus
##oft
##fort
898
1596
total
bish
dod
fw
vice
##imp
##aba
lex
696
##ains
user
1451
1678
080
gym
k8
wow
##uld
april
631
744
693
1557
oliver
cub
dut
##nh
##aron
saw
virginia
bilibili
freedom
a8
gur
nel
##ser
##900
##dh
807
753
8500
892
##shop
distrib
environment
b7
c3
lux
nts
tma
yo
##hol
1011
##amo
##abe
4800
select
956
694
946
minor
charl
crystal
intellig
ue
##kir
851
1543
municip
morning
nintendo
nike
##rat
##jan
##ador
grad
grace
1554
study
sigma
fig
vm
##iu
##cer
##mod
1716
##eller
789
buff
present
late
mother
##sy
##eron
##lag
005
3700
##oko
654
847
ntt
primary
analysis
jin
pom
rif
sang
2050
shot
769
crit
england
sciences
3m
a7
m8
1170
1548
chic
##iae
trax
spy
943
lovel
1594
1445
1320
coff
##105
959
958
##lands
1382
dll
abdul
bod
bond
xc
##9e
##kan
##hai
1433
stock
006
prod
french
972
869
##ende
snap
1691
della
bobby
staff
technologies
tz
vill
1270
rex
##rain
1704
##lines
movement
origin
margaret
pir
983
987
833
931
1692
belie
019
##kar
1240
##ema
896
##anche
1066
value
utf
ground
ming
rio
764
993
guide
1694
police
cafe
material
dsm
rig
wir
##zza
##bank
1533
##osoph
##emi
##ocus
797
sncf
graham
rainbow
iata
kec
tiger
v1
1030
1480
adm
exec
831
942
1686
charlie
lawrence
candy
jb
oak
shel
##08
##0000
1442
lead
columb
746
scot
697
866
891
841
thompson
running
hid
##alo
839
worms
1385
factor
performance
jordan
financial
give
p22
##ience
cot
##illon
typ
justin
productions
p2p
013
mong
tolk
##px
25k
bra
736
aks
norman
terr
##color
velvet
giovanni
ei
lane
rgb
##base
1190
1515
##aca
dean
teen
amc
734
782
1608
steven
1278
tommy
##vention
ipv4
jd
mile
u16
##gate
brig
4200
992
roberts
away
##wc
##oria
chun
reich
care
baron
1696
tk
##iod
1743
1360
954
phill
776
##uality
hamilton
messenger
cann
e1
haz
rid
##hib
##wr
977
963
1693
deutsch
sainte
tolkien
cem
##lock
##04
1140
chung
aps
795
944
emb
universit
doctor
federation
destiny
later
##hl
##osis
##107
##106
why
1404
oliv
##ledge
promotion
674
century
941
1708
1549
cyber
clear
multi
application
eag
fb
jst
pick
pure
##hu
1470
##aps
1204
ifpi
##friend
017
cbe
e23
rights
tol
##ario
##ilia
##ipe
1403
jew
scheme
bam
keep
less
lant
nb
vb
1129
##omi
arab
##uez
899
844
932
grant
1279
bmg
justice
vvv
jung
mack
wn
##alle
774
894
maker
multip
organization
references
buck
duke
nut
ping
##x2
1135
##203
3400
read
third
symph
dram
1376
upd
rapper
gabriel
hend
nine
zu
coast
##asi
##103
thing
provid
854
phen
milit
northern
return
##ythm
font
nag
null
tls
##06
##gg
##116
1706
kitty
iupac
060
both
##orum
choc
##omet
##owski
ps4
travel
broadcast
k7
##lac
##room
749
clos
gener
1677
##brid
poin
railway
connect
##hedral
dag
roc
sib
yang
##ring
##bal
##wo
1448
40000
989
868
while
legacy
nexus
observ
bull
dz
echo
hunt
j1
kil
##avi
tru
964
832
878
893
metrop
check
korea
ctv
mang
s4
##side
##log
2900
984
791
release
070
f3
kath
mck
tes
##07
##gon
theod
dei
##104
pret
671
778
##cloud
1392
luis
animation
craig
today
electronic
yoshiki
hob
k6
lak
tec
##ben
1214
991
1206
1551
scient
motion
half
beauty
private
jen
yak
##tion
##iles
ship
prize
meet
flower
##ska
holly
gogoro
robinson
040
3rd
1539
leop
884
jerry
flying
cum
dennis
own
wool
xen
##rh
##illo
event
##oen
50000
shaw
saab
sever
799
1406
extra
australia
kaz
wish
##char
##102
atv
858
849
artist
gallery
jk
rip
raf
sohc
vogue
##lar
1120
##eda
ansi
isp
974
corp
1695
much
find
glad
nim
tong
##rus
##yon
##dn
1138
##vert
853
veh
palazzo
vpn
amu
koh
rk
##a3
##omer
##tha
concept
739
836
philosoph
million
sense
shadow
lovelive
nes
pie
1215
##ava
oracle
867
icao
early
ecl
k3
pocket
sod
1225
##ended
personal
h5n1
dise
gmail
ov
##pos
##edo
##eder
chall
##boy
ads
clar
element
keith
campbell
emule
011
lif
grande
discovery
otto
##iven
hang
1509
859
857
##shire
calc
crazy
fine
ich
mud
sip
##ping
##hy
1413
chrom
772
873
1388
animax
protoc
heinrich
gg
gf
hb
wer
##bat
3100
##igen
thre
##ahl
##idea
normal
raj
cathedral
tow
1020
1375
##sta
##irus
india
guard
1671
circle
excel
1b
2b
drop
udp
1439
994
837
872
suite
swing
domin
kj
##isch
chief
deg
beast
879
##shine
1407
comput
grey
bund
##zj
1060
##late
##ede
##uli
ana
##osaur
retrie
fib
node
ran
suc
##ru
##amatan
##oux
stream
compet
1498
a340
crown
senior
ernest
kenneth
sugar
empire
2m
bald
dg
fg
horn
jur
tum
##pie
##dl
1328
##ipedia
marine
sept
##iza
drama
stewart
simple
kecamatan
rw
ui
x1
##mit
##jet
1290
1399
atc
sco
949
1356
magnet
structure
lz
colon
prest
773
793
1494
afi
ntfs
annivers
aid
bent
fia
fra
nx
sata
tau
1531
1412
1425
##rys
character
winner
bgcolor
duc
gap
hag
liter
##eb
##yes
##nar
##stream
brain
##ecraft
trna
##oku
basil
shoot
municipal
gul
k9
vie
##king
1219
anime
phi
param
1698
aircraft
ivan
cmos
rockstar
powerpc
training
economic
ralph
hudson
includ
manga
ole
##kit
##yu
##etic
##opter
##iste
clo
1067
strong
instr
woman
nathan
yf
1421
1449
chand
##oki
1504
ultr
1d
around
o2
sis
##pan
1137
##chin
shang
spl
1295
anniversary
jis
ome
vas
##fun
##anus
1160
##ilis
##olla
##ighter
856
barry
june
aux
ela
gith
1424
1501
maz
##aza
##wiki
##enti
ens
966
imdb
films
draw
tank
##mel
##wal
1016
sti
1503
crist
many
hybrid
faith
visa
flag
github
018
g5
rer
site
tob
writ
zn
##set
##nell
amy
stein
salv
melon
seventeen
f6
hh
kas
mta
1518
##mul
##lec
##owa
##ipse
appe
mechan
051
aggreg
epis
1364
stanley
got7
continu
bog
baker
risc
sult
vh
fortran
953
example
m1911
communications
hide
sse
soho
##imes
##ango
berlin
logic
lucasarts
riv
##ares
##eca
##enson
psr
strateg
raymond
yourself
toul
paper
1f
fav
gmb
##elin
##etz
prix
larry
professor
ernst
2te
bapt
d5
kamp
pub
ufc
1110
chal
tee
871
1394
dup
lod
rus
rah
shock
heat
##ances
crh2
signal
titan
canton
vincent
ces
noth
rate
1211
1224
1507
gren
1402
suica
region
conserv
during
csm
msc
tir
tard
##uh
##fish
init
##esta
ade
ssl
captain
knight
hills
##uther
ptt
cord
jazz
ktv
rin
race
##ail
1115
##arn
forum
##tek
phase
834
smack
1409
##386
nhl
sonic
marcus
bishop
lb
rush
wes
w3c
##mers
##mont
##aser
##unch
heav
carter
holy
each
roth
wake
##pin
try
agm
canad
afr
##utions
rhythm
nab
range
tx
vik
##gel
unt
myster
bae
##fire
alive
##asha
sunshine
gangan
independent
048
4e
dab
nog
pant
sold
vac
wto
##iya
##the
##ket
1213
1111
##aman
arms
500rpm
butter
islands
mlb
repres
8b
sung
##wald
1333
##imax
##uta
##oka
053
emba
sns
terry
greatest
gmbh
bk
len
##lich
1099
1210
1122
##ilo
##ogn
##ourt
##izer
complete
1185
1471
herbert
dreams
pedro
aub
gly
size
1428
always
##aste
interface
##plus
html5
doll
pand
utr
vern
##rac
11000
##news
griff
monte
bust
bure
cust
lanc
ou
pid
##ku
##amer
theater
##ims
5200
schm
morgan
communication
b6
cbc
g8
jc
jab
lia
tact
##card
1217
1126
##isy
##itation
##ased
insp
##uring
spark
price
861
rule
safari
gonz
hed
##cal
##olas
1075
1227
##orp
1438
cooper
054
transit
wait
##ittorrent
architecture
hut
sister
##kreis
cow
##ovich
pep
loop
lit
##sia
##uve
##pet
##inary
1429
friday
minister
matrix
innov
dawn
era
llo
##cin
##pat
1025
##olar
##ades
##iola
##fff
evangel
cele
document
alphago
aeg
gregory
hung
kos
m7
sbl
xd
##a4
##khz
##gp
##sten
stem
too
##sea
##123
laura
##tains
bloom
1274
assist
##opsis
manager
eclipse
smackdown
dot
same
vector
##onne
##apa
##108
sph
mysl
graphics
chicago
tig
##orus
##enge
##roph
sean
opens
itu
minecraft
1497
mrs
solaris
cgi
chiang
cinemasc
1266
##inn
##ined
ald
altern
1405
1253
genie
1161
1265
joint
wasp
federal
jessica
retrieved
represent
dong
fusion
gian
kink
sos
1410
cheng
1495
warren
##etti
helen
someth
ludwig
hou
lite
##link
##nic
##elia
##eco
##ahn
1374
cultural
022
2g
aes
pled
wit
##come
1216
##last
##eler
cox
##aci
##ingen
progress
bear
ngo
content
dsi
ikon
roh
rise
##ration
##lr
1414
##roy
##chu
##aby
##ession
1488
1387
1381
1465
wwf
nato
leonard
nelson
aac
d9
hus
nfc
##vest
##nn
##wich
include
conso
macbook
estate
eastern
cfm
foreign
platform
wikipedia
3b
flat
kaw
wald
##iot
##jects
1018
1229
##onna
##enet
##lap
alm
ari
thank
truth
##ichi
myspace
ultimate
oxford
official
medicine
024
bittorrent
clay
zf
##cent
##dale
1123
1002
##izen
##issa
abu
indian
help
glass
datab
learning
d7
kf
nds
1235
chain
brav
ard
shift
uni
ats
genesis
airlines
1476
cherry
australian
industrial
sultan
flex
mpa
wz
1116
##eli
##etf
009
##opa
drm
##auer
suv
suz
peak
oscar
claude
joey
afric
devil
birth
amazing
jf
nct
voc
vall
1119
##stand
##edes
##ived
##enda
serge
lovely
1189
1367
mcg
disney
better
howe
choice
palace
b12
fash
rl
xii
##rik
##kv
##gins
1236
1241
1004
alp
congress
cnbc
##igny
##ensen
1086
students
verd
ssd
route
investment
nicholas
piazza
035
bott
danny
ftp
sag
##ieu
neil
beats
pew
1155
liu
lotus
bahn
vvvf
protocol
eld
gan
gob
gcc
nano
##aj
##gro
4400
neu
##ugg
1351
##flow
transfer
domain
current
lig
xb
yan
1418
theor
##olin
4700
##iform
##ength
athlon
believe
pledis
2s
e7
ion
kala
nod
pam
##tes
##kov
##pad
##vm
##asis
##umont
##iev
teach
bee
1208
blues
intro
viet
virus
ddg
llc
large
different
ced
focus
kum
m9
ment
m14
tsh
##gun
1139
13000
4300
pri
elf
stev
universe
move
victory
rodr
coffee
bai
buk
fh
nou
nos
nancy
rosa
xv
zo
##ea
##enu
##itas
spac
##izz
allmusic
gross
swift
francesco
letter
aggregate
cinemascore
g6
jh
##tb
1329
##olitan
share
laugh
##anco
1271
1485
openoffice
eif
hf
kings
tj
##ez
1218
1128
##lem
##eline
alber
##apur
##ardi
##113
1377
assemb
maxim
##blue
karen
rogers
affair
dipl
marshall
symbian
military
disease
014
jum
p4
p1
vog
1221
##alia
##ilus
##eto
1358
1162
valent
##look
krist
mirror
temp
safety
infinite
update
eco
ih
tiff
ups
##rup
##vd
##via
1141
##arin
##etal
##imir
comics
shield
parl
elle
1153
1372
1391
fuj
constit
episode
fellow
hin
sx
sdr
1419
1444
##idas
##ivan
hdmi
1373
1477
philipp
rrna
orchestra
something
mant
rum
raz
rout
##rise
##wi
1048
1118
0001
##iman
alone
anders
adrian
##orton
1044
1397
csi
defense
barbara
gamerank
4s
dial
fung
rang
vre
woo
1035
16000
1427
##outh
##iden
near
1285
##vais
##itions
caen
##uchus
ebay
ericsson
venus
frontier
cinema
klein
gamerankings
kang
pdp
##09
##body
##water
1226
##orpg
chies
##iral
ready
##ipop
thumb
##ober
mala
pract
close
steel
##type
1282
1482
policy
##yll
bmp
##bye
parker
kirk
021
aus
aaron
dro
lob
ntv
tsa
##cia
18000
1348
##ivity
eddie
1283
eagle
bureau
kern
nur
uci
##bas
##enburg
1314
##ams
react
##raf
phd
##berger
centro
avbw
1258
1071
1362
feed
temper
crypt
austin
synth
rachel
protein
eid
wav
expo
1207
##km2
maxi
berry
ets
pda
poss
##ises
##etch
##osc
##omon
##othe
dee
##uced
1073
higher
argent
##v240
##stadt
oro
1019
1131
008
##andal
drum
driver
039
1281
##former
gaud
belle
susan
fashion
2pm
job
rpm
vlad
##bel
##aton
1436
##olia
syd
mans
1408
mmorpg
simula
adams
fleet
##where
chiesa
loll
mim
vy
wiz
##ppm
##bot
##jang
1175
1147
1142
##utive
rein
##115
##117
093
090
elli
iptv
##pler
1456
evans
1389
1461
landkreis
wrc
cbd
1080p
lantis
vehicle
b4
mers
mama
nerv
pok
uri
1013
##orrow
##ono
##itis
twin
geo
emil
a300
montb
course
ott
murray
m240
constant
bio
danc
gba
mine
chick
##uts
##ieux
snk
1467
1398
##bras
surv
singh
fnc
kkbox
lloyd
gk
ppm
rome
zim
2026
1017
initi
chat
bright
4600
##111
frs
##ships
1187
canal
melody
varia
beca
everything
paradise
shanghai
dock
kok
vert
##kel
1124
1324
##ternal
apec
##ucci
1259
##track
monkey
relig
syndrome
029
dio
ietf
oss
wend
##vs
1014
1238
1121
##arth
1416
1005
##abi
##uba
phoen
056
emacs
1072
1183
1192
a350
director
animal
because
cet
dome
naz
pbs
wah
##gir
1233
1337
##road
stuart
##emon
1455
1284
1264
##epp
duo
turner
bgm
##html
dic
diction
gau
kem
##yg
##120
##fur
1366
##lee
reaction
trig
leed
amiga
##ibility
065
para
manuel
afl
georges
cctld
boulev
chamber
hollywood
b8
e8
hil
hipp
jor
sic
sist
x2
##ving
##nas
##dal
1411
spa
selection
extr
1101
1307
abl
1257
1085
##itional
libre
alexa
gtk
member
lucky
oil
tac
uber
##gest
##etime
convention
##126
##ffic
suad
1365
1483
regional
technical
julia
cells
reference
028
igbt
kra
vod
##nt
1134
1346
##204
##307
orth
laz
mev
##ective
carn
perry
1355
bye
1468
reddit
pred
tomorrow
beck
6a
c5
dft
nest
##eh
1223
##atar
14000
##iche
##ocy
things
though
boom
067
stefan
1252
pcr
harold
liberty
japanese
jeremy
dak
dbc
hap
rhe
sut
##van
##hot
##inum
1322
1336
##urance
##ivo
##abad
##ovan
##icket
robot
camera
lyc
nuclear
cemet
boulevard
cort
ves
wide
##low
2040
1248
1246
##uru
alto
##andro
##190
##ibus
##text
fresh
photo
1054
1157
1452
eve
1378
1297
1395
upper
astron
account
bala
catherine
eun
emm
gis
kla
k12
l3
wb
##rell
##lia
##uent
1034
1113
1143
1441
forward
##utes
sax
1103
emd
1287
guid
piet
racing
##diepie
layer
imperial
cemetery
chel
fk
hash
rag
rup
ssh
1228
##istics
colin
going
pride
ask
ella
import
##formula
medal
trinity
distribution
database
pewdiepie
hog
lons
##aign
##erd
1231
1437
seba
ada
1205
##iley
hermann
1261
crow
cvt
curt
arnold
columbia
aver
danger
fell
fighter
k13
nand
##enne
##ikh
5600
newton
1308
1484
sunrise
volume
1m
lily
vul
##chell
##var
1232
##ires
said
lai
##layer
1291
cyan
label
tonight
philippe
georgia
infinity
problem
console
aero
kop
khz
ln
mj
nj
pps
trop
1199
##ished
##mut
could
agent
##ampa
mono
1194
survey
##burn
momo
fisher
nothing
eur
jj
kak
pfa
rv
##uation
1114
1132
1313
1335
##ised
1008
trad
mario
##onex
mean
044
compos
barc
claud
device
miguel
##icularia
2c
cald
eso
fps
gav
hour
pig
t4
tah
##erve
##onse
1417
1323
##isi
##sport
ipo
1156
1396
tournam
##borough
h1n1
riaa
toulouse
023
cern
gol
muk
sans
vick
wag
##uet
##eni
1443
1325
##ilt
##202
##rypt
macro
macau
1042
counter
1167
sales
posix
bullet
gj
peng
##aur
##mah
1037
##amoo
stern
##eme
##oga
##305
dvb
drag
1076
1363
##load
watson
secretary
maurice
celebr
ao
cable
ere
nations
rak
1349
##idt
##umn
##apy
cold
6400
##phi
print
geoff
1107
agre
1286
working
profile
inside
please
photosh
challenge
bound
dell
fad
mick
sier
1012
##arus
1426
##cep
trim
ord
hex
corn
1191
##encer
filter
remember
##vince
gdi
sharp
utricularia
f8
kee
luke
oxy
rice
vid
##ually
##gang
##wall
##aly
1327
##omys
unity
7200
exid
carlo
037
period
1386
glory
1198
buzz
salt
illust
##gamer
charlotte
tardis
photoshop
dry
gtp
nde
tul
stro
sau
ata
wei
##hof
extreme
sandy
title
following
authority
lollipop
aiko
d6
jpg
kre
lol
nay
sara
##zan
##zip
##isen
##ogl
therm
shall
atlas
1106
highway
chemical
pvc
words
##uarter
catholic
administration
b5
fcc
fuck
hood
ting
##cial
##born
1027
1310
##real
##ingo
##edi
3900
##istan
isis
##anti
##ources
weap
compact
1352
ireland
##duction
ronald
physical
collins
sleep
lower
wine
##kes
1028
##oly
ars
thy
province
isab
5300
##125
smg
085
1095
tyler
collect
article
gilbert
spotify
jalan
canadian
ioc
nir
nah
##life
##jun
1112
1117
1146
1345
##ager
##erse
spider
##112
5400
seas
6600
elite
cortex
##graph
brother
1294
plate
outlook
navig
making
ucla
industry
dynamic
bash
dop
hass
pj
sull
vk
##bie
1136
webs
075
mann
pau
1055
1174
1474
schools
irc
showtime
target
btob
fen
fus
hak
xhtml
##v1
1148
1326
chuck
##aye
##api
should
##esse
atenu
072
htm
##away
1256
psi
sword
chron
strike
commod
electro
borough
atlantic
vietnam
b0
lal
mia
n1
v3
##rim
##360
##agn
##elling
beam
scp
##annon
corps
1357
1177
disk
##burgh
##starter
father
kate
lung
push
soh
save
v10
xo
##lus
##mill
1015
1090
##ores
1166
##arian
##lain
1422
1434
apt
1203
paint
1272
starship
afc
etf
##etype
operations
russian
cookie
knowledge
##ifying
phoenix
hod
male
png
sue
ttc
1006
##iving
##ecca
##illes
once
##lyn
092
lincol
##anner
1459
1359
1273
haj
julius
journey
protection
secondary
felix
johannes
encore
fernando
border
construction
heavy
2n
ffe
gto
rie
wai
##uency
1239
1347
##asse
attr
##122
##262
066
1251
1078
guer
1097
1486
student
goodbye
campaign
docomo
message
owen
tournament
fitz
m48
mist
mint
1242
cohen
islam
5800
##217
##129
9600
1181
capit
benz
kirara
circus
sorry
dyna
combat
political
publishing
lincoln
bub
g7
gond
icc
rsa
wings
yet
##dd
##ators
##ames
##tery
##akes
##neo
1102
liner
silva
muham
lucy
campus
ferdin
omni
since
rubber
##cycl
paypal
arcade
kabup
kickstarter
gaudens
dra
duck
gom
gec
m13
vib
##bin
reu
shan
300er
frag
pain
bdsm
1094
1163
1171
1473
1462
disp
contem
sdn
depend
mitchell
idea
objective
laboratory
success
dictionary
aig
folk
json
mbe
sri
##enia
1431
##isan
##igi
##andra
##akh
shu
6800
##ffer
clin
imf
pcie
1049
##web
diy
bush
cambridge
telecom
##donald
honor
jesus
hugo
kabupaten
dum
hits
nsa
nbl
yun
brave
branch
##opus
##aks
##okawa
myc
1303
##acht
error
1154
models
riot
egg
points
african
9k
giant
mason
pou
pab
rss
##cell
##pen
##gus
1237
1299
##ared
anto
1209
clock
schw
drug
sof
1267
term
catch
welcome
##uantum
phenom
eee
gad
g20
gius
s5
tcl
##fet
1133
1447
##isse
chip
##otype
goes
1202
using
1479
1263
notes
finance
postscript
franklin
saturn
enviro500
script
broadcasting
9m
a9
bach
dix
lj
pitch
tung
##elt
cogn
##agan
##124
acm
##manuel
1301
corner
guitar
evan
sunny
ahmad
novell
trail
caroline
task
terminal
executive
baz
fix
gif
k4
tic
##wave
##anie
forces
1003
##istol
sala
##114
prada
screen
ngt48
1104
1302
emily
1158
1151
1458
1179
pete
##lett
kinki
sydney
6b
cun
goth
hib
lut
lpl
niss
vil
##pass
##gt
##acon
edwin
068
##erner
corre
1491
1393
##liner
bandar
laser
uhf
random
however
assembly
ain
bath
##rp
##dan
##mor
1038
1247
1144
1341
informer
##unk
cliff
schwar
gaming
elena
1059
1063
##forge
month
1195
networks
##ktop
sebast
pz
s6
##jon
##arat
##rem
1009
##omm
##uten
096
peg
snake
1463
cyp
mountains
fedora
kurt
kadokawa
africa
bone
fans
jax
wagon
##tic
1222
##onica
##onkey
##icz
##child
coming
adult
##136
emma
1152
within
petit
##aldi
format
jennifer
beauvais
2ch
bast
dart
dame
fai
jy
##aries
1446
cock
##aper
reed
marco
apoll
ate
at1
##order
073
crj
1056
icd
1262
commander
louise
julian
##frame
kiha
adventure
##v240zj
beth
iau
joker
loss
ruth
yui
zam
##uo
1311
1318
temu
##essa
phant
carbon
erik
1384
harm
faa
singles
andrea
doremi
chapter
symphony
ij
kub
lcc
sne
##hg
1145
coaster
##chus
##ovo
##okie
##uca
##ected
##ensive
1309
##eek
aviation
supreme
1254
1077
result
blade
leslie
crh1
jtwc
persona
027
dian
hn
kus
p3
##cock
##phe
1023
trance
5700
sep
071
##ieri
musical
claire
1293
##inois
known
##apping
miles
accord
rapid
excell
metropolitan
pretty
d100
gim
heter
might
vu
##ault
##vor
1021
##enzo
ching
##206
##ults
rey
1201
mee
played
1069
1096
harvey
1173
##itten
boyz
diego
7b
ligo
##rc
##uate
##2k
##mt
1029
1033
1212
##chat
##irs
apu
##ouri
1401
1081
swan
fear
##oides
experience
eugene
olympic
computing
aec
fsa
gast
jup
mri
mips
##ture
##talk
2029
##205
trap
061
099
097
##icks
1289
1186
1184
even
1196
##atti
warri
hammer
nikola
malaysia
cala
hind
k15
tenn
##sw
##mf
##fx
coach
brid
##ako
shap
##obo
enh
prism
055
editor
034
##ishi
1093
rocket
waters
programming
##ermont
deutsche
bind
ore
pang
pale
pump
rav
s7
sett
##rab
##4e1
##nos
##night
##bad
##step
##igne
##207
##ogy
thir
##118
074
1109
043
avc
1041
1159
1182
1489
1296
dc600
cyt
register
gerald
ppp
july
huang
array
jeffrey
jesse
products
rifle
cie
ned
nice
ridge
wins
##zel
##eria
100km
chs
##agh
leaf
amg
scale
##sha
##ertr
cornel
##iament
iris
##dress
betty
burn
reality
umts
ratp
ffe4e1
dc600v
026
cul
cah
cream
gin
lga
saga
yonex
##non
##aren
##olph
##oce
arp
isle
##anto
clermont
players
falls
custom
agreement
5d
aster
fol
k16
wiss
##ew
##cas
##np
##hill
##bet
1032
##urst
##teen
8859
064
047
1068
##duct
warner
##ucker
##ched
holiday
linear
rosen
languages
kennedy
uefa
gott
ller
oy
render
##arium
1315
##itage
0000
relation
tha
spencer
079
johan
1255
resist
harper
talent
wayne
bruno
license
phillips
muhammad
5s
dies
kung
lok
##uya
chak
span
neut
exit
##riue
hoch
alternative
giusep
eps
ecc
foster
gou
gfriend
s8
##hood
##fb
##orh
1312
1316
##ament
stell
##chy
mari
4100
amar
meyer
083
else
049
##ansas
##anning
stray
cape
called
november
bugs
athlet
mamamoo
vorbis
8a
fon
gx
mph
nih
och
tip
wet
xiv
##ting
##kell
##121
2035
1039
stack
bron
ado
069
032
1083
1361
glen
1292
farm
falcon
##radio
kanon
hmv
terminus
gibson
kindle
pearl
treaty
intelligence
parliament
cid
d8
het
hik
rj
##des
##bla
##wide
##esia
##ici
##roc
mex
058
interchange
gamma
barn
1087
##afe
##ports
##porary
##ija
hearts
feature
laurent
ajax
joshua
growth
giuseppe
aoa
dad
due
ew
ride
tub
yuk
##tt
##vr
##had
1149
##leh
hanna
##iper
isra
6300
grid
opent
##uga
078
emerg
##prs
##aea
##gres
1176
1268
extended
controller
gustav
sdram
3x
gut
gone
mbs
mund
##gers
##fi
##lable
1423
sham
tep
amr
mai
098
carpent
1108
paralle
mvc
1288
strat
groups
copy
ddr3
harrison
recept
8x
dob
ict
tus
zet
##zig
##ising
##acc
als
5100
atari
lau
062
elis
045
046
##ampton
##latz
evil
1269
lsd
fischer
wnba
esa
hw
jade
pour
uta
zepp
##core
##ply
1022
##lash
##lement
##208
##308
##128
##mania
095
038
above
visc
josef
eurogamer
rebecca
ninja
ladies
industries
meeting
basilica
8k
aol
rare
tid
##rel
##ding
##mart
##fm
cout
chia
chess
chase
##ecd
orb
059
itf
089
088
crime
1197
roberto
timothy
wells
cookies
michelle
commercial
avbwu
sierra
4gb
9x
ech
h3
hulu
m82
##pd
##aland
1432
1344
##sty
##idence
##opy
marg
apa
hdr
scsi
##ucl
edmund
##erton
cr400
1074
1165
harmon
blake
hook
khal
craw
punk
##break
angela
mystery
dancing
fid
mab
nana
sia
sov
sob
wen
##gis
##erie
##aran
1338
##enty
35mm
anat
##inda
maru
unesco
encycl
sexy
edit
crim
1169
upon
popular
julie
presents
horse
championships
artsvision
latin
destr
atlus
identity
eidos
variable
commodore
2x
5b
aids
bible
foss
hj
lik
sram
xa
yi
zi
##dia
##aling
35000
rez
##este
##iani
##mani
click
blanc
1379
irish
incre
fiba
angeles
baseball
property
todd
approach
fiction
lub
rz
sinc
zb
##run
##oor
##horn
2047
1339
##iso
##omp
##ctic
isu
bean
maus
goal
##atha
1065
1046
gnz
hoff
does
capcom
translation
chaos
circuit
porter
economics
bard
eight
kau
lec
vio
vga
##uir
##vard
##mos
2027
##law
##icles
infl
##ocer
those
trent
6200
amph
##175
liuid
tail
homo
paradox
nacional
september
lovelyz
affairs
4wd
cim
epr
jake
liz
mcl
pool
tale
##west
1243
##lax
intr
##avar
reason
adidas
##athy
042
036
##ungs
matter
1193
demon
frances
dlp
##plement
hughes
cip
gat
gum
hier
vx
vim
##gat
##game
1026
lep
sae
marina
##151
sme
063
pcm
1098
blast
raja
doi
basket
berger
calvin
csl
bened
subst
svg
nadp
nicolas
female
isaac
ferdinand
dow
lx
rug
sogo
till
vend
##rap
##hk
##hold
##mouth
##jin
##eton
##uron
##unier
##otic
##ieg
aria
##abil
shish
safe
pray
boston
091
084
molec
skin
tyr
sli
cheung
teams
cycle
caus
angels
blackberry
ahmed
santos
viva
investig
ktm
##fried
sophie
f6f
sullivan
c9
golf
i7
lich
##2c
##zon
##wind
1319
1321
1331
##ivid
mao
##ne1
acou
cdc
077
1064
1092
icon
##mbps
ohio
panzer
haskell
semi
##verse
stories
omega
sistar
gnz48
ais
c6
dere
hern
lect
##uake
##yx
##nan
##fy
##inet
##arum
##esi
stard
##emann
##ayan
thi
##illus
marion
##arte
address
gamep
033
abra
joel
openbsd
##osaic
troub
borland
duncan
constitution
dens
ged
hiro
tav
##pace
##zone
##bh
2048
1031
##rock
1007
stur
##oco
##405
##obar
scandal
057
081
cru
##inax
1053
1168
mp5
urs
wrest
defin
janet
programme
hands
##ographic
sbd
mercedes
officer
##rahim
vmware
bau
date
git
kod
lights
rov
rena
xs
##kk
##oire
2028
1334
2150
##umer
schl
1088
freuency
febr
##aldo
naval
killer
scientific
5th
bene
cep
mash
piano
ust
##ging
1317
1332
##isation
ont
colla
enix
##antic
094
sys
compon
lover
1057
perform
genius
create
biow
omn
january
palais
gmt
straight
xeon
bleach
rising
glados
busters
nissan
boh
deter
gpa
kis
luna
pter
pend
pony
tft
##bt
1245
##arr
1343
##ithe
##uni
##alli
oppo
082
els
1306
##aze
##achi
1061
1047
1079
1353
swim
butler
denis
governor
verycd
rabbit
leaders
a10
lance
r4
sons
teng
##eus
##code
##bul
##fil
10a
##inos
##arp
##inga
##ively
##opedia
reve
##302
##iku
##angle
##iber
pharm
compan
1052
osi
indiana
verilog
fail
treasure
void
workshop
horizon
spirits
##brain
nicola
cartoon
4x100
illustr
gprs
iia
kul
loh
luck
rust
sio
zz
##say
##lov
##lib
##yi
##gal
##anz
##alie
##ilar
bry
grim
grass
opus
1304
skyl
allison
plane
1045
##dragon
diva
solar
cause
##lette
milk
demand
associates
andreas
false
##bourne
impact
picture
rolling
algor
seuence
bennett
admiral
1g
dac
fame
gare
oo
pard
tut
tpp
werner
zk
zoom
##3b
stick
ong
marty
##udi
amo
seine
accept
160km
smo
holland
lisieux
gateway
historical
##edded
masters
competition
bioware
2ne1
bian
dax
gel
noc
zur
##rag
##lb
##kal
2033
1036
17000
1342
##mura
##rog
##508
reform
reader
marvel
proc
nez
##ianus
hear
##endi
dvi
1105
##uku
joan
string
mills
physics
noble
##known
ntsb
cac
cancer
g36
honda
pcc
x3
##oop
##wire
##orre
##hev
2758
leung
ordin
tox
tool
scala
##onde
pcb
##ualifying
1178
terra
solutions
##crib
bmi
voy
vevo
december
institut
bonus
casey
insurance
illinois
mercury
response
bradley
##standing
vladimir
b10
gmp
kend
pup
##map
##iona
##ases
bryan
sah
saunier
among
separ
agn
##ploy
peters
1298
burg
auf
realme
clean
chair
academic
favor
verdun
1s
dul
luk
tia
##aft
##ged
10m
##emo
reach
##ipro
##195
##shock
##isha
indic
1383
mons
jojo
##illac
sd70
igg
thomson
tales
##ippon
fields
democracy
critical
scotland
dust
ery
kota
norton
pine
pah
sind
send
vg
##iw
##uint
##vania
##enh
##mud
##iton
inner
lept
units
prob
contain
9500
adolf
sms
flip
flick
desktop
recogn
monica
1172
sanct
##asonic
dhl
getchu
psycho
innoc
clarke
dynamics
##uffle
olivia
butterfly
cfa
gag
jvc
nina
rules
wis
yy
##rill
chow
##embourg
##essel
##anton
6100
weather
##ithm
041
1354
maggie
euation
secure
langon
##itzer
funk
package
released
jaguar
lhc
c8
e9e
ket
nied
ucs
z3
##tn
1244
##omorph
##303
shr
##404
spar
##212
##anta
cli
myself
1305
greek
1164
door
territ
##ophy
mp4
bella
mtu
schema
linda
oriental
##9e9
schmidt
cfm56
antoine
e9e9e9
cio
ciel
dud
hous
lng
mosaic
nash
pula
xr
##rical
##m2
##bee
##atis
##roe
##read
##asaki
##503
##opro
##abet
uns
unc
##rail
phosph
6700
canyon
heritage
caps
voip
palmer
direct3d
chemistry
svd
##radar
##antha
weekly
alberto
2e
came
hast
ira
jg
rst
tud
##lier
##city
##oz
##inth
##amine
chco
##uman
##ulum
shi
64gb
sek
##257
##ffe
heath
eden
lines
ellen
##achy
wallace
brew
maya
kaiser
gaba
restaur
yamaha
october
wonderful
hxd1
integrated
lonely
eup
fold
hst
lup
##master
##etto
chlor
##acker
grac
manuf
ell
1043
norm
navy
passion
gddr
##awaii
carolina
abbey
snapdragon
truetype
pepper
csp
ctr
cms
casa
dale
gior
jia
katherine
m10
tune
u15
vide
ym
zun
##lang
##uge
##onso
##iak
##oder
##ieh
##306
apr
##teo
fritz
120km
##ahan
soap
glise
elements
specific
techno
panasonic
formosa
##schaft
legal
holding
buddh
leopard
bailey
ndez
4th
aber
hv
kyle
osp
uw
wd
wed
##lc
##bles
2049
1249
##alt
##stre
##recht
##idad
##502
##odus
anci
##216
mead
##mans
##ernet
agric
compi
davies
monitor
ibrahim
terror
patric
gtx
extension
sounds
soundtrack
namco
railroad
optical
atomic
democratic
magnetic
theorem
jorge
hla
##tle
##name
##mh
##owitz
##oplan
twitch
spee
ley
##arta
##ueens
##see
##1200
##131
##145
client
ida
pax
##beat
wales
nationale
associated
missouri
pyr
##ijing
gp2
##xxx
rounds
carrier
roland
nitro
amuse
including
birthday
bukit
wizard
manufact
aours
bv
bic
bts
c7
cus
hai
pes
rau
t5
##sma
##vier
20mm
##atin
coe
chrys
##imer
apc
##215
##tax
##uche
acfun
##286
silent
imac
1188
mbk
##lington
##ached
selina
wolfgang
grammar
wowow
ntsc
parallel
acoustic
1up
1gb
bx
bend
diana
gle
l4
tis
umb
##rett
##fin
##lea
stella
chlo
thorn
orn
noise
charter
fever
##drive
ett
winchester
auch
bandai
springs
chapel
essential
shadows
kentucky
wireless
observatory
sungai
temperature
opentype
fes
fft
gimp
kes
wien
witch
zoo
##tf
##uiz
##vas
##jar
##etry
##2010
8800
##ucc
##astic
grub
carry
avai
barbus
kris
info
majest
bagn
memories
jenny
mohammad
jewel
chandler
kernel
phantom
abraham
jing
mec
m26
tube
yas
##rand
##onn
2250
##imental
##304
tools
##135
bless
076
manif
role
##ccc
1089
resources
polar
##weg
jamie
##nett
haus
##comm
troyes
murphy
wordpress
joyce
besan
toyota
leopold
e9
f9
f5
fou
kud
mith
nz
pch
pico
sets
tie
tall
##ically
##etics
100000
##uted
##avan
reading
leh
adapt
laf
cnblue
##lys
##149
##main
##show
playing
087
psa
epa
desire
charge
webkit
delphi
##attan
regiment
estab
subject
write
kbs2
dhcp
names
marketing
brandon
pilot
intelligent
stevens
schwarz
cache
gai
nil
nxt
oe
tier
ux
##gia
##nine
##stock
coo
##ococ
shuffle
trick
tears
##oble
##shi
##ondo
blind
agp
redmi
artists
win32
gainax
##ught
annie
##strong
##oyd
lieuten
storage
e231
philosophy
agricult
3s
bsp
foo
jed
length
mend
rai
zap
##fect
##icia
fork
alma
##opp
##issance
abba
rox
individ
herz
herman
prec
kepler
knock
effects
linked
heroes
sexual
lynn
dualshock
shirley
jakob
p226
iast
mits
taw
vz
vos
zw
##iate
##rice
##cos
##hes
##oron
scor
##256
##2500
scholar
crt
psl
swiss
reserve
evening
worldwide
diet
load
michigan
gamespy
##ismo
loud
jules
badm
purp
##chaft
issue
nigel
crisis
tibet
environmental
woollim
instrument
initial
vernon
7s
kow
ler
lop
mina
pern
sss
toshi
##rant
##cott
##kat
##nc
##hop
##dorf
##mac
##b1
##f1
##arius
##ention
chance
alleg
80km
twenty
sai
##udio
##oba
amber
lala
##ongo
mei
links
agb
usenet
flu
1091
airways
poll
disco
europ
distance
koch
numbers
teddy
relative
italia
alexandra
introduction
bint
diss
egy
gos
kou
lamp
nun
pill
r8
rut
##media
##onte
##iling
bring
aless
##486
spike
##802
##213
seoul
prison
##127
scream
scene
examin
elvis
compar
allan
peer
brow
##ption
euip
sdf
big5
natur
decade
##ushi
larg
consort
edwards
happiness
fairy
automatic
draft
gale
jsp
kitch
n2
niel
ond
vix
##pf
##olt
bras
##oman
##imal
reyn
##ifier
nev
##upt
##214
##ahu
morph
montana
whole
yuen
fantasia
connection
dirty
until
capitol
lieutenant
9a
glas
hbl
jelly
sce
ware
##oir
##hall
##willer
##anet
##ulin
##708
60000
schne
interest
##iere
##xton
##acha
##asser
barnes
1082
herm
##cmg
similar
regular
##iffe
mg42
pierrot
keroro
applied
magnus
mathematica
bibli
multiple
several
contemporary
shishamo
february
done
lancer
mum
mell
piz
tennis
usp
##tml
##sel
##ries
##eric
##ilon
##oso
##odont
##ersch
spex
une
exhib
##ffy
cluster
edgar
##263
##izing
cruz
myth
##eye
meta
impl
grove
##ylvania
plasma
armstrong
richardson
madhouse
lands
postgres
pages
falcom
everyday
audi
damon
processing
bwv
carpenter
badminton
3t
aacs
eat
eta
hig
kry
oth
tms
vot
yard
z1
##iet
##uw
##cg
##pton
##gf
##bold
##file
##atum
##elot
coal
ink
chol
chau
32gb
##ocl
arb
##ipper
mare
##603
apink
086
##tron
matlab
##ornis
hof
maxwell
auth
libert
holmes
koi
directory
laws
clement
britain
lives
rfid
walking
spectrum
algol
commerce
whitney
israel
cay
cyn
jct
koda
r3
uml
wg
yoho
##kr
##pool
##d3
##m1
##bike
##walk
##mune
##leton
##ulty
##402
##elles
except
item
1058
##hail
##ousand
a310
burning
##block
flav
chaumont
nadh
kerr
magnum
rudolf
1c
fff
lenn
porn
tad
vamp
xav
##110
10gb
##enko
##ality
##omat
##ogon
##ogram
reuest
thousand
##ellite
adp
sym
##331
events
credit
romance
montg
feder
axis
wonders
config
5v
boc
bold
dion
fay
glay
goto
hul
kah
oasis
rng
##eor
##loo
##yne
##video
12v
##ener
##lak
##icity
##lew
chop
brack
##509
##thor
##baum
apps
apost
beijing
##olds
byte
dior
limit
cameron
millenn
speak
maps
##borg
3gpp
##kinson
promise
mhc
gentle
baptist
##girl
basketball
derek
aik
aix
kob
wick
wille
##iang
##tur
##eed
##ridge
chn
chong
##opia
##480
unter
orc
edonkey
drink
031
emper
dao
daisy
classical
##keley
crew
held
remote
tempo
formos
defence
aeon
position
budd
fortune
civic
f4f
wheel
produc
centroliner
chicken
cpr
fah
j5
kann
lug
tik
##ech
##2d
##joy
2060
2046
##erc
##atra
2160
##amax
sto
##iao
dex
##ulf
thai
trial
levi
conse
##222
carroll
gew
##gren
glenn
gloria
petro
members
murder
kwok
##player
wolfram
costa
contract
provinc
dutch
gulf
canc
craft
hui
tiny
vine
xu
yar
##eo
##enk
##elyn
atf
##oha
##endar
##ither
##eyer
1062
floyd
ministry
##ilda
monument
disorder
##ylon
ecm
tao
regulat
vega
m1917
concord
expression
lpga
elementary
a12
biz
beng
cai
eia
gain
hcl
lith
m27
ses
tse
zx
zion
##eau
##rics
##hat
##zia
##bec
22000
##asv
amanda
##arten
##phus
adtran
7800
##227
edg
nguy
##351
noah
verizon
gamesradar
junction
siri
##schule
fergus
savage
##escent
powell
therapy
##hausen
mohammed
mathematics
m249
tiffany
synthesis
montbard
geoffrey
elisabeth
patricia
adtranz
2gb
4f
aic
dit
hos
hok
iowa
ltp
nippon
oecd
txt
wpa
##ela
##cn
##jek
##fare
##inx
coord
##ingham
often
##utz
shannon
##407
uncle
##218
prima
exist
##185
height
weiss
whats
parade
##365
soon
##grad
resort
enterbrain
ss501
hair
output
derby
direction
institution
escape
houston
initiative
pietro
fellows
zetima
spexial
bid
dice
naw
puma
rit
rider
t8
taste
xsl
##los
10b
##iong
##505
deal
geomet
manh
newtype
ellis
suit
metz
osm
groove
patri
berkeley
mediawiki
melan
dhar
status
propos
punch
tactical
jumo
pablo
eeeeee
7c
bits
dms
jub
jensen
kane
ouest
rpc
siv
sina
u1
zan
##211
##pb
##erne
##heart
##sted
stere
along
##ceed
##iston
##ellschaft
concep
phyl
##177
##139
grade
##enses
##264
##clus
snp
indones
microsd
harbour
slow
notre
openss
##encia
liber
wwdc
cvs
torre
##zzi
cours
hsbc
##front
satur
darwin
scottish
##uestion
pleasure
cherbourg
##efi
electronics
meego
ancient
8gb
aab
dah
d51
lest
m15
nist
risk
sach
sank
session
sampa
til
##rio
##mind
sten
##urg
marian
margin
ish
4900
atx
conv
##boys
aclu
##ensor
crc
1084
globe
a319
##pora
labs
omar
##uctor
expans
ogle
ashley
konami
albums
kinect
binary
bedford
fighting
strategic
bottom
5c
dent
e10
fet
liver
nights
ola
ttl
yao
zach
##uot
##nu
##now
##fast
##lake
##sters
##asp
##chia
8086
defe
##403
tres
leader
##udo
##estyle
##ibada
8300
clann
##pret
icu
polo
poor
radar
radical
wrx
##atsu
chanel
slash
principle
penns
behav
types
wendy
encyclopedia
eure
hac
jl
u22
vig
wak
ying
##730
##yc
##atz
##elph
braz
##teron
##oven
tran
7400
ack
cd4
resource
##ennes
deliver
ssg
mora
##1001
mbps
##wser
ruf
ratio
sourceforge
transportation
##phalus
thunderbird
hidden
receptor
individual
euipment
whatsapp
7a
alam
gucci
l7
lw
lms
miz
nia
obl
roche
tna
went
##lord
##k2
##dma
##jd
##jee
##fest
##oris
##inia
alta
ree
shen
##ohn
7300
##251
edm
parish
emo
ski
desert
##inkle
ivy
christine
summit
##feed
champions
lightning
smalltalk
lorenzo
brooks
flickr
bpm
dfa
fv
kha
mug
sop
sik
sana
tos
zel
##iues
##gle
##mec
2036
##inator
##ouch
100m
reven
##ipa
##ovsky
##raine
conduct
scb
phon
measure
acs
##onder
worth
avran
powerpoint
vegas
boris
gardens
positive
applications
absol
##version
aurora
related
wesley
restaurant
4chan
6x
dana
hes
lys
mime
oa
ports
uic
ucc
v12
witt
zak
zico
zfc
##uat
##haw
##maker
50mm
bret
brass
ams
##aller
prior
##290
pere
##insky
blair
ibf
irene
doom
finn
midnight
##schild
##ascar
consider
pvp
sync
connor
aaaa
hawk
bunny
morrison
griffin
innovation
apollo
mausu
speech
fuse
hess
iy
mord
nis
nie
wap
yee
zar
##cont
##kl
##asing
##imedia
##197
unknown
##esto
##605
##phin
seo
##224
across
wear
carm
crush
manchester
1051
module
guild
msm
bigorre
baa
archae
madonna
novel
zealand
purple
jefferson
##kbps
answer
kotaku
##kirch
clannad
behavior
ding
dok
dcc
goss
gates
nus
oled
rivers
rae
sight
xz
xer
zeta
##v3
##mons
##fre
##eti
##otus
##209
##agi
alv
##504
##ays
##thal
##illi
3001
orbit
pron
##235
boost
##ocks
symp
##iami
descript
##ements
##crete
richmond
berk
transm
merry
este
##ulate
##ulata
township
consult
zeit
##vious
##colm
kdl
florida
marsan
powershot
resistance
postgresl
avranches
6s
6k
gour
i5
jw
rage
seth
uefi
wad
##pel
##pers
##bak
##ilian
##utical
##opt
##opal
anc
7600
##259
80000
boat
##ignan
mojang
ipc
lovers
meteor
allow
viol
angle
mgm
##ughter
langres
mirande
malcolm
rosetta
polytech
angelo
##ymetal
sabah
soribada
buddy
rotem
economy
nicole
##uttle
gravity
choco
theodor
nogent
gecko
5e
dts
fos
gue
hund
kaf
mz
nup
nate
p5
rode
sage
wire
zig
##tec
##dam
2034
##anes
30m
stu
ofdm
##umann
ani
spas
leuc
##rax
##606
##179
opteron
smrt
blitz
emin
resolution
evol
recon
herr
##551
warp
missing
annual
babymetal
##ippi
satellite
pm2
darkness
figure
materials
theodore
literature
weapon
pennsylvania
aia
fog
iib
kumi
tone
zd
##tar
##ll
##yk
##hand
##far
##lair
forbes
##mule
25b
##etric
##ento
chant
##imon
##eces
##uti
hann
45000
##ersey
trac
trend
leap
bej
adj
##169
##sons
neway
ave
avro
musa
ska
##3100
eval
assault
hole
kev
loen
singer
volks
declar
##ijk
motoro
banks
dmc
mapframe
porta
statist
falling
tlc
floor
##group
religion
warrior
egypt
ait
cic
cly
diz
panc
rift
zer
##rico
##lic
##list
##gra
##nor
##fit
##fall
##chr
##emble
deport
##uls
arsen
##ipes
shake
##raz
seal
9999
##156
acu
##133
intermed
moody
pair
freak
typh
harvest
contact
kei
mori
##otten
americ
liberal
salins
efi
bernhard
pressure
ayumi
shopping
problems
maximum
dangerous
harmony
gne
gift
kz
kansas
lens
lars
mens
tart
v4
x11
yau
zr
##bz
##bir
10th
##arh
##atur
chad
##omen
##ometer
alo
alth
comet
mara
##ifa
conrad
##boot
asm
##137
macrom
ags
emmanuel
magdal
slip
join
irving
##attle
a321
##2001
miui
bonnie
debut
woods
traffic
susp
ddr2
continental
historic
embedded
rafael
viktor
vreux
wagner
seasons
crawford
motorola
a11
aek
eck
m41
sale
zis
##nen
##fz
##idan
##enter
chanc
brett
##otive
##abo
neigh
beg
9800
##164
##232
##238
##uxe
blow
dress
img
resc
capp
morg
##otti
simpson
patrol
native
infant
kuala
concern
kwk
dorothy
entry
chapman
standards
randy
sidney
alexandre
##uadro
imaging
atlanta
##system
vh1
bravo
romeo
important
determin
emperor
dans
fy
given
ils
lus
uz
wig
yen
##bm
##js
##alon
##ischen
forms
##olan
bristol
shore
scen
##255
paras
johor
7100
erp
allstar
internal
icoca
reserv
##oxy
harvard
herc
##brand
assess
##ylie
cmg
##653
liberation
burns
baob
turb
aua
ddt
advis
logan
marcel
graf
vivo
bulld
functions
respons
frost
treatment
crh380a
brigade
e233
split
practice
wrestling
7th
bung
cts
fool
luther
nast
nero
p53
raven
##iat
##ioc
##hart
##four
##wen
16gb
##atives
##stars
##0001
tram
spd
sparc
prosp
##604
suk
browser
dias
##777
ending
es64
miracle
mbt
frankfur
download
mixed
beginning
rpk
activex
ribon
heinz
eugen
##guard
benny
certific
sphere
##basic
curtis
dynasty
stardust
4min
baf
cuda
kne
lid
lfa
lump
lcs
m31
nen
ols
outer
t7
vag
##tale
##court
##vp
##bed
##acty
##olens
##avia
##199
##ovic
shape
##isto
nept
##upa
bever
##antin
7700
##254
8700
ed75
ops
##266
syfy
##905
parc
paolo
miche
##aeus
greater
reflection
teresa
fiesta
curie
curry
curve
rtl
yeah
720p
takara
##archy
deadline
generations
##games
drew
politics
phillip
grenoble
cyanogen
baobab
aro
dil
dsc
finder
giv
lara
nai
ssa
tina
vj
yum
##fps
##erver
##icum
##rou
##idium
##adia
##otr
##imation
alien
##iker
##angu
##223
asa
##138
##iale
eli
##annes
universities
mcp
##wehr
eleph
ecu
ecfa
tsing
rocky
workers
nmr
halo
auguste
methyl
nichol
ricardo
korean
tumbl
thought
available
xavier
3asv
eo
eual
hala
mpl
nix
p6
sally
wade
##nis
##jam
##arro
theme
##omed
##oday
##aves
repl
leave
levin
##706
9700
##174
##906
##358
##erno
plug
soar
webster
dijon
verb
contents
##jection
##eneuve
paulo
jackie
gt500
missile
everybody
cities
lauren
lemon
m1897
m113
##uicktime
chromium
elliot
libreoffice
pulau
expansion
2p
bike
hers
jah
kav
kost
ptr
tienne
wf
wink
yh
ziers
##ially
##kee
##yar
##vich
##nia
200km
##inct
16v240zj
##icit
##rew
britt
anu
##192
ism
##obile
##608
seam
adsl
##161
##shan
schwe
crash
moa
##club
genus
describ
brock
broken
mmx
opening
patter
volt
##iniue
revol
mbit
publications
letters
named
##ansport
tanh
faculty
travis
mouth
shirt
p450
ntv7
website
according
tenness
athletic
trouble
algorithm
bains
eternal
fand
i2
iis
ked
kall
mip
m25
mouse
mdr
nw
pec
wimax
##yy
##itus
chch
32000
##ably
##iplex
##406
unified
##oks
aman
beer
##702
##239
eds
whis
##athon
8100
silicon
psc
sole
coron
genome
##ync
pattern
biology
horace
##iscus
mask
jerome
fourth
owl
operator
lynch
xyz
robertson
sebastian
bore
ded
dss
dmm
dors
ees
g15
gug
jus
muc
m87
mende
miami
pcl
riley
toll
viz
##top
##uim
##kas
##gard
##wise
2080
2038
##anx
##itr
zhang
input
##osuchus
000k
##omery
rever
really
lez
##allow
condom
##143
smt
gev
##sonne
##acher
##lander
colorado
##onym
raff
vera
##iency
solution
cyrix
limoux
betamax
breath
voith
lambert
siu
m1a1
yeh
crytek
sprint
ldl
oculus
##uinn
germany
jenkins
enhanced
emergency
destruct
##avarman
molecular
gamepro
millennium
boun
fang
iga
moss
rene
##ilion
##oue
brent
##tera
##uler
arrow
##ipur
trident
spc
spice
75mm
ones
enemy
##icher
##1500
cnet
##168
##228
##176
##ignac
##iese
symm
##erties
macross
loving
##lator
128gb
guang
stark
slc
hyde
tvb8
vij
##eroy
junk
##chet
pyram
retro
santo
beatles
xxi
vivian
dinosaur
condition
behind
flowers
henderson
kampung
assistant
giorgio
concepts
amus
ccr
dena
gia
haf
lsa
mct
mapping
nforce
s9
slam
ticket
yuki
##rb
chir
40mm
##omes
alx
arct
##196
##309
thin
##409
trag
marin
am3
phoe
boe
clara
clover
weber
weight
carmen
##357
##iella
evo
##ilde
marks
solomon
eccl
##ucks
donna
mercy
armor
hotels
sheph
##struct
trophy
##noon
crh6
gardner
relations
monday
psychology
villeneuve
mongol
appear
sisters
elliott
manhattan
2f
bz
gv
hoh
henn
jersey
kwan
nach
naf
pione
rural
##e3
##wagen
##style
coa
theta
27000
alle
alge
arte
twist
trich
ene
heights
wein
##285
##shaw
cars
##azi
usc
erich
guil
results
superior
afp
##ethyl
##iros
loire
endless
ef58
lua
luv
madison
animals
birds
##lababy
dallas
jessie
gregor
##ydro
florence
ktx
pseudo
imagine
catalogue
pearson
##limited
cdma2000
activity
strategy
amoled
4minute
tennessee
7d
9b
doh
jill
kut
mtd
pso
seng
wt
##sec
##4a
##2b
##word
##werty
##acom
stag
chester
##uty
armani
##191
shim
ami
ape
toys
##152
##162
##236
boo
##ugu
blg
##onto
##asaurus
##toon
singular
milton
decision
##pression
lyon
audition
penins
##anthus
analyt
platinum
ddr4
methods
stellar
hannah
montgomery
tumblr
6th
bip
cave
fas
hime
kro
mog
rend
vald
wim
yand
##ead
##cam
##yal
##yst
##pack
20th
16s
##alus
##island
##isoft
former
##reza
inhib
0002
delay
arist
martha
at2
##gee
adl
##berland
edin
8200
nether
percy
##saurus
##ophone
xbox360
powerbook
ef65
dsl
gp40
juice
digic
legion
chao
lgpl
become
##otech
emu800
##heimer
anything
anywhere
atrac
ventures
variety
##kirche
buffalo
baldwin
instruction
baptiste
msci
klaus
hassan
aip
hua
kag
kell
mie
pert
tess
tpe
wann
ys
ymc
##kor
##pod
##fam
##fax
##wing
2650
##olith
chou
bri
##oter
reid
##akan
thou
thur
am730
##602
fraser
cns
mez
##132
##189
##146
##ending
##261
blink
rost
##lated
resid
silverlight
mcle
mcdonald
basin
anglo
files
esi
##iji
hamasaki
horipro
discover
signific
properties
addition
mikhail
honour
changes
telltale
mohamed
cannon
mighty
wissembourg
schneider
rescue
bitch
cps
dang
gta
ico
icloud
jug
mls
mental
pull
tort
zg
##sar
##pu
##jah
##ww
##org
##only
15e
##enstein
14k
forg
##acity
arx
una
unlimited
##obi
ort
##ibr
##icht
pha
##tai
##166
##184
##181
8400
##ensions
avi
metall
ims
nhs
minnes
mr2
prepar
population
richter
recording
csf
luigi
srt
gerard
towns
impreza
##riage
anthrop
nexon
fabric
##werk
alexandria
wcw
certified
negative
duty
writing
conservation
laughing
excellence
7e
ego
foll
holl
iic
j0
sna
xin
yb
##park
##hpa
##mag
##wb
##erta
chok
brien
##ogie
##ersen
hk4
isla
apl
68000
##265
##ockey
carcas
blender
abi
abstr
matth
##wealth
##weiler
deluxe
hoy
ssr
popc
regina
srb
gerhard
foix
objects
humph
balance
telesc
ctu
expos
improv
celeron
kappa
tango
penny
angelababy
##bolt
cotton
hobby
degree
isabella
navigator
minnesota
carcassonne
a20
ctc
divers
fips
g0
ire
ifa
kiv
kov
nfa
oste
rts
tain
vat
##rine
##zin
##orie
##icom
##icate
21000
##etus
##asan
##oland
##iago
##ifl
##estr
neuro
5900
##155
##157
##165
8600
##147
edmond
crane
compress
emer
sketch
minute
##afa
glock
##illed
ivpp
caes
mpc
##chem
##ipping
mosfet
nsx
konst
entre
stanag
testing
jennie
hypertr
msnbc
ranking
hubert
feeling
barrett
ugc
griffith
jupiter
chloe
largenti
bej48
certificate
1x
cfc
dyl
eap
ebs
fow
lago
rcs
tiss
x4
##iop
##riz
##lers
##uas
##kon
##250
##vic
##vill
##hin
##hab
##bia
##wu
##lei
cope
styl
##uria
##oming
##oti
alco
arl
shib
shark
shader
##estone
##rai
##spa
##uela
##sex
external
##taine
means
##288
supers
##ungen
##prises
##engine
iran
particular
cypr
autoc
tournon
turk
miy
filip
mayer
garnet
miranda
soccer
giul
seminary
maple
yuan
calling
latitude
entity
lvmh
investments
alain
experiment
experimental
##build
sterling
ufj
zimmer
binding
leadership
##ococcus
purpose
indonesia
8d
bma
dma
hoc
lom
mca
n3
pong
pash
sfc
tick
vd
vest
zard
zoe
##lane
##ued
##pon
##gow
##note
##jm
##atore
30mm
##leen
##olta
##uration
brah
0080
sp2
marx
##ifolia
isi
neb
enough
##antes
##226
##186
##ffen
hew
clinton
##903
##356
##awak
planning
cpa
guilla
superstar
clamp
partner
igm
buy
warning
bmd
##2008
garo
franco
portal
##untime
roguel
mosc
fifth
vl80
augustus
aleks
lynx
ricky
independence
prestige
waiting
evangelion
diane
hypertransport
cerv
fuk
gand
hpa
hollow
lill
ryo
wur
wps
yer
yong
yves
##care
##cement
##k1
##kong
##inson
stg
dew
marit
eniac
##acki
maid
seek
goose
##ibe
##271
roe
serial
##achim
perm
willie
##458
##mex
##ynn
sdl
##mbit
below
mississ
jonas
andrews
darren
telnet
stephanie
citizen
guns
altkirch
judy
commonwealth
kenny
restr
tablet
tribe
caval
cisco
taxi
latex
jewish
thread
bundes
rothschild
includeonly
neutral
ctrl
although
casc
dahl
gsh
hors
mib
tsm
uo
zum
##uier
##hon
##jour
##anor
##anium
##ilight
##etimes
static
##chor
##otto
alba
##emen
0011
reef
##ables
4217
marm
column
##805
##ibald
acer
##188
##141
##284
cray
##ishing
##338
employ
noel
erg
##993
cpg
icann
##inski
supercell
partido
cros
knox
winamp
strept
ddos
tarbes
corey
mixt
cardinal
exped
ftisland
veloc
potential
option
breaking
freddy
operating
pulse
contrib
sylv
graduate
berryz
astronom
oxygen
clinical
voyage
reynolds
aise
benson
dai
dino
fing
fec
flet
fuel
jou
jaya
mild
moll
nsc
ode
pound
rather
sort
vec
vire
z5
##chel
##fon
##wy
2037
##atops
##muse
coop
stl
##idia
shak
##408
##illing
saul
proton
##eston
neal
neoplan
##essions
youbike
scout
adc
##tsch
tvs
##287
70000
elisa
##355
complet
##ples
percent
webb
slim
##burger
trevor
siem
##ijn
announ
moto
rubin
bones
choi
##garh
##olate
finals
##jew
banana
tracker
shaft
tunnel
ponte
canonical
dollar
priest
violet
wonderswan
roguelike
8c
gus
g13
ibook
jm
k90
lime
m70
pst
sell
siam
yuri
##370
##power
##hurst
##mine
##mith
##bj
##wara
##oral
##ened
##atro
##icial
##otes
##emia
##ogne
nebras
##1111
am2
aph
##ssen
##geon
##159
##167
meh
mein
##245
weaver
geass
elias
stef
perc
freeman
flora
mats
desc
chronic
herald
##ynos
plain
platy
christina
saml
##anya
salon
domest
labour
crossfire
triangle
eduard
fitness
cecil
segment
various
philad
leeds
barcel
coutances
pchome
btr
dtv
gce
kip
kib
m50
m203
oma
pud
paz
rania
suse
ucl
xanga
##rak
##rale
##lt
##aire
##n2
##h2
##jk
2045
##arg
##enna
##itri
##heit
##state
cola
##idis
##idus
##igma
##agnet
##umin
##ulla
aniplex
twilight
sauv
at17
maison
##sein
prius
hep
##269
##into
akm
##359
##337
plum
surf
liard
##appy
creation
treas
moving
jeanne
alphabet
semic
soundcloud
##borne
sometimes
citiz
b2b
killing
##andez
lingu
##osphere
nobody
pwm
principal
adventures
construct
jkt48
ultras
dakota
sohr
sneaker
component
consortium
kitchen
openssl
nebraska
dha
eas
ike
jaw
kale
pus
pne
s60
sick
tup
vene
xing
##aff
##athe
##ately
##iting
cobras
brie
##irt
##emont
##odo
##utter
##193
thal
tracy
##angi
##inea
##ifera
##1100
ampl
ambro
##ssa
conver
##vere
##onga
##252
##134
##ignon
opc
##282
geek
##arya
colors
##ried
harr
slo
##wei
teredo
simd
belg
sarre
castel
castell
espa
troy
communist
dmr
odd
vlan
effic
ocn
dolce
kktv
functional
sacred
carrera
##market
bomber
cocoa
f9f
aacsb
ferguson
mississippi
3po
bess
cuc
dwar
e22
fug
fundam
hina
icl
pasha
t77
vom
wma
##rons
##raph
##pis
##150
##witz
2031
##anos
##ories
##inux
##amina
##reich
##ados
##adio
brick
deen
##488
tear
proper
proced
confl
##705
adr
##172
##aho
##2800
0800
paw
abel
suff
barth
##activ
##gaard
##itting
outlet
julien
balt
sandwich
taman
##uarters
featuring
wonderland
woz
hydra
persp
fsb
italian
fuller
gilles
jungle
colonel
trigger
nieder
algebra
fletcher
5x
haven
kash
nii
pem
pte
tian
tae
yung
##uj
##cu
##4000
##yang
##hua
##jav
##jure
2032
cous
2350
2312
##rex
26000
##inge
ini
ina
##2012
##agu
anita
##198
enriue
adel
exynos
##izo
carb
blur
drake
loves
netbsd
metra
noir
##anka
perche
minimi
##665
##ualcomm
##vaux
viu
samantha
warfare
tomas
winfs
alexis
utc6
abcd
srs
landing
pieces
telegram
muret
pierce
afternoon
became
rogue
chiu
listen
dolby
dolphin
tracks
podcast
xtreme
ejb
sophia
tesla
guardian
cedric
##jekt
citizens
2tv
abo
bpp
dus
esk
fns
finger
lk
lact
mitt
pis
rings
rste
runtime
sdp
tux
w1
wedd
##live
##cio
##mare
##bing
12a
##orpor
##rose
##rows
24000
##olor
##idine
chh
chas
chos
chno
ofo
bran
comedy
thf
thus
triv
hansen
winds
##2100
##antan
##182
grup
edith
##295
##assa
nhc
##fork
bros
##ologie
etops
previous
contest
radi
merch
utc12
olive
csv
sheikh
miu
baba
invol
ballad
rtm
consumer
multimedia
awak
bernay
gdf
impro
ldh
flea
naked
kunst
gesch
##write
chronicle
capsule
exhibition
##elphia
a0
cae
eis
ero
hale
iana
jae
mage
meng
mene
mika
niko
p30
ration
waf
wisc
##uence
##a5
##kamp
##350
##vik
##ned
##nagar
##f4
##fd
##enf
##lal
##leigh
##roit
##ecesis
##aged
##uments
##apan
dea
##194
sp1
##808
##spot
convent
context
began
##seg
megan
asha
##144
##237
##endorf
oppos
##2700
manual
9200
##latt
applet
##456
mines
minas
peterson
msv
##illet
ssri
##veland
engel
top10
##hoe
campo
legis
polymer
moments
axel
batu
hpv
rouge
stanis
kimber
tbf
bourg
foods
frog
symbol
sdkfz
braun
hazel
almost
b0d3
density
collabor
destructoid
peninsula
b0d3fb
ahead
bia
cen
dend
daf
deta
h7
kpl
oreg
pitt
rico
rough
ssc
t6
ute
uuid
vint
vood
vital
vittor
##iensis
##sburg
##zar
##writ
##anza
##lach
##lade
##atta
##icat
##oum
bram
##2011
dehp
##806
ama
amor
consc
beos
##ichth
exam
##258
##187
heil
smtp
##mae
##shot
scher
##erto
cron
supply
allin
joachim
chev
enterprises
walser
##657
lima
volvo
burton
cats
turtle
mediaworks
antar
disting
meliola
richards
sarawak
omg
standing
sandra
tgf
britann
synch
moses
papa
ideal
friedman
sherman
##omyc
##uadr
benton
hutch
##arthy
3x3
definition
chcoo
macromedia
assessment
bok
bfr
cine
csa
dish
guez
hours
jit
m40
sass
tent
tuk
vale
##sr
##sf
##eux
##rina
##d1
##zac
##fix
##fact
##enos
##hee
##amar
##stall
stade
##odi
##704
scorp
laun
##154
hebe
##231
##ahi
##289
palat
roi
agnes
3do
105mm
9100
imi
snr
##aev
guest
##engers
##ynch
slot
mcd
##864
diod
##bek
delle
valence
contra
##ghan
transition
libour
powered
salem
oloron
csr
dominiue
ppi
champagne
svo
cases
beaune
moselle
russia
massive
alej
methodist
oriented
wcg
fpga
bomis
displayport
b737
towards
dependent
diesel
criminal
ettoday
alessandro
sarrebourg
alab
bem
d20
dct
fim
gest
jard
korn
mitch
masc
nascar
ody
pim
pey
r16
wx
x5
yok
##rond
##lio
##uang
##cro
##pol
##ozer
##nx
##mk
##wyn
##inen
##inter
16v
##hey
##2018
hana
80386
aram
64k
##609
apart
maha
seat
phr
nga
wha
coding
criter
##awan
immun
pcs
willis
##alam
tyra
divine
values
artem
ecma
day6
patch
outside
utc0
csx
dd51
reverse
membr
src
moba
cleveland
nsf
socialist
fantastic
walkman
location
dkz
saints
further
clayton
gondor
clifford
crh1a
fellowship
oregon
3k
dumb
kii
kpa
loth
lope
mts
ning
ntc
pall
rack
rash
rms
tata
vanc
yank
##tu
##sz
##pop
##platz
##mate
##fig
##orb
##orial
##eny
##alan
##ilyn
sting
##olus
ine
##idon
brady
##unte
##umm
##507
dela
reyes
spart
##udan
projects
prel
launch
##233
##ahr
##246
whip
idf
carne
##ertz
sereno
sui
implement
greene
flux
##666
feo
##ynchus
strange
verge
##aneous
plastic
##etting
helic
garcia
mobility
esprit
hasan
util
m1903
polygon
##uchi
levels
##conn
dimm
bachel
interaction
necess
talking
f4u
##hardt
rankings
morton
##enzie
eduardo
12306
clarence
statistical
1n
b19
dys
eep
eshop
gong
iot
m12
mesa
overse
p90
tunes
vst
vox
wcd
zag
##dor
##dog
##beck
##jung
##fred
##alla
##isson
##stown
theological
##urb
alla
alias
##506
deh
defa
anh
trace
trium
uniue
seen
lah
##158
##nex
##171
##1300
##asta
crtc
crater
macdonald
mystic
##353
##cliffe
##scope
doyle
actor
walsh
faust
tours
##geri
belt
natalie
archibald
##mpp
##minster
europa
histoire
bhd
expect
certain
scratch
bacter
suggest
chambers
chartres
wavelet
hypoth
##igeac
principles
wanted
terrace
salvador
vhf
bulletin
mickey
investigation
schloss
ffffff
saturday
frankfurt
amusement
edinburgh
6gb
aure
aube
a95
cory
cve
ered
h4
hawaii
i3
iar
jol
k75
mii
ntp
ota
r5
rent
ranger
vand
##2a
##pla
##zt
##bay
##atter
##ioni
injection
##igm
chim
##osus
##emaker
trill
isc
amba
took
##unda
##ourse
acro
acca
grund
climate
ed2k
##352
muscle
silence
pluto
##999
##alez
canvas
msg
instant
areas
davidson
tsang
knights
ohv
mirna
santiago
bayeux
kuo
mccarthy
dimension
sporting
pasmo
sharon
dogs
straw
##lahoma
mandr
##uartz
having
documentary
cunning
cornelius
smooth
majesty
pizza
vampire
eminem
intermediate
yandex
voodoo
aed
bov
bout
ddu
ith
kik
others
p9
ramp
rmb
tape
vap
yin
yaw
zee
##tag
##ailles
##ystem
##pond
##gent
##gets
##hou
##mn
##zam
##bv
##fu
##onian
##etes
23000
##asion
##chio
##irn
alk
##ocom
shuttle
spi
##ills
lego
proceed
##bau
orion
##ighth
pratt
scada
acad
##178
sma
##276
blois
able
##366
ems
##oste
erd
##398
minix
##icted
monsta
particip
capt
##656
##icola
##onsin
simmons
mpi
##linux
classes
urb
sgi
martine
garrett
skyt
rhin
rhodes
campagne
larp
numer
molly
mlt
ogg
porte
##ospace
broadway
##bonne
sylvia
abdullah
olivier
crh2a
##ailand
gothic
chakra
failure
7senses
pernay
philadelphia
brom
dap
ether
glam
l5
ply
rar
sack
uu
wbc
##e2
##lz
##vb
##nl
##nick
##dot
##fone
comun
##aces
##reck
stm
chcl
##apolis
##ersion
trump
##ikan
prol
proof
##naz
##607
mae
##707
phar
9300
boots
clan
clim
##249
##247
eddy
itt
cruis
aki
##atham
muslim
abram
silk
##457
guar
chef
valign
incorpor
##blog
missions
retur
##8400
presby
senlis
crossing
corporate
rdf
umbr
##zhou
missionary
bowl
dreux
cosmic
wheeler
bwf
thunderbolt
haguen
chelsea
tropical
cr400af
manufacturing
chancell
elephant
pyramid
mixtape
expedition
odyss
wcdma
bie
cere
euc
eber
e34
gatt
hso
kgb
lies
leth
mma
pov
ril
t65
u6
ubi
##pard
##place
##bp
##bg
##ilio
##ethe
stol
##urer
bride
##ayoshi
##oge
repe
unilo
##uder
amour
apo
convert
orland
##pha
scan
##bcl
##153
asic
##aceutical
##283
##273
cargo
newman
##achus
##332
barber
barker
##grid
swed
##465
recoch
monsters
##dev
liang
##smith
dslr
deriv
oklahoma
deco
infra
remain
germain
panor
lawson
luca
torres
royale
##zzle
electrical
espress
gbit
cgtn
m1919
springer
pgm
copyr
porsche
weekend
gogo
vvt
658c
looking
spectro
levy
received
included
rodrig
vogel
survival
sofia
fixed
##street
glasgow
infantry
bafta
shepherd
pioneer
guillaume
libourne
6g
dse
denn
gma
iter
mbr
p99
yr
zin
##liga
##cod
##fen
##002
##enza
##atics
##icious
##usson
chai
brill
##otrop
##aging
##oding
##ophe
aron
ariel
thailand
shor
shing
bez
sev
##ateur
phra
acet
##183
cds
gras
carat
crest
##907
moor
compound
##333
0240
##751
fredr
##active
##forms
##ualified
slov
joau
strand
stress
strength
offer
buch
burst
burke
esther
bread
miwa
melbourne
hsv
animage
depos
crossover
louisiana
protest
illusion
linden
scrum
s3n
gemini
jacobs
respect
blogger
occup
##holm
shawn
valentine
rhein
average
bergerac
wiener
establish
vixx
bracket
rodez
typhoon
significant
popcorn
wisconsin
recochoku
2ho
5m
bim
bum
bii
fj
fong
gould
hau
jn
jude
lass
lift
m22
nio
nme
pik
poh
tend
tara
wife
yv
zy
##two
##rig
##lx
##hub
##bone
##eson
##icide
##acaf
##edit
##idy
0012
##andr
3650
trading
lei
unis
##rae
orang
toe
##709
##703
##277
schul
serpent
9001
##ereign
##tress
worlds
webtoon
parts
verlag
terms
pope
##loon
utc18
boyd
revo
famil
muz
written
movies
ccf
maki
seti
developer
hito
##colo
signature
optim
mortagne
tetra
gesellschaft
pavilion
provider
thermal
sdn48
cahors
telescope
dich
eman
fala
fiona
heck
ifc
jong
kraft
lund
lix
lans
lha
mesh
ness
n64
neck
pts
rth
rally
sok
ssp
tensor
vow
vect
wl
yc
##lop
##oad
##f0
2065
##007
##erl
##itia
##amb
##amps
##eling
coin
chro
##2017
##483
shab
sauer
provision
isdn
##obia
apex
orl
##2200
##234
##2300
clr
cloth
##psy
bls
cr200
emot
##347
##752
evelyn
recre
mcm
dieter
##ienna
cyg
commons
tsi
##utex
roma
roadster
helvet
garc
camille
mira
domen
engineer
engineers
doris
umd
katie
welsh
k230
mathematical
kfz
suzuki
possible
boundary
bubble
skyline
dylan
lopez
haguenau
cr200j
cind
dst
etr
figeac
gina
gung
hush
iba
jive
lour
liam
loun
lips
m20
mio
nwa
nagar
piv
rij
sust
tets
##uem
##here
##xi
##bid
##jc
##fj
##info
2142
##store
##strom
ches
##ivor
reh
reilly
##485
shire
trilog
sps
##angan
tek
##803
##142
smb
##296
##292
##2900
avant
seri
erlang
gree
indie
guin
ics
##oodle
parti
veronica
simone
olleh
madrid
bs11
babel
ferry
rapha
giac
replay
sanders
riom
battery
rails
features
nikon
gonzo
coleman
difference
sensation
hydrogen
b7r
chocolate
closed
2te10
lodge
adela
gonzalez
template
rangers
weapons
attrib
rubberband
dixon
sovereign
lestat
bulldozer
6d
8f
cmm
d10
hing
iac
lana
lulu
mav
mok
ots
osh
phe
pai
pka
ump
vad
##iad
##nier
##boro
12m
##ilan
##reh
##igs
##ogi
500mm
shun
shane
spg
colour
neue
mau
##ueux
prisc
##ryn
9789
cnc
acl
asv
asn
heather
edi
##293
##297
##279
cran
crus
##iera
##354
ava
ago
0120
emc
##344
sno
##uko
monter
monroe
cheval
elev
hymm
##555
built
##888
duch
luft
remington
published
retina
##5001
concacaf
glac
starting
pixiv
thinking
borde
p229
colonial
shooting
progressive
spaces
diplom
kuso
utah
cruise
adaptive
allegro
willem
mtdna
semicond
copyright
9nine
c0
dign
fz
ige
jee
k20
m72
mimi
tand
tico
##eur
##cester
##yat
##vii
##hun
##jas
##fp
10cm
##anu
##acio
100mm
##owe
##addy
##ems
##emic
anast
comes
tris
spp
##obacter
##807
nepent
toon
fram
fruit
scal
##tail
##253
climax
##243
smash
0600
playground
avr
0300
noaa
perkins
erstein
pez
##cke
soi
recent
##ynam
dole
finally
##957
parks
flame
##2009
##768
voic
pieter
castro
doctr
llvm
darling
db2
##foot
versus
nadph
##isaurus
hayes
somebody
potter
candid
judge
##mingham
botan
dawson
##brook
gibb
piper
wmap
clojure
##walker
representation
simulation
viscount
cr400bf
rugby
innocent
examination
velocity
rstea
triumph
a29
aws
bare
banco
cage
duk
fss
g12
hitch
igr
jolla
kira
liga
moc
mub
m61
n8
toc
upl
yon
yaz
##7f
##hc
20m
##inas
##atu
##muth
##lein
##lets
2560
##elier
2750
chara
##image
alen
alter
rear
##iken
marilyn
uno
##uddin
prolog
amen
400rpm
maf
lao
##1700
##enden
##242
wee
opport
opti
interpret
mana
aka
##athus
##368
steward
##387
##384
erica
pegas
fluid
genes
clair
slr
##868
diary
election
walt
sd40
angoul
##561
##osaurs
burger
bree
mih
helena
panel
button
ppc
taiji
bbp
cgs
casio
casino
ryzen
crh5
concent
pays
sf9
packet
bgp
educational
someone
octave
##hedron
cosmo
dominic
ensemble
appeal
kumar
traditional
pharmaceutical
eryth
cairo
considered
cyanogenmod
alejandro
eeprom
9c
bop
cma
dante
email
foun
gz
lse
lange
milla
nfs
n700
pisa
rgen
tala
xmm
yos
##cz
##has
##bd
##anov
##oner
##aram
##itel
sty
##adal
chit
40307
##oslav
##umo
argo
comfort
leading
##ellus
entr
##tein
scul
scdma
##unders
booth
grb
weak
0700
driving
mojo
johnston
0100
##print
icmp
diwa
##axis
loft
##954
estr
lester
wrong
dhc
underground
darpa
deputy
cf6
asperg
synag
mosue
cites
expert
copper
stanford
megab
diagram
##harmon
historia
spotlight
habit
nucleus
commercy
idolm
coupe
h2o
dodge
rigueux
chunsoft
opensuse
teacher
suadron
buzzfeed
cognac
mexico
favorite
gddr5
ospf
ornith
fluor
presbyter
espresso
trilogy
buc
egr
fancy
gaw
gather
ginger
hate
hwa
kart
kron
kreis
lox
n9
ncr
ptc
rita
taf
vw
vander
wand
yus
yester
zor
zara
##ients
##rance
##yard
##vil
##may
##frey
2070
##enay
##heed
##stage
coel
chor
##iris
reims
ante
##ovie
shay
hkg
maruis
##ifs
##upp
##gev
##229
grig
smtown
carey
codec
blank
gamest
cricket
##902
parr
myradio
avg
agust
##345
soil
episc
mining
byr
##469
claus
msx
lih
##ophora
volunte
classification
hotcha
bench
krish
pyg
keys
keyboard
invent
dmso
takes
boulay
emu500
birmingham
rodney
ideas
rouss
argument
propag
gonna
graphic
naca
laval
##omyces
nl262
graves
achiev
hydroxy
produced
preston
soldier
##nasium
advisory
##iflora
orlando
opportun
yesterday
2ds
bcs
cys
cfr
fip
fak
hco
hino
kbit
mtr
nip
oic
tucker
w3
w2
x10
zomb
##iol
##uu
##uire
##uery
##kill
##pes
##part
##vat
##jer
##f2
16a
##atio
2550
##amoto
##elis
##ilien
##asm
28000
##idio
##enthal
35b
deux
##opolis
##ovy
least
##angor
te1
ons
projekt
##bai
amend
pras
##igned
##241
##298
0640
schr
gamet
gee
crescent
paula
musik
serena
##369
##364
##375
##377
##378
0280
##afone
few
##alda
highlight
jama
##853
outstanding
flak
##2007
ef81
techniue
sgs
portra
longitude
fermi
ccp
hsu
discord
depot
##yev
nextstep
##niacki
##respond
judith
ethn
mandy
wojew
aerospace
nakayoshi
siege
premiere
nuts
elder
companies
marvelous
kowloon
nielsen
absolute
magdalena
wozniacki
cindy
3e
7m
aet
aod
baza
ect
feng
fender
kass
lsp
neder
oj
oph
peep
wander
zil
##uatt
##cap
##gart
##bian
##anas
##ouk
inj
4096
##unc
alu
0050
##andi
hanover
hanteo
##opo
##ople
##opod
##thia
##arde
shy
trapp
##ikes
leigh
75000
sauron
marathon
neon
##essen
seym
goa
fronte
74u
0610
macle
moe
aga
##assic
##373
perman
psn
cpt
epit
##668
##464
##mea
##enner
fei
pole
##flops
iso9
basis
mpv
knows
gauss
bij
archer
ulrich
philips
mdi
m1902
m110
crh3
prototype
stephens
organic
kddi
rossi
randall
sasuke
tlb
##hetic
architects
laguna
continuous
rahman
aubusson
##iformes
vodafone
pitchfork
sinclair
housing
stu48
neptune
alabama
1h
a26
cake
catt
dov
dib
d16
eine
e16
fake
gcmg
kont
kbe
kek
pile
rta
t9
tuber
u4
##sb
##ees
##rest
##uist
##kie
##pus
##bound
##watch
##erior
##inor
2120
##hea
25mm
##rox
##stan
22b
2450
2345
stir
##adh
brend
##oms
##agus
##emar
0060
##utella
anac
spo
##804
##ellion
##antage
##ichte
adren
exclus
opend
smok
ids
##share
carib
cruc
akt
##yleft
musc
mush
noit
##376
0220
perak
eras
frees
cheer
##flo
doe
cea
moral
registr
##858
##2003
creator
servlet
volat
holt
inferno
cvn
sarlat
julio
horner
espec
invis
discip
societ
sinensis
defender
clem
maryland
programs
hardy
hardcore
copyleft
megal
ethan
ethernet
nasda
lpd
##visor
detection
thinkpad
jasper
monde
distributed
kakao
islamic
performing
pardosa
nicholson
bachelor
overseas
a13
bauer
d12
lach
lmp
lsi
lomb
m109
nal
nue
pike
rok
rival
tern
trom
tmp
vive
vala
vcr
vienne
wiley
xia
zool
##right
##uill
##cw
##vac
##matic
##zn
19000
200m
##itors
##asco
##chner
50hz
##igl
chorus
##iran
##irie
##imai
arag
twinkle
splash
##udes
neph
ame
bei
phy
##1600
##nea
##1400
bois
##268
##irect
0750
0830
myers
250km
0160
##arez
sks
##349
0210
10646
peach
##756
##aela
corolla
correspond
desp
herb
##495
ssn
daim
igor
##velt
plasm
taj
##gher
tsai
tsui
autodes
##encil
trek
breed
##itsch
associate
##hoff
longer
widget
##stead
battista
senate
tokio
galla
taken
flynn
pgp
pentagon
vivi
statistics
leonardo
passport
##giate
shared
processor
pontar
combination
sakura
grammy
cyclol
sieg
gentoo
career
kathleen
mazda
mechanics
hedge
temu1000
rovio
zk6
hastings
herzog
coalition
##ichthys
odyssey
autodesk
1p
6y
cale
ely
eisen
fiv
gender
jv
kard
kep
lda
mse
m42
pach
sovi
u3
vbs
x64
yt
y1
##iens
##rar
##uay
##kop
##3000
##oj
##hire
##dar
##blo
##fel
##week
200er
##atures
2112
##stro
stee
##olid
##ided
##enta
##ecker
33a
relax
anis
##oved
trio
hdtv
seattle
mey
mela
8900
cdu
##244
##275
##274
bloss
interplay
0180
emerson
usm
usually
##coin
##995
##395
##393
##inka
msdn
##hair
asset
eleanor
colleges
artific
acts
angers
kham
##8500
autumn
tourism
##hammer
##fair
##uiet
famous
westminster
kgf
yours
curr
halle
bayer
dbp
##jiang
lowe
builder
graff
##annah
stadt
feld
lsat
lorraine
facetime
confolens
vp9
strait
relief
combinator
automotive
barton
##ochem
vince
jiang
einstein
##optera
suzanne
##fficient
vicky
saumur
epsilon
polytechnic
##systems
mageia
k230ub
b7rle
hymmnos
noitamina
aom
banc
bsa
dfs
fta
fare
gud
kers
kuk
koo
kios
msp
mda
mfc
nid
nss
ooo
rds
torn
vn
vex
vuit
wj
zal
##gil
##nut
##bish
##jong
##arina
##lage
##atr
forth
##aml
##rob
##stris
coul
cobol
##irl
##iridae
delete
##open
arj
##ipo
##akov
combo
colony
pros
prost
##ifications
amos
ors
##boo
prat
120mm
##1800
##berto
cdf
##ensus
ito
scho
##iales
mane
aby
sergio
eri
allstars
##3200
sookie
modified
##gaon
ica
reconna
##497
dih
raise
liar
reduction
williamson
sammy
regent
burberry
belong
hotmail
dreaming
intellect
astra
helm
westwood
goldman
amd64
casp
puy
somers
jtb
lords
destroy
giles
lindsay
deepmind
tfboys
cjk
bourne
riaj
civilian
ugly
bundle
jisoo
2te116
caldwell
cytus
daddy
benedict
territory
agricultural
gentleman
aabccc
##structure
pneum
diodora
cunningham
raphael
fountain
aspergillus
bss
cil
dda
dato
e0
eust
f100
g16
hif
kic
lose
punt
sst
sector
u5
vax
vangu
xg
yl
yat
zah
##emu
##lg
##cot
##cup
##yah
##plex
##g6
##x7
##but
##jack
2087
##inate
##isle
coch
##usz
chc
chord
##osi
##irm
60hz
##apo
##aving
shih
hkria
tegra
##bah
advert
6001
600rpm
##ffield
boa
clive
wep
9400
##294
hrer
compiler
##363
##ansen
supper
##754
mmo
reflex
showroom
engad
simply
merr
firm
##962
mg34
dani
advoc
hallow
doubles
motors
albrecht
gbk
makes
mastercard
taka
payne
versace
alfonso
##oulos
##ueror
eyed
potato
weeks
walls
gogovan
welch
celest
securities
hurd
hurric
c2c
gazette
partnership
cuba
0190
reichs
pointer
lifetime
thanks
argentan
carnival
claudia
hajime
prayer
jedec
buddha
declaration
announced
membrane
chancellor
lounge
presbyterian
aam
cau
cyl
erot
fert
ftc
hila
khe
ksp
m36
pum
pami
rational
sine
tate
##tel
##six
##uic
##uity
##camp
##kok
##xs
##zu
##orax
##inction
##enote
##alem
##muk
##ionale
brag
##imed
alum
alvin
##emaster
##odia
0040
##andar
##ogene
ank
##akin
##inde
##ikos
##istor
##istin
marj
uniform
proxy
nef
beet
fract
adler
boomer
ngel
##904
parsons
elo
drac
moi
compass
##362
##342
0230
##667
##479
slf
cheese
##itted
capture
##654
juno
kar98
##gery
trees
##poral
midd
summ
overlord
koz
royce
esper
frankie
circular
##gesch
pspace
waterloo
slack
organisation
losing
catalog
dublin
cosmos
legends
transformation
lexus
pandora
lancaster
navigation
reuire
pronoun
michele
fowler
maritime
fundamental
priscilla
bazaar
vanguard
bion
cull
dsa
fock
fond
fms
gts
hmm
jaz
kens
lts
leng
n4
poc
pace
rolf
sour
vienna
##liche
##pid
##das
##bility
2044
##arre
##esen
2140
##iten
cob
coca
##acts
31a
chil
chili
##imore
##econ
##2013
##2014
##umen
3250
hancock
##ieve
##abble
comment
##iks
unr
ismail
##estro
##essage
adi
cdm
grab
opel
whose
##psi
##278
codex
0760
manor
elm
pao
0170
##339
supplement
##388
##pling
erm
##998
recomm
harald
clause
poetry
refr
##skaya
##ylus
##flare
soler
##pair
cyrus
acting
basel
##567
##568
radiation
autonom
rocks
income
##898
melissa
##6800
gt2
cvw
camry
##comp
chinon
devices
explos
passenger
##castle
designer
axn
cbtc
hopkins
##marine
itself
tnf
##gnus
bloody
##ulatus
viper
vicente
havok
integration
gymnasium
jbj
degli
writer
chalmers
tactics
gavin
##runner
swimming
ymca
comparative
hercules
phoebe
awakening
carnegie
seymour
reconnaissance
2am
bch
bata
buster
cva
dare
hick
hain
hout
lle
lions
mull
p10
samp
tio
tpg
uy
vier
vass
##rano
##uai
##cel
##gc
##vine
##hb
##x0
##doc
##m3
##fab
##009
##003
12v240zj
##aner
##inity
cov
##acus
##ouver
##urin
##ivision
deer
##ulia
##ulse
##abel
anj
comte
##487
spor
##okes
amin
enzy
seb
sein
sech
6900
clare
0650
0660
schwart
crm
crack
mood
agar
serious
supra
0260
err
erj
plants
##afar
southe
##ennial
starz
starchild
##476
mcv
partial
daughter
ecn
sds
angular
simpl
tomb
gao
milan
##ropy
familia
##hofer
palette
portug
ghaz
crypton
##yeh
fuji
ebu
velaro
connie
dolls
udara
nickel
rebellion
cosplayer
lavender
detective
dirk
lunar
approx
hendrik
cumberland
titanic
bravia
teaching
##rupt
vertical
nedain
pccw
recognition
transmission
deportivo
arsenal
diaspora
semiconductor
artificial
1e
8th
aau
biss
cag
dive
dae
ehr
f0
hue
hare
ias
ita
mald
niv
oda
tdp
utv
wired
x2000
zm
##yz
##gara
2077
##006
##atos
2520
cooh
##etts
##rez
2850
stam
##chon
##irk
alley
reached
##1010
sper
telex
saunders
unice
ato
##phen
adri
asb
##acea
clip
##291
##inty
blend
0780
##iero
manson
ability
rookie
loved
silv
erin
swin
sous
##468
##461
##478
petra
polyn
particle
chet
euis
mrsa
divx
##557
ecw
##opher
##ophyll
cygnus
prep
##irostris
regin
naim
sunset
##bling
ef62
##lasia
shek
##uila
mayor
holm
panther
ccg
horror
discuz
consist
ways
dmf
takah
citad
vl60
augusta
destro
tablo
hmd
laurence
kleene
issn
mh370
pitts
rollins
nicol
iwi
alcoh
generator
nathaniel
maximilian
maximus
religious
##millan
buddhist
producer
hundred
wedding
criterion
hypothesis
martinez
domenico
nepenthes
engadget
2h
ase
a16
cib
d50
dill
dug
doodle
eason
hach
iue
kda
lst
nop
niger
nurs
oops
puc
pug
pond
poker
sow
tant
tips
vote
wie
xna
xanth
zack
##kom
##yder
##post
##hog
##x10
##b2
2075
##arov
##arra
##esign
##alin
##itable
##etr
stub
##ching
##adu
##urre
##imar
##2016
allah
##opla
##thy
spie
colmar
##obot
amii
apfs
hdi
##ibi
9900
7900
cdr
##ensch
##281
##267
parent
newport
0221
imd
images
er2
##391
flour
##459
##453
minutes
##trak
iras
##ylla
internationale
##veld
samar
sims
naj
winning
haut
salle
milky
okb
montes
##chez
philharmon
camb
##ussy
mirai
digest
lucia
ferre
juli
md5
utility
runner
gods
controlled
token
cinnam
wellington
dunn
gilmore
xm8
freddie
villefr
italy
ninj
tribute
bosch
float
seventh
immort
brooklyn
critics
xcode
parameter
salvatore
mechanical
witness
vocational
eunos
##uentin
collective
hoffmann
##omorpha
ecmascript
##agnetic
synagogue
##uattro
iso9001
pontarlier
3p
3n
3gb
4n
4m
d30
dik
hath
kac
kand
kie
keller
kylie
latt
loki
mop
mss
mps
mimo
pby
r9
sot
sard
tga
xfs
yur
zem
##rm
##lot
##cad
##class
##pay
##gor
##gue
##vv
##vald
##hm
##d4
##wang
2061
##eres
##organ
##esch
##esian
##esome
##alp
##alm
##icult
forget
cobra
theology
2940
chern
bru
brach
##iry
60km
deus
debor
##ulo
spam
leib
maure
##ibu
##team
frat
meas
heg
hevc
##maine
0630
linn
akadem
myname
moo
abe
roz
compreh
##361
##iled
##341
##374
kmc
pca
bars
##396
moder
##455
minolta
##462
recovery
##471
joanne
gnutella
terre
contro
cmp
pauline
tomy
##nette
singing
olm
flac
##767
gerry
horiz
understanding
m1a2
sonny
machin
everyone
ubisoft
familymart
mccart
dinosaurs
ffm
ethics
##uished
lionel
ferrari
cloudflare
fiber
mechanism
kauf
demonstr
bianca
sd70ace
yaoi
nupedia
patterson
kallang
##family
hk416
marmande
rthk
helvetica
bordeaux
soviet
vuitton
amiibo
villefranche
2r
6p
aas
bere
dbe
eads
faw
gow
gore
gome
gosp
hec
hara
kish
panda
sog
sich
t91
ugl
vcs
xps
y3
yue
zs
zune
##rist
##aut
##green
##h1
##hound
##morph
##bun
##wat
##eney
##ischer
30km
fortress
##leum
##amel
##etano
##ready
##asu
##enton
##imov
alert
alpo
60m
hank
500m
3750
thc
leone
hanson
colt
##estar
##uper
##arton
##ibur
frig
lazy
##ffs
cdna
worm
##3300
metam
pepp
countr
flood
appar
epub
medi
magical
reson
clav
charac
mmol
highland
euival
##5500
actin
cmc
cmd
nao
tsun
winston
##apple
beleri
dsd
biological
antib
737max
juery
kof
malo
farrell
esports
nyons
jacuel
museo
insert
downtown
hadoop
rb211
rating
##iyak
felipe
reborn
jsr
differential
shining
angelea
guru
critic
cedar
accounting
avery
temu2000
hochschule
linkedin
geometry
clyde
vancouver
invisible
pamiers
schwartz
deborah
beleriand
aal
bps
bain
bongo
cud
d0
dess
d77
dancer
fum
fanny
guth
h6
jad
kram
mle
mille
m55
nif
nau
npo
pld
phel
rho
rih
sbc
tiz
tosh
ush
v7
vps
vls
wk
wro
wgs
wlan
waste
x8
##uite
##uette
##xp
##dock
##zilla
10km
##arine
coim
##acre
100g
##olit
##olina
##osome
##ossa
brush
brief
##agio
alfa
##odacty
##utsch
##ocarp
70s
shown
trg
##istle
isn
##809
##bahn
oral
scn
heidi
edta
edison
smi
##ensional
whale
itis
crunch
##ialis
moj
ipx
##389
metab
##assin
imap
##991
sola
corona
cpi
cpc
genji
guan
evidence
monolith
glut
##491
##443
partition
##bron
##863
##deen
##bean
javier
##651
places
opencl
lois
##889
##883
##793
ef66
armed
boyfriend
##ulam
madam
camel
goldberg
porto
torrent
heartbeat
borg
depth
selangor
galile
protect
odbc
eggs
##ception
dali
welt
nacl
mutual
fernand
kpf
provence
bodies
columbus
cumm
towers
berliner
##patrick
razor
ppsh
fucking
manifest
evaluation
i2p
tpe48
domestic
default
southeast
unicef
destroyer
countries
8p
bans
bild
bax
cft
dbs
eus
ema
fasc
hoo
hpo
joc
kog
lack
nass
oi
otc
rect
sink
sino
tien
v9
v5
veter
z2
zend
##sum
##lf
##a0
##nat
##fol
##004
12cm
##aler
##isches
3045
fors
21st
2130
##elman
coat
##acp
chico
##omal
alder
aloha
##teral
##aparte
##utra
36000
80286
##thus
##akis
thames
ships
##angement
teaser
marriage
1987a
hdl
atsc
seph
##163
grin
cls
smp
tv3
itx
0970
carson
syner
interview
cri
johanna
elim
avon
roots
agen
johns
##7500
##grade
mineral
##amela
##scopy
starb
introd
glor
##ptime
stras
##inkel
instead
##skiy
loe
christie
christophe
warm
gaia
trey
technica
##784
acceler
midway
wrt
##comb
tcg
currie
mali
presence
prescott
horm
mdma
yeung
godd
numa
kwong
britney
synt
machines
homme
kerber
durham
##iyah
##escu
travers
hiphop
abdel
fleming
platz
yaml
eliza
shoes
operational
sensor
putra
presidential
yoyo
##lacement
metropolis
hussein
valentino
dudley
precision
brazil
xerox
legislat
distinguished
makiyo
millau
achievement
volatile
blossom
hurricane
1mb
6f
bik
bcr
cpl
either
gave
hust
hector
iarc
jem
lust
ntd
ncs
ppt
rtp
riff
vere
yz
zac
##sat
##vana
##niel
##d2
##f3
##fle
##fts
##free
##won
2066
##005
##erk
11g
##onis
##enes
##icana
##icester
##amba
##oline
##olaris
##idian
chino
##irth
##2015
##emat
##umab
0083
deaf
andel
reign
##aken
##484
shakes
leicester
ung
colum
nehal
apert
scand
meat
asi
asus
##enschaft
0950
scha
caranx
hrt
drs
roose
##soon
steps
bark
##755
##996
guido
icp
airplay
hermes
##494
jeans
discrete
dcard
eleg
valle
loi
##887
sampson
transl
##859
haute
##eroid
karim
trem
specification
ef60
##769
jacky
garage
fiat
motif
hamburg
aziz
novo
bbb
bayonne
##inals
damage
b2c
saving
vaugh
trains
cerro
ronnie
cinemax
m16a2
a320neo
combined
kvm
integer
ribbon
lilith
nnn
publisher
situ
buffer
nimrod
personality
tobias
writers
innovia
guerr
excellent
##ocephalus
fontaine
mclaren
ustila
ordinary
agriculture
configuration
neighbor
cappella
guilty
##museum
barcelona
infrastructure
portrait
kiosk
kar98k
characters
nehalem
9f
aoc
aire
banner
cmu
cue
c12
eig
e11
ester
hort
heng
huss
hspa
ifs
kant
krit
lck
mold
mno
pell
pue
pty
rale
rama
sime
suther
tight
tpm
upr
wab
xul
##mir
##zka
##fg
##orium
##elve
##iones
##rea
thee
stable
##olome
##idel
##enth
##otis
35a
##ags
##ulous
##avo
reis
##ovirus
tric
tract
spica
leu
salam
##upe
maw
maint
goo
goat
fres
export
exodus
exerc
phane
meer
##173
hei
clube
##272
##ured
pars
elsa
140km
mole
##cles
##ideae
rook
agost
##367
##334
skip
peb
plos
soe
soa
osaka
coral
##662
robb
harri
##444
##sterdam
waltz
openv
croix
regen
radius
##951
juniper
sheet
firewire
##iewicz
ramm
retail
malt
svt
distrik
defined
nightmare
communic
darius
otis
nono
pgc
m4a1
b1a4
ultim
##ytic
diaz
gw1
mamm
rebel
encrypt
celtic
wikia
##ulations
geneon
kelvin
##imento
effective
wmv
dwight
ferrand
nomad
bertrand
crh380b
situation
elaine
soldiers
inspector
sergei
eif2
simulator
correct
##ithecus
authent
description
bounce
perspective
strawberry
returns
amendment
erasmus
bif
bates
cik
ccl
cinder
dle
dara
f27
gzip
jfs
jvm
pata
pfl
rana
sven
teth
uac
uts
ved
welf
yip
##iom
##tan
##san
##e4
##rets
##cing
##kam
##page
##num
##hara
##zyn
10mm
##aret
##iska
3050
2199
##acam
stain
strom
##chang
##channel
##owicz
##idu
bris
##omyr
##otta
##agent
##odor
##ocation
37mm
##uben
sheng
55000
spread
marvin
##udad
proto
##okrat
##raam
neumann
amt
##verilog
maimai
##ighters
sey
##ichy
frac
lazz
boone
grind
smoke
##peed
cara
perp
soy
freestyle
robust
guz
##trans
resident
mona
##473
brooke
charity
blaze
sls
slite
systemverilog
euity
##556
##552
preci
capacity
buchan
anger
samson
tomato
transact
bmnh
naomi
##958
autor
calendar
kingston
salmon
olig
##797
##2004
karin
clubs
vanessa
luce
realplayer
preserv
tdd
larrab
rpgfan
developers
smartisan
scrabble
gwen
randolph
reviews
napster
dickson
proteins
pnp
dramatic
hunting
streaming
juris
##ugged
dragons
drugs
ticl
warriors
essentials
described
netherlands
improvement
moscow
siemens
sustain
episcopal
permanent
exclusive
larrabee
5f
9g
bong
cst
cca
dpi
fury
giza
i4
iap
jann
kia
moth
m51
moul
niz
rica
rover
ruther
sart
uma
xk
xpress
yn
##table
##lund
##u2
##kowski
##ped
##vn
##draw
##bard
##bund
##jn
##jay
##fh
2099
10k
15g
##enig
##lai
##laus
##itp
25z
##ellation
##asant
##ouin
stones
chien
chiron
40km
brake
brachy
##uno
##unus
arpa
##indo
##482
shows
shower
lea
leb
te3
teatro
prox
isk
64kb
tooth
toolk
##orde
acute
##asters
cdp
##endron
opec
##2600
0960
schle
##908
linus
myst
pae
##eya
baru
##screen
strict
gnta
igp
##774
regard
regulation
hao
incident
classics
##kev
##782
remaster
freeze
logical
##ciation
digit
funny
747sp
##struction
bobo
huene
princeton
ft2
schedu
statement
slave
sacr
##parc
madeira
aurel
ricc
##ulated
vitry
bradford
integral
nerf
nerve
crispr
deutschland
closer
lakes
corpus
assistance
opensolaris
etsi
##ogloss
hibern
monthly
nikolai
tidal
ontario
sanctuary
##railers
warehouse
defeated
delivery
revenge
violence
dizier
ultrasparc
##connect
glacier
megabox
gametrailers
daimler
gomez
andelys
sutherland
6m
7n
8g
8cm
a24
bitter
csc
cush
emanuel
fuch
hsc
hox
jens
kiki
lpg
mard
misc
maver
nud
oise
omp
patt
rik
runes
vet
vannes
wack
wyn
xh
xmpp
##9d
##ais
##vy
##mot
##zione
##jid
##will
##eras
##erman
##oran
##inel
##arf
##stick
2220
cobb
##aso
stall
##uram
##omics
aly
ally
##ayn
##ogaster
##tham
arith
##abilis
twelve
##481
sh2
shut
5566
hktv
65000
##ups
amand
atelier
##antz
##pherson
##phyr
##laye
hee
clc
##2400
##ensk
##enska
ngai
schol
moy
avn
##awi
##awk
##346
##assi
0200
##757
snmp
osu
corel
genetic
ephe
minh
matches
magna
microsystems
recurs
harps
##474
##472
350km
vertex
hoi
##559
cyc
preview
openid
##loader
##876
##burst
billie
volk
armv
##763
sheffield
6502
maybe
mayenne
deck
lesp
gerber
rhod
portland
toronto
##zzy
haswell
menor
zeiss
beaux
mlc
rdna
aspx
headuarters
jaime
humanities
athena
brandy
rotary
nicky
fat32
abbas
encoding
ciudad
tribune
gibbs
spiritual
gillian
ipsec
gymn
providence
##osauria
dialect
dioecesis
cortana
vickers
hodg
cognitive
jaxa
##filter
othniel
10gbase
liverpool
matthias
adelaide
alcohol
ffmpeg
roosevelt
aar
bcc
gion
gpg
gertr
j3
kst
m47
ovi
pest
pph
pencil
tert
troll
upt
vss
wba
wbo
yag
##tis
##sworth
##rate
##uing
##cape
##czy
##oit
##jak
##wid
2039
2085
12b
##anensis
##anova
##onet
forte
2270
3150
stamp
choh
##iration
alison
33000
3350
deleg
##iele
artp
ardu
##ovia
twe
##489
300m
marl
unpl
amsterdam
maiden
##icho
98a
##ucing
##igner
grun
grave
macc
##azy
compat
3dcg
emotion
##383
##ilee
##pris
##397
##392
frey
corv
##books
##454
texture
magi
icm
monast
clamec
strings
surprise
##4100
ivb
##ophila
##652
##779
##885
finite
pops
maxis
donovan
merit
recordings
##keit
##gerald
baud
turkey
breaker
subaru
lama
archives
okay
decl
##zech
panic
panth
lucius
toro
chinensis
albion
animate
trot
devon
consum
telegraph
nymph
giat
developed
moonlight
taiwanese
woodward
ncbi
konueror
hatch
##escens
additional
udf
structural
femin
lager
olympia
sulf
hosts
negro
##bwiller
wyatt
publishers
presentation
shelby
sodium
##osauridae
jurassic
mpaa
diploma
jobs
plateau
relationship
components
guebwiller
abstract
vittorio
emotional
doctrine
especially
jacueline
welfare
precious
clamecy
3r
6ho
b16
c99
doo
hald
hij
iph
kano
pian
rgy
s20
sii
sect
soda
sanche
slayer
t95
tizen
viola
x6
y2
zaw
zyg
##long
##kos
##pak
##dream
##mis
##jr
##130
2056
##orr
##enon
##alion
2190
##itic
##ilities
##rep
##idation
##ombs
##odox
##avel
##abh
teu
unf
amir
enf
hdcp
##ibal
##ibel
fry
##acey
heim
boogie
cll
webc
id3
sybase
akira
##issy
agents
0140
3dfx
##3600
users
perd
perez
##cker
soo
##ukh
append
##451
swat
icf
super7
brod
petr
irs
disaster
euil
collegiate
##ophys
actors
sdss
##778
patent
naut
naacp
##ronics
cred
brev
voices
subs
kras
memo
##hole
rhaps
tcs
lucifer
funky
malone
hongkong
gbu
##ought
wayland
dmit
festa
##ganj
taking
puzzle
axl
a1a
versailles
beatrice
2a46
512mb
gallop
dimensional
wildlife
processes
alec
hawkins
marshm
ciao
##gasse
jdk
054a
alpine
rupert
barclay
fitzgerald
bridges
gottfried
1ghz
toxic
cynthia
kedah
zgmf
shibuya
h7n
synchron
nederland
steele
arithmet
9mm
bav
bump
cate
dsh
eph
fitch
gbs
hull
hfs
hilton
horton
iff
iber
jat
jig
kup
m29
mtp
n7
nell
nort
nath
pth
pied
rien
ranch
xvi
yale
##eira
##rug
##lv
##uum
##kus
##p2
##glass
##jh
##8000
##wim
2043
11b
##inam
##ining
##arity
##laced
##alen
forbach
2175
##stor
2880
28mm
##olm
##agnie
alicia
##umes
8080
aran
##akers
lean
##spr
amal
am14
ordn
scumm
laut
aso
smc
idaho
itanium
0900
linna
manz
manning
##ancement
supern
metaph
noi
##itech
impress
##forcement
##664
##6600
souls
##meister
superfly
##ulture
##496
##492
polish
mci
msi
reduced
doors
##eke
##eka
taur
taito
tsr
haupt
##ettes
2052
##783
mayday
wiiware
dharm
bonaparte
ruff
churches
cfb
##onaut
ebd
odm
augustin
vault
ld50
ldap
katz
chapelle
ckd
##utting
##ogenes
kbp
##osphate
isaiah
catalyst
revolutionary
kpop
wolff
iwgp
transformers
dropbox
argentina
orochi
sternberg
celebration
isabel
settlement
renderman
illustrator
dharma
anthropology
cooperation
briey
umbrella
families
vowel
pivot
intellectual
reginald
ustilago
bist
cing
cune
dorn
dros
fsc
fior
getting
ima
jury
kahn
lui
m107
nchen
ora
pamela
sopa
tko
uba
vcl
wdm
z4
##uze
##aan
##kj
##geme
##bitt
##flex
##wski
2055
2067
##onge
##onium
##isms
##isme
##islav
##hei
##rost
2230
##ilius
##acia
##rec
stap
stup
inher
chich
brest
alh
reo
arbe
anor
anchor
##akte
thes
truck
spat
spell
onion
colomb
isdb
neur
##ellier
##upta
##allo
##ackage
convers
begins
##antine
gostation
99w
scania
phyt
asf
##299
schiz
##icker
abm
compl
compa
suid
##385
##382
##371
imo
erika
allied
##latus
osman
nhn
mods
livehouse
matters
##engo
starr
glp
gluc
mmr
##wards
irwin
##brun
dioc
##def
reflect
##iene
ecos
igu
basara
kear
olga
ends
##892
karma
ef63
armand
##porter
brem
shea
voor
archbish
martial
simul
infr
wilkinson
realms
formal
sigur
##7300
softbank
greenwood
lydia
nyse
godaddy
semantic
insight
awk
aspect
origins
b2m
handbook
##onomy
saber
ncsa
##monkey
kurz
ffvii
lorenz
viutvsix
p220
flores
m16a1
empty
mwc
nichols
carte
kidd
roller
zenfone
occur
occident
mckin
rodrigo
fleetline
chamberlain
erect
##ompany
federico
xslt
brittany
boeing
humphrey
crosby
procedure
chevalier
pegasus
somerset
5pb
aunt
bers
crom
d19
dass
gart
gte
hens
hmb
lba
mld
m43
oad
o305
pung
rsp
rbs
rath
ritch
sessions
tss
v0
vell
vms
wies
wants
ymo
##rive
##cine
##pit
##gre
##bhp
##bench
##jit
##jian
##jug
2090
18e
15th
##alu
##isia
2110
##leine
25a
cog
thel
##used
##idin
##adt
chab
dek
##opic
##ogan
90w
aren
##ubi
shui
##ctv
##ikon
leip
onenote
300mm
proud
isit
isro
neill
##nai
maul
maine
segr
goals
##gear
cng
asu
asw
nginx
whate
whitt
idl
cret
mania
newsp
newcastle
moov
0150
##343
##cox
##icae
oskar
##veau
peta
hermit
polaris
##869
poet
##skie
walton
##659
##776
2307
cephal
mp40
##959
tsu
haji
##pole
powervr
##798
##897
baum
shear
boyer
##968
mgl
ull
household
##bios
goodman
helmut
kaa
##6300
talbot
malik
tdi
extensions
##ipple
runway
janice
polymorph
beaumont
##caster
becker
stephan
umaga
yuv
kerry
gabrie
bells
argel
narod
pasir
samurai
brands
nrc
majority
sacram
reload
ingwiller
paradigm
##ogenesis
aeros
springfield
vitr
thrust
piccolo
prairie
4x4
hacker
hl7
dnp
bingo
laborator
growing
administrative
stafford
##locker
lateral
lifestyle
continued
giants
philippine
b8l
penguin
keeper
misty
spanish
cepa
companion
ordinance
innocence
higgins
eureka
pereira
ccr5
atrac3
nebula
baltimore
brendan
toolkit
3av
bga
cure
cgh
dce
dham
furn
fighters
gsi
hamp
jau
kcmg
lps
mire
mister
nang
riz
t30
tint
tilly
xor
yield
zab
##imus
##iidae
##c2
##vu
##vig
##nay
##x1
##bits
##fina
2042
200000
##erius
##anum
##ename
##aled
13b
##icut
2170
2185
2510
##amy
##rops
cove
copa
2430
2460
##ask
##chain
##iders
chum
brut
##ivirus
##emer
70mm
arcs
unb
##nau
51b
amtrak
enigma
apis
##iane
fries
aden
acr
carp
130km
dres
mof
##381
12500
##753
snyder
epid
##661
swallow
##oxin
harbor
##ologia
verde
markus
girons
##ylene
loose
##oung
##564
mpg
##9500
##express
romantic
submarine
derived
henrik
vanilla
revers
luf
pdm
##bnb
astray
siren
rhiz
ramon
navarro
docs
sinus
##olfo
modeling
ruiz
boxer
galerie
hardware
nsu
arcadia
batman
vivid
welles
titus
illum
courtney
gorilla
ricci
sherlock
sheridan
sweetbox
venture
rgm
zaft
slee
hazard
deutscher
eagles
generally
2mass
sse2
litv
rohan
tradition
meaning
shapiro
orbital
wisdom
conseil
astronomical
windsor
conscious
volunteer
ferreira
starbucks
rammstein
artpop
2x2
cke
dba
dora
dmi
drey
fag
hfc
iwork
m35
nol
npr
nchez
obr
oval
pog
rapp
sock
sources
tps
wally
xan
yj
zon
##rr
##rier
##rane
##lite
##kd
##kind
##323
##3a4
##pv
##oya
##gov
##not
##nir
##duck
10g
##eries
##lau
##isma
2117
##amon
##eles
##stell
##etia
zhong
##rees
stabil
##church
40m
##ivy
##irin
##aglia
aln
0070
##ograf
rech
relay
arpan
trif
leica
isil
isso
amigo
ener
atb
##phys
acuis
schult
bliss
##909
myvideo
drc
musiue
compagnie
peel
##perfect
##759
snc
90000
willy
flesh
epc
glib
airbnb
##498
##4400
strip
mcs
mcfly
irb
died
##flower
ecology
##658
visit
##878
salz
volley
creep
accel
francois
skyactiv
mirage
mirza
domino
2094
realm
institutions
humble
ballet
sinh
trois
tarn
cryengine
huay
##ganu
lowell
palae
momoland
minimum
peoples
sfx
reno
saverne
egfr
latter
ncsoft
dtmb
counties
narc
started
added
analog
staat
alaska
kcb
persons
detroit
jared
rolls
coser
tapaj
rudy
easymule
arkansas
malays
deutschen
threat
literary
shooter
kalafina
feedback
astronomy
dopod
fragment
oreo
cornelis
fossil
hoffman
sturm
renaissance
illustrated
grimm
jellyfish
petroleum
necessary
proceedings
optimus
sculpt
abyss
halloween
hormone
buchanan
rhapsody
arpanet
issoire
8m
9th
boll
cig
cto
caco
dung
eros
fok
gack
gmm
jolin
lpc
mfs
m101
naga
pens
pee
s10
sgr
sze
sites
silly
##r2
##rf
##lik
##kpl
##g2
##good
##von
##host
##x5
##mant
##buch
##1a
##onc
##online
##inin
16c
16x
2115
##itory
##leb
##elines
##start
2240
2280
2320
##acer
##acles
##usc
ingen
##idase
##adb
##adata
##entz
chill
##ospor
brenn
breth
alte
##opoulos
37a
thx
shank
spm
spf
##illery
negeri
##spir
##naud
amateur
##sse
atkinson
sei
sear
##ohsi
pristin
adblock
600v
meets
ed76
codes
geh
aval
avalon
compu
##awn
meter
no3b
##assy
##758
##pri
modulation
gros
##afee
monk
##engganu
##4200
slide
nora
##862
assoc
cheek
raina
##itto
offset
##paint
prevent
acta
sd45
igles
opened
knife
flamm
armen
breathe
2057
dsr
archie
esmer
anthem
pdc
famas
lesbian
##ijah
sumo
juven
longhorn
keyless
##ihi
lymph
hsl
##ippy
dhan
rtf
ryu
carlton
arrival
kuz
mtk
austria
galil
galton
pacif
##ormal
3gs
bernstein
damn
garde
purs
gabb
impulse
jail
1080i
destination
diagn
s3bl
charts
kcal
republican
alfredo
bourbon
roly
ventura
reported
rudolph
cxcl
lunch
gigante
hxd2
floating
cannot
dagor
dztwo
##position
bentley
##opterus
crh2c
jfk
chatter
cetme
influence
separate
dexter
##stedt
stereo
sankt
marianne
moodyz
scenario
beverly
alx500
pstn
mandriva
giacomo
fivb
rutherford
lespros
arduino
whatever
9d
9801
aem
auc
ccm
cute
dtd
e21
erys
fill
gio
gry
gsc
gcd
hima
hockey
ive
kx
k14
l8
lur
lena
nub
nya
pto
rul
sint
t11
yp
yor
##tree
##sing
##uits
##vol
2076
##enan
2180
2133
##elift
2223
copp
##ilin
24k
2499
##etis
2380
stanton
50km
##adier
##2019
##emys
##opol
38000
reports
37b
##iphe
trit
onc
marble
47b
amon
##boa
##tsa
mek
##neh
##ffa
bohem
##endra
schiff
playboy
##lds
##anca
complement
10500
##372
plot
104g
##ools
cornell
##grup
indoor
guys
soup
##477
##alde
webm
webos
poe
2201
marker
terengganu
wallet
##6500
cao
##882
poppy
angl
##563
khor
##ucket
undert
techniues
2054
shee
velay
montreal
##5300
ntu
srgb
##6700
kaohsi
wrap
overflow
everett
temporal
albany
girlfriend
roses
fnn
hisp
multics
telstar
getty
vaj
fairchild
birch
##voice
konrad
trait
prinz
##chenko
faces
facility
tbol
australis
florent
sixth
fatima
jsf
frederik
planetary
commissioner
conditions
eyesight
covergirl
beaufort
couple
shotgun
organizations
##batore
presto
1067mm
pantone
kawas
valentin
##otheca
emilio
clinic
marguer
crimson
zbd
lutheran
##onymous
tissue
conflict
ninjago
coimbatore
infrared
ritchie
kaohsiung
1mm
1seg
8mm
9p
aat
bose
bien
bcd
bally
cee
cbn
fmea
gide
gage
hls
hampton
jel
jnp
lul
m30
mish
m39
miro
mami
n6
p7
t56
uva
vast
wax
x0
yell
zl
zing
zfs
zoho
##t1
##uine
##cano
##kbit
##dt
##dham
##bane
##jana
2079
200rpm
10w
##inated
##hex
##amen
##eln
##sto
2287
coc
##acin
stif
2950
##idens
##osed
##ombo
##omial
##imm
##andon
rewrite
ariz
arial
##oves
tron
saim
married
unw
##uden
neville
amn
amade
enrico
orph
beb
beaver
##antara
scram
adol
phal
##tae
cd8
opin
blob
blanche
parth
drift
ipcc
compens
##ansa
##achrome
##994
universidad
monaco
gliese
feet
##inker
mcnam
##wear
##867
dci
##4300
prevention
sdo
cmb
loch
vila
duff
duffy
##uckland
regions
mplayer
knot
winnie
##encing
##encies
incred
##2005
##rology
bao
armour
romano
2053
2051
##582
esrb
##598
mayo
roadshow
garena
cvc
ramos
overture
2083
kgm
##691
hammond
##8300
courier
janus
passage
majlis
puig
papers
citrus
##zoa
imposs
bulk
lumo
narrow
dolly
gotta
facelift
baggins
issues
loco
##lished
privat
vitro
f2a
pasta
kelley
needs
imagination
sentinel
pearce
r1se
052c
selective
ridley
mackenzie
##charger
dominion
ernesto
toby
tigers
teachers
survivor
kemp
cyp3a4
browski
voting
twisted
caesar
vintage
gathering
mccartney
unplugged
a14
awa
auckland
bpi
c96
faz
giz
grom
iie
jnn
kawaii
l9
ltc
mow
masa
m103
pist
pussy
ritter
umm
##tok
##rans
##kva
##4j
##oia
##vt
##how
##xml
##dell
##meyer
200mm
##00000
##lase
##atia
##icill
##isu
2123
##iland
2340
29000
##usen
inch
insa
ingrid
##adas
##otable
##ecast
##ogp
##ulis
arctic
37000
commu
thu
thann
spoon
leis
