<pad>	0
<unk>	0
[CLS]	0
[SEP]	0
[MASK]	0
(	0
)	0
”	0
-	0
.	0
–	0
£	0
€	0
▁,	-0
▁。	-1
▁无	-2
▁的	-3
▁1	-4
▁、	-5
▁2	-6
▁有	-7
▁发	-8
▁未	-9
检查	-10
▁病	-11
▁呼	-12
▁呼吸	-13
▁双	-14
▁心	-15
▁大	-16
▁咳	-17
▁病史	-18
▁年	-19
▁主	-20
▁一	-21
▁音	-22
▁天	-23
▁体	-24
▁现	-25
▁正	-26
▁/	-27
▁可	-28
▁咳嗽	-29
▁发热	-30
▁腹	-31
▁在	-32
▁\	-33
▁及	-34
▁3	-35
▁正常	-36
▁体格	-37
▁体格检查	-38
▁主诉	-39
▁:	-40
▁神	-41
▁中	-42
▁分	-43
▁双肺	-44
▁不	-45
▁咽	-46
▁反	-47
▁是	-48
▁月	-49
▁次	-50
▁为	-51
▁流	-52
▁20	-53
▁c	-54
▁精	-55
▁否	-56
▁鸣	-57
▁精神	-58
▁否认	-59
▁皮	-60
▁过	-61
▁未见	-62
▁有力	-63
▁鸣音	-64
▁于	-65
▁神清	-66
▁和	-67
▁药	-68
▁流涕	-69
▁过敏	-70
▁音粗	-71
▁充	-72
▁人	-73
▁心音	-74
▁皮疹	-75
▁药物	-76
▁出	-77
▁10	-78
▁过敏史	-79
▁日	-80
▁l	-81
▁充血	-82
▁19	-83
▁检查	-84
▁反应	-85
▁4	-86
▁cr	-87
▁史	-88
▁了	-89
▁四	-90
▁痰	-91
▁平	-92
小便	-93
▁肠	-94
▁后	-95
▁包	-96
▁未闻	-97
▁胃	-98
▁暖	-99
▁明	-100
▁;	-101
▁上	-102
▁以	-103
▁201	-104
▁呕	-105
▁呕吐	-106
▁肿	-107
▁顺	-108
▁腹软	-109
▁好	-110
▁四肢	-111
▁5	-112
▁鼻	-113
▁气	-114
▁g	-115
▁与	-116
▁肢	-117
▁时	-118
▁心律	-119
▁crt	-120
▁胃纳	-121
▁其	-122
▁他	-123
▁6	-124
▁异	-125
▁啰	-126
▁接	-127
▁齐	-128
▁h	-129
▁之	-130
▁《	-131
▁明显	-132
▁抽	-133
▁°	-134
▁第	-135
▁大小便	-136
▁律	-137
▁》	-138
▁杂	-139
▁清	-140
▁外	-141
▁辅	-142
▁9	-143
▁对	-144
▁腹平	-145
▁腹平软	-146
▁热	-147
▁地	-148
▁抽搐	-149
▁m	-150
▁蚕	-151
▁蚕豆	-152
▁辅助	-153
▁肢端	-154
▁扁	-155
▁扁桃	-156
▁多	-157
▁一般	-158
▁大便	-159
▁r	-160
▁律齐	-161
▁开	-162
▁自	-163
▁被	-164
▁扁桃体	-165
▁杂音	-166
▁等	-167
▁手	-168
▁肿大	-169
▁公	-170
▁·	-171
▁内	-172
▁全	-173
▁出现	-174
▁这	-175
▁心率	-176
▁并	-177
▁所	-178
▁下	-179
▁鼻塞	-180
▁7	-181
▁前	-182
▁咽红	-183
▁双侧	-184
▁包块	-185
▁最	-186
▁血	-187
▁接触	-188
▁喘	-189
▁气促	-190
▁而	-191
pm	-192
▁由	-193
▁成	-194
▁国	-195
▁患	-196
▁b	-197
▁「	-198
▁」	-199
▁i	-200
▁干	-201
▁压	-202
▁n	-203
▁活	-204
罗音	-205
▁伴	-206
▁增	-207
▁+	-208
▁热峰	-209
▁11	-210
▁也	-211
▁200	-212
▁12	-213
▁未及	-214
▁患儿	-215
▁p	-216
▁异常	-217
▁8	-218
▁周	-219
▁压痛	-220
▁高	-221
▁“	-222
▁小	-223
▁一个	-224
▁口	-225
▁手足	-226
▁结	-227
▁新	-228
▁见	-229
▁回	-230
▁特	-231
▁学	-232
▁进	-233
▁0	-234
▁阴	-235
▁s	-236
▁三	-237
▁喘息	-238
▁因	-239
▁同	-240
▁西	-241
▁两	-242
▁hr	-243
▁但	-244
▁天前	-245
▁"	-246
▁红	-247
▁当	-248
▁w	-249
▁度	-250
▁电	-251
▁生	-252
▁该	-253
▁会	-254
▁缺	-255
pd	-256
▁约	-257
▁绀	-258
▁开始	-259
▁神志	-260
▁美	-261
▁脓	-262
▁稍	-263
▁位	-264
▁秒	-265
▁存	-266
▁a	-267
▁无发	-268
▁作	-269
▁少	-270
▁中国	-271
▁曾	-272
▁军	-273
▁总	-274
bpm	-275
▁至	-276
▁左	-277
▁肌	-278
▁活动	-279
▁南	-280
▁t	-281
▁张	-282
▁39	-283
▁面	-284
▁家	-285
▁台	-286
▁东	-287
▁加	-288
▁北	-289
▁平顺	-290
▁经	-291
▁来	-292
▁小便	-293
▁二	-294
▁通	-295
▁个	-296
▁意	-297
▁或	-298
▁使	-299
▁缺乏	-300
▁到	-301
▁建	-302
bc	-303
▁蚕豆病	-304
▁反复	-305
▁就	-306
▁如	-307
▁右	-308
▁海	-309
▁政	-310
▁相	-311
▁将	-312
▁外院	-313
▁改	-314
▁白	-315
▁腹泻	-316
▁法	-317
▁食	-318
▁重	-319
▁文	-320
▁疱	-321
▁疱疹	-322
▁提	-323
▁行	-324
▁水	-325
▁近	-326
▁尚	-327
常规	-328
▁工	-329
▁要	-330
▁%	-331
▁已	-332
▁都	-333
▁表	-334
▁阵	-335
▁形	-336
▁光	-337
▁无伴	-338
▁wbc	-339
▁干湿	-340
▁间	-341
▁支	-342
▁乳	-343
▁crp	-344
▁发现	-345
10	-346
▁数	-347
▁回声	-348
▁阿	-349
▁18	-350
▁此	-351
▁区	-352
▁从	-353
▁原	-354
细胞	-355
▁存在	-356
▁粗	-357
▁设	-358
▁英	-359
▁38	-360
▁名	-361
▁诊	-362
▁半	-363
▁×	-364
▁颈	-365
er	-366
▁每	-367
▁发绀	-368
▁血常规	-369
▁阵发	-370
▁性	-371
▁黄	-372
▁脓点	-373
▁长	-374
▁今	-375
▁部	-376
▁方	-377
▁组	-378
▁比	-379
▁基	-380
▁教	-381
▁世	-382
▁肺	-383
▁指	-384
▁大小	-385
▁美国	-386
▁全身	-387
▁本	-388
▁市	-389
▁机	-390
▁人口	-391
▁<	-392
▁参	-393
▁^	-394
▁单	-395
▁诊断	-396
▁30	-397
▁整	-398
▁f	-399
▁首	-400
▁粘	-401
▁战	-402
▁马	-403
▁运	-404
▁影	-405
▁任	-406
▁连	-407
▁*	-408
▁扪	-409
▁15	-410
▁安	-411
▁排	-412
an	-413
▁mg	-414
▁较	-415
▁感	-416
or	-417
▁各	-418
系统	-419
▁病人	-420
▁没	-421
▁女	-422
▁联	-423
▁德	-424
▁治	-425
on	-426
▁便	-427
▁颈软	-428
▁199	-429
▁信	-430
▁十	-431
▁巴	-432
▁寒	-433
▁用	-434
▁传	-435
▁科	-436
▁凹	-437
▁可以	-438
▁起	-439
▁香	-440
▁阵发性	-441
▁制	-442
▁咽部	-443
▁尚可	-444
▁特殊	-445
▁共	-446
▁王	-447
▁欠	-448
▁音清	-449
▁张力	-450
▁达	-451
▁d	-452
异常	-453
▁打	-454
▁未见异常	-455
▁广	-456
▁更	-457
▁皮肤	-458
▁意见	-459
▁实	-460
▁罗音	-461
▁宫	-462
▁闻	-463
▁还	-464
▁100	-465
▁既	-466
▁日本	-467
▁称	-468
▁山	-469
▁获	-470
▁事	-471
▁完	-472
▁要求	-473
▁金	-474
in	-475
▁纳	-476
▁异物	-477
▁第一	-478
▁25	-479
▁保	-480
▁头	-481
▁治疗	-482
▁平方	-483
▁肝	-484
▁子	-485
▁使用	-486
▁腹部	-487
▁米	-488
▁可见	-489
▁吸	-490
▁16	-491
▁城	-492
▁香港	-493
▁低	-494
▁只	-495
▁直	-496
▁ii	-497
▁既往	-498
▁民	-499
▁亚	-500
▁专	-501
00	-502
▁代	-503
▁凹征	-504
▁属	-505
▁偶	-506
▁又	-507
▁目	-508
▁合	-509
▁附	-510
▁触	-511
▁能	-512
▁时间	-513
▁14	-514
▁认	-515
▁关	-516
▁车	-517
▁bpm	-518
▁13	-519
▁痛	-520
▁动	-521
▁淋	-522
▁说	-523
▁昨	-524
▁布	-525
▁可闻	-526
▁以及	-527
mm	-528
▁抖	-529
▁分泌	-530
▁其中	-531
▁抖动	-532
▁站	-533
▁淋巴	-534
▁得	-535
▁选	-536
▁交	-537
▁不胀	-538
▁万	-539
▁规	-540
▁分泌物	-541
▁地区	-542
▁她	-543
▁主要	-544
▁牙	-545
▁尿	-546
▁角	-547
▁稀	-548
▁欠佳	-549
▁不适	-550
en	-551
▁其他	-552
▁号	-553
▁17	-554
▁查	-555
ar	-556
▁五	-557
▁无罗音	-558
▁受	-559
▁没有	-560
▁禽	-561
▁进行	-562
▁它	-563
▁研	-564
▁超	-565
▁夜	-566
▁腹痛	-567
▁太	-568
▁2018	-569
公里	-570
▁处	-571
▁向	-572
▁县	-573
▁成为	-574
▁我	-575
▁少许	-576
▁奥	-577
▁变	-578
▁198	-579
▁面色	-580
▁平方公里	-581
▁包皮	-582
▁28	-583
▁包括	-584
▁缺乏症	-585
▁抵	-586
▁卡	-587
▁波	-588
▁社	-589
▁再	-590
▁馀	-591
▁仍	-592
▁胸	-593
▁斯	-594
▁李	-595
▁复	-596
▁跳	-597
▁国家	-598
▁物	-599
▁非	-600
▁集	-601
▁月经	-602
▁对称	-603
▁气喘	-604
▁右侧	-605
▁轻	-606
▁阴道	-607
▁他们	-608
▁演	-609
▁寒战	-610
▁转	-611
▁110	-612
▁形态	-613
▁道	-614
▁模	-615
▁即	-616
▁足	-617
▁活跃	-618
▁拉	-619
▁管	-620
▁领	-621
▁考	-622
▁服	-623
▁2016	-624
▁量	-625
▁公司	-626
▁路	-627
▁光滑	-628
▁研究	-629
▁增多	-630
▁创	-631
▁软	-632
la	-633
▁游	-634
▁食欲	-635
▁口腔	-636
▁左侧	-637
▁均	-638
▁40	-639
▁历	-640
▁26	-641
▁球	-642
▁线	-643
▁吸入	-644
▁哭	-645
喷嚏	-646
▁e	-647
▁随	-648
▁级	-649
▁亦	-650
▁2017	-651
▁克	-652
▁世界	-653
▁很	-654
▁温	-655
▁铁	-656
▁120	-657
▁引	-658
▁临	-659
▁罗	-660
委员	-661
▁苏	-662
▁列	-663
▁纹	-664
mp	-665
▁另	-666
▁河	-667
lt	-668
▁流感	-669
▁岁	-670
▁取	-671
▁子宫	-672
▁运动	-673
▁清晰	-674
▁抵抗	-675
▁溃	-676
▁第二	-677
▁眼	-678
▁声	-679
▁情	-680
▁探	-681
▁百	-682
▁夜间	-683
▁期	-684
▁伊	-685
▁推	-686
▁红肿	-687
▁肋	-688
▁则	-689
▁质	-690
▁脾	-691
▁里	-692
▁征	-693
▁触及	-694
▁症	-695
▁计	-696
▁认为	-697
▁纹理	-698
▁惊	-699
▁入	-700
▁古	-701
▁信号	-702
▁类	-703
▁常	-704
ad	-705
▁早	-706
▁溃疡	-707
▁口唇	-708
▁获得	-709
▁平软	-710
▁组织	-711
▁睡	-712
▁维	-713
▁脱	-714
▁着	-715
▁膈	-716
▁淋巴结	-717
▁末	-718
▁↑	-719
▁嘶	-720
▁调	-721
▁因此	-722
▁位于	-723
▁系	-724
ol	-725
▁音稍	-726
▁风	-727
▁圣	-728
▁根	-729
▁21	-730
▁收	-731
▁男	-732
▁疼	-733
▁图	-734
▁武	-735
▁强	-736
at	-737
▁政府	-738
▁大学	-739
▁疼痛	-740
▁元	-741
▁肢体	-742
▁产	-743
▁无三	-744
▁宣	-745
▁感冒	-746
▁乳腺	-747
▁194	-748
▁利	-749
▁连声	-750
▁资	-751
▁禽类	-752
▁哭闹	-753
▁解	-754
▁语	-755
▁当时	-756
▁呈	-757
▁分布	-758
▁神经	-759
▁因为	-760
▁plt	-761
▁197	-762
▁24	-763
▁毛	-764
气管	-765
▁自己	-766
脓点	-767
▁决	-768
▁支气管	-769
▁理	-770
▁k	-771
▁□	-772
es	-773
▁消	-774
▁担	-775
▁普	-776
▁节	-777
▁独	-778
12	-779
▁青	-780
▁工作	-781
▁投	-782
▁乡	-783
▁听	-784
▁睡眠	-785
▁医	-786
▁空	-787
▁可能	-788
▁举	-789
▁欧	-790
▁台湾	-791
▁外阴	-792
ic	-793
▁中华	-794
▁带	-795
▁身	-796
▁陈	-797
▁难	-798
▁先	-799
未见	-800
▁网	-801
▁居	-802
▁黏	-803
▁官	-804
▁片	-805
▁查体	-806
▁暂	-807
▁退	-808
al	-809
▁商	-810
▁剧	-811
▁应	-812
▁肿物	-813
▁视	-814
▁政治	-815
▁样	-816
▁稀烂	-817
▁报	-818
▁195	-819
▁副	-820
▁++	-821
▁范	-822
▁初	-823
▁松	-824
▁电影	-825
▁环	-826
▁紫	-827
▁半天	-828
▁印	-829
▁lmp	-830
▁同时	-831
▁惊跳	-832
▁代表	-833
▁立	-834
▁歌	-835
26	-836
▁许	-837
▁负	-838
▁舌	-839
▁23	-840
股沟	-841
▁腹股沟	-842
▁需	-843
▁最高	-844
▁国际	-845
▁22	-846
▁标	-847
▁成立	-848
▁问	-849
▁一种	-850
▁省	-851
▁卵	-852
▁编	-853
▁赛	-854
▁之一	-855
▁神经系统	-856
▁英国	-857
▁x	-858
▁深	-859
▁结合	-860
▁协	-861
▁196	-862
▁附件	-863
▁u	-864
▁那	-865
▁型	-866
▁观	-867
▁减	-868
▁部分	-869
▁爱	-870
▁阴囊	-871
▁导	-872
▁o	-873
▁明确	-874
▁不能	-875
▁清醒	-876
▁系统	-877
▁造	-878
▁故	-879
▁记	-880
困难	-881
▁—	-882
▁翻	-883
▁中心	-884
▁去	-885
▁发育	-886
▁团	-887
▁肌力	-888
▁发展	-889
▁边	-890
▁不同	-891
▁希	-892
▁宫颈	-893
▁表示	-894
▁bi	-895
▁定	-896
▁○	-897
苍白	-898
蛋白	-899
▁湿	-900
▁rr	-901
▁通过	-902
▁字	-903
▁担任	-904
▁黑	-905
大学	-906
▁v	-907
▁石	-908
▁ns	-909
▁无脓点	-910
▁102	-911
▁影响	-912
▁次数	-913
▁临床	-914
▁修	-915
▁条	-916
▁作为	-917
▁职	-918
▁党	-919
▁脑	-920
▁福	-921
▁黏膜	-922
▁博	-923
▁镇	-924
▁扩	-925
▁sa	-926
▁母	-927
▁点	-928
▁江	-929
▁血流	-930
▁这个	-931
▁几	-932
▁如常	-933
▁行政	-934
▁电视	-935
is	-936
▁cd	-937
▁让	-938
▁粘液	-939
▁死	-940
▁华	-941
▁父	-942
▁化	-943
▁法国	-944
▁采	-945
▁设计	-946
▁尼	-947
▁失	-948
▁统	-949
▁193	-950
▁委员	-951
▁刘	-952
▁双乳	-953
▁j	-954
▁考虑	-955
▁for	-956
▁纳差	-957
▁诱	-958
▁社会	-959
▁书	-960
▁这些	-961
▁快	-962
▁除	-963
▁格	-964
▁囟	-965
▁家禽	-966
▁六	-967
▁继	-968
跳痛	-969
▁面积	-970
▁呛	-971
▁二便	-972
▁完全	-973
▁反跳痛	-974
▁哈	-975
▁航	-976
▁一些	-977
▁出血	-978
▁停	-979
▁内容	-980
▁出生	-981
▁知	-982
▁_	-983
▁当地	-984
▁种	-985
▁真	-986
▁2019	-987
fi	-988
▁根据	-989
▁z	-990
▁看	-991
▁具	-992
▁范围	-993
▁移	-994
▁无声	-995
▁乌	-996
▁目前	-997
▁历史	-998
▁突	-999
▁飞	-1000
▁咳出	-1001
▁林	-1002
▁做	-1003
▁位置	-1004
▁公里	-1005
▁文化	-1006
政府	-1007
密度	-1008
▁显	-1009
▁街	-1010
▁结构	-1011
▁效	-1012
▁参加	-1013
mu	-1014
▁为主	-1015
▁把	-1016
it	-1017
▁八	-1018
▁汉	-1019
▁给	-1020
▁星	-1021
he	-1022
▁花	-1023
▁所有	-1024
▁乳头	-1025
▁小时	-1026
▁闻及	-1027
▁建筑	-1028
▁脱水	-1029
▁队	-1030
▁腺	-1031
▁年代	-1032
▁诱因	-1033
▁负责	-1034
▁抗	-1035
▁单位	-1036
▁土	-1037
▁105	-1038
▁简	-1039
▁药敏	-1040
ads	-1041
▁游戏	-1042
▁市镇	-1043
▁↓	-1044
▁老	-1045
▁中央	-1046
▁沙	-1047
▁火	-1048
▁37	-1049
▁攻	-1050
▁肛	-1051
le	-1052
▁提供	-1053
▁粒	-1054
20	-1055
▁正式	-1056
▁皇	-1057
▁锐	-1058
▁预	-1059
▁音乐	-1060
▁派	-1061
▁村	-1062
▁威	-1063
▁人民	-1064
▁白细胞	-1065
▁27	-1066
▁恶	-1067
▁体温	-1068
▁唇	-1069
▁议	-1070
▁管理	-1071
▁之后	-1072
▁cdfi	-1073
▁以下	-1074
▁杨	-1075
▁锐利	-1076
人民	-1077
▁北京	-1078
▁hb	-1079
▁然	-1080
▁执	-1081
▁2010	-1082
▁注	-1083
▁发生	-1084
▁评	-1085
▁离	-1086
▁阴性	-1087
▁温暖	-1088
▁差	-1089
▁尿量	-1090
▁经济	-1091
▁湾	-1092
▁司	-1093
▁韩	-1094
▁喷嚏	-1095
▁散	-1096
mula	-1097
▁2009	-1098
▁例	-1099
▁朝	-1100
▁按	-1101
▁formula	-1102
▁充盈	-1103
▁圆	-1104
▁九	-1105
▁俄	-1106
▁第三	-1107
▁虽	-1108
▁才	-1109
▁警	-1110
▁农	-1111
▁mm	-1112
et	-1113
▁作品	-1114
▁铁路	-1115
▁命	-1116
▁州	-1117
▁呛咳	-1118
▁情况	-1119
▁延	-1120
▁湖	-1121
ou	-1122
▁背	-1123
▁睾	-1124
▁版	-1125
▁心影	-1126
▁吉	-1127
il	-1128
▁问题	-1129
▁已经	-1130
▁期间	-1131
▁均匀	-1132
▁食物	-1133
st	-1134
▁许多	-1135
▁儿	-1136
el	-1137
28	-1138
▁下辖	-1139
▁肺炎	-1140
am	-1141
▁模糊	-1142
▁2011	-1143
▁配	-1144
▁全国	-1145
▁登	-1146
▁烂	-1147
▁世纪	-1148
▁90	-1149
▁状	-1150
▁31	-1151
▁牙龈	-1152
▁却	-1153
▁纪	-1154
▁胸片	-1155
▁但是	-1156
▁2015	-1157
▁pd	-1158
▁上海	-1159
▁29	-1160
▁宽	-1161
▁门	-1162
▁近期	-1163
▁紫绀	-1164
▁城市	-1165
▁斑	-1166
▁进入	-1167
▁之间	-1168
▁积	-1169
▁依	-1170
▁肿胀	-1171
▁就诊	-1172
▁甲	-1173
▁试	-1174
▁遗	-1175
▁银	-1176
▁症状	-1177
11	-1178
▁足球	-1179
▁放	-1180
▁透	-1181
▁毛细	-1182
血管	-1183
部分	-1184
▁鱼	-1185
▁越	-1186
▁rads	-1187
▁偏	-1188
▁局	-1189
▁服务	-1190
▁艺	-1191
▁百分	-1192
▁两个	-1193
▁肿块	-1194
公司	-1195
▁粘膜	-1196
▁毛细血管	-1197
▁升	-1198
▁支气管炎	-1199
▁规则	-1200
▁比赛	-1201
▁教育	-1202
▁德国	-1203
▁重要	-1204
▁咳痰	-1205
▁技	-1206
▁眼红	-1207
▁粒细胞	-1208
▁沿	-1209
▁睾丸	-1210
▁埃	-1211
▁口服	-1212
▁2013	-1213
▁请	-1214
▁色	-1215
▁2012	-1216
面积	-1217
▁纵	-1218
▁客	-1219
▁校	-1220
▁听诊	-1221
▁家族	-1222
膈面	-1223
▁颜	-1224
▁增粗	-1225
▁拥	-1226
▁办	-1227
▁2014	-1228
▁海拔	-1229
▁切	-1230
▁厚	-1231
▁时期	-1232
▁滤	-1233
▁生活	-1234
▁乐	-1235
▁00	-1236
▁低热	-1237
▁上述	-1238
▁学校	-1239
▁龋	-1240
▁写	-1241
▁七	-1242
▁顺畅	-1243
▁病理	-1244
▁住	-1245
▁短	-1246
▁百分比	-1247
▁可及	-1248
▁双下	-1249
cm	-1250
▁最终	-1251
▁成员	-1252
▁绝	-1253
▁装	-1254
▁支持	-1255
▁减少	-1256
▁增强	-1257
▁增生	-1258
▁分别	-1259
▁讲	-1260
▁持	-1261
▁呼吸困难	-1262
▁旅	-1263
ion	-1264
▁龙	-1265
▁事件	-1266
▁控	-1267
▁并且	-1268
▁saa	-1269
▁人物	-1270
▁打喷嚏	-1271
▁澳	-1272
▁塔	-1273
▁壁	-1274
▁中性	-1275
▁卵巢	-1276
▁平均	-1277
▁滤泡	-1278
▁需要	-1279
▁吐	-1280
▁优	-1281
ac	-1282
▁鼻涕	-1283
▁通畅	-1284
▁奖	-1285
▁师	-1286
▁计划	-1287
▁防	-1288
▁描	-1289
▁加入	-1290
▁杀	-1291
▁st	-1292
▁2008	-1293
▁虽然	-1294
▁发行	-1295
▁刺	-1296
▁唐	-1297
▁语言	-1298
▁喉	-1299
▁同年	-1300
▁全腹	-1301
▁委员会	-1302
▁群	-1303
▁玩	-1304
▁萨	-1305
▁易	-1306
▁必	-1307
▁改变	-1308
▁今日	-1309
▁混	-1310
▁播	-1311
▁zh	-1312
▁冠	-1313
▁决定	-1314
▁毕	-1315
▁走	-1316
▁心脏	-1317
▁109	-1318
▁辖	-1319
▁末梢	-1320
▁场	-1321
▁项	-1322
▁>	-1323
▁联合	-1324
▁岛	-1325
▁传染	-1326
▁夏	-1327
▁地方	-1328
▁双下肢	-1329
ro	-1330
▁建立	-1331
▁佛	-1332
▁人口密度	-1333
▁贝	-1334
▁一次	-1335
▁兴	-1336
re	-1337
▁降	-1338
▁欧洲	-1339
▁弹	-1340
▁展	-1341
▁黄色	-1342
▁湿罗音	-1343
▁示	-1344
▁35	-1345
▁权	-1346
▁快速	-1347
▁监	-1348
▁由于	-1349
▁严	-1350
▁传染病	-1351
25	-1352
▁蒙	-1353
▁印度	-1354
▁2001	-1355
▁艾	-1356
▁学名	-1357
▁港	-1358
▁晚	-1359
▁the	-1360
▁片状	-1361
▁程	-1362
▁完成	-1363
▁功	-1364
▁吴	-1365
▁车站	-1366
▁良	-1367
▁}	-1368
▁专辑	-1369
▁{	-1370
▁工程	-1371
▁极	-1372
▁确	-1373
▁最后	-1374
▁!	-1375
▁叩	-1376
和国	-1377
▁宗	-1378
▁红润	-1379
▁50	-1380
▁遭	-1381
行星	-1382
▁座	-1383
▁例如	-1384
▁受到	-1385
▁证	-1386
▁云	-1387
▁油	-1388
▁占	-1389
▁得到	-1390
as	-1391
▁微	-1392
▁心肺	-1393
▁好转	-1394
▁亲	-1395
▁仅	-1396
▁进食	-1397
▁2007	-1398
▁批	-1399
▁就是	-1400
▁女性	-1401
▁举行	-1402
▁喜	-1403
周期	-1404
▁组成	-1405
▁拥有	-1406
▁测	-1407
▁蛋白	-1408
▁甚	-1409
▁不会	-1410
▁洛	-1411
▁营	-1412
▁小行星	-1413
▁旧	-1414
▁偶有	-1415
▁缓	-1416
▁莫	-1417
▁成功	-1418
▁结果	-1419
▁月经周期	-1420
▁永	-1421
▁形成	-1422
▁核	-1423
▁腺体	-1424
▁肝脾	-1425
▁独立	-1426
▁脓血	-1427
▁方式	-1428
▁属于	-1429
▁最大	-1430
▁输	-1431
▁泰	-1432
▁肛周	-1433
▁麦	-1434
▁通常	-1435
▁探及	-1436
▁面色苍白	-1437
▁脐	-1438
▁扩张	-1439
▁脉	-1440
▁留	-1441
▁追	-1442
▁兼	-1443
▁卫	-1444
▁避	-1445
▁变化	-1446
▁无法	-1447
▁郡	-1448
▁出血点	-1449
▁陆	-1450
▁32	-1451
▁塞	-1452
▁2006	-1453
▁封	-1454
▁自由	-1455
▁亿	-1456
▁技术	-1457
▁少量	-1458
学院	-1459
▁学院	-1460
尼亚	-1461
▁尔	-1462
▁阳	-1463
▁医院	-1464
▁节目	-1465
▁雷	-1466
▁瑞	-1467
▁瓦	-1468
▁昨日	-1469
▁总面积	-1470
ch	-1471
▁另外	-1472
▁诉	-1473
▁所以	-1474
▁侧	-1475
大利	-1476
▁'	-1477
▁一度	-1478
▁胡	-1479
ing	-1480
▁增加	-1481
▁这种	-1482
▁植	-1483
▁提出	-1484
▁缺陷	-1485
▁前往	-1486
▁毕业	-1487
▁满	-1488
▁然而	-1489
▁描述	-1490
▁战争	-1491
▁总统	-1492
▁二十	-1493
▁一直	-1494
罗斯	-1495
▁超声	-1496
▁符	-1497
▁远	-1498
▁方面	-1499
▁弗	-1500
▁ml	-1501
▁终	-1502
▁激	-1503
▁处理	-1504
▁往	-1505
▁合作	-1506
▁出版	-1507
▁频	-1508
▁只有	-1509
▁松动	-1510
▁具有	-1511
▁双扁	-1512
▁称为	-1513
▁们	-1514
▁学生	-1515
▁朱	-1516
▁中共	-1517
▁促	-1518
▁相关	-1519
▁循	-1520
▁平素	-1521
▁者	-1522
▁边界	-1523
▁逐	-1524
▁肾	-1525
ed	-1526
主义	-1527
▁采用	-1528
▁控制	-1529
▁双膈面	-1530
▁不过	-1531
▁2005	-1532
▁补	-1533
▁学习	-1534
▁一位	-1535
▁驻	-1536
▁签	-1537
▁摄	-1538
▁淡	-1539
▁周前	-1540
▁结核	-1541
共和国	-1542
民国	-1543
▁父亲	-1544
nd	-1545
▁iii	-1546
▁烦	-1547
▁表现	-1548
▁水肿	-1549
▁白带	-1550
▁莱	-1551
▁月馀	-1552
▁自行	-1553
▁距	-1554
▁艺术	-1555
▁拍	-1556
▁大量	-1557
▁左右	-1558
▁声音	-1559
▁千	-1560
30	-1561
▁费	-1562
▁热退	-1563
▁循环	-1564
▁无反	-1565
▁跳痛	-1566
▁破	-1567
▁特别	-1568
▁cm	-1569
▁参与	-1570
us	-1571
ri	-1572
▁系列	-1573
▁集团	-1574
▁生产	-1575
▁感染	-1576
▁禽鸟	-1577
▁康	-1578
高度	-1579
革命	-1580
ow	-1581
▁国民	-1582
▁海拔高度	-1583
▁取得	-1584
▁平稳	-1585
▁=	-1586
▁结束	-1587
▁木	-1588
▁左乳	-1589
ent	-1590
▁此外	-1591
▁36	-1592
▁若	-1593
▁反射	-1594
▁西班	-1595
▁始	-1596
▁西班牙	-1597
▁造成	-1598
▁内部	-1599
▁烦躁	-1600
▁航空	-1601
▁内膜	-1602
▁承	-1603
▁诺	-1604
▁且	-1605
▁胸廓	-1606
▁有限	-1607
▁一名	-1608
▁接受	-1609
▁想	-1610
▁舰	-1611
os	-1612
▁杜	-1613
▁巨	-1614
▁该国	-1615
▁动物	-1616
▁右乳	-1617
▁增厚	-1618
▁尽	-1619
▁腋	-1620
▁冲	-1621
▁帝	-1622
▁ch	-1623
▁红细胞	-1624
▁任何	-1625
▁再次	-1626
▁大陆	-1627
▁予	-1628
▁财	-1629
▁2000	-1630
▁韩国	-1631
▁首次	-1632
▁硬	-1633
▁暴	-1634
▁嘉	-1635
▁之前	-1636
▁主席	-1637
▁爆	-1638
▁击	-1639
▁含	-1640
▁白色	-1641
▁托	-1642
▁秘	-1643
▁野	-1644
▁梅	-1645
▁开发	-1646
▁视野	-1647
▁如果	-1648
▁准	-1649
▁联赛	-1650
▁生物	-1651
▁显示	-1652
▁超过	-1653
▁企	-1654
▁角色	-1655
▁院	-1656
▁兰	-1657
不大	-1658
om	-1659
▁民主	-1660
▁密	-1661
▁苍白	-1662
▁选举	-1663
▁郑	-1664
▁力	-1665
▁除了	-1666
▁血丝	-1667
▁in	-1668
▁咽痛	-1669
▁科学	-1670
▁患者	-1671
▁经过	-1672
▁宋	-1673
▁跟	-1674
▁机场	-1675
▁暂无	-1676
▁质中	-1677
▁现在	-1678
▁腹胀	-1679
▁著	-1680
▁著名	-1681
▁施	-1682
110	-1683
▁一座	-1684
▁附近	-1685
▁瞳	-1686
▁领导	-1687
▁时代	-1688
▁190	-1689
▁故事	-1690
▁落	-1691
▁食纳	-1692
▁宣布	-1693
▁纵隔	-1694
▁鼻甲	-1695
▁瞳孔	-1696
▁加重	-1697
▁植物	-1698
▁令	-1699
▁还有	-1700
▁昨天	-1701
▁持续	-1702
▁据	-1703
▁191	-1704
▁表面	-1705
▁双肋	-1706
▁层	-1707
▁唇红	-1708
▁京	-1709
▁非常	-1710
▁纽	-1711
▁中华民国	-1712
▁假	-1713
▁酸	-1714
▁祖	-1715
▁像	-1716
▁孙	-1717
▁缓解	-1718
▁俄罗斯	-1719
▁草	-1720
▁吐泻	-1721
▁导致	-1722
ct	-1723
▁传统	-1724
▁颜面	-1725
▁继续	-1726
▁届	-1727
▁192	-1728
▁兵	-1729
▁不是	-1730
▁北部	-1731
▁段	-1732
▁卢	-1733
▁绝对	-1734
▁术	-1735
▁归	-1736
▁曲	-1737
▁45	-1738
▁库	-1739
▁限	-1740
▁及罗音	-1741
▁基本	-1742
▁画	-1743
▁半月	-1744
▁馀天	-1745
▁肝脾不大	-1746
▁命名	-1747
人民共和国	-1748
▁阴影	-1749
▁列车	-1750
▁帕	-1751
▁韦	-1752
▁细	-1753
▁某	-1754
▁头痛	-1755
▁夫	-1756
▁富	-1757
▁乘	-1758
▁电子	-1759
▁60	-1760
▁皆	-1761
▁妇	-1762
▁粗糙	-1763
▁坐	-1764
▁致	-1765
▁中华人民共和国	-1766
▁丰	-1767
▁y	-1768
▁蓝	-1769
▁索	-1770
▁家长	-1771
▁不安	-1772
▁多个	-1773
▁求	-1774
▁咽后	-1775
▁暗	-1776
▁上皮	-1777
▁流清	-1778
▁南部	-1779
▁自然	-1780
▁良好	-1781
▁2004	-1782
▁哥	-1783
▁自如	-1784
▁项目	-1785
▁撤	-1786
▁环境	-1787
▁容	-1788
▁版本	-1789
▁of	-1790
▁保护	-1791
▁大致	-1792
▁新闻	-1793
▁义	-1794
▁业	-1795
▁叶	-1796
小板	-1797
▁血小板	-1798
▁启	-1799
▁球队	-1800
▁船	-1801
▁重新	-1802
▁家人	-1803
▁股	-1804
▁以来	-1805
▁巡	-1806
▁80	-1807
▁竞	-1808
▁我们	-1809
▁伯	-1810
▁摩	-1811
id	-1812
ig	-1813
▁读	-1814
od	-1815
▁排便	-1816
▁母亲	-1817
▁消失	-1818
▁直接	-1819
▁能力	-1820
▁争	-1821
▁产生	-1822
▁以上	-1823
▁肺门	-1824
▁干燥	-1825
▁居民	-1826
▁清楚	-1827
▁轻度	-1828
▁流清涕	-1829
▁检	-1830
▁过程	-1831
▁水样	-1832
▁干罗音	-1833
▁发表	-1834
▁街道	-1835
▁肺野	-1836
▁乔	-1837
▁穿	-1838
▁家族史	-1839
▁我院	-1840
▁外观	-1841
▁怀	-1842
▁授	-1843
▁宝	-1844
▁甚至	-1845
▁糊	-1846
▁恶心	-1847
▁房	-1848
▁阿尔	-1849
▁西北	-1850
喂养	-1851
▁●	-1852
▁赵	-1853
▁|	-1854
▁苏联	-1855
溢液	-1856
▁唯	-1857
▁伴有	-1858
▁胜	-1859
▁歌曲	-1860
▁000	-1861
▁推出	-1862
▁功能	-1863
▁固	-1864
▁思	-1865
▁会议	-1866
▁至今	-1867
▁?	-1868
▁诸	-1869
▁恒	-1870
▁肺音	-1871
▁第四	-1872
▁率	-1873
▁颈部	-1874
▁执行	-1875
▁标准	-1876
▁今天	-1877
▁田	-1878
50	-1879
▁苔	-1880
▁随后	-1881
▁一起	-1882
ur	-1883
▁冷	-1884
▁无痰	-1885
疾病	-1886
▁适	-1887
ot	-1888
▁现代	-1889
▁耶	-1890
▁照	-1891
▁方法	-1892
▁迁	-1893
▁论	-1894
▁交通	-1895
人口	-1896
▁霍	-1897
▁西南	-1898
▁最佳	-1899
▁军事	-1900
▁尤	-1901
▁阴茎	-1902
▁糊状	-1903
▁晋	-1904
▁改为	-1905
▁劳	-1906
▁油镜	-1907
▁106	-1908
▁机构	-1909
▁诗	-1910
▁肉	-1911
▁季	-1912
▁顶	-1913
▁供	-1914
▁无畏	-1915
利亚	-1916
▁话	-1917
▁每天	-1918
▁广东	-1919
▁这是	-1920
▁灵	-1921
▁骨	-1922
▁律整	-1923
▁杰	-1924
▁第十	-1925
▁中学	-1926
▁逃	-1927
▁符合	-1928
▁33	-1929
▁树	-1930
19	-1931
格兰	-1932
▁奇	-1933
▁包含	-1934
▁媒	-1935
▁帮	-1936
▁词	-1937
▁联盟	-1938
▁共同	-1939
▁体检	-1940
▁行动	-1941
▁互	-1942
▁主义	-1943
▁类似	-1944
▁必须	-1945
▁昨晚	-1946
▁34	-1947
▁提示	-1948
▁触痛	-1949
▁生长	-1950
▁剧烈	-1951
▁围	-1952
▁你	-1953
18	-1954
▁酒	-1955
▁共有	-1956
iu	-1957
▁前位	-1958
▁唱	-1959
▁徐	-1960
▁自主	-1961
▁2003	-1962
▁直到	-1963
▁55	-1964
▁杆	-1965
▁br	-1966
▁刺激	-1967
▁形式	-1968
▁绿	-1969
▁q	-1970
▁晨	-1971
▁建议	-1972
▁后来	-1973
▁调查	-1974
▁史及	-1975
粘膜	-1976
ma	-1977
▁迪	-1978
▁阳性	-1979
▁杯	-1980
▁私	-1981
▁而且	-1982
▁班	-1983
▁审	-1984
▁荷	-1985
▁逐渐	-1986
100	-1987
▁名称	-1988
▁底	-1989
▁佔	-1990
▁丹	-1991
▁肺部	-1992
▁稍胀	-1993
▁总人口	-1994
▁民族	-1995
▁随着	-1996
▁攻击	-1997
▁军队	-1998
▁叫	-1999
▁枪	-2000
▁浅	-2001
▁有限公司	-2002
▁集中	-2003
▁穆	-2004
▁综	-2005
▁价	-2006
▁射	-2007
▁菲	-2008
▁利用	-2009
▁牛	-2010
▁浙	-2011
▁困难	-2012
▁狭	-2013
▁战斗	-2014
▁设有	-2015
▁卵泡	-2016
▁公园	-2017
▁借	-2018
iv	-2019
▁瘙	-2020
▁废	-2021
▁瘙痒	-2022
▁别	-2023
▁负责管	-2024
▁建设	-2025
▁赤	-2026
▁浮	-2027
▁方向	-2028
▁共和	-2029
▁及其	-2030
▁紧	-2031
▁东北	-2032
▁谢	-2033
▁贵	-2034
▁意大利	-2035
▁心无	-2036
▁75	-2037
▁周围	-2038
▁横	-2039
▁渗	-2040
▁申	-2041
规则	-2042
▁拿	-2043
▁分钟	-2044
▁流行	-2045
▁设立	-2046
学家	-2047
▁鼻腔	-2048
▁舞	-2049
ir	-2050
▁太阳	-2051
▁构	-2052
▁女子	-2053
▁朝鲜	-2054
▁潮	-2055
▁工业	-2056
▁√	-2057
▁相当	-2058
▁热带	-2059
▁旗	-2060
▁众	-2061
▁轨	-2062
▁凯	-2063
▁实际	-2064
▁稍促	-2065
▁品	-2066
▁2002	-2067
▁注意	-2068
▁安全	-2069
▁年前	-2070
un	-2071
▁葡	-2072
▁很多	-2073
▁教授	-2074
原体	-2075
▁主任	-2076
▁54	-2077
▁胆	-2078
▁病理性	-2079
▁有关	-2080
ia	-2081
▁创作	-2082
▁它们	-2083
▁区域	-2084
▁送	-2085
▁51	-2086
▁基础	-2087
▁希望	-2088
▁人员	-2089
▁不规则	-2090
▁使得	-2091
▁轮	-2092
▁残	-2093
▁试验	-2094
▁伤	-2095
▁伦	-2096
24	-2097
▁数据	-2098
▁嘶哑	-2099
▁下午	-2100
▁播出	-2101
▁选择	-2102
产党	-2103
▁法律	-2104
▁损	-2105
▁一部分	-2106
▁步	-2107
▁赫	-2108
▁魔	-2109
▁媒体	-2110
▁速	-2111
▁演出	-2112
▁鲁	-2113
▁告	-2114
▁阶	-2115
▁聚	-2116
▁龟	-2117
▁市场	-2118
▁95	-2119
▁动作	-2120
▁职业	-2121
▁112	-2122
▁士	-2123
▁企业	-2124
▁纪念	-2125
▁体育	-2126
▁距离	-2127
▁高度	-2128
▁式	-2129
▁经常	-2130
▁货	-2131
▁倒	-2132
▁召	-2133
▁咖	-2134
▁董	-2135
▁西部	-2136
▁沃	-2137
▁大多	-2138
▁玛	-2139
▁主持	-2140
▁何	-2141
▁举办	-2142
▁41	-2143
▁羽	-2144
▁64	-2145
▁疾病	-2146
▁梁	-2147
▁一年	-2148
▁打鼾	-2149
▁夺	-2150
▁早期	-2151
▁吃	-2152
▁楼	-2153
▁曼	-2154
▁指挥	-2155
▁部队	-2156
▁这样	-2157
▁冰	-2158
斯特	-2159
▁46	-2160
▁数天	-2161
▁报告	-2162
主教	-2163
▁演员	-2164
▁稳	-2165
▁计算	-2166
▁毫	-2167
▁培	-2168
▁简称	-2169
▁心腹	-2170
▁返	-2171
▁帝国	-2172
▁发作	-2173
克兰	-2174
▁不大	-2175
▁骑	-2176
▁浙江	-2177
▁同意	-2178
03	-2179
▁寒颤	-2180
▁庄	-2181
▁雅	-2182
▁理论	-2183
▁大部分	-2184
▁能够	-2185
▁犬	-2186
▁目的	-2187
▁运动员	-2188
▁干结	-2189
▁文物	-2190
▁锦	-2191
▁半年	-2192
▁男性	-2193
▁太平	-2194
▁各种	-2195
▁189	-2196
▁敌	-2197
▁巴士	-2198
▁人类	-2199
▁74	-2200
▁阿拉	-2201
▁拒	-2202
▁65	-2203
▁仍然	-2204
▁介	-2205
▁唯一	-2206
▁反对	-2207
▁实质	-2208
▁晨起	-2209
▁英文	-2210
▁协会	-2211
▁栖	-2212
▁咖啡	-2213
▁漫	-2214
109	-2215
▁年间	-2216
▁柱	-2217
▁习	-2218
▁实验	-2219
▁原因	-2220
▁找	-2221
▁寺	-2222
药物	-2223
▁严重	-2224
▁春	-2225
▁分类	-2226
▁戏	-2227
▁免	-2228
▁训	-2229
13	-2230
▁不伴	-2231
▁十二	-2232
ation	-2233
▁馆	-2234
▁09	-2235
▁改善	-2236
▁病变	-2237
▁镜	-2238
▁嗜	-2239
▁al	-2240
▁一样	-2241
▁录	-2242
▁公开	-2243
▁员	-2244
▁恢	-2245
▁淋巴细胞	-2246
▁加拿	-2247
▁第一次	-2248
▁官方	-2249
▁应用	-2250
▁单曲	-2251
▁隐	-2252
▁加拿大	-2253
05	-2254
▁禁	-2255
▁票	-2256
▁曾经	-2257
▁救	-2258
▁乡镇	-2259
▁或者	-2260
▁革命	-2261
▁全球	-2262
▁课	-2263
▁桥	-2264
▁烂牙	-2265
ut	-2266
22	-2267
▁弹性	-2268
▁时候	-2269
▁立法	-2270
▁绝对值	-2271
▁贫	-2272
▁广州	-2273
ra	-2274
▁智	-2275
▁基督	-2276
▁不详	-2277
▁避孕	-2278
▁红色	-2279
▁结节	-2280
04	-2281
▁统治	-2282
▁坚	-2283
▁葡萄	-2284
▁按压	-2285
▁细胞	-2286
▁宗教	-2287
▁85	-2288
▁]	-2289
▁抢	-2290
▁四川	-2291
▁境	-2292
▁模式	-2293
▁专业	-2294
▁de	-2295
▁宁	-2296
国家	-2297
▁关节	-2298
▁讲话	-2299
▁混合	-2300
脓涕	-2301
▁无喘	-2302
▁[	-2303
▁交流	-2304
▁腹腔	-2305
▁畅	-2306
▁口服药物	-2307
▁间断	-2308
▁48	-2309
▁亚洲	-2310
▁关于	-2311
▁行为	-2312
▁无口	-2313
▁象	-2314
▁幼	-2315
▁护	-2316
▁发布	-2317
▁re	-2318
烂牙	-2319
▁商业	-2320
▁截	-2321
▁有时	-2322
▁周边	-2323
▁天主教	-2324
▁三个	-2325
▁分析	-2326
▁平时	-2327
▁任务	-2328
▁乌克兰	-2329
▁最初	-2330
▁胃口	-2331
▁结膜	-2332
▁兄	-2333
▁销	-2334
▁颁	-2335
▁礼	-2336
▁公共	-2337
▁概	-2338
▁液	-2339
▁大型	-2340
▁不久	-2341
▁东南	-2342
▁洪	-2343
▁源	-2344
▁指出	-2345
▁急	-2346
▁量少	-2347
▁全部	-2348
▁家庭	-2349
▁地球	-2350
▁南京	-2351
▁hp	-2352
▁每年	-2353
▁积液	-2354
▁墨	-2355
▁一条	-2356
16	-2357
▁儿子	-2358
▁山东	-2359
and	-2360
▁景	-2361
▁操	-2362
▁这一	-2363
▁戴	-2364
委员会	-2365
▁神情	-2366
▁去世	-2367
▁政策	-2368
▁纽约	-2369
▁越南	-2370
06	-2371
▁空间	-2372
▁讨	-2373
▁名字	-2374
▁体重	-2375
▁伴痰	-2376
▁囊	-2377
▁休	-2378
▁多次	-2379
▁阻	-2380
▁高速	-2381
op	-2382
▁演唱	-2383
▁连续	-2384
▁资料	-2385
▁清朝	-2386
▁高热	-2387
▁分为	-2388
▁孕	-2389
▁地下	-2390
▁一部	-2391
▁甘	-2392
▁守	-2393
▁头颅	-2394
▁府	-2395
▁500	-2396
▁42	-2397
▁44	-2398
▁进士	-2399
▁潜	-2400
▁明朝	-2401
▁仪	-2402
▁头孢	-2403
▁道路	-2404
▁缩	-2405
▁基因	-2406
▁脓涕	-2407
▁1999	-2408
▁广播	-2409
▁手术	-2410
▁城镇	-2411
ag	-2412
▁关系	-2413
▁恐	-2414
08	-2415
▁冠军	-2416
▁博物	-2417
▁顺产	-2418
▁邻	-2419
▁当选	-2420
▁肥	-2421
▁死亡	-2422
▁决赛	-2423
▁藏	-2424
▁当中	-2425
▁招	-2426
▁奶	-2427
▁1990	-2428
▁团体	-2429
im	-2430
▁血红	-2431
▁今来	-2432
▁寻	-2433
▁青年	-2434
▁坦	-2435
▁博士	-2436
gb	-2437
01	-2438
▁英语	-2439
▁俱	-2440
▁厅	-2441
▁森	-2442
▁108	-2443
▁三年	-2444
▁喷	-2445
▁52	-2446
▁人士	-2447
▁室	-2448
▁钱	-2449
▁佩	-2450
▁han	-2451
▁天津	-2452
▁支原体	-2453
▁栖息	-2454
▁危	-2455
▁购	-2456
▁乡镇级	-2457
▁离开	-2458
▁轨道	-2459
▁天文	-2460
▁列表	-2461
▁男子	-2462
▁孔	-2463
▁血红蛋白	-2464
▁状态	-2465
▁相同	-2466
▁曹	-2467
▁土地	-2468
▁胀	-2469
▁犹	-2470
▁84	-2471
▁生于	-2472
▁无溢液	-2473
▁海军	-2474
▁发动	-2475
▁社区	-2476
14	-2477
▁网络	-2478
▁记载	-2479
▁整个	-2480
▁三十	-2481
▁饮	-2482
▁凹陷	-2483
▁为了	-2484
▁投资	-2485
▁47	-2486
▁赢	-2487
西亚	-2488
▁综合	-2489
▁1998	-2490
15	-2491
▁贡	-2492
▁汽	-2493
▁犬吠	-2494
38	-2495
▁玉	-2496
组织	-2497
▁达到	-2498
▁秦	-2499
▁拔	-2500
▁银行	-2501
▁辐	-2502
▁公路	-2503
▁号线	-2504
▁议会	-2505
▁彩	-2506
▁度大	-2507
▁尾	-2508
生活	-2509
▁健	-2510
▁脓性	-2511
07	-2512
ce	-2513
▁两人	-2514
▁训练	-2515
▁丁	-2516
尔斯	-2517
▁常规	-2518
▁荣	-2519
▁议员	-2520
▁还是	-2521
▁美元	-2522
▁最早	-2523
▁替	-2524
克斯	-2525
▁第五	-2526
ay	-2527
▁耳	-2528
▁蔡	-2529
▁暖和	-2530
▁物理	-2531
▁龟头	-2532
▁可闻及	-2533
▁不少	-2534
17	-2535
▁国王	-2536
▁乙	-2537
▁规定	-2538
▁平卧	-2539
▁引起	-2540
▁出身	-2541
▁整齐	-2542
▁肠管	-2543
▁115	-2544
▁43	-2545
▁约翰	-2546
▁遭到	-2547
不佳	-2548
▁郭	-2549
▁助	-2550
▁局部	-2551
电图	-2552
▁and	-2553
▁简单	-2554
▁效果	-2555
▁恩	-2556
▁判	-2557
▁长期	-2558
▁年度	-2559
oc	-2560
▁福建	-2561
▁鼓	-2562
▁成绩	-2563
▁舌苔	-2564
▁49	-2565
▁连接	-2566
▁飞机	-2567
▁动脉	-2568
▁复盖	-2569
▁发射	-2570
▁用于	-2571
▁东部	-2572
▁回到	-2573
▁作用	-2574
▁图示	-2575
▁架	-2576
▁奉	-2577
▁玩家	-2578
▁住院	-2579
▁目标	-2580
▁换	-2581
▁主教	-2582
▁188	-2583
▁民国	-2584
乐部	-2585
▁常大	-2586
▁宇	-2587
▁台北	-2588
▁生命	-2589
萌出	-2590
▁蒙古	-2591
▁70	-2592
▁1997	-2593
▁并在	-2594
▁轻微	-2595
▁君	-2596
▁拜	-2597
▁父母	-2598
▁龋损	-2599
▁河南	-2600
▁妻	-2601
▁稍红	-2602
▁辽	-2603
氧化	-2604
▁效不佳	-2605
▁爆发	-2606
▁慢	-2607
og	-2608
▁膜	-2609
▁术后	-2610
▁miu	-2611
▁渗出	-2612
▁退热	-2613
▁拒绝	-2614
ter	-2615
▁设置	-2616
朋友	-2617
▁外交	-2618
▁宪	-2619
贸易	-2620
▁联邦	-2621
▁帮助	-2622
▁暂未见	-2623
▁乳牙	-2624
▁加上	-2625
▁同样	-2626
▁文学	-2627
▁只是	-2628
▁移动	-2629
▁漫画	-2630
▁澳门	-2631
▁杂志	-2632
▁公尺	-2633
▁第二次	-2634
▁路线	-2635
▁什	-2636
▁町	-2637
▁自治	-2638
▁表演	-2639
▁顾	-2640
▁挑	-2641
▁取代	-2642
▁结论	-2643
▁服药	-2644
隶属	-2645
▁腹肌	-2646
▁固定	-2647
▁元年	-2648
▁速度	-2649
▁尖	-2650
▁现时	-2651
▁透过	-2652
▁中部	-2653
▁俱乐部	-2654
▁身份	-2655
▁制度	-2656
▁1980	-2657
▁居住	-2658
▁病后	-2659
▁教堂	-2660
▁动画	-2661
▁晚上	-2662
▁有些	-2663
▁头晕	-2664
▁努	-2665
▁co	-2666
▁钢	-2667
▁地位	-2668
▁建造	-2669
▁灰	-2670
▁一定	-2671
▁蒋	-2672
▁300	-2673
▁沈	-2674
▁大约	-2675
▁隔	-2676
39	-2677
▁干咳	-2678
▁案	-2679
▁牙齿	-2680
ap	-2681
▁不可	-2682
▁遇	-2683
▁规律	-2684
▁腋窝	-2685
mol	-2686
▁肢暖	-2687
▁人们	-2688
▁突出	-2689
▁典	-2690
▁事务	-2691
▁辛	-2692
▁柱状	-2693
▁广场	-2694
▁每个	-2695
▁开放	-2696
▁产品	-2697
▁赛事	-2698
▁小说	-2699
▁新加	-2700
▁一颗	-2701
▁驱	-2702
▁盖	-2703
▁是否	-2704
▁初期	-2705
▁咳剧	-2706
▁搭	-2707
▁魏	-2708
▁跨	-2709
▁纪录	-2710
▁新加坡	-2711
▁原本	-2712
▁来自	-2713
▁下降	-2714
▁函	-2715
▁先后	-2716
▁母乳	-2717
▁东京	-2718
▁始建	-2719
▁切面	-2720
▁希腊	-2721
120	-2722
▁婚	-2723
▁月台	-2724
▁人工	-2725
▁53	-2726
ers	-2727
▁中文	-2728
ie	-2729
▁定义	-2730
▁出任	-2731
▁喜欢	-2732
▁制作	-2733
▁科技	-2734
▁风格	-2735
▁任命	-2736
▁赛季	-2737
▁访	-2738
▁荷兰	-2739
霉素	-2740
▁刚	-2741
▁异位	-2742
48	-2743
▁哲	-2744
▁几乎	-2745
▁可达	-2746
▁端	-2747
▁剑	-2748
▁赢得	-2749
▁零	-2750
▁厂	-2751
▁主题	-2752
▁勒	-2753
▁十分	-2754
▁吕	-2755
▁巴西	-2756
▁信息	-2757
09	-2758
▁经营	-2759
▁对于	-2760
地区	-2761
▁麻	-2762
▁表情	-2763
▁116	-2764
▁保持	-2765
▁后方	-2766
▁187	-2767
▁球员	-2768
▁改革	-2769
▁繁	-2770
▁纳可	-2771
▁飞行	-2772
▁唱片	-2773
▁邓	-2774
▁领域	-2775
▁歌手	-2776
▁肯	-2777
▁超级	-2778
▁1996	-2779
▁棒	-2780
▁击败	-2781
em	-2782
▁毫米	-2783
▁居中	-2784
▁湖南	-2785
▁铜	-2786
▁孩	-2787
▁内未见	-2788
th	-2789
▁行走	-2790
▁划	-2791
▁涕	-2792
▁针	-2793
▁搏	-2794
▁给予	-2795
ab	-2796
▁儿童	-2797
▁少痰	-2798
▁略	-2799
▁an	-2800
▁作家	-2801
▁61	-2802
▁祭	-2803
▁图书	-2804
▁涉	-2805
▁流鼻	-2806
▁hgb	-2807
▁公分	-2808
▁境内	-2809
▁黄染	-2810
▁学者	-2811
▁炮	-2812
▁奥运	-2813
▁斯特	-2814
▁腋下	-2815
▁谈	-2816
▁弟	-2817
▁继承	-2818
共产党	-2819
▁伊斯	-2820
▁腰	-2821
▁鸟	-2822
▁属下	-2823
▁沿肺	-2824
▁广泛	-2825
▁静	-2826
▁普通	-2827
保护	-2828
▁186	-2829
▁貌	-2830
▁有烂牙	-2831
▁群岛	-2832
▁饰	-2833
▁星期	-2834
▁罗马	-2835
▁一家	-2836
▁其它	-2837
▁然后	-2838
▁彼	-2839
▁未能	-2840
▁1994	-2841
▁化学	-2842
▁沉	-2843
▁司令	-2844
▁柏	-2845
▁协助	-2846
▁概念	-2847
脓性	-2848
▁病灶	-2849
▁118	-2850
▁皇帝	-2851
▁南极	-2852
▁增大	-2853
▁隆	-2854
▁导演	-2855
▁58	-2856
▁娱	-2857
▁56	-2858
▁延伸	-2859
▁兄弟	-2860
▁08	-2861
学校	-2862
▁或是	-2863
▁块	-2864
▁1995	-2865
▁冬	-2866
▁规划	-2867
▁墓	-2868
▁部长	-2869
▁英格兰	-2870
▁首都	-2871
▁口内	-2872
▁性生活	-2873
▁机车	-2874
▁记录	-2875
▁克里	-2876
▁江苏	-2877
▁拆	-2878
▁浅表	-2879
▁黎	-2880
02	-2881
▁程度	-2882
▁周期	-2883
▁警察	-2884
▁陕	-2885
▁汽车	-2886
▁背景	-2887
▁似	-2888
▁官员	-2889
▁申请	-2890
▁数月	-2891
▁影片	-2892
▁直径	-2893
▁可容	-2894
▁掌	-2895
▁气道	-2896
▁搏动	-2897
▁稳定	-2898
▁rbc	-2899
中央	-2900
▁杆状	-2901
▁桑	-2902
▁有人	-2903
▁渐	-2904
▁太平洋	-2905
▁地铁	-2906
▁此后	-2907
▁日至	-2908
▁安静	-2909
▁侵	-2910
▁pm	-2911
▁网站	-2912
▁此时	-2913
▁准备	-2914
▁〈	-2915
▁未来	-2916
▁波兰	-2917
▁遂	-2918
av	-2919
▁〉	-2920
max	-2921
▁双眼	-2922
▁流域	-2923
▁馀双	-2924
▁渗出性	-2925
▁娱乐	-2926
ard	-2927
▁咳多	-2928
▁战役	-2929
▁冯	-2930
▁闻干	-2931
▁自动	-2932
▁ar	-2933
▁』	-2934
▁『	-2935
▁错	-2936
▁置	-2937
▁剖	-2938
▁粘涕	-2939
▁排名	-2940
▁实现	-2941
▁氨	-2942
▁无出	-2943
▁te	-2944
▁数量	-2945
▁二年	-2946
▁条件	-2947
▁相对	-2948
运动	-2949
▁理解	-2950
90	-2951
▁董事	-2952
▁注意力	-2953
▁叙	-2954
▁记者	-2955
▁基地	-2956
▁邀	-2957
▁喂养	-2958
▁盛	-2959
ub	-2960
▁双手	-2961
▁ne	-2962
▁素	-2963
▁武器	-2964
▁旁	-2965
▁样咳	-2966
▁洞	-2967
35	-2968
▁汇	-2969
▁柯	-2970
▁淡红	-2971
▁密度	-2972
▁125	-2973
▁组合	-2974
斯坦	-2975
▁设备	-2976
▁机会	-2977
▁享	-2978
▁苔白	-2979
▁羽毛	-2980
▁二度	-2981
▁云南	-2982
▁杨梅	-2983
▁1993	-2984
▁宽度	-2985
▁屋	-2986
▁公元	-2987
▁匈	-2988
▁1992	-2989
▁停止	-2990
▁评论	-2991
▁脐周	-2992
▁乃	-2993
放军	-2994
▁类型	-2995
▁崇	-2996
▁罪	-2997
▁萧	-2998
▁透光	-2999
▁边缘	-3000
普查	-3001
▁不断	-3002
▁人口普查	-3003
▁竹	-3004
▁委	-3005
▁宣传	-3006
▁等等	-3007
ov	-3008
▁设施	-3009
▁盐	-3010
▁昆	-3011
▁th	-3012
▁周馀	-3013
▁因而	-3014
▁62	-3015
▁知名	-3016
▁sh	-3017
▁汤	-3018
▁国内	-3019
000	-3020
▁限制	-3021
▁谷	-3022
▁殖	-3023
▁回纳	-3024
▁违	-3025
▁邮	-3026
▁岩	-3027
▁57	-3028
▁巴黎	-3029
▁批评	-3030
▁戈	-3031
▁觉	-3032
▁户	-3033
▁中国人民	-3034
▁进攻	-3035
世界	-3036
um	-3037
▁贫血	-3038
▁tw	-3039
▁御	-3040
▁恢复	-3041
▁园	-3042
国际	-3043
▁流鼻涕	-3044
无发	-3045
▁犯	-3046
▁柴	-3047
▁两侧	-3048
▁异味	-3049
▁书记	-3050
▁如下	-3051
千米	-3052
▁病毒	-3053
▁双方	-3054
中心	-3055
鼻道	-3056
▁族	-3057
▁接近	-3058
▁又名	-3059
▁妻子	-3060
▁单声	-3061
▁丘	-3062
▁92	-3063
ul	-3064
▁租	-3065
▁薄	-3066
▁运行	-3067
▁知道	-3068
▁沟	-3069
▁指令	-3070
▁物种	-3071
▁平方千米	-3072
▁非洲	-3073
▁佛教	-3074
▁过去	-3075
ind	-3076
▁日起	-3077
▁1991	-3078
▁响	-3079
▁伦敦	-3080
▁殖民	-3081
▁赴	-3082
▁浮肿	-3083
▁正在	-3084
▁贸易	-3085
▁破坏	-3086
▁额	-3087
▁头围	-3088
▁凌	-3089
▁东西	-3090
▁中国共产党	-3091
▁公布	-3092
▁完整	-3093
▁将军	-3094
▁蜂	-3095
二指	-3096
40	-3097
▁可容二指	-3098
▁阶段	-3099
▁运输	-3100
▁和平	-3101
▁生成	-3102
▁参赛	-3103
▁胰	-3104
ak	-3105
▁值	-3106
▁单核	-3107
▁夏季	-3108
▁垂	-3109
▁尚未	-3110
▁电视台	-3111
▁元素	-3112
▁农业	-3113
▁失水	-3114
▁扁桃腺	-3115
▁女儿	-3116
▁赞	-3117
▁基金	-3118
▁犹太	-3119
▁庆	-3120
▁光反	-3121
▁1950	-3122
▁庙	-3123
▁志	-3124
▁le	-3125
▁mc	-3126
▁力量	-3127
▁浓	-3128
尔德	-3129
▁材	-3130
▁平台	-3131
▁肛门	-3132
37	-3133
▁同一	-3134
▁有效	-3135
▁允	-3136
▁现象	-3137
▁增宽	-3138
委会	-3139
▁昨起	-3140
▁彭	-3141
▁孩子	-3142
▁电脑	-3143
▁孟	-3144
▁母乳喂养	-3145
一步	-3146
▁延长	-3147
▁电视剧	-3148
▁解决	-3149
▁频道	-3150
拉斯	-3151
▁激素	-3152
▁名为	-3153
▁投入	-3154
▁加利	-3155
▁途	-3156
▁高级	-3157
▁pr	-3158
▁第六	-3159
▁窦	-3160
▁返回	-3161
▁其后	-3162
▁尊	-3163
▁分离	-3164
▁隶属	-3165
▁偏移	-3166
▁锦标	-3167
▁研究所	-3168
▁可疑	-3169
▁闭	-3170
▁厘	-3171
▁斜	-3172
▁作战	-3173
▁王朝	-3174
▁备	-3175
▁粘脓涕	-3176
▁tb	-3177
▁一段	-3178
▁比较	-3179
▁山西	-3180
▁性罗音	-3181
▁办公	-3182
▁译	-3183
▁坑	-3184
▁分子	-3185
▁颜色	-3186
▁言	-3187
23	-3188
▁统计	-3189
▁威廉	-3190
▁滑	-3191
州市	-3192
▁刑	-3193
▁光反射	-3194
▁不明	-3195
▁配合	-3196
▁详	-3197
▁地面	-3198
▁~	-3199
▁席	-3200
▁1949	-3201
▁征象	-3202
▁确定	-3203
ine	-3204
▁1970	-3205
▁天馀	-3206
▁表达	-3207
▁学家	-3208
▁中等	-3209
▁辞	-3210
▁结婚	-3211
▁肌肉	-3212
▁咽壁	-3213
▁pro	-3214
▁秘书	-3215
▁雪	-3216
▁豆	-3217
▁疝	-3218
▁茶	-3219
▁增长	-3220
▁进一步	-3221
▁交易	-3222
▁保留	-3223
▁高等	-3224
▁鼻粘膜	-3225
▁思想	-3226
▁而是	-3227
▁舰队	-3228
▁奥林	-3229
▁乔治	-3230
▁王国	-3231
▁意识	-3232
代表	-3233
▁虚	-3234
▁西方	-3235
▁捷	-3236
▁只能	-3237
▁这里	-3238
▁糖	-3239
▁发绀史	-3240
▁友	-3241
▁旅游	-3242
▁批准	-3243
▁自发	-3244
▁se	-3245
▁支援	-3246
▁不再	-3247
▁牠	-3248
▁逝	-3249
▁粉	-3250
▁协议	-3251
▁资格	-3252
铁路	-3253
▁重建	-3254
▁容易	-3255
▁高中	-3256
▁清涕	-3257
复性	-3258
▁海域	-3259
▁断	-3260
▁葡萄牙	-3261
98	-3262
▁hpv	-3263
▁播放	-3264
▁体长	-3265
▁周无发	-3266
▁sp	-3267
21	-3268
▁奥斯	-3269
▁刺激性	-3270
▁器	-3271
36	-3272
▁增浓	-3273
▁观察	-3274
▁as	-3275
▁无涕	-3276
▁脚	-3277
▁统一	-3278
▁酸性	-3279
大会	-3280
▁函数	-3281
▁末端	-3282
▁恶性	-3283
ist	-3284
▁公民	-3285
▁释	-3286
27	-3287
▁培养	-3288
▁下肢	-3289
▁实施	-3290
▁用户	-3291
▁计画	-3292
法院	-3293
95	-3294
▁榜	-3295
▁直至	-3296
▁96	-3297
▁一带	-3298
▁总理	-3299
▁宫肌	-3300
书记	-3301
战争	-3302
ang	-3303
▁1988	-3304
▁末次	-3305
▁pg	-3306
▁澳大利	-3307
▁车辆	-3308
▁衣	-3309
▁文物保护	-3310
▁狭窄	-3311
▁乳房	-3312
▁遗址	-3313
▁解释	-3314
▁斗	-3315
▁码	-3316
▁瘀	-3317
▁咽轻	-3318
▁地震	-3319
▁万人	-3320
▁顿	-3321
▁看到	-3322
▁1989	-3323
▁hk	-3324
▁欢	-3325
▁畏	-3326
▁川	-3327
▁詹	-3328
▁教会	-3329
▁05	-3330
▁恒星	-3331
▁梦	-3332
▁跑	-3333
▁估	-3334
▁家中	-3335
▁绘	-3336
▁各地	-3337
▁潘	-3338
▁辐鳍	-3339
▁势	-3340
▁光绪	-3341
▁江西	-3342
▁on	-3343
▁col	-3344
▁买	-3345
▁不易	-3346
▁羽毛球	-3347
▁面部	-3348
▁村落	-3349
▁袭	-3350
▁兴建	-3351
▁现无	-3352
▁大臣	-3353
▁贾	-3354
▁以前	-3355
▁创办	-3356
▁篮	-3357
▁旗下	-3358
▁可复性	-3359
▁～	-3360
▁西藏	-3361
▁无血	-3362
▁98	-3363
▁图书馆	-3364
▁服用	-3365
▁尤其	-3366
▁两膈面	-3367
▁内见	-3368
▁筹	-3369
▁大会	-3370
▁创立	-3371
102	-3372
▁驾	-3373
▁业务	-3374
▁算	-3375
▁水域	-3376
▁观众	-3377
▁hans	-3378
▁插	-3379
▁1945	-3380
▁口腔粘膜	-3381
▁倾	-3382
▁再度	-3383
▁mar	-3384
ik	-3385
▁核心	-3386
▁亨	-3387
ip	-3388
▁国务	-3389
斯科	-3390
▁之外	-3391
▁价值	-3392
不安	-3393
▁改名	-3394
▁十一	-3395
▁130	-3396
▁重庆	-3397
▁来诊	-3398
▁上映	-3399
▁南北	-3400
▁国立	-3401
▁所在	-3402
▁应该	-3403
▁fl	-3404
▁四年	-3405
▁国会	-3406
▁un	-3407
▁讨论	-3408
▁心未见	-3409
75	-3410
▁靠	-3411
▁特征	-3412
▁有所	-3413
▁融	-3414
▁照片	-3415
▁今晨	-3416
▁河北	-3417
▁佐	-3418
32	-3419
▁操作	-3420
罗马	-3421
▁1960	-3422
▁板	-3423
▁章	-3424
▁国民党	-3425
▁基督教	-3426
▁编号	-3427
▁文件	-3428
▁迈	-3429
▁一场	-3430
▁咽喉	-3431
ud	-3432
▁迅	-3433
▁菌	-3434
▁销售	-3435
▁用药	-3436
▁口周	-3437
▁缅	-3438
▁具体	-3439
ep	-3440
▁课程	-3441
美洲	-3442
▁临时	-3443
▁卷	-3444
▁血清	-3445
▁渣	-3446
96	-3447
▁燃	-3448
匹克	-3449
▁迷	-3450
▁这次	-3451
▁多天	-3452
▁灌	-3453
▁候	-3454
▁年馀	-3455
9%	-3456
▁氏	-3457
▁纯	-3458
▁果	-3459
▁皇家	-3460
▁教区	-3461
▁建成	-3462
▁普遍	-3463
▁投票	-3464
▁哺	-3465
▁堂	-3466
自治	-3467
ob	-3468
▁扎	-3469
▁逝世	-3470
▁部份	-3471
▁失去	-3472
▁陕西	-3473
障碍	-3474
▁陶	-3475
▁较大	-3476
▁后位	-3477
▁提名	-3478
▁重点	-3479
na	-3480
▁运动会	-3481
▁风暴	-3482
▁is	-3483
▁白天	-3484
▁身高	-3485
▁鲜	-3486
ok	-3487
▁数学	-3488
est	-3489
▁公主	-3490
▁中鼻道	-3491
▁更名	-3492
34	-3493
▁脐部	-3494
▁搜	-3495
▁测试	-3496
▁06	-3497
▁体系	-3498
▁蒂	-3499
▁07	-3500
清锐	-3501
▁角清锐	-3502
▁来源	-3503
▁袁	-3504
▁性状	-3505
▁南方	-3506
▁潮红	-3507
▁露	-3508
▁证明	-3509
▁mr	-3510
▁界	-3511
不红	-3512
▁主演	-3513
▁凤	-3514
方面	-3515
▁秋	-3516
▁毒	-3517
▁咽不红	-3518
▁方案	-3519
▁改编	-3520
▁炎	-3521
▁起病	-3522
▁豪	-3523
▁引擎	-3524
3%	-3525
隧道	-3526
▁取消	-3527
▁病初	-3528
▁锦标赛	-3529
▁1985	-3530
▁高雄	-3531
▁身体	-3532
▁有涕	-3533
▁卖	-3534
▁两种	-3535
▁本地	-3536
▁矿	-3537
▁昭	-3538
▁哺乳	-3539
▁二世	-3540
▁不均	-3541
▁联合国	-3542
▁脂	-3543
▁慈	-3544
▁尿频	-3545
▁厘米	-3546
▁已婚	-3547
比亚	-3548
▁忠	-3549
▁程序	-3550
▁拍摄	-3551
▁敏	-3552
▁某些	-3553
▁命令	-3554
▁物质	-3555
▁中山	-3556
▁移民	-3557
▁失败	-3558
▁咸	-3559
▁载	-3560
▁紫癜	-3561
▁眨	-3562
▁之中	-3563
▁养	-3564
▁一世	-3565
▁大战	-3566
▁瑞典	-3567
▁制造	-3568
▁旋	-3569
▁部门	-3570
▁68	-3571
▁多年	-3572
▁66	-3573
▁资源	-3574
▁披	-3575
7%	-3576
▁畏寒	-3577
▁烦躁不安	-3578
70	-3579
▁水平	-3580
▁牵	-3581
大陆	-3582
ba	-3583
▁雌	-3584
▁宾	-3585
▁1986	-3586
▁外伤	-3587
▁砂	-3588
▁健康	-3589
▁ct	-3590
▁澳洲	-3591
▁芬	-3592
▁大道	-3593
▁奥林匹克	-3594
▁客运	-3595
92	-3596
ell	-3597
▁曾任	-3598
▁材料	-3599
▁手未见	-3600
▁玻	-3601
▁扶	-3602
▁前身	-3603
▁五年	-3604
▁每次	-3605
▁迎	-3606
▁鞘	-3607
▁规模	-3608
▁当年	-3609
▁体征	-3610
▁一同	-3611
▁机械	-3612
▁马来	-3613
▁湖北	-3614
▁得以	-3615
▁以外	-3616
▁允许	-3617
▁质量	-3618
▁西亚	-3619
▁宪法	-3620
▁】	-3621
▁【	-3622
▁首府	-3623
▁报道	-3624
系列	-3625
▁76	-3626
▁不得	-3627
▁姓	-3628
▁效力	-3629
ess	-3630
▁尚好	-3631
▁德语	-3632
▁套	-3633
▁宜	-3634
▁总部	-3635
▁着作	-3636
▁幕	-3637
45	-3638
▁1987	-3639
▁提高	-3640
▁股份	-3641
▁调整	-3642
▁妈	-3643
▁哮	-3644
▁作出	-3645
热退	-3646
▁崔	-3647
▁1984	-3648
▁生涯	-3649
ill	-3650
▁出来	-3651
▁笔	-3652
▁模型	-3653
▁近日	-3654
▁维持	-3655
▁é	-3656
▁撞	-3657
▁广告	-3658
▁一周	-3659
▁档	-3660
▁185	-3661
▁发出	-3662
▁本身	-3663
▁气体	-3664
▁折	-3665
▁阮	-3666
▁蛋	-3667
▁小学	-3668
▁善	-3669
▁温度	-3670
▁巨大	-3671
▁+++	-3672
▁裁	-3673
▁责	-3674
▁侍	-3675
▁排尿	-3676
▁古代	-3677
▁溪	-3678
▁灭	-3679
▁软组织	-3680
尔兰	-3681
▁年底	-3682
▁生理	-3683
▁翻译	-3684
▁警方	-3685
▁选手	-3686
▁眨眼	-3687
▁04	-3688
▁一系列	-3689
▁囊肿	-3690
解放军	-3691
▁电力	-3692
▁叛	-3693
▁线路	-3694
公路	-3695
▁策	-3696
姆斯	-3697
▁发售	-3698
▁侯	-3699
▁几个	-3700
ows	-3701
▁餐	-3702
▁收录	-3703
▁京都	-3704
▁金属	-3705
▁起来	-3706
▁童	-3707
▁舒	-3708
▁展开	-3709
▁声嘶	-3710
▁相似	-3711
▁仁	-3712
▁士兵	-3713
▁柳	-3714
▁于是	-3715
▁喷射	-3716
▁以后	-3717
▁其馀	-3718
▁机关	-3719
▁主动	-3720
▁大脑	-3721
▁乘客	-3722
▁红疹	-3723
▁瑞士	-3724
▁找到	-3725
▁淀	-3726
▁变成	-3727
▁雄	-3728
▁权力	-3729
乾隆	-3730
▁胜利	-3731
▁kg	-3732
▁待	-3733
▁海岸	-3734
▁脑室	-3735
▁创造	-3736
▁现场	-3737
▁选区	-3738
▁寄	-3739
▁路易	-3740
▁阿拉伯	-3741
▁仙	-3742
▁将会	-3743
ice	-3744
▁可降	-3745
▁不足	-3746
▁构成	-3747
▁运营	-3748
▁肥大	-3749
▁平坦	-3750
西哥	-3751
▁姐	-3752
▁祖父	-3753
ge	-3754
▁nmol	-3755
▁安徽	-3756
▁之下	-3757
▁铁道	-3758
▁佳	-3759
▁另一	-3760
▁第七	-3761
▁突然	-3762
▁视为	-3763
▁凭	-3764
▁克拉	-3765
▁金融	-3766
▁单核细胞	-3767
▁凝	-3768
▁be	-3769
▁隧道	-3770
▁螺	-3771
▁旅客	-3772
▁中国人民解放军	-3773
▁退热药	-3774
▁bir	-3775
▁少数	-3776
▁遗传	-3777
▁桃	-3778
▁层次	-3779
▁四个	-3780
▁降低	-3781
维亚	-3782
▁作者	-3783
▁1982	-3784
▁惠	-3785
▁每日	-3786
▁至少	-3787
▁中间	-3788
▁鲤	-3789
▁集合	-3790
▁辆	-3791
▁数字	-3792
▁阴痒	-3793
▁杭	-3794
▁试图	-3795
▁提升	-3796
▁尽管	-3797
if	-3798
▁态	-3799
▁避免	-3800
▁迅速	-3801
▁才能	-3802
▁卡尔	-3803
▁砲	-3804
▁广西	-3805
▁拟	-3806
▁相间	-3807
▁1983	-3808
▁消息	-3809
▁体健	-3810
▁文章	-3811
▁多数	-3812
108	-3813
▁说话	-3814
▁份	-3815
▁轰	-3816
29	-3817
▁蜂窝	-3818
▁各层	-3819
1%	-3820
▁脑电图	-3821
▁拔牙	-3822
▁深圳	-3823
78	-3824
▁常见	-3825
▁虎	-3826
▁全长	-3827
▁鱼纲	-3828
▁个人	-3829
▁陨	-3830
▁很大	-3831
▁悬	-3832
▁摇	-3833
▁地点	-3834
▁渡	-3835
▁财政	-3836
▁无脓性	-3837
▁朋友	-3838
▁意思	-3839
▁安排	-3840
▁职务	-3841
▁特定	-3842
▁武装	-3843
▁鼻道	-3844
▁东方	-3845
▁雨	-3846
▁磁	-3847
▁文字	-3848
▁59	-3849
▁争议	-3850
▁按照	-3851
▁ap	-3852
▁今来诊	-3853
▁珍	-3854
▁咳喘	-3855
会议	-3856
牙利	-3857
▁匈牙利	-3858
▁88	-3859
▁引发	-3860
▁如此	-3861
▁雕	-3862
all	-3863
▁以色	-3864
好转	-3865
▁学术	-3866
▁or	-3867
▁森林	-3868
▁窒	-3869
▁胀痛	-3870
▁误	-3871
▁清洁	-3872
▁法院	-3873
▁以色列	-3874
▁体积	-3875
▁hd	-3876
▁wind	-3877
▁挑战	-3878
▁说法	-3879
▁关注	-3880
▁质地	-3881
▁肝脾未	-3882
▁医学	-3883
▁乾隆	-3884
▁爵	-3885
▁迫	-3886
▁蜂窝状	-3887
▁暂缺	-3888
▁访问	-3889
▁障碍	-3890
▁禁止	-3891
▁窒息	-3892
▁大楼	-3893
▁宫体	-3894
▁mcv	-3895
▁召开	-3896
▁强烈	-3897
▁四十	-3898
▁后牙	-3899
▁多动	-3900
▁邀请	-3901
▁78	-3902
▁性质	-3903
te	-3904
▁市民	-3905
▁呈细	-3906
▁拉丁	-3907
▁03	-3908
▁实行	-3909
▁上午	-3910
▁吸引	-3911
▁并非	-3912
▁86	-3913
▁丝	-3914
▁题	-3915
2%	-3916
▁mmol	-3917
▁出口	-3918
▁侦	-3919
时间	-3920
▁知识	-3921
46	-3922
▁400	-3923
▁成熟	-3924
▁新疆	-3925
▁频繁	-3926
▁飓	-3927
▁优势	-3928
▁洋	-3929
▁氢	-3930
▁气象	-3931
▁指定	-3932
▁抓	-3933
▁慕	-3934
▁合并	-3935
▁飓风	-3936
▁中共中央	-3937
▁全面	-3938
76	-3939
▁专门	-3940
▁亮	-3941
▁搬	-3942
▁con	-3943
▁工人	-3944
▁感到	-3945
▁酒店	-3946
▁管辖	-3947
▁针对	-3948
▁下腹	-3949
▁珠	-3950
▁亿元	-3951
▁一天	-3952
▁博物馆	-3953
▁mp	-3954
▁不促	-3955
▁舍	-3956
▁竞争	-3957
▁评价	-3958
▁ma	-3959
▁作曲	-3960
▁淡水	-3961
▁坎	-3962
▁解放	-3963
▁一项	-3964
▁胎	-3965
▁am	-3966
ver	-3967
▁主角	-3968
▁抗日	-3969
▁高速公路	-3970
▁用来	-3971
se	-3972
▁墨西哥	-3973
▁授予	-3974
▁心理	-3975
▁陆军	-3976
▁冲突	-3977
▁幸	-3978
▁北方	-3979
▁膝	-3980
▁外国	-3981
▁颗	-3982
▁邨	-3983
▁糜	-3984
▁教学	-3985
▁十年	-3986
▁能量	-3987
▁肺门影	-3988
▁喉中	-3989
sp	-3990
▁特色	-3991
▁武汉	-3992
▁品牌	-3993
▁su	-3994
▁中线	-3995
▁暴露	-3996
▁估计	-3997
▁溶	-3998
▁绕	-3999
▁发起	-4000
▁钟	-4001
▁国务院	-4002
▁猪	-4003
▁仔	-4004
▁1979	-4005
不出	-4006
▁鲍	-4007
▁地理	-4008
电视	-4009
▁鼻翼	-4010
▁葛	-4011
▁比利	-4012
ack	-4013
▁en	-4014
▁编辑	-4015
▁发电	-4016
ich	-4017
▁at	-4018
▁粘连	-4019
▁楚	-4020
▁经历	-4021
▁扩大	-4022
▁土耳	-4023
▁土耳其	-4024
人员	-4025
▁孤	-4026
▁英尺	-4027
▁标志	-4028
▁创建	-4029
▁暗区	-4030
▁市区	-4031
▁先生	-4032
▁淀粉	-4033
议院	-4034
▁走向	-4035
▁十三	-4036
▁一切	-4037
▁唇裂	-4038
▁抵达	-4039
▁人数	-4040
▁盆	-4041
规模	-4042
▁捐	-4043
▁卫星	-4044
▁鼻炎	-4045
▁诊治	-4046
▁you	-4047
▁两年	-4048
▁to	-4049
▁并不	-4050
▁硕	-4051
▁鸡	-4052
合物	-4053
▁资讯	-4054
▁疏	-4055
▁哲学	-4056
▁宇宙	-4057
4%	-4058
▁收入	-4059
▁报导	-4060
▁01	-4061
▁病程	-4062
▁蛀	-4063
▁很快	-4064
▁抽动	-4065
▁带来	-4066
▁更加	-4067
▁心前	-4068
▁ng	-4069
伯特	-4070
31	-4071
▁糜烂	-4072
▁盘	-4073
▁续	-4074
▁入侵	-4075
▁储	-4076
▁事实	-4077
▁问及	-4078
▁1978	-4079
▁大使	-4080
▁枚	-4081
▁含量	-4082
▁丙	-4083
▁windows	-4084
▁并未	-4085
▁原子	-4086
▁承认	-4087
▁牧	-4088
▁如何	-4089
▁泡	-4090
▁皇后	-4091
▁添	-4092
▁蛀牙	-4093
▁扬	-4094
议员	-4095
ue	-4096
▁产业	-4097
▁原来	-4098
▁泰国	-4099
▁乐团	-4100
▁校长	-4101
▁怀孕	-4102
▁英雄	-4103
▁推动	-4104
▁陷	-4105
▁生后	-4106
▁电台	-4107
▁恋	-4108
▁灶	-4109
▁启用	-4110
▁扭	-4111
▁海外	-4112
▁畸	-4113
游戏	-4114
▁被迫	-4115
▁篮球	-4116
▁最近	-4117
▁需求	-4118
art	-4119
▁时有	-4120
▁钙	-4121
可闻	-4122
▁主张	-4123
▁北京市	-4124
▁抬	-4125
60	-4126
sh	-4127
▁捕	-4128
▁久	-4129
▁袭击	-4130
▁移位	-4131
ant	-4132
▁撤销	-4133
▁愿	-4134
▁采取	-4135
▁剩	-4136
▁势力	-4137
▁牌	-4138
▁压力	-4139
▁肿痛	-4140
▁爸	-4141
▁网路	-4142
▁黑色	-4143
▁凌晨	-4144
▁菲律	-4145
▁髓	-4146
▁两次	-4147
▁十六	-4148
▁臀	-4149
ive	-4150
▁意义	-4151
▁刻	-4152
世纪	-4153
▁少年	-4154
▁双肾	-4155
▁真菌	-4156
▁比如	-4157
▁&	-4158
▁02	-4159
▁殿	-4160
▁早产	-4161
▁同学	-4162
▁入睡	-4163
▁内陷	-4164
▁63	-4165
▁朗	-4166
▁自觉	-4167
▁勇	-4168
▁tmax	-4169
▁震	-4170
▁气旋	-4171
▁字母	-4172
▁绿色	-4173
▁条约	-4174
94	-4175
▁揭	-4176
▁痛经	-4177
▁未排	-4178
▁71	-4179
产生	-4180
▁列为	-4181
▁望	-4182
▁灯	-4183
▁酸痛	-4184
▁流血	-4185
▁go	-4186
▁口烂	-4187
▁总督	-4188
▁店	-4189
▁信仰	-4190
▁累	-4191
▁点状	-4192
▁住宅	-4193
▁锡	-4194
▁撰	-4195
▁72	-4196
▁小型	-4197
▁加盟	-4198
▁多种	-4199
▁了解	-4200
bo	-4201
▁领袖	-4202
▁仪式	-4203
▁无气	-4204
▁专家	-4205
▁提到	-4206
▁1981	-4207
mg	-4208
▁邦	-4209
▁81	-4210
5%	-4211
▁猎	-4212
▁法兰	-4213
▁上前	-4214
▁拓	-4215
▁留下	-4216
▁序	-4217
▁填	-4218
▁明显好转	-4219
▁代码	-4220
▁奈	-4221
▁事业	-4222
▁即使	-4223
▁夺得	-4224
▁洗	-4225
▁痰音	-4226
▁老师	-4227
▁升高	-4228
▁本站	-4229
oh	-4230
▁经验	-4231
▁弱	-4232
ity	-4233
▁窝	-4234
▁真正	-4235
▁软件	-4236
▁退出	-4237
▁修改	-4238
▁那些	-4239
▁十八	-4240
80	-4241
▁比例	-4242
▁医疗	-4243
ert	-4244
▁两便	-4245
▁咳不出	-4246
▁庞	-4247
▁装置	-4248
▁杆菌	-4249
▁tr	-4250
▁丰富	-4251
斯基	-4252
▁汗	-4253
▁妇产	-4254
▁地图	-4255
▁海洋	-4256
▁记忆	-4257
▁仓	-4258
▁首先	-4259
▁刊	-4260
▁脉滑	-4261
▁焦	-4262
▁从事	-4263
▁苏格兰	-4264
▁妇产科	-4265
▁宿	-4266
▁状况	-4267
▁埃及	-4268
▁市长	-4269
▁呼顺	-4270
33	-4271
▁出席	-4272
▁测量	-4273
▁粘稠	-4274
▁所属	-4275
▁弟弟	-4276
▁重大	-4277
尔特	-4278
▁时任	-4279
▁ret	-4280
▁早上	-4281
▁1946	-4282
▁太空	-4283
▁栽	-4284
▁因素	-4285
▁咽峡	-4286
▁car	-4287
▁观点	-4288
▁售	-4289
▁放弃	-4290
▁相信	-4291
▁荔	-4292
44	-4293
后来	-4294
▁督	-4295
▁不愿	-4296
▁烟	-4297
▁妇科	-4298
▁什么	-4299
▁溢液	-4300
▁积极	-4301
▁birads	-4302
▁哥哥	-4303
▁求治	-4304
rs	-4305
▁截至	-4306
▁河流	-4307
▁坦克	-4308
▁贡献	-4309
▁空气	-4310
56	-4311
▁原名	-4312
▁小组	-4313
eg	-4314
▁球季	-4315
▁秀	-4316
▁屯	-4317
▁1958	-4318
▁肠鸣	-4319
▁改造	-4320
▁威胁	-4321
▁加利福	-4322
▁家属	-4323
▁方程	-4324
▁ad	-4325
▁天起	-4326
▁摆	-4327
▁厄	-4328
▁化脓	-4329
47	-4330
▁现任	-4331
ian	-4332
▁劳动	-4333
▁权利	-4334
▁印尼	-4335
▁明治	-4336
▁十字	-4337
▁一所	-4338
▁秘密	-4339
▁第一个	-4340
▁无喘鸣	-4341
▁吸收	-4342
▁未可闻	-4343
▁一步	-4344
▁舞台	-4345
▁观测	-4346
▁扇	-4347
▁玩耍	-4348
▁部落	-4349
igh	-4350
▁传播	-4351
▁深度	-4352
▁农村	-4353
▁硫	-4354
▁屏	-4355
▁代理	-4356
▁寿	-4357
▁挪	-4358
▁团队	-4359
▁收购	-4360
▁脓肿	-4361
▁泪	-4362
▁丧	-4363
▁导管	-4364
▁一支	-4365
▁现来	-4366
▁烧	-4367
▁当局	-4368
▁装甲	-4369
▁122	-4370
▁亚历	-4371
▁工具	-4372
▁广东省	-4373
▁翌	-4374
▁十五	-4375
▁年龄	-4376
▁抛	-4377
▁sc	-4378
扮演	-4379
▁琉	-4380
动物	-4381
▁机器	-4382
▁近年	-4383
▁医生	-4384
▁上市	-4385
▁爱尔兰	-4386
▁万元	-4387
▁彼得	-4388
▁拖	-4389
pmg	-4390
▁节律	-4391
▁尚书	-4392
▁次年	-4393
▁办理	-4394
85	-4395
▁纸	-4396
▁la	-4397
▁crpmg	-4398
▁流行性	-4399
▁驾驶	-4400
▁涉及	-4401
▁相比	-4402
▁政权	-4403
西洋	-4404
▁畸形	-4405
▁保存	-4406
▁天体	-4407
▁舌红	-4408
▁扫	-4409
▁原始	-4410
42	-4411
▁布拉	-4412
▁成都	-4413
自治区	-4414
▁发音	-4415
▁闽	-4416
▁证实	-4417
▁麦氏	-4418
▁对象	-4419
美国	-4420
▁布鲁	-4421
▁新生	-4422
▁历任	-4423
▁渔	-4424
▁输卵	-4425
▁君主	-4426
▁检测	-4427
▁日军	-4428
▁1920	-4429
▁济	-4430
▁遵	-4431
▁法案	-4432
▁默	-4433
▁输卵管	-4434
▁ex	-4435
治疗	-4436
▁俗	-4437
▁流脓	-4438
▁衰	-4439
▁介绍	-4440
▁学位	-4441
▁鹿	-4442
▁院长	-4443
▁硕士	-4444
▁瘀斑	-4445
▁张口	-4446
▁枕	-4447
▁表明	-4448
▁工厂	-4449
▁那里	-4450
美元	-4451
▁裂	-4452
▁订	-4453
▁麦氏点	-4454
▁威尔	-4455
▁一级	-4456
▁眼睑	-4457
开始	-4458
▁公众	-4459
▁样便	-4460
▁不仅	-4461
▁出院	-4462
▁痛及	-4463
▁关闭	-4464
▁内阁	-4465
io	-4466
▁贺	-4467
▁磨	-4468
▁粪	-4469
▁湿疹	-4470
▁赶	-4471
65	-4472
▁龈	-4473
▁尼亚	-4474
▁营运	-4475
▁憋	-4476
▁卫生	-4477
74	-4478
处理	-4479
▁司法	-4480
▁贝尔	-4481
▁ph	-4482
▁150	-4483
▁抗体	-4484
学位	-4485
▁九龙	-4486
▁安德	-4487
▁贵族	-4488
▁执导	-4489
▁1930	-4490
▁及时	-4491
▁大区	-4492
▁皲	-4493
▁皲裂	-4494
▁峰	-4495
▁受伤	-4496
▁答	-4497
▁篇	-4498
▁习性	-4499
▁伊朗	-4500
▁人大	-4501
联赛	-4502
▁膀	-4503
▁展示	-4504
▁经典	-4505
▁1948	-4506
▁不满	-4507
时期	-4508
▁上下	-4509
▁ul	-4510
▁浑	-4511
▁得知	-4512
▁签署	-4513
▁建于	-4514
▁太子	-4515
▁登陆	-4516
工程	-4517
▁年初	-4518
ong	-4519
▁膀胱	-4520
▁投降	-4521
▁pmol	-4522
▁1940	-4523
79	-4524
▁教师	-4525
▁安装	-4526
72	-4527
联盟	-4528
86	-4529
▁自予	-4530
▁芝	-4531
▁兼任	-4532
▁种族	-4533
▁ba	-4534
▁购买	-4535
▁妈妈	-4536
▁排稀	-4537
lay	-4538
▁筛	-4539
▁堡	-4540
▁西南部	-4541
▁第八	-4542
▁站立	-4543
▁水库	-4544
▁1975	-4545
▁原则	-4546
▁戏剧	-4547
▁天未	-4548
▁援	-4549
▁私人	-4550
▁民众	-4551
▁错误	-4552
▁淘	-4553
▁指导	-4554
▁二人	-4555
▁败	-4556
▁五十	-4557
▁曾祖	-4558
▁闪	-4559
▁对比	-4560
▁领土	-4561
▁弥	-4562
▁尿道	-4563
▁示威	-4564
▁西北部	-4565
▁乡试	-4566
▁癌	-4567
▁占领	-4568
▁马来西亚	-4569
▁行星	-4570
▁整体	-4571
▁桂	-4572
105	-4573
▁毁	-4574
▁打击	-4575
▁嘴	-4576
▁变得	-4577
▁1937	-4578
▁南极洲	-4579
▁炎症	-4580
▁依然	-4581
▁请求	-4582
49	-4583
▁情绪	-4584
▁三角	-4585
▁程式	-4586
▁合成	-4587
▁摄氏	-4588
71	-4589
▁办事	-4590
▁狭小	-4591
▁理事	-4592
▁栽培	-4593
▁倍	-4594
▁美术	-4595
▁须	-4596
▁甲状	-4597
▁营养	-4598
▁塞尔	-4599
▁熊	-4600
▁莫斯科	-4601
▁抑	-4602
▁空中	-4603
▁六年	-4604
▁小脑	-4605
▁教练	-4606
73	-4607
▁设定	-4608
▁血便	-4609
▁共产党	-4610
▁壁见	-4611
▁逮	-4612
▁抗议	-4613
▁列入	-4614
▁上方	-4615
尿管	-4616
▁予以	-4617
▁爬	-4618
▁1956	-4619
▁难以	-4620
关节	-4621
▁用作	-4622
▁形象	-4623
▁赖	-4624
▁脱落	-4625
▁队伍	-4626
▁住院治疗	-4627
▁椭	-4628
▁疫	-4629
▁册	-4630
盛顿	-4631
▁哥伦	-4632
▁署	-4633
▁1000	-4634
▁计算机	-4635
▁番	-4636
ilm	-4637
▁涂	-4638
▁名单	-4639
▁盟	-4640
▁α	-4641
93	-4642
▁澳大利亚	-4643
▁杂乱	-4644
▁欢迎	-4645
▁动力	-4646
▁偶尔	-4647
41	-4648
▁双膝	-4649
▁爆炸	-4650
▁引出	-4651
▁羊	-4652
▁步兵	-4653
▁藤	-4654
▁建制	-4655
▁中度	-4656
▁甲状腺	-4657
▁躯	-4658
▁摄影	-4659
▁伏	-4660
▁1947	-4661
▁战略	-4662
68	-4663
▁传说	-4664
▁众多	-4665
▁制定	-4666
▁火山	-4667
▁奖项	-4668
▁识	-4669
▁民间	-4670
▁关节痛	-4671
▁缅甸	-4672
▁输尿管	-4673
▁600	-4674
▁一百	-4675
▁链	-4676
▁都市	-4677
▁一份	-4678
bs	-4679
没有	-4680
▁排出	-4681
▁粤	-4682
▁火箭	-4683
▁荔枝	-4684
▁名义	-4685
▁不剧	-4686
▁滨	-4687
▁差异	-4688
▁火车	-4689
▁氧化	-4690
▁黄体	-4691
▁食品	-4692
▁iu	-4693
▁河畔	-4694
▁哈尔	-4695
▁退休	-4696
▁哮鸣	-4697
▁往往	-4698
43	-4699
ph	-4700
▁菜	-4701
▁政党	-4702
▁毛泽	-4703
▁由此	-4704
▁mri	-4705
▁丈	-4706
▁利亚	-4707
2018	-4708
▁入史	-4709
▁说明	-4710
▁棘	-4711
▁倒流	-4712
▁1941	-4713
▁路口	-4714
▁学会	-4715
▁修建	-4716
▁化石	-4717
▁─	-4718
▁圈	-4719
▁参考	-4720
▁同侧	-4721
▁咬	-4722
▁装备	-4723
▁大西洋	-4724
▁上海市	-4725
▁派出	-4726
主角	-4727
▁块状	-4728
▁朝廷	-4729
▁鱼类	-4730
▁率领	-4731
▁证据	-4732
▁燕	-4733
▁小孩	-4734
▁耐	-4735
▁墙	-4736
▁夫人	-4737
▁康熙	-4738
▁喀	-4739
▁山脉	-4740
58	-4741
▁侧脑	-4742
▁认识	-4743
▁强调	-4744
▁宫腔	-4745
进士	-4746
▁1976	-4747
▁侧脑室	-4748
▁确认	-4749
▁菲律宾	-4750
ort	-4751
▁炸	-4752
▁冒	-4753
▁日期	-4754
▁运作	-4755
▁气管	-4756
▁窦性	-4757
▁相互	-4758
▁源自	-4759
▁毛泽东	-4760
▁阅	-4761
▁血尿	-4762
▁昏	-4763
our	-4764
▁任教	-4765
▁空军	-4766
▁大规模	-4767
▁青岛	-4768
▁半岛	-4769
▁其实	-4770
▁立即	-4771
▁随即	-4772
▁间歇	-4773
▁赐	-4774
▁保守	-4775
66	-4776
▁一致	-4777
▁挪威	-4778
▁中国大陆	-4779
▁吸气	-4780
贝尔	-4781
ne	-4782
▁损失	-4783
▁而言	-4784
▁主力	-4785
vd	-4786
▁椭圆	-4787
▁泌	-4788
▁华人	-4789
▁满足	-4790
▁光整	-4791
▁爸爸	-4792
▁剖宫	-4793
▁上升	-4794
▁知县	-4795
▁并于	-4796
▁皱	-4797
▁从而	-4798
▁饰演	-4799
▁那么	-4800
▁1973	-4801
▁北海	-4802
▁添加	-4803
▁俄国	-4804
四年	-4805
学生	-4806
▁哮鸣音	-4807
ml	-4808
▁票房	-4809
▁事情	-4810
▁穆斯	-4811
▁劝	-4812
▁夹	-4813
▁脾气	-4814
99	-4815
▁评估	-4816
▁麦克	-4817
▁反映	-4818
▁染	-4819
▁隋	-4820
▁剖宫产	-4821
wi	-4822
▁愈	-4823
▁殖民地	-4824
▁1972	-4825
▁签订	-4826
▁奴	-4827
▁维尔	-4828
▁各自	-4829
▁而成	-4830
▁克里斯	-4831
▁恐怖	-4832
77	-4833
▁僧	-4834
▁例子	-4835
部队	-4836
▁肾区	-4837
▁大坂	-4838
▁对视	-4839
▁自身	-4840
▁光点	-4841
▁早年	-4842
▁平方米	-4843
▁1966	-4844
▁逮捕	-4845
▁出战	-4846
▁姐姐	-4847
▁伪	-4848
▁实验室	-4849
▁寻找	-4850
▁腔	-4851
▁便秘	-4852
▁退役	-4853
▁刺史	-4854
62	-4855
▁1955	-4856
▁围绕	-4857
▁心电图	-4858
列车	-4859
▁坐标	-4860
▁cn	-4861
▁基于	-4862
▁1952	-4863
▁驱逐	-4864
▁持有	-4865
▁上课	-4866
▁进步	-4867
▁幽	-4868
▁司马	-4869
▁做出	-4870
▁污	-4871
▁色白	-4872
one	-4873
▁骑士	-4874
技术	-4875
▁平面	-4876
▁本院	-4877
▁胶	-4878
▁岛屿	-4879
▁西安	-4880
▁地贫	-4881
▁纤	-4882
▁孝	-4883
拉夫	-4884
▁顾问	-4885
▁喉间	-4886
科学	-4887
▁编剧	-4888
▁引入	-4889
▁霉素	-4890
▁灾	-4891
▁汪	-4892
▁预计	-4893
▁手工	-4894
▁派遣	-4895
▁优秀	-4896
▁波幅	-4897
▁开通	-4898
▁不佳	-4899
per	-4900
▁则是	-4901
▁乐队	-4902
▁蛇	-4903
▁转换	-4904
▁粗大	-4905
▁气候	-4906
▁星系	-4907
银行	-4908
▁努力	-4909
▁卡斯	-4910
▁柏林	-4911
▁丹麦	-4912
▁贵州	-4913
▁淮	-4914
▁碳	-4915
▁亨利	-4916
尝试	-4917
▁前牙	-4918
▁原住	-4919
▁为止	-4920
▁玛丽	-4921
▁颇	-4922
88	-4923
▁加强	-4924
▁原有	-4925
▁已有	-4926
▁克斯	-4927
▁配音	-4928
▁波斯	-4929
▁价格	-4930
▁方言	-4931
▁剧情	-4932
▁咳史	-4933
▁犯罪	-4934
▁泛	-4935
▁煤	-4936
55	-4937
ord	-4938
▁丽	-4939
▁撒	-4940
▁同盟	-4941
▁彰	-4942
▁消费	-4943
▁此次	-4944
▁躯干	-4945
▁含有	-4946
▁本人	-4947
▁排行	-4948
▁血液	-4949
▁浙江省	-4950
ft	-4951
▁唐朝	-4952
▁最多	-4953
▁薛	-4954
▁轰炸	-4955
▁头部	-4956
▁凡	-4957
▁辩	-4958
表达	-4959
▁特有	-4960
▁国防	-4961
▁农民	-4962
拉克	-4963
▁1974	-4964
▁伸	-4965
▁下令	-4966
▁800	-4967
▁解散	-4968
▁晶	-4969
▁无咽	-4970
▁领导人	-4971
▁开设	-4972
▁脊	-4973
▁波动	-4974
▁城堡	-4975
▁月球	-4976
▁出演	-4977
▁山东省	-4978
▁佛罗	-4979
▁少女	-4980
▁行政区	-4981
▁1977	-4982
▁五月	-4983
▁执政	-4984
▁1968	-4985
▁数个	-4986
▁灰白	-4987
▁运用	-4988
▁亚型	-4989
▁部位	-4990
▁依据	-4991
▁tv	-4992
▁四川省	-4993
ec	-4994
▁浪	-4995
▁泉	-4996
▁玄	-4997
▁白点	-4998
▁回应	-4999
▁疑	-5000
▁付	-5001
▁游离	-5002
64	-5003
▁中期	-5004
▁各国	-5005
▁谋	-5006
▁资金	-5007
▁转移	-5008
▁协调	-5009
▁参选	-5010
▁有着	-5011
▁大厦	-5012
▁免费	-5013
▁怪	-5014
▁1954	-5015
▁两者	-5016
▁半球	-5017
▁该省	-5018
▁牙萌出	-5019
ib	-5020
▁吞	-5021
▁促进	-5022
▁花园	-5023
▁阴毛	-5024
▁罢	-5025
▁任职	-5026
▁更新	-5027
▁姚	-5028
▁冬季	-5029
尼斯	-5030
▁当天	-5031
▁犹太人	-5032
▁胸部	-5033
▁荒	-5034
▁地质	-5035
▁湘	-5036
▁绍	-5037
97	-5038
▁稍低	-5039
▁pc	-5040
▁手机	-5041
▁练	-5042
▁已产	-5043
▁华盛顿	-5044
▁偶伴	-5045
▁所谓	-5046
▁翻身	-5047
▁现有	-5048
▁纲	-5049
▁压积	-5050
▁泥	-5051
▁1938	-5052
6%	-5053
▁柴油	-5054
▁怀疑	-5055
▁无鼻	-5056
▁包膜	-5057
▁种子	-5058
▁转向	-5059
▁奥运会	-5060
▁1964	-5061
▁1965	-5062
维奇	-5063
▁砂砾	-5064
▁棋	-5065
▁辽宁	-5066
▁吃奶	-5067
▁首歌	-5068
▁石油	-5069
▁事故	-5070
▁坚持	-5071
▁1939	-5072
▁发明	-5073
▁考试	-5074
▁尺	-5075
▁・	-5076
▁门诊	-5077
▁互相	-5078
▁真实	-5079
▁傅	-5080
▁措	-5081
▁熟	-5082
▁柔	-5083
▁见脓点	-5084
▁摄氏度	-5085
▁免疫	-5086
▁ac	-5087
▁强度	-5088
▁血块	-5089
▁1944	-5090
▁荣誉	-5091
▁奏	-5092
▁监督	-5093
▁1971	-5094
▁大幅	-5095
维尔	-5096
▁枢	-5097
ace	-5098
▁出入	-5099
▁三世	-5100
▁吉林	-5101
▁尸	-5102
▁丈夫	-5103
▁103	-5104
▁达成	-5105
▁必要	-5106
▁弘	-5107
▁组建	-5108
▁挂	-5109
▁粮	-5110
▁大桥	-5111
▁鬼	-5112
▁到达	-5113
ii	-5114
▁青霉素	-5115
▁以南	-5116
▁尿急	-5117
▁逆	-5118
▁两肺	-5119
▁南非	-5120
▁各导	-5121
▁合面	-5122
▁jr	-5123
▁1959	-5124
电影	-5125
▁直肠	-5126
ate	-5127
▁无呕	-5128
▁减轻	-5129
▁充填	-5130
rou	-5131
▁陆续	-5132
▁通车	-5133
▁大利	-5134
▁数年	-5135
交通	-5136
▁通道	-5137
▁伍	-5138
▁雾	-5139
▁bo	-5140
▁液性	-5141
▁讲述	-5142
▁房屋	-5143
▁以北	-5144
▁彩色	-5145
▁萌出	-5146
▁税	-5147
▁加州	-5148
方米	-5149
▁扮演	-5150
▁公元前	-5151
▁各个	-5152
▁起义	-5153
▁阻止	-5154
▁齿	-5155
▁it	-5156
▁本土	-5157
▁方便	-5158
▁杭州	-5159
▁玻璃	-5160
杉矶	-5161
▁妹	-5162
▁黏痰	-5163
▁艺人	-5164
▁案件	-5165
▁→	-5166
▁起源	-5167
▁标为	-5168
▁轴	-5169
▁平原	-5170
▁无线	-5171
▁携	-5172
一个	-5173
▁这场	-5174
▁稍肿	-5175
▁现热退	-5176
▁1969	-5177
ss	-5178
▁73	-5179
▁恰	-5180
成绩	-5181
▁区未见	-5182
▁鲶	-5183
▁波形	-5184
▁契	-5185
▁参谋	-5186
▁防御	-5187
▁β	-5188
▁定期	-5189
联邦	-5190
▁卓	-5191
▁通讯	-5192
▁球会	-5193
▁消化	-5194
▁1957	-5195
绿色	-5196
大战	-5197
▁现今	-5198
▁卡拉	-5199
▁产后	-5200
球队	-5201
▁82	-5202
91	-5203
▁分界	-5204
▁煽	-5205
▁王子	-5206
▁公爵	-5207
▁同性	-5208
▁较前	-5209
▁qrs	-5210
▁’	-5211
德国	-5212
▁诞	-5213
▁科学家	-5214
▁蒸	-5215
▁衍	-5216
▁顺利	-5217
▁内带	-5218
▁苍	-5219
▁关键	-5220
▁北美	-5221
▁接替	-5222
▁1942	-5223
▁旅行	-5224
▁扩展	-5225
▁杰克	-5226
ry	-5227
▁文献	-5228
▁符号	-5229
帝国	-5230
▁强化	-5231
▁成本	-5232
▁最低	-5233
▁狮	-5234
▁升格	-5235
▁分配	-5236
▁研发	-5237
▁甘肃	-5238
▁bp	-5239
▁打算	-5240
▁诚	-5241
红色	-5242
84	-5243
54	-5244
▁首个	-5245
▁间隙	-5246
▁1012	-5247
▁自杀	-5248
▁1967	-5249
国民	-5250
▁屈	-5251
病毒	-5252
▁引种	-5253
▁婚姻	-5254
▁中有	-5255
▁he	-5256
▁遇到	-5257
▁耶稣	-5258
▁危险	-5259
▁cl	-5260
▁区内	-5261
生物	-5262
▁偷	-5263
▁只要	-5264
▁nilm	-5265
德华	-5266
▁胆囊	-5267
8%	-5268
▁前天	-5269
▁助理	-5270
▁兽	-5271
▁肉样	-5272
▁芬兰	-5273
▁腰酸	-5274
▁清洁度	-5275
▁在位	-5276
▁苗	-5277
▁天皇	-5278
▁正面	-5279
▁大奖	-5280
▁岳	-5281
▁演奏	-5282
▁nba	-5283
▁弯	-5284
▁脑干	-5285
▁1953	-5286
ign	-5287
▁成长	-5288
▁mon	-5289
83	-5290
▁这部	-5291
▁阴茎头	-5292
▁江苏省	-5293
▁fr	-5294
▁过长	-5295
▁前后	-5296
▁贴	-5297
82	-5298
ast	-5299
53	-5300
教育	-5301
end	-5302
▁多时	-5303
▁苦	-5304
106	-5305
▁周年	-5306
▁大多数	-5307
▁令人	-5308
▁保罗	-5309
▁改制	-5310
▁bl	-5311
▁敌人	-5312
▁67	-5313
▁修正	-5314
▁平扫	-5315
▁推广	-5316
52	-5317
▁人民政府	-5318
▁惟	-5319
德里	-5320
▁一款	-5321
▁危机	-5322
▁趋	-5323
▁码头	-5324
代表大会	-5325
▁接收	-5326
▁日治	-5327
▁cent	-5328
▁列出	-5329
▁眼窝	-5330
▁逼	-5331
▁爵士	-5332
▁美洲	-5333
▁充气	-5334
▁告诉	-5335
▁服役	-5336
▁各导联	-5337
▁1961	-5338
▁窗	-5339
▁血管	-5340
▁淘汰	-5341
▁com	-5342
▁生存	-5343
▁77	-5344
▁尿道口	-5345
▁常用	-5346
▁正确	-5347
▁哭时	-5348
▁外翻	-5349
▁饭	-5350
小时	-5351
▁饮食	-5352
ff	-5353
▁数次	-5354
▁突破	-5355
▁1935	-5356
▁调理	-5357
▁环形	-5358
▁巴尔	-5359
▁引流	-5360
▁利益	-5361
▁电话	-5362
▁藩	-5363
▁莎	-5364
▁展览	-5365
▁规范	-5366
▁声称	-5367
▁池	-5368
▁生态	-5369
ore	-5370
▁条状	-5371
▁赠	-5372
▁对方	-5373
▁军团	-5374
▁喘鸣	-5375
▁奶粉	-5376
▁发动机	-5377
▁附属	-5378
▁欲	-5379
▁登上	-5380
▁we	-5381
▁扇动	-5382
▁拆除	-5383
▁1962	-5384
▁得名	-5385
▁欠安	-5386
▁回答	-5387
▁起初	-5388
ix	-5389
▁1963	-5390
57	-5391
里斯	-5392
man	-5393
▁办事处	-5394
▁塑	-5395
▁讚	-5396
▁早产儿	-5397
▁1943	-5398
▁缩小	-5399
▁井	-5400
▁拼	-5401
▁主持人	-5402
▁意外	-5403
▁其内	-5404
67	-5405
▁开塞	-5406
▁ed	-5407
▁山峰	-5408
59	-5409
▁大众	-5410
63	-5411
▁不清	-5412
▁马克	-5413
▁奥地	-5414
▁催	-5415
▁1936	-5416
▁美军	-5417
▁之子	-5418
▁理想	-5419
委书记	-5420
▁开塞露	-5421
▁止	-5422
▁干净	-5423
▁实际上	-5424
▁原住民	-5425
▁金牌	-5426
▁讬	-5427
69	-5428
▁孕期	-5429
西兰	-5430
▁暂时	-5431
87	-5432
▁黄白	-5433
▁奥地利	-5434
uc	-5435
ain	-5436
▁形目	-5437
▁浊	-5438
▁候选	-5439
▁改称	-5440
▁ig	-5441
89	-5442
▁流黄	-5443
▁色黄	-5444
▁狄	-5445
▁指示	-5446
▁升级	-5447
▁乳痛	-5448
▁接任	-5449
▁棒球	-5450
▁妇女	-5451
▁脸	-5452
▁秘书长	-5453
61	-5454
▁特性	-5455
▁分支	-5456
▁适合	-5457
▁两位	-5458
▁黄疸	-5459
▁频率	-5460
▁办公室	-5461
▁穆斯林	-5462
▁废除	-5463
▁下方	-5464
▁二战	-5465
▁最为	-5466
▁ht	-5467
▁妊	-5468
固化	-5469
▁光固化	-5470
▁接着	-5471
pa	-5472
▁身上	-5473
▁形状	-5474
▁天然	-5475
▁铺	-5476
▁瓜	-5477
▁1951	-5478
▁新竹	-5479
▁主场	-5480
▁无痛	-5481
▁首席	-5482
▁九年	-5483
▁昂	-5484
▁商人	-5485
▁两名	-5486
▁me	-5487
▁剖腹	-5488
▁站台	-5489
▁陨石	-5490
▁嘉靖	-5491
▁薄白	-5492
▁涅	-5493
▁第九	-5494
▁另一方面	-5495
▁偶像	-5496
▁戒	-5497
ly	-5498
▁翰	-5499
▁123	-5500
▁尝试	-5501
▁阿根	-5502
▁现为	-5503
▁抬头	-5504
▁詹姆斯	-5505
ust	-5506
▁球场	-5507
▁挖	-5508
▁早晚	-5509
乐团	-5510
▁稍实	-5511
▁鲈	-5512
▁显露	-5513
▁髋	-5514
▁年轻	-5515
▁通用	-5516
▁色素	-5517
部长	-5518
▁食用	-5519
▁天文台	-5520
▁良性	-5521
▁七年	-5522
▁软体	-5523
▁叙利亚	-5524
胞胎	-5525
▁以此	-5526
▁狂	-5527
hg	-5528
▁游泳	-5529
▁行政院	-5530
蒙古	-5531
▁阿根廷	-5532
▁停经	-5533
▁地中	-5534
▁建筑物	-5535
qu	-5536
▁海峡	-5537
▁精索	-5538
▁这时	-5539
▁大家	-5540
▁管理局	-5541
▁会厌	-5542
▁地中海	-5543
▁即位	-5544
▁闻干罗音	-5545
▁合法	-5546
半岛	-5547
▁同名	-5548
▁盗	-5549
ith	-5550
▁兴趣	-5551
▁典型	-5552
▁资产	-5553
▁收到	-5554
▁态度	-5555
▁幻	-5556
▁津	-5557
▁首播	-5558
▁回归	-5559
▁id	-5560
▁这项	-5561
▁又称	-5562
▁胃纳减	-5563
▁港口	-5564
▁天下	-5565
作用	-5566
▁花样	-5567
▁曰	-5568
▁蛛	-5569
▁影像	-5570
▁定居	-5571
▁完工	-5572
▁商品	-5573
▁剧本	-5574
▁灰白质	-5575
▁师范	-5576
▁内战	-5577
▁细菌	-5578
▁刀	-5579
▁神智	-5580
利斯	-5581
▁69	-5582
▁剥	-5583
▁苹	-5584
▁陪	-5585
▁岭	-5586
▁蕨	-5587
▁忽	-5588
▁使用者	-5589
▁裔	-5590
▁妊娠	-5591
ock	-5592
▁昭和	-5593
▁暴力	-5594
▁浑浊	-5595
▁抢救	-5596
▁共和国	-5597
▁剪	-5598
▁国家队	-5599
▁直径约	-5600
ens	-5601
▁量表	-5602
▁擅	-5603
▁舞蹈	-5604
▁黑龙	-5605
▁分裂	-5606
▁会员	-5607
▁赏	-5608
▁无论	-5609
▁大卫	-5610
▁支流	-5611
▁wh	-5612
51	-5613
81	-5614
▁出售	-5615
▁公安	-5616
▁阿里	-5617
▁儒	-5618
此之	-5619
▁巩	-5620
▁社会主义	-5621
▁纷	-5622
▁独特	-5623
▁留在	-5624
▁第一位	-5625
ah	-5626
▁古典	-5627
▁邻近	-5628
▁嗜酸	-5629
▁情报	-5630
▁将领	-5631
▁满意	-5632
▁籍	-5633
▁市中心	-5634
▁彻	-5635
▁同房	-5636
▁椭圆形	-5637
尼亚州	-5638
▁瘤	-5639
▁两国	-5640
▁将其	-5641
▁出场	-5642
▁sm	-5643
▁这两	-5644
▁皱襞	-5645
▁合约	-5646
▁现实	-5647
▁八年	-5648
▁防止	-5649
▁主办	-5650
▁1933	-5651
▁停车	-5652
▁av	-5653
▁并将	-5654
▁育	-5655
▁拉斯	-5656
▁十七	-5657
▁已产式	-5658
▁大部	-5659
▁mv	-5660
▁文明	-5661
ps	-5662
▁hc	-5663
▁启动	-5664
▁无尿	-5665
▁倾向	-5666
▁沿海	-5667
▁喜剧	-5668
▁资本	-5669
▁一词	-5670
▁延续	-5671
▁终于	-5672
▁冷热	-5673
▁感觉	-5674
亚洲	-5675
▁稍差	-5676
▁纤维	-5677
斯克	-5678
▁幼儿	-5679
▁面对	-5680
▁意味	-5681
▁氨基	-5682
▁兹	-5683
▁落成	-5684
▁磷	-5685
▁2020	-5686
▁衄	-5687
▁长江	-5688
▁谭	-5689
▁声明	-5690
▁流黄涕	-5691
▁尿痛	-5692
▁郎	-5693
▁靶	-5694
▁猫	-5695
0%	-5696
▁指纹	-5697
雷斯	-5698
▁开展	-5699
▁释放	-5700
▁杀害	-5701
▁抱	-5702
▁83	-5703
▁悲	-5704
▁采访	-5705
▁休息	-5706
半年	-5707
▁1927	-5708
▁称呼	-5709
▁下列	-5710
▁宁波	-5711
▁不到	-5712
int	-5713
▁披裂	-5714
▁战后	-5715
▁条例	-5716
▁撞击	-5717
▁费用	-5718
▁交换	-5719
▁特点	-5720
▁授权	-5721
▁收藏	-5722
▁萨尔	-5723
▁念	-5724
▁0%	-5725
▁姜	-5726
au	-5727
▁疲	-5728
▁冰川	-5729
▁不要	-5730
▁常常	-5731
▁垂体	-5732
▁踪	-5733
▁入选	-5734
▁矛	-5735
▁剖腹产	-5736
系膜	-5737
▁棒状	-5738
▁cod	-5739
▁粒子	-5740
▁酶	-5741
hz	-5742
▁dq	-5743
▁联系	-5744
▁中式	-5745
▁恒牙	-5746
▁措施	-5747
▁昨夜	-5748
▁海南	-5749
▁廖	-5750
▁振	-5751
▁越来	-5752
▁货币	-5753
▁伟	-5754
▁1928	-5755
▁职位	-5756
演员	-5757
▁伤口	-5758
▁天后	-5759
城市	-5760
▁边境	-5761
分之	-5762
▁海上	-5763
▁作业	-5764
▁丘疹	-5765
▁身分	-5766
▁色彩	-5767
▁称作	-5768
▁未孕	-5769
▁一首	-5770
▁未知	-5771
kg	-5772
▁性能	-5773
▁传媒	-5774
▁肠系膜	-5775
▁至于	-5776
▁校区	-5777
▁月底	-5778
褐色	-5779
▁对外	-5780
▁退烧	-5781
之间	-5782
▁强大	-5783
▁轻咳	-5784
▁成人	-5785
▁洛杉矶	-5786
▁荆	-5787
▁排烂	-5788
▁改建	-5789
▁小朋友	-5790
▁鄂	-5791
▁缘	-5792
尔顿	-5793
▁触血	-5794
▁黑龙江	-5795
▁机制	-5796
激素	-5797
▁并没有	-5798
▁法语	-5799
▁回忆	-5800
▁收集	-5801
▁上阵	-5802
▁销量	-5803
▁签约	-5804
▁苹果	-5805
▁困	-5806
▁年时	-5807
▁1931	-5808
▁陷入	-5809
可及	-5810
▁保险	-5811
▁喉室	-5812
状态	-5813
▁早搏	-5814
▁哥伦比亚	-5815
▁过敏性	-5816
ai	-5817
▁严格	-5818
▁中午	-5819
▁靠近	-5820
▁对此	-5821
▁文艺	-5822
▁钙化	-5823
▁克莱	-5824
▁吮	-5825
▁铸	-5826
▁天未排	-5827
▁讯	-5828
▁退烧药	-5829
▁吨	-5830
▁习惯	-5831
▁融合	-5832
▁日间	-5833
▁公交	-5834
▁竞选	-5835
阳市	-5836
▁爱情	-5837
▁未有	-5838
▁间伴	-5839
▁亚州	-5840
▁河南省	-5841
▁公斤	-5842
▁布莱	-5843
▁推进	-5844
▁肖	-5845
▁艘	-5846
▁一间	-5847
▁律师	-5848
萨斯	-5849
▁笑	-5850
▁量子	-5851
▁包围	-5852
▁战士	-5853
▁成就	-5854
▁牵引	-5855
▁考古	-5856
▁雍	-5857
▁一职	-5858
▁加利福尼	-5859
▁等级	-5860
▁学科	-5861
▁献	-5862
▁十月	-5863
▁热处理	-5864
▁赋	-5865
▁学士	-5866
▁该市	-5867
▁毗	-5868
▁演化	-5869
▁出版社	-5870
▁升任	-5871
▁汉族	-5872
▁寮	-5873
▁妹妹	-5874
▁斩	-5875
▁化合物	-5876
▁古老	-5877
▁1932	-5878
▁脑沟	-5879
▁疫苗	-5880
▁角度	-5881
▁大师	-5882
▁论文	-5883
▁锺	-5884
▁天来	-5885
▁勋	-5886
▁sch	-5887
▁台北市	-5888
▁豆渣	-5889
▁转变	-5890
▁共产	-5891
▁很少	-5892
▁氯	-5893
▁本届	-5894
▁无气紧	-5895
▁带领	-5896
▁pmp	-5897
▁第十一	-5898
▁泌乳	-5899
▁维护	-5900
▁所在地	-5901
▁原先	-5902
▁纳粹	-5903
▁加速	-5904
▁这颗	-5905
▁复合	-5906
▁一个月	-5907
▁域	-5908
▁乱	-5909
▁79	-5910
▁iv	-5911
▁从此	-5912
▁影响力	-5913
▁日报	-5914
▁碱	-5915
▁渣样	-5916
son	-5917
▁腮	-5918
▁朴	-5919
▁保健	-5920
▁‘	-5921
▁审查	-5922
▁昏迷	-5923
▁德里	-5924
▁谈判	-5925
▁认定	-5926
▁十九	-5927
▁紧急	-5928
▁警告	-5929
▁视频	-5930
▁诗人	-5931
▁钻	-5932
▁1934	-5933
▁报纸	-5934
▁风险	-5935
▁旺	-5936
▁用途	-5937
▁sy	-5938
▁逢	-5939
▁形容	-5940
二醇	-5941
▁首位	-5942
▁路段	-5943
▁生成素	-5944
▁布尔	-5945
▁play	-5946
ick	-5947
▁鼻窦	-5948
ina	-5949
▁五个	-5950
▁直隶	-5951
▁700	-5952
▁苏丹	-5953
▁仿	-5954
▁货物	-5955
▁验	-5956
ern	-5957
▁全口	-5958
▁星等	-5959
ight	-5960
▁诏	-5961
▁未婚	-5962
▁监狱	-5963
▁收视	-5964
▁蒙特	-5965
▁阿奇	-5966
▁一月	-5967
▁教育部	-5968
▁近代	-5969
▁摧	-5970
▁校园	-5971
▁倦	-5972
▁射击	-5973
▁重量	-5974
建筑	-5975
▁脂肪	-5976
▁推荐	-5977
▁装饰	-5978
逻辑	-5979
▁活禽	-5980
▁脉搏	-5981
▁姊	-5982
音乐	-5983
▁环形山	-5984
▁内蒙古	-5985
▁宣称	-5986
▁处于	-5987
▁喷射性	-5988
▁圆形	-5989
▁质疑	-5990
▁碑	-5991
▁南美洲	-5992
▁探险	-5993
▁提及	-5994
▁上帝	-5995
▁浓度	-5996
▁欧盟	-5997
▁自我	-5998
经济	-5999
▁迟	-6000
▁保障	-6001
▁钝	-6002
▁电气	-6003
▁hant	-6004
▁inter	-6005
ber	-6006
▁适用	-6007
▁单元	-6008
▁圣经	-6009
▁居民点	-6010
▁手段	-6011
▁发放	-6012
ies	-6013
机车	-6014
▁自称	-6015
计划	-6016
▁责任	-6017
oun	-6018
▁模拟	-6019
▁右下	-6020
▁猛	-6021
▁港元	-6022
▁敬	-6023
▁贯	-6024
▁碰	-6025
▁下来	-6026
▁掉	-6027
▁种类	-6028
▁厦	-6029
▁更是	-6030
▁睾酮	-6031
▁平衡	-6032
▁打破	-6033
▁ge	-6034
▁uu	-6035
▁带有	-6036
▁注入	-6037
▁并以	-6038
▁享年	-6039
▁亲自	-6040
▁皮质	-6041
▁爱德华	-6042
▁另有	-6043
▁益	-6044
▁盆腔	-6045
▁大赛	-6046
▁口臭	-6047
▁天气	-6048
▁抑制	-6049
▁研究生	-6050
▁开幕	-6051
▁来到	-6052
▁输入	-6053
加拉	-6054
ond	-6055
▁胃肠	-6056
▁后者	-6057
▁支付	-6058
▁市政府	-6059
▁两岸	-6060
▁筛查	-6061
▁决议	-6062
▁充满	-6063
公园	-6064
▁艺术家	-6065
▁详见	-6066
▁哪	-6067
▁司令部	-6068
▁慢性	-6069
▁档案	-6070
▁坏	-6071
▁学习成绩	-6072
▁姆	-6073
决赛	-6074
▁干部	-6075
▁保证	-6076
▁鼓励	-6077
▁以东	-6078
▁象征	-6079
▁叔	-6080
▁写作	-6081
▁谵	-6082
▁双胞胎	-6083
▁99	-6084
▁紧张	-6085
▁摔	-6086
▁胁	-6087
▁一点	-6088
▁谵妄	-6089
▁离子	-6090
▁相应	-6091
塞尔	-6092
▁无热	-6093
▁珊	-6094
▁无人	-6095
科学院	-6096
▁西班牙语	-6097
▁腮腺	-6098
▁神话	-6099
▁称号	-6100
▁伊斯兰	-6101
生素	-6102
▁已退	-6103
气压	-6104
▁控股	-6105
▁地形	-6106
▁联络	-6107
▁客户	-6108
▁骑兵	-6109
▁魔法	-6110
▁切除	-6111
▁浦	-6112
▁缩写	-6113
▁一半	-6114
▁象限	-6115
▁1929	-6116
pe	-6117
▁适应	-6118
▁军区	-6119
▁发言	-6120
▁福州	-6121
▁颅	-6122
少年	-6123
▁最好	-6124
▁沿岸	-6125
▁分成	-6126
▁想要	-6127
▁河北省	-6128
▁吮奶	-6129
▁新生儿	-6130
▁末期	-6131
▁人权	-6132
国会	-6133
▁昌	-6134
▁序列	-6135
▁本作	-6136
▁本科	-6137
▁货运	-6138
▁gam	-6139
▁肌瘤	-6140
▁邵	-6141
▁氟	-6142
▁巴基	-6143
▁北海道	-6144
政协	-6145
▁本线	-6146
▁光斑	-6147
▁内可及	-6148
▁高雄市	-6149
▁波尔	-6150
▁物品	-6151
▁视觉	-6152
▁领地	-6153
▁三国	-6154
▁翌年	-6155
▁蒲	-6156
▁以西	-6157
▁屠	-6158
▁福建省	-6159
▁辐射	-6160
▁par	-6161
▁任期	-6162
▁重视	-6163
▁高达	-6164
▁月份	-6165
▁理由	-6166
▁对应	-6167
▁区的	-6168
▁假设	-6169
▁性三	-6170
▁鼻窦炎	-6171
▁般	-6172
▁岛上	-6173
▁该片	-6174
▁el	-6175
▁教宗	-6176
癫痫	-6177
▁埋	-6178
▁创始	-6179
▁尼克	-6180
iz	-6181
▁院士	-6182
▁呈现	-6183
▁交界	-6184
▁局长	-6185
▁暨	-6186
▁宏	-6187
▁眼睛	-6188
▁像是	-6189
▁并入	-6190
▁126	-6191
▁的关	-6192
▁候选人	-6193
▁主体	-6194
▁腓	-6195
▁似乎	-6196
▁可退	-6197
▁复杂	-6198
▁此事	-6199
▁巫	-6200
ire	-6201
▁出发	-6202
加哥	-6203
ure	-6204
▁谁	-6205
▁雌二醇	-6206
▁壮	-6207
▁净	-6208
▁嫁	-6209
▁颁奖	-6210
▁joh	-6211
▁丹尼	-6212
▁清代	-6213
ction	-6214
▁埃尔	-6215
▁泡沫	-6216
▁商场	-6217
▁髓质	-6218
▁展出	-6219
▁脑裂	-6220
▁mac	-6221
▁纺	-6222
▁卒	-6223
▁该校	-6224
▁改进	-6225
▁一张	-6226
▁谱	-6227
▁主流	-6228
▁争取	-6229
▁流动	-6230
▁颁发	-6231
▁ー	-6232
▁日常	-6233
▁足够	-6234
▁五官	-6235
▁东亚	-6236
▁地利	-6237
▁菩	-6238
▁歧	-6239
▁非法	-6240
▁欠均	-6241
▁人生	-6242
▁新界	-6243
▁互联	-6244
▁此地	-6245
▁下属	-6246
▁网球	-6247
▁惨	-6248
▁冈	-6249
▁昇	-6250
▁芝加哥	-6251
▁情形	-6252
▁伊拉克	-6253
▁剧集	-6254
▁第二十	-6255
▁通知	-6256
▁夜眠	-6257
▁途中	-6258
▁泌乳素	-6259
▁lct	-6260
▁尹	-6261
▁句	-6262
▁亲王	-6263
▁拘	-6264
▁一人	-6265
▁剧场	-6266
▁登场	-6267
▁na	-6268
▁1912	-6269
产品	-6270
▁南海	-6271
▁蓝色	-6272
▁婴	-6273
▁佛罗里	-6274
文学	-6275
▁独走	-6276
▁指控	-6277
▁遭受	-6278
▁贩	-6279
▁满洲	-6280
▁聚集	-6281
▁闻罗音	-6282
▁狗	-6283
▁剂	-6284
▁整合	-6285
▁法官	-6286
▁man	-6287
ath	-6288
▁lin	-6289
▁通往	-6290
▁修复	-6291
▁房间	-6292
▁撤退	-6293
▁排水	-6294
▁无排	-6295
▁终点	-6296
▁回国	-6297
▁抚	-6298
ux	-6299
▁群众	-6300
▁勃	-6301
▁遣	-6302
▁加以	-6303
▁单独	-6304
▁发挥	-6305
▁监察	-6306
▁查理	-6307
▁女孩	-6308
▁摧毁	-6309
pt	-6310
▁创新	-6311
▁生育	-6312
▁这座	-6313
▁席位	-6314
▁违反	-6315
▁湖泊	-6316
▁颊	-6317
▁替代	-6318
▁稀发	-6319
▁录音	-6320
▁禅	-6321
▁my	-6322
▁财产	-6323
▁四月	-6324
▁牛奶	-6325
▁已知	-6326
▁法庭	-6327
▁造影	-6328
民主	-6329
▁可是	-6330
▁ak	-6331
▁肌层	-6332
▁科尔	-6333
▁加剧	-6334
▁审判	-6335
▁告知	-6336
▁蹟	-6337
政治	-6338
▁专用	-6339
▁被捕	-6340
▁摇滚	-6341
▁青少年	-6342
▁梵	-6343
▁语言表达	-6344
▁已萌	-6345
▁市政	-6346
▁同日	-6347
112	-6348
萨克	-6349
▁鸭	-6350
▁战场	-6351
▁总裁	-6352
▁退后	-6353
▁战斗机	-6354
▁复查	-6355
医院	-6356
▁当日	-6357
▁new	-6358
▁书籍	-6359
世界大战	-6360
ug	-6361
工业	-6362
▁节度	-6363
▁务	-6364
▁觉得	-6365
▁黄涕	-6366
▁秘鲁	-6367
▁拨	-6368
▁葬	-6369
▁相反	-6370
▁通信	-6371
▁公转	-6372
▁典礼	-6373
▁孕酮	-6374
瓦尔	-6375
▁布朗	-6376
▁忍	-6377
▁布里	-6378
▁遭遇	-6379
▁疗	-6380
▁间诉	-6381
▁路易斯	-6382
▁结肠	-6383
米尔	-6384
▁代替	-6385
▁当代	-6386
▁接下	-6387
▁未予	-6388
▁附着	-6389
▁巴基斯坦	-6390
▁杂菌	-6391
▁喝	-6392
▁矩	-6393
▁信徒	-6394
▁突下	-6395
▁液体	-6396
▁阴道炎	-6397
▁经期	-6398
▁颞	-6399
▁泽	-6400
▁不好	-6401
伦敦	-6402
▁棉	-6403
▁吹	-6404
▁101	-6405
▁最小	-6406
▁狼	-6407
▁左下	-6408
▁策略	-6409
▁四大	-6410
▁醒	-6411
▁根尖	-6412
▁mmhg	-6413
▁逻辑	-6414
▁低气压	-6415
经理	-6416
▁史密	-6417
▁格拉	-6418
▁瑟	-6419
▁经前	-6420
▁车队	-6421
▁输出	-6422
▁腐	-6423
▁奥尔	-6424
▁dvd	-6425
▁首相	-6426
▁依照	-6427
▁中将	-6428
▁莲	-6429
ory	-6430
阶段	-6431
▁女王	-6432
▁滞	-6433
▁紊	-6434
▁浸	-6435
▁三人	-6436
▁收费	-6437
▁出道	-6438
山大	-6439
▁画家	-6440
▁排除	-6441
▁转会	-6442
▁值得	-6443
▁胆汁	-6444
▁斯塔	-6445
▁湖南省	-6446
▁及细	-6447
▁如今	-6448
▁西侧	-6449
yle	-6450
▁1925	-6451
▁空白	-6452
▁坠	-6453
▁邱	-6454
▁诊室	-6455
▁自幼	-6456
▁拳	-6457
卫生	-6458
▁道德	-6459
▁指数	-6460
▁页	-6461
ial	-6462
▁质软	-6463
▁凝视	-6464
▁预测	-6465
▁受限	-6466
▁柴油机	-6467
▁主管	-6468
▁三月	-6469
▁清华	-6470
▁过度	-6471
▁御史	-6472
▁新建	-6473
▁病逝	-6474
▁一套	-6475
▁桃园	-6476
▁一共	-6477
▁菊	-6478
▁落后	-6479
▁1924	-6480
▁敦	-6481
▁钼	-6482
▁放在	-6483
▁币	-6484
阳县	-6485
▁罗斯	-6486
▁视星	-6487
▁特拉	-6488
▁衡	-6489
▁数日	-6490
▁臣	-6491
▁外露	-6492
▁性别	-6493
▁癫痫	-6494
▁体育场	-6495
▁效应	-6496
▁脑部	-6497
▁同步	-6498
▁子女	-6499
▁wor	-6500
▁引进	-6501
▁担心	-6502
▁江南	-6503
▁脱离	-6504
十年	-6505
▁克罗	-6506
▁1919	-6507
xt	-6508
▁排列	-6509
▁递	-6510
▁次日	-6511
▁128	-6512
▁物体	-6513
▁联合会	-6514
▁紊乱	-6515
▁同龄	-6516
▁琼	-6517
▁供应	-6518
▁本片	-6519
▁1918	-6520
▁视星等	-6521
▁umol	-6522
▁孢	-6523
▁游行	-6524
▁详细	-6525
▁匹	-6526
▁烈	-6527
▁认证	-6528
▁幼儿园	-6529
▁琉球	-6530
ogle	-6531
▁时会	-6532
▁恐龙	-6533
▁大选	-6534
▁区别	-6535
▁总会	-6536
▁之战	-6537
▁地名	-6538
▁征服	-6539
▁根本	-6540
▁补牙	-6541
▁隐痛	-6542
▁113	-6543
▁军官	-6544
▁目光	-6545
▁呎	-6546
▁在内	-6547
▁球蛋白	-6548
▁ab	-6549
▁现存	-6550
▁翁	-6551
▁现已	-6552
▁东侧	-6553
▁午	-6554
洋舰	-6555
▁道光	-6556
▁135	-6557
▁编码	-6558
▁选出	-6559
▁纠	-6560
▁贪	-6561
▁千米	-6562
▁掩	-6563
▁传教	-6564
▁驱动	-6565
▁总站	-6566
▁google	-6567
▁晋级	-6568
▁总教	-6569
▁询	-6570
▁dl	-6571
▁易怒	-6572
▁致力	-6573
动画	-6574
▁可用	-6575
▁上面	-6576
▁‧	-6577
▁独行	-6578
▁借由	-6579
▁俗称	-6580
▁东南亚	-6581
▁欣	-6582
机构	-6583
▁超越	-6584
cl	-6585
▁成年	-6586
▁脉细	-6587
▁区间	-6588
纪录	-6589
议会	-6590
▁1926	-6591
▁以便	-6592
▁掌握	-6593
▁能源	-6594
▁绳	-6595
▁商店	-6596
▁门下	-6597
▁奴隶	-6598
▁mo	-6599
▁印刷	-6600
群岛	-6601
▁全世界	-6602
▁队长	-6603
▁主打	-6604
aw	-6605
▁自此	-6606
▁汉语	-6607
▁稍烂	-6608
▁相连	-6609
▁柬	-6610
▁用以	-6611
▁吉他	-6612
▁活动度	-6613
▁有意	-6614
▁安东	-6615
▁邪	-6616
▁郊	-6617
▁热型	-6618
▁河道	-6619
▁面容	-6620
▁140	-6621
▁删	-6622
▁搞	-6623
▁叩击	-6624
▁偶咳	-6625
人民代表大会	-6626
▁半个	-6627
▁提前	-6628
▁琴	-6629
▁意味着	-6630
▁哺乳期	-6631
▁新城	-6632
▁胸腺	-6633
▁男女	-6634
马斯	-6635
▁苏州	-6636
▁颌	-6637
▁以往	-6638
▁山西省	-6639
▁涵	-6640
▁害	-6641
▁国军	-6642
▁124	-6643
▁电动	-6644
▁奠	-6645
▁直播	-6646
▁а	-6647
▁救援	-6648
ment	-6649
▁透露	-6650
协会	-6651
范围	-6652
▁mus	-6653
▁极大	-6654
▁配置	-6655
▁大部份	-6656
▁彰化	-6657
▁国道	-6658
▁提议	-6659
▁原型	-6660
▁霸	-6661
▁书院	-6662
▁多汗	-6663
▁扪及	-6664
▁abc	-6665
▁座位	-6666
▁辞职	-6667
▁分级	-6668
▁绒	-6669
▁发声	-6670
▁都督	-6671
▁地上	-6672
▁永久	-6673
▁1922	-6674
▁互联网	-6675
▁入口	-6676
▁大夫	-6677
举行	-6678
▁如同	-6679
▁蜀	-6680
▁多利	-6681
▁黄绿色	-6682
▁希特	-6683
iss	-6684
▁变形	-6685
▁巴拉	-6686
▁闻喘	-6687
▁扣	-6688
▁种植	-6689
▁拱	-6690
▁赤纬	-6691
▁名人	-6692
▁八月	-6693
▁他人	-6694
▁纳入	-6695
▁攻打	-6696
▁髋关节	-6697
▁歌词	-6698
▁巧	-6699
▁对抗	-6700
▁奥斯卡	-6701
▁明星	-6702
▁灵敏	-6703
▁反而	-6704
▁104	-6705
▁画面	-6706
▁停靠	-6707
▁燃料	-6708
尔夫	-6709
▁支持者	-6710
▁竞赛	-6711
阶级	-6712
▁该党	-6713
▁大将	-6714
▁键	-6715
▁大气	-6716
▁叛乱	-6717
▁培训	-6718
▁赤经	-6719
▁登记	-6720
▁推行	-6721
▁最长	-6722
▁正是	-6723
艺术	-6724
▁实力	-6725
▁250	-6726
▁陨石坑	-6727
▁89	-6728
▁预算	-6729
▁两条	-6730
▁邮政	-6731
▁腭	-6732
▁有机	-6733
▁baep	-6734
▁伽	-6735
▁浊音	-6736
▁二次	-6737
▁黄痰	-6738
▁1914	-6739
小说	-6740
▁立场	-6741
▁七月	-6742
▁南极条	-6743
▁游击	-6744
▁行业	-6745
关系	-6746
▁逐步	-6747
▁青海	-6748
▁划分	-6749
▁筑	-6750
分钟	-6751
▁对手	-6752
▁委任	-6753
▁全国人民代表大会	-6754
▁北面	-6755
▁手指	-6756
▁及细湿	-6757
104	-6758
▁ro	-6759
▁center	-6760
眼花	-6761
▁罕	-6762
黄色	-6763
▁dna	-6764
▁头晕眼花	-6765
▁数位	-6766
ld	-6767
▁衍生	-6768
▁工作室	-6769
▁缓慢	-6770
▁资助	-6771
▁南昌	-6772
▁地带	-6773
中国	-6774
▁嵌	-6775
▁下颌	-6776
▁构造	-6777
▁王位	-6778
▁夸	-6779
业务	-6780
▁胁痛	-6781
ish	-6782
▁航班	-6783
▁钦	-6784
▁gu	-6785
▁彻底	-6786
▁未脱	-6787
▁祝	-6788
▁北市	-6789
▁人次	-6790
▁岩石	-6791
▁探测	-6792
▁想法	-6793
▁平民	-6794
▁仇	-6795
出血	-6796
▁游客	-6797
▁牙肉	-6798
感染	-6799
▁餐厅	-6800
▁欠均质	-6801
ey	-6802
▁走路	-6803
▁入球	-6804
ier	-6805
▁女主角	-6806
▁省级	-6807
▁间隔	-6808
▁中断	-6809
▁污染	-6810
▁长沙	-6811
▁奔	-6812
成员	-6813
▁主权	-6814
▁申请单	-6815
▁一处	-6816
时代	-6817
▁连载	-6818
▁160	-6819
▁87	-6820
▁人才	-6821
武帝	-6822
▁中原	-6823
▁の	-6824
▁族群	-6825
▁一生	-6826
▁棕	-6827
▁扩建	-6828
▁引用	-6829
人民政府	-6830
▁经由	-6831
▁赞助	-6832
▁胸闷	-6833
▁堆	-6834
▁迪士	-6835
▁颗粒	-6836
▁氧	-6837
▁迪士尼	-6838
▁国东	-6839
anc	-6840
▁静脉	-6841
▁格式	-6842
1900	-6843
ect	-6844
▁弗里	-6845
▁高架	-6846
▁大连	-6847
▁黄白色	-6848
积水	-6849
▁叫做	-6850
▁sao	-6851
▁本次	-6852
▁透明	-6853
▁山地	-6854
▁gr	-6855
▁胚	-6856
▁旨	-6857
▁绑	-6858
▁保安	-6859
▁带血	-6860
▁寻求	-6861
▁性格	-6862
▁哈尔滨	-6863
▁工商	-6864
▁日语	-6865
▁多囊	-6866
▁公开赛	-6867
▁费力	-6868
ube	-6869
▁常务	-6870
▁肝脏	-6871
▁激发	-6872
▁戊	-6873
▁息	-6874
▁占地	-6875
▁修道	-6876
▁多发	-6877
▁咨	-6878
▁导弹	-6879
▁讷	-6880
so	-6881
▁开办	-6882
▁三甲	-6883
▁来说	-6884
▁成分	-6885
▁配备	-6886
▁john	-6887
能力	-6888
▁1913	-6889
▁移动性	-6890
▁江户	-6891
▁察	-6892
节目	-6893
▁企图	-6894
▁大理	-6895
▁孢子	-6896
▁见到	-6897
▁丢	-6898
▁碎	-6899
▁未行	-6900
▁连任	-6901
▁消防	-6902
▁comp	-6903
▁坐落	-6904
▁安徽省	-6905
▁饱	-6906
▁巡洋舰	-6907
▁肠套	-6908
▁增高	-6909
▁对症	-6910
▁官至	-6911
▁首度	-6912
▁北平	-6913
▁祈	-6914
▁翰林	-6915
▁不干	-6916
▁二月	-6917
▁歪	-6918
▁呼吸道	-6919
▁甜	-6920
▁中南	-6921
▁战术	-6922
▁更换	-6923
▁春秋	-6924
▁州府	-6925
▁矛盾	-6926
▁不得不	-6927
▁赌	-6928
▁手枪	-6929
▁馀次	-6930
▁平等	-6931
▁乏	-6932
▁格雷	-6933
ary	-6934
▁积分	-6935
▁肠套叠	-6936
▁差距	-6937
▁神秘	-6938
▁ser	-6939
▁依赖	-6940
▁产地	-6941
▁诞生	-6942
埔寨	-6943
▁ly	-6944
▁大公	-6945
▁监测	-6946
▁补液	-6947
▁拿下	-6948
▁柬埔寨	-6949
▁雾化	-6950
▁沟通	-6951
▁集体	-6952
▁斗争	-6953
▁逾	-6954
▁镜头	-6955
▁弗朗	-6956
sa	-6957
▁二级	-6958
▁臭	-6959
▁割	-6960
▁评为	-6961
▁肝内	-6962
▁ag	-6963
▁之上	-6964
▁捷克	-6965
▁时段	-6966
▁理查	-6967
▁标本	-6968
▁岁会	-6969
▁银经	-6970
▁相继	-6971
▁味	-6972
▁伊利	-6973
▁大都	-6974
▁ン	-6975
▁最新	-6976
▁银纬	-6977
▁陵	-6978
▁客家	-6979
▁沙田	-6980
▁vmax	-6981
▁微软	-6982
▁1917	-6983
▁呼吁	-6984
▁镇压	-6985
ational	-6986
▁吏	-6987
▁合唱	-6988
▁右肺	-6989
▁煽动	-6990
▁鸟类	-6991
▁砖	-6992
▁全线	-6993
▁战队	-6994
▁1923	-6995
▁斯托	-6996
▁堵	-6997
▁交汇	-6998
▁先进	-6999
▁党员	-7000
▁航空公司	-7001
▁剩下	-7002
▁大街	-7003
▁凉	-7004
克尔	-7005
维斯	-7006
▁ip	-7007
▁翼	-7008
▁第一部	-7009
▁小于	-7010
▁染色	-7011
▁莱茵	-7012
▁削	-7013
▁愿意	-7014
▁单一	-7015
▁wbcx	-7016
▁同心	-7017
部门	-7018
▁波士	-7019
▁几何	-7020
▁任天	-7021
▁修订	-7022
路线	-7023
▁作曲家	-7024
▁检察	-7025
▁ist	-7026
▁lov	-7027
▁襄	-7028
纪念	-7029
▁航线	-7030
▁back	-7031
▁多人	-7032
研究	-7033
▁衣原体	-7034
▁切尔	-7035
▁窦性心	-7036
▁经济学	-7037
击败	-7038
▁施工	-7039
▁冒险	-7040
▁确诊	-7041
▁少将	-7042
▁三次	-7043
▁九月	-7044
▁鉴	-7045
▁尿液	-7046
▁激烈	-7047
▁codice	-7048
▁о	-7049
▁即将	-7050
▁密切	-7051
▁手中	-7052
▁精神状态	-7053
▁聘	-7054
▁体查	-7055
▁封闭	-7056
▁挤	-7057
▁全新	-7058
▁六月	-7059
▁即可	-7060
▁1921	-7061
▁水分	-7062
▁全国政协	-7063
▁堪	-7064
▁向量	-7065
▁援助	-7066
▁任天堂	-7067
▁握	-7068
130	-7069
▁鳞	-7070
▁尼斯	-7071
▁火星	-7072
▁凶	-7073
▁格林	-7074
▁拔除	-7075
▁综艺	-7076
▁姿	-7077
▁款	-7078
导致	-7079
▁虫	-7080
▁蓬	-7081
▁演艺	-7082
▁马尔	-7083
▁德意	-7084
▁政治家	-7085
▁外交部	-7086
▁影视	-7087
▁十大	-7088
▁定理	-7089
▁世界杯	-7090
▁咽峡部	-7091
司令	-7092
▁判决	-7093
▁月初	-7094
▁降雨	-7095
▁慕尼	-7096
▁排气	-7097
台湾	-7098
ans	-7099
▁杀死	-7100
▁女人	-7101
▁外上	-7102
▁性激素	-7103
▁显着	-7104
▁细小	-7105
▁中正	-7106
歌手	-7107
▁共计	-7108
▁宰	-7109
▁出入口	-7110
▁史密斯	-7111
▁少蚊	-7112
▁op	-7113
▁猪笼	-7114
▁踏	-7115
▁债	-7116
▁奥斯曼	-7117
▁认同	-7118
▁怎	-7119
▁场景	-7120
▁中带	-7121
▁伯爵	-7122
▁台南	-7123
▁1911	-7124
▁布雷	-7125
▁确保	-7126
▁三种	-7127
▁活检	-7128
▁哭声	-7129
▁慈善	-7130
皮肤	-7131
▁眼神	-7132
▁pa	-7133
▁研究院	-7134
▁美丽	-7135
▁耗	-7136
▁原理	-7137
▁好动	-7138
▁底层	-7139
▁福利	-7140
▁阅读	-7141
▁3000	-7142
▁qu	-7143
▁乳晕	-7144
▁多尔	-7145
▁矮	-7146
▁皮下	-7147
▁晋升	-7148
▁慕尼黑	-7149
管理	-7150
▁斯洛	-7151
▁黑暗	-7152
▁营业	-7153
▁第十二	-7154
▁图案	-7155
▁μ	-7156
▁搜索	-7157
▁德意志	-7158
▁net	-7159
▁排行榜	-7160
▁新北	-7161
▁本名	-7162
▁歌唱	-7163
▁流传	-7164
▁镇区	-7165
▁山区	-7166
▁er	-7167
▁遗传病	-7168
▁智慧	-7169
▁mic	-7170
▁泰勒	-7171
▁style	-7172
▁下唇	-7173
▁俘	-7174
▁雇	-7175
ide	-7176
▁私立	-7177
▁聚落	-7178
▁弦	-7179
▁比亚	-7180
▁国际赛	-7181
▁其父	-7182
▁办法	-7183
▁剧院	-7184
▁更为	-7185
old	-7186
▁丛	-7187
▁标记	-7188
▁南面	-7189
▁大同	-7190
▁深入	-7191
▁租界	-7192
▁罚	-7193
▁稀便	-7194
选为	-7195
▁无意	-7196
▁水深	-7197
▁猜	-7198
▁足端	-7199
▁观光	-7200
▁闭合	-7201
▁推翻	-7202
▁崩	-7203
▁天使	-7204
▁基隆	-7205
▁有名	-7206
ach	-7207
▁ca	-7208
▁旧址	-7209
▁军人	-7210
amg	-7211
▁运转	-7212
▁放射	-7213
▁高倍	-7214
▁解除	-7215
▁瘘	-7216
▁吊	-7217
▁残根	-7218
2019	-7219
▁猪笼草	-7220
▁共产主义	-7221
▁互动	-7222
▁厦门	-7223
▁趁	-7224
▁读书	-7225
▁血性	-7226
▁行驶	-7227
▁ms	-7228
▁明代	-7229
▁读者	-7230
▁反抗	-7231
▁太守	-7232
▁波及	-7233
▁国民政府	-7234
▁加工	-7235
▁古巴	-7236
▁稠	-7237
▁证券	-7238
▁好友	-7239
▁普鲁	-7240
▁正月	-7241
▁竟	-7242
▁苯	-7243
▁还纳	-7244
▁外围	-7245
▁汉字	-7246
▁钢琴	-7247
▁一小	-7248
▁惊厥	-7249
▁$	-7250
▁前来	-7251
▁裁判	-7252
▁金山	-7253
▁廉	-7254
▁天排	-7255
▁扭曲	-7256
▁面临	-7257
▁合同	-7258
▁消灭	-7259
▁致密	-7260
▁混乱	-7261
▁设计师	-7262
▁瓣	-7263
中学	-7264
▁病患	-7265
▁陕西省	-7266
▁理念	-7267
▁株	-7268
▁周刊	-7269
不同	-7270
▁清水	-7271
▁首任	-7272
▁不良	-7273
▁稀疏	-7274
▁路上	-7275
▁saamg	-7276
▁常委	-7277
▁垂直	-7278
▁肯定	-7279
▁便是	-7280
▁喇	-7281
▁碘	-7282
大楼	-7283
▁特区	-7284
▁腺样	-7285
▁德拉	-7286
运动会	-7287
▁人民币	-7288
▁丞	-7289
▁中西	-7290
▁圣母	-7291
▁湖北省	-7292
▁听力	-7293
▁赫尔	-7294
▁建筑师	-7295
热带	-7296
▁一篇	-7297
▁机动	-7298
▁较为	-7299
▁伤害	-7300
▁cv	-7301
▁面部皮肤	-7302
▁主导	-7303
▁战国	-7304
▁留学	-7305
出现	-7306
▁停药	-7307
▁织	-7308
▁巴氏	-7309
are	-7310
▁革	-7311
▁模特	-7312
span	-7313
▁met	-7314
产业	-7315
▁座堂	-7316
▁分口	-7317
▁终止	-7318
▁方程式	-7319
▁全体	-7320
▁枕区	-7321
▁稍大	-7322
▁浏	-7323
▁自治区	-7324
▁此前	-7325
▁去腐	-7326
▁no	-7327
▁架构	-7328
▁歌剧	-7329
希腊	-7330
▁大字	-7331
溃疡	-7332
▁点钟	-7333
▁嘉义	-7334
分之一	-7335
▁支撑	-7336
▁图像	-7337
▁晚期	-7338
▁糖尿	-7339
▁colspan	-7340
▁工会	-7341
▁腺样体	-7342
▁元朝	-7343
二年	-7344
▁尚顺	-7345
▁狮子	-7346
▁径	-7347
▁一批	-7348
▁型号	-7349
▁前进	-7350
▁惯	-7351
▁流产	-7352
▁预备	-7353
▁获胜	-7354
▁天津市	-7355
▁消化道	-7356
ann	-7357
▁庆祝	-7358
▁沈阳	-7359
▁可能性	-7360
▁sk	-7361
▁映	-7362
▁选秀	-7363
▁编写	-7364
此之外	-7365
▁中世纪	-7366
▁除此之外	-7367
▁绘画	-7368
肿大	-7369
▁服装	-7370
▁批判	-7371
▁鳄	-7372
▁劳工	-7373
一年	-7374
牙合	-7375
▁芒	-7376
▁弗雷	-7377
▁好评	-7378
▁并由	-7379
▁糖尿病	-7380
▁吻	-7381
▁卡特	-7382
▁1900	-7383
▁肉眼	-7384
▁举人	-7385
▁出色	-7386
ount	-7387
▁istat	-7388
▁一群	-7389
▁脾肿大	-7390
▁许可	-7391
▁定位	-7392
▁预防	-7393
▁有利	-7394
▁勳	-7395
▁札	-7396
▁描绘	-7397
▁不但	-7398
▁刑事	-7399
▁协定	-7400
▁参数	-7401
▁达尔	-7402
▁斯坦	-7403
▁多名	-7404
▁彩超	-7405
▁酮	-7406
▁相邻	-7407
▁巴勒	-7408
▁携带	-7409
▁痤	-7410
▁仅次	-7411
▁全程	-7412
▁会长	-7413
表现	-7414
▁做法	-7415
▁建国	-7416
▁野中	-7417
ung	-7418
▁认可	-7419
▁一片	-7420
▁总监	-7421
▁东海	-7422
▁示威者	-7423
▁宣告	-7424
▁黑人	-7425
▁滚	-7426
▁塞尔维亚	-7427
az	-7428
卫队	-7429
普勒	-7430
ve	-7431
▁癌变	-7432
▁总经理	-7433
▁屡	-7434
▁阴唇	-7435
▁直升	-7436
▁cp	-7437
▁主人	-7438
▁公顷	-7439
▁及脓点	-7440
▁无咳	-7441
▁尸体	-7442
▁弗拉	-7443
▁耕	-7444
▁祖先	-7445
▁追求	-7446
▁纷纷	-7447
▁开工	-7448
▁徒	-7449
▁弓	-7450
▁新人	-7451
▁赔	-7452
▁抛光	-7453
▁肠鸣存	-7454
ank	-7455
▁旋转	-7456
▁囚	-7457
▁社交	-7458
▁重返	-7459
▁愤	-7460
▁#	-7461
lat	-7462
▁青紫	-7463
▁迷你	-7464
▁龋坏	-7465
▁婴儿	-7466
▁贞	-7467
▁1909	-7468
▁探索	-7469
▁患病	-7470
▁外界	-7471
▁负责人	-7472
▁天伴	-7473
▁迫使	-7474
▁三位	-7475
co	-7476
▁卑	-7477
▁病历	-7478
▁左翼	-7479
▁肠壁	-7480
▁演讲	-7481
氨酸	-7482
▁一书	-7483
▁痤疮	-7484
▁卧	-7485
▁臀部	-7486
▁穿着	-7487
▁少涕	-7488
▁消退	-7489
▁群体	-7490
▁分校	-7491
▁照顾	-7492
▁具备	-7493
▁转为	-7494
▁兵力	-7495
▁初年	-7496
▁电力机车	-7497
▁铅	-7498
植物	-7499
▁乏力	-7500
▁该地	-7501
▁all	-7502
萎缩	-7503
round	-7504
▁膨	-7505
▁多项	-7506
▁会阴	-7507
▁万美元	-7508
▁参议院	-7509
▁德克	-7510
▁尼古	-7511
▁先前	-7512
▁急性	-7513
▁死刑	-7514
▁减弱	-7515
集团	-7516
▁冲击	-7517
▁百万	-7518
▁民政	-7519
ite	-7520
▁队员	-7521
▁综合征	-7522
▁城区	-7523
比赛	-7524
▁附加	-7525
ck	-7526
▁sil	-7527
▁十四	-7528
▁夏威	-7529
▁躲	-7530
▁治所	-7531
▁庶	-7532
▁彼此	-7533
▁平行	-7534
▁注册	-7535
因为	-7536
▁议题	-7537
▁渣样物	-7538
▁幕府	-7539
▁理工	-7540
▁是因为	-7541
▁乔治亚	-7542
▁描写	-7543
▁阿富	-7544
斯顿	-7545
▁专区	-7546
▁随机	-7547
▁商务	-7548
▁鼻出血	-7549
▁济南	-7550
▁耸	-7551
▁10%	-7552
▁不知	-7553
▁殷	-7554
▁移居	-7555
▁菲利	-7556
▁任内	-7557
▁得分	-7558
▁祐	-7559
▁经理	-7560
▁长度	-7561
▁132	-7562
▁亚军	-7563
▁洛阳	-7564
▁魁	-7565
▁海水	-7566
ile	-7567
▁下载	-7568
▁县人	-7569
▁踢	-7570
▁一大	-7571
▁进口	-7572
▁行人	-7573
▁橡	-7574
▁涡	-7575
▁硫酸	-7576
▁事物	-7577
118	-7578
▁稻	-7579
▁多日	-7580
▁舌尖	-7581
▁准确	-7582
▁悉	-7583
▁这也	-7584
▁分解	-7585
▁智利	-7586
▁打败	-7587
▁第三次	-7588
▁就读	-7589
▁每周	-7590
▁本来	-7591
社会	-7592
▁人大代表	-7593
▁顺序	-7594
▁白人	-7595
▁樱	-7596
▁口腔溃疡	-7597
▁宠	-7598
▁十二年	-7599
▁米兰	-7600
▁调节	-7601
▁环球	-7602
▁一日	-7603
▁前者	-7604
▁移植	-7605
▁97	-7606
▁城墙	-7607
▁医学院	-7608
▁肉食	-7609
▁六个	-7610
▁帐	-7611
▁粮食	-7612
▁防守	-7613
▁阿富汗	-7614
▁夏威夷	-7615
▁秩	-7616
▁绒毛	-7617
▁印第	-7618
埃尔	-7619
▁舆	-7620
▁传奇	-7621
▁儿科	-7622
▁杰出	-7623
▁矩阵	-7624
之为	-7625
▁km	-7626
▁强制	-7627
▁肾病	-7628
▁等待	-7629
▁体制	-7630
▁串	-7631
▁公式	-7632
▁娜	-7633
▁溢	-7634
▁滴	-7635
▁论坛	-7636
▁per	-7637
▁菩萨	-7638
▁指挥官	-7639
▁祭祀	-7640
▁雅典	-7641
▁战车	-7642
▁女神	-7643
▁app	-7644
▁吧	-7645
▁印第安	-7646
▁93	-7647
▁网上	-7648
▁部署	-7649
分子	-7650
ass	-7651
▁大埔	-7652
▁英军	-7653
▁大批	-7654
▁天府	-7655
▁咨询	-7656
▁手法	-7657
▁年任	-7658
威尔	-7659
▁碧	-7660
▁弟子	-7661
▁上游	-7662
格尔	-7663
▁加尔	-7664
区域	-7665
▁法兰克	-7666
▁妖	-7667
▁积气	-7668
▁内侧	-7669
▁胰岛	-7670
▁橄	-7671
▁摩尔	-7672
▁劫	-7673
▁上颌	-7674
球菌	-7675
▁知府	-7676
▁模仿	-7677
▁较差	-7678
▁专科	-7679
▁框	-7680
▁任意	-7681
▁公室	-7682
▁延迟	-7683
▁福特	-7684
▁抗战	-7685
▁观赏	-7686
▁94	-7687
▁珊瑚	-7688
▁面向	-7689
▁囊性	-7690
▁史蒂	-7691
▁潜艇	-7692
▁精灵	-7693
▁仲	-7694
▁技巧	-7695
▁短期	-7696
▁动车	-7697
▁慕容	-7698
▁太原	-7699
▁平安	-7700
联合	-7701
▁寄生	-7702
▁北侧	-7703
▁科夫	-7704
▁180	-7705
▁通行	-7706
▁音及	-7707
▁出自	-7708
▁氢氧化	-7709
ost	-7710
▁法令	-7711
▁吾	-7712
▁双打	-7713
▁鲷	-7714
▁褐色	-7715
▁议席	-7716
▁基本上	-7717
▁肩	-7718
▁高校	-7719
▁穆罕	-7720
各地	-7721
▁百姓	-7722
▁首张	-7723
▁受害	-7724
▁漂	-7725
▁沪	-7726
▁乳检	-7727
▁后期	-7728
▁限未见	-7729
▁不齐	-7730
▁集会	-7731
▁now	-7732
▁给出	-7733
▁桌	-7734
▁并与	-7735
land	-7736
▁效率	-7737
民众	-7738
▁一千	-7739
▁战胜	-7740
▁网膜	-7741
▁洲	-7742
▁提交	-7743
▁财务	-7744
▁one	-7745
▁峡	-7746
▁萨克	-7747
▁言论	-7748
▁远中	-7749
▁小姐	-7750
▁修道院	-7751
▁公告	-7752
▁占位	-7753
▁各类	-7754
▁德军	-7755
▁支线	-7756
动作	-7757
▁购物	-7758
▁欧元	-7759
▁弧	-7760
▁若干	-7761
▁取物	-7762
▁苍黄	-7763
▁凸	-7764
▁世界各地	-7765
▁竞技	-7766
▁沼	-7767
▁发达	-7768
▁光团	-7769
▁己	-7770
▁有线	-7771
▁这段	-7772
▁轻炎	-7773
▁露出	-7774
▁清真	-7775
▁题材	-7776
▁pl	-7777
▁坪	-7778
▁补充	-7779
▁算法	-7780
▁扫描	-7781
▁比尔	-7782
▁cho	-7783
ca	-7784
▁农场	-7785
▁出土	-7786
▁三大	-7787
▁胰腺	-7788
▁庭	-7789
▁1910	-7790
▁额外	-7791
▁一面	-7792
▁总共	-7793
▁查尔斯	-7794
▁bar	-7795
age	-7796
▁屯门	-7797
▁愈合	-7798
▁穿越	-7799
▁一块	-7800
rom	-7801
▁莉	-7802
▁橄榄	-7803
▁洛克	-7804
▁滞留	-7805
▁改良	-7806
▁敏感	-7807
▁穆罕默	-7808
▁姓氏	-7809
▁勋章	-7810
▁叙述	-7811
db	-7812
恩来	-7813
▁勤	-7814
▁骚	-7815
▁山坡	-7816
▁脑膜	-7817
▁и	-7818
期间	-7819
▁造型	-7820
▁掠	-7821
▁align	-7822
▁变种	-7823
▁驱逐舰	-7824
城区	-7825
▁一层	-7826
▁间断性	-7827
▁首领	-7828
▁哈利	-7829
▁曹操	-7830
▁经纪	-7831
▁安娜	-7832
▁爱国	-7833
▁hcg	-7834
▁弯曲	-7835
▁南侧	-7836
▁甲级	-7837
▁车厢	-7838
罗德	-7839
▁一旦	-7840
▁接管	-7841
大革命	-7842
▁文化大革命	-7843
▁代表作	-7844
▁强直	-7845
▁希尔	-7846
▁us	-7847
▁剥夺	-7848
▁代表团	-7849
▁胰岛素	-7850
▁早发	-7851
▁里面	-7852
▁剧中	-7853
▁爬行	-7854
▁so	-7855
▁编组	-7856
▁周恩来	-7857
▁高峰	-7858
▁宫内	-7859
▁闸	-7860
▁感情	-7861
▁库尔	-7862
▁裴	-7863
▁bm	-7864
▁铁路车	-7865
▁抗日战争	-7866
▁多元	-7867
▁步枪	-7868
▁裸	-7869
▁平定	-7870
▁坡	-7871
▁当作	-7872
▁大大	-7873
▁大队	-7874
▁茂	-7875
▁交易所	-7876
▁穆罕默德	-7877
▁呕奶	-7878
▁新增	-7879
ium	-7880
▁工艺	-7881
▁渐渐	-7882
纳德	-7883
tv	-7884
▁格里	-7885
▁900	-7886
▁西元	-7887
功能	-7888
ime	-7889
▁东汉	-7890
▁滕	-7891
▁金曲	-7892
ool	-7893
▁传输	-7894
▁十二月	-7895
▁笼	-7896
▁沿用	-7897
▁更改	-7898
▁调牙合	-7899
ground	-7900
▁内外	-7901
▁昆明	-7902
▁遗产	-7903
▁极为	-7904
▁巡抚	-7905
▁遮	-7906
▁鼓膜	-7907
▁男人	-7908
▁bd	-7909
▁正义	-7910
▁送到	-7911
▁流通	-7912
▁独自	-7913
▁yout	-7914
▁闻名	-7915
▁仰	-7916
▁电车	-7917
▁吉尔	-7918
▁至此	-7919
▁孟加拉	-7920
▁一本	-7921
▁豹	-7922
▁不变	-7923
▁充分	-7924
▁飞弹	-7925
▁腿	-7926
▁fe	-7927
▁抄	-7928
▁交给	-7929
▁夏天	-7930
▁之际	-7931
▁凤凰	-7932
▁先天	-7933
▁备洞	-7934
▁本鱼	-7935
▁主义者	-7936
▁一方	-7937
ica	-7938
▁真的	-7939
▁悠	-7940
继续	-7941
▁ngc	-7942
▁接种	-7943
▁人文	-7944
▁不利	-7945
▁名叫	-7946
选举	-7947
ance	-7948
▁测定	-7949
会试	-7950
▁一号	-7951
▁中东	-7952
▁惩	-7953
▁独坐	-7954
军区	-7955
▁途经	-7956
▁皇太	-7957
▁高丽	-7958
▁胀气	-7959
▁讨伐	-7960
▁王室	-7961
▁擅长	-7962
▁更好	-7963
▁受损	-7964
▁并无	-7965
▁秘史	-7966
▁波特	-7967
▁突起	-7968
▁吗	-7969
克林	-7970
▁赘	-7971
▁熔	-7972
act	-7973
▁北魏	-7974
▁树枝	-7975
▁上诉	-7976
▁灵活	-7977
▁舌红苔	-7978
▁现代化	-7979
own	-7980
▁遥	-7981
山市	-7982
▁难咯	-7983
ence	-7984
▁基督徒	-7985
▁子公司	-7986
▁一组	-7987
▁旨在	-7988
▁横径	-7989
▁二十年	-7990
亚目	-7991
会长	-7992
▁铃	-7993
▁在家	-7994
▁竣	-7995
▁卫视	-7996
那州	-7997
▁十一年	-7998
▁时报	-7999
▁禾	-8000
▁后能	-8001
▁员工	-8002
▁召集	-8003
▁一架	-8004
▁树脂	-8005
▁前锋	-8006
▁痒	-8007
▁中小	-8008
▁节度使	-8009
▁昔	-8010
▁仅仅	-8011
▁地域	-8012
▁首尔	-8013
▁锁	-8014
▁供奉	-8015
▁庞大	-8016
ical	-8017
▁防空	-8018
▁线索	-8019
▁经后	-8020
▁91	-8021
▁奥林匹克运动会	-8022
▁维修	-8023
▁网友	-8024
▁领先	-8025
维埃	-8026
泊尔	-8027
▁漏	-8028
▁sn	-8029
▁功率	-8030
▁海底	-8031
▁sd	-8032
▁继任	-8033
山脉	-8034
▁em	-8035
▁will	-8036
覆盖	-8037
▁主唱	-8038
▁无限	-8039
▁下面	-8040
▁那个	-8041
▁获奖	-8042
▁北宋	-8043
▁高地	-8044
▁干扰	-8045
▁攀	-8046
▁螺旋	-8047
▁一路	-8048
▁开启	-8049
▁新西兰	-8050
ood	-8051
结构	-8052
▁氨酸	-8053
▁1905	-8054
▁地址	-8055
▁实践	-8056
▁撰写	-8057
▁标题	-8058
活动	-8059
▁幼稚	-8060
▁几年	-8061
▁内地	-8062
▁音增	-8063
▁亿美元	-8064
▁夺取	-8065
▁流浪	-8066
▁市委	-8067
▁班次	-8068
▁雷达	-8069
▁欺	-8070
▁转化	-8071
▁辉	-8072
▁婆	-8073
▁灭亡	-8074
▁低均	-8075
▁实质性	-8076
▁1915	-8077
▁1916	-8078
减少	-8079
▁叩痛	-8080
▁同志	-8081
▁只会	-8082
▁ib	-8083
ivers	-8084
▁穿过	-8085
▁两天	-8086
▁密集	-8087
▁阿尔巴	-8088
▁指责	-8089
▁里斯	-8090
▁十三年	-8091
▁毗邻	-8092
▁中书	-8093
尼西亚	-8094
▁筹备	-8095
▁右肾	-8096
▁样物	-8097
▁产物	-8098
▁侧腹	-8099
▁一艘	-8100
▁ps	-8101
iki	-8102
▁后牙烂牙	-8103
▁因应	-8104
牺牲	-8105
▁脂线	-8106
▁疯	-8107
▁多样	-8108
▁新型	-8109
▁村民	-8110
▁第一名	-8111
▁六十	-8112
▁虚拟	-8113
station	-8114
ton	-8115
▁承担	-8116
▁cor	-8117
▁os	-8118
▁涵盖	-8119
▁股权	-8120
▁实体	-8121
▁就任	-8122
▁波音	-8123
▁阑	-8124
▁background	-8125
▁梯	-8126
▁背鳍	-8127
▁两座	-8128
▁北大	-8129
▁印象	-8130
▁专利	-8131
▁硬块	-8132
▁高山	-8133
▁希特勒	-8134
▁其子	-8135
▁瓦尔	-8136
▁缴	-8137
▁炸弹	-8138
▁遍	-8139
▁民进	-8140
▁客车	-8141
▁日后	-8142
▁区分	-8143
▁该区	-8144
▁飞行员	-8145
▁直辖	-8146
▁粘附	-8147
▁澎	-8148
▁中药	-8149
▁体育馆	-8150
▁同心圆	-8151
▁轰炸机	-8152
▁竣工	-8153
▁镜检	-8154
▁晚间	-8155
▁美国人	-8156
ere	-8157
▁pltx	-8158
▁吸鼻	-8159
拉多	-8160
▁博士学位	-8161
▁1901	-8162
▁异型	-8163
▁乌拉	-8164
▁巴塞	-8165
▁腹不	-8166
▁储存	-8167
▁噶	-8168
▁pe	-8169
▁萎缩	-8170
▁阶级	-8171
▁高层	-8172
▁虾	-8173
▁统治者	-8174
▁诗歌	-8175
▁颁布	-8176
▁121	-8177
▁夫妇	-8178
▁芭	-8179
▁考察	-8180
▁参谋长	-8181
▁内政	-8182
▁担当	-8183
▁谴	-8184
▁240	-8185
▁之名	-8186
▁回家	-8187
▁数目	-8188
▁立陶	-8189
▁米尔	-8190
▁判断	-8191
▁参观	-8192
▁硬币	-8193
▁精确	-8194
▁咯	-8195
▁塘	-8196
▁一类	-8197
▁尺寸	-8198
▁fre	-8199
▁い	-8200
▁爪	-8201
▁诉讼	-8202
▁线性	-8203
▁茅	-8204
▁识字	-8205
里亚	-8206
▁鼠	-8207
▁嗓	-8208
▁嫌	-8209
▁宣言	-8210
吾尔	-8211
▁为期	-8212
▁gre	-8213
▁上皮细胞	-8214
▁创下	-8215
▁中央军	-8216
树脂	-8217
▁球迷	-8218
性腺	-8219
ase	-8220
▁促性腺	-8221
▁重组	-8222
▁姊妹	-8223
▁展现	-8224
▁促性腺激	-8225
uk	-8226
▁进而	-8227
▁变换	-8228
伐克	-8229
▁地处	-8230
▁末稍	-8231
斯塔	-8232
▁ob	-8233
▁承诺	-8234
▁推测	-8235
▁弃	-8236
▁封面	-8237
▁舌侧	-8238
▁依靠	-8239
▁分区	-8240
▁双足	-8241
▁队友	-8242
▁性疾病	-8243
▁流经	-8244
▁青春	-8245
▁接壤	-8246
▁缺氧	-8247
▁社团	-8248
西斯	-8249
▁亮度	-8250
▁重庆市	-8251
▁福音	-8252
▁亚美	-8253
▁昆虫	-8254
▁神社	-8255
▁这张	-8256
▁姬	-8257
▁各项	-8258
▁本剧	-8259
▁原创	-8260
▁繁殖	-8261
▁巴伐	-8262
▁未会	-8263
▁布政	-8264
▁十一月	-8265
民族	-8266
▁滨海	-8267
▁唐代	-8268
▁打开	-8269
▁否则	-8270
▁多为	-8271
▁某种	-8272
▁风景	-8273
▁茨	-8274
▁人称	-8275
▁交叉	-8276
▁离婚	-8277
▁ep	-8278
▁疲倦	-8279
▁起点	-8280
▁立法院	-8281
▁贬	-8282
▁腹不胀	-8283
▁嘉庆	-8284
▁雍正	-8285
▁斯科	-8286
▁环绕	-8287
▁今年	-8288
▁社群	-8289
▁管道	-8290
▁南宋	-8291
▁连结	-8292
▁二甲	-8293
▁个体	-8294
▁磨牙	-8295
设计	-8296
梗阻	-8297
▁反合	-8298
▁期刊	-8299
▁名誉	-8300
▁数码	-8301
▁分享	-8302
▁立陶宛	-8303
▁南斯	-8304
▁设在	-8305
▁ev	-8306
▁干线	-8307
▁流亡	-8308
▁环保	-8309
▁工程师	-8310
▁hbg	-8311
▁观音	-8312
▁解放军	-8313
▁蜥	-8314
▁黄金	-8315
▁几天	-8316
静脉	-8317
▁跑道	-8318
▁以至	-8319
▁学系	-8320
▁雕塑	-8321
▁厝	-8322
▁尘	-8323
▁芳	-8324
▁电影节	-8325
▁大于	-8326
▁道教	-8327
▁瞄	-8328
▁普及	-8329
▁圣诞	-8330
萨斯州	-8331
▁乡村	-8332
▁绥	-8333
▁直属	-8334
歇尔	-8335
▁福尔	-8336
▁浏览	-8337
▁胃内	-8338
▁comm	-8339
▁管制	-8340
▁司机	-8341
▁停车场	-8342
▁情节	-8343
三年	-8344
▁此处	-8345
▁北洋	-8346
▁以为	-8347
▁姑	-8348
▁北美洲	-8349
▁清真寺	-8350
山县	-8351
▁七十	-8352
▁云南省	-8353
▁lh	-8354
▁一边	-8355
资源	-8356
▁外部	-8357
▁倡	-8358
▁上肢	-8359
▁伞	-8360
▁改装	-8361
▁职员	-8362
化学	-8363
▁新教	-8364
▁息肉	-8365
▁娶	-8366
▁高原	-8367
▁中旬	-8368
▁宜兰	-8369
▁暂停	-8370
▁color	-8371
▁享有	-8372
维持	-8373
▁rt	-8374
▁在于	-8375
▁总长	-8376
▁或称	-8377
▁多普勒	-8378
▁信任	-8379
▁料	-8380
▁图形	-8381
▁积为	-8382
ys	-8383
▁参见	-8384
▁团结	-8385
▁数百	-8386
元素	-8387
▁playstation	-8388
▁神圣	-8389
▁日前	-8390
▁焚	-8391
▁公寓	-8392
▁封为	-8393
▁细湿	-8394
▁保卫	-8395
▁1500	-8396
▁love	-8397
▁口径	-8398
▁股东	-8399
▁北京大学	-8400
▁跌	-8401
▁曲目	-8402
▁切题	-8403
▁称之为	-8404
▁完善	-8405
▁白质	-8406
▁那样	-8407
▁第十三	-8408
▁捷运	-8409
▁葵	-8410
▁nh	-8411
▁香港政府	-8412
▁成果	-8413
▁法兰西	-8414
▁亦可	-8415
▁喜爱	-8416
▁波罗	-8417
▁划归	-8418
▁运算	-8419
▁四世	-8420
for	-8421
▁坐不	-8422
▁获取	-8423
▁众议院	-8424
▁牺牲	-8425
▁司职	-8426
▁为此	-8427
▁索尼	-8428
▁嗳	-8429
▁居委会	-8430
▁剩馀	-8431
▁阑尾	-8432
▁扑	-8433
无法	-8434
▁场所	-8435
▁传递	-8436
▁美林	-8437
▁国语	-8438
▁多伦	-8439
▁选民	-8440
莎白	-8441
▁各有	-8442
▁á	-8443
▁浩	-8444
警报	-8445
▁检验	-8446
▁佔领	-8447
▁中国科学院	-8448
城县	-8449
▁侦察	-8450
▁葡萄牙语	-8451
▁难民	-8452
▁粤语	-8453
▁预定	-8454
▁捲	-8455
▁发掘	-8456
▁增设	-8457
▁庚	-8458
▁经费	-8459
▁陨坑	-8460
▁整理	-8461
▁英里	-8462
▁youtube	-8463
▁分散	-8464
▁奎	-8465
▁燃烧	-8466
▁二百	-8467
▁嗳气	-8468
▁富士	-8469
学者	-8470
ley	-8471
▁建有	-8472
▁演变	-8473
▁侠	-8474
程序	-8475
▁mod	-8476
▁5000	-8477
▁芙	-8478
▁党组	-8479
▁宿舍	-8480
▁德尔	-8481
▁得票	-8482
▁胃内物	-8483
文化	-8484
物质	-8485
▁压缩	-8486
▁慢波	-8487
book	-8488
▁品种	-8489
▁切除术	-8490
▁天有	-8491
▁饥	-8492
▁科幻	-8493
▁鼻咽	-8494
▁身为	-8495
▁时刻	-8496
▁某个	-8497
▁hs	-8498
▁南斯拉夫	-8499
▁网页	-8500
阴唇	-8501
▁英超	-8502
▁还要	-8503
ha	-8504
▁足协	-8505
▁布兰	-8506
▁公立	-8507
▁总体	-8508
▁威尼斯	-8509
▁可靠	-8510
▁忘	-8511
▁胜出	-8512
▁次列车	-8513
▁斋	-8514
▁医师	-8515
▁回合	-8516
▁体现	-8517
▁冀	-8518
▁突击	-8519
▁肿瘤	-8520
▁tc	-8521
▁生化	-8522
▁1903	-8523
▁灵魂	-8524
▁十五年	-8525
ll	-8526
▁其他人	-8527
▁钢铁	-8528
▁人体	-8529
▁小阴唇	-8530
▁gen	-8531
▁量减少	-8532
▁普鲁士	-8533
▁格鲁	-8534
▁弗兰	-8535
▁谘	-8536
导演	-8537
▁随之	-8538
att	-8539
▁多见	-8540
▁每月	-8541
▁取自	-8542
▁途径	-8543
▁text	-8544
▁尊重	-8545
▁前线	-8546
▁近几	-8547
▁鱼科	-8548
▁加勒	-8549
▁蒸汽	-8550
▁清华大学	-8551
▁完美	-8552
▁乌斯	-8553
▁校舍	-8554
里兰	-8555
▁神父	-8556
▁坂	-8557
▁土壤	-8558
▁南下	-8559
▁复合树脂	-8560
▁军舰	-8561
▁考入	-8562
▁壳	-8563
▁听觉	-8564
▁东区	-8565
▁伤亡	-8566
▁寺院	-8567
▁比利时	-8568
▁件	-8569
▁地产	-8570
▁立刻	-8571
▁勾	-8572
▁澄	-8573
ome	-8574
▁首批	-8575
▁这类	-8576
▁搭配	-8577
后期	-8578
▁国的	-8579
▁病情	-8580
▁头衔	-8581
查体	-8582
ony	-8583
▁交往	-8584
▁末年	-8585
▁抗原	-8586
▁侵略	-8587
▁相当于	-8588
▁放置	-8589
▁缺损	-8590
▁亚美尼亚	-8591
▁哮喘	-8592
▁国共	-8593
▁葡萄糖	-8594
▁尼泊尔	-8595
▁ir	-8596
▁cars	-8597
▁竖	-8598
▁百年	-8599
▁水泡	-8600
128	-8601
▁航天	-8602
▁辅食	-8603
▁卸	-8604
▁鹰	-8605
▁始终	-8606
▁乳糖	-8607
▁科会试	-8608
▁美国海	-8609
▁弹药	-8610
▁韦尔	-8611
▁光学	-8612
▁厚径	-8613
▁科罗	-8614
▁收缩	-8615
▁确实	-8616
▁注射	-8617
▁电路	-8618
▁情感	-8619
▁床	-8620
▁智力	-8621
▁电池	-8622
▁劲	-8623
▁风警报	-8624
gh	-8625
▁哈里	-8626
▁赛车	-8627
▁辨	-8628
▁投手	-8629
▁关联	-8630
▁变为	-8631
▁无便	-8632
▁总教区	-8633
▁廿	-8634
ee	-8635
▁搭载	-8636
行动	-8637
▁托马斯	-8638
▁祠	-8639
▁维生素	-8640
▁公务	-8641
▁耳痛	-8642
▁微博	-8643
▁省委	-8644
▁见散	-8645
▁阎	-8646
▁数值	-8647
▁预期	-8648
▁政治部	-8649
▁韧	-8650
▁开业	-8651
▁突厥	-8652
▁谴责	-8653
▁普罗	-8654
▁韵	-8655
▁幸福	-8656
▁消费者	-8657
les	-8658
▁领事	-8659
▁斑纹	-8660
▁认知	-8661
▁ind	-8662
▁intern	-8663
▁亭	-8664
▁语音	-8665
▁尿蛋白	-8666
▁恭	-8667
九龙	-8668
▁度多	-8669
▁参议员	-8670
▁轨道交通	-8671
▁国外	-8672
▁观念	-8673
▁口角	-8674
▁草案	-8675
▁水渣	-8676
也纳	-8677
▁看法	-8678
▁腹查体	-8679
▁级别	-8680
▁过渡	-8681
反复	-8682
▁水利	-8683
▁江西省	-8684
▁诺贝尔	-8685
ama	-8686
▁蝶	-8687
▁未解	-8688
▁指标	-8689
▁沿着	-8690
▁涉嫌	-8691
▁大联盟	-8692
▁容量	-8693
▁rob	-8694
▁优先	-8695
▁吏部	-8696
▁移交	-8697
▁live	-8698
▁新北市	-8699
▁十四年	-8700
▁智能	-8701
▁起诉	-8702
▁间期	-8703
▁牙根	-8704
▁电流	-8705
▁114	-8706
▁陆地	-8707
▁灭绝	-8708
▁斯克	-8709
iam	-8710
▁乘坐	-8711
▁初步	-8712
▁感受	-8713
▁打造	-8714
▁男孩	-8715
▁稍宽	-8716
ara	-8717
▁看见	-8718
▁min	-8719
▁linux	-8720
▁欠清	-8721
▁识字率	-8722
▁定性	-8723
▁翰林院	-8724
▁辽宁省	-8725
▁该剧	-8726
▁镶	-8727
▁椎	-8728
▁野生	-8729
▁玩具	-8730
▁左上	-8731
▁降温	-8732
▁顺治	-8733
▁条款	-8734
德尔	-8735
▁活性	-8736
▁龋齿	-8737
▁入境	-8738
▁县级	-8739
斯堡	-8740
▁加斯	-8741
▁华北	-8742
▁日文	-8743
▁磷酸	-8744
▁粉丝	-8745
▁县治	-8746
小学	-8747
▁元朗	-8748
▁腾	-8749
▁真人	-8750
▁本书	-8751
蝙蝠	-8752
达州	-8753
▁电压	-8754
▁亚历山大	-8755
▁翡	-8756
▁med	-8757
▁院校	-8758
▁瓣膜	-8759
▁1906	-8760
▁中以	-8761
▁信奉	-8762
▁永远	-8763
▁片段	-8764
▁特里	-8765
氨酶	-8766
▁1908	-8767
▁饶	-8768
ont	-8769
▁化验	-8770
常见	-8771
▁三级	-8772
▁徽	-8773
▁1907	-8774
脾气	-8775
▁校友	-8776
▁温泉	-8777
▁火车站	-8778
▁酰	-8779
辖区	-8780
▁男主角	-8781
▁芦	-8782
▁国旗	-8783
▁立委	-8784
▁诸多	-8785
丁堡	-8786
▁山大	-8787
▁巴斯	-8788
里克	-8789
▁一侧	-8790
▁短暂	-8791
▁方可	-8792
▁广州市	-8793
教授	-8794
▁三名	-8795
反复复	-8796
▁反反复复	-8797
up	-8798
▁自诉	-8799
▁维也纳	-8800
▁长春	-8801
▁降雨量	-8802
▁当然	-8803
▁罗伯特	-8804
▁迦	-8805
▁氨基酸	-8806
▁决策	-8807
▁首歌曲	-8808
▁重复	-8809
▁细节	-8810
▁mag	-8811
▁攻入	-8812
▁一说	-8813
▁古希腊	-8814
▁丰满	-8815
▁写成	-8816
▁季后	-8817
▁责管	-8818
▁超敏	-8819
▁壬	-8820
▁老人	-8821
▁微量	-8822
▁琳	-8823
▁伟大	-8824
▁弄	-8825
▁政务	-8826
▁国家级	-8827
▁党委	-8828
▁志愿	-8829
▁顶部	-8830
▁转氨酶	-8831
▁数十	-8832
▁解脲	-8833
六年	-8834
▁攻势	-8835
持续	-8836
▁存储	-8837
▁蝙蝠	-8838
▁前期	-8839
▁红军	-8840
▁编制	-8841
▁沙漠	-8842
▁履	-8843
▁史上	-8844
▁争夺	-8845
▁相较	-8846
▁侍郎	-8847
▁鱼雷	-8848
▁工党	-8849
▁身亡	-8850
km	-8851
▁改组	-8852
cc	-8853
▁兵团	-8854
▁萤	-8855
▁亮相	-8856
▁巴特	-8857
▁换乘	-8858
▁火力	-8859
战役	-8860
▁豫	-8861
▁最高法院	-8862
▁第十一届	-8863
▁其间	-8864
▁射入	-8865
▁死后	-8866
▁sw	-8867
▁原为	-8868
▁民主党	-8869
▁越来越	-8870
▁桥梁	-8871
▁天空	-8872
▁贤	-8873
▁之处	-8874
▁周末	-8875
▁长疱	-8876
▁堵塞	-8877
▁学堂	-8878
行为	-8879
▁大人	-8880
▁约瑟	-8881
▁micro	-8882
▁啼	-8883
▁鲸	-8884
▁辖区	-8885
▁发脾气	-8886
▁纽约市	-8887
▁王后	-8888
▁之意	-8889
公会	-8890
▁洪水	-8891
▁氢氧化钙	-8892
▁战舰	-8893
▁一枚	-8894
▁苏维埃	-8895
▁拯	-8896
▁中场	-8897
▁时速	-8898
▁普拉	-8899
▁框架	-8900
发展	-8901
▁金刚	-8902
ash	-8903
▁伴流	-8904
▁当晚	-8905
▁一角	-8906
▁原作	-8907
▁ste	-8908
▁univers	-8909
▁播映	-8910
▁贷	-8911
▁世代	-8912
▁分隔	-8913
▁友谊	-8914
▁刊登	-8915
▁е	-8916
▁н	-8917
平方米	-8918
▁坟	-8919
▁肉食性	-8920
▁人均	-8921
▁得出	-8922
▁嗣	-8923
内亚	-8924
▁当前	-8925
▁战败	-8926
▁第二次世界大战	-8927
▁零售	-8928
▁res	-8929
▁乳牙列	-8930
▁第三十	-8931
▁爱好	-8932
▁总是	-8933
▁灌肠	-8934
斯加	-8935
▁曲线	-8936
▁观看	-8937
▁彗	-8938
▁不论	-8939
▁守护	-8940
▁回来	-8941
▁两大	-8942
▁一代	-8943
▁生效	-8944
▁简化	-8945
▁命运	-8946
▁曾祖父	-8947
▁夜晚	-8948
▁垃	-8949
▁阿尔巴尼亚	-8950
ae	-8951
▁阁	-8952
ict	-8953
国民党	-8954
▁解体	-8955
运会	-8956
▁多量	-8957
de	-8958
▁酷	-8959
▁村庄	-8960
▁上任	-8961
▁下前	-8962
▁崇祯	-8963
▁确立	-8964
▁多伦多	-8965
▁法定	-8966
▁尼西	-8967
▁响亮	-8968
▁汝	-8969
▁前方	-8970
▁体验	-8971
▁大帝	-8972
▁人群	-8973
▁星际	-8974
▁樑	-8975
▁钡	-8976
▁单打	-8977
▁片中	-8978
▁名列	-8979
▁毫无	-8980
▁瓶	-8981
▁int	-8982
▁可向	-8983
▁天无	-8984
▁注明	-8985
▁翡翠	-8986
rem	-8987
▁树枝状	-8988
▁似的	-8989
▁文革	-8990
▁斯拉夫	-8991
▁印度尼西亚	-8992
▁田径	-8993
▁des	-8994
▁婚礼	-8995
▁往来	-8996
▁with	-8997
▁厨	-8998
▁限定	-8999
oss	-9000
▁纵径	-9001
▁垃圾	-9002
物种	-9003
▁一等	-9004
▁领队	-9005
▁触诊	-9006
▁缝	-9007
▁巴赫	-9008
▁1904	-9009
▁电磁	-9010
▁透视	-9011
▁遗迹	-9012
▁大面积	-9013
▁by	-9014
▁第一批	-9015
▁促使	-9016
▁近来	-9017
▁这位	-9018
▁宰相	-9019
▁军方	-9020
▁鼻痒	-9021
▁ut	-9022
主任	-9023
▁附睾	-9024
▁闯	-9025
▁哈佛	-9026
▁封锁	-9027
▁车体	-9028
▁押	-9029
▁鲨	-9030
▁职棒	-9031
▁死去	-9032
球员	-9033
▁拉萨	-9034
使用	-9035
▁宋朝	-9036
▁面前	-9037
▁119	-9038
▁埔	-9039
▁不敢	-9040
▁军衔	-9041
▁河口	-9042
▁silver	-9043
片样	-9044
▁友好	-9045
▁密码	-9046
波罗	-9047
▁dr	-9048
▁逃亡	-9049
▁360	-9050
收入	-9051
▁日益	-9052
广播	-9053
▁萨拉	-9054
ins	-9055
▁专注	-9056
▁交响	-9057
▁期望	-9058
▁阿姆	-9059
▁民籍	-9060
▁行政区划	-9061
▁黄河	-9062
▁交战	-9063
▁挺	-9064
▁代号	-9065
▁谥	-9066
▁北伐	-9067
▁还原	-9068
▁导师	-9069
▁路德	-9070
▁名词	-9071
▁百科	-9072
▁刷	-9073
▁妥	-9074
▁丧失	-9075
马尔	-9076
▁定律	-9077
▁短篇	-9078
▁募	-9079
ale	-9080
▁适当	-9081
马拉	-9082
ame	-9083
▁继位	-9084
▁近半年	-9085
▁饲	-9086
▁股票	-9087
▁阿布	-9088
▁入围	-9089
▁新兴	-9090
▁虚构	-9091
▁一员	-9092
▁一对	-9093
▁澎湖	-9094
▁归类	-9095
▁大力	-9096
▁年期	-9097
▁选人	-9098
▁处长	-9099
▁俯	-9100
囊肿	-9101
▁停留	-9102
▁站房	-9103
▁dav	-9104
▁铝	-9105
▁奋	-9106
▁流入	-9107
▁巴勒斯坦	-9108
▁调任	-9109
▁跨越	-9110
▁趋势	-9111
▁因子	-9112
▁渗液	-9113
▁骨质	-9114
▁科研	-9115
洛克	-9116
▁三天	-9117
▁进球	-9118
斯卡	-9119
▁不幸	-9120
▁未曾	-9121
▁背部	-9122
eng	-9123
▁累积	-9124
▁丑	-9125
▁逗	-9126
▁去年	-9127
▁迁移	-9128
▁动态	-9129
▁super	-9130
▁繁忙	-9131
▁迄	-9132
ts	-9133
日报	-9134
▁不如	-9135
▁时常	-9136
▁汀	-9137
之子	-9138
▁sou	-9139
▁肇	-9140
▁右上	-9141
▁face	-9142
▁辩论	-9143
▁全美	-9144
▁哀	-9145
▁悬挂	-9146
影响	-9147
▁拯救	-9148
▁无有	-9149
▁二氧化	-9150
▁交班	-9151
ise	-9152
▁应当	-9153
马州	-9154
▁出兵	-9155
▁新华	-9156
▁歼	-9157
▁遵守	-9158
▁涌	-9159
▁一体	-9160
▁绍兴	-9161
▁日子	-9162
▁区划	-9163
▁广义	-9164
▁选为	-9165
▁枢纽	-9166
▁沿线	-9167
▁gl	-9168
▁对阵	-9169
▁牧师	-9170
▁的话	-9171
▁主干	-9172
▁勘	-9173
▁一行	-9174
▁一期	-9175
▁在校	-9176
▁洪武	-9177
▁年末	-9178
▁兵部	-9179
▁岛式	-9180
▁阿莫	-9181
▁痛苦	-9182
▁纪念碑	-9183
▁研制	-9184
▁谢尔	-9185
▁防部	-9186
▁岸	-9187
▁国有	-9188
▁濒	-9189
团体	-9190
▁郑州	-9191
▁厌	-9192
▁崎	-9193
洛斯	-9194
▁开播	-9195
▁教导	-9196
▁高铁	-9197
▁乐器	-9198
▁晶体	-9199
▁动车组	-9200
▁颠	-9201
▁呆	-9202
之不	-9203
▁截止	-9204
▁乞	-9205
▁签证	-9206
▁world	-9207
▁ty	-9208
▁一辆	-9209
▁成化	-9210
▁安东尼	-9211
理论	-9212
遗产	-9213
▁叠	-9214
▁一道	-9215
▁136	-9216
▁代表性	-9217
▁兴起	-9218
山区	-9219
▁不理	-9220
▁gp	-9221
▁而后	-9222
▁博览	-9223
▁品质	-9224
▁十六年	-9225
▁变性	-9226
▁永乐	-9227
▁一台	-9228
▁车型	-9229
▁利物	-9230
▁107	-9231
▁重修	-9232
▁航行	-9233
鲁斯	-9234
ork	-9235
▁转乘	-9236
▁发言人	-9237
▁腰痛	-9238
ower	-9239
▁局限	-9240
▁廷	-9241
▁诉咽	-9242
▁无关	-9243
▁自从	-9244
▁塔尔	-9245
▁法学	-9246
▁star	-9247
▁延安	-9248
ox	-9249
▁谓	-9250
oll	-9251
▁bab	-9252
▁原料	-9253
▁护髓	-9254
▁镜检查	-9255
饰演	-9256
▁初中	-9257
广场	-9258
林斯	-9259
▁消除	-9260
▁牛津	-9261
▁太郎	-9262
▁评审	-9263
▁naa	-9264
▁中央军委	-9265
▁创意	-9266
enn	-9267
▁吐奶	-9268
▁全年	-9269
▁吉林省	-9270
▁星期一	-9271
▁介入	-9272
民间	-9273
▁进程	-9274
▁元音	-9275
▁加勒比	-9276
▁har	-9277
▁印度洋	-9278
▁体型	-9279
▁无喜	-9280
▁聂	-9281
▁安置	-9282
▁无力	-9283
▁chr	-9284
▁最后一	-9285
▁ん	-9286
▁便利	-9287
▁温带	-9288
▁音乐会	-9289
▁с	-9290
▁翅	-9291
▁利物浦	-9292
▁珀	-9293
▁无诉	-9294
▁屋顶	-9295
▁鑑	-9296
▁补给	-9297
▁催化	-9298
▁规格	-9299
▁省政府	-9300
ms	-9301
▁九州	-9302
▁ic	-9303
▁施行	-9304
▁舌淡	-9305
▁盲	-9306
▁盆地	-9307
▁有脓涕	-9308
▁争论	-9309
▁理器	-9310
▁菌丝	-9311
▁口吐	-9312
▁终身	-9313
▁县长	-9314
tp	-9315
▁批复	-9316
▁浪漫	-9317
▁50%	-9318
▁东路	-9319
▁市内	-9320
▁转任	-9321
离子	-9322
▁降落	-9323
▁fa	-9324
▁胞	-9325
▁深刻	-9326
▁秩序	-9327
▁阐	-9328
▁鸿	-9329
诺夫	-9330
▁别人	-9331
▁园区	-9332
▁cla	-9333
▁近似	-9334
▁舱	-9335
▁华东	-9336
吐奶	-9337
西里	-9338
▁类别	-9339
▁列宁	-9340
▁草原	-9341
▁中途	-9342
▁道歉	-9343
▁怒	-9344
▁技能	-9345
▁生前	-9346
冠军	-9347
▁沙特	-9348
▁见涕	-9349
三个	-9350
▁次子	-9351
▁高危	-9352
▁光谱	-9353
▁撤离	-9354
▁字符	-9355
▁迫害	-9356
▁亚当	-9357
▁沃尔	-9358
▁累计	-9359
▁р	-9360
▁两周	-9361
▁策划	-9362
▁111	-9363
▁赣	-9364
▁之称	-9365
▁基金会	-9366
▁肺野内	-9367
五年	-9368
▁霍尔	-9369
▁巴克	-9370
▁工部	-9371
▁南市	-9372
▁排球	-9373
▁改用	-9374
▁char	-9375
军事	-9376
▁占据	-9377
▁熟悉	-9378
同时	-9379
▁三部	-9380
▁极端	-9381
▁网民	-9382
太平	-9383
电台	-9384
▁祖籍	-9385
▁罕见	-9386
▁上将	-9387
▁早已	-9388
球会	-9389
▁鸦	-9390
▁ent	-9391
▁薪	-9392
▁覆盖	-9393
▁双扁度	-9394
泽尔	-9395
▁晚年	-9396
▁练习	-9397
▁判处	-9398
纳斯	-9399
▁事宜	-9400
▁长安	-9401
▁馀人	-9402
约翰	-9403
▁愤怒	-9404
▁武昌	-9405
ade	-9406
▁下游	-9407
▁故障	-9408
▁十八年	-9409
▁心动	-9410
▁重度	-9411
▁分数	-9412
▁家乡	-9413
▁旁边	-9414
olog	-9415
地亚	-9416
▁赛会	-9417
伦斯	-9418
▁生殖	-9419
▁狱	-9420
▁议长	-9421
罗马尼亚	-9422
▁胆管	-9423
▁马克思	-9424
▁使者	-9425
▁一时	-9426
▁维基	-9427
▁半年前	-9428
▁体内	-9429
▁脱氢	-9430
▁代谢	-9431
▁删除	-9432
▁只好	-9433
▁服务器	-9434
ild	-9435
▁格勒	-9436
▁尼古拉	-9437
▁蟹	-9438
小组	-9439
▁与其	-9440
▁同治	-9441
▁呕吐物	-9442
▁原址	-9443
▁公平	-9444
▁率先	-9445
▁相近	-9446
▁诸侯	-9447
▁巩膜	-9448
▁总计	-9449
▁卵巢囊肿	-9450
电视台	-9451
▁亡	-9452
新闻	-9453
不等	-9454
相同	-9455
▁口腔卫生	-9456
▁硝	-9457
▁美术馆	-9458
▁三百	-9459
▁正统	-9460
▁遗体	-9461
▁追溯	-9462
▁滥	-9463
▁此举	-9464
工作	-9465
▁德川	-9466
▁贝克	-9467
▁music	-9468
▁忧	-9469
▁癌症	-9470
▁车手	-9471
▁庇	-9472
▁邹	-9473
▁损害	-9474
▁政变	-9475
▁多位	-9476
▁干涉	-9477
▁先锋	-9478
▁奖金	-9479
▁替换	-9480
▁泉州	-9481
▁是从	-9482
▁故此	-9483
▁艰	-9484
事业	-9485
▁仪器	-9486
▁侨	-9487
▁女歌手	-9488
▁菲利普	-9489
提琴	-9490
▁提案	-9491
▁并称	-9492
▁售票	-9493
▁省份	-9494
▁啼哭	-9495
▁粘痰	-9496
▁沦	-9497
▁山口	-9498
▁参赛者	-9499
布尔	-9500
▁一件	-9501
▁排名第	-9502
人士	-9503
▁溃烂	-9504
▁阿斯	-9505
机关	-9506
▁比率	-9507
▁翌日	-9508
▁害怕	-9509
▁此类	-9510
▁布政使	-9511
▁意图	-9512
▁物资	-9513
▁野内	-9514
▁her	-9515
▁登进士	-9516
▁矢	-9517
▁分开	-9518
▁光明	-9519
▁can	-9520
▁pet	-9521
▁联军	-9522
▁斯大	-9523
▁风速	-9524
▁减低	-9525
▁建筑面积	-9526
▁姓名	-9527
▁嫁给	-9528
▁纺织	-9529
政策	-9530
▁右手	-9531
▁卡斯蒂	-9532
达尔	-9533
▁手下	-9534
▁碱性	-9535
▁不用	-9536
▁图片	-9537
▁写道	-9538
▁ra	-9539
▁出汗	-9540
▁屠杀	-9541
▁电梯	-9542
▁赔偿	-9543
常委会	-9544
▁天王	-9545
▁无锡	-9546
▁第一代	-9547
▁分神	-9548
▁角逐	-9549
▁团内	-9550
▁死者	-9551
▁东北部	-9552
▁拦	-9553
▁钓	-9554
▁全市	-9555
▁纪录片	-9556
▁城际	-9557
▁规整	-9558
▁bro	-9559
▁纽西兰	-9560
▁节奏	-9561
▁各省	-9562
▁黑龙江省	-9563
▁恐惧	-9564
蒂安	-9565
▁要塞	-9566
▁所得	-9567
八年	-9568
▁众人	-9569
▁县城	-9570
▁易感	-9571
▁有轻	-9572
▁望远	-9573
▁张家	-9574
▁鞍	-9575
▁彗星	-9576
▁节点	-9577
▁汤姆	-9578
▁被判	-9579
▁得主	-9580
▁两系	-9581
▁压迫	-9582
▁步行	-9583
▁有脓点	-9584
▁束	-9585
▁未内	-9586
▁术语	-9587
▁mch	-9588
▁斯大林	-9589
▁五世	-9590
▁节育	-9591
▁防卫	-9592
▁人力	-9593
ta	-9594
▁count	-9595
▁伴咽	-9596
▁诸如	-9597
▁寓	-9598
▁哈德	-9599
▁往返	-9600
▁东南部	-9601
占庭	-9602
开发	-9603
▁富有	-9604
▁深层	-9605
▁bla	-9606
▁拜占庭	-9607
▁客机	-9608
▁ga	-9609
▁三度	-9610
▁电气化	-9611
▁武力	-9612
中下	-9613
▁荣获	-9614
▁义务	-9615
▁帽	-9616
▁嫡	-9617
▁岗	-9618
▁探查	-9619
▁借此	-9620
▁编入	-9621
▁微生物	-9622
▁再次出现	-9623
▁连续剧	-9624
▁西路	-9625
▁橙	-9626
▁预告	-9627
▁ü	-9628
lex	-9629
▁水中	-9630
▁赋予	-9631
▁多少	-9632
▁战列	-9633
▁諡	-9634
风格	-9635
▁不高	-9636
▁出局	-9637
▁大名	-9638
▁移至	-9639
▁妮	-9640
▁air	-9641
▁驶	-9642
▁气温	-9643
▁首部	-9644
▁偏少	-9645
▁财富	-9646
▁英文名	-9647
▁巴伐利亚	-9648
▁一个区	-9649
▁并获	-9650
▁合理	-9651
▁业馀	-9652
▁akb	-9653
▁重要性	-9654
▁投诉	-9655
▁还会	-9656
▁悉尼	-9657
▁蛋花	-9658
▁雕像	-9659
责任	-9660
▁支队	-9661
▁制片	-9662
▁神学	-9663
▁鼻孔	-9664
▁栏	-9665
▁人为	-9666
▁迁往	-9667
▁摘	-9668
▁季后赛	-9669
ana	-9670
▁刚果	-9671
▁丸	-9672
风暴	-9673
ata	-9674
▁顶级	-9675
字母	-9676
▁她们	-9677
▁被告	-9678
▁群未见	-9679
▁滇	-9680
▁乳酪	-9681
▁路径	-9682
▁郎中	-9683
运输	-9684
▁胰管	-9685
▁专员	-9686
▁事后	-9687
企业	-9688
▁school	-9689
▁同期	-9690
▁思考	-9691
▁西汉	-9692
▁主机	-9693
▁圣殿	-9694
▁对称性	-9695
▁科学院	-9696
▁四人	-9697
▁繁荣	-9698
飞机	-9699
▁中层	-9700
▁改任	-9701
115	-9702
反应	-9703
▁重型	-9704
▁矫	-9705
▁铜牌	-9706
▁自小	-9707
▁本部	-9708
▁籤	-9709
▁水上	-9710
pr	-9711
▁攻占	-9712
▁gv	-9713
▁本质	-9714
▁交付	-9715
▁降水	-9716
▁台币	-9717
▁帕特	-9718
▁曝	-9719
▁主编	-9720
▁发送	-9721
▁截石	-9722
▁权威	-9723
▁皇室	-9724
语言	-9725
▁传导	-9726
▁崇拜	-9727
▁宫殿	-9728
太平洋	-9729
▁苗栗	-9730
▁毁灭	-9731
阳性	-9732
ner	-9733
▁总数	-9734
tr	-9735
▁ast	-9736
▁日举行	-9737
▁虹	-9738
▁宫廷	-9739
▁底部	-9740
▁恶化	-9741
▁社长	-9742
▁117	-9743
▁威尔斯	-9744
撒冷	-9745
▁几声	-9746
路撒冷	-9747
▁发电厂	-9748
▁咳剧伴	-9749
▁渠	-9750
▁意为	-9751
ward	-9752
▁1898	-9753
▁机枪	-9754
▁痉	-9755
机场	-9756
▁识别	-9757
▁妃	-9758
▁望远镜	-9759
▁接到	-9760
▁权益	-9761
▁酿	-9762
▁选拔	-9763
▁生日	-9764
▁大奖赛	-9765
▁di	-9766
▁石头	-9767
▁cat	-9768
▁反击	-9769
▁编曲	-9770
▁邻面	-9771
▁公车	-9772
▁截石位	-9773
▁数学家	-9774
空间	-9775
▁咸丰	-9776
▁依旧	-9777
▁安妮	-9778
▁上校	-9779
▁该站	-9780
▁连同	-9781
▁巴哈	-9782
▁已萌出	-9783
球场	-9784
▁放送	-9785
▁う	-9786
▁行车	-9787
▁继承人	-9788
▁1895	-9789
▁啤	-9790
▁徐州	-9791
▁卜	-9792
计画	-9793
▁旗帜	-9794
▁长子	-9795
▁外侧	-9796
▁尚有	-9797
▁第二天	-9798
▁隶属于	-9799
▁stud	-9800
▁改由	-9801
▁知情	-9802
▁流量	-9803
族自治	-9804
▁季节	-9805
▁肾盂	-9806
▁嘉宾	-9807
▁不及	-9808
▁强迫	-9809
▁1902	-9810
▁偶然	-9811
▁红斑	-9812
▁瞄准	-9813
▁阿克	-9814
▁族人	-9815
▁创始人	-9816
莱坞	-9817
▁运河	-9818
▁语法	-9819
▁fsh	-9820
福德	-9821
▁帕拉	-9822
▁德斯	-9823
▁jo	-9824
▁差别	-9825
▁南投	-9826
▁孔子	-9827
▁刑部	-9828
▁负面	-9829
▁兔	-9830
▁漳	-9831
媒体	-9832
▁单纯	-9833
▁廊	-9834
▁法人	-9835
▁清晨	-9836
▁电信	-9837
▁集结	-9838
▁标赛	-9839
▁港铁	-9840
▁小儿	-9841
stem	-9842
▁立方	-9843
▁呢	-9844
▁历代	-9845
▁俞	-9846
光整	-9847
▁代数	-9848
▁伊丽	-9849
▁帕尔	-9850
▁环切	-9851
▁人事	-9852
▁处决	-9853
▁十七年	-9854
▁磅	-9855
▁亚目	-9856
▁前面	-9857
▁英寸	-9858
▁che	-9859
▁卡塔	-9860
▁在场	-9861
▁呼之不	-9862
英国	-9863
▁350	-9864
▁可行	-9865
▁呼之不应	-9866
▁怕	-9867
榴弹	-9868
▁享受	-9869
▁关东	-9870
▁世纪末	-9871
西林	-9872
▁条目	-9873
▁楼梯	-9874
▁公社	-9875
▁天桥	-9876
▁托尔	-9877
▁扬州	-9878
▁ua	-9879
▁重力	-9880
▁靖	-9881
▁殉	-9882
ics	-9883
▁场地	-9884
▁尼夫	-9885
▁巨人	-9886
sc	-9887
▁财经	-9888
▁耶路撒冷	-9889
▁街头	-9890
▁南路	-9891
▁替牙	-9892
▁海湾	-9893
▁母舰	-9894
▁逃离	-9895
▁造船	-9896
▁第二季	-9897
▁北极	-9898
▁子弹	-9899
▁轻压	-9900
▁家里	-9901
▁黄脓涕	-9902
▁分化	-9903
▁艾伦	-9904
▁半径	-9905
▁甘肃省	-9906
box	-9907
▁拖拉	-9908
▁名录	-9909
▁乔治亚州	-9910
▁区负	-9911
▁老挝	-9912
荃湾	-9913
▁推迟	-9914
▁下旬	-9915
▁取名	-9916
斯山	-9917
▁最具	-9918
▁输血	-9919
▁侧位	-9920
▁克劳	-9921
▁大城市	-9922
▁阔	-9923
▁基辅	-9924
▁胃炎	-9925
▁箭	-9926
▁火炮	-9927
▁西斯	-9928
▁爷	-9929
金属	-9930
oth	-9931
▁探险队	-9932
▁匀	-9933
▁屏东	-9934
▁探讨	-9935
▁提倡	-9936
▁山顶	-9937
▁转型	-9938
▁拿破	-9939
▁web	-9940
▁罪名	-9941
▁占位性	-9942
▁鹤	-9943
▁紧密	-9944
▁编译	-9945
▁桓	-9946
▁癸	-9947
▁反酸	-9948
▁来源于	-9949
▁吋	-9950
▁上层	-9951
▁迈克尔	-9952
▁facebook	-9953
书院	-9954
▁一方面	-9955
▁主义的	-9956
▁歧视	-9957
▁主教练	-9958
哈尔	-9959
▁清廷	-9960
▁足以	-9961
▁讽	-9962
▁将来	-9963
▁容纳	-9964
▁亚热带	-9965
▁中队	-9966
▁景观	-9967
▁巴布	-9968
英里	-9969
▁阴谋	-9970
▁化工	-9971
▁睡眠期	-9972
▁巴拿	-9973
▁达州	-9974
▁力学	-9975
▁未内诊	-9976
▁终结	-9977
米亚	-9978
▁优惠	-9979
▁巷	-9980
▁地表	-9981
▁白俄	-9982
▁城内	-9983
▁先天性	-9984
▁蛋白质	-9985
▁郁	-9986
▁月刊	-9987
▁伺	-9988
▁并有	-9989
▁je	-9990
▁这么	-9991
▁交通部	-9992
▁170	-9993
▁书法	-9994
▁日出	-9995
▁漫画家	-9996
▁淤	-9997
国立	-9998
eld	-9999
▁不洁	-10000
▁受害者	-10001
▁睁	-10002
道夫	-10003
▁奖章	-10004
▁po	-10005
▁眼眶	-10006
▁送往	-10007
▁参演	-10008
▁奖励	-10009
▁混凝	-10010
▁相传	-10011
▁辑	-10012
▁灵感	-10013
▁相机	-10014
▁脊椎	-10015
▁胃病	-10016
▁痕	-10017
▁蓄	-10018
▁位居	-10019
▁召回	-10020
▁安定	-10021
▁三星	-10022
▁教士	-10023
▁全数	-10024
▁哈特	-10025
▁首映	-10026
▁更大	-10027
ouse	-10028
▁评论家	-10029
力学	-10030
ald	-10031
勒斯	-10032
ake	-10033
▁域名	-10034
▁公约	-10035
▁共享	-10036
▁武术	-10037
民党	-10038
▁万张	-10039
ink	-10040
▁日夜	-10041
▁水渣样	-10042
▁溶液	-10043
▁斐	-10044
▁各大	-10045
▁口号	-10046
▁衣服	-10047
▁新一	-10048
▁郊区	-10049
卡罗	-10050
小平	-10051
克斯坦	-10052
▁娘	-10053
▁议院	-10054
▁绵	-10055
玫瑰	-10056
▁不定	-10057
▁nor	-10058
▁瀑	-10059
▁混凝土	-10060
▁选票	-10061
▁桂林	-10062
▁潜血	-10063
▁贷款	-10064
函数	-10065
▁前日	-10066
▁山谷	-10067
▁摆动	-10068
▁骨髓	-10069
▁元帅	-10070
▁法拉	-10071
▁雅各	-10072
▁东面	-10073
▁丘陵	-10074
▁火灾	-10075
▁129	-10076
▁大厅	-10077
▁损伤	-10078
▁放电	-10079
▁有助	-10080
▁舆论	-10081
▁咖啡色	-10082
▁事实上	-10083
▁do	-10084
▁鳉	-10085
▁督府	-10086
▁里程	-10087
ult	-10088
▁上学	-10089
▁雕刻	-10090
不清	-10091
本质	-10092
▁cs	-10093
▁呼气	-10094
▁阵亡	-10095
▁万吨	-10096
▁alt	-10097
▁凭借	-10098
▁版权	-10099
▁今早	-10100
▁警员	-10101
▁箱	-10102
▁快乐	-10103
▁dis	-10104
▁小镇	-10105
族自治区	-10106
▁前有	-10107
▁深受	-10108
ram	-10109
▁依次	-10110
▁饭店	-10111
▁igm	-10112
▁part	-10113
▁改成	-10114
文帝	-10115
▁治理	-10116
▁密西	-10117
▁pol	-10118
▁变量	-10119
▁扰	-10120
▁开行	-10121
▁花莲	-10122
▁聪	-10123
▁北端	-10124
▁十馀	-10125
▁奥利	-10126
▁市立	-10127
▁重播	-10128
▁南端	-10129
▁并止	-10130
▁场合	-10131
▁执法	-10132
▁阿莫西林	-10133
▁昼	-10134
不良	-10135
▁第一届	-10136
du	-10137
罗门	-10138
▁身边	-10139
▁宫腔内	-10140
▁伙	-10141
▁巢	-10142
安县	-10143
马克	-10144
▁暴躁	-10145
▁罗马尼亚	-10146
va	-10147
▁作词	-10148
▁赛马	-10149
▁啤酒	-10150
▁除外	-10151
▁湿性	-10152
▁ef	-10153
▁其为	-10154
▁焦点	-10155
▁局面	-10156
▁当初	-10157
▁臀鳍	-10158
局长	-10159
▁迁至	-10160
九年	-10161
▁史料	-10162
▁引力	-10163
▁成形	-10164
▁无尿痛	-10165
▁驳	-10166
▁影展	-10167
▁et	-10168
▁科罗拉多	-10169
▁外形	-10170
▁胡同	-10171
▁哲学家	-10172
▁能力差	-10173
▁中市	-10174
▁中医	-10175
▁前任	-10176
▁蠕	-10177
▁字体	-10178
▁总局	-10179
▁鸣罗音	-10180
▁堕	-10181
▁董事长	-10182
▁乌尔	-10183
▁珍珠	-10184
▁莱昂	-10185
▁年来	-10186
▁腹水	-10187
▁协商	-10188
▁空调	-10189
▁色情	-10190
学会	-10191
▁苔薄	-10192
▁暴动	-10193
▁生意	-10194
▁赚	-10195
▁器官	-10196
▁eeg	-10197
▁配乐	-10198
▁啦	-10199
rid	-10200
▁加热	-10201
▁奶奶	-10202
▁升降	-10203
▁※	-10204
▁侄	-10205
▁西伯	-10206
be	-10207
▁聚会	-10208
▁西门	-10209
▁鼎	-10210
▁通便	-10211
▁总书记	-10212
▁锥	-10213
▁专案	-10214
▁初始	-10215
▁灰色	-10216
晨起	-10217
▁拓跋	-10218
▁有点	-10219
fl	-10220
▁中日	-10221
▁山上	-10222
soft	-10223
人大	-10224
公开	-10225
▁文本	-10226
▁极限	-10227
▁产量	-10228
▁俄亥	-10229
▁第一任	-10230
▁沉积	-10231
师范	-10232
▁俄亥俄	-10233
▁宁夏	-10234
▁一万	-10235
▁前夕	-10236
▁行李	-10237
▁隐藏	-10238
▁传入	-10239
▁房子	-10240
▁维克	-10241
▁收视率	-10242
▁衔	-10243
▁与此	-10244
▁二层	-10245
▁大门	-10246
▁搭乘	-10247
▁麻醉	-10248
▁女演员	-10249
▁system	-10250
▁т	-10251
事务	-10252
▁青山	-10253
▁短片	-10254
▁杜鹃	-10255
▁卿	-10256
科技	-10257
▁盾	-10258
▁长轴	-10259
▁港澳	-10260
▁人流	-10261
▁航海	-10262
▁受欢	-10263
▁监视	-10264
▁ww	-10265
▁草地	-10266
▁进展	-10267
▁坊	-10268
▁台中	-10269
▁南朝	-10270
▁倪	-10271
▁今属	-10272
▁出赛	-10273
me	-10274
特别	-10275
▁rec	-10276
▁发源	-10277
▁桐	-10278
▁蜜	-10279
▁战区	-10280
▁舌边	-10281
▁后壁	-10282
▁三千	-10283
▁对话	-10284
▁选中	-10285
▁伊丽莎白	-10286
itt	-10287
▁示范	-10288
▁最强	-10289
指挥	-10290
▁牙列	-10291
▁妙	-10292
▁外科	-10293
▁软条	-10294
▁三角形	-10295
▁′	-10296
▁以脐	-10297
▁用力	-10298
▁纵队	-10299
普森	-10300
▁签名	-10301
▁州立	-10302
兴趣	-10303
▁睡觉	-10304
▁消耗	-10305
▁近中	-10306
▁低下	-10307
▁里昂	-10308
▁跟随	-10309
▁幅	-10310
▁豆腐	-10311
▁晴	-10312
▁诸葛	-10313
▁通称	-10314
镇区	-10315
▁北上	-10316
▁五代	-10317
▁未带	-10318
▁揉	-10319
▁两部	-10320
▁冥	-10321
▁dc	-10322
▁残馀	-10323
▁克拉克	-10324
▁蔬	-10325
▁鸡蛋	-10326
▁弱阳性	-10327
▁舖	-10328
▁告示	-10329
▁第二代	-10330
▁青铜	-10331
▁购入	-10332
铁路局	-10333
mb	-10334
▁宴	-10335
▁逊	-10336
▁大法	-10337
▁故意	-10338
生产	-10339
▁君士	-10340
▁喇嘛	-10341
▁热门	-10342
十年代	-10343
▁属性	-10344
▁高等教育	-10345
▁羟	-10346
▁卢瓦尔	-10347
▁珠江	-10348
学习	-10349
▁习俗	-10350
▁勇士	-10351
▁砍	-10352
▁剧团	-10353
▁原定	-10354
▁ass	-10355
▁为首	-10356
▁迄今	-10357
▁高压	-10358
▁天前始	-10359
▁城门	-10360
▁鼻子	-10361
▁梨	-10362
吉尔	-10363
▁意志	-10364
▁盈	-10365
▁克利	-10366
▁公益	-10367
▁无度	-10368
▁银牌	-10369
ous	-10370
▁右耳	-10371
▁钠	-10372
▁赤道	-10373
▁两地	-10374
▁金额	-10375
▁咀	-10376
▁清末	-10377
▁稍倦	-10378
▁远征	-10379
▁公演	-10380
▁战事	-10381
▁湾的	-10382
▁特种	-10383
▁而已	-10384
▁懂	-10385
▁酱	-10386
▁加泰	-10387
▁左手	-10388
▁碰撞	-10389
▁俄罗斯联邦	-10390
▁上空	-10391
▁古城	-10392
▁句子	-10393
▁激进	-10394
▁八十	-10395
▁直通	-10396
▁公投	-10397
▁耶律	-10398
毕业	-10399
御史	-10400
▁常有	-10401
▁裕	-10402
▁左耳	-10403
▁金门	-10404
▁花费	-10405
▁〔	-10406
▁分歧	-10407
▁宦	-10408
▁开封	-10409
▁团长	-10410
▁战机	-10411
▁mat	-10412
▁〕	-10413
妈妈	-10414
▁个性	-10415
▁中子	-10416
▁牡	-10417
▁接下来	-10418
▁一连	-10419
▁兄长	-10420
森堡	-10421
▁曾于	-10422
▁有无	-10423
▁节日	-10424
▁袁世	-10425
▁遇上	-10426
选择	-10427
▁央	-10428
▁翠	-10429
▁一事	-10430
▁东风	-10431
特兰	-10432
▁大马	-10433
▁职责	-10434
▁肯尼	-10435
▁血象	-10436
▁ver	-10437
▁肠梗阻	-10438
▁教友	-10439
▁行列	-10440
▁4000	-10441
中文	-10442
▁偏低	-10443
▁摩托	-10444
▁武士	-10445
▁ス	-10446
▁银河	-10447
▁教科	-10448
▁陀	-10449
▁就业	-10450
▁追击	-10451
▁诛	-10452
发现	-10453
市场	-10454
asa	-10455
▁最少	-10456
▁猴	-10457
▁同月	-10458
▁广大	-10459
▁实业	-10460
▁政协	-10461
▁盟军	-10462
▁罗马帝国	-10463
▁运送	-10464
▁操作系统	-10465
yn	-10466
▁包装	-10467
▁客串	-10468
▁君士坦	-10469
▁li	-10470
▁喉炎	-10471
▁不应	-10472
▁两层	-10473
▁龚	-10474
▁创业	-10475
▁水面	-10476
▁冰岛	-10477
▁进化	-10478
▁sur	-10479
▁高清	-10480
▁庐	-10481
▁范畴	-10482
▁违法	-10483
▁西德	-10484
▁jav	-10485
ual	-10486
囊性	-10487
▁夫妻	-10488
▁陇	-10489
▁阿尔及	-10490
▁引导	-10491
▁red	-10492
▁微量元素	-10493
安全	-10494
▁保育	-10495
兴建	-10496
▁不合	-10497
▁宋代	-10498
▁杉	-10499
耶夫	-10500
▁壁光整	-10501
▁对立	-10502
▁氯化	-10503
多数	-10504
▁历经	-10505
▁部下	-10506
▁亩	-10507
省委	-10508
▁钩	-10509
▁传送	-10510
▁四周	-10511
▁汉堡	-10512
▁走廊	-10513
▁复发	-10514
▁影评	-10515
▁近几天	-10516
▁人气	-10517
▁开国	-10518
▁邓小平	-10519
▁为名	-10520
▁垄	-10521
▁领衔	-10522
▁袁世凯	-10523
▁gn	-10524
▁北岸	-10525
ode	-10526
▁基尔	-10527
▁转入	-10528
▁周痛	-10529
▁第一季	-10530
▁da	-10531
▁之用	-10532
▁进出	-10533
▁行使	-10534
▁五大	-10535
▁西洋	-10536
▁厉	-10537
改革	-10538
▁一线	-10539
▁交由	-10540
▁讽刺	-10541
▁评分	-10542
▁し	-10543
▁奉命	-10544
▁欧阳	-10545
▁稽	-10546
▁ta	-10547
▁影业	-10548
▁案例	-10549
▁纽约州	-10550
▁湖广	-10551
ille	-10552
▁西面	-10553
▁委内	-10554
orn	-10555
▁来往	-10556
▁而来	-10557
▁首届	-10558
▁空袭	-10559
▁评选	-10560
汽车	-10561
▁合肥	-10562
开放	-10563
▁ho	-10564
▁险	-10565
▁bbc	-10566
▁翡翠台	-10567
▁俄语	-10568
▁固体	-10569
▁驻地	-10570
▁イ	-10571
▁夷	-10572
▁室间	-10573
▁时尚	-10574
▁海盗	-10575
政权	-10576
▁向上	-10577
▁狙	-10578
的关	-10579
▁整数	-10580
▁gra	-10581
oci	-10582
▁射线	-10583
▁弘治	-10584
多年	-10585
▁日记	-10586
▁物理学	-10587
▁车道	-10588
▁high	-10589
irl	-10590
▁拉克	-10591
ke	-10592
▁•	-10593
▁费尔	-10594
▁南站	-10595
▁维奇	-10596
▁喉鸣	-10597
▁圣马	-10598
▁标示	-10599
▁í	-10600
▁各级	-10601
▁流放	-10602
▁耐受	-10603
▁室间隔	-10604
▁穷	-10605
▁炉	-10606
▁穿髓	-10607
▁大洋	-10608
▁hpf	-10609
▁硬结	-10610
▁西岸	-10611
▁黎明	-10612
▁奖牌	-10613
▁州长	-10614
▁观塘	-10615
▁闪光	-10616
▁确切	-10617
▁出租	-10618
▁骗	-10619
▁阿拉斯加	-10620
▁公国	-10621
▁解析	-10622
▁星期日	-10623
▁被选为	-10624
网膜	-10625
▁多部	-10626
▁结扎	-10627
▁蒋介	-10628
▁罹	-10629
▁牟	-10630
▁正规	-10631
华人	-10632
▁1890	-10633
▁外星	-10634
▁起飞	-10635
▁20%	-10636
▁好莱坞	-10637
▁调查局	-10638
▁埃德	-10639
▁远东	-10640
▁度假	-10641
▁次服	-10642
▁复兴	-10643
▁显著	-10644
▁各界	-10645
▁煮	-10646
▁五百	-10647
▁传动	-10648
▁助攻	-10649
▁集团军	-10650
▁急促	-10651
▁租借	-10652
▁ref	-10653
ane	-10654
▁混淆	-10655
▁擦	-10656
▁中亚	-10657
电子	-10658
▁室内	-10659
icon	-10660
▁右翼	-10661
▁收回	-10662
▁清军	-10663
科夫	-10664
▁结局	-10665
▁隔离	-10666
▁硕士学位	-10667
▁加利福尼亚州	-10668
▁tra	-10669
规定	-10670
▁bu	-10671
▁卡罗	-10672
▁拿到	-10673
▁相处	-10674
▁金钟	-10675
▁司徒	-10676
▁沙眼	-10677
▁阳光	-10678
▁柄	-10679
▁直线	-10680
▁马丁	-10681
国王	-10682
▁眠	-10683
▁炼	-10684
▁教徒	-10685
▁横滨	-10686
▁执教	-10687
肠型	-10688
ude	-10689
▁蒋介石	-10690
▁与此同时	-10691
▁一开始	-10692
roid	-10693
▁up	-10694
▁无见	-10695
▁昔日	-10696
▁斯蒂	-10697
▁那时	-10698
▁音乐家	-10699
▁1200	-10700
安装	-10701
▁战时	-10702
▁旋律	-10703
▁内陆	-10704
▁成员国	-10705
▁有声	-10706
▁狩	-10707
▁判定	-10708
▁奥古	-10709
▁怎么	-10710
▁双中下	-10711
塔基	-10712
▁肥胖	-10713
航空	-10714
▁偏高	-10715
▁盛行	-10716
师范大学	-10717
ited	-10718
▁坝	-10719
▁礁	-10720
▁其顿	-10721
▁辞去	-10722
▁扳	-10723
▁萨斯	-10724
▁mark	-10725
▁会计	-10726
▁127	-10727
▁约瑟夫	-10728
▁inst	-10729
端正	-10730
▁伊万	-10731
▁父子	-10732
乐队	-10733
▁二等	-10734
▁伊尔	-10735
▁概率	-10736
▁罪行	-10737
▁外耳	-10738
▁ö	-10739
▁乒	-10740
▁例外	-10741
▁元件	-10742
▁废止	-10743
▁挽	-10744
▁诠	-10745
▁磁场	-10746
▁资深	-10747
▁汶	-10748
ari	-10749
▁则为	-10750
▁三十年	-10751
▁取决	-10752
▁打入	-10753
▁德州	-10754
▁真相	-10755
▁孤独	-10756
▁数为	-10757
▁较多	-10758
▁pri	-10759
▁玫瑰	-10760
巴嫩	-10761
▁三层	-10762
中华	-10763
▁牙本质	-10764
▁气顺	-10765
ga	-10766
▁理查德	-10767
▁书写	-10768
▁转而	-10769
不到	-10770
▁奠定	-10771
▁1896	-10772
▁动工	-10773
▁灾难	-10774
茨基	-10775
▁护照	-10776
▁瀑布	-10777
▁顶点	-10778
▁魅	-10779
▁今起	-10780
▁刊物	-10781
▁华语	-10782
▁索尔	-10783
洛夫	-10784
▁亚的	-10785
▁帆	-10786
▁官兵	-10787
▁胰未见	-10788
▁华侨	-10789
▁所用	-10790
▁支部	-10791
▁风团	-10792
▁无肠型	-10793
▁随诊	-10794
▁速率	-10795
全国	-10796
▁起兵	-10797
▁仅有	-10798
▁暗示	-10799
▁五官端正	-10800
▁缔	-10801
▁ele	-10802
▁威斯	-10803
▁拉姆	-10804
▁155	-10805
▁挡	-10806
▁按察	-10807
▁野战	-10808
▁黎巴嫩	-10809
▁闵	-10810
蜘蛛	-10811
▁预言	-10812
▁深圳市	-10813
▁决心	-10814
▁姐妹	-10815
▁正德	-10816
▁畅销	-10817
▁英国人	-10818
▁af	-10819
ster	-10820
▁排蛋	-10821
▁hy	-10822
建设	-10823
▁伯格	-10824
▁伊斯兰教	-10825
▁ā	-10826
▁鹦	-10827
▁金星	-10828
▁常数	-10829
▁木星	-10830
▁数据库	-10831
▁ol	-10832
▁可惜	-10833
▁加密	-10834
▁实用	-10835
▁河谷	-10836
▁豹纹	-10837
立方米	-10838
▁not	-10839
▁修正案	-10840
▁巴拿马	-10841
▁星期六	-10842
吉亚	-10843
▁代诉	-10844
▁平日	-10845
▁勳章	-10846
▁大堂	-10847
▁斯泰	-10848
▁电机	-10849
▁超人	-10850
▁避孕套	-10851
▁nowiki	-10852
▁录制	-10853
▁攻陷	-10854
▁涡轮	-10855
▁行程	-10856
▁韧带	-10857
▁无线电	-10858
▁图尔	-10859
▁天才	-10860
▁阿肯	-10861
七年	-10862
▁显得	-10863
▁流出	-10864
▁琼斯	-10865
▁罢工	-10866
▁傍	-10867
纳州	-10868
沙尼亚	-10869
ett	-10870
▁隋朝	-10871
▁成串	-10872
▁既有	-10873
选区	-10874
▁命中	-10875
武器	-10876
▁血统	-10877
▁星球	-10878
▁过世	-10879
▁ss	-10880
▁破损	-10881
▁鲉	-10882
质量	-10883
▁70%	-10884
▁沼泽	-10885
▁车身	-10886
▁谜	-10887
▁平整	-10888
▁侵犯	-10889
▁闽南	-10890
▁jam	-10891
▁肾积水	-10892
▁信用	-10893
▁映射	-10894
▁准决赛	-10895
▁回收	-10896
▁巩固	-10897
▁敲	-10898
通过	-10899
▁狙击	-10900
▁william	-10901
▁加里	-10902
侍郎	-10903
▁负担	-10904
▁企业家	-10905
▁片内	-10906
▁精英	-10907
▁θ	-10908
▁位列	-10909
▁内有	-10910
▁地狱	-10911
▁羽球	-10912
▁敷	-10913
▁铭	-10914
▁官职	-10915
▁质实	-10916
▁六世	-10917
▁海滩	-10918
ars	-10919
▁转播	-10920
▁ke	-10921
▁受凉	-10922
▁多家	-10923
▁总管	-10924
▁空腹	-10925
▁慢慢	-10926
▁摄政	-10927
▁宗室	-10928
▁攻下	-10929
▁格兰	-10930
大桥	-10931
▁初级	-10932
▁恋爱	-10933
▁驻守	-10934
▁役	-10935
▁走行	-10936
▁挖掘	-10937
▁off	-10938
导体	-10939
▁cc	-10940
▁这条	-10941
▁乃至	-10942
▁出资	-10943
▁幻想	-10944
▁microsoft	-10945
▁正位	-10946
▁1897	-10947
▁蜘蛛	-10948
▁局势	-10949
▁郝	-10950
方案	-10951
▁商标	-10952
▁目录	-10953
作家	-10954
自动	-10955
▁听到	-10956
▁大学生	-10957
▁姿势	-10958
▁锅	-10959
▁в	-10960
▁上半	-10961
▁学员	-10962
耳曼	-10963
▁口岸	-10964
▁传承	-10965
▁扩充	-10966
▁百货	-10967
▁直流	-10968
▁倾斜	-10969
▁出家	-10970
▁维多	-10971
▁潭	-10972
▁日晚	-10973
▁旧牙	-10974
▁歌舞	-10975
▁万平方米	-10976
▁松山	-10977
ition	-10978
▁庙宇	-10979
▁秋季	-10980
之战	-10981
▁编成	-10982
▁作客	-10983
夫人	-10984
▁响应	-10985
▁浏览器	-10986
▁捐赠	-10987
▁马里	-10988
eth	-10989
▁背面	-10990
▁据点	-10991
▁氮	-10992
▁冢	-10993
物理	-10994
▁夫卡	-10995
政治局	-10996
▁窄	-10997
▁奇幻	-10998
▁微分	-10999
▁你们	-11000
▁再生	-11001
▁分割	-11002
▁周有	-11003
▁毕业生	-11004
▁全民	-11005
▁林肯	-11006
▁流涎	-11007
▁act	-11008
▁水晶	-11009
▁sol	-11010
▁民主派	-11011
▁gd	-11012
▁南越	-11013
▁尼尔	-11014
▁戈尔	-11015
▁维亚	-11016
▁舟	-11017
▁开口	-11018
▁水果	-11019
▁she	-11020
▁坐不住	-11021
▁沙哑	-11022
出版	-11023
▁定为	-11024
▁未成	-11025
ark	-11026
▁加深	-11027
▁以致	-11028
▁温哥	-11029
▁平方英里	-11030
▁些	-11031
▁未经	-11032
lo	-11033
ler	-11034
▁北约	-11035
▁小巴	-11036
▁政委	-11037
▁签下	-11038
▁雄性	-11039
▁热带风暴	-11040
▁念珠	-11041
▁外来	-11042
▁船只	-11043
▁肯塔基	-11044
▁作物	-11045
▁有趣	-11046
▁风力	-11047
▁脑积水	-11048
▁通路	-11049
▁全国人大	-11050
▁影带	-11051
▁动词	-11052
▁高血	-11053
▁к	-11054
▁绰	-11055
▁邯	-11056
江县	-11057
▁大火	-11058
▁招募	-11059
▁开创	-11060
▁废弃	-11061
▁数的	-11062
▁杰克逊	-11063
▁下去	-11064
▁树木	-11065
▁烹	-11066
▁铁路局	-11067
▁民兵	-11068
▁太后	-11069
▁最快	-11070
▁80%	-11071
▁同事	-11072
▁绘入	-11073
▁博览会	-11074
▁游击队	-11075
▁侧式	-11076
▁匈奴	-11077
▁南北朝	-11078
▁在外	-11079
▁1899	-11080
▁机组	-11081
▁活佛	-11082
▁疆	-11083
▁所述	-11084
▁用地	-11085
▁第四十	-11086
▁治安	-11087
▁睁眼	-11088
▁戴维斯	-11089
▁巡演	-11090
▁220	-11091
作品	-11092
马逊	-11093
▁顶尖	-11094
▁斑点	-11095
▁比起	-11096
▁倭	-11097
▁生母	-11098
▁爱沙尼亚	-11099
什么	-11100
▁大概	-11101
▁无效	-11102
▁咳少	-11103
▁fi	-11104
▁team	-11105
▁夺冠	-11106
▁立体	-11107
▁保加	-11108
▁粪便	-11109
▁neut	-11110
▁甄	-11111
中山	-11112
▁供电	-11113
▁苏军	-11114
▁吉祥	-11115
▁警务	-11116
▁遗尿	-11117
▁形势	-11118
▁理性	-11119
设施	-11120
amp	-11121
▁兰教	-11122
▁前作	-11123
▁预后	-11124
▁mil	-11125
二世	-11126
酋长	-11127
▁偶诉	-11128
▁巡逻	-11129
▁重叠	-11130
屠杀	-11131
▁民用	-11132
▁克雷	-11133
▁潮州	-11134
▁研究者	-11135
腺样	-11136
▁第二名	-11137
罗夫	-11138
▁上演	-11139
▁公子	-11140
▁溪流	-11141
▁童年	-11142
▁外耳道	-11143
▁威尔士	-11144
▁史记	-11145
▁船员	-11146
▁间涕	-11147
▁tvb	-11148
▁监管	-11149
▁android	-11150
▁无柯	-11151
▁木材	-11152
▁绝大	-11153
▁进军	-11154
▁炒	-11155
ike	-11156
▁最先	-11157
▁融入	-11158
116	-11159
▁河内	-11160
▁胃肠道	-11161
▁侧闻	-11162
▁水系	-11163
▁div	-11164
▁就此	-11165
▁诺尔	-11166
▁般的	-11167
▁大地	-11168
▁数千	-11169
▁昼夜	-11170
▁不必	-11171
▁州市	-11172
▁闻痰	-11173
▁少数民族	-11174
太后	-11175
▁咯出	-11176
▁打进	-11177
▁推理	-11178
徒刑	-11179
▁其次	-11180
▁监禁	-11181
期徒刑	-11182
▁被誉	-11183
总统	-11184
▁烈士	-11185
▁省道	-11186
▁玛丽亚	-11187
▁mono	-11188
▁发热时	-11189
▁发电机	-11190
▁ル	-11191
▁弹劾	-11192
▁攻克	-11193
▁30%	-11194
▁专栏	-11195
▁布置	-11196
▁金钱	-11197
▁以脐周	-11198
承认	-11199
电车	-11200
▁曝光	-11201
服务	-11202
▁cy	-11203
▁同位	-11204
▁ter	-11205
▁鞋	-11206
动脉	-11207
▁北路	-11208
▁fla	-11209
▁崛	-11210
vel	-11211
▁制动	-11212
▁放映	-11213
▁楚国	-11214
▁第二个	-11215
▁愉	-11216
▁不想	-11217
▁残冠	-11218
▁同伴	-11219
2017	-11220
▁夥	-11221
▁福冈	-11222
▁国土	-11223
▁淋漓	-11224
▁装有	-11225
▁骆	-11226
▁克林	-11227
▁合群	-11228
▁民意	-11229
▁科进士	-11230
▁唱歌	-11231
▁指向	-11232
▁133	-11233
▁日本政府	-11234
▁ó	-11235
▁中立	-11236
▁政治委员	-11237
▁乒乓	-11238
▁故居	-11239
▁一只	-11240
▁隆起	-11241
▁会阴部	-11242
▁辐鳍鱼	-11243
格勒	-11244
▁一班	-11245
▁测值	-11246
▁启发	-11247
▁有用	-11248
▁师团	-11249
▁教室	-11250
▁か	-11251
▁伴痒	-11252
▁源于	-11253
▁朔	-11254
▁该书	-11255
▁中央政府	-11256
▁现行	-11257
▁采集	-11258
▁培育	-11259
▁拼音	-11260
▁无柯兴	-11261
▁轿	-11262
▁墓地	-11263
▁val	-11264
理工	-11265
▁普法	-11266
▁僵	-11267
▁兆	-11268
▁珠海	-11269
▁种种	-11270
▁grou	-11271
▁爵位	-11272
▁蔬菜	-11273
▁prl	-11274
▁阿肯色	-11275
▁肃	-11276
▁中叶	-11277
▁are	-11278
▁残疾	-11279
▁马拉	-11280
制度	-11281
▁外交官	-11282
▁窑	-11283
▁名古	-11284
▁tri	-11285
▁褒	-11286
▁乌鲁	-11287
▁新村	-11288
▁发炎	-11289
▁历史学家	-11290
▁讲师	-11291
▁诺曼	-11292
▁工作者	-11293
125	-11294
▁渤	-11295
后方	-11296
▁仓库	-11297
▁说服	-11298
▁抽象	-11299
▁宅	-11300
▁便血	-11301
▁受体	-11302
▁武田	-11303
▁过后	-11304
▁八路	-11305
▁水泥	-11306
▁art	-11307
▁疑似	-11308
▁致病	-11309
▁兰州	-11310
▁一句	-11311
▁初潮	-11312
▁证书	-11313
▁名古屋	-11314
▁全书	-11315
▁前去	-11316
▁卸任	-11317
一度	-11318
▁否定	-11319
▁腓特	-11320
▁开除	-11321
多次	-11322
律师	-11323
▁偏西	-11324
▁合金	-11325
▁安德烈	-11326
▁当中陆	-11327
▁之所	-11328
▁裁定	-11329
▁时空	-11330
▁甲基	-11331
▁借用	-11332
▁平成	-11333
▁colle	-11334
▁改设	-11335
▁等同	-11336
▁之乱	-11337
▁斯图	-11338
▁霍夫	-11339
▁1889	-11340
分别	-11341
enc	-11342
▁埃塞	-11343
▁惩罚	-11344
▁同进士	-11345
▁迹	-11346
▁扩散	-11347
▁卡斯蒂利亚	-11348
▁挥	-11349
▁双重	-11350
▁致命	-11351
利安	-11352
▁寺庙	-11353
▁注重	-11354
▁不敌	-11355
▁含义	-11356
▁非正	-11357
▁月经期	-11358
▁康复	-11359
▁彩虹	-11360
▁之内	-11361
▁游乐	-11362
▁第十二届	-11363
▁堤	-11364
▁损坏	-11365
▁saint	-11366
▁university	-11367
ki	-11368
▁噪	-11369
▁包裹	-11370
▁年春	-11371
▁自治市	-11372
▁贫困	-11373
▁吉隆	-11374
▁显然	-11375
▁厂商	-11376
▁奶量	-11377
▁散文	-11378
▁贵州省	-11379
▁数枚	-11380
▁防护	-11381
▁促成	-11382
▁巴比	-11383
▁捐款	-11384
▁摇头	-11385
▁佩尔	-11386
▁爱好者	-11387
▁交汇处	-11388
▁慧	-11389
▁寿命	-11390
▁迎接	-11391
▁畔	-11392
家庄	-11393
▁∧	-11394
▁漆	-11395
▁插入	-11396
▁春季	-11397
▁爸爸妈妈	-11398
▁纳眠	-11399
▁被俘	-11400
▁不列	-11401
▁四名	-11402
计算	-11403
▁腓特烈	-11404
cr	-11405
▁虞	-11406
▁患有	-11407
▁致使	-11408
▁nbc	-11409
▁成名	-11410
▁这件	-11411
ound	-11412
▁国籍	-11413
▁集成	-11414
▁研究员	-11415
▁不够	-11416
▁出于	-11417
▁吐沫	-11418
▁摩擦	-11419
会员	-11420
▁ju	-11421
▁各式	-11422
▁军用	-11423
▁厚度	-11424
▁悠久	-11425
▁户部	-11426
▁痕迹	-11427
▁编程	-11428
▁溴	-11429
ott	-11430
如此	-11431
▁tct	-11432
oph	-11433
▁七个	-11434
▁international	-11435
▁鳕	-11436
▁几种	-11437
▁腱	-11438
▁蛤	-11439
▁完颜	-11440
▁所长	-11441
▁报告单	-11442
▁染色体	-11443
▁知名度	-11444
▁电视动画	-11445
▁述	-11446
2016	-11447
编码	-11448
▁变动	-11449
▁帖	-11450
蝴蝶	-11451
▁入学	-11452
▁总结	-11453
▁nhk	-11454
▁万年	-11455
▁乐园	-11456
▁东岸	-11457
▁东站	-11458
▁考量	-11459
▁橘	-11460
▁北站	-11461
▁缺失	-11462
▁饮料	-11463
马来	-11464
▁低危	-11465
▁归属	-11466
▁艾尔	-11467
▁lvd	-11468
▁较多动	-11469
▁game	-11470
▁た	-11471
▁同居	-11472
▁欧美	-11473
122	-11474
▁宽约	-11475
▁约克	-11476
▁西里	-11477
▁通勤	-11478
▁动员	-11479
▁见面	-11480
ject	-11481
▁girl	-11482
▁四位	-11483
▁无脓	-11484
▁司令员	-11485
▁邢	-11486
▁拘捕	-11487
哈顿	-11488
▁保定	-11489
▁地势	-11490
▁甲板	-11491
▁蔓	-11492
illa	-11493
▁缩短	-11494
▁干呕	-11495
▁雌性	-11496
▁合共	-11497
▁比重	-11498
▁答应	-11499
▁翻新	-11500
▁阵容	-11501
▁排序	-11502
ings	-11503
▁向东	-11504
▁围攻	-11505
▁较剧	-11506
▁60%	-11507
▁前排	-11508
▁托勒	-11509
▁反对派	-11510
▁鞭	-11511
自由	-11512
▁du	-11513
▁空降	-11514
▁波士顿	-11515
▁共用	-11516
▁布局	-11517
▁民生	-11518
▁新任	-11519
▁斯科特	-11520
▁航站	-11521
▁酒吧	-11522
▁fs	-11523
▁富豪	-11524
▁西区	-11525
▁格拉斯	-11526
▁铁道部	-11527
▁崛起	-11528
ream	-11529
▁ha	-11530
▁号码	-11531
▁暗杀	-11532
▁这两个	-11533
起来	-11534
▁朝阳	-11535
▁怪物	-11536
▁萌	-11537
奥尔	-11538
▁办学	-11539
▁小动作	-11540
▁怡	-11541
红素	-11542
▁对答	-11543
▁旺角	-11544
▁关心	-11545
▁安抚	-11546
▁剑桥	-11547
▁学派	-11548
▁曾多次	-11549
▁电动机	-11550
▁公会	-11551
▁阻碍	-11552
▁釜	-11553
环境	-11554
▁吉士	-11555
▁壁画	-11556
▁宇文	-11557
▁最受	-11558
▁信长	-11559
▁殿试	-11560
▁高温	-11561
菲尔德	-11562
▁助手	-11563
▁广为	-11564
▁曼联	-11565
▁球菌	-11566
▁直辖市	-11567
▁天地	-11568
▁女士	-11569
▁除非	-11570
ron	-11571
▁输注	-11572
员工	-11573
▁灌木	-11574
▁总司令	-11575
▁科斯	-11576
▁冲锋	-11577
▁海德	-11578
▁几次	-11579
▁锯	-11580
▁可分	-11581
▁支配	-11582
▁全日	-11583
▁过于	-11584
三角	-11585
伦堡	-11586
▁询问	-11587
▁纪念馆	-11588
▁南开	-11589
▁孙子	-11590
▁汕	-11591
▁别墅	-11592
▁时装	-11593
▁生时	-11594
ani	-11595
▁录影	-11596
▁天水	-11597
▁现来诊	-11598
▁9%	-11599
▁军中	-11600
▁天正	-11601
▁共识	-11602
▁show	-11603
卫视	-11604
▁几内亚	-11605
▁工作人员	-11606
▁横跨	-11607
▁系膜	-11608
▁职能	-11609
▁降级	-11610
▁吵	-11611
▁壹	-11612
▁军政	-11613
▁株式	-11614
▁笔名	-11615
▁谋杀	-11616
▁枪管	-11617
▁cap	-11618
▁优异	-11619
▁刚刚	-11620
▁深夜	-11621
▁遗留	-11622
▁瓷	-11623
▁寇	-11624
▁存活	-11625
▁之所以	-11626
▁法师	-11627
da	-11628
人类	-11629
▁希伯	-11630
▁礼部	-11631
▁耳后	-11632
▁荆州	-11633
▁公务员	-11634
▁普里	-11635
▁倖	-11636
▁幼年	-11637
▁5%	-11638
▁东莞	-11639
▁撤回	-11640
▁日以	-11641
▁接待	-11642
参谋	-11643
123	-11644
▁窗口	-11645
▁è	-11646
▁衙	-11647
▁不太	-11648
▁安达	-11649
▁新鲜	-11650
▁次分	-11651
▁孙中山	-11652
▁南岸	-11653
▁站名	-11654
▁进修	-11655
蒙德	-11656
▁闹	-11657
▁万馀	-11658
▁左室	-11659
金山	-11660
▁哈萨	-11661
▁无意识	-11662
▁洛夫	-11663
海峡	-11664
▁病原	-11665
▁译名	-11666
▁david	-11667
▁债务	-11668
▁预警	-11669
tt	-11670
▁一中	-11671
▁多生	-11672
▁始于	-11673
▁藤原	-11674
里兰卡	-11675
▁全省	-11676
▁ec	-11677
▁鲤科	-11678
▁可汗	-11679
▁宦官	-11680
▁潟	-11681
塞拜	-11682
▁脉弦	-11683
▁落败	-11684
▁步态	-11685
▁轻中	-11686
▁鳃	-11687
▁无闻	-11688
▁滑雪	-11689
▁iso	-11690
ya	-11691
分析	-11692
▁多处	-11693
▁占地面积	-11694
▁光年	-11695
▁讯息	-11696
▁墨菲	-11697
▁温哥华	-11698
ius	-11699
▁前起	-11700
▁垄断	-11701
▁放大	-11702
▁完结	-11703
▁投入使用	-11704
rit	-11705
▁伺服	-11706
▁玻利	-11707
▁西蒙	-11708
▁费城	-11709
保罗	-11710
▁陈旧	-11711
▁胆红素	-11712
大区	-11713
▁下设	-11714
▁组件	-11715
务段	-11716
太宗	-11717
▁年份	-11718
▁心脏病	-11719
▁低度	-11720
▁男方	-11721
▁该镇	-11722
▁白金	-11723
able	-11724
▁告示牌	-11725
▁专科学校	-11726
▁娃	-11727
▁前壁	-11728
▁张国	-11729
▁鲶形	-11730
▁慰	-11731
▁低于	-11732
▁名举	-11733
▁阵线	-11734
▁内务	-11735
▁并成	-11736
▁es	-11737
▁吸血	-11738
▁上段	-11739
▁西站	-11740
▁黛	-11741
▁八个	-11742
▁输液	-11743
▁450	-11744
▁一囊性	-11745
不多	-11746
▁接手	-11747
▁党籍	-11748
▁付费	-11749
▁民航	-11750
▁独裁	-11751
▁结识	-11752
▁del	-11753
▁三等	-11754
▁大军	-11755
▁明白	-11756
规划	-11757
▁否决	-11758
▁擢	-11759
▁制成	-11760
宁县	-11761
▁机身	-11762
▁舰艇	-11763
▁列斯	-11764
▁南美	-11765
▁大片	-11766
▁开拓	-11767
▁疯狂	-11768
▁一集	-11769
▁加勒比海	-11770
▁钾	-11771
▁高尔夫	-11772
▁lo	-11773
▁想到	-11774
ement	-11775
▁后角	-11776
声明	-11777
▁万历	-11778
▁肠道	-11779
▁自行车	-11780
▁中兴	-11781
▁厕	-11782
▁啊	-11783
▁贼	-11784
为止	-11785
▁指认	-11786
▁家臣	-11787
▁相等	-11788
▁采纳	-11789
▁门静脉	-11790
▁一门	-11791
▁л	-11792
▁缺点	-11793
work	-11794
▁两家	-11795
▁广岛	-11796
▁公共交通	-11797
▁美食	-11798
▁物业	-11799
▁里奇	-11800
条件	-11801
▁审议	-11802
▁恶劣	-11803
▁总统府	-11804
▁炮兵	-11805
▁创刊	-11806
▁指挥部	-11807
▁双向	-11808
▁行省	-11809
▁就读于	-11810
▁邮政编码	-11811
资料	-11812
▁摩洛	-11813
▁月间	-11814
▁汉朝	-11815
▁耸肩	-11816
▁蜡	-11817
▁元首	-11818
▁音译	-11819
▁辣	-11820
▁服饰	-11821
▁渤海	-11822
▁相隔	-11823
▁贝格	-11824
▁疾	-11825
▁先驱	-11826
▁厄尔	-11827
▁杀手	-11828
▁极少	-11829
▁大理石	-11830
▁难度	-11831
车辆	-11832
▁下半	-11833
▁板块	-11834
▁lad	-11835
龙科	-11836
▁诠释	-11837
▁托勒密	-11838
▁左派	-11839
▁金像	-11840
▁天不等	-11841
太阳	-11842
▁蝴蝶	-11843
▁中南部	-11844
▁拿破仑	-11845
▁致力于	-11846
▁镑	-11847
▁痉挛	-11848
▁运载	-11849
▁抗感染	-11850
▁赎	-11851
德拉	-11852
▁并行	-11853
▁心中	-11854
▁其下	-11855
▁南洋	-11856
▁共和党	-11857
▁湿地	-11858
▁冰原	-11859
▁张学	-11860
▁mh	-11861
▁圣公会	-11862
▁财团	-11863
▁之时	-11864
▁并为	-11865
▁精选	-11866
▁大法官	-11867
▁美国国家	-11868
▁高血压	-11869
▁制服	-11870
▁登山	-11871
▁肥厚	-11872
▁逃往	-11873
▁乒乓球	-11874
▁承受	-11875
▁橡胶	-11876
▁碎片	-11877
▁检出	-11878
▁专属	-11879
▁礼拜	-11880
▁美观	-11881
▁鸦片	-11882
排名	-11883
▁则在	-11884
▁转向架	-11885
▁相互作用	-11886
自然	-11887
▁战绩	-11888
▁德甲	-11889
▁撤出	-11890
▁干硬	-11891
▁分部	-11892
▁采购	-11893
▁土著	-11894
▁忽略	-11895
▁球衣	-11896
▁着手	-11897
▁党委书记	-11898
▁曼哈顿	-11899
▁青海省	-11900
▁保加利亚	-11901
▁法规	-11902
▁bas	-11903
拇指	-11904
▁迟缓	-11905
▁骂	-11906
▁留守	-11907
称作	-11908
▁公署	-11909
▁将近	-11910
▁被称作	-11911
▁一战	-11912
▁太阳系	-11913
西比	-11914
▁初次	-11915
▁海战	-11916
▁点为	-11917
▁脓痰	-11918
▁重伤	-11919
ka	-11920
oo	-11921
▁护卫	-11922
▁誉	-11923
▁人造	-11924
▁候补	-11925
▁并发	-11926
yl	-11927
电话	-11928
▁五千	-11929
平县	-11930
ose	-11931
▁str	-11932
ng	-11933
▁移除	-11934
▁栋	-11935
进行	-11936
▁伴中	-11937
▁混血	-11938
▁物件	-11939
▁高句	-11940
▁每秒	-11941
▁警报	-11942
▁纺锤	-11943
▁1600	-11944
红点	-11945
▁咏	-11946
▁大败	-11947
▁深水	-11948
▁依法	-11949
▁并被	-11950
▁1860	-11951
▁清理	-11952
▁希腊语	-11953
▁每小时	-11954
▁气象局	-11955
▁史蒂芬	-11956
▁ce	-11957
▁真空	-11958
▁言语	-11959
▁所有人	-11960
▁阿肯色州	-11961
▁group	-11962
▁虐	-11963
▁两项	-11964
▁第三名	-11965
▁环节	-11966
▁迁入	-11967
▁音重	-11968
▁ラ	-11969
▁所知	-11970
▁爷爷	-11971
▁保护区	-11972
▁暹	-11973
▁栗	-11974
ene	-11975
▁冻	-11976
▁一分	-11977
▁此剧	-11978
▁pco	-11979
下午	-11980
▁显影	-11981
拉尔	-11982
▁增至	-11983
▁水解	-11984
▁清除	-11985
▁鹅	-11986
▁可追	-11987
▁肝炎	-11988
▁进驻	-11989
▁210	-11990
▁人间	-11991
▁东晋	-11992
▁性交	-11993
▁上场	-11994
▁掌管	-11995
马里	-11996
▁突变	-11997
▁高等法院	-11998
▁樊	-11999
不调	-12000
▁南京市	-12001
▁庄园	-12002
▁待遇	-12003
▁参战	-12004
▁脓苔	-12005
ave	-12006
▁地主	-12007
▁崩溃	-12008
罗尼亚	-12009
▁口病	-12010
▁防线	-12011
▁物理学家	-12012
▁卡西	-12013
▁max	-12014
▁可追溯	-12015
▁同位素	-12016
▁念珠菌	-12017
吉尼亚州	-12018
▁僱	-12019
▁南华	-12020
▁射手	-12021
▁清政府	-12022
▁阿姆斯特	-12023
▁robert	-12024
法国	-12025
▁喙	-12026
标准	-12027
▁静滴	-12028
▁138	-12029
▁战列舰	-12030
▁卡区	-12031
▁1880	-12032
足联	-12033
▁精液	-12034
▁铸造	-12035
▁day	-12036
▁1894	-12037
▁中国国民党	-12038
尔茨	-12039
晚上	-12040
闻名	-12041
军队	-12042
▁同为	-12043
▁吐蕃	-12044
▁正当	-12045
▁布拉格	-12046
▁斯洛伐克	-12047
▁si	-12048
▁战死	-12049
▁礼仪	-12050
▁被动	-12051
▁淑	-12052
加索	-12053
▁咽有	-12054
▁牛顿	-12055
▁着称	-12056
vi	-12057
▁华南	-12058
▁真理	-12059
▁阿波罗	-12060
▁月经不调	-12061
▁颂	-12062
江市	-12063
▁假期	-12064
▁参与者	-12065
▁垒	-12066
▁剧组	-12067
▁操纵	-12068
▁xbox	-12069
▁俘虏	-12070
▁320	-12071
▁美国陆	-12072
▁研讨	-12073
▁阶层	-12074
▁蛛网膜	-12075
▁造影剂	-12076
▁欣赏	-12077
▁远离	-12078
▁口咽	-12079
▁已于	-12080
克力	-12081
发育	-12082
▁傍晚	-12083
▁大将军	-12084
▁基区	-12085
▁大兴	-12086
▁惯例	-12087
▁故乡	-12088
▁破产	-12089
▁geor	-12090
▁磡	-12091
▁围棋	-12092
▁加快	-12093
▁西林	-12094
▁宾夕	-12095
▁西边	-12096
▁年亚洲	-12097
ble	-12098
▁open	-12099
▁道具	-12100
▁长大	-12101
▁瑞拉	-12102
▁花生	-12103
▁克鲁	-12104
▁合适	-12105
▁喉咙	-12106
▁环状	-12107
▁二十四	-12108
▁周馀前	-12109
▁原声	-12110
▁已闭	-12111
▁从未	-12112
▁塔克	-12113
▁面包	-12114
▁拉丁文	-12115
▁法学院	-12116
▁分店	-12117
▁天堂	-12118
▁宗旨	-12119
连续	-12120
▁中止	-12121
▁书中	-12122
▁稀水	-12123
协助	-12124
▁定名	-12125
▁日食	-12126
▁曾到	-12127
▁辩护	-12128
▁铜锣	-12129
▁christ	-12130
▁萝	-12131
▁全家	-12132
▁普尔	-12133
主席	-12134
▁多毛	-12135
▁干预	-12136
▁河东	-12137
▁袋	-12138
▁刘备	-12139
▁电解	-12140
呼吸	-12141
▁毛利	-12142
ds	-12143
▁pv	-12144
▁亚种	-12145
▁实习	-12146
▁削弱	-12147
▁摩根	-12148
▁卓越	-12149
▁后裔	-12150
▁工资	-12151
▁秦国	-12152
▁签字	-12153
▁胃纳佳	-12154
▁侦探	-12155
▁合资	-12156
▁身长	-12157
人民法院	-12158
▁起草	-12159
▁铃木	-12160
产阶级	-12161
▁that	-12162
▁补助	-12163
▁有所不同	-12164
▁奉天	-12165
▁带回	-12166
▁145	-12167
▁高句丽	-12168
▁医药	-12169
▁土木	-12170
▁缺少	-12171
▁起到	-12172
pl	-12173
ons	-12174
▁续集	-12175
▁诱发	-12176
▁贩卖	-12177
▁eb	-12178
▁传教士	-12179
▁人格	-12180
▁修筑	-12181
▁星光	-12182
▁轮状	-12183
▁tech	-12184
▁永安	-12185
▁饲养	-12186
▁记忆力	-12187
++	-12188
热峰	-12189
▁巨星	-12190
▁榆	-12191
▁节育环	-12192
▁在线	-12193
▁荡	-12194
金斯	-12195
▁封建	-12196
▁萨克森	-12197
胜利	-12198
ico	-12199
▁失业	-12200
▁接口	-12201
▁卢森堡	-12202
▁茎	-12203
▁出品	-12204
▁基底	-12205
▁1800	-12206
▁烯	-12207
▁巴里	-12208
▁海关	-12209
▁一队	-12210
▁音乐录	-12211
▁维多利亚	-12212
▁伯恩	-12213
▁ang	-12214
▁总兵	-12215
▁经量	-12216
▁多囊样	-12217
▁第十四	-12218
▁俊	-12219
▁沧	-12220
▁中环	-12221
▁敕	-12222
▁耀	-12223
▁排放	-12224
▁话题	-12225
▁敖	-12226
▁三条	-12227
▁必然	-12228
▁校方	-12229
▁武将	-12230
▁亚利	-12231
▁分辨	-12232
▁容貌	-12233
▁并列	-12234
▁连锁	-12235
▁誓	-12236
▁见于	-12237
▁维吾尔	-12238
▁一段时间	-12239
▁结盟	-12240
▁实性	-12241
▁聚居	-12242
▁抗生素	-12243
▁仆	-12244
▁左肺	-12245
▁瘘管	-12246
▁と	-12247
▁枝	-12248
警察	-12249
▁夫斯基	-12250
▁甲级联赛	-12251
▁屋苑	-12252
▁行经	-12253
▁寡	-12254
▁蛋花汤	-12255
▁浴	-12256
农业	-12257
设备	-12258
▁仕	-12259
▁粘性	-12260
▁阻塞	-12261
▁徙	-12262
▁辗	-12263
▁ds	-12264
▁神庙	-12265
▁篮板	-12266
▁自立	-12267
▁斥	-12268
▁外籍	-12269
▁完毕	-12270
▁验证	-12271
▁白垩	-12272
▁fin	-12273
▁寨	-12274
▁向前	-12275
▁此种	-12276
▁硬件	-12277
▁已热退	-12278
▁探测器	-12279
▁锌	-12280
▁pop	-12281
▁早晨	-12282
▁翻唱	-12283
▁第五十	-12284
▁征召	-12285
▁自测	-12286
▁畜	-12287
迪斯	-12288
▁滋	-12289
ena	-12290
▁侵蚀	-12291
▁牡丹	-12292
way	-12293
▁158	-12294
▁古建筑	-12295
▁纳粹德国	-12296
▁第一次世界大战	-12297
▁排卵	-12298
▁脉浮	-12299
▁大王	-12300
▁尿人	-12301
fa	-12302
▁传记	-12303
▁及后	-12304
▁絮	-12305
▁eng	-12306
▁层面	-12307
▁矿物	-12308
▁矣	-12309
▁委托	-12310
▁fer	-12311
▁洁	-12312
▁初有	-12313
▁招生	-12314
▁本季	-12315
ino	-12316
▁三项	-12317
▁中视	-12318
▁千年	-12319
▁辛亥	-12320
▁mor	-12321
las	-12322
iq	-12323
▁明尼	-12324
▁卡斯特	-12325
▁吉隆坡	-12326
▁塔拉	-12327
▁颅内	-12328
▁笛	-12329
▁企划	-12330
▁公正	-12331
▁流体	-12332
▁鼻下	-12333
▁在此之	-12334
▁乌兹	-12335
▁红旗	-12336
▁鲜血	-12337
▁瞬	-12338
▁南边	-12339
▁春天	-12340
▁英国伦敦	-12341
▁耿	-12342
▁宣誓	-12343
▁弗洛	-12344
▁心区	-12345
▁目的地	-12346
北克	-12347
▁云林	-12348
▁fc	-12349
▁人选	-12350
▁内政部	-12351
▁历时	-12352
▁逃走	-12353
▁遵循	-12354
▁邮件	-12355
▁顺位	-12356
▁李氏	-12357
▁top	-12358
▁盒	-12359
透过	-12360
▁现金	-12361
▁第二位	-12362
▁词汇	-12363
德罗	-12364
▁先行	-12365
▁征收	-12366
▁安葬	-12367
▁烤	-12368
▁售出	-12369
▁派系	-12370
▁搜寻	-12371
▁接纳	-12372
▁掩护	-12373
▁联队	-12374
▁第一百	-12375
▁景区	-12376
博物	-12377
▁乙级	-12378
▁偏慢	-12379
▁军长	-12380
▁一连串	-12381
▁卤	-12382
▁前提	-12383
▁意愿	-12384
▁斯克州	-12385
▁外表	-12386
▁契约	-12387
ife	-12388
▁汉人	-12389
▁魁北克	-12390
▁奖学	-12391
▁三维	-12392
▁景点	-12393
▁共青	-12394
▁垫	-12395
▁结尾	-12396
▁已成	-12397
▁方针	-12398
▁枢机	-12399
▁西山	-12400
▁京师	-12401
▁住房	-12402
▁威力	-12403
▁讲座	-12404
▁圭	-12405
▁记忆体	-12406
▁主播	-12407
▁南宁	-12408
▁诺夫	-12409
▁缠	-12410
察院	-12411
▁乐坛	-12412
▁应对	-12413
▁表雄	-12414
▁遇难	-12415
eph	-12416
▁拓展	-12417
▁深海	-12418
▁绰号	-12419
▁钓鱼	-12420
事件	-12421
▁强的	-12422
▁兵器	-12423
▁北区	-12424
▁看作	-12425
▁期待	-12426
za	-12427
310	-12428
▁万英	-12429
▁字样	-12430
▁酰基	-12431
▁贩售	-12432
决定	-12433
▁两端	-12434
▁修行	-12435
▁受欢迎	-12436
▁reg	-12437
▁日公	-12438
▁中位	-12439
▁开发区	-12440
▁此书	-12441
过速	-12442
▁科隆	-12443
▁日耳曼	-12444
▁曼谷	-12445
▁还在	-12446
▁心动过速	-12447
▁水准	-12448
▁阿勒	-12449
▁丧生	-12450
▁公使	-12451
▁学历	-12452
▁玉米	-12453
▁情人	-12454
▁分局	-12455
▁相通	-12456
▁祥	-12457
▁ts	-12458
▁文中	-12459
▁鳗	-12460
▁只得	-12461
▁萨摩	-12462
▁飘	-12463
▁艺名	-12464
▁双层	-12465
▁文书	-12466
▁烧毁	-12467
▁秃	-12468
alk	-12469
▁出境	-12470
▁关押	-12471
▁八路军	-12472
▁聊	-12473
白沫	-12474
▁不管	-12475
▁光线	-12476
▁自愿	-12477
▁http	-12478
▁二氧化碳	-12479
▁口吐白沫	-12480
▁第三代	-12481
▁war	-12482
▁time	-12483
空军	-12484
▁您	-12485
龙类	-12486
▁他于	-12487
▁优点	-12488
▁小斑	-12489
▁法兰克福	-12490
▁樟	-12491
▁明清	-12492
▁道格	-12493
▁亚马逊	-12494
▁硅	-12495
▁机率	-12496
▁称赞	-12497
▁三分之一	-12498
半球	-12499
▁口气	-12500
▁脱失	-12501
▁分发	-12502
▁契丹	-12503
▁新罗	-12504
▁豪华	-12505
▁有期徒刑	-12506
▁谐	-12507
▁饼	-12508
▁二期	-12509
▁破溃	-12510
▁笔记	-12511
维克	-12512
▁全力	-12513
▁里的	-12514
哈拉	-12515
▁毒性	-12516
▁狩猎	-12517
▁头发	-12518
▁挑选	-12519
▁正好	-12520
▁祈祷	-12521
▁籍贯	-12522
▁paul	-12523
▁摩斯	-12524
▁40%	-12525
126	-12526
▁守备	-12527
▁理事会	-12528
▁阵营	-12529
软件	-12530
▁要素	-12531
▁克罗地亚	-12532
▁粟	-12533
▁25%	-12534
▁半导体	-12535
▁mk	-12536
▁达英	-12537
▁冶	-12538
▁巡回	-12539
▁社会学	-12540
四军	-12541
▁声优	-12542
▁朱元	-12543
太祖	-12544
▁指南	-12545
常委	-12546
▁只发	-12547
▁塔斯	-12548
▁基层	-12549
▁歧义	-12550
▁金马	-12551
▁加泰罗尼亚	-12552
美奖	-12553
▁失利	-12554
▁out	-12555
▁两场	-12556
▁亲属	-12557
▁水手	-12558
▁淹	-12559
▁上唇	-12560
▁流程	-12561
▁特斯	-12562
▁残留	-12563
▁坐在	-12564
▁操控	-12565
▁潜伏	-12566
▁这份	-12567
▁produ	-12568
ex	-12569
▁捉	-12570
▁润	-12571
▁年级	-12572
▁落实	-12573
▁阿德	-12574
▁阜	-12575
▁年成	-12576
▁一属	-12577
▁努尔	-12578
▁玛格	-12579
斯理	-12580
布斯	-12581
▁入狱	-12582
▁样本	-12583
▁半小时	-12584
▁mich	-12585
▁ア	-12586
灵顿	-12587
▁1870	-12588
▁撕	-12589
▁收益	-12590
▁灌溉	-12591
▁纳米	-12592
▁四方	-12593
▁委员长	-12594
▁拭	-12595
▁代言	-12596
▁分会	-12597
▁可作	-12598
▁失望	-12599
▁风团样	-12600
▁137	-12601
▁大腿	-12602
▁对付	-12603
▁田中	-12604
▁盟友	-12605
▁辽东	-12606
▁生长发育	-12607
▁酒精	-12608
▁摩洛哥	-12609
▁链球菌	-12610
▁紮	-12611
▁轩	-12612
▁传达	-12613
▁嫌疑	-12614
▁挑食	-12615
▁动机	-12616
▁补偿	-12617
▁酋长	-12618
▁肺野见	-12619
▁national	-12620
▁娄	-12621
▁是罗马尼亚	-12622
▁三重	-12623
▁全境	-12624
▁卫冕	-12625
▁抵制	-12626
▁from	-12627
▁汉口	-12628
▁伺服器	-12629
▁sl	-12630
▁原生	-12631
▁打出	-12632
▁county	-12633
▁庇护	-12634
▁不错	-12635
▁乳酸	-12636
▁北纬	-12637
▁雷诺	-12638
独立	-12639
▁今晚	-12640
▁开头	-12641
▁西西里	-12642
▁喉部	-12643
▁ä	-12644
▁浆	-12645
▁发红	-12646
▁煤矿	-12647
▁音乐剧	-12648
幻想	-12649
▁拥挤	-12650
▁省会	-12651
工具	-12652
▁洛斯	-12653
▁脉弦细	-12654
▁音乐节	-12655
▁芯	-12656
▁处罚	-12657
▁尾巴	-12658
▁尿常规	-12659
▁韶	-12660
▁中方	-12661
▁候车	-12662
▁阮福	-12663
▁don	-12664
▁合称	-12665
▁网格	-12666
▁老虎	-12667
▁1871	-12668
▁粗体	-12669
▁分出	-12670
▁信心	-12671
▁意指	-12672
ese	-12673
▁入肝	-12674
▁物为	-12675
▁控制器	-12676
尿垢	-12677
▁平壤	-12678
▁心灵	-12679
▁监控	-12680
▁卡是	-12681
▁宇航	-12682
▁放射性	-12683
▁rich	-12684
正常	-12685
▁亚科	-12686
▁飞船	-12687
▁演技	-12688
▁米勒	-12689
▁希伯来	-12690
▁五人	-12691
▁alb	-12692
▁亢	-12693
人物	-12694
大奖	-12695
osh	-12696
▁水源	-12697
▁230	-12698
▁见尿垢	-12699
▁教义	-12700
▁辅导	-12701
▁骨骼	-12702
▁据说	-12703
▁泄	-12704
▁伦理	-12705
▁出去	-12706
▁日到	-12707
▁译作	-12708
▁够	-12709
▁千万	-12710
▁快车	-12711
▁拉德	-12712
▁电报	-12713
▁莲花	-12714
▁严厉	-12715
▁统称	-12716
▁葡萄酒	-12717
▁巴登	-12718
▁舰只	-12719
▁贫穷	-12720
▁侏	-12721
▁激光	-12722
▁账	-12723
▁斯里兰卡	-12724
▁black	-12725
▁冠状	-12726
▁大者	-12727
▁牙体	-12728
▁穿刺	-12729
▁古罗马	-12730
纳尔	-12731
▁水扁	-12732
▁质子	-12733
▁kh	-12734
▁评级	-12735
▁天大	-12736
▁松江	-12737
▁等于	-12738
▁内蒙古自治区	-12739
▁审理	-12740
▁沿途	-12741
▁肉碱	-12742
▁1885	-12743
位置	-12744
▁乳汁	-12745
▁初为	-12746
▁千叶	-12747
▁算是	-12748
▁桑那州	-12749
▁涨	-12750
▁和解	-12751
▁副司令	-12752
▁6000	-12753
▁炮台	-12754
▁间谍	-12755
处长	-12756
▁塞拉	-12757
▁中国政府	-12758
▁槟	-12759
▁铀	-12760
▁特鲁	-12761
材料	-12762
▁gc	-12763
▁关卡	-12764
▁县名	-12765
▁地铁站	-12766
▁迪克	-12767
▁组成部分	-12768
▁海面	-12769
▁绝经	-12770
asc	-12771
uro	-12772
▁困扰	-12773
▁警备	-12774
▁小提琴	-12775
▁巧克力	-12776
▁检察官	-12777
▁中北	-12778
▁车次	-12779
▁ber	-12780
▁拓扑	-12781
▁远端	-12782
▁pat	-12783
▁虔	-12784
▁果实	-12785
▁登录	-12786
▁rad	-12787
▁名额	-12788
▁拇指	-12789
min	-12790
▁弥漫	-12791
▁二号	-12792
▁城中	-12793
▁接驳	-12794
▁演绎	-12795
▁顾客	-12796
oper	-12797
▁第一座	-12798
▁trans	-12799
项目	-12800
▁冬天	-12801
国务	-12802
▁增援	-12803
▁埼	-12804
气候	-12805
ero	-12806
▁师范学校	-12807
▁雀	-12808
▁顽	-12809
▁存放	-12810
▁感谢	-12811
▁约旦	-12812
▁dd	-12813
▁90%	-12814
卫星	-12815
▁时伴	-12816
▁番茄	-12817
▁city	-12818
▁碟	-12819
喘鸣	-12820
红军	-12821
▁反流	-12822
▁里亚	-12823
▁同行	-12824
▁科普	-12825
▁鹦鹉	-12826
▁病毒感染	-12827
▁伯克	-12828
▁时至	-12829
▁部见	-12830
▁内存	-12831
▁恩斯	-12832
▁渔业	-12833
▁165	-12834
▁伊夫	-12835
堂区	-12836
注意	-12837
▁旅馆	-12838
▁高出	-12839
▁东经	-12840
▁哥特	-12841
▁随时	-12842
▁首场	-12843
▁民事	-12844
▁莱斯	-12845
▁埃斯	-12846
▁大正	-12847
▁女生	-12848
▁蠕动	-12849
▁腐败	-12850
▁games	-12851
▁心律不	-12852
▁驿	-12853
▁纳尔	-12854
▁专题	-12855
▁僧人	-12856
▁单行	-12857
▁肛裂	-12858
▁贪污	-12859
210	-12860
▁发黑	-12861
▁无数	-12862
▁湿润	-12863
▁朱元璋	-12864
▁人民法院	-12865
▁记述	-12866
▁都城	-12867
▁醇	-12868
▁喘气	-12869
▁船舶	-12870
米特	-12871
▁拨款	-12872
▁邯郸	-12873
▁掀	-12874
▁肯塔基州	-12875
典礼	-12876
▁危害	-12877
▁阿卜	-12878
▁一个种	-12879
▁轮状病毒	-12880
▁南阳	-12881
▁后代	-12882
▁仅次于	-12883
▁广西壮	-12884
▁词语	-12885
▁福克	-12886
▁避难	-12887
▁但后来	-12888
▁人型	-12889
▁击退	-12890
▁味道	-12891
▁气氛	-12892
▁魔术	-12893
▁耵	-12894
▁世俗	-12895
双侧	-12896
▁绣	-12897
华德	-12898
▁右斜	-12899
▁四种	-12900
尼奥	-12901
海军	-12902
▁内为	-12903
教师	-12904
本科	-12905
▁分行	-12906
▁消毒	-12907
▁was	-12908
▁雏	-12909
尔本	-12910
▁新宿	-12911
▁齐国	-12912
▁约翰逊	-12913
▁猎人	-12914
▁贡士	-12915
▁大屠杀	-12916
▁匈牙利语	-12917
▁找出	-12918
▁三分	-12919
▁机型	-12920
▁144	-12921
▁脉律	-12922
▁广西壮族自治区	-12923
▁ト	-12924
后卫	-12925
▁送给	-12926
务局	-12927
迪亚	-12928
▁岛峰	-12929
▁总队	-12930
▁吉他手	-12931
▁多夫	-12932
▁影集	-12933
▁耵聍	-12934
体育	-12935
▁四等	-12936
▁职工	-12937
▁追溯到	-12938
und	-12939
▁驰	-12940
▁声声	-12941
▁不肯	-12942
▁双耳	-12943
▁多半	-12944
▁佛罗里达州	-12945
▁asc	-12946
作业	-12947
石器	-12948
▁珍妮	-12949
▁槽	-12950
电脑	-12951
▁地层	-12952
▁学界	-12953
舰队	-12954
▁kn	-12955
▁多颗	-12956
▁氏族	-12957
▁非裔	-12958
ism	-12959
▁潜水	-12960
▁tcb	-12961
▁隆头	-12962
ral	-12963
▁神奈	-12964
▁紫色	-12965
▁表彰	-12966
▁lim	-12967
▁mer	-12968
▁儒家	-12969
▁第一期	-12970
▁会面	-12971
▁有功	-12972
▁谈话	-12973
▁个国家	-12974
▁aut	-12975
▁渴	-12976
破坏	-12977
▁不受	-12978
▁中路	-12979
▁年均	-12980
▁晶片	-12981
▁强奸	-12982
▁副总	-12983
▁放出	-12984
▁转动	-12985
▁檀	-12986
▁再发	-12987
▁宠物	-12988
▁背叛	-12989
▁之类	-12990
▁照明	-12991
▁首周	-12992
▁歇	-12993
▁党内	-12994
▁凝血	-12995
▁塑料	-12996
▁无流	-12997
▁安大	-12998
▁料理	-12999
▁步骤	-13000
▁化学式	-13001
▁哨	-13002
▁淳	-13003
▁加大	-13004
▁教派	-13005
▁晋国	-13006
▁煤炭	-13007
▁庵	-13008
▁异淋	-13009
▁微创	-13010
▁零件	-13011
▁诬	-13012
▁日内	-13013
▁匿	-13014
▁擒	-13015
▁科举	-13016
锦赛	-13017
▁影无	-13018
▁杀人	-13019
▁日常生活	-13020
▁岐	-13021
▁招收	-13022
▁西克	-13023
▁办公厅	-13024
▁热情	-13025
▁咽无	-13026
▁船上	-13027
▁科罗拉多州	-13028
▁巴德	-13029
▁根管	-13030
▁纯粹	-13031
▁勉	-13032
▁究	-13033
▁gt	-13034
▁编修	-13035
▁腓力	-13036
▁开发者	-13037
▁省长	-13038
▁所作	-13039
▁降格	-13040
▁青岛市	-13041
▁战俘	-13042
▁褪	-13043
▁尘螨	-13044
any	-13045
▁一低	-13046
▁隔年	-13047
▁航站楼	-13048
▁学业	-13049
▁妓	-13050
▁很小	-13051
▁福克斯	-13052
▁衰落	-13053
▁精神病	-13054
▁书店	-13055
▁推举	-13056
▁提醒	-13057
▁皮卡	-13058
▁280	-13059
▁孙权	-13060
▁vis	-13061
▁天未解	-13062
▁阿塞拜	-13063
▁最有	-13064
▁兑	-13065
▁女友	-13066
▁愚	-13067
巴斯	-13068
▁反攻	-13069
滴虫	-13070
▁胡安	-13071
▁两度	-13072
▁毛滴虫	-13073
ael	-13074
▁体质	-13075
广东	-13076
▁搬迁	-13077
▁炮塔	-13078
▁镇守	-13079
▁ios	-13080
▁格鲁吉亚	-13081
▁划入	-13082
▁司长	-13083
▁西域	-13084
▁应用程序	-13085
▁率部	-13086
▁石灰	-13087
▁轻型	-13088
▁工业区	-13089
▁amer	-13090
频道	-13091
▁林中	-13092
▁干细胞	-13093
▁±	-13094
花园	-13095
▁尼日	-13096
▁红苔	-13097
▁tom	-13098
▁中西部	-13099
而言	-13100
▁客流	-13101
▁枫	-13102
▁橄榄球	-13103
▁印地	-13104
▁容器	-13105
▁目脂	-13106
▁萤幕	-13107
▁英九	-13108
▁リ	-13109
业者	-13110
青年	-13111
▁升为	-13112
▁prog	-13113
▁aa	-13114
▁电源	-13115
▁阿塞拜疆	-13116
▁抹	-13117
▁新秀	-13118
▁组赛	-13119
▁pla	-13120
▁比特	-13121
▁park	-13122
检无	-13123
uck	-13124
▁dj	-13125
▁屏幕	-13126
▁草本	-13127
▁赞成	-13128
▁及晨起	-13129
▁vi	-13130
▁则有	-13131
▁刻有	-13132
▁密西西比	-13133
▁最终幻想	-13134
▁下水	-13135
▁天门	-13136
爱尔兰	-13137
▁二十三年	-13138
▁二千	-13139
▁位元	-13140
▁民俗	-13141
▁电讯	-13142
▁胚胎	-13143
▁三十四年	-13144
▁强行	-13145
▁奖学金	-13146
电站	-13147
▁侦测	-13148
▁香港中文	-13149
▁杏	-13150
▁为何	-13151
▁极其	-13152
▁安稳	-13153
和华	-13154
▁1%	-13155
▁交互	-13156
▁甲功	-13157
▁卡通	-13158
▁传出	-13159
▁应付	-13160
ven	-13161
▁两艘	-13162
▁type	-13163
▁oh	-13164
▁师长	-13165
▁安大略	-13166
▁恢复正常	-13167
▁惹	-13168
▁回族	-13169
▁给定	-13170
▁兼容	-13171
▁山镇	-13172
▁河川	-13173
▁足暖	-13174
▁神奈川	-13175
▁年幼	-13176
▁首长	-13177
▁北欧	-13178
▁所致	-13179
▁揭露	-13180
▁正教	-13181
▁投资者	-13182
▁一封	-13183
▁体操	-13184
▁回复	-13185
▁破裂	-13186
▁高斯	-13187
▁学部	-13188
▁深约	-13189
▁百合	-13190
▁布鲁斯	-13191
▁禄	-13192
▁习近	-13193
▁尖沙	-13194
▁停办	-13195
方形	-13196
▁整复	-13197
▁134	-13198
▁慾	-13199
▁两边	-13200
▁多用	-13201
▁尖沙咀	-13202
▁财政部	-13203
▁厢	-13204
▁专心	-13205
成功	-13206
▁甲组	-13207
▁科特	-13208
▁填海	-13209
▁个别	-13210
▁号召	-13211
▁和谐	-13212
▁机体	-13213
▁杂的	-13214
▁卡洛斯	-13215
▁影院	-13216
▁检讨	-13217
▁海地	-13218
▁中文版	-13219
▁宫颈炎	-13220
▁搔	-13221
协议	-13222
▁过往	-13223
▁较长	-13224
▁公认	-13225
▁广播电台	-13226
巴马	-13227
▁欢乐	-13228
▁碳酸	-13229
▁全港	-13230
▁淮南	-13231
专线	-13232
▁汗国	-13233
▁纠纷	-13234
▁豆腐渣	-13235
▁神户	-13236
▁一把	-13237
▁参议	-13238
▁台中市	-13239
▁会上	-13240
▁旗舰	-13241
▁瑟夫	-13242
▁搁	-13243
phone	-13244
▁外语	-13245
▁rock	-13246
▁方形	-13247
fc	-13248
▁师生	-13249
▁谣	-13250
佛教	-13251
单位	-13252
▁年仅	-13253
▁此站	-13254
▁织田	-13255
▁角色扮演	-13256
▁黔	-13257
莱斯	-13258
▁克洛	-13259
▁配方	-13260
▁长达	-13261
▁阿萨	-13262
▁合格	-13263
▁戏院	-13264
▁金色	-13265
▁彝	-13266
▁四国	-13267
▁馀脑	-13268
▁org	-13269
▁三部曲	-13270
▁脉数	-13271
▁乌拉圭	-13272
▁满洲国	-13273
运行	-13274
▁捕捉	-13275
▁英属	-13276
▁power	-13277
▁优化	-13278
▁手上	-13279
▁祖国	-13280
▁之地	-13281
▁清治	-13282
▁贿	-13283
▁跃	-13284
▁歌迷	-13285
▁瓦拉	-13286
▁暗红色	-13287
▁奠基	-13288
▁上台	-13289
▁侍中	-13290
▁同知	-13291
▁提起	-13292
▁藏族	-13293
hel	-13294
▁履行	-13295
▁rna	-13296
▁滩	-13297
▁巴利	-13298
▁度过	-13299
▁吉斯	-13300
▁瑜	-13301
▁再也	-13302
▁四面	-13303
▁突袭	-13304
文斯	-13305
▁各方	-13306
▁间接	-13307
▁sing	-13308
▁な	-13309
学士	-13310
▁骑士团	-13311
▁king	-13312
▁一下	-13313
▁信义	-13314
▁斯巴	-13315
▁副教授	-13316
▁华纳	-13317
▁清宫	-13318
▁事变	-13319
▁元老	-13320
▁波利	-13321
▁铸币	-13322
▁手持	-13323
▁看出	-13324
▁辗转	-13325
▁么	-13326
广告	-13327
莉亚	-13328
out	-13329
▁伯特	-13330
▁冷战	-13331
▁北非	-13332
▁大英	-13333
▁魔戒	-13334
▁狐	-13335
▁辟	-13336
生殖	-13337
▁画作	-13338
水平	-13339
▁塑造	-13340
▁美金	-13341
距离	-13342
▁快波	-13343
▁斯特拉	-13344
▁昨天晚上	-13345
▁参政	-13346
▁铜锣湾	-13347
▁周来	-13348
▁支炎	-13349
▁富裕	-13350
▁时为	-13351
lic	-13352
▁出疹	-13353
▁向西	-13354
▁石勒	-13355
▁订购	-13356
▁转东	-13357
▁分公司	-13358
▁护理	-13359
▁摆脱	-13360
▁民建	-13361
▁公墓	-13362
▁洋基	-13363
▁演习	-13364
▁温州	-13365
▁返诊	-13366
▁alex	-13367
▁james	-13368
▁利奥	-13369
▁复制	-13370
▁带动	-13371
▁所见	-13372
▁部件	-13373
pg	-13374
▁胎儿	-13375
▁该庄	-13376
尼尔	-13377
▁率兵	-13378
▁一子	-13379
▁道格拉斯	-13380
主张	-13381
萨尔	-13382
▁电荷	-13383
▁陶瓷	-13384
▁伴侣	-13385
▁格罗	-13386
▁片尾	-13387
▁阵地	-13388
▁分手	-13389
▁阿尔卑	-13390
▁1892	-13391
▁公理	-13392
▁参照	-13393
▁登基	-13394
▁脱皮	-13395
ear	-13396
410	-13397
▁醒来	-13398
▁utc	-13399
▁左乳外	-13400
纪律	-13401
▁笃	-13402
▁影及	-13403
▁王家	-13404
▁补选	-13405
▁远镜	-13406
▁配套	-13407
▁孤立	-13408
▁lib	-13409
▁外国人	-13410
▁洞穴	-13411
▁语系	-13412
▁渭	-13413
▁川崎	-13414
▁新牙	-13415
▁cal	-13416
▁inc	-13417
▁大气层	-13418
▁心律不齐	-13419
▁奢	-13420
▁型态	-13421
▁特务	-13422
▁big	-13423
▁win	-13424
▁人性	-13425
▁任何人	-13426
▁刮	-13427
▁哈拉	-13428
▁眼镜	-13429
▁之后在	-13430
▁窃	-13431
▁瓦斯	-13432
▁藏传	-13433
▁旧金山	-13434
▁维新	-13435
▁颌下	-13436
▁1886	-13437
ek	-13438
▁馀前	-13439
▁祁	-13440
▁圣地	-13441
▁处分	-13442
▁海姆	-13443
▁特权	-13444
▁育有	-13445
▁1884	-13446
▁殊	-13447
▁达赖	-13448
▁键盘	-13449
▁152	-13450
▁神像	-13451
▁圣保罗	-13452
▁海军陆	-13453
▁乘车	-13454
▁区见	-13455
▁钻石	-13456
▁谨	-13457
▁华裔	-13458
▁奥托	-13459
▁报名	-13460
▁暗红	-13461
▁统帅	-13462
710	-13463
▁即便	-13464
▁巴格	-13465
▁岬	-13466
▁勒斯	-13467
▁没收	-13468
▁消歧	-13469
▁甲大	-13470
by	-13471
布罗	-13472
▁第二年	-13473
▁非正式	-13474
▁行政村	-13475
▁上次	-13476
▁敢	-13477
▁俗名	-13478
▁市级	-13479
▁见证	-13480
▁连线	-13481
▁高桥	-13482
放弃	-13483
▁百分之	-13484
▁晓	-13485
▁外型	-13486
▁陪同	-13487
▁中北部	-13488
▁人质	-13489
▁就要	-13490
▁莱特	-13491
▁透亮	-13492
▁饮水	-13493
▁到底	-13494
▁私有	-13495
▁bmi	-13496
▁山城	-13497
▁怀特	-13498
▁西太平洋	-13499
mo	-13500
▁假日	-13501
▁像素	-13502
▁十九年	-13503
▁上限	-13504
▁咽无红	-13505
▁德利	-13506
▁156	-13507
指肠	-13508
810	-13509
▁中型	-13510
▁出名	-13511
▁火焰	-13512
▁科目	-13513
▁十二指肠	-13514
net	-13515
▁普法尔茨	-13516
问题	-13517
ital	-13518
der	-13519
▁条纹	-13520
▁以免	-13521
▁巴金	-13522
▁强的松	-13523
▁主线	-13524
▁肚	-13525
alt	-13526
▁vo	-13527
吉尼亚	-13528
▁俄亥俄州	-13529
▁嘉定	-13530
▁开采	-13531
▁音节	-13532
▁科学技术	-13533
▁拉格	-13534
▁选项	-13535
▁有过	-13536
▁同情	-13537
▁西藏自治区	-13538
▁に	-13539
▁有权	-13540
▁陈列	-13541
▁高于	-13542
▁750	-13543
▁mol	-13544
▁大学士	-13545
▁系主任	-13546
▁二十一年	-13547
port	-13548
▁消歧义	-13549
▁不尽	-13550
▁教职	-13551
▁母语	-13552
▁总额	-13553
▁暴雨	-13554
▁堀	-13555
▁斯卡	-13556
fs	-13557
▁全名	-13558
政党	-13559
▁华中	-13560
▁比分	-13561
▁相遇	-13562
▁答案	-13563
▁jap	-13564
▁亚太	-13565
▁船长	-13566
▁java	-13567
ric	-13568
▁利沃	-13569
▁悲剧	-13570
▁皇子	-13571
▁最后在	-13572
克罗	-13573
▁万名	-13574
▁阿卜杜	-13575
氏管	-13576
▁胃镜	-13577
▁260	-13578
▁sun	-13579
▁安德鲁	-13580
▁玻利维亚	-13581
▁上线	-13582
▁不见	-13583
▁政事	-13584
▁泌尿	-13585
▁und	-13586
大厦	-13587
王星	-13588
▁新年	-13589
▁钡剂	-13590
fe	-13591
▁福斯	-13592
▁开关	-13593
▁爪哇	-13594
▁fir	-13595
▁粘脓性	-13596
▁阈	-13597
▁明亮	-13598
▁荧	-13599
bur	-13600
▁下行	-13601
▁中超	-13602
▁三座	-13603
▁枢密	-13604
▁里夫	-13605
itter	-13606
▁亏	-13607
▁看台	-13608
▁tour	-13609
▁德勒	-13610
▁生下	-13611
▁因其	-13612
▁无穷	-13613
▁普利	-13614
▁暹罗	-13615
▁脖	-13616
▁港府	-13617
▁青衣	-13618
▁掷	-13619
▁西湖	-13620
▁铁路线	-13621
▁蛮	-13622
配角	-13623
▁伴轻	-13624
▁保有	-13625
▁红外	-13626
▁纵裂	-13627
▁得票率	-13628
▁流鼻血	-13629
▁语言学	-13630
▁nrem	-13631
生涯	-13632
▁介面	-13633
▁学说	-13634
▁歪斜	-13635
▁下层	-13636
▁新式	-13637
▁新浪	-13638
▁现役	-13639
▁喊	-13640
▁故宫	-13641
▁透声	-13642
▁金正	-13643
▁暑	-13644
桃园	-13645
▁受邀	-13646
▁容积	-13647
▁度量	-13648
轨电车	-13649
▁房地	-13650
▁攻读	-13651
▁背后	-13652
阿拉	-13653
▁海滨	-13654
▁第四次	-13655
▁军阀	-13656
柏林	-13657
▁原文	-13658
▁后任	-13659
作战	-13660
▁梅尔	-13661
▁起有	-13662
▁内心	-13663
▁极度	-13664
▁样式	-13665
▁1888	-13666
▁市委书记	-13667
▁内斯	-13668
▁新泽	-13669
▁赶到	-13670
▁辅音	-13671
▁哈萨克	-13672
▁oricon	-13673
▁即时	-13674
▁囚禁	-13675
▁国中	-13676
▁当今	-13677
▁马萨	-13678
▁亢进	-13679
▁筹建	-13680
▁隐血	-13681
▁波多	-13682
▁ク	-13683
▁尼奥	-13684
▁等价	-13685
▁逃跑	-13686
ology	-13687
▁单车	-13688
▁坚决	-13689
▁并用	-13690
▁蓝光	-13691
▁高密度	-13692
▁该寺	-13693
▁逼近	-13694
▁牢	-13695
▁皖	-13696
▁旅程	-13697
▁枯	-13698
万人	-13699
▁压制	-13700
▁客观	-13701
ute	-13702
▁收取	-13703
▁詹姆	-13704
▁转运	-13705
▁天文学家	-13706
▁救出	-13707
▁旱	-13708
▁供给	-13709
▁二十四年	-13710
▁传闻	-13711
▁圣安	-13712
▁开出	-13713
▁only	-13714
大约	-13715
▁梦想	-13716
▁mb	-13717
▁冷却	-13718
▁生平	-13719
▁卫斯理	-13720
▁稜	-13721
▁一幅	-13722
▁小心	-13723
▁轻人	-13724
▁溺	-13725
▁土星	-13726
▁录取	-13727
▁class	-13728
▁镍	-13729
▁光子	-13730
▁幽默	-13731
▁精细	-13732
▁金华	-13733
▁魅力	-13734
▁mi	-13735
▁东欧	-13736
▁文档	-13737
▁腹腔镜	-13738
▁record	-13739
▁骄	-13740
▁河水	-13741
干线	-13742
▁李克	-13743
we	-13744
皇后	-13745
▁红苔薄	-13746
▁投影	-13747
▁看来	-13748
▁黑洞	-13749
▁日本海	-13750
▁本区	-13751
▁1893	-13752
▁升至	-13753
▁house	-13754
▁京城	-13755
校长	-13756
▁丞相	-13757
form	-13758
▁san	-13759
▁1887	-13760
▁整修	-13761
▁明末	-13762
▁站位	-13763
▁营造	-13764
▁139	-13765
▁mpv	-13766
▁直升机	-13767
▁犀	-13768
▁二者	-13769
▁抓物	-13770
▁指派	-13771
▁友人	-13772
▁猛烈	-13773
▁数分钟	-13774
▁中央委员会	-13775
▁内径	-13776
▁开辟	-13777
▁演算	-13778
▁会议员	-13779
▁教育局	-13780
▁职业生涯	-13781
▁175	-13782
运河	-13783
▁质硬	-13784
▁崖	-13785
▁泗	-13786
▁祂	-13787
▁仍为	-13788
▁园林	-13789
▁婚后	-13790
▁文化遗产	-13791
▁右派	-13792
勒氏管	-13793
▁研究室	-13794
▁近年来	-13795
▁师从	-13796
▁想像	-13797
▁正值	-13798
▁维特	-13799
▁社会党	-13800
ors	-13801
▁弗莱	-13802
▁标识	-13803
▁路面	-13804
▁号的	-13805
▁り	-13806
▁刘邦	-13807
▁端的	-13808
▁15%	-13809
▁ibm	-13810
▁政府军	-13811
▁一包	-13812
▁放入	-13813
▁断层	-13814
▁是非	-13815
▁jun	-13816
▁各州	-13817
▁迁居	-13818
▁逃出	-13819
▁日月	-13820
▁墨尔本	-13821
冲突	-13822
▁ant	-13823
▁幸存	-13824
▁极高	-13825
▁接连	-13826
▁工学院	-13827
▁北角	-13828
▁官话	-13829
▁克尔	-13830
▁贯穿	-13831
▁民族主义	-13832
▁倒塌	-13833
▁内设	-13834
▁堂区	-13835
▁法军	-13836
▁michael	-13837
▁摊	-13838
霹雳	-13839
▁这本	-13840
▁石刻	-13841
▁鰕	-13842
▁猎物	-13843
▁线上	-13844
▁东德	-13845
▁流派	-13846
▁综合性	-13847
▁九巴	-13848
▁后面	-13849
▁继而	-13850
▁莱尔	-13851
▁处死	-13852
▁谦	-13853
ull	-13854
▁拉特	-13855
▁有别	-13856
▁菲尔	-13857
ger	-13858
▁巴林	-13859
▁内分	-13860
▁富兰	-13861
足球	-13862
▁始祖	-13863
▁很难	-13864
▁初时	-13865
▁大坂府	-13866
▁斯汀	-13867
▁超出	-13868
▁渗透	-13869
▁相仿	-13870
▁cpu	-13871
▁公孙	-13872
加尔	-13873
▁一向	-13874
▁贝拉	-13875
▁抨	-13876
▁癒	-13877
军官	-13878
▁每一	-13879
▁马克思主义	-13880
▁衞	-13881
▁厚约	-13882
▁吞咽	-13883
▁目击	-13884
▁路易斯安	-13885
▁喂	-13886
▁休斯	-13887
▁星座	-13888
▁耕地	-13889
▁驻华	-13890
▁警察局	-13891
▁2500	-13892
基地	-13893
▁第一家	-13894
▁兖	-13895
▁三号	-13896
▁对面	-13897
▁共青团	-13898
▁宫腔镜	-13899
▁分组	-13900
▁声像	-13901
▁妇检	-13902
▁歼灭	-13903
▁该州	-13904
▁舅	-13905
▁加拉	-13906
▁四次	-13907
▁kar	-13908
▁牙烂牙	-13909
▁上级	-13910
▁未萌	-13911
010	-13912
124	-13913
▁131	-13914
▁镁	-13915
▁曾伴	-13916
ertain	-13917
▁铎	-13918
▁站点	-13919
510	-13920
▁戴维	-13921
▁bur	-13922
▁马德里	-13923
▁iphone	-13924
▁考证	-13925
▁北卡罗	-13926
▁一一	-13927
▁阿卡	-13928
▁岑	-13929
▁茄	-13930
▁大清	-13931
▁干事	-13932
▁沙皇	-13933
che	-13934
▁变速	-13935
▁左眼	-13936
▁氟化	-13937
iver	-13938
▁观赏鱼	-13939
▁黄体酮	-13940
▁德文	-13941
▁老年	-13942
ater	-13943
▁吸血鬼	-13944
▁曾一度	-13945
910	-13946
▁偏东	-13947
▁阈值	-13948
▁囚犯	-13949
▁抗争	-13950
▁那不	-13951
▁第十三届	-13952
610	-13953
▁伴随	-13954
▁布罗	-13955
▁带到	-13956
▁并设	-13957
▁1876	-13958
▁奸	-13959
▁便宜	-13960
▁咀嚼	-13961
▁飞往	-13962
▁研讨会	-13963
ution	-13964
▁mu	-13965
▁手部	-13966
▁电阻	-13967
▁阴道口	-13968
华州	-13969
▁伍德	-13970
▁修缮	-13971
▁南亚	-13972
▁д	-13973
▁嵌顿	-13974
▁普查	-13975
▁神奇	-13976
德里希	-13977
▁第二任	-13978
▁cooper	-13979
▁气压	-13980
国务院	-13981
▁辛亥革命	-13982
▁点头	-13983
▁咳剧易	-13984
▁不停	-13985
▁为例	-13986
▁安息	-13987
▁总决赛	-13988
▁尔斯	-13989
▁约定	-13990
▁肺内	-13991
▁ka	-13992
▁反叛	-13993
▁感应	-13994
▁武汉市	-13995
▁best	-13996
▁夺回	-13997
▁栖性	-13998
▁药品	-13999
▁襄阳	-14000
▁过滤	-14001
▁迂	-14002
▁ug	-14003
▁厕所	-14004
▁易名	-14005
▁强力	-14006
▁界面	-14007
▁会合	-14008
▁入院	-14009
▁取景	-14010
▁字形	-14011
▁年秋	-14012
▁洋行	-14013
▁菊科	-14014
不会	-14015
▁不动	-14016
▁兴奋	-14017
▁自言	-14018
▁lu	-14019
▁丰臣	-14020
▁刑法	-14021
▁土司	-14022
▁抨击	-14023
▁施泰	-14024
▁本国	-14025
▁直达	-14026
▁乌兹别	-14027
▁释出	-14028
▁驻扎	-14029
▁先发	-14030
▁林业	-14031
▁汕头	-14032
▁低密度	-14033
▁醉	-14034
经营	-14035
▁字子	-14036
▁小岛	-14037
▁商学院	-14038
▁建筑群	-14039
osa	-14040
▁帽子	-14041
▁75%	-14042
▁摔角	-14043
▁物流	-14044
▁约束	-14045
▁航运	-14046
▁落入	-14047
▁逃脱	-14048
▁弗拉基	-14049
▁砌	-14050
▁乡份	-14051
▁使命	-14052
▁凯尔	-14053
▁小麦	-14054
▁闪电	-14055
▁玛格丽	-14056
▁伐	-14057
▁南南	-14058
▁编纂	-14059
▁1861	-14060
▁在此之前	-14061
▁电子游戏	-14062
▁湧	-14063
▁db	-14064
▁尾部	-14065
▁那不勒斯	-14066
▁变更	-14067
▁est	-14068
▁为界	-14069
▁外貌	-14070
▁央视	-14071
▁毒品	-14072
▁王公	-14073
▁模块	-14074
▁波长	-14075
▁爸妈	-14076
▁风俗	-14077
▁鲶科	-14078
▁中毒	-14079
▁湾省	-14080
▁聘请	-14081
▁衰变	-14082
▁身材	-14083
▁旅游业	-14084
▁不远	-14085
▁拦截	-14086
▁看过	-14087
▁高新	-14088
▁乌鲁木	-14089
▁祕	-14090
▁梅里	-14091
▁礼物	-14092
▁同性恋	-14093
▁碗	-14094
▁奈良	-14095
▁1850	-14096
▁地方法院	-14097
▁苻	-14098
▁下台	-14099
▁多孔	-14100
仙奴	-14101
动力	-14102
▁代述	-14103
▁暴风	-14104
▁结晶	-14105
▁化身	-14106
▁南山	-14107
▁大殿	-14108
▁罪犯	-14109
▁藏书	-14110
▁西晋	-14111
▁蔷	-14112
美术	-14113
▁利比	-14114
▁论述	-14115
▁177	-14116
▁梳	-14117
▁中热	-14118
▁鲀	-14119
▁单词	-14120
▁协同	-14121
▁总领	-14122
▁膨胀	-14123
▁配有	-14124
▁ri	-14125
▁加冕	-14126
▁浸润	-14127
▁牌照	-14128
▁tur	-14129
▁亚瑟	-14130
▁多月	-14131
▁打嗝	-14132
▁敌方	-14133
▁票价	-14134
▁ا	-14135
▁三菱	-14136
▁全台	-14137
▁外借	-14138
▁区议会	-14139
▁长官	-14140
▁心理学	-14141
▁会馆	-14142
bl	-14143
▁泰山	-14144
▁灾害	-14145
▁第一胎	-14146
▁lt	-14147
▁篡	-14148
▁提取	-14149
▁清洗	-14150
▁脓疱	-14151
▁集资	-14152
▁所罗门	-14153
▁梧	-14154
▁使徒	-14155
▁少于	-14156
▁嘴角	-14157
的是	-14158
▁信件	-14159
▁166	-14160
▁音乐学院	-14161
▁陡	-14162
▁拉丁美洲	-14163
▁对流	-14164
▁总署	-14165
▁长城	-14166
▁抒	-14167
▁左斜	-14168
▁上班	-14169
▁教材	-14170
▁站上	-14171
▁终年	-14172
▁bet	-14173
▁禾本科	-14174
▁单音	-14175
▁召唤	-14176
▁招待	-14177
▁154	-14178
▁550	-14179
▁爱丁堡	-14180
▁富兰克林	-14181
▁国歌	-14182
▁techn	-14183
丽丝	-14184
▁戏曲	-14185
▁简易	-14186
▁釜山	-14187
▁剌	-14188
▁钥	-14189
▁切断	-14190
▁逗笑	-14191
▁藻	-14192
▁两栖	-14193
▁沙滩	-14194
▁诉求	-14195
▁里德	-14196
▁提督	-14197
▁第二部	-14198
▁阿仙奴	-14199
▁交涉	-14200
▁已故	-14201
▁igg	-14202
▁spec	-14203
▁菱	-14204
▁逸	-14205
▁三段	-14206
▁县委	-14207
▁督察	-14208
▁聚合	-14209
▁阿曼	-14210
▁尖波	-14211
▁潜在	-14212
▁选定	-14213
▁利沃夫	-14214
▁筒	-14215
▁五位	-14216
▁周日	-14217
▁围赛	-14218
▁尺度	-14219
▁窝沟	-14220
▁语文	-14221
▁168	-14222
▁hot	-14223
▁疏散	-14224
▁组长	-14225
▁自传	-14226
▁中央人民政府	-14227
恒星	-14228
ci	-14229
▁蜗	-14230
▁多条	-14231
▁查询	-14232
▁率军	-14233
▁刻意	-14234
▁外面	-14235
▁街区	-14236
▁轻轨	-14237
ior	-14238
▁套叠	-14239
▁预留	-14240
▁感兴趣	-14241
以来	-14242
思想	-14243
歇根	-14244
▁将在	-14245
▁主动脉	-14246
▁博尔	-14247
▁对战	-14248
▁神明	-14249
▁钟楼	-14250
▁菲尔德	-14251
拉德	-14252
▁迈阿	-14253
▁倒退	-14254
▁填词	-14255
▁花纹	-14256
▁褪色	-14257
▁贝斯	-14258
▁纪律	-14259
▁重心	-14260
▁泳	-14261
▁是属	-14262
▁诗集	-14263
▁ben	-14264
▁男演员	-14265
br	-14266
▁界限	-14267
▁立方米	-14268
▁君士坦丁堡	-14269
▁手臂	-14270
▁税收	-14271
▁两台	-14272
▁菸	-14273
▁蛙	-14274
▁别名	-14275
▁客量	-14276
力量	-14277
▁eg	-14278
▁倡导	-14279
▁六四	-14280
▁衰退	-14281
let	-14282
▁宣统	-14283
▁现名	-14284
▁隐居	-14285
▁蜿	-14286
▁nat	-14287
庄村	-14288
▁季风	-14289
▁满族	-14290
▁る	-14291
▁反常	-14292
▁股骨	-14293
▁惊人	-14294
▁都尉	-14295
▁奥斯曼帝国	-14296
▁文人	-14297
▁疗法	-14298
▁元代	-14299
▁拜仁	-14300
▁石碑	-14301
▁美式	-14302
▁裂口	-14303
爱的	-14304
▁出使	-14305
▁平常	-14306
▁王府	-14307
▁期限	-14308
▁男爵	-14309
▁−	-14310
▁幽门	-14311
▁按察使	-14312
▁瘦	-14313
▁养殖	-14314
▁报章	-14315
▁用到	-14316
▁阻力	-14317
▁高位	-14318
▁gcm	-14319
▁白垩纪	-14320
▁由该	-14321
▁警卫	-14322
▁幼时	-14323
▁灌丛	-14324
▁耶和华	-14325
▁邑	-14326
海岸	-14327
▁东边	-14328
▁构建	-14329
▁硝酸	-14330
▁脊髓	-14331
▁梅斯	-14332
▁蕴	-14333
两天	-14334
▁世家	-14335
▁周六	-14336
▁end	-14337
亚科	-14338
▁举动	-14339
▁过多	-14340
▁植物种	-14341
▁领事馆	-14342
梅尔	-14343
▁抵御	-14344
▁水道	-14345
▁称帝	-14346
▁辖境	-14347
▁少有	-14348
▁组装	-14349
▁金陵	-14350
▁姿态	-14351
▁开枪	-14352
▁rom	-14353
▁祸	-14354
维吾尔	-14355
▁闰	-14356
▁sg	-14357
▁健身	-14358
▁148	-14359
▁1883	-14360
▁捍	-14361
▁绅	-14362
▁忍者	-14363
▁上车	-14364
▁公所	-14365
▁自古	-14366
▁电解质	-14367
▁南区	-14368
▁新区	-14369
▁gdp	-14370
▁卡里	-14371
▁当他	-14372
▁有个	-14373
联合会	-14374
▁迈阿密	-14375
巴尔	-14376
▁丙氨酸	-14377
▁瓦解	-14378
ations	-14379
▁陌	-14380
▁布莱恩	-14381
ora	-14382
▁四强	-14383
▁正如	-14384
▁舞曲	-14385
▁风波	-14386
▁全军	-14387
▁利润	-14388
▁名将	-14389
▁天间	-14390
▁将他	-14391
▁肝功能	-14392
▁1868	-14393
▁焊	-14394
▁蚊	-14395
建议	-14396
▁布列	-14397
▁抗拒	-14398
▁肾炎	-14399
▁莫尔	-14400
▁乌鲁木齐	-14401
▁〜	-14402
▁可供	-14403
▁在此	-14404
▁需用	-14405
itch	-14406
ze	-14407
▁脆	-14408
▁札幌	-14409
▁起始	-14410
▁退伍	-14411
▁hsg	-14412
▁客场	-14413
▁杂交	-14414
▁犹太教	-14415
▁钉	-14416
▁卡利	-14417
▁动量	-14418
▁披露	-14419
▁き	-14420
▁脲	-14421
▁拭子	-14422
▁一时期	-14423
▁地标	-14424
▁战线	-14425
▁boy	-14426
▁在此期间	-14427
党校	-14428
▁奥德	-14429
▁深远	-14430
导弹	-14431
结石	-14432
▁福德	-14433
▁许可证	-14434
▁二十九年	-14435
▁м	-14436
安市	-14437
▁中美洲	-14438
▁ま	-14439
效力	-14440
iii	-14441
▁之初	-14442
▁蜿蜒	-14443
▁冷冻	-14444
▁夥伴	-14445
▁153	-14446
▁场比赛	-14447
▁1891	-14448
乐器	-14449
▁fm	-14450
▁归国	-14451
▁袢	-14452
▁平息	-14453
▁胸腔	-14454
克斯洛	-14455
▁捷克斯洛	-14456
▁捷克斯洛伐克	-14457
▁东县	-14458
▁地底	-14459
▁成份	-14460
▁沉着	-14461
▁光度	-14462
▁城邦	-14463
▁并曾	-14464
▁皇宫	-14465
▁多米	-14466
▁幸运	-14467
▁格斯	-14468
▁潮湿	-14469
▁过氧化	-14470
lin	-14471
▁暂未	-14472
▁密歇根	-14473
▁腺病毒	-14474
继承	-14475
▁帆船	-14476
▁杭州市	-14477
尖瓣	-14478
▁仅能	-14479
▁澄清	-14480
▁教育家	-14481
▁嘲	-14482
▁乌兰	-14483
▁抛弃	-14484
▁晚会	-14485
▁格局	-14486
▁越过	-14487
时报	-14488
▁武功	-14489
▁用法	-14490
▁语的	-14491
▁亚特兰	-14492
党员	-14493
▁会社	-14494
▁出动	-14495
▁哈密	-14496
▁掌控	-14497
▁乳突	-14498
▁天花	-14499
▁政局	-14500
▁氧气	-14501
▁皮尔	-14502
▁斑片样	-14503
▁皇太子	-14504
▁华沙	-14505
▁板桥	-14506
▁首发	-14507
▁机器人	-14508
辖下	-14509
龙省	-14510
▁一国	-14511
▁单人	-14512
▁场面	-14513
▁失误	-14514
▁射程	-14515
▁pre	-14516
▁动物园	-14517
▁mart	-14518
发生	-14519
▁安哥	-14520
▁里克	-14521
▁stre	-14522
▁流感病毒	-14523
▁孵	-14524
▁县市	-14525
▁来院	-14526
▁给事	-14527
▁sal	-14528
▁伏尔	-14529
▁千瓦	-14530
▁损毁	-14531
▁追赠	-14532
▁座椅	-14533
▁清嗓	-14534
▁见脓性	-14535
▁八一	-14536
▁加装	-14537
▁梅花	-14538
▁牙合	-14539
200	-14540
▁安提	-14541
▁拉普	-14542
▁京剧	-14543
▁倡议	-14544
▁董事会	-14545
▁都御史	-14546
▁club	-14547
▁japan	-14548
▁entertain	-14549
苏里	-14550
▁户籍	-14551
▁日渐	-14552
▁暗中	-14553
▁造血	-14554
sd	-14555
▁挫	-14556
菲律	-14557
▁卢卡	-14558
▁史书	-14559
▁太和	-14560
▁serv	-14561
▁泊	-14562
▁击中	-14563
▁实数	-14564
▁干旱	-14565
▁神祇	-14566
▁并对	-14567
▁白宫	-14568
▁德国人	-14569
▁熙	-14570
▁赦	-14571
ily	-14572
▁上行	-14573
▁亚伯	-14574
▁珊瑚礁	-14575
▁鍊	-14576
▁偏南	-14577
生殖器	-14578
▁外生殖器	-14579
▁指引	-14580
▁高兴	-14581
起义	-14582
▁就算	-14583
▁巨型	-14584
▁痰响	-14585
▁管弦	-14586
▁蔓延	-14587
▁馀下	-14588
▁况	-14589
▁溶解	-14590
▁主人公	-14591
▁上部	-14592
▁囟门	-14593
▁汽油	-14594
▁剿	-14595
▁躲避	-14596
▁俾	-14597
▁溶血	-14598
▁阿基	-14599
多夫	-14600
奥多	-14601
▁临近	-14602
志明	-14603
▁代价	-14604
▁双人	-14605
▁当场	-14606
▁抓住	-14607
▁罢免	-14608
ange	-14609
▁诈	-14610
▁新娘	-14611
▁春节	-14612
▁特兰	-14613
▁赛道	-14614
▁威尔逊	-14615
▁北条	-14616
▁卡片	-14617
▁李宗	-14618
▁炮弹	-14619
▁纸币	-14620
▁轮廓	-14621
▁gener	-14622
办公	-14623
▁蔷薇	-14624
▁fb	-14625
▁事发	-14626
▁住所	-14627
▁der	-14628
▁新世界	-14629
▁师范学院	-14630
▁领导小组	-14631
牛斯	-14632
腾堡	-14633
▁罚款	-14634
▁世界排名	-14635
▁比利牛斯	-14636
▁镰	-14637
▁有利于	-14638
fer	-14639
kpa	-14640
▁接力	-14641
▁迪亚	-14642
▁份子	-14643
▁外地	-14644
▁将军澳	-14645
▁一举	-14646
▁唇侧	-14647
▁超新	-14648
▁650	-14649
ada	-14650
▁演说	-14651
▁听懂	-14652
▁奥兰	-14653
▁巡航	-14654
▁布达	-14655
▁荀	-14656
▁圣人	-14657
▁眼结	-14658
▁维斯	-14659
▁颅骨	-14660
▁vol	-14661
▁虐待	-14662
▁超新星	-14663
▁山本	-14664
▁止血	-14665
▁丑闻	-14666
▁几位	-14667
▁寒冷	-14668
▁战中	-14669
▁眼结膜	-14670
▁保密	-14671
▁恶魔	-14672
▁章程	-14673
▁黑白	-14674
▁基部	-14675
▁羽联	-14676
▁不透	-14677
▁世袭	-14678
▁中外	-14679
▁原产	-14680
▁同类	-14681
▁天台	-14682
▁客人	-14683
▁很长	-14684
▁热爱	-14685
▁软化	-14686
▁dream	-14687
▁上腹	-14688
▁丰田	-14689
▁之星	-14690
▁书面	-14691
▁关税	-14692
▁勇敢	-14693
伦西亚	-14694
▁entertainment	-14695
诺斯	-14696
▁中央政治局	-14697
▁叶子	-14698
▁因病	-14699
▁163	-14700
▁不足以	-14701
▁个堂区	-14702
▁摄影师	-14703
▁新疆维吾尔	-14704
明星	-14705
▁紧无	-14706
方程	-14707
▁上颚	-14708
▁会见	-14709
▁原着	-14710
▁名声	-14711
▁奉行	-14712
▁必需	-14713
▁肯尼迪	-14714
▁1862	-14715
▁事项	-14716
▁建安	-14717
▁机上	-14718
▁特快	-14719
▁发表声明	-14720
▁sec	-14721
▁arch	-14722
inc	-14723
▁付出	-14724
▁呕血	-14725
▁遇见	-14726
▁部族	-14727
▁全国性	-14728
▁值得注意	-14729
▁四处	-14730
▁大胜	-14731
▁山村	-14732
▁裤	-14733
▁举例	-14734
▁常住	-14735
▁获准	-14736
▁资格赛	-14737
▁支出	-14738
▁叉	-14739
体温	-14740
▁北周	-14741
▁右眼	-14742
▁正中	-14743
▁自动化	-14744
▁准则	-14745
▁号称	-14746
▁唇部	-14747
▁工委	-14748
▁获选	-14749
▁arm	-14750
▁石家庄	-14751
▁jack	-14752
他州	-14753
公署	-14754
经国	-14755
▁东至	-14756
▁女皇	-14757
▁米格	-14758
▁146	-14759
▁交替	-14760
▁取出	-14761
▁土库	-14762
▁急诊	-14763
塞州	-14764
川县	-14765
▁回去	-14766
▁太极	-14767
▁成像	-14768
▁学士学位	-14769
▁media	-14770
元帅	-14771
▁士官	-14772
▁着重	-14773
▁tre	-14774
▁安哥拉	-14775
▁life	-14776
▁八大	-14777
▁缺席	-14778
▁处理器	-14779
训练	-14780
▁主委	-14781
▁台视	-14782
▁告终	-14783
▁西欧	-14784
▁交通局	-14785
▁崁	-14786
▁军籍	-14787
▁凶手	-14788
▁击落	-14789
▁未测	-14790
▁滑冰	-14791
▁白云	-14792
▁过来	-14793
▁郡王	-14794
▁不丹	-14795
▁亚斯	-14796
▁基斯	-14797
▁布伦	-14798
▁年后	-14799
▁漳州	-14800
▁盖尔	-14801
▁终端	-14802
▁bre	-14803
▁从小	-14804
▁车厂	-14805
▁细菌性	-14806
▁尉	-14807
当时	-14808
▁枪械	-14809
▁做到	-14810
▁山水	-14811
▁开会	-14812
▁昂贵	-14813
▁首要	-14814
▁新四军	-14815
▁新疆维吾尔自治区	-14816
▁析	-14817
▁近海	-14818
▁以示	-14819
▁叔叔	-14820
▁输给	-14821
▁adv	-14822
▁弗兰克	-14823
▁乃是	-14824
▁原体	-14825
▁1848	-14826
▁攻击行为	-14827
▁薇	-14828
▁推断	-14829
▁表述	-14830
▁雅克	-14831
▁鞑	-14832
ini	-14833
▁第三季	-14834
▁仅存	-14835
▁城隍	-14836
▁空难	-14837
▁除去	-14838
▁霹雳	-14839
▁笨	-14840
▁6%	-14841
▁人马	-14842
▁向北	-14843
▁失踪	-14844
▁他现	-14845
▁包天	-14846
▁突发	-14847
▁竟然	-14848
clude	-14849
▁fire	-14850
▁原属	-14851
▁的士	-14852
▁sub	-14853
铁道	-14854
▁其一	-14855
▁韦伯	-14856
▁起源于	-14857
▁前庭	-14858
▁逆向	-14859
po	-14860
▁堡垒	-14861
▁山丘	-14862
▁拳击	-14863
▁追声	-14864
▁被誉为	-14865
▁领导者	-14866
▁三家	-14867
▁多重	-14868
▁拆卸	-14869
▁西雅	-14870
▁路由	-14871
▁新一代	-14872
▁性行	-14873
▁白双	-14874
▁音符	-14875
▁首轮	-14876
▁切尔尼	-14877
▁喷发	-14878
▁攻破	-14879
▁天馀前	-14880
▁新竹市	-14881
▁发病	-14882
▁朝日	-14883
▁根据地	-14884
▁γ	-14885
▁伴喘	-14886
▁孕前	-14887
▁楼宇	-14888
▁爱荷	-14889
▁略有	-14890
▁粘血	-14891
▁1867	-14892
▁躁	-14893
▁酯	-14894
协商	-14895
▁胸痛	-14896
▁倚	-14897
▁羌	-14898
▁雁	-14899
▁中段	-14900
▁凯特	-14901
▁师师	-14902
▁gcms	-14903
▁凡尔	-14904
▁有史	-14905
▁特雷	-14906
▁并向	-14907
▁裁决	-14908
▁穴	-14909
▁月亮	-14910
▁鲁迅	-14911
▁偏北	-14912
▁决战	-14913
▁科索	-14914
▁far	-14915
合作	-14916
▁东山	-14917
▁五名	-14918
▁金字	-14919
▁bel	-14920
▁蒙古族	-14921
▁中级	-14922
▁耳朵	-14923
▁天子	-14924
▁荷尔	-14925
▁钞	-14926
▁总教练	-14927
▁辛普森	-14928
▁湛	-14929
▁帮忙	-14930
▁第十八	-14931
结肠	-14932
茨克	-14933
▁侧面	-14934
▁安南	-14935
▁终极	-14936
▁二十二年	-14937
▁一文	-14938
▁不全	-14939
▁充当	-14940
▁台大	-14941
▁开药	-14942
▁拘留	-14943
▁无需	-14944
▁消散	-14945
▁逐出	-14946
战队	-14947
▁冷测	-14948
▁等到	-14949
▁1877	-14950
▁国民革命	-14951
▁哈萨克斯坦	-14952
▁建交	-14953
▁团员	-14954
▁国营	-14955
▁日时	-14956
▁构想	-14957
▁twitter	-14958
▁谎	-14959
▁曾行	-14960
▁此案	-14961
▁洛特	-14962
▁历山大	-14963
团长	-14964
▁骚乱	-14965
▁硬化	-14966
▁上市公司	-14967
▁党组书记	-14968
▁芜	-14969
参加	-14970
大选	-14971
▁媒介	-14972
▁垢	-14973
莉丝	-14974
▁子弟	-14975
▁270	-14976
▁轻中度	-14977
▁1873	-14978
▁语族	-14979
▁课堂	-14980
▁sci	-14981
汉语	-14982
▁党部	-14983
▁追加	-14984
▁当事	-14985
▁特尔	-14986
▁vir	-14987
▁派兵	-14988
▁看守	-14989
▁hen	-14990
达科	-14991
▁中曾	-14992
▁搭档	-14993
▁活塞	-14994
▁oper	-14995
▁埋葬	-14996
▁奥司	-14997
▁人大常委会	-14998
▁阐述	-14999
▁多面	-15000
▁干洁	-15001
教会	-15002
▁出声	-15003
▁台上	-15004
▁平反	-15005
▁扰动	-15006
▁生病	-15007
▁维拉	-15008
▁ti	-15009
▁年区	-15010
▁有血	-15011
稳定	-15012
▁拉赫	-15013
▁安德森	-15014
原子	-15015
皇帝	-15016
资产	-15017
ham	-15018
▁当成	-15019
▁沃伦	-15020
▁左房	-15021
cd	-15022
夫卡	-15023
▁上书	-15024
▁册封	-15025
▁机能	-15026
▁矿业	-15027
▁领主	-15028
固醇	-15029
▁前端	-15030
▁大海	-15031
▁稍稀	-15032
▁这使	-15033
▁提早	-15034
▁apple	-15035
▁吴国	-15036
德里克	-15037
▁141	-15038
▁野战军	-15039
▁出产	-15040
▁区段	-15041
殿试	-15042
▁副局长	-15043
▁埤	-15044
▁十几	-15045
相关	-15046
▁嘉兴	-15047
▁小队	-15048
▁眉	-15049
▁伴奏	-15050
▁转到	-15051
▁大洋洲	-15052
▁活动性	-15053
▁天主教徒	-15054
ja	-15055
▁大乘	-15056
▁无不	-15057
▁机翼	-15058
▁美的	-15059
▁英镑	-15060
▁蒋经国	-15061
erson	-15062
▁二十六年	-15063
▁稿	-15064
▁腥	-15065
德斯	-15066
app	-15067
▁夸克	-15068
▁左岸	-15069
▁托米	-15070
▁琳娜	-15071
▁充足	-15072
▁水流	-15073
▁脖子	-15074
▁award	-15075
▁一股	-15076
▁中下	-15077
line	-15078
▁1879	-15079
▁怨	-15080
▁底质	-15081
▁无疹	-15082
▁露天	-15083
▁不了	-15084
▁迁徙	-15085
▁高潮	-15086
▁may	-15087
▁劣	-15088
▁毅	-15089
▁哥本	-15090
▁尚清	-15091
▁万立方米	-15092
▁暱	-15093
▁花岗	-15094
▁转投	-15095
▁鼓手	-15096
▁渥	-15097
▁人心	-15098
▁十万	-15099
▁施加	-15100
▁环岛	-15101
艺人	-15102
▁一是	-15103
▁弗里德里希	-15104
一世	-15105
乳检	-15106
▁开往	-15107
▁情景	-15108
▁护士	-15109
▁霍华德	-15110
rag	-15111
▁反派	-15112
▁硬肿	-15113
▁美联	-15114
▁淫	-15115
▁纳呆	-15116
▁这支	-15117
▁bill	-15118
▁升班	-15119
▁嵌入	-15120
▁基本法	-15121
大将	-15122
来说	-15123
▁不当	-15124
▁端点	-15125
哈根	-15126
▁两支	-15127
▁哥本哈根	-15128
资格	-15129
▁ok	-15130
▁事先	-15131
▁伙伴	-15132
▁及絮	-15133
▁宫崎	-15134
自语	-15135
▁教皇	-15136
▁释迦	-15137
▁疤	-15138
斯达	-15139
▁新店	-15140
▁及絮片样	-15141
▁蚌	-15142
▁实在	-15143
▁生死	-15144
▁棺	-15145
▁麾	-15146
讯号	-15147
▁思维	-15148
▁邻居	-15149
▁阴阳	-15150
▁157	-15151
▁台南市	-15152
▁求乳检	-15153
印度	-15154
▁加特	-15155
▁存有	-15156
▁1864	-15157
▁く	-15158
▁教廷	-15159
▁系数	-15160
▁肖像	-15161
教区	-15162
▁去除	-15163
▁揭发	-15164
▁舰长	-15165
▁衬	-15166
▁会区	-15167
▁家用	-15168
▁所示	-15169
▁斯普	-15170
▁预赛	-15171
▁篮球队	-15172
▁缪	-15173
▁优质	-15174
▁化妆	-15175
▁变体	-15176
▁备受	-15177
▁弹匣	-15178
▁van	-15179
▁审计	-15180
▁资本主义	-15181
▁拜访	-15182
▁142	-15183
▁妈祖	-15184
▁报刊	-15185
▁河西	-15186
▁输送	-15187
▁330	-15188
▁扔	-15189
▁2%	-15190
▁全县	-15191
▁住户	-15192
▁后于	-15193
▁监护	-15194
▁生物学	-15195
▁四分之一	-15196
主题	-15197
▁不涨	-15198
▁四季	-15199
▁疫情	-15200
▁阑尾炎	-15201
▁翟	-15202
▁榴弹	-15203
▁乐曲	-15204
泽民	-15205
▁同属	-15206
▁此曲	-15207
▁宛	-15208
▁北齐	-15209
▁失效	-15210
▁凑	-15211
▁禹	-15212
▁克服	-15213
▁弥漫性	-15214
ita	-15215
▁官僚	-15216
▁尼科	-15217
▁孤儿	-15218
▁珍贵	-15219
▁考生	-15220
▁肾上	-15221
▁布斯	-15222
▁流星	-15223
▁混双	-15224
▁习近平	-15225
▁唯一一	-15226
▁布里斯	-15227
▁奕	-15228
▁锻	-15229
▁顶端	-15230
尼加	-15231
▁停战	-15232
▁科殿试	-15233
▁wt	-15234
▁僧侣	-15235
▁祖母	-15236
出版社	-15237
▁二十一	-15238
▁巴洛克	-15239
▁斯泰因	-15240
amb	-15241
▁天鹅	-15242
▁山海	-15243
▁统领	-15244
▁肉类	-15245
▁三峡	-15246
▁对待	-15247
▁化学家	-15248
▁糟	-15249
▁介石	-15250
▁作法	-15251
▁比斯	-15252
势力	-15253
梅利	-15254
▁制式	-15255
▁各部	-15256
▁旅客列车	-15257
▁腾讯	-15258
▁调用	-15259
▁通报	-15260
变化	-15261
▁以内	-15262
▁偏向	-15263
▁停用	-15264
▁及第	-15265
▁阿列	-15266
▁遗传性	-15267
▁开元	-15268
▁737	-15269
▁膝关节	-15270
▁1865	-15271
▁1878	-15272
▁闲	-15273
事变	-15274
▁热性	-15275
▁腹壁	-15276
兹省	-15277
▁jos	-15278
▁ray	-15279
▁咧	-15280
复兴	-15281
▁例行	-15282
▁反共	-15283
▁回报	-15284
▁大安	-15285
▁男双	-15286
▁雷德	-15287
▁冤	-15288
▁悼	-15289
▁罐	-15290
▁侦查	-15291
▁来看	-15292
代码	-15293
能够	-15294
▁厄瓜	-15295
▁门外	-15296
▁游戏机	-15297
▁西夏	-15298
▁詹姆士	-15299
▁dist	-15300
之处	-15301
纬度	-15302
▁ur	-15303
▁一根	-15304
▁百度	-15305
▁录音室	-15306
▁德米特	-15307
▁port	-15308
▁work	-15309
▁布什	-15310
▁文教	-15311
▁树林	-15312
▁rev	-15313
▁不列颠	-15314
族自治州	-15315
▁bv	-15316
▁和尚	-15317
▁国铁	-15318
▁李登	-15319
▁亲密	-15320
▁现址	-15321
ript	-15322
▁1875	-15323
历史	-15324
▁远程	-15325
▁日内瓦	-15326
▁一届	-15327
▁棉球	-15328
▁称其	-15329
▁组别	-15330
▁自服	-15331
▁安全性	-15332
▁吡	-15333
▁拥护	-15334
▁大使馆	-15335
▁1882	-15336
▁匾	-15337
▁活泼	-15338
▁腹足	-15339
▁绝大多数	-15340
▁虏	-15341
结合	-15342
▁李鸿	-15343
▁邮票	-15344
▁thom	-15345
▁优良	-15346
▁开战	-15347
▁伴声	-15348
▁厅长	-15349
▁保守派	-15350
▁自言自语	-15351
▁编为	-15352
▁唤	-15353
瑟琳	-15354
莱德	-15355
▁哥德	-15356
▁次郎	-15357
▁汇入	-15358
▁旭	-15359
埃及	-15360
▁后续	-15361
▁法西斯	-15362
▁阿姆斯特丹	-15363
交易	-15364
医学	-15365
少女	-15366
▁投身	-15367
▁市辖区	-15368
▁第十五	-15369
大夫	-15370
特律	-15371
▁天线	-15372
▁挤压	-15373
▁毛发	-15374
▁造反	-15375
▁阿特	-15376
▁巴拉圭	-15377
▁降水量	-15378
▁忙	-15379
可梦	-15380
▁幕下	-15381
秀吉	-15382
▁山下	-15383
▁百老	-15384
▁则会	-15385
▁激战	-15386
▁英皇	-15387
葫芦	-15388
gin	-15389
▁占有	-15390
▁无活	-15391
▁中为	-15392
▁利夫	-15393
▁库克	-15394
▁捍卫	-15395
▁黑森	-15396
▁fri	-15397
▁さ	-15398
▁崑	-15399
▁反之	-15400
▁房地产	-15401
▁增压	-15402
▁摩天	-15403
▁欧亚	-15404
▁骚扰	-15405
ision	-15406
人数	-15407
▁不慎	-15408
▁光碟	-15409
▁冠名	-15410
▁合计	-15411
▁塔利	-15412
▁违背	-15413
▁ッ	-15414
▁柜	-15415
▁官吏	-15416
▁自家	-15417
▁高宗	-15418
▁底特律	-15419
▁勿	-15420
▁棕色	-15421
形态	-15422
ole	-15423
▁双膈	-15424
▁基准	-15425
▁曾用	-15426
▁海啸	-15427
▁差不多	-15428
▁时光	-15429
▁文化部	-15430
▁愿望	-15431
berg	-15432
▁阿尔卑斯	-15433
▁岱	-15434
▁怎样	-15435
▁1881	-15436
托夫	-15437
尔摩	-15438
▁为准	-15439
▁千里	-15440
ano	-15441
▁鞍山	-15442
▁鞑靼	-15443
▁事务所	-15444
▁告别	-15445
▁法则	-15446
▁玉山	-15447
▁11%	-15448
▁多达	-15449
▁脑池	-15450
▁imp	-15451
▁将于	-15452
▁聚合物	-15453
▁美国国会	-15454
总管	-15455
▁做成	-15456
▁胎龄	-15457
▁该堂	-15458
▁乾隆帝	-15459
▁发布会	-15460
▁一楼	-15461
▁特朗	-15462
▁职权	-15463
▁147	-15464
▁制片人	-15465
▁十字架	-15466
▁地理位置	-15467
▁人会	-15468
▁感动	-15469
▁新石器	-15470
▁叔父	-15471
▁司铎	-15472
▁噪音	-15473
▁或许	-15474
▁多发性	-15475
▁第三方	-15476
▁1840	-15477
▁先是	-15478
▁大国	-15479
▁太保	-15480
▁子孙	-15481
▁热烈	-15482
▁诉近	-15483
▁8000	-15484
▁换气	-15485
▁车票	-15486
▁锤	-15487
报道	-15488
▁后勤	-15489
▁宇航员	-15490
速度	-15491
▁不准	-15492
▁公职	-15493
▁天安	-15494
▁无缘	-15495
▁法制	-15496
▁bus	-15497
▁制造商	-15498
▁矽	-15499
▁伯里	-15500
▁叶片	-15501
▁后易	-15502
▁设法	-15503
▁古斯塔	-15504
▁残疾人	-15505
yth	-15506
▁先知	-15507
▁养子	-15508
▁客户端	-15509
▁悟	-15510
▁泰坦	-15511
▁百强	-15512
▁聪明	-15513
▁远远	-15514
▁逃到	-15515
多个	-15516
▁侵入	-15517
文尼亚	-15518
▁尼克斯	-15519
▁长时间	-15520
▁line	-15521
易斯	-15522
▁境外	-15523
▁溶于	-15524
▁状元	-15525
玛丽	-15526
▁结业	-15527
▁舌质	-15528
▁前列	-15529
▁拉瓦	-15530
▁断裂	-15531
▁服从	-15532
▁值得一	-15533
▁朝鲜半岛	-15534
大池	-15535
▁年纪	-15536
▁手动	-15537
▁效能	-15538
▁unix	-15539
▁im	-15540
▁一站	-15541
▁估算	-15542
▁周五	-15543
▁手心	-15544
▁赫拉	-15545
▁下半年	-15546
▁优胜	-15547
▁宝石	-15548
▁总量	-15549
▁法轮	-15550
▁自理	-15551
▁科索沃	-15552
▁全称	-15553
▁我科	-15554
▁榜单	-15555
▁榜首	-15556
▁灯塔	-15557
▁lou	-15558
▁拉夫	-15559
▁正选	-15560
▁并开始	-15561
▁俩	-15562
▁下滑	-15563
▁勃艮	-15564
▁卡车	-15565
▁敌军	-15566
▁有伴	-15567
▁这首	-15568
▁sport	-15569
▁麒	-15570
▁出海	-15571
▁北韩	-15572
▁多万	-15573
▁特急	-15574
ated	-15575
ho	-15576
xy	-15577
▁两队	-15578
▁华丽	-15579
▁发光	-15580
▁投靠	-15581
▁校址	-15582
▁洛林	-15583
▁渗血	-15584
▁讯号	-15585
▁长约	-15586
▁δ	-15587
大师	-15588
▁也许	-15589
▁博客	-15590
▁启德	-15591
▁微数	-15592
▁文艺复兴	-15593
▁六项	-15594
▁厉害	-15595
气温	-15596
▁执照	-15597
▁石门	-15598
▁附有	-15599
▁修理	-15600
▁宣战	-15601
▁遣使	-15602
▁first	-15603
▁intel	-15604
▁拾	-15605
▁楔	-15606
▁楠	-15607
水县	-15608
▁储备	-15609
▁棉花	-15610
▁苑	-15611
▁座落	-15612
▁牙冠	-15613
▁多斯	-15614
▁葬礼	-15615
阿拉伯	-15616
▁修女	-15617
▁变异	-15618
▁圣诞节	-15619
▁中量	-15620
▁海因	-15621
▁沙特阿拉伯	-15622
▁之声	-15623
▁外出	-15624
▁帝王	-15625
▁握拳	-15626
▁时事	-15627
▁稀少	-15628
▁湾大学	-15629
▁藏传佛教	-15630
▁出狱	-15631
▁印度教	-15632
▁桦	-15633
卡尔	-15634
浦路	-15635
▁一番	-15636
▁三间	-15637
▁呼唤	-15638
▁宣扬	-15639
▁巴马州	-15640
▁最常见	-15641
▁演唱会	-15642
▁代表大会	-15643
▁庆典	-15644
▁瘘口	-15645
▁公安部	-15646
▁第十六	-15647
▁咒	-15648
达成	-15649
▁陆上	-15650
▁162	-15651
▁偶闻	-15652
▁发酵	-15653
▁咧嘴	-15654
▁大碟	-15655
▁苏拉	-15656
博物馆	-15657
▁未成年	-15658
▁1874	-15659
▁玛格丽特	-15660
▁谏	-15661
ris	-15662
▁小时候	-15663
▁cont	-15664
▁丝绸	-15665
▁向下	-15666
▁奇异	-15667
▁海伦	-15668
▁金朝	-15669
▁phil	-15670
▁格拉斯哥	-15671
▁扭转	-15672
▁取决于	-15673
▁this	-15674
▁蜗牛	-15675
▁该次	-15676
▁眼球	-15677
▁重创	-15678
▁有轨电车	-15679
▁richard	-15680
▁武帝	-15681
▁病例	-15682
▁耗资	-15683
▁马力	-15684
▁布莱克	-15685
▁dire	-15686
一样	-15687
嵌体	-15688
▁ko	-15689
▁平片	-15690
▁绑架	-15691
▁机务段	-15692
▁阿拉伯人	-15693
▁乡道	-15694
▁施政	-15695
▁未闭	-15696
▁led	-15697
理事	-15698
▁匀齐	-15699
▁各段	-15700
▁塞纳	-15701
▁尿床	-15702
▁柔道	-15703
▁高嵌体	-15704
▁good	-15705
▁冠军联赛	-15706
▁莆	-15707
▁宫外	-15708
▁斯德	-15709
▁精通	-15710
▁联手	-15711
▁瑶	-15712
本线	-15713
rop	-15714
▁外星人	-15715
▁college	-15716
战斗	-15717
透声	-15718
▁交出	-15719
▁疤痕	-15720
▁立面	-15721
▁红点	-15722
▁内分泌	-15723
▁は	-15724
调查	-15725
▁伯明	-15726
▁分队	-15727
▁大成	-15728
▁心肌	-15729
▁腺瘤	-15730
▁茶色	-15731
▁血型	-15732
▁韩语	-15733
▁东非	-15734
▁国子	-15735
▁活化	-15736
▁多项式	-15737
▁间歇性	-15738
▁加油	-15739
▁商船	-15740
▁大为	-15741
▁政法	-15742
▁西州	-15743
▁tor	-15744
▁associ	-15745
发行	-15746
▁相差	-15747
▁内透声	-15748
▁测体温	-15749
▁一律	-15750
▁场馆	-15751
▁峰值	-15752
▁来潮	-15753
▁年馀前	-15754
▁第四名	-15755
▁垦	-15756
信息	-15757
园区	-15758
▁特洛	-15759
▁纪元	-15760
▁搜查	-15761
▁tim	-15762
▁π	-15763
▁酵	-15764
▁au	-15765
▁一轮	-15766
▁不设	-15767
▁效忠	-15768
▁陌生	-15769
▁李登辉	-15770
▁电视节目	-15771
▁客运专线	-15772
吉斯	-15773
▁宗座	-15774
▁爱的	-15775
▁帕克	-15776
▁手稿	-15777
▁魔鬼	-15778
▁西雅图	-15779
▁北爱尔兰	-15780
▁george	-15781
▁诊所	-15782
▁电子鼻	-15783
▁农历	-15784
▁埃里克	-15785
▁东华	-15786
▁动漫	-15787
▁瑞克	-15788
▁男友	-15789
▁pub	-15790
▁戚	-15791
▁迭	-15792
▁全景	-15793
▁名胜	-15794
▁周轻	-15795
▁微小	-15796
▁燃油	-15797
▁韩民国	-15798
▁west	-15799
▁今有	-15800
▁利特	-15801
▁宿主	-15802
▁更多	-15803
▁莫里	-15804
▁143	-15805
▁绞	-15806
▁譬	-15807
▁专线	-15808
▁史称	-15809
▁牙胚	-15810
▁布鲁克	-15811
▁视角	-15812
▁颅脑	-15813
▁癫痫病	-15814
德兰	-15815
▁七世	-15816
▁犯人	-15817
▁离散	-15818
▁米哈	-15819
▁值得一提	-15820
▁下一	-15821
▁剪辑	-15822
▁坚定	-15823
▁觉有	-15824
▁镇江	-15825
▁做作业	-15826
▁挑战赛	-15827
二便	-15828
▁出面	-15829
▁弧菌	-15830
▁救护	-15831
▁管治	-15832
▁絮状	-15833
▁峨	-15834
▁勇者	-15835
▁单个	-15836
▁二楼	-15837
▁布洛	-15838
▁阻挡	-15839
▁下议院	-15840
专业	-15841
滋病	-15842
▁ck	-15843
▁功臣	-15844
▁天主	-15845
▁hall	-15846
瑞克	-15847
▁四百	-15848
▁狸	-15849
▁开源	-15850
▁视察	-15851
▁马其	-15852
▁les	-15853
▁潜伏期	-15854
▁陞	-15855
后续	-15856
数据	-15857
王国	-15858
▁南港	-15859
▁收看	-15860
▁减小	-15861
▁地板	-15862
▁跨国	-15863
▁蒙特利	-15864
▁枪击	-15865
▁预先	-15866
▁7000	-15867
▁臂	-15868
航天	-15869
▁文集	-15870
▁会战	-15871
▁所指	-15872
▁本赛	-15873
▁gar	-15874
▁宝可梦	-15875
▁成都市	-15876
十字	-15877
▁水力	-15878
▁渡过	-15879
▁野外	-15880
▁斯巴达	-15881
▁泾	-15882
▁閒	-15883
工会	-15884
iew	-15885
▁wi	-15886
▁国小	-15887
▁武警	-15888
▁浓厚	-15889
▁全垒	-15890
▁节省	-15891
▁project	-15892
▁瘫	-15893
克莱	-15894
▁数周	-15895
▁李世	-15896
▁第五次	-15897
▁1872	-15898
▁巴伐利亚州	-15899
▁佩斯	-15900
▁长篇	-15901
▁高效	-15902
四个	-15903
▁内核	-15904
▁英冠	-15905
研究院	-15906
▁美少女	-15907
▁miss	-15908
do	-15909
▁nt	-15910
▁残酷	-15911
▁麻省	-15912
▁变小	-15913
▁商会	-15914
▁在世	-15915
▁妥协	-15916
▁称谓	-15917
▁能降	-15918
粤语	-15919
▁事迹	-15920
▁学园	-15921
▁温和	-15922
▁潜力	-15923
▁12%	-15924
威特	-15925
ami	-15926
湿罗音	-15927
ator	-15928
▁高加索	-15929
▁据称	-15930
▁被视	-15931
▁剔	-15932
▁殴	-15933
▁佛像	-15934
▁换取	-15935
▁street	-15936
▁у	-15937
▁蟾	-15938
▁淤积	-15939
▁英美	-15940
▁陵墓	-15941
bn	-15942
▁隶	-15943
▁潮流	-15944
▁重用	-15945
▁中国人	-15946
▁中未见	-15947
▁留学生	-15948
▁泸	-15949
可能	-15950
▁同胞	-15951
▁巡视	-15952
▁古埃及	-15953
▁宣传部	-15954
▁1863	-15955
▁乍	-15956
▁梭	-15957
▁建构	-15958
▁文昌	-15959
▁赏识	-15960
▁克拉斯	-15961
li	-15962
▁鸠	-15963
彼得	-15964
▁rv	-15965
▁无罪	-15966
▁喀什	-15967
▁武德	-15968
▁至元	-15969
▁摩泽尔	-15970
▁醋	-15971
装置	-15972
▁大明	-15973
▁太祖	-15974
▁历年	-15975
▁受命	-15976
▁平静	-15977
▁标语	-15978
▁究竟	-15979
▁退化	-15980
▁勃艮第	-15981
▁3%	-15982
▁停泊	-15983
▁其母	-15984
▁首支	-15985
▁1400	-15986
▁脏	-15987
▁女真	-15988
▁张个	-15989
▁所生	-15990
▁马其顿	-15991
▁好像	-15992
▁涂装	-15993
▁师师长	-15994
▁无鼻扇	-15995
▁franc	-15996
文件	-15997
▁气味	-15998
▁特罗	-15999
▁缓冲	-16000
▁认真	-16001
▁较少	-16002
▁不畅	-16003
▁植被	-16004
▁紫外	-16005
▁回忆录	-16006
▁蕃	-16007
党籍	-16008
▁三子	-16009
▁人知	-16010
▁发车	-16011
▁西端	-16012
▁阿兹	-16013
▁学生会	-16014
学科	-16015
▁分拆	-16016
▁拥立	-16017
▁wii	-16018
▁宁波市	-16019
▁总公司	-16020
▁竞技场	-16021
▁伊藤	-16022
▁合一	-16023
▁欧拉	-16024
▁气急	-16025
▁傀	-16026
▁陛	-16027
▁7%	-16028
▁库斯	-16029
▁甲第	-16030
▁凯尔特	-16031
▁三日	-16032
▁国人	-16033
▁揭幕	-16034
▁特许	-16035
▁该处	-16036
▁205	-16037
▁变数	-16038
▁干道	-16039
▁引致	-16040
▁中是	-16041
▁分治	-16042
▁街市	-16043
▁跳舞	-16044
▁www	-16045
▁作画	-16046
▁阿格	-16047
▁ger	-16048
▁埗	-16049
▁宫中	-16050
▁无机	-16051
▁猜测	-16052
▁玉环	-16053
▁罹患	-16054
▁65%	-16055
▁读音	-16056
▁沃尔夫	-16057
▁沐	-16058
乌斯	-16059
▁收获	-16060
▁牙片	-16061
▁裙	-16062
▁古墓	-16063
▁录像	-16064
▁格利	-16065
▁美好	-16066
▁古生物	-16067
▁偶可	-16068
▁城巴	-16069
▁大不	-16070
▁劳伦斯	-16071
▁曾效力	-16072
▁相对论	-16073
▁借助	-16074
▁天启	-16075
▁预选	-16076
▁饱满	-16077
▁太宗	-16078
▁九十	-16079
▁亲戚	-16080
▁凯文	-16081
▁守卫	-16082
▁环流	-16083
▁艾哈	-16084
▁组织部	-16085
▁路易十	-16086
控制	-16087
▁假如	-16088
▁凯撒	-16089
▁弹道	-16090
▁电铁	-16091
▁euro	-16092
▁海尔	-16093
▁金币	-16094
ates	-16095
▁太阳能	-16096
▁自卫队	-16097
▁滙	-16098
▁抑郁	-16099
▁闯入	-16100
▁假面	-16101
▁心情	-16102
▁继母	-16103
ific	-16104
▁许多人	-16105
▁厨房	-16106
▁多明	-16107
▁这款	-16108
▁鲷科	-16109
▁南开大学	-16110
▁曾孙	-16111
▁国民革命军	-16112
ren	-16113
▁器材	-16114
▁墓葬	-16115
▁迪南	-16116
▁锂	-16117
胜出	-16118
▁千代	-16119
▁链接	-16120
▁苔白厚	-16121
▁朋	-16122
不断	-16123
▁上尉	-16124
▁因斯	-16125
▁隆庆	-16126
▁饮用	-16127
▁托尔金	-16128
▁豁	-16129
▁rh	-16130
▁有如	-16131
▁满分	-16132
▁电视网	-16133
▁汞	-16134
▁羞	-16135
▁开心	-16136
▁库尔德	-16137
▁进行性	-16138
▁こ	-16139
▁凯莉	-16140
▁取胜	-16141
▁离职	-16142
科大学	-16143
▁bri	-16144
▁sim	-16145
▁牛肉	-16146
▁特质	-16147
▁琉璃	-16148
▁瓦特	-16149
▁通商	-16150
▁一字	-16151
▁出国	-16152
▁解剖	-16153
▁第十七	-16154
▁误差	-16155
▁司令官	-16156
讯息	-16157
▁从来	-16158
▁憋气	-16159
▁新民	-16160
▁渴望	-16161
▁照相	-16162
▁做好	-16163
▁始发	-16164
协商会议	-16165
▁窥	-16166
▁乙肝	-16167
▁即为	-16168
▁sky	-16169
▁康斯坦	-16170
▁分叉	-16171
▁搞笑	-16172
▁配偶	-16173
▁诸葛亮	-16174
大赛	-16175
▁叙事	-16176
▁苏黎	-16177
▁雇佣	-16178
▁桶	-16179
▁打死	-16180
▁样子	-16181
sch	-16182
▁世人	-16183
▁法文	-16184
▁167	-16185
▁mtv	-16186
ery	-16187
▁奇怪	-16188
▁无视	-16189
▁滥用	-16190
▁自述	-16191
▁计数	-16192
▁鲜红色	-16193
▁中国中央	-16194
▁十个	-16195
▁多尼	-16196
▁mem	-16197
▁神学院	-16198
▁路易斯安那州	-16199
▁瀛	-16200
坦克	-16201
▁主修	-16202
▁叛变	-16203
▁掀起	-16204
▁标注	-16205
▁每集	-16206
▁米亚	-16207
▁半决赛	-16208
▁mont	-16209
▁一九	-16210
▁军民	-16211
▁启蒙	-16212
▁致病菌	-16213
▁咽镜	-16214
▁混音	-16215
▁该岛	-16216
▁边防	-16217
▁拉丁语	-16218
▁坠毁	-16219
▁约合	-16220
▁近亲	-16221
▁威廉斯	-16222
▁ivig	-16223
▁八强	-16224
▁则由	-16225
▁罗杰	-16226
▁mid	-16227
▁奥克兰	-16228
▁桌面	-16229
▁atp	-16230
▁万人次	-16231
ru	-16232
▁σ	-16233
▁鎌	-16234
景点	-16235
▁同等	-16236
▁沦陷	-16237
▁抚养	-16238
▁马萨诸	-16239
▁印第安人	-16240
▁武汉大学	-16241
▁患牙	-16242
▁抗缪	-16243
▁抗缪勒氏管	-16244
▁分院	-16245
▁反驳	-16246
▁繁体	-16247
▁陶器	-16248
ford	-16249
▁停播	-16250
▁对决	-16251
▁索马里	-16252
▁韦斯	-16253
▁汉武帝	-16254
▁gund	-16255
▁二十世纪	-16256
include	-16257
▁	-16258
,	-16259
。	-16260
无	-16261
1	-16262
的	-16263
音	-16264
0	-16265
2	-16266
史	-16267
、	-16268
有	-16269
发	-16270
大	-16271
体	-16272
病	-16273
未	-16274
查	-16275
常	-16276
现	-16277
3	-16278
及	-16279
神	-16280
检	-16281
年	-16282
吸	-16283
r	-16284
9	-16285
呼	-16286
热	-16287
一	-16288
心	-16289
双	-16290
主	-16291
天	-16292
咳	-16293
在	-16294
可	-16295
5	-16296
为	-16297
正	-16298
6	-16299
格	-16300
腹	-16301
中	-16302
c	-16303
/	-16304
见	-16305
嗽	-16306
m	-16307
8	-16308
4	-16309
人	-16310
诉	-16311
\	-16312
清	-16313
物	-16314
分	-16315
p	-16316
l	-16317
是	-16318
a	-16319
t	-16320
:	-16321
国	-16322
肺	-16323
i	-16324
便	-16325
次	-16326
力	-16327
血	-16328
软	-16329
不	-16330
小	-16331
流	-16332
月	-16333
平	-16334
7	-16335
反	-16336
s	-16337
于	-16338
出	-16339
咽	-16340
过	-16341
e	-16342
肢	-16343
认	-16344
皮	-16345
n	-16346
后	-16347
粗	-16348
律	-16349
鸣	-16350
精	-16351
b	-16352
否	-16353
涕	-16354
疹	-16355
g	-16356
部	-16357
和	-16358
日	-16359
时	-16360
齐	-16361
药	-16362
前	-16363
敏	-16364
闻	-16365
o	-16366
d	-16367
以	-16368
性	-16369
应	-16370
痛	-16371
充	-16372
红	-16373
动	-16374
上	-16375
h	-16376
顺	-16377
个	-16378
痰	-16379
会	-16380
学	-16381
纳	-16382
四	-16383
了	-16384
明	-16385
肿	-16386
地	-16387
气	-16388
多	-16389
下	-16390
肠	-16391
度	-16392
成	-16393
行	-16394
暖	-16395
侧	-16396
生	-16397
包	-16398
异	-16399
口	-16400
好	-16401
公	-16402
吐	-16403
间	-16404
区	-16405
他	-16406
外	-16407
胃	-16408
;	-16409
呕	-16410
鼻	-16411
家	-16412
与	-16413
伴	-16414
罗	-16415
斯	-16416
其	-16417
面	-16418
位	-16419
内	-16420
之	-16421
作	-16422
经	-16423
接	-16424
对	-16425
名	-16426
显	-16427
手	-16428
开	-16429
方	-16430
助	-16431
喘	-16432
尔	-16433
用	-16434
全	-16435
端	-16436
触	-16437
自	-16438
特	-16439
等	-16440
啰	-16441
院	-16442
子	-16443
高	-16444
声	-16445
长	-16446
率	-16447
到	-16448
第	-16449
所	-16450
来	-16451
西	-16452
塞	-16453
《	-16454
绀	-16455
扁	-16456
道	-16457
杂	-16458
点	-16459
块	-16460
抽	-16461
°	-16462
豆	-16463
u	-16464
辅	-16465
》	-16466
三	-16467
而	-16468
周	-16469
桃	-16470
搐	-16471
蚕	-16472
军	-16473
理	-16474
由	-16475
同	-16476
促	-16477
足	-16478
法	-16479
本	-16480
般	-16481
结	-16482
里	-16483
并	-16484
被	-16485
民	-16486
儿	-16487
+	-16488
活	-16489
要	-16490
南	-16491
·	-16492
市	-16493
期	-16494
这	-16495
入	-16496
干	-16497
合	-16498
压	-16499
因	-16500
加	-16501
政	-16502
利	-16503
%	-16504
最	-16505
色	-16506
白	-16507
战	-16508
峰	-16509
新	-16510
任	-16511
二	-16512
患	-16513
脓	-16514
少	-16515
数	-16516
w	-16517
阴	-16518
文	-16519
能	-16520
进	-16521
北	-16522
约	-16523
增	-16524
复	-16525
「	-16526
」	-16527
水	-16528
德	-16529
东	-16530
量	-16531
员	-16532
表	-16533
海	-16534
称	-16535
克	-16536
息	-16537
电	-16538
台	-16539
亚	-16540
代	-16541
治	-16542
管	-16543
也	-16544
规	-16545
至	-16546
回	-16547
影	-16548
建	-16549
稍	-16550
美	-16551
乳	-16552
系	-16553
此	-16554
得	-16555
志	-16556
当	-16557
f	-16558
意	-16559
“	-16560
化	-16561
始	-16562
身	-16563
机	-16564
C	-16565
立	-16566
事	-16567
通	-16568
张	-16569
巴	-16570
教	-16571
路	-16572
诊	-16573
山	-16574
拉	-16575
布	-16576
车	-16577
重	-16578
定	-16579
两	-16580
如	-16581
安	-16582
将	-16583
工	-16584
科	-16585
起	-16586
头	-16587
存	-16588
世	-16589
球	-16590
该	-16591
州	-16592
者	-16593
统	-16594
牙	-16595
但	-16596
光	-16597
马	-16598
号	-16599
线	-16600
细	-16601
缺	-16602
形	-16603
制	-16604
"	-16605
比	-16606
业	-16607
十	-16608
赛	-16609
种	-16610
食	-16611
达	-16612
状	-16613
近	-16614
使	-16615
肌	-16616
感	-16617
湿	-16618
类	-16619
场	-16620
总	-16621
队	-16622
共	-16623
秒	-16624
曾	-16625
式	-16626
产	-16627
宫	-16628
设	-16629
原	-16630
县	-16631
征	-16632
组	-16633
右	-16634
基	-16635
运	-16636
相	-16637
都	-16638
左	-16639
关	-16640
颈	-16641
站	-16642
联	-16643
级	-16644
属	-16645
v	-16646
士	-16647
胀	-16648
目	-16649
膜	-16650
往	-16651
跳	-16652
泻	-16653
片	-16654
米	-16655
断	-16656
k	-16657
整	-16658
城	-16659
改	-16660
则	-16661
王	-16662
乏	-16663
省	-16664
或	-16665
就	-16666
支	-16667
司	-16668
今	-16669
英	-16670
门	-16671
症	-16672
阵	-16673
金	-16674
提	-16675
尼	-16676
华	-16677
语	-16678
半	-16679
黄	-16680
已	-16681
府	-16682
单	-16683
列	-16684
视	-16685
变	-16686
尚	-16687
兰	-16688
样	-16689
计	-16690
选	-16691
指	-16692
实	-16693
排	-16694
疱	-16695
们	-16696
y	-16697
质	-16698
镇	-16699
示	-16700
馀	-16701
界	-16702
元	-16703
型	-16704
连	-16705
传	-16706
许	-16707
女	-16708
港	-16709
向	-16710
阿	-16711
从	-16712
信	-16713
带	-16714
求	-16715
首	-16716
星	-16717
胞	-16718
林	-16719
议	-16720
演	-16721
然	-16722
处	-16723
件	-16724
角	-16725
积	-16726
粘	-16727
团	-16728
佳	-16729
每	-16730
×	-16731
乐	-16732
程	-16733
交	-16734
转	-16735
情	-16736
参	-16737
说	-16738
直	-16739
受	-16740
务	-16741
书	-16742
节	-16743
剧	-16744
解	-16745
禽	-16746
服	-16747
腺	-16748
较	-16749
烂	-16750
广	-16751
保	-16752
义	-16753
委	-16754
术	-16755
着	-16756
温	-16757
集	-16758
卡	-16759
维	-16760
均	-16761
打	-16762
<	-16763
^	-16764
河	-16765
导	-16766
低	-16767
育	-16768
腔	-16769
没	-16770
各	-16771
寒	-16772
炎	-16773
难	-16774
湾	-16775
*	-16776
五	-16777
强	-16778
扪	-16779
香	-16780
些	-16781
态	-16782
尿	-16783
党	-16784
液	-16785
获	-16786
疗	-16787
抗	-16788
x	-16789
波	-16790
图	-16791
持	-16792
空	-16793
唇	-16794
素	-16795
族	-16796
字	-16797
太	-16798
万	-16799
还	-16800
校	-16801
夫	-16802
品	-16803
殊	-16804
超	-16805
凹	-16806
社	-16807
岛	-16808
铁	-16809
退	-16810
肤	-16811
领	-16812
欠	-16813
更	-16814
适	-16815
展	-16816
局	-16817
江	-16818
围	-16819
朝	-16820
师	-16821
古	-16822
官	-16823
别	-16824
完	-16825
眼	-16826
游	-16827
奥	-16828
命	-16829
既	-16830
轻	-16831
差	-16832
只	-16833
肝	-16834
取	-16835
专	-16836
举	-16837
夜	-16838
造	-16839
风	-16840
非	-16841
洲	-16842
纪	-16843
据	-16844
报	-16845
击	-16846
论	-16847
偶	-16848
曲	-16849
普	-16850
初	-16851
容	-16852
附	-16853
密	-16854
膈	-16855
资	-16856
京	-16857
边	-16858
石	-16859
标	-16860
历	-16861
稀	-16862
环	-16863
泌	-16864
又	-16865
条	-16866
脾	-16867
它	-16868
构	-16869
放	-16870
置	-16871
果	-16872
模	-16873
淋	-16874
射	-16875
根	-16876
记	-16877
观	-16878
确	-16879
阳	-16880
百	-16881
调	-16882
滑	-16883
际	-16884
离	-16885
再	-16886
昨	-16887
研	-16888
苏	-16889
速	-16890
即	-16891
易	-16892
抖	-16893
权	-16894
龙	-16895
决	-16896
考	-16897
村	-16898
肋	-16899
母	-16900
去	-16901
收	-16902
她	-16903
先	-16904
知	-16905
我	-16906
续	-16907
甲	-16908
伊	-16909
商	-16910
居	-16911
版	-16912
武	-16913
引	-16914
脑	-16915
毛	-16916
股	-16917
织	-16918
失	-16919
段	-16920
器	-16921
乡	-16922
喷	-16923
亲	-16924
辖	-16925
创	-16926
座	-16927
括	-16928
职	-16929
述	-16930
纹	-16931
早	-16932
李	-16933
言	-16934
花	-16935
抵	-16936
室	-16937
除	-16938
胸	-16939
畅	-16940
歌	-16941
囊	-16942
福	-16943
野	-16944
仍	-16945
办	-16946
临	-16947
欲	-16948
究	-16949
致	-16950
六	-16951
染	-16952
陆	-16953
网	-16954
末	-16955
跃	-16956
令	-16957
且	-16958
岁	-16959
派	-16960
画	-16961
z	-16962
层	-16963
范	-16964
随	-16965
亦	-16966
题	-16967
兵	-16968
圣	-16969
功	-16970
问	-16971
给	-16972
域	-16973
哭	-16974
汉	-16975
威	-16976
季	-16977
溃	-16978
帝	-16979
装	-16980
播	-16981
睡	-16982
塔	-16983
沟	-16984
脱	-16985
父	-16986
编	-16987
宗	-16988
争	-16989
试	-16990
园	-16991
协	-16992
松	-16993
爱	-16994
青	-16995
奖	-16996
探	-16997
营	-16998
嚏	-16999
核	-17000
嘶	-17001
氏	-17002
医	-17003
很	-17004
划	-17005
项	-17006
修	-17007
八	-17008
消	-17009
土	-17010
担	-17011
护	-17012
戏	-17013
另	-17014
推	-17015
独	-17016
具	-17017
萨	-17018
移	-17019
希	-17020
响	-17021
晰	-17022
宣	-17023
死	-17024
降	-17025
落	-17026
象	-17027
疡	-17028
效	-17029
客	-17030
终	-17031
惊	-17032
班	-17033
冒	-17034
眠	-17035
卫	-17036
话	-17037
欧	-17038
投	-17039
晚	-17040
洛	-17041
录	-17042
限	-17043
厚	-17044
沙	-17045
雷	-17046
供	-17047
馆	-17048
哈	-17049
源	-17050
深	-17051
准	-17052
备	-17053
勒	-17054
兴	-17055
吉	-17056
男	-17057
酸	-17058
己	-17059
博	-17060
减	-17061
瓦	-17062
九	-17063
案	-17064
↑	-17065
例	-17066
蛋	-17067
疼	-17068
街	-17069
印	-17070
陈	-17071
伦	-17072
测	-17073
卵	-17074
住	-17075
份	-17076
闹	-17077
济	-17078
负	-17079
升	-17080
伯	-17081
j	-17082
湖	-17083
田	-17084
攻	-17085
责	-17086
故	-17087
那	-17088
鱼	-17089
群	-17090
告	-17091
众	-17092
极	-17093
快	-17094
火	-17095
醒	-17096
听	-17097
泡	-17098
航	-17099
呈	-17100
诺	-17101
紫	-17102
副	-17103
散	-17104
予	-17105
脉	-17106
艺	-17107
莱	-17108
黑	-17109
皇	-17110
暂	-17111
技	-17112
糊	-17113
继	-17114
境	-17115
鲁	-17116
评	-17117
翻	-17118
□	-17119
困	-17120
步	-17121
需	-17122
弹	-17123
壁	-17124
注	-17125
舌	-17126
黏	-17127
费	-17128
切	-17129
飞	-17130
堂	-17131
七	-17132
房	-17133
真	-17134
越	-17135
陷	-17136
登	-17137
证	-17138
川	-17139
请	-17140
值	-17141
床	-17142
写	-17143
哥	-17144
突	-17145
老	-17146
奇	-17147
几	-17148
苍	-17149
央	-17150
走	-17151
验	-17152
留	-17153
像	-17154
才	-17155
圆	-17156
养	-17157
配	-17158
筑	-17159
斑	-17160
止	-17161
何	-17162
席	-17163
绝	-17164
底	-17165
拔	-17166
采	-17167
防	-17168
千	-17169
托	-17170
索	-17171
锐	-17172
看	-17173
习	-17174
施	-17175
油	-17176
让	-17177
盟	-17178
杀	-17179
激	-17180
宽	-17181
冠	-17182
顿	-17183
森	-17184
想	-17185
镜	-17186
木	-17187
良	-17188
警	-17189
—	-17190
楼	-17191
停	-17192
舰	-17193
洋	-17194
况	-17195
○	-17196
景	-17197
虑	-17198
康	-17199
届	-17200
扩	-17201
桥	-17202
粒	-17203
姆	-17204
微	-17205
贝	-17206
满	-17207
做	-17208
察	-17209
泰	-17210
农	-17211
刘	-17212
曼	-17213
乌	-17214
板	-17215
仅	-17216
料	-17217
延	-17218
远	-17219
佛	-17220
控	-17221
宁	-17222
辑	-17223
恩	-17224
把	-17225
友	-17226
埃	-17227
诱	-17228
蒙	-17229
梅	-17230
银	-17231
批	-17232
唱	-17233
伤	-17234
库	-17235
迪	-17236
叶	-17237
云	-17238
隔	-17239
俄	-17240
票	-17241
恶	-17242
坦	-17243
胜	-17244
承	-17245
囟	-17246
败	-17247
念	-17248
革	-17249
_	-17250
呛	-17251
词	-17252
稳	-17253
算	-17254
输	-17255
祖	-17256
孔	-17257
思	-17258
授	-17259
频	-17260
丝	-17261
典	-17262
照	-17263
预	-17264
简	-17265
孕	-17266
含	-17267
载	-17268
守	-17269
执	-17270
喉	-17271
韩	-17272
菌	-17273
藏	-17274
透	-17275
龈	-17276
户	-17277
烈	-17278
似	-17279
瑞	-17280
杨	-17281
肛	-17282
依	-17283
盈	-17284
破	-17285
↓	-17286
背	-17287
识	-17288
督	-17289
裂	-17290
势	-17291
望	-17292
鸟	-17293
价	-17294
夏	-17295
睾	-17296
章	-17297
封	-17298
按	-17299
麦	-17300
奶	-17301
晨	-17302
肉	-17303
损	-17304
匀	-17305
隆	-17306
草	-17307
富	-17308
牌	-17309
遗	-17310
婚	-17311
莫	-17312
监	-17313
露	-17314
澳	-17315
丸	-17316
丁	-17317
候	-17318
丹	-17319
虽	-17320
却	-17321
短	-17322
永	-17323
径	-17324
讲	-17325
堡	-17326
拿	-17327
船	-17328
善	-17329
斗	-17330
刺	-17331
丽	-17332
喜	-17333
必	-17334
邦	-17335
润	-17336
宝	-17337
脏	-17338
植	-17339
唐	-17340
盖	-17341
苔	-17342
暴	-17343
偏	-17344
颜	-17345
纵	-17346
换	-17347
庆	-17348
灵	-17349
觉	-17350
优	-17351
庄	-17352
厂	-17353
旧	-17354
读	-17355
钟	-17356
郡	-17357
树	-17358
弟	-17359
巢	-17360
寺	-17361
沿	-17362
旅	-17363
蒂	-17364
轮	-17365
拥	-17366
礼	-17367
午	-17368
占	-17369
耳	-17370
嘉	-17371
描	-17372
久	-17373
略	-17374
滤	-17375
朗	-17376
毕	-17377
逐	-17378
玩	-17379
龋	-17380
肾	-17381
痒	-17382
店	-17383
严	-17384
岸	-17385
架	-17386
厅	-17387
q	-17388
雄	-17389
骨	-17390
渐	-17391
摄	-17392
杰	-17393
售	-17394
春	-17395
距	-17396
符	-17397
亡	-17398
归	-17399
艾	-17400
判	-17401
补	-17402
枪	-17403
弗	-17404
缓	-17405
混	-17406
窝	-17407
练	-17408
遭	-17409
秘	-17410
吴	-17411
静	-17412
菲	-17413
码	-17414
孙	-17415
送	-17416
避	-17417
籍	-17418
策	-17419
梢	-17420
耶	-17421
毒	-17422
尾	-17423
序	-17424
顶	-17425
>	-17426
帕	-17427
固	-17428
摩	-17429
役	-17430
赫	-17431
楚	-17432
旗	-17433
脐	-17434
须	-17435
丰	-17436
乱	-17437
若	-17438
免	-17439
束	-17440
冲	-17441
酒	-17442
销	-17443
阶	-17444
乘	-17445
健	-17446
庭	-17447
什	-17448
}	-17449
{	-17450
雅	-17451
追	-17452
假	-17453
宋	-17454
叩	-17455
!	-17456
智	-17457
甚	-17458
玛	-17459
泽	-17460
硬	-17461
胡	-17462
鲜	-17463
潮	-17464
秀	-17465
署	-17466
淡	-17467
卢	-17468
亿	-17469
兼	-17470
救	-17471
急	-17472
诗	-17473
译	-17474
尽	-17475
款	-17476
荣	-17477
驻	-17478
劳	-17479
妇	-17480
沃	-17481
循	-17482
疑	-17483
畏	-17484
启	-17485
饰	-17486
拍	-17487
津	-17488
贵	-17489
味	-17490
绿	-17491
纽	-17492
签	-17493
害	-17494
杜	-17495
牛	-17496
齿	-17497
迁	-17498
坐	-17499
尺	-17500
颗	-17501
躁	-17502
韦	-17503
臣	-17504
晋	-17505
暗	-17506
兹	-17507
夺	-17508
朱	-17509
购	-17510
培	-17511
谷	-17512
财	-17513
'	-17514
烦	-17515
训	-17516
额	-17517
杯	-17518
怀	-17519
玉	-17520
释	-17521
互	-17522
爆	-17523
黎	-17524
柱	-17525
闭	-17526
险	-17527
舞	-17528
宾	-17529
仁	-17530
廓	-17531
盛	-17532
欢	-17533
罪	-17534
冷	-17535
企	-17536
媒	-17537
凯	-17538
缩	-17539
童	-17540
映	-17541
著	-17542
粉	-17543
廷	-17544
谢	-17545
详	-17546
屋	-17547
讯	-17548
紧	-17549
轨	-17550
援	-17551
课	-17552
货	-17553
尖	-17554
审	-17555
恒	-17556
访	-17557
巨	-17558
蓝	-17559
替	-17560
套	-17561
介	-17562
昌	-17563
够	-17564
币	-17565
址	-17566
缘	-17567
梁	-17568
材	-17569
叫	-17570
乔	-17571
荷	-17572
君	-17573
孩	-17574
仪	-17575
疾	-17576
=	-17577
挥	-17578
溪	-17579
穿	-17580
溢	-17581
庙	-17582
返	-17583
坡	-17584
翼	-17585
愿	-17586
邻	-17587
腋	-17588
禁	-17589
借	-17590
郑	-17591
跟	-17592
徒	-17593
休	-17594
拜	-17595
杆	-17596
益	-17597
皆	-17598
彩	-17599
敦	-17600
绩	-17601
瞳	-17602
郎	-17603
辆	-17604
巡	-17605
敌	-17606
慢	-17607
倒	-17608
诸	-17609
茎	-17610
隶	-17611
申	-17612
旋	-17613
讨	-17614
刻	-17615
翰	-17616
锦	-17617
某	-17618
冰	-17619
途	-17620
穆	-17621
氧	-17622
霍	-17623
幼	-17624
漫	-17625
坏	-17626
撤	-17627
找	-17628
贫	-17629
献	-17630
洞	-17631
你	-17632
羽	-17633
幕	-17634
帮	-17635
糙	-17636
胎	-17637
遇	-17638
赵	-17639
竞	-17640
聚	-17641
刊	-17642
浮	-17643
召	-17644
横	-17645
佩	-17646
宇	-17647
喂	-17648
殿	-17649
胆	-17650
私	-17651
爵	-17652
待	-17653
汗	-17654
炮	-17655
袭	-17656
逃	-17657
亮	-17658
奉	-17659
络	-17660
犯	-17661
燥	-17662
危	-17663
捕	-17664
雨	-17665
唯	-17666
震	-17667
洪	-17668
戈	-17669
靠	-17670
择	-17671
迫	-17672
岩	-17673
钱	-17674
浓	-17675
刚	-17676
衣	-17677
废	-17678
魔	-17679
操	-17680
佔	-17681
茨	-17682
刑	-17683
析	-17684
么	-17685
妈	-17686
尤	-17687
盘	-17688
乎	-17689
●	-17690
阻	-17691
|	-17692
顾	-17693
脂	-17694
雪	-17695
萌	-17696
宪	-17697
竹	-17698
忠	-17699
搏	-17700
糖	-17701
御	-17702
娜	-17703
?	-17704
浅	-17705
麻	-17706
灭	-17707
繁	-17708
肯	-17709
坑	-17710
迷	-17711
赤	-17712
兄	-17713
哑	-17714
订	-17715
骑	-17716
龟	-17717
妻	-17718
坚	-17719
剑	-17720
姓	-17721
徐	-17722
汇	-17723
贡	-17724
浙	-17725
栖	-17726
针	-17727
龄	-17728
综	-17729
吃	-17730
融	-17731
芬	-17732
残	-17733
犬	-17734
貌	-17735
柏	-17736
侵	-17737
谈	-17738
毁	-17739
虫	-17740
桑	-17741
谋	-17742
陵	-17743
泛	-17744
辛	-17745
惠	-17746
误	-17747
扎	-17748
汽	-17749
秋	-17750
姐	-17751
纲	-17752
颅	-17753
炸	-17754
殖	-17755
灶	-17756
池	-17757
篇	-17758
孢	-17759
戴	-17760
鳍	-17761
峡	-17762
董	-17763
珠	-17764
隐	-17765
努	-17766
墨	-17767
拒	-17768
甘	-17769
狭	-17770
础	-17771
障	-17772
买	-17773
幅	-17774
卧	-17775
瘙	-17776
鼾	-17777
舍	-17778
泉	-17779
渗	-17780
绍	-17781
绪	-17782
渣	-17783
默	-17784
腊	-17785
卷	-17786
魏	-17787
奏	-17788
葡	-17789
弱	-17790
√	-17791
旁	-17792
颤	-17793
莉	-17794
伸	-17795
榜	-17796
妹	-17797
截	-17798
脚	-17799
佐	-17800
肥	-17801
墓	-17802
寻	-17803
概	-17804
丘	-17805
拟	-17806
毫	-17807
灰	-17808
鼓	-17809
裁	-17810
宜	-17811
剂	-17812
咖	-17813
潜	-17814
晕	-17815
赖	-17816
涉	-17817
洁	-17818
氨	-17819
烧	-17820
乙	-17821
扬	-17822
答	-17823
绕	-17824
迎	-17825
髓	-17826
井	-17827
圈	-17828
啡	-17829
棒	-17830
恐	-17831
薄	-17832
虎	-17833
渡	-17834
恢	-17835
捷	-17836
付	-17837
秦	-17838
锡	-17839
贸	-17840
错	-17841
哲	-17842
估	-17843
廉	-17844
斜	-17845
弃	-17846
窦	-17847
卖	-17848
梦	-17849
招	-17850
匹	-17851
侯	-17852
嗜	-17853
赞	-17854
瑟	-17855
抢	-17856
仙	-17857
享	-17858
伍	-17859
琴	-17860
凤	-17861
函	-17862
铜	-17863
萄	-17864
笔	-17865
熟	-17866
赢	-17867
冬	-17868
寿	-17869
钢	-17870
]	-17871
俱	-17872
颁	-17873
滨	-17874
尊	-17875
奈	-17876
绘	-17877
[	-17878
饮	-17879
俗	-17880
豪	-17881
纸	-17882
盐	-17883
誉	-17884
崇	-17885
町	-17886
驱	-17887
矿	-17888
沉	-17889
掌	-17890
租	-17891
徽	-17892
犹	-17893
枝	-17894
浦	-17895
逊	-17896
朋	-17897
冈	-17898
瘤	-17899
昂	-17900
柯	-17901
辐	-17902
阁	-17903
逝	-17904
墙	-17905
档	-17906
振	-17907
吠	-17908
辞	-17909
曹	-17910
倍	-17911
邀	-17912
昭	-17913
吕	-17914
轴	-17915
跨	-17916
汤	-17917
册	-17918
迹	-17919
辽	-17920
郭	-17921
伐	-17922
膝	-17923
零	-17924
乃	-17925
窄	-17926
岭	-17927
酮	-17928
陶	-17929
莎	-17930
菜	-17931
裔	-17932
蔡	-17933
赏	-17934
枚	-17935
纯	-17936
浪	-17937
茶	-17938
灾	-17939
餐	-17940
伟	-17941
览	-17942
句	-17943
藤	-17944
酶	-17945
驶	-17946
垂	-17947
疫	-17948
彼	-17949
跑	-17950
沈	-17951
腰	-17952
霉	-17953
折	-17954
宿	-17955
挑	-17956
牧	-17957
遍	-17958
埔	-17959
灯	-17960
税	-17961
爸	-17962
邮	-17963
涅	-17964
搭	-17965
蒋	-17966
狱	-17967
祭	-17968
扫	-17969
填	-17970
允	-17971
勇	-17972
恋	-17973
疆	-17974
昆	-17975
亨	-17976
厦	-17977
键	-17978
忆	-17979
锋	-17980
熙	-17981
仔	-17982
衡	-17983
拆	-17984
净	-17985
遂	-17986
孟	-17987
虚	-17988
珍	-17989
宅	-17990
燃	-17991
迈	-17992
蜂	-17993
凌	-17994
葬	-17995
笑	-17996
幸	-17997
莲	-17998
侍	-17999
械	-18000
邓	-18001
剖	-18002
娱	-18003
幻	-18004
撞	-18005
坛	-18006
赴	-18007
塘	-18008
奴	-18009
碍	-18010
伏	-18011
苗	-18012
仰	-18013
篮	-18014
孝	-18015
贤	-18016
氢	-18017
敬	-18018
艘	-18019
磁	-18020
祥	-18021
叙	-18022
谱	-18023
碑	-18024
筹	-18025
慈	-18026
储	-18027
苦	-18028
胁	-18029
晶	-18030
陕	-18031
遣	-18032
纬	-18033
歇	-18034
柴	-18035
萧	-18036
辉	-18037
叛	-18038
箭	-18039
厘	-18040
违	-18041
贯	-18042
螺	-18043
葛	-18044
棋	-18045
癌	-18046
贾	-18047
疏	-18048
冯	-18049
怒	-18050
烟	-18051
妮	-18052
驾	-18053
〈	-18054
〉	-18055
叠	-18056
稠	-18057
嘴	-18058
柳	-18059
凡	-18060
艇	-18061
』	-18062
『	-18063
仓	-18064
鸡	-18065
谓	-18066
坂	-18067
颌	-18068
瓜	-18069
迟	-18070
浊	-18071
凝	-18072
匈	-18073
衔	-18074
刀	-18075
燕	-18076
桂	-18077
撒	-18078
彭	-18079
潘	-18080
羊	-18081
雕	-18082
趣	-18083
迅	-18084
贺	-18085
倾	-18086
猎	-18087
醇	-18088
累	-18089
锁	-18090
泪	-18091
舒	-18092
掉	-18093
梯	-18094
腐	-18095
慕	-18096
兽	-18097
勤	-18098
胶	-18099
钙	-18100
琳	-18101
胰	-18102
插	-18103
洗	-18104
砂	-18105
挂	-18106
抚	-18107
旺	-18108
靖	-18109
鬼	-18110
番	-18111
涯	-18112
罕	-18113
熊	-18114
猪	-18115
鞘	-18116
~	-18117
鹿	-18118
泊	-18119
串	-18120
摇	-18121
诚	-18122
疝	-18123
芳	-18124
询	-18125
蛇	-18126
屯	-18127
咸	-18128
屿	-18129
怪	-18130
赠	-18131
弥	-18132
硕	-18133
牠	-18134
瘀	-18135
肃	-18136
詹	-18137
屏	-18138
芝	-18139
坎	-18140
纷	-18141
灌	-18142
禄	-18143
页	-18144
溶	-18145
倦	-18146
淀	-18147
卓	-18148
擎	-18149
凭	-18150
壳	-18151
拓	-18152
仿	-18153
杉	-18154
仲	-18155
臭	-18156
崎	-18157
泥	-18158
～	-18159
俊	-18160
盆	-18161
隧	-18162
扇	-18163
扰	-18164
缅	-18165
鼠	-18166
诞	-18167
扶	-18168
玄	-18169
猫	-18170
污	-18171
丙	-18172
弘	-18173
慧	-18174
圳	-18175
戒	-18176
晓	-18177
玻	-18178
披	-18179
岳	-18180
杭	-18181
哺	-18182
励	-18183
厄	-18184
塑	-18185
喀	-18186
搜	-18187
添	-18188
旦	-18189
愈	-18190
轰	-18191
丧	-18192
藩	-18193
袁	-18194
寄	-18195
甸	-18196
卿	-18197
弦	-18198
盗	-18199
罚	-18200
磨	-18201
牵	-18202
畔	-18203
撰	-18204
巧	-18205
宏	-18206
阅	-18207
拳	-18208
雌	-18209
癜	-18210
泳	-18211
眨	-18212
惯	-18213
亭	-18214
链	-18215
哮	-18216
彻	-18217
赐	-18218
衰	-18219
叔	-18220
祝	-18221
悬	-18222
狮	-18223
焦	-18224
阮	-18225
坊	-18226
崔	-18227
】	-18228
【	-18229
袖	-18230
宙	-18231
乾	-18232
尉	-18233
贞	-18234
é	-18235
碳	-18236
握	-18237
妃	-18238
枢	-18239
饭	-18240
盾	-18241
扮	-18242
茂	-18243
孤	-18244
箱	-18245
郊	-18246
耀	-18247
僧	-18248
吨	-18249
贴	-18250
粤	-18251
凉	-18252
霸	-18253
捐	-18254
鲤	-18255
壮	-18256
脊	-18257
雾	-18258
蝶	-18259
糜	-18260
沫	-18261
侦	-18262
彰	-18263
岗	-18264
剩	-18265
勃	-18266
逢	-18267
契	-18268
措	-18269
厌	-18270
碱	-18271
砲	-18272
陨	-18273
硫	-18274
滚	-18275
歧	-18276
浩	-18277
搬	-18278
摆	-18279
翁	-18280
窒	-18281
券	-18282
鸿	-18283
钦	-18284
隙	-18285
递	-18286
抓	-18287
逆	-18288
夷	-18289
抑	-18290
丈	-18291
荒	-18292
膀	-18293
卜	-18294
裕	-18295
滩	-18296
滴	-18297
窗	-18298
帅	-18299
飓	-18300
鲍	-18301
傅	-18302
渔	-18303
涂	-18304
欣	-18305
割	-18306
淮	-18307
衍	-18308
笼	-18309
邨	-18310
畸	-18311
瓣	-18312
粮	-18313
婆	-18314
棘	-18315
蛛	-18316
扭	-18317
尸	-18318
旨	-18319
寨	-18320
踪	-18321
侠	-18322
庞	-18323
垒	-18324
嵌	-18325
蛀	-18326
柔	-18327
汁	-18328
鹰	-18329
狂	-18330
睑	-18331
腿	-18332
赶	-18333
悉	-18334
珊	-18335
揭	-18336
荔	-18337
抬	-18338
辩	-18339
纤	-18340
尝	-18341
铺	-18342
聘	-18343
臀	-18344
狄	-18345
稿	-18346
拖	-18347
&	-18348
煤	-18349
伪	-18350
耍	-18351
腾	-18352
吾	-18353
儒	-18354
耗	-18355
廊	-18356
陀	-18357
粹	-18358
浑	-18359
湘	-18360
耐	-18361
栽	-18362
壤	-18363
闽	-18364
彦	-18365
枕	-18366
屈	-18367
璃	-18368
坪	-18369
厥	-18370
忍	-18371
狗	-18372
遵	-18373
刷	-18374
娘	-18375
闪	-18376
翠	-18377
粪	-18378
弯	-18379
椎	-18380
朴	-18381
胱	-18382
丛	-18383
琉	-18384
俘	-18385
堪	-18386
昏	-18387
叉	-18388
潭	-18389
恰	-18390
挪	-18391
怕	-18392
咬	-18393
翌	-18394
罢	-18395
阔	-18396
抛	-18397
魂	-18398
堆	-18399
爬	-18400
辰	-18401
夹	-18402
禅	-18403
碎	-18404
砾	-18405
躯	-18406
赋	-18407
铭	-18408
坝	-18409
矩	-18410
逻	-18411
旬	-18412
勋	-18413
偷	-18414
淘	-18415
筛	-18416
憋	-18417
幽	-18418
苑	-18419
皲	-18420
荐	-18421
诏	-18422
矶	-18423
涵	-18424
吞	-18425
颇	-18426
丑	-18427
怖	-18428
栏	-18429
汪	-18430
姚	-18431
斤	-18432
寸	-18433
兆	-18434
劝	-18435
押	-18436
滞	-18437
爷	-18438
脸	-18439
氯	-18440
携	-18441
惟	-18442
逮	-18443
嫌	-18444
狼	-18445
趋	-18446
祀	-18447
姬	-18448
卒	-18449
皱	-18450
吏	-18451
屠	-18452
姻	-18453
讷	-18454
芒	-18455
椭	-18456
奔	-18457
α	-18458
雀	-18459
夕	-18460
奎	-18461
偿	-18462
琼	-18463
仇	-18464
抱	-18465
蒸	-18466
卑	-18467
逼	-18468
─	-18469
嗣	-18470
鳞	-18471
菊	-18472
韵	-18473
猛	-18474
劫	-18475
隋	-18476
矛	-18477
勳	-18478
拼	-18479
厢	-18480
敢	-18481
稣	-18482
豹	-18483
肩	-18484
娃	-18485
薛	-18486
褐	-18487
棉	-18488
嫁	-18489
郁	-18490
咯	-18491
债	-18492
侨	-18493
婴	-18494
掘	-18495
肖	-18496
忙	-18497
鹤	-18498
尘	-18499
悲	-18500
扣	-18501
伽	-18502
颊	-18503
铸	-18504
碟	-18505
曰	-18506
雍	-18507
迦	-18508
袋	-18509
礁	-18510
姊	-18511
挤	-18512
妙	-18513
忽	-18514
・	-18515
吹	-18516
栋	-18517
汰	-18518
挖	-18519
祠	-18520
贩	-18521
痕	-18522
株	-18523
舱	-18524
砖	-18525
磷	-18526
鼎	-18527
碧	-18528
翔	-18529
钝	-18530
→	-18531
鉴	-18532
穷	-18533
麟	-18534
鲶	-18535
β	-18536
妄	-18537
煽	-18538
炉	-18539
’	-18540
稻	-18541
甫	-18542
埋	-18543
姜	-18544
铃	-18545
谭	-18546
巫	-18547
弓	-18548
绳	-18549
尹	-18550
汀	-18551
宰	-18552
剪	-18553
蹈	-18554
斐	-18555
崩	-18556
寓	-18557
辨	-18558
漏	-18559
惨	-18560
奋	-18561
氟	-18562
虹	-18563
邪	-18564
圭	-18565
催	-18566
恭	-18567
锺	-18568
沪	-18569
竟	-18570
鄂	-18571
苹	-18572
毅	-18573
讚	-18574
闸	-18575
苯	-18576
疸	-18577
肪	-18578
邑	-18579
漠	-18580
姿	-18581
丞	-18582
豫	-18583
寮	-18584
讬	-18585
驳	-18586
倡	-18587
斋	-18588
渊	-18589
巩	-18590
绒	-18591
钻	-18592
瓶	-18593
蟹	-18594
妊	-18595
鲈	-18596
廖	-18597
陪	-18598
汝	-18599
蕨	-18600
魁	-18601
伙	-18602
珀	-18603
蓬	-18604
扑	-18605
茅	-18606
靶	-18607
吧	-18608
吻	-18609
疲	-18610
髋	-18611
胺	-18612
襄	-18613
滕	-18614
荆	-18615
姑	-18616
剥	-18617
拨	-18618
劲	-18619
募	-18620
斩	-18621
擅	-18622
茵	-18623
臂	-18624
娠	-18625
胚	-18626
蚊	-18627
谦	-18628
蒲	-18629
襞	-18630
堵	-18631
忘	-18632
腭	-18633
鸭	-18634
耕	-18635
涌	-18636
浸	-18637
溯	-18638
痫	-18639
涨	-18640
酷	-18641
拱	-18642
舟	-18643
蜜	-18644
吮	-18645
荡	-18646
矮	-18647
暨	-18648
聪	-18649
削	-18650
拘	-18651
衄	-18652
纺	-18653
蕾	-18654
崖	-18655
铎	-18656
烯	-18657
碰	-18658
斥	-18659
槽	-18660
仕	-18661
腮	-18662
噶	-18663
帽	-18664
毗	-18665
卸	-18666
闷	-18667
邱	-18668
札	-18669
伞	-18670
栗	-18671
帐	-18672
喇	-18673
亥	-18674
薇	-18675
疮	-18676
渠	-18677
慎	-18678
遥	-18679
巷	-18680
摧	-18681
掠	-18682
谊	-18683
忧	-18684
薪	-18685
膨	-18686
蜀	-18687
踏	-18688
昇	-18689
淑	-18690
呆	-18691
鲸	-18692
坠	-18693
宠	-18694
‘	-18695
缝	-18696
顷	-18697
睛	-18698
邵	-18699
甜	-18700
鹅	-18701
炼	-18702
癫	-18703
筒	-18704
穴	-18705
喝	-18706
梗	-18707
琪	-18708
绵	-18709
贼	-18710
愤	-18711
鑑	-18712
撑	-18713
摔	-18714
冕	-18715
哪	-18716
醉	-18717
轩	-18718
葵	-18719
跌	-18720
庶	-18721
藻	-18722
帆	-18723
梨	-18724
澄	-18725
唤	-18726
谵	-18727
钠	-18728
菩	-18729
桓	-18730
雇	-18731
亩	-18732
宛	-18733
桌	-18734
谁	-18735
掩	-18736
弄	-18737
惜	-18738
挡	-18739
宴	-18740
凶	-18741
腓	-18742
玲	-18743
棕	-18744
酰	-18745
绑	-18746
榄	-18747
饼	-18748
怡	-18749
浆	-18750
堤	-18751
吁	-18752
吊	-18753
逸	-18754
梵	-18755
夸	-18756
饱	-18757
ー	-18758
翅	-18759
誓	-18760
搞	-18761
擦	-18762
瓷	-18763
框	-18764
冀	-18765
鹏	-18766
芦	-18767
贪	-18768
纠	-18769
禾	-18770
仑	-18771
樱	-18772
奸	-18773
仆	-18774
惧	-18775
朵	-18776
慰	-18777
奠	-18778
韧	-18779
蹟	-18780
侣	-18781
绥	-18782
颠	-18783
嗓	-18784
柄	-18785
芙	-18786
厉	-18787
骚	-18788
悦	-18789
悠	-18790
爪	-18791
紊	-18792
锥	-18793
颞	-18794
桐	-18795
钼	-18796
删	-18797
娶	-18798
戊	-18799
忌	-18800
盲	-18801
冻	-18802
柬	-18803
骗	-18804
贷	-18805
谐	-18806
蚀	-18807
颖	-18808
霞	-18809
懂	-18810
鸦	-18811
牲	-18812
抄	-18813
恨	-18814
呎	-18815
眉	-18816
辈	-18817
遮	-18818
蝠	-18819
祯	-18820
涛	-18821
‧	-18822
烷	-18823
厝	-18824
缴	-18825
垢	-18826
脲	-18827
颂	-18828
稚	-18829
践	-18830
赌	-18831
庚	-18832
а	-18833
劣	-18834
祈	-18835
赘	-18836
歪	-18837
庇	-18838
弧	-18839
讼	-18840
哀	-18841
囚	-18842
汶	-18843
瘘	-18844
虾	-18845
坟	-18846
咨	-18847
殷	-18848
沼	-18849
辟	-18850
逾	-18851
嫩	-18852
滋	-18853
饶	-18854
猜	-18855
裸	-18856
妖	-18857
萎	-18858
赔	-18859
秩	-18860
涡	-18861
炭	-18862
の	-18863
怎	-18864
凸	-18865
谣	-18866
镑	-18867
咀	-18868
兔	-18869
丢	-18870
瑜	-18871
椅	-18872
屡	-18873
肇	-18874
坞	-18875
祸	-18876
耸	-18877
挺	-18878
ン	-18879
荃	-18880
寇	-18881
蓄	-18882
埠	-18883
夥	-18884
芭	-18885
铅	-18886
凰	-18887
祐	-18888
#	-18889
о	-18890
舆	-18891
尧	-18892
橡	-18893
碘	-18894
鳄	-18895
焚	-18896
猴	-18897
妥	-18898
戌	-18899
昔	-18900
趁	-18901
惩	-18902
鞋	-18903
虏	-18904
庸	-18905
崙	-18906
跋	-18907
μ	-18908
禧	-18909
骏	-18910
讽	-18911
歉	-18912
踢	-18913
贬	-18914
瑚	-18915
柜	-18916
茄	-18917
锤	-18918
$	-18919
萝	-18920
酯	-18921
晴	-18922
锅	-18923
浏	-18924
佑	-18925
蕃	-18926
坤	-18927
絮	-18928
蜥	-18929
喻	-18930
漂	-18931
谘	-18932
塌	-18933
稽	-18934
捉	-18935
痤	-18936
旱	-18937
腻	-18938
勘	-18939
铝	-18940
躲	-18941
攀	-18942
履	-18943
娅	-18944
悟	-18945
咏	-18946
怨	-18947
橄	-18948
矢	-18949
盒	-18950
酪	-18951
缪	-18952
钓	-18953
炳	-18954
赣	-18955
狐	-18956
钩	-18957
鲷	-18958
滥	-18959
疯	-18960
氮	-18961
澎	-18962
喊	-18963
竣	-18964
旭	-18965
厨	-18966
璋	-18967
帖	-18968
缸	-18969
钡	-18970
鞍	-18971
芽	-18972
酱	-18973
糕	-18974
歼	-18975
淳	-18976
僚	-18977
谨	-18978
裴	-18979
硝	-18980
荫	-18981
胖	-18982
и	-18983
欺	-18984
辱	-18985
穗	-18986
阜	-18987
熔	-18988
吗	-18989
镶	-18990
椒	-18991
匠	-18992
罩	-18993
缔	-18994
牺	-18995
冢	-18996
匪	-18997
勾	-18998
棚	-18999
窑	-19000
垦	-19001
榴	-19002
畜	-19003
斌	-19004
钾	-19005
霖	-19006
竖	-19007
匣	-19008
咒	-19009
徙	-19010
酿	-19011
阀	-19012
漆	-19013
戚	-19014
梭	-19015
秉	-19016
饥	-19017
阑	-19018
裤	-19019
覆	-19020
煌	-19021
贿	-19022
聂	-19023
岐	-19024
麓	-19025
黛	-19026
蛙	-19027
虐	-19028
虞	-19029
谴	-19030
啼	-19031
菱	-19032
摘	-19033
嘛	-19034
い	-19035
佣	-19036
蛮	-19037
萤	-19038
瑶	-19039
浴	-19040
畴	-19041
哨	-19042
枫	-19043
庐	-19044
牟	-19045
笃	-19046
漳	-19047
瞄	-19048
辣	-19049
瑙	-19050
拦	-19051
祷	-19052
嗳	-19053
酋	-19054
拯	-19055
á	-19056
闯	-19057
捲	-19058
阎	-19059
泼	-19060
庵	-19061
驰	-19062
巾	-19063
帜	-19064
吓	-19065
垣	-19066
谍	-19067
钧	-19068
廿	-19069
朔	-19070
悼	-19071
笛	-19072
幢	-19073
鲨	-19074
瘦	-19075
腱	-19076
韶	-19077
绅	-19078
彬	-19079
挛	-19080
棠	-19081
橙	-19082
垫	-19083
眶	-19084
骂	-19085
彗	-19086
棍	-19087
噪	-19088
翡	-19089
蝙	-19090
乞	-19091
氛	-19092
趾	-19093
饲	-19094
楠	-19095
渴	-19096
閒	-19097
逗	-19098
盂	-19099
湛	-19100
牢	-19101
壬	-19102
焰	-19103
赦	-19104
惑	-19105
垃	-19106
骤	-19107
匿	-19108
蛤	-19109
磅	-19110
敷	-19111
苷	-19112
寅	-19113
窃	-19114
缀	-19115
瑰	-19116
濒	-19117
е	-19118
н	-19119
粟	-19120
冶	-19121
圾	-19122
纱	-19123
杏	-19124
玫	-19125
樑	-19126
禹	-19127
掷	-19128
橘	-19129
舅	-19130
颚	-19131
剿	-19132
沧	-19133
汕	-19134
肆	-19135
谕	-19136
槟	-19137
谥	-19138
螨	-19139
窟	-19140
劾	-19141
俯	-19142
缆	-19143
淹	-19144
艰	-19145
孜	-19146
邸	-19147
亢	-19148
阐	-19149
迄	-19150
闲	-19151
纂	-19152
陇	-19153
沦	-19154
诈	-19155
屑	-19156
昼	-19157
钥	-19158
寡	-19159
戎	-19160
畿	-19161
肚	-19162
鹃	-19163
濑	-19164
梓	-19165
′	-19166
闵	-19167
桶	-19168
煮	-19169
冥	-19170
簧	-19171
懿	-19172
奕	-19173
ん	-19174
酬	-19175
с	-19176
侄	-19177
筋	-19178
沛	-19179
勉	-19180
妆	-19181
孚	-19182
绰	-19183
蔽	-19184
酵	-19185
р	-19186
邹	-19187
锣	-19188
裹	-19189
栓	-19190
滇	-19191
泄	-19192
芯	-19193
睁	-19194
绣	-19195
宦	-19196
寂	-19197
雁	-19198
鞭	-19199
缠	-19200
峻	-19201
瀑	-19202
谜	-19203
蚁	-19204
啤	-19205
焕	-19206
竭	-19207
鳗	-19208
諡	-19209
剌	-19210
倪	-19211
暑	-19212
腥	-19213
仗	-19214
俞	-19215
嫡	-19216
矫	-19217
墩	-19218
艳	-19219
萍	-19220
ü	-19221
敖	-19222
痉	-19223
吵	-19224
曝	-19225
呢	-19226
妓	-19227
酚	-19228
叹	-19229
籤	-19230
癸	-19231
狩	-19232
乒	-19233
伺	-19234
殉	-19235
岑	-19236
壶	-19237
淤	-19238
榆	-19239
挝	-19240
诛	-19241
锯	-19242
拾	-19243
僱	-19244
垄	-19245
う	-19246
烤	-19247
傲	-19248
墅	-19249
墟	-19250
聊	-19251
啦	-19252
诵	-19253
茹	-19254
彝	-19255
傍	-19256
缉	-19257
漓	-19258
耿	-19259
蹄	-19260
吋	-19261
彪	-19262
蓉	-19263
婉	-19264
锌	-19265
哇	-19266
蠕	-19267
蕴	-19268
犁	-19269
蔬	-19270
堕	-19271
悔	-19272
狸	-19273
揉	-19274
愚	-19275
衷	-19276
莞	-19277
谏	-19278
赚	-19279
爽	-19280
鳉	-19281
魅	-19282
嘱	-19283
藓	-19284
琦	-19285
舜	-19286
壹	-19287
账	-19288
挽	-19289
樟	-19290
蔓	-19291
袜	-19292
蜡	-19293
砍	-19294
骸	-19295
碗	-19296
※	-19297
芜	-19298
淫	-19299
牡	-19300
羌	-19301
т	-19302
诠	-19303
嵩	-19304
厕	-19305
豚	-19306
涎	-19307
羟	-19308
罐	-19309
蔚	-19310
惹	-19311
砌	-19312
亏	-19313
舖	-19314
敲	-19315
硅	-19316
皖	-19317
弼	-19318
轿	-19319
龚	-19320
绎	-19321
弊	-19322
〔	-19323
茜	-19324
薯	-19325
〕	-19326
饿	-19327
ス	-19328
晖	-19329
擒	-19330
嫔	-19331
啸	-19332
痂	-19333
匡	-19334
愉	-19335
衙	-19336
澜	-19337
刃	-19338
檀	-19339
し	-19340
钞	-19341
樊	-19342
イ	-19343
狙	-19344
淆	-19345
•	-19346
í	-19347
刮	-19348
毓	-19349
罹	-19350
娥	-19351
僵	-19352
赎	-19353
涩	-19354
哩	-19355
鹦	-19356
洽	-19357
倭	-19358
瞬	-19359
嘎	-19360
扳	-19361
擢	-19362
炒	-19363
渤	-19364
ö	-19365
腕	-19366
飘	-19367
钮	-19368
蜘	-19369
驼	-19370
脆	-19371
摊	-19372
褒	-19373
乓	-19374
毙	-19375
釜	-19376
鳃	-19377
ā	-19378
杖	-19379
祇	-19380
迭	-19381
钉	-19382
猩	-19383
驹	-19384
凑	-19385
鲉	-19386
蕉	-19387
膏	-19388
溴	-19389
郝	-19390
θ	-19391
霜	-19392
咪	-19393
棱	-19394
в	-19395
兑	-19396
暹	-19397
甄	-19398
渭	-19399
烹	-19400
谎	-19401
挫	-19402
岱	-19403
睿	-19404
沁	-19405
祁	-19406
к	-19407
邯	-19408
骆	-19409
崛	-19410
摸	-19411
娄	-19412
檐	-19413
梧	-19414
猿	-19415
鳕	-19416
谅	-19417
ル	-19418
盔	-19419
胤	-19420
ó	-19421
渝	-19422
か	-19423
榕	-19424
卦	-19425
犀	-19426
抹	-19427
凿	-19428
晃	-19429
刹	-19430
憩	-19431
∧	-19432
秃	-19433
蝴	-19434
垩	-19435
宵	-19436
灿	-19437
邢	-19438
莹	-19439
裙	-19440
舶	-19441
瘫	-19442
醛	-19443
沂	-19444
た	-19445
莽	-19446
楷	-19447
莺	-19448
眷	-19449
晤	-19450
妾	-19451
矣	-19452
唑	-19453
袍	-19454
拇	-19455
汐	-19456
耻	-19457
黔	-19458
婷	-19459
驿	-19460
蝉	-19461
膛	-19462
雯	-19463
搁	-19464
倖	-19465
媛	-19466
桦	-19467
蕊	-19468
è	-19469
啊	-19470
匾	-19471
雏	-19472
拭	-19473
潟	-19474
羚	-19475
铀	-19476
泗	-19477
吟	-19478
溥	-19479
谟	-19480
蒿	-19481
镁	-19482
簿	-19483
栅	-19484
羞	-19485
笠	-19486
л	-19487
勿	-19488
咙	-19489
慌	-19490
峙	-19491
喙	-19492
祺	-19493
湧	-19494
琅	-19495
卯	-19496
溺	-19497
堀	-19498
骼	-19499
ラ	-19500
棺	-19501
汾	-19502
葱	-19503
睦	-19504
辜	-19505
俩	-19506
卤	-19507
磡	-19508
敕	-19509
顽	-19510
溉	-19511
讳	-19512
桨	-19513
蜗	-19514
泾	-19515
奢	-19516
冤	-19517
と	-19518
辗	-19519
您	-19520
闢	-19521
婿	-19522
敛	-19523
踝	-19524
耆	-19525
岚	-19526
璧	-19527
虔	-19528
磺	-19529
幌	-19530
枣	-19531
俭	-19532
堰	-19533
峨	-19534
殴	-19535
镍	-19536
洼	-19537
绸	-19538
鹉	-19539
郸	-19540
侬	-19541
菁	-19542
寝	-19543
躺	-19544
塾	-19545
枯	-19546
缮	-19547
撕	-19548
ア	-19549
蚌	-19550
馈	-19551
紮	-19552
佥	-19553
馨	-19554
噬	-19555
ä	-19556
匙	-19557
焊	-19558
晏	-19559
烃	-19560
泵	-19561
闰	-19562
嘲	-19563
嚼	-19564
侏	-19565
揽	-19566
臼	-19567
埼	-19568
诬	-19569
盏	-19570
糟	-19571
谬	-19572
戟	-19573
苻	-19574
骄	-19575
掀	-19576
酉	-19577
耵	-19578
聍	-19579
ト	-19580
捞	-19581
恼	-19582
褪	-19583
麒	-19584
±	-19585
丕	-19586
笨	-19587
リ	-19588
艮	-19589
衬	-19590
锂	-19591
芹	-19592
菇	-19593
竺	-19594
脖	-19595
岔	-19596
蔷	-19597
穹	-19598
嗝	-19599
衫	-19600
菸	-19601
搔	-19602
慾	-19603
氰	-19604
琛	-19605
鸽	-19606
岬	-19607
荧	-19608
棵	-19609
倚	-19610
梳	-19611
阈	-19612
な	-19613
懋	-19614
兀	-19615
抒	-19616
瑾	-19617
鸠	-19618
皓	-19619
萼	-19620
雳	-19621
醋	-19622
斧	-19623
淞	-19624
磐	-19625
莓	-19626
芮	-19627
蝇	-19628
锈	-19629
肽	-19630
娇	-19631
忒	-19632
暱	-19633
に	-19634
哉	-19635
窥	-19636
憾	-19637
绞	-19638
皂	-19639
霹	-19640
兜	-19641
ク	-19642
瀛	-19643
兖	-19644
姨	-19645
睹	-19646
稜	-19647
瑛	-19648
溜	-19649
瞻	-19650
疤	-19651
舷	-19652
陌	-19653
戍	-19654
棣	-19655
芸	-19656
汞	-19657
诃	-19658
祂	-19659
り	-19660
桩	-19661
焉	-19662
浚	-19663
灼	-19664
鰕	-19665
茱	-19666
捧	-19667
缚	-19668
蔗	-19669
抨	-19670
癒	-19671
衞	-19672
荀	-19673
洒	-19674
洩	-19675
迂	-19676
д	-19677
沐	-19678
暮	-19679
泣	-19680
苞	-19681
篡	-19682
鑫	-19683
霆	-19684
蟾	-19685
晒	-19686
蛾	-19687
炬	-19688
阙	-19689
祕	-19690
觅	-19691
陡	-19692
鲀	-19693
捍	-19694
栈	-19695
ا	-19696
沥	-19697
蜒	-19698
曜	-19699
萃	-19700
恪	-19701
帛	-19702
镰	-19703
熹	-19704
蜿	-19705
る	-19706
霄	-19707
玺	-19708
−	-19709
渥	-19710
隍	-19711
剔	-19712
〜	-19713
き	-19714
怜	-19715
袢	-19716
м	-19717
ま	-19718
锻	-19719
贲	-19720
孵	-19721
翘	-19722
巳	-19723
恺	-19724
沸	-19725
祚	-19726
敞	-19727
鍊	-19728
煞	-19729
瘟	-19730
俾	-19731
翟	-19732
黜	-19733
芥	-19734
峭	-19735
慨	-19736
偕	-19737
淇	-19738
龛	-19739
崑	-19740
妨	-19741
崁	-19742
沽	-19743
篷	-19744
肘	-19745
曙	-19746
鞑	-19747
禺	-19748
吡	-19749
粥	-19750
γ	-19751
烛	-19752
钊	-19753
咧	-19754
昊	-19755
屎	-19756
箕	-19757
矽	-19758
咤	-19759
薰	-19760
簇	-19761
挠	-19762
颐	-19763
埤	-19764
赁	-19765
麾	-19766
葫	-19767
蚤	-19768
硼	-19769
镖	-19770
く	-19771
扔	-19772
俸	-19773
侮	-19774
羁	-19775
恕	-19776
潼	-19777
玮	-19778
邺	-19779
釉	-19780
啶	-19781
靼	-19782
さ	-19783
乍	-19784
ッ	-19785
皋	-19786
饷	-19787
楔	-19788
娟	-19789
膳	-19790
斡	-19791
苣	-19792
盎	-19793
δ	-19794
桢	-19795
靡	-19796
彤	-19797
鳅	-19798
砸	-19799
鹭	-19800
曦	-19801
妍	-19802
夭	-19803
楞	-19804
隅	-19805
莆	-19806
堇	-19807
は	-19808
椰	-19809
臧	-19810
靴	-19811
π	-19812
舵	-19813
帘	-19814
贱	-19815
挟	-19816
豁	-19817
譬	-19818
跤	-19819
陞	-19820
瘾	-19821
弛	-19822
у	-19823
纶	-19824
泸	-19825
呀	-19826
傀	-19827
驯	-19828
钜	-19829
铉	-19830
裘	-19831
诅	-19832
扯	-19833
陛	-19834
埗	-19835
绮	-19836
鲑	-19837
衢	-19838
柠	-19839
滙	-19840
炫	-19841
氦	-19842
阱	-19843
こ	-19844
赂	-19845
苟	-19846
倩	-19847
坜	-19848
诰	-19849
σ	-19850
鎌	-19851
儡	-19852
瞒	-19853
煎	-19854
唾	-19855
蓟	-19856
が	-19857
佬	-19858
韬	-19859
挣	-19860
幡	-19861
萱	-19862
庾	-19863
绶	-19864
醚	-19865
シ	-19866
峪	-19867
拢	-19868
镀	-19869
沮	-19870
戮	-19871
榈	-19872
汴	-19873
み	-19874
@	-19875
ν	-19876
毯	-19877
λ	-19878
钛	-19879
伶	-19880
巅	-19881
淄	-19882
隘	-19883
п	-19884
ら	-19885
嘻	-19886
炯	-19887
磊	-19888
柑	-19889
绫	-19890
羲	-19891
濠	-19892
奚	-19893
寰	-19894
槛	-19895
芋	-19896
槐	-19897
琵	-19898
痪	-19899
湄	-19900
鼬	-19901
瞩	-19902
叱	-19903
桡	-19904
钵	-19905
跪	-19906
檬	-19907
お	-19908
晟	-19909
炀	-19910
巖	-19911
タ	-19912
旷	-19913
讶	-19914
て	-19915
琶	-19916
鄞	-19917
叮	-19918
拷	-19919
鸾	-19920
燮	-19921
カ	-19922
咎	-19923
陋	-19924
垮	-19925
鸥	-19926
冉	-19927
娴	-19928
睬	-19929
胥	-19930
幂	-19931
笋	-19932
沾	-19933
鹫	-19934
証	-19935
籽	-19936
蒜	-19937
â	-19938
懒	-19939
恤	-19940
翊	-19941
锚	-19942
ç	-19943
壕	-19944
酐	-19945
掳	-19946
耦	-19947
捏	-19948
蒐	-19949
稷	-19950
铠	-19951
桅	-19952
ジ	-19953
ロ	-19954
拙	-19955
苇	-19956
悍	-19957
荨	-19958
佚	-19959
毘	-19960
あ	-19961
朽	-19962
殡	-19963
弈	-19964
拐	-19965
[...]
