<pad>	0
<unk>	0
[CLS]	0
[SEP]	0
[MASK]	0
(	0
)	0
”	0
-	0
.	0
–	0
£	0
€	0
▁,	-0
▁的	-1
▁。	-2
▁1	-3
▁、	-4
▁年	-5
▁在	-6
▁2	-7
▁一	-8
▁是	-9
▁中	-10
▁为	-11
▁于	-12
▁人	-13
▁20	-14
▁和	-15
▁月	-16
▁19	-17
▁大	-18
▁了	-19
▁日	-20
▁有	-21
▁以	-22
▁不	-23
▁与	-24
▁他	-25
▁后	-26
▁之	-27
▁:	-28
▁》	-29
▁《	-30
▁其	-31
▁第	-32
▁上	-33
▁地	-34
▁被	-35
▁公	-36
▁·	-37
▁这	-38
▁时	-39
▁发	-40
▁3	-41
▁并	-42
▁201	-43
▁而	-44
▁由	-45
▁国	-46
▁成	-47
▁「	-48
▁」	-49
▁可	-50
▁主	-51
▁最	-52
▁也	-53
▁200	-54
▁对	-55
▁“	-56
▁出	-57
▁自	-58
▁一个	-59
▁4	-60
▁分	-61
▁学	-62
▁西	-63
▁等	-64
▁新	-65
▁开	-66
▁因	-67
▁5	-68
▁但	-69
▁;	-70
▁该	-71
▁所	-72
▁电	-73
▁下	-74
▁美	-75
▁同	-76
▁平	-77
▁及	-78
▁进	-79
▁高	-80
▁作	-81
▁中国	-82
▁当	-83
▁军	-84
▁总	-85
▁三	-86
▁南	-87
▁小	-88
▁6	-89
▁会	-90
▁"	-91
▁多	-92
▁台	-93
▁两	-94
▁北	-95
▁东	-96
▁s	-97
▁使	-98
▁生	-99
▁位	-100
▁到	-101
▁内	-102
▁7	-103
▁全	-104
▁建	-105
▁c	-106
▁政	-107
▁海	-108
▁至	-109
▁10	-110
▁a	-111
▁将	-112
▁8	-113
▁来	-114
▁文	-115
▁或	-116
▁前	-117
▁加	-118
▁法	-119
▁工	-120
▁都	-121
▁经	-122
▁重	-123
▁9	-124
▁相	-125
▁天	-126
▁此	-127
▁设	-128
▁英	-129
▁从	-130
▁阿	-131
▁t	-132
▁原	-133
▁通	-134
▁名	-135
er	-136
▁m	-137
▁提	-138
▁特	-139
▁世	-140
▁教	-141
▁方	-142
▁比	-143
▁美国	-144
▁改	-145
00	-146
▁行	-147
▁就	-148
▁市	-149
▁机	-150
▁人口	-151
in	-152
▁正	-153
▁首	-154
▁战	-155
▁个	-156
▁曾	-157
▁12	-158
▁参	-159
▁马	-160
▁18	-161
▁本	-162
▁b	-163
▁任	-164
▁现	-165
▁基	-166
▁部	-167
▁二	-168
▁包	-169
an	-170
or	-171
▁长	-172
▁联	-173
▁德	-174
▁无	-175
▁指	-176
▁199	-177
on	-178
▁f	-179
▁香	-180
▁科	-181
▁制	-182
▁已	-183
▁四	-184
▁十	-185
▁可以	-186
▁女	-187
▁王	-188
▁组	-189
▁表	-190
▁巴	-191
▁共	-192
▁11	-193
▁更	-194
▁运	-195
▁安	-196
▁日本	-197
▁如	-198
▁山	-199
▁广	-200
▁称	-201
▁获	-202
▁p	-203
▁单	-204
▁金	-205
▁系	-206
▁区	-207
▁事	-208
▁平方	-209
▁结	-210
▁外	-211
▁第一	-212
▁用	-213
▁还	-214
▁城	-215
▁使用	-216
▁米	-217
▁香港	-218
▁d	-219
▁水	-220
▁h	-221
▁民	-222
▁数	-223
▁各	-224
▁保	-225
▁专	-226
▁只	-227
▁代	-228
▁车	-229
▁亚	-230
▁布	-231
▁认	-232
▁每	-233
▁开始	-234
▁实	-235
▁接	-236
▁又	-237
▁得	-238
▁约	-239
▁选	-240
▁万	-241
▁以及	-242
▁地区	-243
▁她	-244
la	-245
▁其中	-246
▁反	-247
▁直	-248
▁/	-249
▁目	-250
en	-251
▁属	-252
▁合	-253
▁没	-254
▁号	-255
▁研	-256
▁说	-257
▁站	-258
公里	-259
▁太	-260
▁过	-261
▁县	-262
▁成为	-263
▁进行	-264
▁能	-265
▁它	-266
▁平方公里	-267
▁198	-268
▁包括	-269
▁传	-270
▁奥	-271
▁主要	-272
▁交	-273
▁面	-274
▁受	-275
▁15	-276
ar	-277
▁卡	-278
▁李	-279
▁国家	-280
▁斯	-281
▁r	-282
▁社	-283
▁回	-284
▁关	-285
▁向	-286
▁n	-287
▁g	-288
▁他们	-289
▁演	-290
▁五	-291
▁形	-292
▁起	-293
▁要	-294
▁明	-295
▁影	-296
▁道	-297
▁达	-298
▁领	-299
▁完	-300
▁即	-301
▁公司	-302
▁拉	-303
▁路	-304
▁研究	-305
▁支	-306
▁清	-307
▁历	-308
▁创	-309
▁张	-310
▁家	-311
▁世界	-312
▁亦	-313
▁变	-314
▁非	-315
▁体	-316
委员	-317
▁很	-318
▁罗	-319
▁苏	-320
▁转	-321
▁管	-322
▁列	-323
▁16	-324
▁再	-325
▁铁	-326
▁克	-327
▁河	-328
▁l	-329
▁游	-330
▁集	-331
▁意	-332
▁另	-333
▁随	-334
▁处	-335
▁伊	-336
▁第二	-337
▁17	-338
▁里	-339
▁认为	-340
▁则	-341
▁推	-342
▁古	-343
▁球	-344
▁i	-345
▁0	-346
▁周	-347
▁获得	-348
▁取	-349
▁其他	-350
▁因此	-351
▁动	-352
▁圣	-353
es	-354
▁线	-355
▁着	-356
▁维	-357
▁武	-358
▁流	-359
▁政府	-360
▁大学	-361
▁图	-362
▁元	-363
▁宣	-364
▁收	-365
▁我	-366
▁男	-367
▁未	-368
▁194	-369
▁计	-370
▁资	-371
at	-372
▁音	-373
▁引	-374
▁复	-375
▁风	-376
▁w	-377
▁连	-378
▁利	-379
▁197	-380
▁期	-381
▁因为	-382
▁决	-383
▁担	-384
▁波	-385
▁当时	-386
▁工作	-387
▁乡	-388
▁神	-389
▁位于	-390
▁打	-391
▁台湾	-392
▁普	-393
al	-394
▁欧	-395
▁投	-396
▁中华	-397
▁举	-398
▁自己	-399
▁官	-400
▁黄	-401
▁根	-402
▁商	-403
▁14	-404
▁超	-405
ic	-406
▁较	-407
▁信	-408
▁政治	-409
▁没有	-410
▁陈	-411
▁电影	-412
▁195	-413
▁13	-414
▁印	-415
▁白	-416
▁副	-417
▁应	-418
▁产	-419
▁歌	-420
▁代表	-421
▁许	-422
▁同时	-423
▁负	-424
▁活	-425
▁成立	-426
▁国际	-427
▁立	-428
▁解	-429
▁可能	-430
▁一种	-431
▁网	-432
▁e	-433
▁编	-434
▁先	-435
▁报	-436
▁赛	-437
▁省	-438
▁手	-439
▁英国	-440
▁标	-441
▁之一	-442
▁理	-443
▁196	-444
▁增	-445
▁k	-446
▁仍	-447
▁空	-448
▁节	-449
▁那	-450
▁情	-451
▁青	-452
▁故	-453
▁今	-454
▁爱	-455
▁o	-456
▁运动	-457
▁调	-458
▁入	-459
▁常	-460
▁协	-461
▁服	-462
▁需	-463
▁观	-464
▁强	-465
▁发展	-466
▁担任	-467
▁身	-468
▁希	-469
▁不同	-470
大学	-471
▁石	-472
▁中心	-473
▁作为	-474
▁足	-475
▁职	-476
▁语	-477
▁党	-478
▁—	-479
▁字	-480
▁通过	-481
▁博	-482
▁记	-483
▁福	-484
▁镇	-485
▁规	-486
▁这个	-487
▁江	-488
▁双	-489
▁物	-490
▁行政	-491
▁电视	-492
is	-493
▁时间	-494
▁发现	-495
▁让	-496
▁表示	-497
▁法国	-498
▁定	-499
▁设计	-500
▁独	-501
▁死	-502
▁华	-503
▁修	-504
▁采	-505
▁统	-506
▁尼	-507
▁黑	-508
▁委员	-509
▁193	-510
▁光	-511
▁刘	-512
▁问	-513
▁j	-514
▁造	-515
▁for	-516
▁居	-517
▁带	-518
▁这些	-519
▁30	-520
▁书	-521
▁格	-522
▁社会	-523
▁导	-524
▁面积	-525
▁去	-526
▁哈	-527
▁航	-528
▁除	-529
▁初	-530
▁一些	-531
▁环	-532
▁六	-533
▁种	-534
▁根据	-535
it	-536
▁乌	-537
mu	-538
▁_	-539
le	-540
▁历史	-541
▁飞	-542
▁21	-543
▁深	-544
▁公里	-545
▁文化	-546
政府	-547
▁条	-548
▁z	-549
▁街	-550
▁林	-551
▁继	-552
▁几	-553
▁把	-554
▁汉	-555
▁知	-556
▁参加	-557
▁早	-558
▁八	-559
▁医	-560
▁所有	-561
▁建筑	-562
he	-563
▁部分	-564
▁年代	-565
▁负责	-566
▁队	-567
▁次	-568
▁土	-569
▁星	-570
▁市镇	-571
▁类	-572
▁游戏	-573
▁团	-574
▁火	-575
▁系统	-576
▁提供	-577
▁正式	-578
▁皇	-579
▁单位	-580
▁出现	-581
▁派	-582
▁音乐	-583
▁村	-584
▁热	-585
▁威	-586
▁议	-587
▁具	-588
▁中央	-589
▁岁	-590
▁攻	-591
▁人民	-592
人民	-593
▁v	-594
▁组织	-595
▁整	-596
▁北京	-597
▁管理	-598
▁然	-599
▁少	-600
▁影响	-601
▁真	-602
▁2010	-603
▁之后	-604
▁湾	-605
▁经济	-606
▁韩	-607
▁25	-608
▁司	-609
▁红	-610
▁模	-611
mula	-612
▁老	-613
▁角	-614
▁朝	-615
▁气	-616
▁2009	-617
▁formula	-618
▁例	-619
▁发生	-620
▁俄	-621
▁警	-622
▁九	-623
▁离	-624
▁虽	-625
▁作品	-626
▁农	-627
▁命	-628
▁铁路	-629
▁州	-630
▁预	-631
▁排	-632
el	-633
▁附	-634
▁版	-635
▁沙	-636
▁给	-637
▁性	-638
▁看	-639
▁史	-640
▁吉	-641
▁父	-642
▁湖	-643
▁192	-644
ou	-645
▁目前	-646
▁许多	-647
▁存	-648
▁做	-649
▁下辖	-650
▁型	-651
▁才	-652
▁问题	-653
▁以下	-654
▁全国	-655
▁评	-656
▁世纪	-657
am	-658
▁登	-659
▁2011	-660
▁便	-661
▁第三	-662
▁执	-663
▁却	-664
▁活动	-665
▁纪	-666
▁简	-667
▁化	-668
▁但是	-669
▁左	-670
▁上海	-671
▁城市	-672
▁剧	-673
▁失	-674
▁已经	-675
▁u	-676
▁进入	-677
▁半	-678
▁花	-679
▁之间	-680
▁足球	-681
▁银	-682
▁近	-683
▁考	-684
▁艺	-685
▁精	-686
▁服务	-687
st	-688
▁依	-689
▁越	-690
000	-691
公司	-692
▁消	-693
部分	-694
▁期间	-695
▁鱼	-696
▁比赛	-697
▁停	-698
▁德国	-699
▁技	-700
▁好	-701
▁重要	-702
密度	-703
ol	-704
▁埃	-705
▁教育	-706
▁配	-707
▁客	-708
▁校	-709
▁百	-710
▁办	-711
▁海拔	-712
▁时期	-713
▁2012	-714
▁乐	-715
▁22	-716
▁七	-717
▁子	-718
il	-719
▁两个	-720
▁视	-721
▁低	-722
▁最终	-723
▁2013	-724
▁装	-725
▁写	-726
▁拥	-727
▁移	-728
et	-729
▁成员	-730
▁支持	-731
▁放	-732
▁2016	-733
ion	-734
▁心	-735
面积	-736
▁旅	-737
▁人物	-738
▁塔	-739
▁并且	-740
▁澳	-741
▁生活	-742
▁龙	-743
▁学校	-744
▁24	-745
▁2014	-746
▁一般	-747
▁奖	-748
▁师	-749
▁杀	-750
▁加入	-751
ac	-752
▁感	-753
▁虽然	-754
▁发行	-755
▁2015	-756
om	-757
▁唐	-758
▁2008	-759
▁同年	-760
▁委员会	-761
▁萨	-762
▁间	-763
▁需要	-764
▁显	-765
▁播	-766
▁毕	-767
▁防	-768
▁决定	-769
▁23	-770
▁控	-771
▁zh	-772
▁辖	-773
▁场	-774
▁夏	-775
▁杨	-776
▁建立	-777
▁岛	-778
▁地方	-779
▁191	-780
re	-781
▁人口密度	-782
▁贝	-783
▁佛	-784
▁欧洲	-785
▁联合	-786
▁展	-787
▁权	-788
▁均	-789
▁事件	-790
▁印度	-791
▁2001	-792
▁由于	-793
▁兴	-794
▁分别	-795
▁学名	-796
▁港	-797
▁the	-798
▁必	-799
▁蒙	-800
▁车站	-801
▁专辑	-802
▁吴	-803
▁最高	-804
▁工程	-805
▁艾	-806
▁纳	-807
▁}	-808
▁食	-809
▁{	-810
▁儿	-811
和国	-812
▁遭	-813
▁宗	-814
▁退	-815
▁例如	-816
行星	-817
▁受到	-818
▁声	-819
▁群	-820
▁最后	-821
▁得到	-822
▁座	-823
▁项	-824
▁冠	-825
▁分布	-826
▁云	-827
▁温	-828
▁完成	-829
▁遗	-830
▁严	-831
▁升	-832
▁优	-833
▁2017	-834
▁干	-835
▁就是	-836
as	-837
▁举行	-838
▁!	-839
▁2007	-840
▁程	-841
▁批	-842
▁抗	-843
▁组成	-844
▁拥有	-845
▁亲	-846
▁小行星	-847
▁洛	-848
▁永	-849
▁莫	-850
▁要求	-851
▁成功	-852
▁属于	-853
ro	-854
▁方式	-855
▁通常	-856
▁监	-857
▁母	-858
▁极	-859
▁仅	-860
▁泰	-861
▁兼	-862
▁范	-863
▁计划	-864
▁2018	-865
▁28	-866
▁证	-867
▁郡	-868
▁陆	-869
▁26	-870
▁独立	-871
▁自由	-872
▁2006	-873
▁技术	-874
▁卫	-875
▁亿	-876
学院	-877
▁短	-878
▁学院	-879
▁甚	-880
▁尔	-881
尼亚	-882
▁节目	-883
▁突	-884
▁雷	-885
▁旧	-886
▁留	-887
▁占	-888
▁瑞	-889
ing	-890
▁存在	-891
▁瓦	-892
▁总面积	-893
▁尚	-894
▁最大	-895
▁塞	-896
大利	-897
▁另外	-898
▁所以	-899
▁100	-900
▁确	-901
▁这种	-902
▁注	-903
▁封	-904
▁st	-905
▁提出	-906
▁毕业	-907
▁然而	-908
▁前往	-909
▁形成	-910
▁27	-911
罗斯	-912
▁功	-913
▁战争	-914
▁总统	-915
▁二十	-916
▁植	-917
▁方面	-918
▁延	-919
▁弗	-920
▁胡	-921
▁当地	-922
▁31	-923
▁出版	-924
▁往	-925
▁称为	-926
▁只有	-927
▁具有	-928
▁学生	-929
▁终	-930
▁朱	-931
▁们	-932
▁中共	-933
▁降	-934
▁营	-935
▁采用	-936
▁情况	-937
主义	-938
▁核	-939
▁不过	-940
▁2005	-941
▁一位	-942
▁驻	-943
▁效	-944
▁状	-945
▁门	-946
ed	-947
▁细	-948
共和国	-949
民国	-950
▁点	-951
▁追	-952
▁艺术	-953
▁试	-954
ch	-955
▁莱	-956
▁甲	-957
▁千	-958
▁头	-959
▁控制	-960
▁病	-961
▁边	-962
▁特别	-963
▁临	-964
▁集团	-965
▁合作	-966
▁系列	-967
▁in	-968
▁变化	-969
▁女性	-970
▁生产	-971
高度	-972
革命	-973
▁拍	-974
▁沿	-975
▁海拔高度	-976
▁国民	-977
▁取得	-978
▁走	-979
▁木	-980
ent	-981
▁此外	-982
▁签	-983
▁结束	-984
▁x	-985
▁西班	-986
▁西班牙	-987
▁造成	-988
▁航空	-989
▁舰	-990
▁29	-991
▁一名	-992
▁若	-993
▁有限	-994
ow	-995
▁承	-996
us	-997
▁诺	-998
▁帝	-999
▁一直	-1000
▁该国	-1001
▁an	-1002
▁快	-1003
▁财	-1004
▁接受	-1005
▁大陆	-1006
▁且	-1007
▁治	-1008
▁韩国	-1009
▁任何	-1010
▁2000	-1011
▁尽	-1012
▁嘉	-1013
▁主席	-1014
▁满	-1015
▁开发	-1016
▁击	-1017
▁扩	-1018
▁>	-1019
▁角色	-1020
▁爆	-1021
▁企	-1022
▁如果	-1023
▁联赛	-1024
▁背	-1025
▁持	-1026
▁首次	-1027
▁始	-1028
▁想	-1029
▁按	-1030
▁局	-1031
▁梅	-1032
▁托	-1033
▁杜	-1034
▁兰	-1035
▁康	-1036
▁除了	-1037
▁郑	-1038
▁超过	-1039
▁民主	-1040
▁机场	-1041
▁准	-1042
▁科学	-1043
▁选举	-1044
▁杂	-1045
▁宋	-1046
▁者	-1047
▁领导	-1048
▁一座	-1049
▁麦	-1050
▁时代	-1051
id	-1052
▁施	-1053
▁著	-1054
▁著名	-1055
▁增加	-1056
▁<	-1057
▁故事	-1058
▁宣布	-1059
▁附近	-1060
▁毛	-1061
ig	-1062
▁远	-1063
▁冲	-1064
▁植物	-1065
▁见	-1066
▁据	-1067
▁一次	-1068
▁减	-1069
▁190	-1070
▁力	-1071
▁距	-1072
▁请	-1073
▁令	-1074
▁住	-1075
▁微	-1076
▁京	-1077
▁父亲	-1078
▁还有	-1079
▁中华民国	-1080
▁50	-1081
▁轻	-1082
▁皮	-1083
▁俄罗斯	-1084
▁孙	-1085
▁经过	-1086
▁口	-1087
▁像	-1088
▁纽	-1089
▁祖	-1090
▁传统	-1091
▁混	-1092
▁非常	-1093
▁平均	-1094
▁届	-1095
▁导致	-1096
▁兵	-1097
▁卢	-1098
▁2019	-1099
▁北部	-1100
▁不是	-1101
▁归	-1102
▁逐	-1103
▁草	-1104
▁库	-1105
▁结果	-1106
▁相关	-1107
▁参与	-1108
▁密	-1109
▁命名	-1110
人民共和国	-1111
ad	-1112
os	-1113
▁画	-1114
▁无法	-1115
▁帕	-1116
▁列车	-1117
▁ch	-1118
▁某	-1119
▁乘	-1120
▁富	-1121
▁夫	-1122
▁跟	-1123
▁曲	-1124
▁皆	-1125
▁喜	-1126
▁语言	-1127
▁巨	-1128
▁大量	-1129
▁中华人民共和国	-1130
▁继续	-1131
▁南部	-1132
▁质	-1133
▁版本	-1134
▁2004	-1135
▁of	-1136
▁业	-1137
▁晚	-1138
▁新闻	-1139
▁破	-1140
▁义	-1141
▁撤	-1142
▁球队	-1143
▁启	-1144
▁船	-1145
▁之前	-1146
▁巡	-1147
ur	-1148
▁竞	-1149
▁y	-1150
▁重新	-1151
▁秘	-1152
▁我们	-1153
▁伯	-1154
▁摄	-1155
▁产生	-1156
▁测	-1157
▁争	-1158
▁居民	-1159
▁直接	-1160
▁透	-1161
▁40	-1162
▁摩	-1163
▁发表	-1164
▁街道	-1165
▁费	-1166
▁保护	-1167
▁院	-1168
▁乔	-1169
▁授	-1170
▁读	-1171
▁西北	-1172
▁甚至	-1173
▁韦	-1174
▁阿尔	-1175
▁唯	-1176
▁描	-1177
▁宝	-1178
▁落	-1179
▁'	-1180
▁苏联	-1181
▁赵	-1182
▁歌曲	-1183
▁胜	-1184
▁顺	-1185
▁股	-1186
▁玩	-1187
▁推出	-1188
▁000	-1189
▁过程	-1190
▁会议	-1191
▁br	-1192
▁结构	-1193
▁完全	-1194
▁田	-1195
▁索	-1196
▁叶	-1197
▁|	-1198
▁宫	-1199
▁现在	-1200
▁标准	-1201
▁耶	-1202
▁项目	-1203
▁现代	-1204
人口	-1205
▁霍	-1206
▁诸	-1207
▁论	-1208
▁假	-1209
▁军事	-1210
▁一起	-1211
▁方法	-1212
▁内容	-1213
▁迁	-1214
▁率	-1215
▁西南	-1216
▁查	-1217
▁检	-1218
▁最佳	-1219
▁晋	-1220
▁交通	-1221
▁劳	-1222
▁机构	-1223
▁频	-1224
▁改为	-1225
un	-1226
▁诗	-1227
▁级	-1228
od	-1229
▁出生	-1230
利亚	-1231
▁不能	-1232
▁这是	-1233
▁第四	-1234
▁中学	-1235
▁逃	-1236
▁第十	-1237
▁季	-1238
▁杰	-1239
格兰	-1240
iv	-1241
▁积	-1242
▁思	-1243
▁馀	-1244
▁媒	-1245
▁蓝	-1246
▁包含	-1247
▁奇	-1248
▁供	-1249
▁共同	-1250
▁随后	-1251
▁主义	-1252
ot	-1253
▁联盟	-1254
▁右	-1255
▁帮	-1256
▁宽	-1257
▁尤	-1258
▁必须	-1259
▁围	-1260
▁松	-1261
▁度	-1262
▁征	-1263
▁话	-1264
▁酒	-1265
▁讲	-1266
▁你	-1267
▁=	-1268
▁共有	-1269
▁调查	-1270
▁徐	-1271
▁直到	-1272
▁互	-1273
▁吸	-1274
▁2003	-1275
ir	-1276
▁迪	-1277
▁电子	-1278
▁适	-1279
▁而且	-1280
▁唱	-1281
▁审	-1282
▁形式	-1283
▁词	-1284
▁行动	-1285
▁房	-1286
▁丰	-1287
▁软	-1288
▁私	-1289
▁荷	-1290
▁难	-1291
▁丹	-1292
▁总人口	-1293
▁军队	-1294
▁随着	-1295
▁佔	-1296
ia	-1297
▁枪	-1298
▁探	-1299
▁杯	-1300
▁民族	-1301
▁有限公司	-1302
▁穆	-1303
▁后来	-1304
▁战斗	-1305
▁位置	-1306
▁公园	-1307
▁利用	-1308
▁浙	-1309
▁借	-1310
▁价	-1311
▁共和	-1312
▁废	-1313
▁哥	-1314
▁设有	-1315
▁菲	-1316
▁射	-1317
▁负责管	-1318
50	-1319
▁学习	-1320
▁赤	-1321
▁建设	-1322
▁动物	-1323
▁东北	-1324
▁容	-1325
▁意大利	-1326
im	-1327
▁基本	-1328
▁广东	-1329
▁贵	-1330
▁压	-1331
▁环境	-1332
▁谢	-1333
▁差	-1334
▁显示	-1335
▁设立	-1336
20	-1337
学家	-1338
▁太阳	-1339
▁女子	-1340
▁朝鲜	-1341
▁再次	-1342
▁热带	-1343
▁众	-1344
▁轨	-1345
▁工业	-1346
▁舞	-1347
▁弹	-1348
▁抵	-1349
▁旗	-1350
▁凯	-1351
ec	-1352
▁别	-1353
▁班	-1354
▁2002	-1355
▁教授	-1356
▁品	-1357
▁拿	-1358
▁绝	-1359
▁实际	-1360
▁安全	-1361
▁创作	-1362
▁主任	-1363
▁使得	-1364
▁希望	-1365
▁它们	-1366
▁很多	-1367
▁伦	-1368
▁相当	-1369
▁限	-1370
▁数据	-1371
▁致	-1372
▁人员	-1373
▁有关	-1374
▁法律	-1375
产党	-1376
▁媒体	-1377
▁一部分	-1378
▁选择	-1379
▁构	-1380
▁播出	-1381
▁魔	-1382
▁攻击	-1383
▁以上	-1384
▁演出	-1385
▁赫	-1386
▁市场	-1387
▁职业	-1388
▁鲁	-1389
▁自然	-1390
▁士	-1391
▁企业	-1392
▁补	-1393
▁名称	-1394
▁执行	-1395
▁聚	-1396
▁区域	-1397
▁基础	-1398
▁式	-1399
▁异	-1400
▁纪念	-1401
▁沃	-1402
▁货	-1403
▁穿	-1404
▁主持	-1405
▁董	-1406
▁刺	-1407
▁举办	-1408
▁反应	-1409
▁西部	-1410
▁玛	-1411
▁羽	-1412
▁体育	-1413
▁夺	-1414
▁梁	-1415
▁距离	-1416
▁速	-1417
▁部队	-1418
▁这样	-1419
▁听	-1420
▁送	-1421
斯特	-1422
▁范围	-1423
▁野	-1424
▁指挥	-1425
▁底	-1426
▁演员	-1427
▁大多	-1428
▁帝国	-1429
▁含	-1430
▁曼	-1431
▁简称	-1432
主教	-1433
克兰	-1434
▁暴	-1435
▁庄	-1436
▁楼	-1437
▁坐	-1438
▁理论	-1439
▁al	-1440
▁能够	-1441
▁运动员	-1442
▁浙江	-1443
▁目的	-1444
▁呈	-1445
▁雅	-1446
▁文物	-1447
▁锦	-1448
▁太平	-1449
▁骑	-1450
▁敌	-1451
▁照	-1452
▁能力	-1453
▁何	-1454
▁阿拉	-1455
▁唯一	-1456
▁冰	-1457
▁功能	-1458
▁偏	-1459
▁巴士	-1460
▁189	-1461
▁人类	-1462
ag	-1463
▁血	-1464
▁毫	-1465
▁栖	-1466
▁各种	-1467
▁反对	-1468
▁寺	-1469
▁漫	-1470
▁男性	-1471
▁仍然	-1472
▁缺	-1473
▁英文	-1474
▁计算	-1475
▁年间	-1476
▁协会	-1477
▁片	-1478
▁介	-1479
ation	-1480
▁召	-1481
▁一样	-1482
▁戏	-1483
▁馆	-1484
▁大部分	-1485
▁录	-1486
▁加拿	-1487
▁员	-1488
▁春	-1489
▁加拿大	-1490
▁公开	-1491
▁单曲	-1492
▁救	-1493
▁翻	-1494
▁阶	-1495
um	-1496
em	-1497
▁官方	-1498
▁立法	-1499
▁票	-1500
▁乡镇	-1501
▁革命	-1502
▁训	-1503
▁全球	-1504
▁第一次	-1505
▁处理	-1506
▁层	-1507
▁步	-1508
▁桥	-1509
▁基督	-1510
▁告	-1511
▁轮	-1512
▁生物	-1513
▁统治	-1514
▁早期	-1515
▁或者	-1516
▁宗教	-1517
▁顶	-1518
▁实验	-1519
▁齐	-1520
▁切	-1521
▁时候	-1522
▁找	-1523
▁四川	-1524
▁葡	-1525
▁圆	-1526
▁方向	-1527
▁专业	-1528
国家	-1529
▁坚	-1530
▁]	-1531
▁模式	-1532
▁60	-1533
▁禁	-1534
▁激	-1535
▁牛	-1536
▁境	-1537
▁关于	-1538
▁亚洲	-1539
▁[	-1540
▁应用	-1541
▁发布	-1542
▁商业	-1543
▁习	-1544
▁广州	-1545
▁原因	-1546
▁任务	-1547
▁乌克兰	-1548
▁销	-1549
▁天主教	-1550
▁兄	-1551
▁颁	-1552
▁末	-1553
▁绿	-1554
▁课	-1555
▁最初	-1556
▁宁	-1557
▁公共	-1558
▁礼	-1559
▁概	-1560
▁东南	-1561
▁洪	-1562
▁段	-1563
▁严重	-1564
▁逐渐	-1565
▁南京	-1566
▁树	-1567
▁十二	-1568
▁指出	-1569
▁这一	-1570
▁地球	-1571
▁山东	-1572
▁以来	-1573
▁全部	-1574
▁小时	-1575
▁儿子	-1576
▁景	-1577
委员会	-1578
▁一条	-1579
▁政策	-1580
▁横	-1581
▁纽约	-1582
▁综	-1583
▁越南	-1584
▁去世	-1585
▁空间	-1586
▁讨	-1587
▁申	-1588
▁清朝	-1589
▁高速	-1590
▁三个	-1591
▁不久	-1592
▁恒	-1593
▁演唱	-1594
▁操	-1595
▁戴	-1596
▁分为	-1597
ay	-1598
▁han	-1599
▁府	-1600
▁资料	-1601
ut	-1602
▁一部	-1603
▁紧	-1604
▁曾经	-1605
▁地下	-1606
▁固	-1607
▁灵	-1608
▁明朝	-1609
▁进士	-1610
▁药	-1611
▁家庭	-1612
▁仪	-1613
▁源	-1614
▁道路	-1615
▁城镇	-1616
▁博物	-1617
▁1999	-1618
▁每年	-1619
▁守	-1620
▁大型	-1621
▁广播	-1622
ap	-1623
▁冠军	-1624
▁藏	-1625
▁当选	-1626
▁当中	-1627
▁招	-1628
▁团体	-1629
▁充	-1630
▁1990	-1631
▁俱	-1632
▁决赛	-1633
▁死亡	-1634
▁怀	-1635
▁厅	-1636
▁青年	-1637
▁表现	-1638
▁博士	-1639
▁森	-1640
▁描述	-1641
▁甘	-1642
▁英语	-1643
▁返	-1644
▁恐	-1645
▁35	-1646
▁栖息	-1647
▁男子	-1648
▁人士	-1649
▁天津	-1650
▁轨道	-1651
▁购	-1652
▁乡镇级	-1653
▁佩	-1654
▁曹	-1655
▁天文	-1656
and	-1657
▁钱	-1658
▁列表	-1659
▁避	-1660
▁海军	-1661
▁发动	-1662
▁土地	-1663
▁一年	-1664
▁犹	-1665
▁网络	-1666
▁三年	-1667
▁为了	-1668
op	-1669
▁整个	-1670
▁相同	-1671
▁投资	-1672
▁生于	-1673
▁三十	-1674
西亚	-1675
▁?	-1676
▁坦	-1677
系统	-1678
▁符	-1679
▁类似	-1680
▁智	-1681
▁贡	-1682
▁行为	-1683
▁秦	-1684
▁危	-1685
▁银行	-1686
▁公路	-1687
▁赢	-1688
▁1998	-1689
▁及其	-1690
▁报告	-1691
▁汽	-1692
▁寻	-1693
▁名字	-1694
▁达到	-1695
▁议会	-1696
▁离开	-1697
▁两人	-1698
▁玉	-1699
▁色	-1700
▁号线	-1701
ter	-1702
▁荣	-1703
尔斯	-1704
▁葡萄	-1705
oc	-1706
▁记载	-1707
▁议员	-1708
克斯	-1709
▁美元	-1710
▁辐	-1711
▁还是	-1712
▁最早	-1713
▁墨	-1714
▁国王	-1715
▁医院	-1716
▁伤	-1717
▁规定	-1718
▁不会	-1719
▁la	-1720
▁蔡	-1721
▁de	-1722
▁训练	-1723
▁遭到	-1724
▁恶	-1725
▁32	-1726
▁80	-1727
▁出身	-1728
▁郭	-1729
▁约翰	-1730
▁第五	-1731
▁不少	-1732
▁免	-1733
▁丁	-1734
▁and	-1735
▁阻	-1736
60	-1737
▁判	-1738
▁恢	-1739
▁年度	-1740
▁飞机	-1741
▁恩	-1742
▁引起	-1743
▁福建	-1744
▁截	-1745
▁作用	-1746
▁图示	-1747
乐部	-1748
▁架	-1749
▁用于	-1750
▁回到	-1751
▁玩家	-1752
▁主教	-1753
▁东部	-1754
▁目标	-1755
▁奉	-1756
▁民国	-1757
▁蒙古	-1758
▁母亲	-1759
▁助	-1760
▁台北	-1761
▁宇	-1762
▁连接	-1763
▁并在	-1764
▁君	-1765
▁物理	-1766
▁河南	-1767
▁188	-1768
▁1997	-1769
og	-1770
▁辽	-1771
▁妻	-1772
▁改变	-1773
▁外交	-1774
▁设置	-1775
▁宪	-1776
▁爆发	-1777
▁阴	-1778
▁联邦	-1779
▁加上	-1780
贸易	-1781
▁只是	-1782
▁文学	-1783
▁帮助	-1784
▁拜	-1785
10	-1786
▁漫画	-1787
▁00	-1788
▁阵	-1789
▁输	-1790
▁拒	-1791
▁杂志	-1792
▁硬	-1793
▁公尺	-1794
▁澳门	-1795
▁同样	-1796
▁町	-1797
ce	-1798
▁元年	-1799
▁休	-1800
▁自治	-1801
▁路线	-1802
▁俱乐部	-1803
▁表演	-1804
▁顾	-1805
▁制度	-1806
隶属	-1807
▁损	-1808
▁1980	-1809
▁取代	-1810
▁现时	-1811
▁透过	-1812
▁建造	-1813
▁尾	-1814
▁身份	-1815
▁第二次	-1816
▁稳	-1817
▁教堂	-1818
▁45	-1819
▁居住	-1820
▁地位	-1821
▁钢	-1822
▁护	-1823
▁蒋	-1824
▁70	-1825
▁沈	-1826
▁什	-1827
▁一定	-1828
▁案	-1829
▁呼	-1830
▁人们	-1831
▁动画	-1832
▁经常	-1833
▁广场	-1834
▁事务	-1835
▁努	-1836
▁中部	-1837
▁产品	-1838
▁33	-1839
▁赛事	-1840
▁社区	-1841
▁眼	-1842
▁辛	-1843
▁新加	-1844
▁遇	-1845
▁原本	-1846
▁魏	-1847
▁速度	-1848
▁纪录	-1849
▁小说	-1850
th	-1851
▁re	-1852
▁新加坡	-1853
▁大约	-1854
▁搭	-1855
▁+	-1856
▁跨	-1857
▁驱	-1858
▁东京	-1859
▁月台	-1860
▁暂	-1861
▁函	-1862
▁每个	-1863
▁希腊	-1864
▁来自	-1865
▁始建	-1866
▁中文	-1867
▁有些	-1868
▁量	-1869
▁连续	-1870
▁孔	-1871
▁持续	-1872
▁脱	-1873
▁典	-1874
av	-1875
▁成绩	-1876
▁家族	-1877
▁一颗	-1878
19	-1879
▁出任	-1880
▁定义	-1881
▁科技	-1882
▁盖	-1883
▁制作	-1884
▁风格	-1885
▁访	-1886
▁任命	-1887
▁叫	-1888
▁赛季	-1889
ers	-1890
▁勒	-1891
▁90	-1892
▁荷兰	-1893
ie	-1894
▁流行	-1895
▁哲	-1896
▁主题	-1897
▁可达	-1898
▁厂	-1899
▁经营	-1900
地区	-1901
▁巴西	-1902
▁十分	-1903
▁吕	-1904
▁信息	-1905
▁赢得	-1906
▁球员	-1907
▁改革	-1908
▁肯	-1909
▁对于	-1910
▁几乎	-1911
▁开放	-1912
48	-1913
▁繁	-1914
▁关系	-1915
▁1996	-1916
▁飞行	-1917
▁邓	-1918
▁领域	-1919
▁ar	-1920
▁击败	-1921
▁歌手	-1922
▁潜	-1923
▁187	-1924
▁毫米	-1925
▁唱片	-1926
▁零	-1927
▁超级	-1928
▁生长	-1929
▁健	-1930
▁划	-1931
▁先后	-1932
ul	-1933
▁作家	-1934
▁左右	-1935
▁涉	-1936
▁公分	-1937
▁图书	-1938
▁淡	-1939
▁祭	-1940
▁奥运	-1941
▁属下	-1942
共产党	-1943
▁学者	-1944
40	-1945
▁炮	-1946
▁湖南	-1947
▁谈	-1948
▁境内	-1949
▁象	-1950
▁斯特	-1951
▁500	-1952
保护	-1953
▁伊斯	-1954
▁鸟	-1955
▁至今	-1956
▁散	-1957
▁罗马	-1958
▁内部	-1959
▁司令	-1960
▁群岛	-1961
▁残	-1962
▁一家	-1963
▁饰	-1964
▁1994	-1965
▁婚	-1966
▁皇帝	-1967
▁彼	-1968
▁建议	-1969
▁然后	-1970
▁南极	-1971
▁星期	-1972
▁娱	-1973
▁保持	-1974
▁分析	-1975
▁细胞	-1976
▁概念	-1977
30	-1978
▁分钟	-1979
▁邻	-1980
▁导演	-1981
▁兄弟	-1982
▁柏	-1983
学校	-1984
▁挑	-1985
▁乙	-1986
▁多次	-1987
▁1995	-1988
▁或是	-1989
▁规划	-1990
▁培	-1991
▁英格兰	-1992
▁墓	-1993
▁首都	-1994
▁部长	-1995
▁为主	-1996
▁克里	-1997
ip	-1998
▁夜	-1999
▁冬	-2000
▁机车	-2001
▁替	-2002
▁警察	-2003
▁油	-2004
▁官员	-2005
▁江苏	-2006
▁拆	-2007
▁状态	-2008
▁拒绝	-2009
▁陕	-2010
▁汽车	-2011
▁影片	-2012
中央	-2013
▁38	-2014
▁太平洋	-2015
▁桑	-2016
▁网站	-2017
▁广泛	-2018
▁隔	-2019
▁『	-2020
▁流域	-2021
▁此时	-2022
▁黎	-2023
▁』	-2024
▁波兰	-2025
▁〉	-2026
▁普通	-2027
▁地铁	-2028
▁室	-2029
▁〈	-2030
▁实现	-2031
▁战役	-2032
▁娱乐	-2033
▁侵	-2034
▁排名	-2035
▁冯	-2036
▁条件	-2037
▁同意	-2038
▁日至	-2039
ov	-2040
▁铜	-2041
▁协助	-2042
▁换	-2043
▁数量	-2044
▁准备	-2045
▁骨	-2046
▁基地	-2047
▁减少	-2048
ub	-2049
▁初期	-2050
▁叙	-2051
▁武器	-2052
▁董事	-2053
▁36	-2054
▁记者	-2055
▁邀	-2056
▁盛	-2057
▁辅	-2058
▁冷	-2059
▁精神	-2060
▁相对	-2061
▁汇	-2062
▁机会	-2063
▁设备	-2064
▁享	-2065
▁崇	-2066
▁公元	-2067
▁继承	-2068
▁羽毛	-2069
▁化学	-2070
▁掌	-2071
ard	-2072
斯坦	-2073
▁云南	-2074
▁匈	-2075
▁com	-2076
▁此后	-2077
▁1993	-2078
▁罪	-2079
▁1992	-2080
▁评论	-2081
▁乃	-2082
▁竹	-2083
放军	-2084
▁组合	-2085
▁自动	-2086
▁萧	-2087
▁宣传	-2088
▁°	-2089
▁记录	-2090
▁委	-2091
▁邮	-2092
▁类型	-2093
普查	-2094
▁人口普查	-2095
▁是否	-2096
▁th	-2097
▁有人	-2098
▁昆	-2099
▁设施	-2100
运动	-2101
▁不断	-2102
▁因而	-2103
▁知名	-2104
▁多个	-2105
▁国内	-2106
▁限制	-2107
▁违	-2108
▁巴黎	-2109
世界	-2110
▁二年	-2111
▁戈	-2112
▁发射	-2113
▁殖	-2114
ab	-2115
▁暗	-2116
▁针	-2117
▁中国人民	-2118
▁刚	-2119
▁未来	-2120
▁37	-2121
▁柯	-2122
▁tw	-2123
▁御	-2124
▁置	-2125
▁岩	-2126
国际	-2127
▁进攻	-2128
▁促	-2129
▁犯	-2130
▁户	-2131
▁缩	-2132
ak	-2133
▁鼓	-2134
▁园	-2135
▁综合	-2136
中心	-2137
▁又名	-2138
千米	-2139
▁书记	-2140
▁谷	-2141
▁伦敦	-2142
▁如下	-2143
▁批评	-2144
▁物种	-2145
▁麻	-2146
▁运行	-2147
▁似	-2148
▁赴	-2149
▁租	-2150
▁un	-2151
ind	-2152
▁公布	-2153
▁佛教	-2154
▁接近	-2155
▁柴	-2156
▁族	-2157
▁非洲	-2158
▁盐	-2159
▁妻子	-2160
▁双方	-2161
▁平方千米	-2162
▁中国共产党	-2163
▁过去	-2164
▁运输	-2165
▁殖民	-2166
▁汤	-2167
▁将军	-2168
▁贸易	-2169
▁1991	-2170
▁sh	-2171
▁错	-2172
▁和平	-2173
▁参赛	-2174
▁偶	-2175
▁电视台	-2176
▁集中	-2177
▁赞	-2178
▁农业	-2179
▁良	-2180
▁夏季	-2181
▁基金	-2182
▁犹太	-2183
▁隐	-2184
▁志	-2185
▁1950	-2186
▁34	-2187
▁tr	-2188
▁庙	-2189
▁平台	-2190
▁女儿	-2191
▁弟	-2192
▁元素	-2193
▁庆	-2194
尔德	-2195
▁允	-2196
▁彭	-2197
拉斯	-2198
▁日起	-2199
▁电视剧	-2200
▁电脑	-2201
80	-2202
▁治疗	-2203
▁解决	-2204
▁投入	-2205
▁q	-2206
▁同一	-2207
委会	-2208
▁屋	-2209
▁隆	-2210
▁尊	-2211
▁途	-2212
▁力量	-2213
▁王朝	-2214
▁名为	-2215
▁隶属	-2216
11	-2217
▁频道	-2218
▁加利	-2219
▁山西	-2220
▁知道	-2221
▁紫	-2222
oun	-2223
ct	-2224
▁高级	-2225
▁返回	-2226
▁锦标	-2227
▁幼	-2228
▁作战	-2229
▁186	-2230
▁第六	-2231
▁译	-2232
▁颜	-2233
▁威廉	-2234
▁程度	-2235
▁快速	-2236
▁席	-2237
est	-2238
▁办公	-2239
▁坑	-2240
▁分子	-2241
▁1970	-2242
▁研究所	-2243
▁统计	-2244
▁值	-2245
▁孟	-2246
▁刑	-2247
氧化	-2248
▁1949	-2249
▁阳	-2250
▁求	-2251
▁地面	-2252
▁辞	-2253
▁一段	-2254
▁交易	-2255
▁有效	-2256
▁材	-2257
▁尚未	-2258
▁示	-2259
▁雪	-2260
ik	-2261
▁舰队	-2262
▁倒	-2263
▁学家	-2264
▁秘书	-2265
▁确定	-2266
▁这里	-2267
▁特殊	-2268
▁奥林	-2269
▁而是	-2270
▁王国	-2271
州市	-2272
▁捷	-2273
▁sp	-2274
代表	-2275
▁西方	-2276
▁乔治	-2277
▁批准	-2278
▁其它	-2279
▁不再	-2280
▁高等	-2281
▁友	-2282
▁支援	-2283
▁逝	-2284
▁体长	-2285
▁思想	-2286
▁虚	-2287
▁协议	-2288
▁资格	-2289
▁易	-2290
▁牠	-2291
▁海域	-2292
▁只能	-2293
铁路	-2294
ist	-2295
▁高中	-2296
▁葡萄牙	-2297
▁下午	-2298
▁蛋	-2299
▁其后	-2300
▁患	-2301
▁保留	-2302
▁正在	-2303
▁旅游	-2304
▁跳	-2305
▁统一	-2306
▁播放	-2307
▁公民	-2308
▁函数	-2309
大会	-2310
▁奥斯	-2311
12	-2312
▁重建	-2313
▁释	-2314
▁用户	-2315
▁直至	-2316
▁一带	-2317
▁破坏	-2318
▁总理	-2319
▁榜	-2320
▁澳大利	-2321
▁侧	-2322
ang	-2323
▁车辆	-2324
▁比较	-2325
ine	-2326
▁实施	-2327
▁移动	-2328
▁39	-2329
▁分类	-2330
▁1988	-2331
▁le	-2332
战争	-2333
▁文物保护	-2334
▁斗	-2335
▁计画	-2336
法院	-2337
▁遂	-2338
书记	-2339
▁人工	-2340
▁詹	-2341
▁未能	-2342
▁辐鳍	-2343
▁遗址	-2344
▁孩	-2345
▁各地	-2346
▁万人	-2347
▁恒星	-2348
▁hk	-2349
▁教会	-2350
▁地震	-2351
▁码	-2352
▁势	-2353
▁急	-2354
▁村落	-2355
▁欢	-2356
▁不明	-2357
▁绘	-2358
▁te	-2359
▁估	-2360
▁1989	-2361
▁羽毛球	-2362
▁袭	-2363
▁on	-2364
▁潘	-2365
▁停止	-2366
▁兴建	-2367
▁稳定	-2368
▁光绪	-2369
▁看到	-2370
▁篮	-2371
▁业务	-2372
▁西藏	-2373
▁买	-2374
ill	-2375
▁交流	-2376
▁创办	-2377
▁筹	-2378
▁驾	-2379
▁图书馆	-2380
▁sa	-2381
▁大臣	-2382
▁旗下	-2383
▁贾	-2384
▁解释	-2385
▁300	-2386
▁水域	-2387
▁创立	-2388
▁算	-2389
▁十一	-2390
▁核心	-2391
▁hans	-2392
▁南北	-2393
▁1945	-2394
▁观众	-2395
▁儿童	-2396
斯科	-2397
▁江西	-2398
▁国立	-2399
▁之外	-2400
▁国务	-2401
▁mar	-2402
25	-2403
▁上映	-2404
▁尤其	-2405
▁再度	-2406
▁改名	-2407
▁国会	-2408
▁所在	-2409
▁应该	-2410
▁佐	-2411
▁讨论	-2412
▁亨	-2413
▁重庆	-2414
▁价值	-2415
▁基督教	-2416
▁1960	-2417
▁文件	-2418
▁国民党	-2419
▁章	-2420
罗马	-2421
▁临时	-2422
▁河北	-2423
▁燃	-2424
ob	-2425
美洲	-2426
▁旁	-2427
▁四年	-2428
▁一场	-2429
▁销售	-2430
▁编号	-2431
▁特征	-2432
▁迈	-2433
▁梦	-2434
▁卷	-2435
▁端	-2436
匹克	-2437
▁col	-2438
ud	-2439
▁课程	-2440
▁高度	-2441
▁这次	-2442
▁缅	-2443
▁靠	-2444
▁现象	-2445
▁以前	-2446
▁迅	-2447
▁～	-2448
▁言	-2449
朋友	-2450
▁皇家	-2451
▁沉	-2452
▁滑	-2453
▁东西	-2454
▁投票	-2455
▁操作	-2456
▁迷	-2457
▁扎	-2458
▁阶段	-2459
▁教区	-2460
▁顿	-2461
if	-2462
▁部份	-2463
▁失去	-2464
▁逝世	-2465
▁肉	-2466
▁建成	-2467
自治	-2468
▁风暴	-2469
ok	-2470
▁运动会	-2471
▁生命	-2472
▁候	-2473
▁川	-2474
▁重点	-2475
▁陕西	-2476
▁袁	-2477
▁公主	-2478
▁板	-2479
▁搜	-2480
▁is	-2481
▁提名	-2482
▁茶	-2483
▁更名	-2484
▁潮	-2485
21	-2486
▁体系	-2487
▁改编	-2488
▁困	-2489
▁陶	-2490
▁凤	-2491
▁55	-2492
▁蒂	-2493
▁主演	-2494
▁堂	-2495
▁秋	-2496
▁粉	-2497
▁结婚	-2498
▁来源	-2499
▁大会	-2500
▁表面	-2501
ess	-2502
▁证明	-2503
方面	-2504
70	-2505
▁高雄	-2506
▁锦标赛	-2507
▁取消	-2508
隧道	-2509
▁联合国	-2510
▁昭	-2511
ra	-2512
▁矿	-2513
▁豪	-2514
▁1985	-2515
▁卖	-2516
▁器	-2517
▁两种	-2518
▁引擎	-2519
比亚	-2520
▁本地	-2521
▁二世	-2522
▁命令	-2523
▁等等	-2524
▁忠	-2525
▁慈	-2526
▁资源	-2527
▁程序	-2528
▁移民	-2529
▁方案	-2530
▁某些	-2531
▁咸	-2532
▁制造	-2533
▁大战	-2534
▁拍摄	-2535
▁瑞典	-2536
▁一世	-2537
▁之中	-2538
▁不可	-2539
▁部门	-2540
▁结合	-2541
▁剑	-2542
▁纯	-2543
▁果	-2544
大陆	-2545
▁宾	-2546
▁数学	-2547
▁客运	-2548
▁澳洲	-2549
▁大道	-2550
▁ne	-2551
▁载	-2552
▁曾任	-2553
▁奥林匹克	-2554
▁1986	-2555
▁养	-2556
▁测试	-2557
▁跑	-2558
▁氏	-2559
▁断	-2560
▁当年	-2561
▁纵	-2562
▁尖	-2563
▁一同	-2564
▁前身	-2565
▁失败	-2566
▁规模	-2567
▁考虑	-2568
▁迎	-2569
▁倾	-2570
▁允许	-2571
▁普遍	-2572
▁总部	-2573
▁马来	-2574
▁1987	-2575
▁效力	-2576
▁pro	-2577
▁宪法	-2578
▁南方	-2579
▁首府	-2580
▁德语	-2581
▁生涯	-2582
▁不得	-2583
▁五年	-2584
▁脚	-2585
▁报道	-2586
▁饮	-2587
▁股份	-2588
ba	-2589
▁得以	-2590
▁着作	-2591
▁西亚	-2592
▁以外	-2593
15	-2594
▁é	-2595
▁旋	-2596
▁1984	-2597
▁提高	-2598
▁作出	-2599
系列	-2600
▁有所	-2601
▁崔	-2602
▁孩子	-2603
▁机械	-2604
▁宜	-2605
▁档	-2606
▁湖北	-2607
▁本身	-2608
▁吃	-2609
▁48	-2610
▁出来	-2611
▁古代	-2612
▁质量	-2613
▁融	-2614
▁溪	-2615
▁善	-2616
▁裁	-2617
▁阮	-2618
▁模型	-2619
▁侍	-2620
尔兰	-2621
na	-2622
▁警方	-2623
▁责	-2624
▁翻译	-2625
公路	-2626
▁否	-2627
▁线路	-2628
▁185	-2629
▁观察	-2630
▁策	-2631
▁身体	-2632
▁发售	-2633
解放军	-2634
▁牵	-2635
▁选手	-2636
▁京都	-2637
▁材料	-2638
▁插	-2639
姆斯	-2640
ows	-2641
▁展开	-2642
▁收录	-2643
▁电力	-2644
▁士兵	-2645
▁仁	-2646
▁叛	-2647
▁于是	-2648
▁一系列	-2649
▁侯	-2650
乾隆	-2651
▁童	-2652
▁46	-2653
▁瑞士	-2654
▁姓	-2655
▁乘客	-2656
▁柳	-2657
▁海岸	-2658
▁阿拉伯	-2659
▁机关	-2660
ell	-2661
▁变成	-2662
▁巨大	-2663
▁找到	-2664
▁调整	-2665
▁胜利	-2666
▁玻	-2667
▁权力	-2668
▁选区	-2669
▁毒	-2670
▁小学	-2671
▁现场	-2672
▁43	-2673
▁42	-2674
▁发出	-2675
▁创造	-2676
▁广告	-2677
▁多年	-2678
▁路易	-2679
▁起来	-2680
▁相似	-2681
▁视为	-2682
▁年底	-2683
西哥	-2684
▁之下	-2685
▁将会	-2686
▁运营	-2687
ice	-2688
▁铁道	-2689
▁金融	-2690
▁凭	-2691
▁祖父	-2692
▁第七	-2693
▁仙	-2694
▁灭	-2695
▁芬	-2696
▁容易	-2697
▁中山	-2698
合物	-2699
18	-2700
▁既	-2701
▁中国人民解放军	-2702
▁鲤	-2703
▁隧道	-2704
▁旅客	-2705
▁试图	-2706
▁安徽	-2707
▁另一	-2708
▁桃	-2709
▁辆	-2710
▁75	-2711
▁作者	-2712
▁1982	-2713
16	-2714
▁雄	-2715
▁fr	-2716
▁卡尔	-2717
▁金属	-2718
▁至少	-2719
维亚	-2720
▁提升	-2721
▁am	-2722
▁避免	-2723
▁1983	-2724
▁四个	-2725
▁尽管	-2726
▁惠	-2727
▁杭	-2728
▁砲	-2729
▁明显	-2730
▁态	-2731
▁虎	-2732
▁少数	-2733
▁as	-2734
▁消息	-2735
▁鱼纲	-2736
▁恢复	-2737
▁全长	-2738
▁简单	-2739
▁武装	-2740
▁文章	-2741
▁界	-2742
▁地点	-2743
▁申请	-2744
▁很大	-2745
▁财政	-2746
▁轰	-2747
▁%	-2748
▁职务	-2749
▁渡	-2750
▁迅速	-2751
▁特定	-2752
▁雨	-2753
▁数字	-2754
▁引发	-2755
会议	-2756
▁东方	-2757
▁陨	-2758
▁以后	-2759
牙利	-2760
▁匈牙利	-2761
▁以色	-2762
all	-2763
ian	-2764
▁信号	-2765
▁ap	-2766
▁安排	-2767
▁珍	-2768
▁文字	-2769
▁几个	-2770
▁法院	-2771
▁森林	-2772
▁乾隆	-2773
▁磁	-2774
▁争议	-2775
▁以色列	-2776
▁学术	-2777
▁折	-2778
▁深圳	-2779
▁雕	-2780
▁按照	-2781
▁or	-2782
▁广西	-2783
▁撞	-2784
13	-2785
▁如此	-2786
▁说法	-2787
▁意思	-2788
45	-2789
▁wind	-2790
▁寄	-2791
90	-2792
▁笔	-2793
▁自行	-2794
▁挑战	-2795
17	-2796
▁维持	-2797
▁常见	-2798
▁爵	-2799
▁65	-2800
▁访问	-2801
▁注意	-2802
▁不足	-2803
▁大楼	-2804
▁迫	-2805
▁市民	-2806
拉克	-2807
▁四十	-2808
▁个人	-2809
▁有时	-2810
▁朋友	-2811
▁47	-2812
▁hd	-2813
▁螺	-2814
▁召开	-2815
▁医学	-2816
▁惊	-2817
▁棒	-2818
▁题	-2819
▁拉丁	-2820
▁实行	-2821
▁构成	-2822
▁气象	-2823
▁中共中央	-2824
▁关注	-2825
▁禁止	-2826
▁侦	-2827
▁强烈	-2828
▁指定	-2829
▁才能	-2830
▁其馀	-2831
▁知识	-2832
▁邀请	-2833
▁背景	-2834
▁并非	-2835
▁工人	-2836
▁飓	-2837
▁新疆	-2838
▁酒店	-2839
▁悬	-2840
▁吸引	-2841
ive	-2842
▁出口	-2843
▁飓风	-2844
▁洋	-2845
▁专门	-2846
▁管辖	-2847
▁亿元	-2848
▁舍	-2849
▁博物馆	-2850
▁慕	-2851
▁作曲	-2852
▁竞争	-2853
▁针对	-2854
▁淡水	-2855
▁高速公路	-2856
▁抗日	-2857
▁素	-2858
▁搬	-2859
▁中间	-2860
▁用来	-2861
47	-2862
▁完整	-2863
▁全面	-2864
▁墨西哥	-2865
▁一项	-2866
▁陆军	-2867
▁主角	-2868
▁解放	-2869
▁感到	-2870
▁配合	-2871
▁律	-2872
▁at	-2873
▁并不	-2874
▁疾	-2875
▁幸	-2876
▁能量	-2877
▁北方	-2878
▁缓	-2879
▁教学	-2880
▁邨	-2881
▁仔	-2882
35	-2883
▁白色	-2884
▁con	-2885
▁外国	-2886
▁授予	-2887
▁武汉	-2888
▁特色	-2889
▁be	-2890
▁心理	-2891
▁发起	-2892
▁1979	-2893
ack	-2894
▁鲍	-2895
▁估计	-2896
▁品牌	-2897
▁十年	-2898
▁冲突	-2899
▁市区	-2900
▁凌	-2901
▁楚	-2902
▁地理	-2903
▁国务院	-2904
▁镜	-2905
人员	-2906
▁葛	-2907
▁经历	-2908
▁土耳	-2909
▁抵达	-2910
▁土耳其	-2911
▁编辑	-2912
▁猪	-2913
▁发电	-2914
▁人数	-2915
▁评价	-2916
▁英尺	-2917
▁150	-2918
▁创建	-2919
▁比利	-2920
▁灰	-2921
bo	-2922
议院	-2923
▁钟	-2924
▁大小	-2925
▁捐	-2926
te	-2927
▁合并	-2928
22	-2929
▁静	-2930
▁十三	-2931
▁卫星	-2932
▁硕	-2933
▁增长	-2934
规模	-2935
▁先生	-2936
伯特	-2937
▁报导	-2938
▁资讯	-2939
▁丝	-2940
▁宇宙	-2941
▁妇	-2942
our	-2943
▁哲学	-2944
ue	-2945
▁固定	-2946
▁大使	-2947
▁事实	-2948
▁陷	-2949
▁一切	-2950
▁续	-2951
▁牧	-2952
▁乐团	-2953
▁400	-2954
▁更加	-2955
议员	-2956
▁浮	-2957
▁入侵	-2958
▁皇后	-2959
▁1978	-2960
▁喜欢	-2961
▁windows	-2962
▁49	-2963
▁pr	-2964
▁ma	-2965
▁带来	-2966
▁抽	-2967
▁并未	-2968
▁产业	-2969
▁校长	-2970
▁储	-2971
▁扬	-2972
▁被迫	-2973
ph	-2974
▁英雄	-2975
▁承认	-2976
▁给予	-2977
▁如何	-2978
▁盘	-2979
▁原子	-2980
14	-2981
▁泰国	-2982
▁幕	-2983
▁海外	-2984
▁喷	-2985
▁标志	-2986
▁篮球	-2987
▁恋	-2988
▁表达	-2989
▁北京市	-2990
oh	-2991
▁袭击	-2992
art	-2993
▁启用	-2994
▁原来	-2995
▁物质	-2996
igh	-2997
▁电台	-2998
ver	-2999
▁牌	-3000
▁采取	-3001
▁主张	-3002
▁很快	-3003
▁势力	-3004
▁十六	-3005
▁缺乏	-3006
▁180	-3007
37	-3008
▁两年	-3009
▁网路	-3010
▁父母	-3011
▁坎	-3012
▁to	-3013
▁撤销	-3014
▁ii	-3015
▁en	-3016
▁少年	-3017
▁菲律	-3018
世纪	-3019
▁效果	-3020
▁比如	-3021
▁一度	-3022
▁彩	-3023
▁基因	-3024
▁久	-3025
▁44	-3026
▁殿	-3027
▁勇	-3028
▁住宅	-3029
▁气旋	-3030
▁列为	-3031
▁se	-3032
游戏	-3033
▁推动	-3034
▁望	-3035
产生	-3036
▁觉	-3037
▁晚上	-3038
▁剩	-3039
se	-3040
▁店	-3041
23	-3042
▁撰	-3043
▁总督	-3044
▁锡	-3045
▁周边	-3046
▁字母	-3047
▁拓	-3048
▁64	-3049
▁领袖	-3050
▁gr	-3051
▁条约	-3052
▁珠	-3053
▁提到	-3054
ge	-3055
▁压力	-3056
▁加盟	-3057
▁猎	-3058
▁专家	-3059
▁1981	-3060
电视	-3061
▁法兰	-3062
▁捕	-3063
▁餐	-3064
▁了解	-3065
▁收入	-3066
▁留下	-3067
▁朗	-3068
▁仪式	-3069
▁大致	-3070
▁go	-3071
ity	-3072
▁信仰	-3073
▁多数	-3074
▁装置	-3075
▁代码	-3076
▁即使	-3077
▁十八	-3078
▁真正	-3079
▁事业	-3080
▁邦	-3081
▁小型	-3082
▁需求	-3083
▁夺得	-3084
▁正常	-3085
▁规则	-3086
▁水平	-3087
▁那些	-3088
26	-3089
▁医疗	-3090
▁庞	-3091
▁本站	-3092
▁苏格兰	-3093
ert	-3094
▁海洋	-3095
▁仓	-3096
▁份	-3097
▁经验	-3098
▁软件	-3099
▁&	-3100
▁首先	-3101
▁延伸	-3102
▁修改	-3103
ant	-3104
▁市长	-3105
▁混合	-3106
▁意义	-3107
尔特	-3108
▁宿	-3109
▁疏	-3110
斯基	-3111
▁1946	-3112
▁刊	-3113
▁填	-3114
▁出席	-3115
▁灌	-3116
▁埃及	-3117
24	-3118
▁额	-3119
▁从事	-3120
▁所属	-3121
▁刻	-3122
▁售	-3123
▁洞	-3124
▁太空	-3125
后来	-3126
▁接触	-3127
28	-3128
▁时任	-3129
ib	-3130
▁58	-3131
▁河流	-3132
▁坦克	-3133
27	-3134
io	-3135
▁放弃	-3136
▁观点	-3137
▁重大	-3138
▁沟	-3139
▁相信	-3140
▁绝对	-3141
▁栽	-3142
▁因素	-3143
▁积极	-3144
▁累	-3145
▁秒	-3146
▁改造	-3147
▁屯	-3148
▁灯	-3149
▁截至	-3150
▁原名	-3151
▁健康	-3152
▁贡献	-3153
▁秀	-3154
▁小组	-3155
▁烟	-3156
▁枚	-3157
▁舒	-3158
▁加利福	-3159
▁糖	-3160
▁权利	-3161
▁现任	-3162
▁1958	-3163
▁部落	-3164
▁球季	-3165
▁照片	-3166
▁食物	-3167
▁方程	-3168
▁粗	-3169
▁备	-3170
▁劳动	-3171
▁多种	-3172
▁威胁	-3173
▁厄	-3174
▁降低	-3175
ich	-3176
▁一所	-3177
▁改善	-3178
▁观测	-3179
▁寿	-3180
▁腹	-3181
▁序	-3182
▁印尼	-3183
▁56	-3184
▁十字	-3185
▁舞台	-3186
▁上市	-3187
▁明治	-3188
▁第一个	-3189
▁亚历	-3190
▁秘密	-3191
▁揭	-3192
▁退出	-3193
▁一步	-3194
▁收购	-3195
动物	-3196
▁十五	-3197
▁农村	-3198
▁焦	-3199
▁机器	-3200
▁挪	-3201
▁待	-3202
▁露	-3203
▁蛋白	-3204
▁琉	-3205
▁代理	-3206
▁爱尔兰	-3207
▁一支	-3208
▁团队	-3209
▁翌	-3210
▁彼得	-3211
扮演	-3212
▁抢	-3213
▁今日	-3214
▁传播	-3215
时间	-3216
▁当局	-3217
▁次年	-3218
▁装甲	-3219
▁愿	-3220
▁驾驶	-3221
36	-3222
▁误	-3223
▁屏	-3224
▁尚书	-3225
▁万元	-3226
▁涉及	-3227
▁绕	-3228
▁保存	-3229
sp	-3230
▁相比	-3231
▁地图	-3232
▁浓	-3233
▁震	-3234
▁鲜	-3235
西洋	-3236
75	-3237
美国	-3238
▁闽	-3239
▁君主	-3240
▁对象	-3241
▁近年	-3242
▁办理	-3243
自治区	-3244
▁什么	-3245
▁俗	-3246
▁布鲁	-3247
▁政权	-3248
▁原始	-3249
▁学位	-3250
▁渔	-3251
38	-3252
▁日军	-3253
▁厘	-3254
bs	-3255
▁颜色	-3256
▁法案	-3257
▁黑色	-3258
▁伴	-3259
▁溶	-3260
▁天体	-3261
▁默	-3262
▁济	-3263
▁不仅	-3264
▁温度	-3265
▁突然	-3266
▁1920	-3267
▁硕士	-3268
29	-3269
▁历任	-3270
▁成都	-3271
▁样	-3272
▁介绍	-3273
▁sc	-3274
▁院长	-3275
▁公众	-3276
▁表明	-3277
▁鹿	-3278
▁详	-3279
▁订	-3280
开始	-3281
美元	-3282
▁威尔	-3283
▁工具	-3284
▁那里	-3285
▁内阁	-3286
▁一级	-3287
ong	-3288
▁测量	-3289
▁1930	-3290
▁大区	-3291
▁工厂	-3292
▁ad	-3293
▁贵族	-3294
▁营运	-3295
▁贺	-3296
▁督	-3297
▁执导	-3298
▁伊朗	-3299
工程	-3300
▁状况	-3301
per	-3302
▁得知	-3303
▁边界	-3304
▁贝尔	-3305
▁九龙	-3306
▁症	-3307
联盟	-3308
▁人大	-3309
▁烧	-3310
▁赶	-3311
▁浅	-3312
联赛	-3313
学位	-3314
▁安德	-3315
▁尼亚	-3316
▁习性	-3317
▁1948	-3318
▁ex	-3319
▁建于	-3320
▁1940	-3321
▁司法	-3322
▁受伤	-3323
▁经典	-3324
▁太子	-3325
▁广东省	-3326
▁奈	-3327
▁性质	-3328
时期	-3329
▁展示	-3330
▁不满	-3331
▁比例	-3332
▁兼任	-3333
▁篇	-3334
▁投降	-3335
▁安装	-3336
▁西南部	-3337
▁登陆	-3338
▁购买	-3339
▁衰	-3340
▁水库	-3341
▁符合	-3342
▁意识	-3343
▁种族	-3344
▁丧	-3345
▁亮	-3346
▁教师	-3347
▁扩大	-3348
▁衣	-3349
▁援	-3350
lay	-3351
▁曾祖	-3352
▁原则	-3353
▁疾病	-3354
▁堡	-3355
▁第八	-3356
▁1975	-3357
▁深度	-3358
▁液	-3359
▁1937	-3360
▁戏剧	-3361
▁ph	-3362
▁五十	-3363
▁二人	-3364
▁民众	-3365
▁意见	-3366
▁签署	-3367
▁指导	-3368
▁马来西亚	-3369
▁领土	-3370
▁西北部	-3371
▁毁	-3372
▁错误	-3373
▁淘	-3374
▁办事	-3375
▁私人	-3376
▁示威	-3377
▁乡试	-3378
▁占领	-3379
▁稍	-3380
▁理事	-3381
▁打击	-3382
▁行星	-3383
▁布拉	-3384
▁南极洲	-3385
▁整体	-3386
▁红色	-3387
▁合成	-3388
▁孤	-3389
▁须	-3390
▁120	-3391
▁年初	-3392
▁依然	-3393
▁芝	-3394
▁上午	-3395
▁变得	-3396
▁设定	-3397
▁空中	-3398
▁请求	-3399
▁程式	-3400
▁莫斯科	-3401
▁形象	-3402
▁倍	-3403
拉夫	-3404
▁败	-3405
▁抗议	-3406
▁栽培	-3407
▁教练	-3408
▁美术	-3409
▁列入	-3410
▁1956	-3411
▁六年	-3412
▁册	-3413
▁su	-3414
▁澳大利亚	-3415
▁用作	-3416
▁桂	-3417
▁共产党	-3418
▁答	-3419
▁逮	-3420
▁哥伦	-3421
▁塞尔	-3422
▁熊	-3423
盛顿	-3424
▁计算机	-3425
▁队伍	-3426
46	-3427
▁欢迎	-3428
ate	-3429
▁盟	-3430
▁爆炸	-3431
▁步兵	-3432
▁两次	-3433
▁一百	-3434
▁1947	-3435
▁三角	-3436
▁上述	-3437
▁藤	-3438
▁名单	-3439
▁赖	-3440
▁年龄	-3441
▁由此	-3442
▁署	-3443
▁民间	-3444
▁众多	-3445
▁遵	-3446
▁动力	-3447
▁火山	-3448
▁火箭	-3449
▁今天	-3450
▁传说	-3451
▁建制	-3452
▁战略	-3453
▁洗	-3454
▁奖项	-3455
▁都市	-3456
▁摄影	-3457
▁一份	-3458
▁名义	-3459
▁1000	-3460
▁伏	-3461
▁缅甸	-3462
▁识	-3463
▁走向	-3464
▁套	-3465
▁57	-3466
▁毛泽	-3467
没有	-3468
▁往往	-3469
▁政党	-3470
▁食品	-3471
▁哈尔	-3472
▁滨	-3473
▁退休	-3474
39	-3475
▁河畔	-3476
▁制定	-3477
▁利亚	-3478
▁番	-3479
▁差异	-3480
▁─	-3481
▁垂	-3482
▁火车	-3483
▁丘	-3484
▁朝廷	-3485
▁1941	-3486
▁化石	-3487
▁摇	-3488
进士	-3489
▁派出	-3490
▁装备	-3491
▁夫人	-3492
▁粤	-3493
▁强调	-3494
▁1976	-3495
▁率领	-3496
▁源自	-3497
▁闻	-3498
▁证据	-3499
▁大西洋	-3500
主角	-3501
▁康熙	-3502
▁76	-3503
ry	-3504
▁下降	-3505
▁毛泽东	-3506
▁鱼类	-3507
bc	-3508
▁半岛	-3509
▁学会	-3510
▁扶	-3511
▁路口	-3512
▁任教	-3513
▁菲律宾	-3514
▁修建	-3515
▁上海市	-3516
▁赐	-3517
▁空军	-3518
▁运作	-3519
▁炸	-3520
▁生成	-3521
▁而言	-3522
▁相互	-3523
▁山脉	-3524
▁其实	-3525
▁家中	-3526
▁耳	-3527
▁粒	-3528
▁燕	-3529
▁喀	-3530
▁丰富	-3531
▁挪威	-3532
▁圈	-3533
▁周围	-3534
▁大规模	-3535
▁知县	-3536
▁青岛	-3537
▁冒	-3538
▁卫生	-3539
▁墙	-3540
▁厚	-3541
▁贫	-3542
▁主力	-3543
▁票房	-3544
85	-3545
▁中国大陆	-3546
▁纸	-3547
▁从而	-3548
▁菜	-3549
▁氧化	-3550
▁1973	-3551
▁俄国	-3552
▁穆斯	-3553
▁随即	-3554
▁动作	-3555
▁并于	-3556
ort	-3557
▁损失	-3558
▁确认	-3559
▁北海	-3560
▁华人	-3561
▁维尔	-3562
贝尔	-3563
学生	-3564
▁那么	-3565
▁殖民地	-3566
▁1972	-3567
34	-3568
▁参考	-3569
▁认识	-3570
▁僧	-3571
▁试验	-3572
▁丈	-3573
▁刺史	-3574
▁签订	-3575
▁大坂	-3576
▁例子	-3577
▁克里斯	-3578
▁饰演	-3579
▁隋	-3580
部队	-3581
▁奴	-3582
四年	-3583
▁退役	-3584
▁早年	-3585
▁而成	-3586
▁麦克	-3587
▁1966	-3588
▁恐怖	-3589
95	-3590
▁坐标	-3591
▁1952	-3592
技术	-3593
▁持有	-3594
▁立即	-3595
▁平方米	-3596
▁1955	-3597
▁围绕	-3598
▁做出	-3599
▁逮捕	-3600
▁劝	-3601
▁司马	-3602
▁最近	-3603
▁cn	-3604
分之	-3605
32	-3606
列车	-3607
▁具体	-3608
▁西安	-3609
one	-3610
▁骑士	-3611
▁丹麦	-3612
▁出战	-3613
▁岛屿	-3614
▁顾问	-3615
科学	-3616
▁基于	-3617
▁预计	-3618
▁驱逐	-3619
▁54	-3620
▁神经	-3621
▁寻找	-3622
▁颇	-3623
▁优秀	-3624
▁满足	-3625
86	-3626
▁开通	-3627
▁乐队	-3628
▁努力	-3629
▁原住	-3630
▁编剧	-3631
▁则是	-3632
▁为止	-3633
▁方言	-3634
▁灾	-3635
▁孝	-3636
▁柏林	-3637
▁汪	-3638
▁派遣	-3639
ix	-3640
▁日期	-3641
▁引入	-3642
▁配音	-3643
▁加强	-3644
▁声音	-3645
▁波斯	-3646
▁亨利	-3647
▁66	-3648
▁卡斯	-3649
▁阅	-3650
▁you	-3651
▁犯罪	-3652
ain	-3653
▁玛丽	-3654
▁克斯	-3655
▁渐	-3656
▁剧情	-3657
uc	-3658
ord	-3659
▁丽	-3660
▁消费	-3661
▁600	-3662
ect	-3663
▁价格	-3664
尝试	-3665
银行	-3666
▁说明	-3667
▁淮	-3668
▁同盟	-3669
▁唐朝	-3670
▁me	-3671
▁贵州	-3672
▁一致	-3673
▁煤	-3674
▁牙	-3675
▁1974	-3676
▁特有	-3677
▁星系	-3678
▁薛	-3679
▁解散	-3680
▁气候	-3681
▁国防	-3682
组织	-3683
▁浙江省	-3684
▁城堡	-3685
▁下令	-3686
▁排行	-3687
▁辩	-3688
▁凡	-3689
▁农民	-3690
▁少女	-3691
▁浪	-3692
▁佛罗	-3693
▁1968	-3694
▁彰	-3695
▁领导人	-3696
gr	-3697
▁运用	-3698
▁转换	-3699
▁山东省	-3700
▁月球	-3701
▁1977	-3702
▁已有	-3703
ne	-3704
▁污	-3705
33	-3706
▁85	-3707
▁本人	-3708
▁执政	-3709
▁泉	-3710
ly	-3711
▁ac	-3712
▁玄	-3713
▁依据	-3714
▁任职	-3715
▁轰炸	-3716
▁出演	-3717
▁关闭	-3718
▁开设	-3719
▁大厦	-3720
▁五月	-3721
▁行政区	-3722
▁各国	-3723
▁谋	-3724
▁资金	-3725
▁参选	-3726
▁付	-3727
▁自身	-3728
▁促进	-3729
ft	-3730
▁花园	-3731
▁犹太人	-3732
▁四川省	-3733
▁湘	-3734
▁两者	-3735
▁空气	-3736
▁撒	-3737
▁1954	-3738
▁有着	-3739
▁地质	-3740
▁此次	-3741
▁略	-3742
▁罢	-3743
▁更新	-3744
▁晶	-3745
▁所谓	-3746
▁姚	-3747
▁实验室	-3748
▁免费	-3749
▁练	-3750
▁该省	-3751
▁蛇	-3752
▁年前	-3753
▁荒	-3754
▁华盛顿	-3755
▁95	-3756
▁碳	-3757
▁石油	-3758
尼斯	-3759
▁保守	-3760
▁柴油	-3761
▁1938	-3762
▁冬季	-3763
维奇	-3764
▁奥运会	-3765
▁1939	-3766
▁种子	-3767
▁首歌	-3768
▁1964	-3769
▁纲	-3770
▁事故	-3771
▁・	-3772
▁绍	-3773
▁上下	-3774
96	-3775
▁发明	-3776
▁棋	-3777
ast	-3778
▁达成	-3779
▁荣誉	-3780
▁辽宁	-3781
维尔	-3782
▁强度	-3783
▁1965	-3784
▁1944	-3785
▁鬼	-3786
▁监督	-3787
▁原有	-3788
▁大桥	-3789
▁傅	-3790
▁吉林	-3791
▁粮	-3792
▁医生	-3793
▁1971	-3794
▁互相	-3795
▁真实	-3796
▁转向	-3797
▁怪	-3798
▁尸	-3799
▁措	-3800
▁800	-3801
▁三世	-3802
▁组建	-3803
▁南非	-3804
▁奏	-3805
▁大幅	-3806
▁以南	-3807
ss	-3808
▁出入	-3809
交通	-3810
▁氢	-3811
▁佳	-3812
▁脉	-3813
▁通车	-3814
▁弘	-3815
▁讲述	-3816
▁含有	-3817
▁事情	-3818
电影	-3819
ace	-3820
▁1959	-3821
▁枢	-3822
▁诉	-3823
▁胶	-3824
▁房屋	-3825
▁乳	-3826
▁加州	-3827
方米	-3828
▁最多	-3829
▁予	-3830
▁公元前	-3831
▁税	-3832
▁陆续	-3833
▁弟弟	-3834
▁一天	-3835
▁药物	-3836
▁jr	-3837
▁坚持	-3838
42	-3839
▁伍	-3840
▁回应	-3841
▁大利	-3842
▁通道	-3843
▁起义	-3844
▁患者	-3845
杉矶	-3846
ound	-3847
▁1969	-3848
▁艺人	-3849
▁阻止	-3850
▁平原	-3851
▁扮演	-3852
▁以北	-3853
▁本土	-3854
大战	-3855
87	-3856
▁杭州	-3857
▁标为	-3858
▁恰	-3859
▁克拉	-3860
▁难以	-3861
▁泥	-3862
▁这场	-3863
▁cd	-3864
▁泛	-3865
▁无线	-3866
▁契	-3867
▁案件	-3868
一个	-3869
▁球会	-3870
▁鲶	-3871
▁进步	-3872
▁通讯	-3873
▁各个	-3874
▁方便	-3875
▁参谋	-3876
▁科学家	-3877
▁优势	-3878
▁同性	-3879
▁王子	-3880
▁卡拉	-3881
▁公爵	-3882
▁关键	-3883
▁记忆	-3884
▁卓	-3885
▁蒸	-3886
▁he	-3887
联邦	-3888
31	-3889
球队	-3890
44	-3891
man	-3892
▁防御	-3893
▁北美	-3894
▁现今	-3895
国民	-3896
▁衍	-3897
▁1957	-3898
▁到达	-3899
▁耶稣	-3900
德国	-3901
▁术	-3902
▁中期	-3903
▁研发	-3904
▁扩展	-3905
▁文献	-3906
帝国	-3907
一步	-3908
▁1942	-3909
▁诞	-3910
▁各自	-3911
▁成本	-3912
▁升格	-3913
▁’	-3914
▁bo	-3915
▁丈夫	-3916
▁诚	-3917
▁杰克	-3918
▁湿	-3919
▁熟	-3920
▁狮	-3921
▁胸	-3922
99	-3923
▁只要	-3924
ign	-3925
▁演奏	-3926
▁旅行	-3927
▁首个	-3928
▁天皇	-3929
▁符号	-3930
ah	-3931
▁分配	-3932
▁1967	-3933
▁转移	-3934
▁接替	-3935
▁起源	-3936
▁挂	-3937
▁co	-3938
德华	-3939
▁自杀	-3940
▁助理	-3941
▁伪	-3942
▁甘肃	-3943
▁nba	-3944
▁厘米	-3945
▁苗	-3946
▁芬兰	-3947
▁成长	-3948
▁婚姻	-3949
▁兽	-3950
▁正面	-3951
▁引种	-3952
▁日治	-3953
▁这部	-3954
▁遇到	-3955
▁岳	-3956
▁鸡	-3957
▁大多数	-3958
▁敌人	-3959
▁触	-3960
▁循	-3961
▁狭	-3962
▁感染	-3963
▁大奖	-3964
ff	-3965
end	-3966
▁酸	-3967
▁周年	-3968
▁cent	-3969
▁苦	-3970
▁长期	-3971
▁1953	-3972
▁江苏省	-3973
▁打算	-3974
▁危机	-3975
▁携	-3976
▁人民政府	-3977
▁it	-3978
▁保罗	-3979
▁病毒	-3980
▁推广	-3981
代表大会	-3982
98	-3983
76	-3984
▁列出	-3985
里斯	-3986
▁惟	-3987
▁修正	-3988
▁偷	-3989
▁周期	-3990
▁接收	-3991
▁生存	-3992
▁1961	-3993
▁改制	-3994
▁爵士	-3995
▁集合	-3996
▁一款	-3997
▁令人	-3998
▁服役	-3999
▁美洲	-4000
▁逼	-4001
教育	-4002
▁41	-4003
▁码头	-4004
▁柔	-4005
▁we	-4006
▁办事处	-4007
ore	-4008
78	-4009
▁告诉	-4010
▁常用	-4011
▁莎	-4012
▁讚	-4013
▁困难	-4014
▁展览	-4015
▁电话	-4016
▁发动机	-4017
▁1962	-4018
▁巴尔	-4019
▁淘汰	-4020
▁利益	-4021
▁登上	-4022
▁赠	-4023
▁对方	-4024
▁1935	-4025
▁藩	-4026
▁生态	-4027
▁声称	-4028
德里	-4029
▁当天	-4030
▁1963	-4031
▁奥地	-4032
▁原住民	-4033
▁得名	-4034
▁轴	-4035
▁突破	-4036
▁主持人	-4037
▁拆除	-4038
▁危险	-4039
▁最低	-4040
▁井	-4041
▁1943	-4042
▁大众	-4043
▁平面	-4044
▁之子	-4045
▁奥地利	-4046
▁马克	-4047
▁慢	-4048
▁羊	-4049
▁1936	-4050
▁玻璃	-4051
▁家人	-4052
▁拼	-4053
▁塑	-4054
▁窗	-4055
▁形目	-4056
西兰	-4057
▁讬	-4058
▁直径	-4059
▁薄	-4060
▁检查	-4061
▁山峰	-4062
▁美军	-4063
▁68	-4064
▁抓	-4065
▁适合	-4066
▁实际上	-4067
▁→	-4068
▁金牌	-4069
▁妇女	-4070
▁ed	-4071
▁升级	-4072
▁改称	-4073
▁趋	-4074
▁商人	-4075
▁进一步	-4076
▁闪	-4077
▁环形	-4078
▁办公室	-4079
▁穆斯林	-4080
▁接任	-4081
▁良好	-4082
▁增强	-4083
▁狄	-4084
92	-4085
委书记	-4086
▁秘书长	-4087
▁特性	-4088
▁棒球	-4089
▁接着	-4090
▁51	-4091
▁~	-4092
▁废除	-4093
▁手机	-4094
▁最为	-4095
ps	-4096
▁意外	-4097
▁硫	-4098
▁两位	-4099
▁通用	-4100
▁新竹	-4101
▁候选	-4102
▁阿根	-4103
▁二战	-4104
▁偶像	-4105
▁160	-4106
▁天然	-4107
▁昂	-4108
▁鲈	-4109
▁指示	-4110
▁主场	-4111
▁两名	-4112
▁嘉靖	-4113
▁九年	-4114
▁翰	-4115
▁涅	-4116
▁尺	-4117
97	-4118
▁壁	-4119
▁建筑物	-4120
65	-4121
▁在位	-4122
▁考试	-4123
▁丙	-4124
▁饭	-4125
▁1951	-4126
▁反映	-4127
▁天文台	-4128
▁年轻	-4129
▁军团	-4130
▁软体	-4131
▁闭	-4132
▁陨石	-4133
▁另一方面	-4134
▁以此	-4135
▁球场	-4136
▁阿根廷	-4137
▁拟	-4138
▁第九	-4139
▁sm	-4140
▁首席	-4141
乐团	-4142
蒙古	-4143
部长	-4144
▁海峡	-4145
▁詹姆斯	-4146
▁尝试	-4147
▁叙利亚	-4148
▁斑	-4149
▁52	-4150
▁每天	-4151
▁消失	-4152
▁站台	-4153
▁大家	-4154
qu	-4155
▁分离	-4156
▁回归	-4157
▁这时	-4158
▁分支	-4159
▁七年	-4160
ith	-4161
▁即位	-4162
▁欲	-4163
ens	-4164
▁同名	-4165
▁资产	-4166
▁首播	-4167
▁合法	-4168
ight	-4169
▁瓜	-4170
▁鼻	-4171
▁行政院	-4172
▁管理局	-4173
▁理解	-4174
▁摆	-4175
▁食用	-4176
▁收到	-4177
半岛	-4178
▁蕨	-4179
▁又称	-4180
▁这项	-4181
▁斜	-4182
▁内战	-4183
▁津	-4184
▁师范	-4185
▁赏	-4186
▁×	-4187
▁会员	-4188
▁黑龙	-4189
▁剧本	-4190
▁昭和	-4191
41	-4192
▁定居	-4193
▁共和国	-4194
▁态度	-4195
▁链	-4196
▁理想	-4197
▁裔	-4198
作用	-4199
49	-4200
43	-4201
▁附属	-4202
▁上升	-4203
▁完工	-4204
▁支流	-4205
▁雌	-4206
▁tv	-4207
利斯	-4208
▁咖	-4209
▁ng	-4210
▁岭	-4211
▁拖	-4212
此之	-4213
▁使用者	-4214
▁商品	-4215
▁港口	-4216
▁频率	-4217
▁曰	-4218
▁脑	-4219
▁忽	-4220
▁天下	-4221
▁催	-4222
▁刀	-4223
▁id	-4224
▁身上	-4225
▁池	-4226
▁响	-4227
▁幻	-4228
iz	-4229
▁无论	-4230
▁国家队	-4231
▁大卫	-4232
▁儒	-4233
▁阿里	-4234
▁市中心	-4235
▁舞蹈	-4236
▁抑	-4237
▁情报	-4238
▁狂	-4239
▁活跃	-4240
▁古典	-4241
▁染	-4242
▁出售	-4243
▁十七	-4244
▁将领	-4245
ock	-4246
▁社会主义	-4247
▁苹	-4248
▁防止	-4249
▁第一位	-4250
▁拉斯	-4251
▁纷	-4252
▁留在	-4253
▁并将	-4254
▁彻	-4255
▁合约	-4256
▁wh	-4257
▁贴	-4258
▁喜剧	-4259
▁独特	-4260
▁分裂	-4261
▁长江	-4262
▁两国	-4263
▁公安	-4264
▁剪	-4265
▁明确	-4266
▁1933	-4267
▁出场	-4268
ies	-4269
▁将其	-4270
▁两侧	-4271
斯克	-4272
▁停车	-4273
▁现实	-4274
尼亚州	-4275
▁这两	-4276
▁一词	-4277
▁杀害	-4278
ust	-4279
▁八年	-4280
▁游泳	-4281
pe	-4282
▁资本	-4283
亚洲	-4284
▁启动	-4285
▁终于	-4286
▁扫	-4287
▁戒	-4288
▁大部	-4289
▁主办	-4290
▁盗	-4291
▁谭	-4292
▁面对	-4293
▁释放	-4294
▁战后	-4295
▁兹	-4296
▁意味	-4297
▁开展	-4298
▁文明	-4299
▁下列	-4300
▁2020	-4301
▁吸收	-4302
▁郎	-4303
int	-4304
▁收藏	-4305
▁声明	-4306
▁沿海	-4307
▁1927	-4308
▁采访	-4309
ma	-4310
▁落成	-4311
▁可见	-4312
▁逆	-4313
▁悲	-4314
▁抵抗	-4315
▁陪	-4316
▁踪	-4317
雷斯	-4318
▁典型	-4319
▁粒子	-4320
▁宁波	-4321
▁条例	-4322
▁廖	-4323
ire	-4324
▁暴力	-4325
▁特点	-4326
▁姜	-4327
▁幽	-4328
▁擅	-4329
▁铺	-4330
▁交换	-4331
▁授权	-4332
▁海上	-4333
▁萨尔	-4334
▁中式	-4335
▁疑	-4336
▁职位	-4337
▁伟	-4338
▁传媒	-4339
▁入选	-4340
▁货币	-4341
城市	-4342
▁冰川	-4343
▁77	-4344
▁cl	-4345
▁1928	-4346
▁海南	-4347
▁兴趣	-4348
▁振	-4349
演员	-4350
▁一首	-4351
▁不到	-4352
▁撞击	-4353
▁措施	-4354
93	-4355
▁身分	-4356
尔顿	-4357
▁铸	-4358
▁黑龙江	-4359
▁洛杉矶	-4360
▁性能	-4361
▁边境	-4362
▁至于	-4363
▁销量	-4364
▁证实	-4365
▁弥	-4366
62	-4367
▁强大	-4368
▁战士	-4369
▁未知	-4370
▁越来	-4371
▁称作	-4372
▁现有	-4373
▁年时	-4374
▁法语	-4375
▁荆	-4376
▁陷入	-4377
▁1931	-4378
▁吐	-4379
▁保险	-4380
▁收集	-4381
▁布莱	-4382
▁改建	-4383
▁上阵	-4384
▁添	-4385
▁鄂	-4386
▁88	-4387
▁并没有	-4388
▁律师	-4389
▁机制	-4390
▁河南省	-4391
之间	-4392
▁联系	-4393
▁讯	-4394
▁涂	-4395
▁哥伦比亚	-4396
▁一间	-4397
▁一职	-4398
▁包围	-4399
▁猫	-4400
▁艘	-4401
▁等级	-4402
▁校区	-4403
▁老师	-4404
▁文艺	-4405
▁雍	-4406
▁签约	-4407
▁爱情	-4408
▁对外	-4409
▁考古	-4410
sh	-4411
▁对此	-4412
▁毗	-4413
▁推进	-4414
▁靠近	-4415
▁邻近	-4416
▁吨	-4417
▁加利福尼	-4418
▁亚州	-4419
▁演化	-4420
萨斯	-4421
▁成就	-4422
▁汉族	-4423
▁竞选	-4424
▁1932	-4425
▁sch	-4426
▁学士	-4427
▁化合物	-4428
▁出版社	-4429
▁痛	-4430
▁car	-4431
▁量子	-4432
▁斩	-4433
阳市	-4434
▁赋	-4435
ond	-4436
▁克莱	-4437
▁肖	-4438
▁大师	-4439
▁学科	-4440
▁影像	-4441
▁公交	-4442
▁这颗	-4443
▁域	-4444
▁绿色	-4445
▁日报	-4446
▁第十一	-4447
▁影响力	-4448
▁古老	-4449
ux	-4450
▁十月	-4451
68	-4452
▁审查	-4453
▁勋	-4454
▁升任	-4455
▁不要	-4456
▁67	-4457
▁共产	-4458
▁形状	-4459
▁苹果	-4460
▁论文	-4461
▁台北市	-4462
▁严格	-4463
▁豆	-4464
▁锺	-4465
▁带领	-4466
▁姐	-4467
▁献	-4468
▁纳粹	-4469
▁‘	-4470
▁所在地	-4471
▁该市	-4472
▁原先	-4473
▁bl	-4474
▁中有	-4475
▁朴	-4476
▁从此	-4477
▁屈	-4478
▁十九	-4479
▁谈判	-4480
▁夹	-4481
▁本届	-4482
▁转变	-4483
▁cod	-4484
▁柱	-4485
▁德里	-4486
▁牵引	-4487
▁寮	-4488
▁用途	-4489
▁每日	-4490
▁诗人	-4491
▁警告	-4492
障碍	-4493
▁dv	-4494
▁sy	-4495
▁收视	-4496
▁认定	-4497
▁射击	-4498
▁路段	-4499
▁常常	-4500
▁苏丹	-4501
▁报纸	-4502
▁play	-4503
▁五个	-4504
▁蒙特	-4505
▁矛	-4506
▁维护	-4507
▁弱	-4508
▁1934	-4509
▁诏	-4510
音乐	-4511
▁宣称	-4512
▁旺	-4513
▁钻	-4514
▁逢	-4515
▁直隶	-4516
ber	-4517
▁上帝	-4518
▁教育部	-4519
经济	-4520
▁披	-4521
▁校园	-4522
▁摧	-4523
▁首位	-4524
▁监狱	-4525
▁近代	-4526
▁形容	-4527
▁星等	-4528
▁货物	-4529
ick	-4530
▁布尔	-4531
▁港元	-4532
▁姊	-4533
▁仿	-4534
▁欧盟	-4535
▁内蒙古	-4536
94	-4537
▁单元	-4538
▁妹	-4539
▁cr	-4540
▁手段	-4541
建筑	-4542
▁推荐	-4543
▁南美洲	-4544
▁自称	-4545
▁电气	-4546
▁gam	-4547
▁hant	-4548
生物	-4549
▁装饰	-4550
▁居民点	-4551
▁探险	-4552
▁78	-4553
▁怀疑	-4554
▁环形山	-4555
▁处于	-4556
▁两岸	-4557
工业	-4558
▁享年	-4559
▁大赛	-4560
▁另有	-4561
▁司令部	-4562
▁提及	-4563
▁重量	-4564
▁延长	-4565
机车	-4566
▁责任	-4567
▁更是	-4568
▁输入	-4569
▁inter	-4570
▁碑	-4571
▁打破	-4572
▁爱德华	-4573
▁保障	-4574
逻辑	-4575
▁猛	-4576
▁脊	-4577
▁支付	-4578
▁质疑	-4579
▁角度	-4580
▁圣经	-4581
▁模拟	-4582
▁风险	-4583
▁敬	-4584
加拉	-4585
▁ge	-4586
▁厦	-4587
▁适用	-4588
▁艺术家	-4589
▁53	-4590
▁贯	-4591
▁来到	-4592
▁亲自	-4593
ld	-4594
▁开幕	-4595
▁培养	-4596
▁并以	-4597
ai	-4598
▁汗	-4599
▁肌	-4600
▁市政府	-4601
▁控股	-4602
▁峰	-4603
▁称号	-4604
▁下来	-4605
▁哪	-4606
▁研究生	-4607
▁种类	-4608
▁档案	-4609
▁决议	-4610
▁联络	-4611
▁保证	-4612
气压	-4613
91	-4614
▁浦	-4615
公园	-4616
▁平衡	-4617
▁缩写	-4618
塞尔	-4619
▁沿岸	-4620
▁现为	-4621
▁神话	-4622
▁鼓励	-4623
小时	-4624
▁紧急	-4625
计划	-4626
▁干部	-4627
▁正确	-4628
▁视频	-4629
▁以东	-4630
▁写作	-4631
决赛	-4632
▁暂时	-4633
▁规范	-4634
科学院	-4635
▁凌晨	-4636
▁110	-4637
▁挖	-4638
▁客户	-4639
▁后者	-4640
ern	-4641
▁分成	-4642
少年	-4643
▁未有	-4644
国会	-4645
▁象征	-4646
▁姆	-4647
▁珊	-4648
▁货运	-4649
▁魔法	-4650
ial	-4651
▁人权	-4652
▁地形	-4653
▁西班牙语	-4654
▁肥	-4655
▁昌	-4656
▁早上	-4657
son	-4658
▁本线	-4659
▁骑兵	-4660
ug	-4661
▁最好	-4662
▁伊斯兰	-4663
▁1929	-4664
▁称呼	-4665
▁棘	-4666
ment	-4667
▁发言	-4668
▁屠	-4669
▁掉	-4670
▁公斤	-4671
▁邵	-4672
▁福州	-4673
▁末期	-4674
▁高雄市	-4675
▁河北省	-4676
▁军区	-4677
▁领地	-4678
▁三国	-4679
▁本作	-4680
▁北海道	-4681
▁理由	-4682
▁创始	-4683
▁波尔	-4684
▁尼克	-4685
▁翌年	-4686
▁很少	-4687
▁700	-4688
政协	-4689
▁加速	-4690
ii	-4691
▁吞	-4692
▁并入	-4693
▁任期	-4694
▁呈现	-4695
▁ht	-4696
▁par	-4697
▁福建省	-4698
ure	-4699
▁无人	-4700
▁院士	-4701
▁齿	-4702
▁以西	-4703
▁宏	-4704
▁98	-4705
▁局长	-4706
▁颗	-4707
▁岛上	-4708
▁该片	-4709
▁joh	-4710
▁假设	-4711
▁巴基	-4712
▁埃尔	-4713
▁丹尼	-4714
▁的关	-4715
▁冈	-4716
▁高达	-4717
▁起初	-4718
▁争取	-4719
▁mac	-4720
加哥	-4721
▁ー	-4722
▁教宗	-4723
▁区的	-4724
67	-4725
▁商场	-4726
▁巫	-4727
▁边缘	-4728
▁嫁	-4729
▁谁	-4730
▁卒	-4731
▁敏	-4732
▁倾向	-4733
▁暨	-4734
▁充满	-4735
▁该校	-4736
▁拘	-4737
▁主流	-4738
▁像是	-4739
▁昇	-4740
▁菩	-4741
▁清代	-4742
▁足够	-4743
▁此事	-4744
▁东亚	-4745
▁颁奖	-4746
▁剧集	-4747
▁颁发	-4748
▁地利	-4749
▁主体	-4750
▁叔	-4751
▁互联	-4752
▁尹	-4753
▁此地	-4754
▁非法	-4755
▁纹	-4756
▁芝加哥	-4757
▁人生	-4758
▁下属	-4759
▁亲王	-4760
▁第二十	-4761
▁回忆	-4762
▁lin	-4763
▁候选人	-4764
▁新界	-4765
▁歧	-4766
▁一点	-4767
▁登场	-4768
▁惨	-4769
▁改进	-4770
▁情形	-4771
▁贩	-4772
▁展出	-4773
▁网球	-4774
▁伊拉克	-4775
▁指控	-4776
▁出发	-4777
▁遭受	-4778
▁育	-4779
▁途中	-4780
▁佛罗里	-4781
▁气体	-4782
▁一半	-4783
▁似乎	-4784
56	-4785
▁满洲	-4786
▁一张	-4787
ath	-4788
▁群众	-4789
▁剧场	-4790
▁1912	-4791
▁整合	-4792
▁通知	-4793
▁man	-4794
▁回国	-4795
▁重视	-4796
▁壮	-4797
▁hr	-4798
▁对应	-4799
▁发挥	-4800
▁必要	-4801
▁感觉	-4802
▁加以	-4803
▁自我	-4804
▁一人	-4805
▁咖啡	-4806
▁财产	-4807
▁益	-4808
▁创新	-4809
▁抱	-4810
▁录音	-4811
▁般	-4812
▁这座	-4813
▁本科	-4814
▁终点	-4815
文学	-4816
▁ak	-4817
▁摧毁	-4818
▁埋	-4819
▁想要	-4820
▁湖泊	-4821
▁蓝色	-4822
▁违反	-4823
▁法官	-4824
▁查理	-4825
▁通往	-4826
▁监察	-4827
▁审判	-4828
▁席位	-4829
ier	-4830
▁蹟	-4831
▁遣	-4832
▁扩张	-4833
▁青少年	-4834
▁专用	-4835
政治	-4836
▁龟	-4837
▁战斗机	-4838
▁法庭	-4839
▁南海	-4840
▁总裁	-4841
▁替代	-4842
▁禅	-4843
▁可是	-4844
▁突出	-4845
世界大战	-4846
▁通信	-4847
▁诊	-4848
▁被捕	-4849
民主	-4850
▁战场	-4851
▁科尔	-4852
▁缘	-4853
ina	-4854
▁my	-4855
产品	-4856
▁评估	-4857
▁el	-4858
▁葬	-4859
▁协调	-4860
▁四月	-4861
▁dr	-4862
▁谱	-4863
▁市政	-4864
萨克	-4865
▁四大	-4866
▁摇滚	-4867
▁代替	-4868
▁遭遇	-4869
▁务	-4870
▁梵	-4871
细胞	-4872
▁new	-4873
▁路易斯	-4874
64	-4875
▁同日	-4876
▁已知	-4877
▁秘鲁	-4878
▁辐射	-4879
伦敦	-4880
▁矩	-4881
▁布里	-4882
▁带有	-4883
▁公转	-4884
▁布朗	-4885
▁书籍	-4886
▁策略	-4887
▁融合	-4888
米尔	-4889
▁格拉	-4890
▁当代	-4891
▁车队	-4892
▁节度	-4893
▁低气压	-4894
▁130	-4895
▁抚	-4896
▁乱	-4897
▁勃	-4898
▁泽	-4899
▁交界	-4900
▁女王	-4901
▁史密	-4902
▁女孩	-4903
瓦尔	-4904
▁dvd	-4905
▁奥尔	-4906
▁依照	-4907
▁典礼	-4908
▁接下	-4909
▁信徒	-4910
▁形态	-4911
▁72	-4912
▁出道	-4913
▁撤退	-4914
经理	-4915
▁序列	-4916
▁蒲	-4917
▁邱	-4918
▁中将	-4919
▁天气	-4920
▁140	-4921
▁鸭	-4922
▁净	-4923
▁碰	-4924
yle	-4925
▁当日	-4926
山大	-4927
66	-4928
▁相反	-4929
▁拨	-4930
▁值得	-4931
▁最小	-4932
▁清华	-4933
▁主管	-4934
▁循环	-4935
▁三人	-4936
▁单独	-4937
▁页	-4938
▁转会	-4939
▁病逝	-4940
▁输出	-4941
▁一套	-4942
▁特拉	-4943
▁收费	-4944
▁一共	-4945
▁脂	-4946
▁首相	-4947
▁巴基斯坦	-4948
▁瑟	-4949
ory	-4950
▁逻辑	-4951
▁道德	-4952
▁币	-4953
▁日常	-4954
▁新建	-4955
▁斯塔	-4956
▁剂	-4957
▁御史	-4958
▁聚集	-4959
▁狼	-4960
▁氯	-4961
▁顺利	-4962
▁画家	-4963
▁如今	-4964
▁相应	-4965
▁桃园	-4966
▁柴油机	-4967
▁作业	-4968
▁引进	-4969
▁拳	-4970
▁忍	-4971
▁1925	-4972
▁视星	-4973
▁罗斯	-4974
▁预测	-4975
▁地名	-4976
▁狗	-4977
▁臣	-4978
▁琉球	-4979
▁衡	-4980
▁子女	-4981
▁莲	-4982
▁西侧	-4983
▁本片	-4984
▁1924	-4985
▁烈	-4986
▁mo	-4987
▁敦	-4988
▁江南	-4989
▁根本	-4990
十年	-4991
▁1918	-4992
▁卵	-4993
▁复盖	-4994
▁联合会	-4995
▁效应	-4996
▁1919	-4997
阳县	-4998
▁军官	-4999
▁稀	-5000
▁视星等	-5001
▁菊	-5002
az	-5003
▁wor	-5004
▁恐龙	-5005
▁递	-5006
▁辅助	-5007
▁游行	-5008
▁op	-5009
▁供应	-5010
▁呎	-5011
▁ip	-5012
▁湖南省	-5013
xt	-5014
▁克罗	-5015
▁肺	-5016
▁放在	-5017
71	-5018
▁借由	-5019
▁前后	-5020
▁寒	-5021
▁千米	-5022
▁翁	-5023
▁致力	-5024
动画	-5025
▁mv	-5026
▁认证	-5027
▁大选	-5028
阶段	-5029
▁俗称	-5030
▁之战	-5031
▁琼	-5032
▁商店	-5033
▁邪	-5034
洋舰	-5035
▁征服	-5036
ogle	-5037
88	-5038
▁体育场	-5039
▁99	-5040
▁抛	-5041
▁成人	-5042
▁驱动	-5043
▁av	-5044
▁上面	-5045
▁复杂	-5046
▁总站	-5047
▁现存	-5048
▁脱离	-5049
议会	-5050
▁总会	-5051
▁贪	-5052
▁能源	-5053
▁柬	-5054
▁总教	-5055
▁详细	-5056
▁‧	-5057
▁传教	-5058
72	-5059
▁选出	-5060
▁道光	-5061
▁在内	-5062
▁掩	-5063
机构	-5064
纪录	-5065
▁东侧	-5066
▁绳	-5067
▁自此	-5068
▁汉语	-5069
cl	-5070
▁1926	-5071
▁google	-5072
▁河道	-5073
▁队长	-5074
▁询	-5075
▁匹	-5076
▁全世界	-5077
▁郊	-5078
▁删	-5079
▁掌握	-5080
▁区间	-5081
▁编码	-5082
▁以便	-5083
▁救援	-5084
▁用以	-5085
▁苏州	-5086
69	-5087
群岛	-5088
人民代表大会	-5089
▁山西省	-5090
▁主打	-5091
▁奴隶	-5092
▁琴	-5093
▁配置	-5094
▁籍	-5095
▁晋级	-5096
▁意味着	-5097
▁东南亚	-5098
▁直播	-5099
▁印刷	-5100
▁性别	-5101
▁250	-5102
▁超越	-5103
▁成年	-5104
▁可用	-5105
▁吹	-5106
▁吉他	-5107
协会	-5108
马斯	-5109
▁泡	-5110
▁男女	-5111
▁霸	-5112
iss	-5113
▁170	-5114
▁涵	-5115
▁大部份	-5116
▁安东	-5117
▁互联网	-5118
53	-5119
范围	-5120
▁书院	-5121
▁国道	-5122
▁永久	-5123
▁三月	-5124
▁多利	-5125
▁电动	-5126
ont	-5127
▁指数	-5128
▁辞职	-5129
▁入口	-5130
▁国军	-5131
▁透露	-5132
61	-5133
▁彰化	-5134
▁mus	-5135
▁种植	-5136
▁赤纬	-5137
▁1922	-5138
▁脸	-5139
73	-5140
▁发音	-5141
▁希特	-5142
▁原型	-5143
▁提议	-5144
ide	-5145
▁奠	-5146
举行	-5147
▁都督	-5148
▁歌词	-5149
▁邮政	-5150
▁如同	-5151
▁蜀	-5152
▁攻打	-5153
74	-5154
▁а	-5155
▁奥斯卡	-5156
▁腓	-5157
▁大将	-5158
▁极大	-5159
▁赤经	-5160
艺术	-5161
▁划分	-5162
▁竞赛	-5163
▁筑	-5164
▁该党	-5165
▁ab	-5166
▁大夫	-5167
▁游击	-5168
▁燃料	-5169
▁叛乱	-5170
▁腐	-5171
▁名人	-5172
55	-5173
▁物体	-5174
▁两条	-5175
▁八月	-5176
▁推行	-5177
▁画面	-5178
▁实力	-5179
▁1914	-5180
▁center	-5181
▁反而	-5182
小说	-5183
▁巴拉	-5184
▁排列	-5185
▁支持者	-5186
▁停靠	-5187
▁欣	-5188
▁南极条	-5189
▁全国人民代表大会	-5190
阶级	-5191
▁登记	-5192
▁七月	-5193
▁伽	-5194
▁行业	-5195
▁航班	-5196
▁对手	-5197
▁预算	-5198
尔夫	-5199
▁同学	-5200
▁正是	-5201
83	-5202
▁数位	-5203
▁ro	-5204
▁委任	-5205
▁63	-5206
▁陨石坑	-5207
▁祝	-5208
▁青海	-5209
中国	-5210
▁手术	-5211
▁构造	-5212
▁南昌	-5213
▁明星	-5214
▁王位	-5215
▁衍生	-5216
▁62	-5217
ke	-5218
▁培训	-5219
业务	-5220
▁相连	-5221
▁省级	-5222
▁月底	-5223
▁北面	-5224
▁立场	-5225
▁资助	-5226
▁游客	-5227
▁觉得	-5228
▁岩石	-5229
▁仇	-5230
▁较大	-5231
▁工作室	-5232
▁钦	-5233
▁彻底	-5234
▁诱	-5235
士尼	-5236
▁罕	-5237
时代	-5238
▁人次	-5239
▁纤	-5240
▁地带	-5241
▁长沙	-5242
▁探测	-5243
▁迪士尼	-5244
▁键	-5245
▁入球	-5246
人民政府	-5247
▁伸	-5248
▁连载	-5249
▁耐	-5250
▁逐步	-5251
ish	-5252
▁平民	-5253
▁女主角	-5254
▁人才	-5255
▁离子	-5256
▁中原	-5257
▁主权	-5258
▁奔	-5259
▁引用	-5260
▁餐厅	-5261
▁开办	-5262
▁夸	-5263
77	-5264
▁旨	-5265
▁症状	-5266
1900	-5267
▁国东	-5268
▁59	-5269
▁赞助	-5270
63	-5271
▁保安	-5272
▁族群	-5273
▁一生	-5274
▁扩建	-5275
▁担心	-5276
武帝	-5277
▁61	-5278
▁污染	-5279
▁经由	-5280
anc	-5281
89	-5282
▁想法	-5283
▁区别	-5284
▁sao	-5285
▁大气	-5286
▁弗里	-5287
▁日语	-5288
▁适应	-5289
mm	-5290
▁企图	-5291
▁北市	-5292
▁john	-5293
▁色彩	-5294
▁格式	-5295
▁有机	-5296
▁常务	-5297
▁时会	-5298
关系	-5299
▁大连	-5300
▁高架	-5301
▁叫做	-5302
▁地上	-5303
▁山地	-5304
▁1913	-5305
79	-5306
▁官至	-5307
▁哈尔滨	-5308
▁讷	-5309
▁修道	-5310
▁格雷	-5311
▁寻求	-5312
▁外观	-5313
▁工商	-5314
au	-5315
▁导弹	-5316
▁纠	-5317
成员	-5318
▁战术	-5319
▁察	-5320
ube	-5321
▁北平	-5322
▁公开赛	-5323
▁翰林	-5324
▁连任	-5325
▁占地	-5326
▁巡洋舰	-5327
▁扭	-5328
埔寨	-5329
节目	-5330
▁安徽省	-5331
▁配备	-5332
aw	-5333
▁二次	-5334
ton	-5335
▁柬埔寨	-5336
▁江户	-5337
▁消防	-5338
▁产地	-5339
▁来说	-5340
▁嘴	-5341
▁祈	-5342
▁之上	-5343
▁ser	-5344
▁神秘	-5345
▁坐落	-5346
▁最新	-5347
▁首度	-5348
so	-5349
▁堆	-5350
▁赌	-5351
▁州府	-5352
▁交汇	-5353
▁手枪	-5354
▁comp	-5355
▁弯	-5356
▁砂	-5357
▁合唱	-5358
▁春秋	-5359
▁拿下	-5360
▁中南	-5361
▁弗朗	-5362
▁银经	-5363
▁二月	-5364
▁斗争	-5365
▁镇压	-5366
▁评为	-5367
▁大街	-5368
▁笑	-5369
▁波士	-5370
▁平等	-5371
▁捷克	-5372
▁逾	-5373
▁障碍	-5374
▁银纬	-5375
▁不得不	-5376
▁习惯	-5377
▁镜头	-5378
ational	-5379
▁成熟	-5380
▁微软	-5381
▁大公	-5382
▁党员	-5383
▁部位	-5384
▁砖	-5385
▁诞生	-5386
▁呼吁	-5387
▁斯托	-5388
▁1917	-5389
部门	-5390
▁积分	-5391
▁吏	-5392
▁拱	-5393
▁成分	-5394
▁单一	-5395
▁割	-5396
▁修订	-5397
▁棕	-5398
▁时段	-5399
▁削	-5400
▁几何	-5401
▁战队	-5402
▁理查	-5403
▁陵	-5404
▁剩下	-5405
▁第一部	-5406
▁1923	-5407
▁全线	-5408
▁伊利	-5409
▁磷	-5410
▁相继	-5411
▁先进	-5412
▁大都	-5413
▁堪	-5414
▁磨	-5415
▁航空公司	-5416
▁他人	-5417
▁施工	-5418
▁经济学	-5419
▁任天	-5420
▁lov	-5421
▁back	-5422
▁妹妹	-5423
age	-5424
▁座位	-5425
▁作曲家	-5426
▁翼	-5427
▁切尔	-5428
▁女人	-5429
▁检察	-5430
研究	-5431
击败	-5432
▁航线	-5433
维斯	-5434
▁冒险	-5435
58	-5436
克尔	-5437
▁二级	-5438
▁综艺	-5439
▁ist	-5440
ala	-5441
▁沙田	-5442
▁向量	-5443
▁鸟类	-5444
路线	-5445
▁德意	-5446
▁莱茵	-5447
▁援助	-5448
▁1921	-5449
▁绑	-5450
▁任天堂	-5451
▁手中	-5452
▁客家	-5453
▁哥哥	-5454
▁即将	-5455
▁九月	-5456
▁少将	-5457
▁火星	-5458
▁碎	-5459
导致	-5460
▁激烈	-5461
▁聘	-5462
▁外交部	-5463
ans	-5464
▁史密斯	-5465
▁甜	-5466
▁块	-5467
台湾	-5468
▁襄	-5469
▁妈	-5470
▁蓬	-5471
纪念	-5472
▁全新	-5473
▁政治家	-5474
▁一处	-5475
▁共计	-5476
▁判决	-5477
▁ste	-5478
▁codice	-5479
▁演艺	-5480
司令	-5481
▁杀死	-5482
▁凶	-5483
▁中正	-5484
▁定理	-5485
▁扁	-5486
▁十大	-5487
▁影视	-5488
▁债	-5489
▁三甲	-5490
▁全国政协	-5491
▁net	-5492
▁慕尼	-5493
▁主动	-5494
▁出入口	-5495
▁慈善	-5496
▁降雨	-5497
▁蛛	-5498
▁猪笼	-5499
▁台南	-5500
▁格林	-5501
▁尼斯	-5502
▁德意志	-5503
▁清楚	-5504
▁奥斯曼	-5505
▁斯洛	-5506
▁马尔	-5507
▁场景	-5508
▁ag	-5509
歌手	-5510
82	-5511
▁伯爵	-5512
▁布雷	-5513
▁密度	-5514
ary	-5515
▁确保	-5516
▁世界杯	-5517
▁歌唱	-5518
▁三种	-5519
51	-5520
▁六月	-5521
▁剧院	-5522
▁行走	-5523
▁认同	-5524
▁style	-5525
▁办法	-5526
▁福利	-5527
▁美丽	-5528
▁宰	-5529
▁营业	-5530
▁租界	-5531
▁黑暗	-5532
▁晋升	-5533
▁裂	-5534
▁研究院	-5535
52	-5536
▁指令	-5537
▁慕尼黑	-5538
▁qu	-5539
▁底层	-5540
▁款	-5541
▁原理	-5542
▁山区	-5543
▁智慧	-5544
▁1911	-5545
▁比亚	-5546
▁耗	-5547
▁镇区	-5548
分之一	-5549
▁3000	-5550
管理	-5551
ach	-5552
▁观光	-5553
▁第十二	-5554
▁流传	-5555
▁排行榜	-5556
▁天使	-5557
▁踏	-5558
▁雇	-5559
▁泰勒	-5560
▁南面	-5561
▁搜索	-5562
▁多尔	-5563
▁俘	-5564
▁旧址	-5565
▁国际赛	-5566
▁读者	-5567
▁新北	-5568
▁em	-5569
▁加工	-5570
▁证券	-5571
选为	-5572
▁私立	-5573
▁军人	-5574
▁推翻	-5575
▁罚	-5576
▁更为	-5577
▁聚落	-5578
▁深入	-5579
▁阅读	-5580
▁定期	-5581
▁水深	-5582
▁共产主义	-5583
▁运转	-5584
▁基隆	-5585
▁图案	-5586
▁有名	-5587
▁猪笼草	-5588
▁物品	-5589
▁丛	-5590
▁新城	-5591
▁不详	-5592
▁廉	-5593
▁大同	-5594
▁更换	-5595
▁dna	-5596
▁明代	-5597
▁本名	-5598
▁国民政府	-5599
lar	-5600
▁反抗	-5601
▁行驶	-5602
▁视觉	-5603
▁肯定	-5604
▁普鲁	-5605
▁解除	-5606
▁厦门	-5607
▁同步	-5608
▁古巴	-5609
▁好友	-5610
▁标本	-5611
▁裁判	-5612
▁钢琴	-5613
▁竟	-5614
分子	-5615
▁金山	-5616
▁太守	-5617
54	-5618
▁有意	-5619
▁刺激	-5620
▁理念	-5621
▁特区	-5622
▁以往	-5623
▁设计师	-5624
81	-5625
▁74	-5626
▁周刊	-5627
▁丞	-5628
▁崩	-5629
▁汉字	-5630
57	-5631
▁矛盾	-5632
▁首任	-5633
▁即可	-5634
▁革	-5635
热带	-5636
▁正月	-5637
▁座堂	-5638
运动会	-5639
▁每次	-5640
▁依赖	-5641
▁垂直	-5642
产业	-5643
▁机动	-5644
▁集体	-5645
▁路上	-5646
中学	-5647
▁混乱	-5648
▁自治区	-5649
▁圣母	-5650
大楼	-5651
pl	-5652
▁全体	-5653
▁面临	-5654
▁陕西省	-5655
▁喇	-5656
▁建筑师	-5657
▁工会	-5658
▁消灭	-5659
▁便是	-5660
▁湖北省	-5661
▁主导	-5662
▁战国	-5663
不同	-5664
ile	-5665
▁其父	-5666
▁架构	-5667
此之外	-5668
▁除此之外	-5669
▁矮	-5670
▁留学	-5671
▁嘉义	-5672
84	-5673
▁上方	-5674
二年	-5675
▁劳工	-5676
▁株	-5677
▁延续	-5678
▁巧	-5679
▁赫尔	-5680
▁选秀	-5681
ung	-5682
希腊	-5683
▁德拉	-5684
▁惯	-5685
▁遗传	-5686
▁并由	-5687
▁方程式	-5688
▁伤害	-5689
▁织	-5690
ty	-5691
▁映	-5692
▁69	-5693
▁人民币	-5694
span	-5695
tr	-5696
▁一群	-5697
▁一批	-5698
▁三次	-5699
▁巴勒	-5700
▁编写	-5701
▁费用	-5702
▁模特	-5703
▁合同	-5704
▁歌剧	-5705
▁不但	-5706
▁绘画	-5707
▁大字	-5708
▁味	-5709
▁元朝	-5710
▁盆	-5711
▁1900	-5712
▁害	-5713
▁狮子	-5714
ome	-5715
▁常委	-5716
▁met	-5717
▁colspan	-5718
▁晚期	-5719
▁天津市	-5720
▁愤	-5721
▁中世纪	-5722
▁虫	-5723
▁协定	-5724
▁沈阳	-5725
▁弗雷	-5726
▁型号	-5727
59	-5728
▁黑人	-5729
▁一篇	-5730
▁东海	-5731
▁好评	-5732
▁服装	-5733
▁庆祝	-5734
▁举人	-5735
▁描绘	-5736
▁耕	-5737
ann	-5738
▁定位	-5739
▁仅次	-5740
▁达尔	-5741
▁宣告	-5742
▁中西	-5743
▁istat	-5744
▁出色	-5745
▁示威者	-5746
▁主人	-5747
▁札	-5748
▁批判	-5749
卫队	-5750
▁此前	-5751
▁许可	-5752
▁最长	-5753
ite	-5754
▁建国	-5755
▁刑事	-5756
▁勳	-5757
▁no	-5758
▁斯坦	-5759
▁总监	-5760
▁徒	-5761
▁探索	-5762
▁认可	-5763
▁分校	-5764
▁密切	-5765
▁群体	-5766
▁尸体	-5767
▁句	-5768
▁总经理	-5769
▁睡	-5770
▁祖先	-5771
▁纷纷	-5772
▁新人	-5773
▁鉴	-5774
▁弗拉	-5775
▁追求	-5776
▁囚	-5777
▁获胜	-5778
▁三位	-5779
ime	-5780
▁会长	-5781
▁相邻	-5782
▁做法	-5783
▁具备	-5784
▁开工	-5785
▁氧	-5786
▁民政	-5787
▁迷你	-5788
ta	-5789
▁贞	-5790
▁注入	-5791
▁迫使	-5792
▁塞尔维亚	-5793
▁滚	-5794
▁检测	-5795
▁兵力	-5796
▁尼古	-5797
▁左翼	-5798
▁该地	-5799
▁重返	-5800
▁念	-5801
▁pe	-5802
▁公顷	-5803
▁直升	-5804
▁下方	-5805
▁殷	-5806
▁负责人	-5807
植物	-5808
▁1909	-5809
表现	-5810
▁演讲	-5811
▁卑	-5812
集团	-5813
▁参数	-5814
▁情绪	-5815
▁注册	-5816
are	-5817
▁穿着	-5818
▁图像	-5819
▁扣	-5820
▁百万	-5821
▁一书	-5822
▁附加	-5823
▁电力机车	-5824
▁夏威	-5825
▁多名	-5826
▁下载	-5827
▁描写	-5828
▁多项	-5829
▁阿富	-5830
▁芒	-5831
▁sil	-5832
▁us	-5833
▁婴	-5834
▁较为	-5835
▁洛阳	-5836
▁参议院	-5837
▁死刑	-5838
▁德克	-5839
▁悉	-5840
斯顿	-5841
▁pc	-5842
▁杰出	-5843
ass	-5844
▁菲利	-5845
▁经理	-5846
▁km	-5847
▁十四	-5848
▁粮食	-5849
▁议题	-5850
▁城区	-5851
▁幕府	-5852
比赛	-5853
▁智利	-5854
▁理工	-5855
▁初年	-5856
▁庶	-5857
因为	-5858
▁是因为	-5859
▁十二年	-5860
▁万美元	-5861
pr	-5862
▁er	-5863
▁先前	-5864
▁县人	-5865
▁米兰	-5866
▁济南	-5867
▁随机	-5868
▁队员	-5869
▁海水	-5870
▁打败	-5871
▁治所	-5872
▁乔治亚	-5873
ank	-5874
▁商务	-5875
▁魁	-5876
▁印第	-5877
社会	-5878
▁人大代表	-5879
▁白人	-5880
▁房间	-5881
▁平行	-5882
▁阿富汗	-5883
▁分解	-5884
▁本来	-5885
▁体制	-5886
▁so	-5887
▁移居	-5888
▁夏威夷	-5889
▁祭祀	-5890
▁环球	-5891
▁帐	-5892
▁互动	-5893
▁矩阵	-5894
iel	-5895
▁任内	-5896
▁菩萨	-5897
▁战车	-5898
▁传奇	-5899
▁城墙	-5900
▁论坛	-5901
▁彼此	-5902
▁雅典	-5903
▁mic	-5904
埃尔	-5905
▁印第安	-5906
▁终止	-5907
▁稻	-5908
▁亚军	-5909
▁樱	-5910
之为	-5911
▁73	-5912
▁劫	-5913
▁专区	-5914
▁防守	-5915
▁外界	-5916
▁医学院	-5917
▁这也	-5918
▁一大	-5919
▁前者	-5920
▁摩尔	-5921
und	-5922
医院	-5923
▁部署	-5924
▁公式	-5925
▁添加	-5926
▁妖	-5927
▁回答	-5928
▁网上	-5929
▁仲	-5930
▁进口	-5931
格尔	-5932
▁大批	-5933
▁im	-5934
▁得分	-5935
▁指挥官	-5936
区域	-5937
▁加尔	-5938
▁卧	-5939
ium	-5940
▁上游	-5941
▁任意	-5942
▁大埔	-5943
▁抗战	-5944
▁心脏	-5945
▁法兰克	-5946
▁女神	-5947
▁强制	-5948
▁事物	-5949
▁顺序	-5950
▁太原	-5951
▁英军	-5952
▁面向	-5953
▁弟子	-5954
▁卡特	-5955
▁公室	-5956
▁苯	-5957
▁抑制	-5958
▁科夫	-5959
▁史蒂	-5960
▁技巧	-5961
▁娜	-5962
▁per	-5963
▁福特	-5964
▁穆罕	-5965
▁精灵	-5966
▁101	-5967
▁天府	-5968
▁知府	-5969
▁预备	-5970
▁出自	-5971
▁框	-5972
▁动车	-5973
▁受害	-5974
▁六个	-5975
▁碧	-5976
威尔	-5977
▁高校	-5978
▁po	-5979
食性	-5980
▁年任	-5981
▁观赏	-5982
▁潜艇	-5983
▁北侧	-5984
▁携带	-5985
▁这段	-5986
land	-5987
▁支线	-5988
▁一片	-5989
▁财务	-5990
▁长度	-5991
▁止	-5992
联合	-5993
▁给出	-5994
一年	-5995
▁对抗	-5996
▁议席	-5997
▁吾	-5998
▁并与	-5999
▁百姓	-6000
ts	-6001
▁前进	-6002
▁行人	-6003
各地	-6004
▁now	-6005
▁首张	-6006
▁法令	-6007
▁不知	-6008
▁提交	-6009
▁查尔斯	-6010
▁畅	-6011
▁one	-6012
▁屯门	-6013
▁题材	-6014
▁通行	-6015
▁慕容	-6016
▁集会	-6017
▁公告	-6018
▁基本上	-6019
▁姓氏	-6020
期间	-6021
▁欧元	-6022
▁转为	-6023
▁各类	-6024
▁购物	-6025
▁沼	-6026
▁一千	-6027
▁宠	-6028
▁第三次	-6029
▁沪	-6030
恩来	-6031
▁洲	-6032
▁竞技	-6033
▁71	-6034
▁战胜	-6035
▁穆罕默	-6036
▁小姐	-6037
▁1910	-6038
▁发达	-6039
▁all	-6040
▁一旦	-6041
▁效率	-6042
▁次日	-6043
▁算法	-6044
▁萨克	-6045
▁性格	-6046
▁旋转	-6047
▁言论	-6048
▁世界各地	-6049
ction	-6050
民众	-6051
▁流动	-6052
▁勤	-6053
▁交易所	-6054
▁双打	-6055
▁奶	-6056
▁修道院	-6057
▁bar	-6058
▁山坡	-6059
▁吻	-6060
▁南侧	-6061
▁德军	-6062
▁庭	-6063
罗德	-6064
▁有线	-6065
▁清真	-6066
城区	-6067
▁哈利	-6068
▁出土	-6069
▁三大	-6070
▁周恩来	-6071
▁安娜	-6072
▁比尔	-6073
▁变种	-6074
▁抗日战争	-6075
▁愈	-6076
▁造型	-6077
▁地中	-6078
▁当作	-6079
▁库尔	-6080
▁曹操	-6081
▁穿越	-6082
▁96	-6083
▁洛克	-6084
▁经纪	-6085
▁align	-6086
▁叙述	-6087
▁短期	-6088
▁编组	-6089
▁农场	-6090
▁额外	-6091
▁平安	-6092
▁穆罕默德	-6093
▁莉	-6094
▁坪	-6095
▁准确	-6096
▁一面	-6097
▁总共	-6098
▁地中海	-6099
▁犬	-6100
▁改良	-6101
▁昆明	-6102
▁格里	-6103
▁闸	-6104
▁男人	-6105
▁掠	-6106
▁接管	-6107
ae	-6108
▁剧中	-6109
▁多元	-6110
▁勋章	-6111
amp	-6112
▁驱逐舰	-6113
▁里面	-6114
▁一层	-6115
▁步枪	-6116
大革命	-6117
▁文化大革命	-6118
▁正义	-6119
▁皮肤	-6120
▁东汉	-6121
▁西元	-6122
▁pl	-6123
▁希尔	-6124
▁感情	-6125
▁沿用	-6126
▁一本	-6127
▁甲级	-6128
▁吧	-6129
▁一号	-6130
▁代表团	-6131
▁铁路车	-6132
▁代表作	-6133
▁首领	-6134
▁极为	-6135
▁肝	-6136
▁一块	-6137
▁送到	-6138
▁每周	-6139
▁坡	-6140
tv	-6141
▁冲击	-6142
▁癌	-6143
▁传输	-6144
▁82	-6145
▁电车	-6146
▁遗产	-6147
▁更改	-6148
▁抄	-6149
▁飞弹	-6150
▁工艺	-6151
▁bd	-6152
▁十二月	-6153
cc	-6154
▁强化	-6155
▁滕	-6156
▁爱国	-6157
纳德	-6158
▁大理	-6159
ground	-6160
▁平定	-6161
▁交给	-6162
▁后期	-6163
▁并无	-6164
up	-6165
▁笼	-6166
▁吉尔	-6167
▁大队	-6168
▁新增	-6169
▁己	-6170
▁闻名	-6171
▁悠	-6172
▁茂	-6173
▁81	-6174
继续	-6175
▁旨在	-6176
▁巡抚	-6177
▁疫	-6178
▁验	-6179
▁车厢	-6180
▁之际	-6181
▁大大	-6182
▁86	-6183
▁孟加拉	-6184
▁凉	-6185
▁sn	-6186
▁读书	-6187
▁ngc	-6188
亚目	-6189
▁金曲	-6190
▁北魏	-6191
▁不变	-6192
▁若干	-6193
▁骚	-6194
选举	-6195
▁讨伐	-6196
会试	-6197
▁愿意	-6198
▁皇太	-6199
那州	-6200
▁本鱼	-6201
▁途经	-6202
▁yout	-6203
维埃	-6204
▁串	-6205
ase	-6206
▁十一年	-6207
▁子公司	-6208
▁人文	-6209
▁王室	-6210
▁前锋	-6211
▁标记	-6212
▁至此	-6213
▁主义者	-6214
▁中东	-6215
▁擅长	-6216
▁一方	-6217
▁有利	-6218
▁波特	-6219
▁真的	-6220
▁卫视	-6221
▁高峰	-6222
▁时报	-6223
▁禾	-6224
▁首尔	-6225
▁桌	-6226
▁更好	-6227
褐色	-6228
▁名叫	-6229
ica	-6230
▁庞大	-6231
▁凝	-6232
▁氨	-6233
▁高丽	-6234
ence	-6235
old	-6236
▁900	-6237
▁标题	-6238
▁ps	-6239
▁领先	-6240
▁网友	-6241
▁二十年	-6242
▁仅仅	-6243
▁1905	-6244
▁充分	-6245
▁一组	-6246
▁节度使	-6247
▁召集	-6248
山脉	-6249
▁就读	-6250
▁沟通	-6251
▁一架	-6252
▁上诉	-6253
▁现代化	-6254
▁亿美元	-6255
▁员工	-6256
▁奥林匹克运动会	-6257
▁1915	-6258
▁87	-6259
▁夏天	-6260
▁基督徒	-6261
ivers	-6262
军区	-6263
▁无限	-6264
▁地址	-6265
▁防空	-6266
▁地域	-6267
▁流浪	-6268
ical	-6269
▁撰写	-6270
▁海底	-6271
▁北宋	-6272
▁补充	-6273
▁新西兰	-6274
▁班次	-6275
▁实践	-6276
▁维修	-6277
小学	-6278
ance	-6279
▁供奉	-6280
▁功率	-6281
▁渐渐	-6282
▁那个	-6283
ys	-6284
▁继任	-6285
▁遥	-6286
▁一路	-6287
▁因应	-6288
▁雷达	-6289
▁内地	-6290
▁下面	-6291
会长	-6292
▁铃	-6293
▁穿过	-6294
▁获奖	-6295
▁高地	-6296
尼西亚	-6297
▁开启	-6298
▁夺取	-6299
▁拔	-6300
▁等待	-6301
▁主唱	-6302
泊尔	-6303
iki	-6304
▁背鳍	-6305
▁北大	-6306
生活	-6307
station	-6308
▁辉	-6309
▁缴	-6310
ere	-6311
山市	-6312
▁筹备	-6313
▁coun	-6314
▁毗邻	-6315
▁菌	-6316
▁清水	-6317
▁es	-6318
▁专利	-6319
▁1916	-6320
▁一艘	-6321
▁波音	-6322
ool	-6323
▁十三年	-6324
▁阿尔巴	-6325
de	-6326
▁瓦尔	-6327
▁高山	-6328
▁84	-6329
▁乌拉	-6330
▁梯	-6331
▁同志	-6332
▁指责	-6333
▁提前	-6334
▁数个	-6335
▁中书	-6336
▁里斯	-6337
▁市委	-6338
▁蜂	-6339
▁村民	-6340
▁灭亡	-6341
▁第一名	-6342
▁实体	-6343
▁background	-6344
▁其子	-6345
▁will	-6346
▁棉	-6347
▁新型	-6348
▁希特勒	-6349
▁就任	-6350
▁纳入	-6351
活动	-6352
拉多	-6353
▁飞行员	-6354
▁塘	-6355
▁虚拟	-6356
兰克	-6357
伐克	-6358
▁阶级	-6359
▁印象	-6360
▁ke	-6361
结构	-6362
▁os	-6363
▁承担	-6364
吾尔	-6365
▁多人	-6366
▁涵盖	-6367
▁股权	-6368
▁区分	-6369
▁统治者	-6370
▁两座	-6371
▁民进	-6372
▁高层	-6373
▁中央军	-6374
▁美国人	-6375
▁布政	-6376
▁福音	-6377
▁多样	-6378
▁直辖	-6379
ley	-6380
▁1901	-6381
▁参观	-6382
▁颈	-6383
▁六十	-6384
▁地处	-6385
▁炸弹	-6386
▁sk	-6387
▁参谋长	-6388
▁博士学位	-6389
▁诗歌	-6390
▁创下	-6391
▁进而	-6392
▁之名	-6393
▁担当	-6394
▁该区	-6395
▁轰炸机	-6396
▁内政	-6397
▁颁布	-6398
▁产物	-6399
▁储存	-6400
▁精确	-6401
▁遍	-6402
▁79	-6403
▁姊妹	-6404
▁鳞	-6405
▁这张	-6406
▁线性	-6407
▁噶	-6408
ck	-6409
▁推测	-6410
▁客车	-6411
▁考察	-6412
▁体育馆	-6413
▁分区	-6414
▁巴塞	-6415
▁识字	-6416
▁茅	-6417
▁雍正	-6418
▁茨	-6419
▁夫妇	-6420
▁尺寸	-6421
▁离婚	-6422
▁本剧	-6423
▁十一月	-6424
西斯	-6425
▁米尔	-6426
▁跑道	-6427
▁接壤	-6428
▁社团	-6429
own	-6430
▁宣言	-6431
▁gre	-6432
▁立法院	-6433
▁83	-6434
▁立陶	-6435
▁司机	-6436
里亚	-6437
▁判断	-6438
▁姬	-6439
▁碱	-6440
▁嘉庆	-6441
▁弃	-6442
▁变换	-6443
▁chr	-6444
▁重组	-6445
▁数目	-6446
设计	-6447
▁诉讼	-6448
▁展现	-6449
▁球迷	-6450
▁fre	-6451
▁巴伐	-6452
▁模仿	-6453
民族	-6454
▁承诺	-6455
▁重庆市	-6456
▁斯科	-6457
▁队友	-6458
▁电影节	-6459
▁予以	-6460
▁昆虫	-6461
▁坏	-6462
▁封面	-6463
▁亚美	-6464
▁以至	-6465
▁设在	-6466
▁连结	-6467
▁婆	-6468
▁流亡	-6469
co	-6470
▁唐代	-6471
▁此处	-6472
▁神社	-6473
▁名誉	-6474
▁流经	-6475
▁滨海	-6476
▁改装	-6477
▁环保	-6478
▁嫌	-6479
▁为期	-6480
▁干线	-6481
▁黄金	-6482
▁依靠	-6483
▁工程师	-6484
▁几年	-6485
▁起点	-6486
▁风景	-6487
萨斯州	-6488
▁原创	-6489
lat	-6490
▁繁殖	-6491
▁打开	-6492
▁直属	-6493
▁love	-6494
斯塔	-6495
ve	-6496
▁数码	-6497
▁个体	-6498
▁情节	-6499
▁葵	-6500
▁解放军	-6501
▁第十三	-6502
▁疗	-6503
▁北洋	-6504
▁观音	-6505
▁雕塑	-6506
▁人称	-6507
▁社群	-6508
▁倡	-6509
▁爪	-6510
化学	-6511
▁在于	-6512
▁cor	-6513
▁或称	-6514
▁北美洲	-6515
▁芳	-6516
维持	-6517
▁道教	-6518
▁学系	-6519
▁停车场	-6520
▁立陶宛	-6521
▁playstation	-6522
▁七十	-6523
▁弓	-6524
▁以为	-6525
▁南宋	-6526
▁娶	-6527
▁乡村	-6528
▁那样	-6529
▁病人	-6530
▁职员	-6531
▁云南省	-6532
▁日后	-6533
▁神圣	-6534
▁宜兰	-6535
▁color	-6536
▁数百	-6537
▁厝	-6538
▁股东	-6539
▁圣诞	-6540
▁fl	-6541
▁期刊	-6542
▁普及	-6543
▁某种	-6544
▁否则	-6545
▁一边	-6546
▁法兰西	-6547
资源	-6548
▁高原	-6549
歇尔	-6550
▁公寓	-6551
▁头部	-6552
▁信任	-6553
山县	-6554
▁香港政府	-6555
▁南斯	-6556
▁四世	-6557
5%	-6558
▁封为	-6559
▁螺旋	-6560
▁自主	-6561
▁享有	-6562
▁清真寺	-6563
▁绥	-6564
▁称之为	-6565
▁鼠	-6566
▁司职	-6567
▁团结	-6568
▁新教	-6569
▁管制	-6570
▁本次	-6571
▁燃烧	-6572
▁专科	-6573
▁中断	-6574
▁保卫	-6575
▁休息	-6576
▁波罗	-6577
▁参见	-6578
▁异常	-6579
▁曲目	-6580
▁佔领	-6581
▁运算	-6582
▁北京大学	-6583
▁侠	-6584
▁多伦	-6585
▁nh	-6586
▁索尼	-6587
▁捷运	-6588
▁庚	-6589
▁口径	-6590
▁1500	-6591
▁增设	-6592
▁获取	-6593
▁众议院	-6594
无法	-6595
▁手法	-6596
▁青春	-6597
▁葡萄牙语	-6598
▁场所	-6599
▁国语	-6600
▁总长	-6601
▁少量	-6602
▁中国科学院	-6603
▁预定	-6604
▁浩	-6605
莎白	-6606
▁传递	-6607
▁5000	-6608
▁划归	-6609
学者	-6610
▁党组	-6611
▁受损	-6612
▁各项	-6613
▁寄生	-6614
▁英里	-6615
城县	-6616
for	-6617
▁外部	-6618
▁硬币	-6619
act	-6620
▁建有	-6621
▁积为	-6622
▁喜爱	-6623
▁为此	-6624
▁侦察	-6625
▁细菌	-6626
▁难民	-6627
▁mod	-6628
▁app	-6629
▁新生	-6630
▁月初	-6631
▁发掘	-6632
▁经费	-6633
▁不愿	-6634
book	-6635
▁富士	-6636
▁居委会	-6637
警报	-6638
▁二百	-6639
▁身为	-6640
▁97	-6641
▁圆形	-6642
▁料	-6643
物质	-6644
▁奎	-6645
三年	-6646
▁选民	-6647
文化	-6648
▁总体	-6649
▁乌斯	-6650
iam	-6651
▁一小	-6652
▁成果	-6653
▁整理	-6654
▁突击	-6655
▁某个	-6656
▁youtube	-6657
程序	-6658
▁陨坑	-6659
▁宿舍	-6660
▁清华大学	-6661
▁亦可	-6662
▁时刻	-6663
▁英超	-6664
▁足协	-6665
▁胜出	-6666
▁可靠	-6667
▁网页	-6668
▁分享	-6669
▁前线	-6670
▁鱼科	-6671
▁92	-6672
▁体现	-6673
▁十五年	-6674
▁冀	-6675
后期	-6676
▁首批	-6677
▁德尔	-6678
▁神父	-6679
▁品种	-6680
▁蒸汽	-6681
▁普鲁士	-6682
▁gen	-6683
▁斋	-6684
▁军舰	-6685
▁得票	-6686
▁途径	-6687
▁迟	-6688
▁演变	-6689
we	-6690
▁免疫	-6691
▁次列车	-6692
▁cp	-6693
▁威尼斯	-6694
▁科幻	-6695
▁件	-6696
▁粤语	-6697
▁公立	-6698
▁灵魂	-6699
▁还要	-6700
▁南下	-6701
▁末年	-6702
▁尊重	-6703
▁text	-6704
▁随之	-6705
▁考入	-6706
▁回合	-6707
▁取自	-6708
▁加勒	-6709
▁东区	-6710
▁1903	-6711
里兰	-6712
▁格鲁	-6713
行动	-6714
▁头衔	-6715
▁搭配	-6716
▁国的	-6717
▁钢铁	-6718
▁地产	-6719
▁min	-6720
导演	-6721
▁医师	-6722
▁土壤	-6723
▁寺院	-6724
▁伤亡	-6725
▁立刻	-6726
▁人体	-6727
▁南斯拉夫	-6728
▁赛车	-6729
▁社交	-6730
▁卸	-6731
ash	-6732
▁澄	-6733
▁校舍	-6734
▁坂	-6735
▁总教区	-6736
红色	-6737
▁电路	-6738
▁可能性	-6739
▁ep	-6740
▁国共	-6741
▁科罗	-6742
▁轨道交通	-6743
▁交叉	-6744
▁压缩	-6745
▁锁	-6746
▁回家	-6747
▁祠	-6748
▁投手	-6749
▁参议员	-6750
▁科会试	-6751
▁草案	-6752
▁布兰	-6753
▁这类	-6754
▁亚美尼亚	-6755
▁光学	-6756
▁消费者	-6757
▁斯克	-6758
▁放射	-6759
▁政治部	-6760
▁始终	-6761
▁侵略	-6762
▁搭载	-6763
▁航天	-6764
▁关联	-6765
▁开业	-6766
▁韦尔	-6767
▁比利时	-6768
▁减弱	-6769
▁弹药	-6770
黄色	-6771
▁尼泊尔	-6772
▁完美	-6773
▁各有	-6774
▁百年	-6775
▁纤维	-6776
▁数值	-6777
▁05	-6778
▁哈里	-6779
▁风警报	-6780
▁韵	-6781
也纳	-6782
▁linux	-6783
▁午	-6784
▁pa	-6785
▁大联盟	-6786
▁省委	-6787
▁领事	-6788
▁幸福	-6789
▁晚间	-6790
德尔	-6791
▁gu	-6792
▁其他人	-6793
▁忘	-6794
▁过度	-6795
▁预期	-6796
▁托马斯	-6797
ga	-6798
▁酶	-6799
▁乘坐	-6800
▁电池	-6801
▁微博	-6802
▁剩馀	-6803
▁intern	-6804
▁肩	-6805
▁入境	-6806
▁饮食	-6807
▁恭	-6808
▁智能	-6809
▁一类	-6810
▁看法	-6811
▁优先	-6812
▁live	-6813
▁打造	-6814
▁野生	-6815
▁美国海	-6816
▁吏部	-6817
▁顺治	-6818
九龙	-6819
▁rob	-6820
▁普罗	-6821
▁新北市	-6822
▁国外	-6823
▁亚历山大	-6824
▁诊断	-6825
▁涉嫌	-6826
▁识字率	-6827
▁不利	-6828
▁亭	-6829
▁径	-6830
▁永远	-6831
▁电流	-6832
▁元朗	-6833
▁公务	-6834
▁华北	-6835
▁过渡	-6836
▁移交	-6837
▁温泉	-6838
达州	-6839
▁中以	-6840
丁堡	-6841
▁med	-6842
▁日文	-6843
▁校友	-6844
▁该剧	-6845
▁前来	-6846
▁变为	-6847
▁感受	-6848
▁诸多	-6849
▁翰林院	-6850
斯堡	-6851
▁小孩	-6852
▁现已	-6853
▁观念	-6854
▁特里	-6855
▁诺贝尔	-6856
▁呼吸	-6857
▁区内	-6858
▁一说	-6859
▁加斯	-6860
▁首歌曲	-6861
▁粉丝	-6862
▁院校	-6863
▁1907	-6864
▁决策	-6865
▁灭绝	-6866
▁江西省	-6867
▁陆地	-6868
▁胞	-6869
里克	-6870
▁信奉	-6871
▁本书	-6872
▁1906	-6873
▁劲	-6874
▁容量	-6875
▁缓慢	-6876
▁mat	-6877
▁水利	-6878
教授	-6879
▁沙漠	-6880
▁罗伯特	-6881
▁三名	-6882
▁腾	-6883
▁真人	-6884
辖区	-6885
▁维也纳	-6886
▁芦	-6887
▁县级	-6888
ame	-6889
▁山大	-6890
▁条款	-6891
▁沿着	-6892
▁看见	-6893
▁县治	-6894
▁环绕	-6895
▁血液	-6896
▁降雨量	-6897
▁1908	-6898
▁情感	-6899
▁结论	-6900
▁十四年	-6901
▁立委	-6902
持续	-6903
▁徽	-6904
▁伟大	-6905
▁长春	-6906
▁政务	-6907
▁男主角	-6908
▁89	-6909
▁ic	-6910
ri	-6911
▁换乘	-6912
▁琳	-6913
▁辽宁省	-6914
▁肿	-6915
▁志愿	-6916
▁责管	-6917
▁迦	-6918
▁国家级	-6919
▁争夺	-6920
▁当然	-6921
▁mag	-6922
▁苏维埃	-6923
▁差距	-6924
▁古希腊	-6925
▁肉食性	-6926
六年	-6927
▁火车站	-6928
▁鹰	-6929
▁体积	-6930
平方米	-6931
▁第十一届	-6932
▁夜间	-6933
▁存储	-6934
▁辨	-6935
▁攻势	-6936
常见	-6937
▁写成	-6938
▁亮相	-6939
▁火力	-6940
▁res	-6941
▁攻入	-6942
▁死后	-6943
发展	-6944
ale	-6945
les	-6946
▁下半	-6947
▁细节	-6948
▁放置	-6949
▁兵团	-6950
▁之处	-6951
▁播映	-6952
▁洪水	-6953
▁国旗	-6954
▁片段	-6955
▁党委	-6956
▁工党	-6957
▁贤	-6958
▁改组	-6959
▁中场	-6960
▁季后	-6961
▁大帝	-6962
▁红军	-6963
战役	-6964
▁框架	-6965
▁史上	-6966
▁约瑟	-6967
▁巴斯	-6968
▁鱼雷	-6969
▁侍郎	-6970
▁转化	-6971
▁360	-6972
▁桥梁	-6973
▁第二次世界大战	-6974
▁三级	-6975
▁染色	-6976
▁王后	-6977
▁民主党	-6978
▁命运	-6979
▁编制	-6980
▁刊登	-6981
▁天空	-6982
ml	-6983
▁鲸	-6984
▁一角	-6985
▁战败	-6986
▁91	-6987
▁时速	-6988
▁福尔	-6989
▁豫	-6990
▁越来越	-6991
▁相较	-6992
▁之意	-6993
▁尼西	-6994
国民党	-6995
▁最高法院	-6996
▁排除	-6997
▁辖区	-6998
▁修复	-6999
▁崇祯	-7000
▁法定	-7001
▁得出	-7002
▁univers	-7003
▁姑	-7004
▁学堂	-7005
▁射入	-7006
▁暂停	-7007
▁世代	-7008
▁身亡	-7009
▁酷	-7010
▁上任	-7011
▁当前	-7012
▁micro	-7013
▁图形	-7014
▁不论	-7015
▁男孩	-7016
公会	-7017
▁纽约市	-7018
▁原为	-7019
▁初步	-7020
▁巴特	-7021
▁确实	-7022
▁仰	-7023
▁嗣	-7024
▁姿	-7025
▁守护	-7026
▁普拉	-7027
▁月份	-7028
▁确立	-7029
▁阁	-7030
▁贷	-7031
▁汝	-7032
内亚	-7033
▁友谊	-7034
▁金刚	-7035
tp	-7036
斯加	-7037
▁生效	-7038
▁原作	-7039
▁战舰	-7040
▁田径	-7041
▁第三十	-7042
▁坟	-7043
▁一代	-7044
▁星际	-7045
▁多伦多	-7046
▁曾祖父	-7047
▁遗迹	-7048
▁领队	-7049
▁105	-7050
▁印度尼西亚	-7051
▁壳	-7052
▁观看	-7053
▁押	-7054
▁其间	-7055
▁零售	-7056
▁des	-7057
▁局部	-7058
运会	-7059
▁婚礼	-7060
me	-7061
▁名列	-7062
▁周末	-7063
▁限定	-7064
▁阿尔巴尼亚	-7065
▁电压	-7066
ood	-7067
dr	-7068
▁爱好	-7069
▁村庄	-7070
▁促使	-7071
▁体验	-7072
▁回来	-7073
▁cla	-7074
▁斯拉夫	-7075
▁with	-7076
物种	-7077
▁弄	-7078
▁两大	-7079
▁上半	-7080
▁职棒	-7081
▁文革	-7082
收入	-7083
▁封锁	-7084
▁心率	-7085
▁阿布	-7086
ise	-7087
▁简化	-7088
▁93	-7089
▁交响	-7090
▁毫无	-7091
▁军衔	-7092
▁06	-7093
主任	-7094
▁往来	-7095
▁河口	-7096
▁密码	-7097
▁这位	-7098
▁单打	-7099
▁级别	-7100
▁死去	-7101
▁萨拉	-7102
▁拉萨	-7103
▁车体	-7104
马拉	-7105
▁浓度	-7106
▁民籍	-7107
▁扑	-7108
使用	-7109
▁临床	-7110
▁还原	-7111
▁silver	-7112
▁导师	-7113
▁股票	-7114
▁埔	-7115
球员	-7116
▁期望	-7117
▁募	-7118
▁宰相	-7119
▁交战	-7120
▁巴赫	-7121
▁军方	-7122
▁哈佛	-7123
▁曲线	-7124
▁第一批	-7125
▁1904	-7126
km	-7127
波罗	-7128
广播	-7129
▁似的	-7130
▁黄河	-7131
▁巴勒斯坦	-7132
▁宋朝	-7133
▁起诉	-7134
马尔	-7135
▁定律	-7136
▁继位	-7137
▁阿姆	-7138
ict	-7139
▁入围	-7140
▁面前	-7141
▁广义	-7142
▁代号	-7143
▁路德	-7144
洛克	-7145
▁北伐	-7146
▁电磁	-7147
▁09	-7148
▁名词	-7149
▁适当	-7150
▁by	-7151
▁逃亡	-7152
▁告知	-7153
▁dav	-7154
之子	-7155
▁日益	-7156
▁虚构	-7157
ms	-7158
▁一员	-7159
▁枢纽	-7160
▁百科	-7161
▁奋	-7162
▁人均	-7163
▁行政区划	-7164
▁调任	-7165
▁选人	-7166
▁一对	-7167
▁短篇	-7168
▁一等	-7169
▁哀	-7170
林斯	-7171
水量	-7172
▁出兵	-7173
tc	-7174
▁新华	-7175
▁丑	-7176
▁日子	-7177
▁站房	-7178
▁跨越	-7179
▁二甲	-7180
▁应当	-7181
▁沿线	-7182
▁片中	-7183
▁友好	-7184
▁一体	-7185
▁super	-7186
▁教导	-7187
▁反射	-7188
▁繁忙	-7189
▁乐器	-7190
▁归类	-7191
▁辩论	-7192
▁照顾	-7193
影响	-7194
▁一辆	-7195
ara	-7196
▁年期	-7197
▁进球	-7198
▁当晚	-7199
▁高铁	-7200
▁科研	-7201
▁face	-7202
▁处长	-7203
▁对阵	-7204
▁不幸	-7205
▁洪武	-7206
▁涌	-7207
马州	-7208
▁悬挂	-7209
▁截止	-7210
▁岸	-7211
▁中等	-7212
▁郑州	-7213
▁牧师	-7214
ose	-7215
日报	-7216
▁紧张	-7217
▁岛式	-7218
▁大力	-7219
▁一道	-7220
▁研制	-7221
▁语音	-7222
团体	-7223
▁漏	-7224
▁区划	-7225
▁全美	-7226
▁成化	-7227
▁汀	-7228
▁rec	-7229
▁人群	-7230
▁塔尔	-7231
▁十六年	-7232
▁兵部	-7233
▁新兴	-7234
▁代表性	-7235
斯卡	-7236
理论	-7237
▁国有	-7238
▁星期一	-7239
▁防部	-7240
▁int	-7241
山区	-7242
饰演	-7243
▁吉林省	-7244
▁品质	-7245
▁动车组	-7246
▁累积	-7247
▁一期	-7248
洛斯	-7249
▁生理	-7250
▁调节	-7251
▁选为	-7252
va	-7253
▁不如	-7254
eng	-7255
▁婴儿	-7256
▁博览	-7257
▁消除	-7258
▁迁移	-7259
▁发言人	-7260
▁利物	-7261
鲁斯	-7262
▁一台	-7263
▁iii	-7264
▁指标	-7265
▁纪念碑	-7266
▁崎	-7267
▁转乘	-7268
▁而后	-7269
遗产	-7270
▁谢尔	-7271
▁world	-7272
▁太郎	-7273
▁开播	-7274
▁停留	-7275
▁兴起	-7276
▁安置	-7277
hel	-7278
▁签证	-7279
▁94	-7280
▁创意	-7281
▁重修	-7282
▁翅	-7283
▁车型	-7284
▁航行	-7285
▁九州	-7286
▁牛津	-7287
yn	-7288
▁颠	-7289
▁绍兴	-7290
▁盆地	-7291
▁评审	-7292
▁延安	-7293
▁中央军委	-7294
▁廷	-7295
▁原料	-7296
▁年末	-7297
▁广州市	-7298
▁永乐	-7299
▁总是	-7300
▁音乐会	-7301
▁沙特	-7302
▁安东尼	-7303
▁催化	-7304
▁一日	-7305
▁老人	-7306
ox	-7307
▁施行	-7308
▁时常	-7309
▁浪漫	-7310
▁自从	-7311
▁利物浦	-7312
▁亚当	-7313
▁补给	-7314
▁规格	-7315
▁加勒比	-7316
▁省政府	-7317
▁晶体	-7318
▁温带	-7319
▁近似	-7320
广场	-7321
▁char	-7322
olog	-7323
▁屋顶	-7324
▁类别	-7325
▁降落	-7326
▁mon	-7327
▁鸿	-7328
uk	-7329
▁深刻	-7330
▁认知	-7331
enn	-7332
be	-7333
▁鑑	-7334
▁愤怒	-7335
▁争论	-7336
▁元音	-7337
▁最后一	-7338
af	-7339
▁法学	-7340
诺夫	-7341
▁巴克	-7342
▁印度洋	-7343
▁star	-7344
▁har	-7345
ork	-7346
ade	-7347
民间	-7348
▁便利	-7349
▁字符	-7350
▁沃尔	-7351
▁全年	-7352
▁转任	-7353
▁舱	-7354
▁华东	-7355
▁gl	-7356
▁市内	-7357
▁技能	-7358
▁珀	-7359
▁全程	-7360
▁批复	-7361
▁ty	-7362
▁之称	-7363
▁分散	-7364
▁草原	-7365
▁馀人	-7366
▁园区	-7367
西里	-7368
▁营养	-7369
▁县长	-7370
冠军	-7371
▁亡	-7372
▁判处	-7373
▁维基	-7374
▁迫害	-7375
▁基金会	-7376
▁东路	-7377
▁南市	-7378
▁撤离	-7379
▁ent	-7380
▁理器	-7381
▁生前	-7382
▁终身	-7383
▁进程	-7384
▁封闭	-7385
▁身高	-7386
同时	-7387
约翰	-7388
小组	-7389
▁fe	-7390
▁次子	-7391
地亚	-7392
▁罕见	-7393
▁舌	-7394
der	-7395
▁尼古拉	-7396
▁光谱	-7397
▁晚年	-7398
▁使者	-7399
球会	-7400
▁列宁	-7401
▁议长	-7402
电台	-7403
▁占据	-7404
▁的话	-7405
▁肌肉	-7406
▁遗体	-7407
▁极端	-7408
▁霍尔	-7409
太平	-7410
▁公平	-7411
▁十八年	-7412
罗马尼亚	-7413
▁同治	-7414
▁工部	-7415
▁练习	-7416
mb	-7417
伦斯	-7418
ower	-7419
▁策划	-7420
▁泉州	-7421
▁三部	-7422
▁祖籍	-7423
▁一周	-7424
▁排球	-7425
▁布政使	-7426
▁否认	-7427
军事	-7428
ony	-7429
工作	-7430
ult	-7431
▁流通	-7432
▁液体	-7433
▁只好	-7434
五年	-7435
▁鸦	-7436
▁一时	-7437
▁三百	-7438
▁前方	-7439
新闻	-7440
▁删除	-7441
▁德川	-7442
▁所得	-7443
▁狱	-7444
▁上将	-7445
人士	-7446
▁武昌	-7447
泽尔	-7448
▁腰	-7449
▁此举	-7450
▁风速	-7451
▁物资	-7452
▁网民	-7453
▁马克思	-7454
▁暖	-7455
▁贝克	-7456
▁美术馆	-7457
▁下游	-7458
▁排名第	-7459
▁相当于	-7460
▁music	-7461
相同	-7462
▁mm	-7463
▁总计	-7464
▁正统	-7465
事业	-7466
▁侨	-7467
▁薪	-7468
▁家乡	-7469
▁故障	-7470
▁01	-7471
▁握	-7472
纳斯	-7473
▁天王	-7474
▁长安	-7475
▁早已	-7476
▁故此	-7477
▁全市	-7478
▁此类	-7479
政策	-7480
▁原址	-7481
▁中途	-7482
▁政变	-7483
▁诸侯	-7484
▁干扰	-7485
▁旁边	-7486
▁光明	-7487
▁省份	-7488
▁累计	-7489
▁初中	-7490
▁菲利普	-7491
▁干涉	-7492
▁服务器	-7493
▁是从	-7494
▁can	-7495
▁格勒	-7496
▁趋势	-7497
▁仪器	-7498
▁并称	-7499
开发	-7500
▁翌日	-7501
布尔	-7502
▁角逐	-7503
▁客机	-7504
▁车手	-7505
▁一件	-7506
▁不敢	-7507
▁众人	-7508
▁售票	-7509
▁动态	-7510
▁率先	-7511
▁屠杀	-7512
▁登进士	-7513
提琴	-7514
▁东北部	-7515
▁事宜	-7516
▁赛会	-7517
电视台	-7518
▁追溯	-7519
▁女歌手	-7520
▁纪录片	-7521
▁与其	-7522
▁意图	-7523
机关	-7524
▁嫁给	-7525
▁哈德	-7526
▁提案	-7527
▁写道	-7528
▁联军	-7529
ins	-7530
▁人力	-7531
▁各省	-7532
▁山口	-7533
▁阿斯	-7534
▁体重	-7535
▁手下	-7536
▁第一代	-7537
▁建筑面积	-7538
▁望远	-7539
▁出局	-7540
▁移至	-7541
▁东南部	-7542
▁庇	-7543
▁战列	-7544
▁参赛者	-7545
▁忧	-7546
▁借此	-7547
▁县城	-7548
lex	-7549
▁汤姆	-7550
▁防卫	-7551
▁纽西兰	-7552
▁黑龙江省	-7553
▁不用	-7554
▁武力	-7555
▁无锡	-7556
▁分数	-7557
▁相近	-7558
▁透明	-7559
▁术语	-7560
▁被判	-7561
▁预告	-7562
▁五世	-7563
▁水中	-7564
▁节点	-7565
▁荣获	-7566
▁得主	-7567
▁改任	-7568
▁癌症	-7569
▁奖金	-7570
▁mc	-7571
▁富有	-7572
▁并获	-7573
▁数十	-7574
gb	-7575
三个	-7576
▁pet	-7577
▁节奏	-7578
▁神学	-7579
▁张家	-7580
▁一个区	-7581
▁bro	-7582
▁分开	-7583
▁二氧化	-7584
▁08	-7585
▁财富	-7586
▁巴伐利亚	-7587
▁蟹	-7588
▁驶	-7589
▁城际	-7590
▁诸如	-7591
责任	-7592
▁往返	-7593
▁电气化	-7594
蒂安	-7595
▁合理	-7596
▁频繁	-7597
▁她们	-7598
▁编入	-7599
▁连续剧	-7600
▁水上	-7601
▁选拔	-7602
▁四人	-7603
▁斯大	-7604
▁悉尼	-7605
▁school	-7606
八年	-7607
▁西路	-7608
▁崇拜	-7609
▁赋予	-7610
▁07	-7611
▁死者	-7612
▁重要性	-7613
▁常规	-7614
▁妮	-7615
▁大名	-7616
▁英文名	-7617
stem	-7618
▁卡斯蒂	-7619
▁迁往	-7620
▁岗	-7621
达尔	-7622
▁定性	-7623
▁义务	-7624
风格	-7625
▁妃	-7626
▁air	-7627
占庭	-7628
▁支队	-7629
常委会	-7630
▁拜占庭	-7631
▁业馀	-7632
▁顶级	-7633
▁要塞	-7634
▁科学院	-7635
▁帽	-7636
风暴	-7637
▁尿	-7638
▁毁灭	-7639
oll	-7640
▁被告	-7641
▁寓	-7642
▁路径	-7643
▁her	-7644
▁350	-7645
▁活性	-7646
pt	-7647
▁接到	-7648
▁斯大林	-7649
撒冷	-7650
▁攻占	-7651
▁机枪	-7652
运输	-7653
路撒冷	-7654
▁akb	-7655
机场	-7656
▁西汉	-7657
▁连同	-7658
▁铜牌	-7659
▁bla	-7660
企业	-7661
▁弦	-7662
▁因子	-7663
▁帕特	-7664
▁宫殿	-7665
▁郎中	-7666
▁恶化	-7667
▁1895	-7668
▁主编	-7669
▁社长	-7670
▁ms	-7671
▁季后赛	-7672
▁人为	-7673
▁还会	-7674
▁繁荣	-7675
▁杆	-7676
▁图片	-7677
▁圣殿	-7678
▁栏	-7679
飞机	-7680
▁公车	-7681
▁首部	-7682
▁本部	-7683
▁气温	-7684
▁雕像	-7685
▁刚果	-7686
▁发送	-7687
▁本质	-7688
▁继承人	-7689
▁意为	-7690
离子	-7691
▁权益	-7692
▁该站	-7693
▁语法	-7694
▁je	-7695
▁依旧	-7696
▁卡塔	-7697
▁嘉宾	-7698
▁改用	-7699
字母	-7700
▁日举行	-7701
▁望远镜	-7702
语言	-7703
▁苗栗	-7704
太平洋	-7705
▁专员	-7706
▁台币	-7707
▁安妮	-7708
▁威尔斯	-7709
▁主机	-7710
▁石头	-7711
▁反击	-7712
▁咸丰	-7713
▁1898	-7714
▁思考	-7715
▁床	-7716
▁编曲	-7717
球场	-7718
▁渠	-7719
ward	-7720
▁数学家	-7721
空间	-7722
▁放送	-7723
▁创始人	-7724
▁发电厂	-7725
▁天后	-7726
▁巴哈	-7727
▁法人	-7728
▁刑部	-7729
▁完善	-7730
▁阿克	-7731
▁电信	-7732
▁皇室	-7733
▁宫廷	-7734
▁电梯	-7735
▁隶属于	-7736
▁str	-7737
▁交付	-7738
▁虹	-7739
▁外围	-7740
▁瓶	-7741
▁徐州	-7742
▁卜	-7743
反应	-7744
▁束	-7745
▁集结	-7746
ana	-7747
▁介入	-7748
▁改由	-7749
▁生日	-7750
处理	-7751
▁关东	-7752
族自治	-7753
▁天桥	-7754
▁扬州	-7755
▁历代	-7756
▁港铁	-7757
▁帕尔	-7758
▁伞	-7759
▁上校	-7760
▁十七年	-7761
▁巨人	-7762
▁德斯	-7763
金属	-7764
▁标赛	-7765
▁熟悉	-7766
▁世纪末	-7767
▁处决	-7768
▁差别	-7769
▁行车	-7770
▁炎	-7771
ata	-7772
▁南投	-7773
▁尚有	-7774
▁海湾	-7775
▁耶路撒冷	-7776
英国	-7777
计画	-7778
▁运河	-7779
▁权威	-7780
▁人事	-7781
▁丸	-7782
福德	-7783
▁场地	-7784
▁短暂	-7785
▁大奖赛	-7786
▁代数	-7787
▁长子	-7788
oth	-7789
▁含量	-7790
▁实质	-7791
ost	-7792
▁廊	-7793
▁步行	-7794
▁母舰	-7795
▁ib	-7796
媒体	-7797
▁多位	-7798
▁条目	-7799
▁屏东	-7800
▁敏感	-7801
▁识别	-7802
▁负面	-7803
▁靖	-7804
▁stud	-7805
▁族人	-7806
▁独自	-7807
▁中队	-7808
▁立方	-7809
▁重力	-7810
▁漫画家	-7811
▁1902	-7812
▁艾伦	-7813
ax	-7814
▁逃离	-7815
▁伊丽	-7816
▁英寸	-7817
ous	-7818
斯山	-7819
▁第二季	-7820
▁前期	-7821
▁辑	-7822
▁jo	-7823
▁取名	-7824
▁尼夫	-7825
▁探讨	-7826
▁火炮	-7827
▁甘肃省	-7828
▁阔	-7829
▁名录	-7830
▁孔子	-7831
▁巴拿	-7832
▁日出	-7833
▁事后	-7834
▁北极	-7835
▁造船	-7836
▁探险队	-7837
▁sw	-7838
▁享受	-7839
▁大城市	-7840
▁帕拉	-7841
▁恐惧	-7842
▁真菌	-7843
▁转型	-7844
ink	-7845
▁亚目	-7846
▁街头	-7847
▁终结	-7848
box	-7849
▁西斯	-7850
英里	-7851
▁总数	-7852
▁托尔	-7853
▁南路	-7854
▁箭	-7855
▁将来	-7856
ics	-7857
▁显着	-7858
▁最具	-7859
▁区负	-7860
▁半径	-7861
▁子弹	-7862
▁上层	-7863
▁巴布	-7864
▁财经	-7865
▁足以	-7866
▁并有	-7867
▁胆	-7868
▁对称	-7869
▁公社	-7870
▁拿破	-7871
▁流量	-7872
哈尔	-7873
▁web	-7874
▁鹤	-7875
▁巷	-7876
▁胎	-7877
▁月刊	-7878
▁主教练	-7879
▁亚热带	-7880
▁先锋	-7881
▁参演	-7882
米亚	-7883
▁主义的	-7884
▁提倡	-7885
▁这么	-7886
▁来源于	-7887
▁山顶	-7888
▁罪名	-7889
▁哈特	-7890
▁景观	-7891
▁力学	-7892
▁城内	-7893
▁基辅	-7894
▁facebook	-7895
▁化工	-7896
▁奖章	-7897
▁清廷	-7898
▁预防	-7899
▁ua	-7900
▁一方面	-7901
▁达州	-7902
▁优惠	-7903
▁三星	-7904
▁各大	-7905
国立	-7906
▁歧视	-7907
▁紧密	-7908
▁地表	-7909
▁交通部	-7910
▁公约	-7911
▁在场	-7912
▁灵感	-7913
▁白俄	-7914
▁乔治亚州	-7915
6%	-7916
▁编译	-7917
▁武术	-7918
▁雾	-7919
▁斐	-7920
▁受害者	-7921
▁万张	-7922
▁教士	-7923
▁阴谋	-7924
▁阵亡	-7925
▁共享	-7926
▁迈克尔	-7927
勒斯	-7928
书院	-7929
▁相传	-7930
▁郊区	-7931
du	-7932
民党	-7933
▁不佳	-7934
▁位居	-7935
▁域名	-7936
▁送往	-7937
力学	-7938
▁无关	-7939
▁绵	-7940
▁更大	-7941
▁桓	-7942
▁书法	-7943
▁首映	-7944
卡罗	-7945
克斯坦	-7946
▁相机	-7947
▁峡	-7948
▁多少	-7949
▁大厅	-7950
▁混凝	-7951
▁元帅	-7952
▁火灾	-7953
▁变形	-7954
▁脊椎	-7955
▁聪	-7956
▁104	-7957
ca	-7958
道夫	-7959
▁口号	-7960
▁法拉	-7961
▁事实上	-7962
▁选票	-7963
▁贷款	-7964
▁丘陵	-7965
▁执法	-7966
一代	-7967
▁叠	-7968
▁雅各	-7969
▁全数	-7970
▁箱	-7971
▁市立	-7972
▁改成	-7973
▁有助	-7974
▁奖励	-7975
函数	-7976
▁克劳	-7977
▁里程	-7978
▁混凝土	-7979
▁娘	-7980
▁深受	-7981
▁作词	-7982
马克	-7983
▁评论家	-7984
▁小镇	-7985
▁花莲	-7986
▁di	-7987
▁警员	-7988
▁溶液	-7989
▁版权	-7990
da	-7991
▁ir	-7992
▁part	-7993
▁up	-7994
▁青山	-7995
▁雕刻	-7996
▁第一届	-7997
▁system	-7998
安县	-7999
▁山谷	-8000
▁奥利	-8001
▁赛马	-8002
▁督府	-8003
▁议院	-8004
九年	-8005
▁万吨	-8006
▁东面	-8007
▁南端	-8008
▁饭店	-8009
▁总书记	-8010
局长	-8011
▁凭借	-8012
▁nor	-8013
▁其为	-8014
▁史料	-8015
▁密西	-8016
▁快乐	-8017
▁制片	-8018
▁体型	-8019
▁变量	-8020
▁可行	-8021
▁强迫	-8022
▁治理	-8023
▁乌尔	-8024
族自治区	-8025
小平	-8026
▁开行	-8027
▁科罗拉多	-8028
▁场合	-8029
▁山上	-8030
▁迁至	-8031
▁中旬	-8032
▁怒	-8033
师范	-8034
▁鼎	-8035
文帝	-8036
▁专注	-8037
▁焦点	-8038
▁蛋白质	-8039
▁文本	-8040
4%	-8041
▁北端	-8042
▁膜	-8043
▁季节	-8044
▁罗马尼亚	-8045
事务	-8046
▁交往	-8047
▁姐姐	-8048
▁珍珠	-8049
▁巢	-8050
▁扰	-8051
▁损害	-8052
▁桂林	-8053
▁一行	-8054
▁重播	-8055
ner	-8056
▁收视率	-8057
▁局面	-8058
▁色情	-8059
▁引力	-8060
▁ass	-8061
▁dis	-8062
▁中市	-8063
▁不良	-8064
▁生意	-8065
▁体内	-8066
▁af	-8067
▁三千	-8068
▁聚会	-8069
▁协商	-8070
▁当初	-8071
▁检验	-8072
▁伙	-8073
▁盾	-8074
▁升降	-8075
▁西伯	-8076
▁衔	-8077
▁传入	-8078
▁前任	-8079
▁台中	-8080
▁胡同	-8081
▁第一任	-8082
▁驳	-8083
3%	-8084
▁短片	-8085
▁选中	-8086
▁总局	-8087
▁暴动	-8088
▁俄亥	-8089
▁一万	-8090
学会	-8091
▁与此	-8092
▁航海	-8093
▁俄亥俄	-8094
▁配乐	-8095
▁che	-8096
▁西门	-8097
▁du	-8098
▁容纳	-8099
▁搭乘	-8100
▁行李	-8101
▁产量	-8102
人大	-8103
指挥	-8104
▁并止	-8105
罗门	-8106
▁战区	-8107
▁房子	-8108
▁哲学家	-8109
▁董事长	-8110
▁软条	-8111
▁长轴	-8112
▁卿	-8113
▁大门	-8114
▁隐藏	-8115
soft	-8116
▁桐	-8117
公开	-8118
▁专案	-8119
▁监视	-8120
▁港澳	-8121
▁影展	-8122
▁坊	-8123
▁出赛	-8124
▁最强	-8125
科技	-8126
▁消耗	-8127
▁维克	-8128
▁身边	-8129
镇区	-8130
▁前夕	-8131
▁女演员	-8132
▁极限	-8133
7%	-8134
▁器官	-8135
▁受欢	-8136
▁字体	-8137
▁妙	-8138
▁二层	-8139
▁五代	-8140
▁宁夏	-8141
1%	-8142
▁中日	-8143
▁草地	-8144
ike	-8145
▁诸葛	-8146
gh	-8147
▁南朝	-8148
▁暴露	-8149
▁布鲁克	-8150
▁北上	-8151
▁通称	-8152
▁两部	-8153
▁习俗	-8154
▁剧团	-8155
生素	-8156
▁ev	-8157
▁公演	-8158
▁莱昂	-8159
▁丧失	-8160
▁蜜	-8161
学习	-8162
生产	-8163
▁伊丽莎白	-8164
▁宴	-8165
▁囊	-8166
特别	-8167
普森	-8168
▁发源	-8169
▁州立	-8170
▁战事	-8171
▁里昂	-8172
▁原定	-8173
▁告示	-8174
2%	-8175
▁替换	-8176
▁li	-8177
▁袁世	-8178
发现	-8179
吉尔	-8180
▁今属	-8181
▁公益	-8182
森堡	-8183
▁示范	-8184
▁裕	-8185
▁同期	-8186
▁青铜	-8187
▁购入	-8188
▁ind	-8189
▁古城	-8190
▁前面	-8191
铁路局	-8192
▁108	-8193
▁第二代	-8194
▁幅	-8195
▁上空	-8196
▁兄长	-8197
▁一事	-8198
mer	-8199
▁灰色	-8200
▁团长	-8201
▁陀	-8202
▁高等教育	-8203
▁dc	-8204
▁君士	-8205
御史	-8206
itt	-8207
▁而已	-8208
▁运送	-8209
▁公投	-8210
▁衣服	-8211
▁战机	-8212
▁4000	-8213
▁职责	-8214
▁sur	-8215
▁ver	-8216
▁克拉克	-8217
▁克利	-8218
▁金门	-8219
市场	-8220
▁属性	-8221
▁教科	-8222
▁清末	-8223
▁耶律	-8224
▁远征	-8225
▁广大	-8226
▁热门	-8227
▁卢瓦尔	-8228
▁俄罗斯联邦	-8229
安全	-8230
▁逊	-8231
选择	-8232
▁特种	-8233
▁盟军	-8234
br	-8235
▁城门	-8236
▁节日	-8237
ode	-8238
▁八十	-8239
▁姓名	-8240
▁赤道	-8241
▁盈	-8242
▁为首	-8243
中文	-8244
cr	-8245
▁梨	-8246
▁纵队	-8247
▁加泰	-8248
▁开封	-8249
▁就业	-8250
▁罗马帝国	-8251
▁冰岛	-8252
▁教友	-8253
▁创业	-8254
▁武士	-8255
asa	-8256
▁大法	-8257
十年代	-8258
▁只会	-8259
▁接下来	-8260
▁袁世凯	-8261
▁大马	-8262
▁银牌	-8263
▁一连	-8264
▁中子	-8265
▁保育	-8266
▁水面	-8267
▁银河	-8268
ha	-8269
▁空调	-8270
▁东风	-8271
▁摩托	-8272
▁汉堡	-8273
▁激进	-8274
▁玩具	-8275
▁湾的	-8276
▁金额	-8277
▁翠	-8278
▁走廊	-8279
▁追击	-8280
▁央	-8281
▁勇士	-8282
▁历经	-8283
▁三角形	-8284
ane	-8285
▁西德	-8286
▁宋代	-8287
▁遇上	-8288
▁遵守	-8289
▁实业	-8290
▁每月	-8291
▁客串	-8292
▁肯尼	-8293
▁花费	-8294
毕业	-8295
▁行列	-8296
▁个性	-8297
▁交由	-8298
▁四周	-8299
▁费尔	-8300
▁传送	-8301
▁jav	-8302
▁操作系统	-8303
▁杉	-8304
▁对话	-8305
▁首届	-8306
▁bbc	-8307
ds	-8308
▁次数	-8309
▁违法	-8310
▁君士坦	-8311
▁ra	-8312
▁ref	-8313
orn	-8314
▁red	-8315
▁湖广	-8316
特兰	-8317
▁西洋	-8318
▁同月	-8319
▁影业	-8320
▁政协	-8321
▁最少	-8322
▁ss	-8323
省委	-8324
▁直通	-8325
▁物理学	-8326
8%	-8327
▁顶部	-8328
▁故意	-8329
▁跟随	-8330
ille	-8331
▁领衔	-8332
▁驻地	-8333
改革	-8334
▁五大	-8335
▁阿尔及	-8336
▁密集	-8337
▁部下	-8338
▁而来	-8339
oci	-8340
▁加热	-8341
▁引导	-8342
翠台	-8343
▁两层	-8344
▁北岸	-8345
▁评选	-8346
▁纽约州	-8347
▁整数	-8348
▁106	-8349
耶夫	-8350
▁委内	-8351
▁一线	-8352
▁对立	-8353
的关	-8354
▁俄语	-8355
▁high	-8356
▁鸣	-8357
▁之用	-8358
▁多部	-8359
兴建	-8360
政权	-8361
irl	-8362
▁进化	-8363
▁基尔	-8364
▁出租	-8365
▁影评	-8366
▁来往	-8367
▁海盗	-8368
▁醒	-8369
▁为名	-8370
▁第一季	-8371
多数	-8372
▁行使	-8373
▁在校	-8374
▁维奇	-8375
▁南站	-8376
▁奉命	-8377
▁解析	-8378
▁进出	-8379
▁高清	-8380
▁欧阳	-8381
▁坝	-8382
▁中午	-8383
▁125	-8384
▁穷	-8385
科夫	-8386
▁射线	-8387
▁显著	-8388
▁西岸	-8389
▁04	-8390
▁各界	-8391
▁拉克	-8392
▁西面	-8393
dp	-8394
▁中亚	-8395
▁不及	-8396
▁包装	-8397
▁远东	-8398
开放	-8399
▁不合	-8400
▁司徒	-8401
▁大洋	-8402
▁人气	-8403
▁移植	-8404
▁被选为	-8405
▁州长	-8406
▁102	-8407
▁车道	-8408
▁险	-8409
▁弘治	-8410
▁开国	-8411
▁圣马	-8412
▁刷	-8413
▁炉	-8414
▁阳光	-8415
▁发育	-8416
▁清军	-8417
▁骗	-8418
▁起飞	-8419
▁进展	-8420
▁亩	-8421
▁教徒	-8422
▁日记	-8423
▁夷	-8424
▁夫妻	-8425
▁好莱	-8426
▁案例	-8427
电子	-8428
▁流放	-8429
▁邓小平	-8430
▁收回	-8431
▁结局	-8432
▁时尚	-8433
▁蒋介	-8434
▁元件	-8435
▁助攻	-8436
▁度假	-8437
▁标示	-8438
▁jam	-8439
roid	-8440
▁阿拉斯加	-8441
▁02	-8442
▁炼	-8443
▁星期日	-8444
华人	-8445
ius	-8446
ude	-8447
▁合肥	-8448
▁重复	-8449
▁复兴	-8450
师范大学	-8451
▁1890	-8452
▁集团军	-8453
▁观塘	-8454
▁金钟	-8455
▁各级	-8456
▁硕士学位	-8457
▁奥古	-8458
▁空袭	-8459
▁旋律	-8460
安装	-8461
▁伊尔	-8462
▁横滨	-8463
▁那时	-8464
▁调查局	-8465
乐队	-8466
规定	-8467
▁数为	-8468
▁103	-8469
▁分歧	-8470
▁氯化	-8471
▁与此同时	-8472
多年	-8473
▁gn	-8474
▁右翼	-8475
▁奖牌	-8476
▁萨斯	-8477
▁内陆	-8478
▁一开始	-8479
ited	-8480
▁蒋介石	-8481
▁埃德	-8482
▁del	-8483
▁马丁	-8484
▁汶	-8485
▁五百	-8486
▁会计	-8487
▁卡罗	-8488
▁战时	-8489
▁第二天	-8490
▁加利福尼亚州	-8491
▁取决	-8492
▁礁	-8493
▁两地	-8494
▁安定	-8495
▁辞去	-8496
▁pol	-8497
塔基	-8498
▁执教	-8499
▁罪行	-8500
▁黎明	-8501
▁传动	-8502
▁野战	-8503
▁两天	-8504
ee	-8505
▁例外	-8506
▁其顿	-8507
icon	-8508
茨基	-8509
▁二等	-8510
▁mark	-8511
▁多为	-8512
▁概率	-8513
▁打入	-8514
▁拿到	-8515
▁牙齿	-8516
洛夫	-8517
▁inst	-8518
▁真相	-8519
▁磁场	-8520
▁巴拿马	-8521
▁英国人	-8522
▁父子	-8523
▁成员国	-8524
9%	-8525
▁公国	-8526
▁外星	-8527
▁220	-8528
▁畅销	-8529
▁电机	-8530
▁金星	-8531
ald	-8532
▁决心	-8533
▁起兵	-8534
全国	-8535
▁ele	-8536
▁三层	-8537
▁资深	-8538
▁速率	-8539
国王	-8540
▁华语	-8541
▁盛行	-8542
▁顶点	-8543
▁约瑟夫	-8544
▁加密	-8545
▁护照	-8546
▁租借	-8547
▁转而	-8548
▁理查德	-8549
▁图尔	-8550
▁河谷	-8551
▁磷酸	-8552
▁音乐家	-8553
▁可惜	-8554
▁三十年	-8555
yl	-8556
▁一枚	-8557
▁录制	-8558
▁正规	-8559
▁支部	-8560
▁斯蒂	-8561
▁转入	-8562
▁海滩	-8563
中华	-8564
▁威斯	-8565
▁索尔	-8566
oup	-8567
▁所用	-8568
▁痛苦	-8569
▁意志	-8570
▁仅有	-8571
▁则为	-8572
▁直线	-8573
▁动工	-8574
▁德州	-8575
▁显得	-8576
▁数据库	-8577
▁1896	-8578
▁命中	-8579
▁按察	-8580
▁伊万	-8581
▁实用	-8582
▁闽南	-8583
ster	-8584
▁口岸	-8585
▁地狱	-8586
▁官职	-8587
▁废止	-8588
▁伊斯兰教	-8589
航空	-8590
▁出资	-8591
选区	-8592
▁判定	-8593
▁无线电	-8594
▁官兵	-8595
▁暗示	-8596
▁超人	-8597
▁修正案	-8598
▁nowiki	-8599
▁黎巴	-8600
▁斯泰	-8601
纳州	-8602
▁亚的	-8603
▁映射	-8604
建设	-8605
▁阿肯	-8606
▁格兰	-8607
▁木星	-8608
▁沼泽	-8609
▁过世	-8610
▁1200	-8611
▁蝶	-8612
▁奠定	-8613
▁not	-8614
▁摄政	-8615
▁车身	-8616
▁off	-8617
通过	-8618
▁信用	-8619
▁正德	-8620
▁预言	-8621
▁勳章	-8622
▁拉姆	-8623
▁攻陷	-8624
▁william	-8625
▁缺陷	-8626
▁大堂	-8627
▁1897	-8628
▁万平方米	-8629
质量	-8630
▁伯格	-8631
▁常数	-8632
▁加里	-8633
▁宗室	-8634
▁楼梯	-8635
▁中小	-8636
▁星球	-8637
▁血统	-8638
▁灾难	-8639
▁回收	-8640
▁下旬	-8641
▁位列	-8642
▁侵犯	-8643
方案	-8644
▁刊物	-8645
立方米	-8646
▁传承	-8647
▁姐妹	-8648
▁精英	-8649
▁星期六	-8650
▁帆	-8651
出版	-8652
▁固体	-8653
att	-8654
▁琼斯	-8655
▁驻守	-8656
七年	-8657
▁负担	-8658
▁潭	-8659
▁中层	-8660
▁商标	-8661
▁攻下	-8662
▁隋朝	-8663
ition	-8664
▁game	-8665
▁六世	-8666
▁局势	-8667
▁肿瘤	-8668
汽车	-8669
▁罢工	-8670
▁转播	-8671
▁准决赛	-8672
▁定为	-8673
▁据点	-8674
▁高压	-8675
▁铭	-8676
▁多家	-8677
ouse	-8678
ien	-8679
▁初级	-8680
▁羽球	-8681
吉亚	-8682
eth	-8683
▁mr	-8684
▁奇幻	-8685
▁企业家	-8686
▁役	-8687
▁扩充	-8688
▁秋季	-8689
侍郎	-8690
大桥	-8691
▁目录	-8692
▁半年	-8693
▁ho	-8694
▁百货	-8695
▁编成	-8696
自动	-8697
沙尼亚	-8698
▁腿	-8699
武器	-8700
▁挖掘	-8701
▁microsoft	-8702
作家	-8703
▁怀孕	-8704
▁歌舞	-8705
ave	-8706
▁夫卡	-8707
▁这条	-8708
▁115	-8709
▁出家	-8710
▁动词	-8711
▁幻想	-8712
▁庙宇	-8713
▁隔离	-8714
▁学员	-8715
▁iv	-8716
▁书写	-8717
▁全民	-8718
▁捐赠	-8719
▁水晶	-8720
导体	-8721
▁hy	-8722
▁开创	-8723
▁乃至	-8724
▁底部	-8725
▁维多	-8726
耳曼	-8727
▁南北朝	-8728
之战	-8729
政治局	-8730
▁深圳市	-8731
pa	-8732
▁外来	-8733
▁民主派	-8734
▁直流	-8735
▁马里	-8736
▁树木	-8737
▁平方英里	-8738
▁林肯	-8739
▁维亚	-8740
▁大学生	-8741
▁毕业生	-8742
▁响应	-8743
▁作客	-8744
▁室内	-8745
▁热带风暴	-8746
夫人	-8747
表达	-8748
oss	-8749
▁巡演	-8750
作品	-8751
▁公子	-8752
▁温哥	-8753
▁雄性	-8754
illa	-8755
▁废弃	-8756
物理	-8757
▁小巴	-8758
▁恋爱	-8759
▁松山	-8760
▁船只	-8761
▁形势	-8762
▁数的	-8763
▁team	-8764
▁民兵	-8765
▁水系	-8766
▁游击队	-8767
▁分割	-8768
▁肯塔基	-8769
▁铁路局	-8770
览器	-8771
▁偶尔	-8772
▁谓	-8773
▁唇	-8774
▁南越	-8775
▁微分	-8776
▁全国人大	-8777
江县	-8778
▁杰克逊	-8779
▁以致	-8780
▁尼尔	-8781
▁日晚	-8782
▁北约	-8783
▁div	-8784
设施	-8785
▁招募	-8786
▁背面	-8787
▁制动	-8788
▁风力	-8789
ject	-8790
▁博览会	-8791
▁害怕	-8792
▁解体	-8793
▁供电	-8794
▁警务	-8795
什么	-8796
▁生母	-8797
中山	-8798
▁大火	-8799
▁匈奴	-8800
▁同事	-8801
▁你们	-8802
▁太后	-8803
▁最快	-8804
▁威尔士	-8805
▁州市	-8806
▁1899	-8807
▁戴维斯	-8808
▁疆	-8809
▁发电机	-8810
▁大地	-8811
▁用地	-8812
▁绘入	-8813
圆形	-8814
▁侧式	-8815
▁影带	-8816
▁戈尔	-8817
▁诺尔	-8818
▁有趣	-8819
▁放映	-8820
▁理性	-8821
▁挡	-8822
▁do	-8823
▁巡逻	-8824
▁签下	-8825
▁苏军	-8826
▁第四十	-8827
▁柄	-8828
兴趣	-8829
▁民用	-8830
二世	-8831
▁政委	-8832
▁童年	-8833
▁吉祥	-8834
▁进军	-8835
▁亚马	-8836
▁保加	-8837
▁夺冠	-8838
ement	-8839
▁融入	-8840
▁android	-8841
▁tvb	-8842
hz	-8843
▁科进士	-8844
ake	-8845
▁船员	-8846
▁专栏	-8847
▁省道	-8848
▁兰教	-8849
▁国土	-8850
▁比起	-8851
徒刑	-8852
能力	-8853
▁治安	-8854
期徒刑	-8855
▁上演	-8856
▁被誉	-8857
▁监管	-8858
▁政治委员	-8859
蛋白	-8860
▁打进	-8861
▁活佛	-8862
▁研究者	-8863
▁木材	-8864
▁少数民族	-8865
▁最先	-8866
▁立体	-8867
▁乌鲁	-8868
▁作物	-8869
▁攻克	-8870
总统	-8871
▁机组	-8872
屠杀	-8873
律师	-8874
▁溪流	-8875
▁烈士	-8876
fl	-8877
▁民意	-8878
▁第二名	-8879
ream	-8880
▁一班	-8881
▁般的	-8882
▁福冈	-8883
▁其次	-8884
▁慢慢	-8885
▁107	-8886
▁前作	-8887
▁推理	-8888
承认	-8889
▁培育	-8890
▁师团	-8891
服务	-8892
▁数千	-8893
▁楚国	-8894
▁河内	-8895
▁说服	-8896
▁爱沙尼亚	-8897
▁中央政府	-8898
▁拼音	-8899
▁金钱	-8900
制度	-8901
▁辐鳍鱼	-8902
pm	-8903
▁故居	-8904
▁玛丽亚	-8905
▁肃	-8906
▁就此	-8907
▁水泥	-8908
▁第二个	-8909
▁抽象	-8910
▁一只	-8911
▁北路	-8912
▁管道	-8913
▁自治市	-8914
▁ter	-8915
电车	-8916
▁残疾	-8917
分别	-8918
太后	-8919
▁et	-8920
▁布置	-8921
▁该书	-8922
▁八路	-8923
▁监禁	-8924
▁绝大	-8925
▁证书	-8926
▁兆	-8927
罗夫	-8928
▁碰撞	-8929
▁爵位	-8930
▁新村	-8931
格勒	-8932
利安	-8933
▁同位	-8934
▁装有	-8935
▁名古	-8936
▁外交官	-8937
▁种种	-8938
oo	-8939
▁阿肯色	-8940
▁墓地	-8941
▁are	-8942
▁之所	-8943
▁促成	-8944
▁工作者	-8945
▁开除	-8946
01	-8947
理工	-8948
▁中立	-8949
▁启发	-8950
▁潮州	-8951
▁历史学家	-8952
▁改设	-8953
▁防护	-8954
▁迹	-8955
▁佩尔	-8956
▁val	-8957
▁受体	-8958
▁讲师	-8959
▁彩虹	-8960
▁裁定	-8961
▁名古屋	-8962
▁宅	-8963
▁卸任	-8964
▁埃塞	-8965
▁日本政府	-8966
▁诺曼	-8967
▁同进士	-8968
▁宽度	-8969
▁悠久	-8970
▁霍夫	-8971
▁war	-8972
▁全书	-8973
▁大概	-8974
▁末端	-8975
▁堤	-8976
ual	-8977
▁平成	-8978
▁考量	-8979
▁交汇处	-8980
▁colle	-8981
▁寺庙	-8982
▁不敌	-8983
▁仓库	-8984
▁借用	-8985
▁合金	-8986
▁腓特	-8987
▁畔	-8988
▁克雷	-8989
▁华侨	-8990
▁寿命	-8991
▁航站	-8992
▁知名度	-8993
▁慧	-8994
▁听到	-8995
▁所长	-8996
▁普法	-8997
▁致命	-8998
▁行程	-8999
▁兰州	-9000
sk	-9001
▁减轻	-9002
▁反复	-9003
一度	-9004
▁年春	-9005
▁saint	-9006
如此	-9007
▁斯图	-9008
▁前去	-9009
▁不列	-9010
▁含义	-9011
▁源于	-9012
卫生	-9013
ene	-9014
▁珠海	-9015
▁第十二届	-9016
会员	-9017
▁注重	-9018
▁art	-9019
▁欧美	-9020
▁1889	-9021
▁girl	-9022
▁武田	-9023
▁偏西	-9024
▁巴比	-9025
▁捐款	-9026
▁散文	-9027
▁马拉	-9028
▁波士顿	-9029
▁爱好者	-9030
▁挥	-9031
▁之乱	-9032
▁否定	-9033
▁家属	-9034
▁时空	-9035
▁致使	-9036
声明	-9037
▁之内	-9038
▁单纯	-9039
▁通勤	-9040
▁别人	-9041
▁有用	-9042
▁university	-9043
oph	-9044
▁变动	-9045
▁不必	-9046
▁数年	-9047
▁安德烈	-9048
▁格拉斯	-9049
▁当中陆	-9050
▁研究员	-9051
▁军用	-9052
▁北站	-9053
▁答应	-9054
▁被俘	-9055
▁腓特烈	-9056
▁各式	-9057
▁成名	-9058
▁完颜	-9059
▁总管	-9060
▁吉隆	-9061
家庄	-9062
▁围攻	-9063
▁曼联	-9064
▁贫困	-9065
▁一分	-9066
▁酒吧	-9067
▁ce	-9068
▁东岸	-9069
▁七个	-9070
▁最受	-9071
▁电视动画	-9072
▁等同	-9073
▁既有	-9074
奥尔	-9075
▁布局	-9076
▁迎接	-9077
▁清晨	-9078
▁艾尔	-9079
▁集成	-9080
编码	-9081
▁东站	-9082
▁满意	-9083
▁一句	-9084
▁四名	-9085
▁初始	-9086
▁扩散	-9087
▁显然	-9088
▁暗杀	-9089
▁非正	-9090
▁雌性	-9091
▁反对派	-9092
▁international	-9093
▁保定	-9094
▁户部	-9095
▁旺角	-9096
▁万年	-9097
▁四位	-9098
▁cap	-9099
▁wal	-9100
计算	-9101
▁总结	-9102
▁卡斯蒂利亚	-9103
▁朝阳	-9104
▁共用	-9105
▁动员	-9106
▁厂商	-9107
▁这件	-9108
▁nhk	-9109
▁乐园	-9110
▁外形	-9111
▁合共	-9112
▁春季	-9113
▁西里	-9114
▁阵容	-9115
▁怪物	-9116
▁全身	-9117
▁da	-9118
▁损坏	-9119
▁民生	-9120
▁笔名	-9121
▁约克	-9122
▁翻新	-9123
cm	-9124
▁游乐	-9125
▁sec	-9126
▁铁道部	-9127
▁共识	-9128
▁排序	-9129
▁03	-9130
▁归属	-9131
ings	-9132
▁cy	-9133
▁向东	-9134
▁国籍	-9135
▁富豪	-9136
▁甲板	-9137
参谋	-9138
▁信长	-9139
自由	-9140
▁贵州省	-9141
▁天地	-9142
▁海德	-9143
▁西区	-9144
able	-9145
▁时装	-9146
▁pre	-9147
▁除非	-9148
▁编程	-9149
▁吉士	-9150
起来	-9151
▁天水	-9152
▁拘捕	-9153
▁新任	-9154
菲尔德	-9155
▁在外	-9156
▁地势	-9157
▁录影	-9158
▁支配	-9159
▁总司令	-9160
▁可分	-9161
▁降级	-9162
卫视	-9163
▁现行	-9164
▁斯科特	-9165
▁号码	-9166
▁希伯	-9167
▁军中	-9168
▁广为	-9169
▁空降	-9170
▁剑桥	-9171
▁办学	-9172
▁女士	-9173
马来	-9174
▁几种	-9175
▁壁画	-9176
▁殿试	-9177
▁灌木	-9178
▁之所以	-9179
▁怡	-9180
▁瓷	-9181
▁冲锋	-9182
▁万馀	-9183
员工	-9184
哈顿	-9185
▁几内亚	-9186
▁这两个	-9187
▁甲基	-9188
▁职能	-9189
▁不想	-9190
▁舟	-9191
▁孙子	-9192
▁南开	-9193
▁关心	-9194
▁宇文	-9195
▁安达	-9196
▁腹部	-9197
▁孙中山	-9198
▁show	-9199
▁深夜	-9200
▁询问	-9201
▁司令员	-9202
人类	-9203
▁法师	-9204
环境	-9205
▁托勒	-9206
▁普里	-9207
后方	-9208
▁吸血	-9209
▁公会	-9210
▁高温	-9211
▁电动机	-9212
▁接待	-9213
▁谋杀	-9214
▁优异	-9215
▁直辖市	-9216
海峡	-9217
▁荆州	-9218
▁译名	-9219
伦堡	-9220
▁横跨	-9221
ott	-9222
▁倾斜	-9223
▁发放	-9224
▁窗口	-9225
▁撤回	-9226
▁阻碍	-9227
▁act	-9228
▁纪念馆	-9229
▁工作人员	-9230
人物	-9231
太宗	-9232
▁八个	-9233
▁科斯	-9234
▁240	-9235
▁一中	-9236
▁付费	-9237
▁过于	-9238
▁氨基	-9239
▁军政	-9240
▁学派	-9241
▁法规	-9242
▁不够	-9243
▁天正	-9244
▁日以	-9245
▁采集	-9246
sa	-9247
大区	-9248
▁完结	-9249
▁落败	-9250
▁预警	-9251
▁全日	-9252
▁哈萨	-9253
▁数次	-9254
▁鲤科	-9255
▁111	-9256
▁总统府	-9257
▁david	-9258
▁入学	-9259
▁阵线	-9260
▁洛夫	-9261
▁党籍	-9262
▁进修	-9263
▁一集	-9264
▁株式	-9265
▁未经	-9266
▁450	-9267
塞拜	-9268
ler	-9269
金山	-9270
▁并成	-9271
▁告示牌	-9272
务段	-9273
▁枪管	-9274
▁组件	-9275
▁慰	-9276
▁债务	-9277
▁讯息	-9278
里兰卡	-9279
▁站名	-9280
▁制成	-9281
龙科	-9282
▁名举	-9283
▁藤原	-9284
▁温哥华	-9285
▁投入使用	-9286
▁南美	-9287
▁开拓	-9288
▁民航	-9289
▁白金	-9290
▁该镇	-9291
work	-9292
蒙德	-9293
▁南岸	-9294
▁独裁	-9295
▁玻利	-9296
▁西蒙	-9297
▁下设	-9298
▁可汗	-9299
▁精选	-9300
▁sou	-9301
▁张国	-9302
▁采纳	-9303
保罗	-9304
▁双重	-9305
▁费城	-9306
▁过后	-9307
▁鲶形	-9308
▁全省	-9309
▁广岛	-9310
▁湿地	-9311
三角	-9312
▁专科学校	-9313
▁加勒比海	-9314
▁礼部	-9315
▁结识	-9316
▁重型	-9317
规划	-9318
▁贼	-9319
▁内有	-9320
▁西站	-9321
▁万历	-9322
▁先驱	-9323
▁始于	-9324
▁机身	-9325
▁占地面积	-9326
▁晨	-9327
▁一门	-9328
▁iso	-9329
▁舰艇	-9330
▁相等	-9331
▁公务员	-9332
▁comm	-9333
▁放大	-9334
▁滑雪	-9335
▁物业	-9336
▁50%	-9337
德拉	-9338
ico	-9339
▁内务	-9340
ild	-9341
▁两家	-9342
▁财团	-9343
▁三天	-9344
▁1860	-9345
资料	-9346
▁服饰	-9347
▁金像	-9348
▁致力于	-9349
▁内外	-9350
▁109	-9351
多次	-9352
车辆	-9353
▁中兴	-9354
▁创刊	-9355
▁心中	-9356
条件	-9357
▁杀手	-9358
进行	-9359
▁再生	-9360
▁审议	-9361
▁登山	-9362
▁自行车	-9363
▁娃	-9364
▁年份	-9365
▁点为	-9366
▁贝格	-9367
▁光年	-9368
▁妈妈	-9369
▁褐色	-9370
▁指挥部	-9371
▁汉朝	-9372
▁海战	-9373
▁pla	-9374
▁三等	-9375
▁元首	-9376
▁相互作用	-9377
▁大军	-9378
▁恶劣	-9379
▁共和党	-9380
▁否决	-9381
▁公共交通	-9382
▁接手	-9383
平县	-9384
▁依次	-9385
▁big	-9386
▁青海省	-9387
ek	-9388
ons	-9389
▁家臣	-9390
▁每秒	-9391
▁邮政编码	-9392
▁德甲	-9393
▁逃往	-9394
▁里奇	-9395
▁高尔夫	-9396
▁列斯	-9397
▁美食	-9398
vel	-9399
▁忽略	-9400
▁摩洛	-9401
▁cm	-9402
▁重伤	-9403
▁鸦片	-9404
▁想到	-9405
▁缺点	-9406
▁group	-9407
宁县	-9408
法国	-9409
▁延迟	-9410
▁行省	-9411
▁运载	-9412
▁128	-9413
▁中南部	-9414
▁拿破仑	-9415
为止	-9416
▁五千	-9417
▁厄尔	-9418
▁并为	-9419
马里	-9420
▁10%	-9421
▁圣公会	-9422
▁真空	-9423
▁彩色	-9424
▁就读于	-9425
▁美国国家	-9426
iro	-9427
▁双向	-9428
▁左派	-9429
▁栋	-9430
▁依法	-9431
▁分部	-9432
▁保护区	-9433
▁气象局	-9434
▁人造	-9435
▁炮兵	-9436
▁上场	-9437
▁誉	-9438
西比	-9439
▁候补	-9440
▁礼拜	-9441
▁战列舰	-9442
▁ig	-9443
▁唱歌	-9444
▁撤出	-9445
▁人间	-9446
▁冰原	-9447
▁史蒂芬	-9448
▁转向架	-9449
▁硫酸	-9450
▁音译	-9451
▁保加利亚	-9452
▁些	-9453
▁沉积	-9454
▁之时	-9455
▁制服	-9456
▁南洋	-9457
▁战绩	-9458
▁所知	-9459
▁着手	-9460
▁移除	-9461
▁大败	-9462
05	-9463
拉尔	-9464
▁open	-9465
▁日食	-9466
太阳	-9467
▁托勒密	-9468
▁党委书记	-9469
▁将近	-9470
▁一战	-9471
▁从未	-9472
▁承受	-9473
▁中国国民党	-9474
▁则在	-9475
▁张学	-9476
▁板块	-9477
▁铸造	-9478
▁并被	-9479
▁sd	-9480
▁南华	-9481
加索	-9482
▁警报	-9483
▁每小时	-9484
称作	-9485
▁土著	-9486
▁球衣	-9487
▁被称作	-9488
▁助手	-9489
▁卡区	-9490
▁bas	-9491
▁孕	-9492
▁此剧	-9493
排名	-9494
▁大法官	-9495
▁ec	-9496
▁西边	-9497
▁斯洛伐克	-9498
▁物件	-9499
▁防线	-9500
▁高句	-9501
▁普尔	-9502
▁真理	-9503
▁深水	-9504
▁希腊语	-9505
▁美国陆	-9506
▁研讨	-9507
▁专属	-9508
▁掌管	-9509
ari	-9510
▁参战	-9511
▁1880	-9512
▁在家	-9513
▁环节	-9514
▁迁入	-9515
▁难度	-9516
▁颂	-9517
▁公署	-9518
▁出于	-9519
▁增至	-9520
▁教室	-9521
▁1600	-9522
▁阿肯色州	-9523
▁bu	-9524
▁拉丁文	-9525
▁第三名	-9526
▁起草	-9527
▁采购	-9528
▁待遇	-9529
▁生殖	-9530
▁曼哈顿	-9531
▁清政府	-9532
▁地主	-9533
▁所有人	-9534
let	-9535
▁中视	-9536
▁留守	-9537
主席	-9538
▁操纵	-9539
▁曾多次	-9540
吉尼亚州	-9541
▁栗	-9542
▁护卫	-9543
▁瑞拉	-9544
▁135	-9545
足联	-9546
▁vi	-9547
▁阶层	-9548
▁geor	-9549
▁淑	-9550
▁下去	-9551
▁削弱	-9552
▁破产	-9553
▁分店	-9554
▁道具	-9555
▁robert	-9556
▁生育	-9557
▁礼仪	-9558
罗尼亚	-9559
ear	-9560
▁辩护	-9561
▁流入	-9562
▁卢森堡	-9563
协助	-9564
▁着称	-9565
标准	-9566
▁正当	-9567
▁112	-9568
▁阿姆斯特	-9569
▁屋苑	-9570
▁战死	-9571
▁欣赏	-9572
▁水果	-9573
▁假期	-9574
▁天堂	-9575
▁平坦	-9576
▁可追	-9577
▁进驻	-9578
▁太阳系	-9579
▁东晋	-9580
▁ca	-9581
▁day	-9582
▁亚种	-9583
▁故乡	-9584
▁碎片	-9585
▁基区	-9586
▁几天	-9587
▁初次	-9588
▁后裔	-9589
▁庄园	-9590
▁混血	-9591
▁二十四	-9592
▁克鲁	-9593
▁定名	-9594
▁贩卖	-9595
▁大将军	-9596
▁1894	-9597
▁宾夕	-9598
▁患有	-9599
▁秦国	-9600
▁可追溯	-9601
▁两项	-9602
▁夫斯基	-9603
▁土木	-9604
▁布拉格	-9605
▁阿波罗	-9606
▁christ	-9607
▁华南	-9608
▁惯例	-9609
▁疫苗	-9610
▁远离	-9611
lo	-9612
闻名	-9613
▁同为	-9614
▁明尼	-9615
▁牛顿	-9616
▁荡	-9617
▁奉天	-9618
▁海关	-9619
▁低于	-9620
▁塔克	-9621
▁摩根	-9622
▁年亚洲	-9623
▁垒	-9624
迪斯	-9625
▁亚利	-9626
▁射手	-9627
▁接口	-9628
▁起到	-9629
▁物理学家	-9630
▁平日	-9631
▁合资	-9632
▁围棋	-9633
军队	-9634
农业	-9635
▁大兴	-9636
▁ta	-9637
▁修筑	-9638
▁并列	-9639
▁that	-9640
江市	-9641
▁侦探	-9642
▁失业	-9643
▁补助	-9644
电话	-9645
▁实习	-9646
▁排放	-9647
▁结盟	-9648
▁南京市	-9649
▁xbox	-9650
金斯	-9651
▁左侧	-9652
▁同位素	-9653
ep	-9654
▁崩溃	-9655
▁tech	-9656
▁誓	-9657
▁工资	-9658
▁参与者	-9659
▁神庙	-9660
▁篮板	-9661
▁饮料	-9662
▁书中	-9663
▁出品	-9664
▁封建	-9665
▁硬件	-9666
▁续集	-9667
▁维吾尔	-9668
▁校方	-9669
▁人格	-9670
▁探测器	-9671
▁高等法院	-9672
自然	-9673
▁高句丽	-9674
▁lo	-9675
人民法院	-9676
▁武将	-9677
尔茨	-9678
▁星光	-9679
▁河东	-9680
▁清理	-9681
▁有所不同	-9682
▁卓越	-9683
榄球	-9684
▁医药	-9685
▁外籍	-9686
▁第一次世界大战	-9687
▁南边	-9688
▁矿物	-9689
▁维多利亚	-9690
▁仕	-9691
▁fin	-9692
▁刚刚	-9693
▁中环	-9694
▁兵器	-9695
▁剧组	-9696
连续	-9697
▁完毕	-9698
▁已于	-9699
▁枝	-9700
▁巴里	-9701
way	-9702
▁巨星	-9703
▁幼年	-9704
▁此种	-9705
▁自立	-9706
▁法学院	-9707
功能	-9708
警察	-9709
▁三条	-9710
▁在线	-9711
▁必然	-9712
▁不应	-9713
▁丧生	-9714
▁lim	-9715
▁音乐录	-9716
▁话题	-9717
▁邮件	-9718
▁伯恩	-9719
▁插入	-9720
▁血管	-9721
▁征收	-9722
▁pop	-9723
▁俊	-9724
▁企划	-9725
▁人选	-9726
▁刘备	-9727
▁原声	-9728
▁宗旨	-9729
▁有力	-9730
▁讲话	-9731
▁第十四	-9732
▁1800	-9733
林县	-9734
rit	-9735
▁委托	-9736
▁英国伦敦	-9737
氨酸	-9738
▁中止	-9739
▁派系	-9740
产阶级	-9741
▁毛利	-9742
▁永安	-9743
▁缺少	-9744
▁侵蚀	-9745
▁传教士	-9746
▁验证	-9747
▁仆	-9748
▁一队	-9749
▁主播	-9750
▁顺位	-9751
▁诺夫	-9752
▁在此之	-9753
透过	-9754
▁拓展	-9755
▁红旗	-9756
▁第二位	-9757
ife	-9758
▁住房	-9759
▁安葬	-9760
▁宣誓	-9761
▁性行	-9762
▁现金	-9763
▁甲级联赛	-9764
▁茎	-9765
胜利	-9766
设备	-9767
▁总兵	-9768
▁接纳	-9769
▁萨克森	-9770
▁斥	-9771
▁招生	-9772
▁内政部	-9773
▁第一百	-9774
▁乌兹	-9775
▁契约	-9776
▁重叠	-9777
▁阿勒	-9778
▁ang	-9779
▁第五十	-9780
▁祥	-9781
不多	-9782
▁乙级	-9783
▁塔拉	-9784
▁聚居	-9785
▁古建筑	-9786
▁翻唱	-9787
▁售出	-9788
▁公正	-9789
▁守备	-9790
▁本季	-9791
▁逃走	-9792
▁230	-9793
sc	-9794
▁郁	-9795
北克	-9796
博物	-9797
▁大王	-9798
▁道格	-9799
▁耀	-9800
▁应对	-9801
▁科隆	-9802
▁征召	-9803
▁狭窄	-9804
▁eng	-9805
ett	-9806
▁纳粹德国	-9807
▁深海	-9808
▁贩售	-9809
▁军长	-9810
▁汉人	-9811
▁斯克州	-9812
▁寨	-9813
▁方针	-9814
▁景区	-9815
▁春天	-9816
▁铃木	-9817
▁八路军	-9818
▁吉隆坡	-9819
德罗	-9820
▁乐坛	-9821
▁京师	-9822
▁千年	-9823
▁枢机	-9824
▁结尾	-9825
▁掩护	-9826
▁遇难	-9827
▁魁北克	-9828
▁金马	-9829
▁目的地	-9830
▁奖学	-9831
▁契丹	-9832
▁讲座	-9833
▁http	-9834
事件	-9835
ino	-9836
▁共青	-9837
▁前提	-9838
▁自愿	-9839
太祖	-9840
ena	-9841
▁传记	-9842
▁卡斯特	-9843
▁克罗地亚	-9844
▁水准	-9845
决定	-9846
▁笔记	-9847
▁联队	-9848
ael	-9849
▁不管	-9850
▁基层	-9851
▁威力	-9852
▁黄色	-9853
▁万英	-9854
▁出境	-9855
▁连锁	-9856
▁艺名	-9857
▁受欢迎	-9858
▁搜寻	-9859
▁开发区	-9860
▁三重	-9861
▁mich	-9862
▁字样	-9863
▁弗洛	-9864
▁看作	-9865
▁先行	-9866
▁声优	-9867
▁sam	-9868
▁肠	-9869
▁关押	-9870
察院	-9871
▁南宁	-9872
▁双层	-9873
▁修行	-9874
▁日公	-9875
▁明清	-9876
▁要素	-9877
▁公使	-9878
▁干预	-9879
▁mor	-9880
不到	-9881
▁他于	-9882
▁情人	-9883
▁曼谷	-9884
▁西山	-9885
▁遵循	-9886
▁景点	-9887
布斯	-9888
▁文书	-9889
▁第三代	-9890
▁圭	-9891
▁阵营	-9892
▁外表	-9893
▁有期徒刑	-9894
四军	-9895
龙类	-9896
▁右侧	-9897
▁期待	-9898
▁社会学	-9899
▁三分之一	-9900
▁优点	-9901
▁里的	-9902
▁法兰克福	-9903
▁及后	-9904
▁只得	-9905
▁已成	-9906
▁文中	-9907
▁两端	-9908
▁辛亥	-9909
▁中位	-9910
▁分局	-9911
▁分辨	-9912
▁一连串	-9913
▁日耳曼	-9914
▁北区	-9915
▁李氏	-9916
▁分发	-9917
▁豪华	-9918
▁155	-9919
▁玛格	-9920
▁签名	-9921
▁北纬	-9922
▁此书	-9923
▁还在	-9924
▁新罗	-9925
▁田中	-9926
▁亚马逊	-9927
▁national	-9928
▁机率	-9929
▁烧毁	-9930
ark	-9931
▁记忆体	-9932
▁四方	-9933
▁塔斯	-9934
▁paul	-9935
▁挑选	-9936
▁朱元	-9937
▁118	-9938
▁谐	-9939
▁一属	-9940
▁层面	-9941
▁正好	-9942
▁阿德	-9943
软件	-9944
▁抵制	-9945
▁中医	-9946
▁学历	-9947
▁汉口	-9948
port	-9949
▁润	-9950
▁合称	-9951
▁煤矿	-9952
维克	-9953
▁fa	-9954
▁水手	-9955
▁don	-9956
空军	-9957
▁存活	-9958
▁fc	-9959
▁失利	-9960
▁kh	-9961
▁加泰罗尼亚	-9962
▁光线	-9963
▁年成	-9964
▁三分	-9965
▁打出	-9966
▁并发	-9967
▁1870	-9968
斯理	-9969
▁损伤	-9970
▁省会	-9971
哈拉	-9972
▁210	-9973
▁三维	-9974
▁米勒	-9975
▁操控	-9976
半球	-9977
ese	-9978
服器	-9979
美奖	-9980
▁巡回	-9981
▁流体	-9982
▁ts	-9983
▁流程	-9984
▁线索	-9985
▁萨摩	-9986
▁可作	-9987
▁轩	-9988
灵顿	-9989
▁入狱	-9990
▁盟友	-9991
▁大脑	-9992
▁歧义	-9993
▁阮福	-9994
▁max	-9995
▁是罗马尼亚	-9996
常委	-9997
▁全力	-9998
▁sim	-9999
▁努尔	-10000
▁落实	-10001
▁候车	-10002
▁明白	-10003
▁pat	-10004
▁半导体	-10005
独立	-10006
▁辽东	-10007
▁亚科	-10008
que	-10009
▁produ	-10010
▁失望	-10011
▁雷诺	-10012
▁控制器	-10013
▁理事会	-10014
▁称赞	-10015
▁cro	-10016
▁音乐剧	-10017
▁窄	-10018
▁希伯来	-10019
▁音乐节	-10020
大奖	-10021
▁摩洛哥	-10022
▁sl	-10023
▁纳米	-10024
▁警备	-10025
▁1871	-10026
td	-10027
▁分会	-10028
▁处罚	-10029
▁拉德	-10030
▁样本	-10031
▁不错	-10032
▁关节	-10033
幻想	-10034
▁mk	-10035
▁演技	-10036
▁全境	-10037
▁摩斯	-10038
▁补偿	-10039
▁组成部分	-10040
▁两场	-10041
▁传达	-10042
▁特鲁	-10043
▁心灵	-10044
▁原生	-10045
▁二期	-10046
▁开头	-10047
▁这份	-10048
▁全家	-10049
▁危害	-10050
▁意指	-10051
▁洛斯	-10052
▁6000	-10053
国务	-10054
▁top	-10055
▁舰只	-10056
▁同行	-10057
▁city	-10058
▁from	-10059
▁清除	-10060
▁顾客	-10061
▁113	-10062
▁西西里	-10063
▁代言	-10064
▁炮台	-10065
▁监控	-10066
▁桑那州	-10067
▁沿途	-10068
▁东经	-10069
▁无效	-10070
▁统称	-10071
▁译作	-10072
▁五人	-10073
▁对付	-10074
▁tom	-10075
▁二号	-10076
▁嫌疑	-10077
▁放射性	-10078
▁time	-10079
▁county	-10080
▁史记	-10081
▁审理	-10082
▁感谢	-10083
▁弹性	-10084
▁据说	-10085
▁果实	-10086
▁电报	-10087
▁葡萄酒	-10088
ya	-10089
▁千叶	-10090
▁评级	-10091
▁够	-10092
位置	-10093
osh	-10094
▁平壤	-10095
▁接驳	-10096
▁古罗马	-10097
▁rich	-10098
▁一段时间	-10099
▁中方	-10100
▁和解	-10101
▁尾巴	-10102
▁登录	-10103
▁粗体	-10104
▁记述	-10105
▁城中	-10106
iver	-10107
▁地铁站	-10108
▁历时	-10109
堂区	-10110
▁庇护	-10111
▁收益	-10112
▁委员长	-10113
干线	-10114
▁伦理	-10115
▁层次	-10116
▁reg	-10117
红军	-10118
▁信心	-10119
▁海面	-10120
▁第一座	-10121
▁增援	-10122
▁月间	-10123
▁水扁	-10124
▁塞拉	-10125
▁教义	-10126
▁莱斯	-10127
▁师范学校	-10128
03	-10129
▁等于	-10130
▁袋	-10131
▁分出	-10132
▁动机	-10133
▁随时	-10134
▁水源	-10135
▁斯里兰卡	-10136
工具	-10137
uro	-10138
▁指向	-10139
▁算是	-10140
▁black	-10141
材料	-10142
▁今年	-10143
▁日到	-10144
▁games	-10145
▁坐在	-10146
▁飞船	-10147
项目	-10148
▁卡是	-10149
▁恩斯	-10150
▁114	-10151
▁伯克	-10152
▁腐败	-10153
▁中北	-10154
▁小提琴	-10155
▁巴登	-10156
▁弗兰	-10157
▁快车	-10158
▁1885	-10159
▁内蒙古自治区	-10160
华德	-10161
▁卫冕	-10162
▁拓扑	-10163
▁rad	-10164
▁检察官	-10165
▁雀	-10166
体育	-10167
▁贪污	-10168
▁trans	-10169
▁饼	-10170
▁会面	-10171
▁莲花	-10172
▁副司令	-10173
▁新鲜	-10174
▁近期	-10175
▁na	-10176
▁质子	-10177
▁sol	-10178
▁中国政府	-10179
▁溃	-10180
卫星	-10181
尔本	-10182
▁专题	-10183
▁宇航	-10184
▁影集	-10185
▁il	-10186
▁女生	-10187
▁新宿	-10188
▁约旦	-10189
▁存放	-10190
▁时至	-10191
▁贫穷	-10192
▁毒性	-10193
▁首场	-10194
▁航站楼	-10195
尼奥	-10196
▁哥特	-10197
▁猎人	-10198
▁伊夫	-10199
▁幼儿	-10200
▁千万	-10201
▁送给	-10202
▁击退	-10203
▁职工	-10204
▁内存	-10205
▁神奈	-10206
▁老虎	-10207
▁一个种	-10208
气候	-10209
▁阿卜	-10210
本科	-10211
纳尔	-10212
▁冬天	-10213
▁贡士	-10214
▁碟	-10215
▁多夫	-10216
▁迪克	-10217
▁酒精	-10218
▁out	-10219
▁mp	-10220
▁肯塔基州	-10221
典礼	-10222
▁四种	-10223
▁总队	-10224
▁bm	-10225
▁cs	-10226
▁找出	-10227
▁车次	-10228
▁避难	-10229
▁kn	-10230
▁埃斯	-10231
▁氏族	-10232
▁后代	-10233
▁辅导	-10234
▁广西壮	-10235
教师	-10236
▁不定	-10237
▁世俗	-10238
▁关卡	-10239
▁不好	-10240
▁名额	-10241
▁困扰	-10242
▁表彰	-10243
▁吉他手	-10244
by	-10245
注意	-10246
▁县名	-10247
▁向前	-10248
▁渔业	-10249
处长	-10250
▁科普	-10251
▁分行	-10252
▁人民法院	-10253
▁cc	-10254
▁日间	-10255
▁都城	-10256
▁里亚	-10257
▁约翰逊	-10258
务局	-10259
▁大正	-10260
▁20%	-10261
▁仅次于	-10262
▁加快	-10263
▁民事	-10264
ram	-10265
▁ds	-10266
▁单行	-10267
▁齐国	-10268
▁aut	-10269
▁科罗拉多州	-10270
▁晋国	-10271
▁激光	-10272
▁南阳	-10273
▁学界	-10274
▁背叛	-10275
▁匈牙利语	-10276
▁广西壮族自治区	-10277
▁皮卡	-10278
▁但后来	-10279
▁无数	-10280
▁松江	-10281
za	-10282
▁中路	-10283
▁福克	-10284
▁隆头	-10285
迪亚	-10286
▁追溯到	-10287
▁第一期	-10288
▁家长	-10289
▁指南	-10290
▁之类	-10291
▁amer	-10292
▁照明	-10293
▁见到	-10294
▁大屠杀	-10295
▁僧人	-10296
▁mer	-10297
▁儒家	-10298
▁机型	-10299
▁歇	-10300
▁vis	-10301
海军	-10302
▁所作	-10303
▁win	-10304
▁未成	-10305
▁中西部	-10306
▁中叶	-10307
▁副总	-10308
▁比特	-10309
enc	-10310
▁佛罗里达州	-10311
▁党内	-10312
▁福克斯	-10313
▁司长	-10314
▁教派	-10315
▁280	-10316
▁编修	-10317
ism	-10318
▁四等	-10319
▁谈话	-10320
po	-10321
▁拨款	-10322
▁潜水	-10323
▁玉米	-10324
▁纯粹	-10325
▁个国家	-10326
ior	-10327
石器	-10328
▁cal	-10329
▁安大	-10330
▁最有	-10331
▁船上	-10332
分钟	-10333
▁青岛市	-10334
▁书店	-10335
▁巴德	-10336
▁非裔	-10337
▁林中	-10338
▁战俘	-10339
out	-10340
▁116	-10341
uck	-10342
▁搬迁	-10343
▁目脂	-10344
电站	-10345
▁师长	-10346
▁省长	-10347
米特	-10348
而言	-10349
▁刻有	-10350
▁加大	-10351
▁地层	-10352
▁岛峰	-10353
▁122	-10354
▁究	-10355
▁不受	-10356
▁强奸	-10357
▁放出	-10358
▁腓力	-10359
▁魔术	-10360
▁神奈川	-10361
▁珍妮	-10362
▁ber	-10363
后卫	-10364
▁日内	-10365
▁香港中文	-10366
舰队	-10367
▁见面	-10368
▁化学式	-10369
▁交互	-10370
▁招收	-10371
▁年均	-10372
▁有功	-10373
▁炮塔	-10374
▁极少	-10375
▁科举	-10376
▁镇守	-10377
▁布鲁斯	-10378
电脑	-10379
▁晶片	-10380
▁旅馆	-10381
▁除外	-10382
▁两度	-10383
▁侦测	-10384
▁尼日	-10385
▁首周	-10386
▁开发者	-10387
破坏	-10388
频道	-10389
▁乌拉圭	-10390
▁三十四年	-10391
青年	-10392
▁号召	-10393
▁衰落	-10394
▁反攻	-10395
▁电讯	-10396
▁组赛	-10397
▁零件	-10398
▁投资者	-10399
▁升为	-10400
▁味道	-10401
▁降格	-10402
▁阿塞拜	-10403
广东	-10404
▁山镇	-10405
▁高斯	-10406
▁117	-10407
▁奖学金	-10408
▁学部	-10409
▁热情	-10410
▁珠江	-10411
巴斯	-10412
锦赛	-10413
▁北欧	-10414
▁背部	-10415
▁工业区	-10416
ble	-10417
▁回族	-10418
▁率部	-10419
▁隔年	-10420
▁办公厅	-10421
▁财政部	-10422
▁禄	-10423
ron	-10424
▁弯曲	-10425
▁给定	-10426
▁机体	-10427
▁西克	-10428
▁应用程序	-10429
方形	-10430
▁ol	-10431
▁科特	-10432
▁赞成	-10433
▁过往	-10434
▁公认	-10435
▁参议	-10436
▁尖沙	-10437
▁应付	-10438
▁胡安	-10439
▁藏族	-10440
▁密西西比	-10441
▁孙权	-10442
▁首长	-10443
▁台中市	-10444
▁石灰	-10445
▁ios	-10446
▁最终幻想	-10447
▁为何	-10448
▁印地	-10449
▁park	-10450
▁阿塞拜疆	-10451
▁料理	-10452
▁英九	-10453
▁dj	-10454
▁杀人	-10455
▁则有	-10456
▁四国	-10457
▁填海	-10458
▁很小	-10459
▁见于	-10460
▁角色扮演	-10461
▁汗国	-10462
▁中文版	-10463
专线	-10464
▁歌迷	-10465
▁lib	-10466
any	-10467
▁习近	-10468
▁外语	-10469
▁安大略	-10470
▁二十三年	-10471
02	-10472
▁出去	-10473
▁清洁	-10474
单位	-10475
▁草本	-10476
成功	-10477
▁二千	-10478
▁铸币	-10479
▁卡洛斯	-10480
莱斯	-10481
▁影院	-10482
▁民俗	-10483
▁特权	-10484
▁org	-10485
itter	-10486
▁强行	-10487
▁道格拉斯	-10488
▁特斯	-10489
▁天才	-10490
▁西域	-10491
爱尔兰	-10492
协议	-10493
▁之地	-10494
▁华纳	-10495
▁率兵	-10496
绿色	-10497
▁一封	-10498
▁下水	-10499
▁传出	-10500
▁揭露	-10501
▁rock	-10502
运行	-10503
▁两艘	-10504
▁分隔	-10505
▁卡通	-10506
学士	-10507
▁划入	-10508
▁女友	-10509
▁度过	-10510
▁甲组	-10511
▁副教授	-10512
▁富裕	-10513
▁极其	-10514
▁瑟夫	-10515
▁tour	-10516
▁伴侣	-10517
▁家里	-10518
▁屏幕	-10519
▁推举	-10520
▁杂的	-10521
▁检讨	-10522
▁织田	-10523
▁滩	-10524
▁向西	-10525
▁新秀	-10526
▁一把	-10527
▁旗舰	-10528
巴马	-10529
▁洁	-10530
▁容器	-10531
▁清治	-10532
▁百合	-10533
▁年仅	-10534
▁广播电台	-10535
▁年幼	-10536
▁英属	-10537
▁兼容	-10538
▁型态	-10539
▁淮南	-10540
▁瓦拉	-10541
▁格鲁吉亚	-10542
▁was	-10543
phone	-10544
▁厢	-10545
▁提起	-10546
▁河川	-10547
花园	-10548
▁部件	-10549
▁type	-10550
佛教	-10551
▁全港	-10552
▁再也	-10553
▁四面	-10554
▁塑造	-10555
▁多用	-10556
▁inc	-10557
和华	-10558
▁华裔	-10559
▁波利	-10560
▁外科	-10561
▁北非	-10562
▁补选	-10563
▁上台	-10564
▁公墓	-10565
▁参政	-10566
▁祖国	-10567
▁阿萨	-10568
▁高出	-10569
▁满洲国	-10570
▁冷战	-10571
▁各方	-10572
▁吉斯	-10573
▁奠基	-10574
▁斯巴	-10575
▁海地	-10576
▁词汇	-10577
▁分公司	-10578
ero	-10579
▁戏院	-10580
▁纠纷	-10581
▁斯特拉	-10582
莉亚	-10583
▁电荷	-10584
▁金色	-10585
▁事变	-10586
▁亲属	-10587
▁伯特	-10588
▁跃	-10589
▁优化	-10590
▁会上	-10591
▁片尾	-10592
▁王家	-10593
▁停办	-10594
▁正教	-10595
▁信义	-10596
▁统帅	-10597
▁美金	-10598
▁1892	-10599
fc	-10600
▁两边	-10601
▁客流	-10602
▁激发	-10603
▁代谢	-10604
▁烯	-10605
▁温州	-10606
▁画作	-10607
▁远镜	-10608
▁king	-10609
▁体操	-10610
▁欢乐	-10611
▁位元	-10612
▁摆脱	-10613
▁sing	-10614
▁power	-10615
▁塑料	-10616
▁james	-10617
ute	-10618
▁一子	-10619
▁手持	-10620
▁石勒	-10621
▁纳尔	-10622
▁辟	-10623
▁哈拉	-10624
▁洞穴	-10625
▁电源	-10626
▁看出	-10627
▁任何人	-10628
▁大气层	-10629
▁利奥	-10630
▁消歧	-10631
主张	-10632
距离	-10633
▁俗名	-10634
▁元老	-10635
▁突袭	-10636
▁登基	-10637
尼尔	-10638
▁三部曲	-10639
▁骑士团	-10640
▁侍中	-10641
▁大英	-10642
▁特务	-10643
▁魔戒	-10644
bur	-10645
ubl	-10646
▁ww	-10647
▁就要	-10648
▁同知	-10649
▁处分	-10650
▁演习	-10651
▁勒斯	-10652
▁转东	-10653
▁钻石	-10654
▁260	-10655
▁海军陆	-10656
▁么	-10657
▁总额	-10658
▁投诉	-10659
▁民建	-10660
aph	-10661
▁此站	-10662
▁该庄	-10663
▁语系	-10664
▁合适	-10665
▁陶瓷	-10666
▁带动	-10667
▁神户	-10668
▁见证	-10669
▁评分	-10670
▁高桥	-10671
▁公理	-10672
▁和谐	-10673
▁外型	-10674
业者	-10675
▁神像	-10676
▁藏传	-10677
▁人性	-10678
▁分手	-10679
▁政事	-10680
▁达赖	-10681
▁科学技术	-10682
▁外国人	-10683
▁1886	-10684
▁师生	-10685
▁宠物	-10686
大厦	-10687
文斯	-10688
萨尔	-10689
▁嘉定	-10690
▁格罗	-10691
▁巴格	-10692
▁怀特	-10693
▁注射	-10694
▁瓦斯	-10695
▁行政村	-10696
▁订购	-10697
▁条纹	-10698
▁bet	-10699
▁消歧义	-10700
▁山城	-10701
▁提醒	-10702
▁阵地	-10703
▁sal	-10704
▁报名	-10705
▁拉格	-10706
▁有权	-10707
▁海姆	-10708
▁utc	-10709
▁敢	-10710
▁眼镜	-10711
ham	-10712
▁假日	-10713
▁及时	-10714
▁维新	-10715
▁阿尔卑	-10716
▁不易	-10717
大约	-10718
▁出名	-10719
▁参照	-10720
▁没收	-10721
▁洋基	-10722
▁船长	-10723
▁旧金山	-10724
▁alex	-10725
▁西太平洋	-10726
▁同情	-10727
▁亚太	-10728
▁开采	-10729
▁手工	-10730
▁华中	-10731
▁复制	-10732
▁暴雨	-10733
▁私有	-10734
ital	-10735
net	-10736
▁莱特	-10737
▁德利	-10738
▁晓	-10739
▁青衣	-10740
▁大学士	-10741
▁育有	-10742
▁系主任	-10743
▁1884	-10744
▁到底	-10745
▁福斯	-10746
▁中北部	-10747
▁圣保罗	-10748
政党	-10749
▁新年	-10750
▁二十一年	-10751
▁中型	-10752
▁缩短	-10753
布罗	-10754
▁母语	-10755
▁红外	-10756
▁jap	-10757
▁悲剧	-10758
▁最后在	-10759
▁平时	-10760
▁人质	-10761
▁第二年	-10762
▁锐	-10763
osa	-10764
▁学业	-10765
▁比分	-10766
▁温暖	-10767
▁二氧化碳	-10768
ven	-10769
▁以免	-10770
▁像素	-10771
▁即便	-10772
▁无穷	-10773
▁轻人	-10774
阿拉	-10775
▁巴利	-10776
▁消化	-10777
▁非正式	-10778
放弃	-10779
ger	-10780
▁规律	-10781
ology	-10782
▁全名	-10783
▁相遇	-10784
▁里夫	-10785
▁san	-10786
▁之后在	-10787
▁十九年	-10788
克罗	-10789
▁主线	-10790
▁十馀	-10791
▁新式	-10792
▁配套	-10793
▁俄亥俄州	-10794
▁奥托	-10795
▁市级	-10796
▁海滨	-10797
▁中超	-10798
▁乘车	-10799
▁阿卜杜	-10800
▁介面	-10801
▁教职	-10802
▁梅尔	-10803
▁sun	-10804
▁ha	-10805
▁受邀	-10806
▁西藏自治区	-10807
▁故宫	-10808
▁利沃	-10809
iff	-10810
▁并用	-10811
▁123	-10812
▁fir	-10813
问题	-10814
▁圣地	-10815
▁西湖	-10816
pg	-10817
作战	-10818
▁德勒	-10819
▁落后	-10820
万人	-10821
桃园	-10822
▁下层	-10823
▁旅程	-10824
▁陈列	-10825
交易	-10826
水平	-10827
▁手上	-10828
▁推迟	-10829
▁皇子	-10830
▁生下	-10831
▁语言学	-10832
▁斯卡	-10833
▁陪同	-10834
▁词语	-10835
▁逼近	-10836
▁alb	-10837
▁攻读	-10838
▁科目	-10839
▁安德鲁	-10840
▁万名	-10841
▁枢密	-10842
▁港府	-10843
▁连线	-10844
▁sar	-10845
ied	-10846
▁逃跑	-10847
▁友人	-10848
▁圣安	-10849
▁样式	-10850
▁詹姆	-10851
04	-10852
▁鹅	-10853
▁当今	-10854
▁明亮	-10855
▁现役	-10856
▁答案	-10857
▁黑洞	-10858
bl	-10859
▁政府军	-10860
▁方形	-10861
▁哈萨克	-10862
▁日常生活	-10863
校长	-10864
▁内心	-10865
▁多半	-10866
▁房地	-10867
▁1893	-10868
▁bill	-10869
▁玻利维亚	-10870
生涯	-10871
▁克林	-10872
▁生平	-10873
▁端的	-10874
▁1888	-10875
▁不见	-10876
▁囚禁	-10877
▁因其	-10878
▁猛烈	-10879
▁michael	-10880
▁不太	-10881
▁看台	-10882
▁ibm	-10883
▁社会党	-10884
▁供给	-10885
▁保有	-10886
▁卫斯理	-10887
▁客观	-10888
▁墨尔本	-10889
▁thom	-10890
▁内斯	-10891
▁几次	-10892
▁各州	-10893
▁土星	-10894
▁普法尔茨	-10895
配角	-10896
▁波多	-10897
▁后任	-10898
▁文档	-10899
▁普利	-10900
▁河水	-10901
▁铁路线	-10902
▁尼奥	-10903
▁向上	-10904
▁音节	-10905
▁bur	-10906
▁等价	-10907
轨电车	-10908
▁record	-10909
▁class	-10910
06	-10911
▁ur	-10912
▁一幅	-10913
▁压制	-10914
▁官话	-10915
吉尼亚	-10916
▁中央委员会	-10917
▁ba	-10918
▁开辟	-10919
▁三座	-10920
▁度量	-10921
▁自发	-10922
▁学说	-10923
▁筹建	-10924
▁精神病	-10925
▁oricon	-10926
▁上线	-10927
▁东欧	-10928
▁新浪	-10929
▁马萨	-10930
▁丞相	-10931
▁国中	-10932
▁金华	-10933
▁金正	-10934
▁直升机	-10935
▁java	-10936
▁想像	-10937
▁天文学家	-10938
▁京城	-10939
▁原文	-10940
▁右派	-10941
▁救出	-10942
▁看来	-10943
▁得票率	-10944
▁路易斯安	-10945
▁多处	-10946
▁孤立	-10947
▁幽默	-10948
▁该寺	-10949
to	-10950
▁整修	-10951
▁新泽	-10952
▁流派	-10953
▁演算	-10954
▁only	-10955
柏林	-10956
las	-10957
▁二者	-10958
▁传闻	-10959
▁收取	-10960
▁梦想	-10961
▁日月	-10962
▁李克	-10963
▁菲尔	-10964
▁逃出	-10965
▁工学院	-10966
▁指派	-10967
▁jun	-10968
go	-10969
▁肢	-10970
▁即时	-10971
▁vol	-10972
▁开出	-10973
▁法军	-10974
▁细小	-10975
▁职业生涯	-10976
08	-10977
▁断层	-10978
▁考证	-10979
▁该州	-10980
▁路面	-10981
▁铎	-10982
▁正值	-10983
▁神奇	-10984
▁教育局	-10985
▁谦	-10986
▁明末	-10987
▁会议员	-10988
▁内设	-10989
▁录取	-10990
▁星座	-10991
▁自幼	-10992
▁日本海	-10993
▁1887	-10994
fa	-10995
▁投影	-10996
▁站点	-10997
▁变速	-10998
▁拉特	-10999
▁相隔	-11000
▁吸血鬼	-11001
▁辅音	-11002
▁阿卡	-11003
ield	-11004
运河	-11005
mun	-11006
▁东德	-11007
▁刘邦	-11008
▁站位	-11009
▁这本	-11010
▁二十四年	-11011
▁文化遗产	-11012
▁145	-11013
▁cat	-11014
▁单车	-11015
▁始祖	-11016
▁弗莱	-11017
▁750	-11018
▁研讨会	-11019
▁石刻	-11020
▁园林	-11021
▁电阻	-11022
▁堂区	-11023
▁常有	-11024
▁崖	-11025
▁九巴	-11026
▁克尔	-11027
▁大片	-11028
▁沙皇	-11029
王星	-11030
▁lu	-11031
▁光子	-11032
▁北角	-11033
▁厚度	-11034
▁莱尔	-11035
▁赶到	-11036
▁公孙	-11037
▁耕地	-11038
▁营造	-11039
▁飞往	-11040
▁高于	-11041
▁90%	-11042
▁市委书记	-11043
▁巴林	-11044
▁带到	-11045
▁易名	-11046
国务院	-11047
▁大坂府	-11048
▁述	-11049
▁猎物	-11050
▁那不	-11051
▁斯汀	-11052
▁醇	-11053
广告	-11054
▁分组	-11055
▁警察局	-11056
ertain	-11057
▁121	-11058
▁北卡罗	-11059
经营	-11060
▁有别	-11061
▁标识	-11062
▁综合性	-11063
▁并设	-11064
▁一一	-11065
▁休斯	-11066
▁大清	-11067
▁破裂	-11068
军官	-11069
皇后	-11070
▁夺回	-11071
▁第十三届	-11072
▁三号	-11073
▁安息	-11074
▁感应	-11075
▁目击	-11076
▁第四次	-11077
ution	-11078
加尔	-11079
▁布罗	-11080
▁迁居	-11081
▁fla	-11082
▁接连	-11083
▁释出	-11084
itch	-11085
▁cre	-11086
▁奸	-11087
基地	-11088
tin	-11089
ull	-11090
▁会合	-11091
▁尔斯	-11092
▁幸存	-11093
▁是非	-11094
▁马德里	-11095
▁一侧	-11096
▁抗争	-11097
▁施泰	-11098
▁直达	-11099
▁320	-11100
华州	-11101
▁冷却	-11102
▁共青团	-11103
▁约定	-11104
▁武汉市	-11105
▁分化	-11106
▁普查	-11107
▁病患	-11108
▁第一家	-11109
▁模块	-11110
▁逃脱	-11111
▁腺	-11112
▁ef	-11113
▁南亚	-11114
庄村	-11115
▁对面	-11116
▁德文	-11117
▁贯穿	-11118
▁键盘	-11119
▁rna	-11120
ka	-11121
▁先发	-11122
▁合格	-11123
▁罪犯	-11124
▁驻华	-11125
▁乌兹别	-11126
▁师从	-11127
▁约束	-11128
▁cpu	-11129
▁民族主义	-11130
足球	-11131
▁取景	-11132
▁摄氏	-11133
▁研究室	-11134
▁未曾	-11135
▁商学院	-11136
▁栖性	-11137
▁kar	-11138
▁亮度	-11139
▁小岛	-11140
▁80%	-11141
▁玛格丽	-11142
▁2500	-11143
▁干事	-11144
▁马克思主义	-11145
▁暴风	-11146
▁王公	-11147
▁日前	-11148
▁每一	-11149
▁那不勒斯	-11150
▁近年来	-11151
▁刑法	-11152
▁土司	-11153
▁加拉	-11154
▁建筑群	-11155
▁殊	-11156
▁号的	-11157
▁坚决	-11158
▁转动	-11159
▁高新	-11160
▁使命	-11161
▁维特	-11162
▁乌鲁木	-11163
▁best	-11164
▁拉丁美洲	-11165
▁偏东	-11166
▁处死	-11167
▁转运	-11168
▁化身	-11169
▁终年	-11170
仙奴	-11171
▁伍德	-11172
▁便宜	-11173
▁偶然	-11174
▁牌照	-11175
▁航运	-11176
▁旅游业	-11177
▁在此之前	-11178
不会	-11179
▁ve	-11180
▁为例	-11181
▁湾省	-11182
▁襄阳	-11183
▁央视	-11184
▁轻型	-11185
▁集资	-11186
▁爱丁堡	-11187
▁观赏鱼	-11188
的是	-11189
▁曾一度	-11190
▁第二任	-11191
美术	-11192
inc	-11193
▁气压	-11194
▁127	-11195
▁对流	-11196
▁白天	-11197
▁菊科	-11198
▁药品	-11199
▁驻扎	-11200
▁富兰克	-11201
▁1876	-11202
▁伐	-11203
▁上限	-11204
▁乡份	-11205
▁用到	-11206
恒星	-11207
▁囚犯	-11208
▁字形	-11209
▁林业	-11210
▁梅里	-11211
▁本国	-11212
德里希	-11213
mp	-11214
▁年秋	-11215
▁长官	-11216
▁同性恋	-11217
▁信件	-11218
▁亚瑟	-11219
▁丰臣	-11220
▁字子	-11221
▁手指	-11222
▁tur	-11223
▁总决赛	-11224
▁iphone	-11225
▁倡导	-11226
▁物流	-11227
▁界面	-11228
▁交涉	-11229
▁禾本科	-11230
▁总领	-11231
▁毒品	-11232
▁微生物	-11233
▁大殿	-11234
▁提取	-11235
▁下台	-11236
▁两栖	-11237
▁凯尔	-11238
▁护理	-11239
▁衰变	-11240
▁弗拉基	-11241
▁外借	-11242
▁落入	-11243
▁129	-11244
▁ben	-11245
▁协同	-11246
▁贝拉	-11247
▁bel	-11248
▁tre	-11249
▁教材	-11250
▁无意	-11251
▁洋行	-11252
动力	-11253
▁戴维	-11254
▁礼物	-11255
▁spec	-11256
app	-11257
▁博尔	-11258
▁第二部	-11259
▁变更	-11260
▁填词	-11261
▁灾害	-11262
▁地方法院	-11263
▁南山	-11264
▁六四	-11265
▁背后	-11266
▁阿仙奴	-11267
▁音乐学院	-11268
▁中央人民政府	-11269
▁会馆	-11270
▁风俗	-11271
▁鲶科	-11272
▁1850	-11273
▁不动	-11274
▁利比	-11275
▁聚合	-11276
▁rom	-11277
▁techn	-11278
▁为界	-11279
▁帽子	-11280
▁无力	-11281
▁男爵	-11282
▁迈阿	-11283
▁长达	-11284
▁辛亥革命	-11285
▁招待	-11286
▁站上	-11287
▁心理学	-11288
▁菲尔德	-11289
▁提督	-11290
▁藏书	-11291
▁阿曼	-11292
▁围赛	-11293
▁王府	-11294
▁街区	-11295
▁钟楼	-11296
▁nat	-11297
▁区议会	-11298
▁宣统	-11299
▁将在	-11300
▁收缩	-11301
▁率军	-11302
▁1861	-11303
▁敌方	-11304
▁很难	-11305
▁南南	-11306
▁戏曲	-11307
▁长城	-11308
▁乌兰	-11309
▁君士坦丁堡	-11310
▁元代	-11311
▁加冕	-11312
▁hot	-11313
▁藻	-11314
冲突	-11315
▁满族	-11316
▁疏散	-11317
▁简易	-11318
▁组长	-11319
▁贝斯	-11320
▁闪电	-11321
▁mil	-11322
爱的	-11323
▁总署	-11324
▁舞曲	-11325
▁超出	-11326
▁利沃夫	-11327
▁立方米	-11328
▁国歌	-11329
▁夜晚	-11330
▁是属	-11331
▁票价	-11332
▁bre	-11333
▁预留	-11334
歇根	-11335
▁时为	-11336
▁泰山	-11337
▁碳酸	-11338
▁重心	-11339
▁全台	-11340
▁监测	-11341
▁聘请	-11342
▁自传	-11343
▁里德	-11344
维吾尔	-11345
▁喷射	-11346
▁惊人	-11347
▁东边	-11348
▁两台	-11349
▁奈良	-11350
▁选定	-11351
▁配有	-11352
▁泳	-11353
▁早晨	-11354
▁服用	-11355
▁论述	-11356
▁wat	-11357
▁不远	-11358
▁文人	-11359
▁查询	-11360
▁结晶	-11361
克斯洛	-11362
▁捷克斯洛	-11363
▁捷克斯洛伐克	-11364
思想	-11365
▁所罗门	-11366
▁植物种	-11367
▁三段	-11368
▁轻轨	-11369
▁一下	-11370
▁养殖	-11371
▁沙滩	-11372
▁选项	-11373
▁男演员	-11374
▁筒	-11375
▁幸运	-11376
▁波长	-11377
▁按察使	-11378
拉德	-11379
▁使徒	-11380
▁别名	-11381
▁南区	-11382
▁警卫	-11383
▁反叛	-11384
▁现名	-11385
▁对战	-11386
▁五位	-11387
▁忍者	-11388
▁税收	-11389
▁中毒	-11390
▁开枪	-11391
▁隐居	-11392
▁迈阿密	-11393
▁电子游戏	-11394
▁构建	-11395
▁诉求	-11396
▁dan	-11397
▁刻意	-11398
▁尺度	-11399
▁都尉	-11400
▁小心	-11401
▁end	-11402
▁氧气	-11403
▁加装	-11404
力量	-11405
▁出使	-11406
▁水道	-11407
▁老年	-11408
▁奥斯曼帝国	-11409
海岸	-11410
▁ga	-11411
▁石碑	-11412
丽丝	-11413
以来	-11414
▁之初	-11415
▁期限	-11416
▁正如	-11417
▁全军	-11418
▁金陵	-11419
▁报章	-11420
▁组装	-11421
▁较长	-11422
梅尔	-11423
▁上车	-11424
▁30%	-11425
▁arm	-11426
▁犹太教	-11427
▁领事馆	-11428
▁乌鲁木齐	-11429
▁美式	-11430
▁1883	-11431
▁可供	-11432
▁城邦	-11433
▁板桥	-11434
▁出动	-11435
▁切断	-11436
▁披露	-11437
▁称帝	-11438
▁自古	-11439
▁boy	-11440
▁灌丛	-11441
07	-11442
▁利润	-11443
▁四强	-11444
▁新区	-11445
▁潜在	-11446
▁福德	-11447
▁怕	-11448
▁名将	-11449
▁西晋	-11450
▁退伍	-11451
▁中美洲	-11452
▁布莱恩	-11453
▁二十九年	-11454
▁邑	-11455
▁上班	-11456
▁瓦解	-11457
▁神明	-11458
起义	-11459
▁在此	-11460
▁季风	-11461
▁阿基	-11462
▁四次	-11463
▁客量	-11464
▁布列	-11465
▁一国	-11466
▁梅斯	-11467
▁督察	-11468
建议	-11469
▁地底	-11470
▁姿态	-11471
▁抵御	-11472
▁格局	-11473
导弹	-11474
▁健身	-11475
▁多米	-11476
▁she	-11477
▁拜仁	-11478
▁都御史	-11479
ations	-11480
▁卡里	-11481
▁教育家	-11482
ors	-11483
▁世家	-11484
▁安哥	-11485
▁辖境	-11486
▁一时期	-11487
▁在此期间	-11488
▁归国	-11489
▁动物园	-11490
▁抛弃	-11491
▁语的	-11492
▁许可证	-11493
效力	-11494
▁分界	-11495
▁失误	-11496
▁当他	-11497
亚科	-11498
▁疗法	-11499
▁bi	-11500
▁县委	-11501
▁哈密	-11502
▁客场	-11503
▁124	-11504
乐器	-11505
巴尔	-11506
苏里	-11507
▁gdp	-11508
▁德国人	-11509
▁由该	-11510
▁mont	-11511
▁entertain	-11512
继承	-11513
辖下	-11514
▁已故	-11515
▁莫尔	-11516
▁密歇根	-11517
▁serv	-11518
▁japan	-11519
▁逸	-11520
▁罚款	-11521
▁卡利	-11522
▁湿润	-11523
▁诗集	-11524
▁1868	-11525
▁club	-11526
▁华沙	-11527
▁政局	-11528
▁皇太子	-11529
时报	-11530
▁举动	-11531
▁并对	-11532
▁mi	-11533
▁卢卡	-11534
▁比率	-11535
▁皇宫	-11536
▁纸币	-11537
▁550	-11538
▁天花	-11539
▁县市	-11540
▁帆船	-11541
▁深远	-11542
▁卡西	-11543
▁耶和华	-11544
化物	-11545
▁kr	-11546
▁上行	-11547
▁战线	-11548
▁场比赛	-11549
ily	-11550
▁光度	-11551
▁平息	-11552
▁武功	-11553
▁皮尔	-11554
亚斯	-11555
▁北条	-11556
▁建安	-11557
▁追赠	-11558
龙省	-11559
▁京剧	-11560
▁后面	-11561
▁奥德	-11562
▁布达	-11563
▁接力	-11564
▁管弦	-11565
▁给事	-11566
▁1891	-11567
▁况	-11568
▁射程	-11569
▁衰退	-11570
▁风波	-11571
党校	-11572
▁实数	-11573
▁将他	-11574
▁jack	-11575
▁熙	-11576
▁伏尔	-11577
▁并曾	-11578
▁缩小	-11579
党员	-11580
▁晚会	-11581
▁奥兰	-11582
▁成份	-11583
安市	-11584
▁oh	-11585
▁八一	-11586
▁公所	-11587
▁汽油	-11588
诺斯	-11589
▁vo	-11590
▁双人	-11591
▁新疆维吾尔	-11592
▁拉普	-11593
▁格斯	-11594
▁有利于	-11595
发生	-11596
▁之星	-11597
▁住所	-11598
▁损毁	-11599
▁滑冰	-11600
▁media	-11601
分析	-11602
▁赛道	-11603
▁自动化	-11604
▁千瓦	-11605
▁轻微	-11606
▁首发	-11607
▁主人公	-11608
▁圣人	-11609
▁场面	-11610
▁巨型	-11611
▁有点	-11612
▁车厂	-11613
▁工委	-11614
▁白宫	-11615
▁单人	-11616
▁就算	-11617
▁长大	-11618
ough	-11619
▁个堂区	-11620
▁百分之	-11621
▁fm	-11622
▁事发	-11623
▁基部	-11624
▁越过	-11625
▁亚特兰	-11626
▁全国性	-11627
▁领导小组	-11628
▁entertainment	-11629
▁抓住	-11630
▁溶解	-11631
联合会	-11632
▁fil	-11633
▁维生素	-11634
▁一举	-11635
▁份子	-11636
▁回复	-11637
▁山本	-11638
▁巡航	-11639
▁部族	-11640
▁馀下	-11641
dy	-11642
他州	-11643
协商	-11644
▁举例	-11645
▁倡议	-11646
▁羽联	-11647
▁弗兰克	-11648
▁战中	-11649
▁vir	-11650
▁mg	-11651
▁东至	-11652
▁安提	-11653
▁特快	-11654
▁米格	-11655
▁丑闻	-11656
▁暗中	-11657
▁机上	-11658
▁用法	-11659
▁章程	-11660
▁119	-11661
▁sub	-11662
▁董事会	-11663
▁史书	-11664
▁李宗	-11665
▁新世界	-11666
▁东县	-11667
▁保密	-11668
▁颗粒	-11669
▁stre	-11670
▁新疆维吾尔自治区	-11671
奥多	-11672
▁获选	-11673
▁144	-11674
▁击中	-11675
▁太和	-11676
▁安哥拉	-11677
▁值得注意	-11678
▁主委	-11679
▁代价	-11680
▁几位	-11681
▁告终	-11682
▁当场	-11683
▁极高	-11684
▁空难	-11685
ange	-11686
▁der	-11687
志明	-11688
▁会社	-11689
▁关税	-11690
▁掌控	-11691
▁里克	-11692
▁life	-11693
▁台视	-11694
▁支出	-11695
▁维斯	-11696
伦西亚	-11697
▁将军澳	-11698
▁罢免	-11699
▁事项	-11700
▁必需	-11701
▁梅花	-11702
▁着重	-11703
多夫	-11704
腾堡	-11705
▁不肯	-11706
▁中外	-11707
▁复合	-11708
▁奉行	-11709
▁澄清	-11710
▁不足以	-11711
▁新四军	-11712
▁基斯	-11713
▁终端	-11714
▁师范学院	-11715
++	-11716
川县	-11717
明星	-11718
▁世袭	-11719
▁北周	-11720
▁客人	-11721
▁清洗	-11722
▁上市公司	-11723
▁世界排名	-11724
▁特兰	-11725
▁近海	-11726
▁蒙古族	-11727
▁他现	-11728
▁拘留	-11729
ican	-11730
▁临近	-11731
▁号称	-11732
▁枪械	-11733
▁gener	-11734
▁中央政治局	-11735
▁偏南	-11736
▁决战	-11737
▁est	-11738
100	-11739
▁升至	-11740
▁女皇	-11741
▁册封	-11742
▁原属	-11743
▁地标	-11744
▁指引	-11745
▁鲁迅	-11746
ral	-11747
▁常住	-11748
▁日渐	-11749
▁杭州市	-11750
▁第三季	-11751
牛斯	-11752
▁准则	-11753
▁年后	-11754
▁竟然	-11755
▁比利牛斯	-11756
▁twitter	-11757
▁亚伯	-11758
▁人马	-11759
▁新娘	-11760
▁超新	-11761
▁叶子	-11762
▁恶魔	-11763
▁做到	-11764
▁原着	-11765
▁威尔逊	-11766
▁不丹	-11767
▁勇敢	-11768
▁寒冷	-11769
▁昂贵	-11770
▁本区	-11771
▁超新星	-11772
▁1862	-11773
▁arch	-11774
塞州	-11775
▁凡尔	-11776
▁潮湿	-11777
▁名声	-11778
▁126	-11779
▁根据地	-11780
▁fire	-11781
▁尉	-11782
元帅	-11783
莉丝	-11784
▁会见	-11785
▁很长	-11786
▁获准	-11787
▁黑白	-11788
▁摄影师	-11789
▁肯尼迪	-11790
▁dream	-11791
当时	-11792
▁1848	-11793
状态	-11794
ump	-11795
▁士官	-11796
▁极度	-11797
▁科索	-11798
▁学士学位	-11799
▁太极	-11800
▁失踪	-11801
▁攻破	-11802
▁间接	-11803
▁富兰克林	-11804
▁ul	-11805
▁户籍	-11806
▁扫描	-11807
▁朝日	-11808
▁测定	-11809
▁缺席	-11810
▁路由	-11811
▁郡王	-11812
▁切尔尼	-11813
菲律	-11814
▁的士	-11815
▁师师	-11816
▁并向	-11817
▁析	-11818
达科	-11819
▁五名	-11820
▁缓解	-11821
▁新一代	-11822
▁上级	-11823
▁热爱	-11824
▁爱荷	-11825
▁西欧	-11826
▁韦伯	-11827
clude	-11828
▁一文	-11829
▁丰田	-11830
▁开会	-11831
▁月亮	-11832
▁650	-11833
▁以示	-11834
▁机器人	-11835
克力	-11836
经国	-11837
▁卡片	-11838
▁原产	-11839
▁特雷	-11840
▁逐出	-11841
fs	-11842
公署	-11843
方程	-11844
▁右手	-11845
▁天台	-11846
▁雅克	-11847
▁石家庄	-11848
合作	-11849
▁提早	-11850
▁首要	-11851
ipt	-11852
▁仅存	-11853
▁八大	-11854
▁军籍	-11855
▁凯特	-11856
▁同类	-11857
▁山村	-11858
▁推断	-11859
▁有史	-11860
▁演说	-11861
▁除去	-11862
▁交通局	-11863
▁四处	-11864
▁多面	-11865
▁拆卸	-11866
▁乃是	-11867
▁大胜	-11868
▁辛普森	-11869
▁凶手	-11870
▁多条	-11871
▁炮弹	-11872
▁被誉为	-11873
▁叉	-11874
办公	-11875
▁山丘	-11876
▁纪律	-11877
▁年来	-11878
▁确切	-11879
▁新竹市	-11880
▁过多	-11881
line	-11882
▁击落	-11883
战队	-11884
▁东山	-11885
▁亚斯	-11886
▁表述	-11887
ora	-11888
▁反派	-11889
▁堡垒	-11890
▁当事	-11891
▁疑似	-11892
▁盖尔	-11893
▁偏北	-11894
▁遇见	-11895
▁资格赛	-11896
▁1873	-11897
汉语	-11898
茨克	-11899
▁输给	-11900
▁hen	-11901
▁媒介	-11902
▁建交	-11903
▁活塞	-11904
▁野战军	-11905
▁领导者	-11906
▁喷发	-11907
▁天子	-11908
▁突变	-11909
▁维拉	-11910
团长	-11911
▁荷尔	-11912
▁处理器	-11913
▁等到	-11914
▁发表声明	-11915
规则	-11916
▁裁决	-11917
▁安德森	-11918
▁哈萨克斯坦	-11919
▁台大	-11920
▁拉赫	-11921
▁伴随	-11922
▁土库	-11923
▁多重	-11924
▁大海	-11925
▁二十二年	-11926
教会	-11927
▁三家	-11928
▁付出	-11929
▁党部	-11930
▁向北	-11931
▁金字	-11932
参加	-11933
皇帝	-11934
铁道	-11935
ini	-11936
▁楼宇	-11937
▁第十八	-11938
▁国民革命	-11939
▁有个	-11940
▁音符	-11941
▁吴国	-11942
▁嘉兴	-11943
▁山水	-11944
▁过来	-11945
▁党组书记	-11946
▁出产	-11947
▁周日	-11948
▁子弟	-11949
▁拳击	-11950
▁洛特	-11951
▁oper	-11952
▁灵活	-11953
▁终极	-11954
▁133	-11955
▁副局长	-11956
▁豹	-11957
▁中级	-11958
▁全县	-11959
▁首轮	-11960
▁高兴	-11961
che	-11962
▁安南	-11963
▁年区	-11964
▁may	-11965
▁历山大	-11966
▁apple	-11967
▁薇	-11968
▁埋葬	-11969
▁构想	-11970
▁看守	-11971
▁ant	-11972
▁日时	-11973
▁177	-11974
▁布伦	-11975
▁1877	-11976
▁泊	-11977
▁人心	-11978
夫卡	-11979
艺人	-11980
▁帮忙	-11981
▁西雅	-11982
▁劣	-11983
▁sg	-11984
▁变体	-11985
▁总教练	-11986
▁1867	-11987
▁一股	-11988
▁团员	-11989
▁左岸	-11990
原子	-11991
▁此案	-11992
▁台南市	-11993
▁基本法	-11994
▁审计	-11995
▁底质	-11996
▁转到	-11997
▁转投	-11998
▁骚乱	-11999
▁充当	-12000
▁升班	-12001
▁国营	-12002
▁美的	-12003
form	-12004
▁小队	-12005
▁琳娜	-12006
▁这支	-12007
一世	-12008
ita	-12009
▁施加	-12010
▁二十六年	-12011
德斯	-12012
殿试	-12013
▁沃伦	-12014
▁137	-12015
▁事先	-12016
▁大洋洲	-12017
出现	-12018
▁河西	-12019
▁派兵	-12020
▁特尔	-12021
▁霍华德	-12022
大选	-12023
▁个别	-12024
▁中性	-12025
▁ok	-12026
▁伴奏	-12027
▁实在	-12028
▁开往	-12029
▁矿业	-12030
▁唯一一	-12031
▁美联	-12032
▁花岗	-12033
▁起源于	-12034
▁扰动	-12035
▁放入	-12036
▁这使	-12037
▁追加	-12038
▁克服	-12039
▁平反	-12040
▁夸克	-12041
▁存有	-12042
▁搭档	-12043
▁系数	-12044
▁阴阳	-12045
出版社	-12046
▁rev	-12047
erson	-12048
▁1879	-12049
▁上书	-12050
lin	-12051
▁人大常委会	-12052
来说	-12053
资产	-12054
▁同属	-12055
▁宛	-12056
大将	-12057
资格	-12058
▁大乘	-12059
▁孤儿	-12060
▁宫崎	-12061
▁拜访	-12062
▁语族	-12063
▁165	-12064
▁当成	-12065
▁充足	-12066
▁消散	-12067
▁比斯	-12068
▁线上	-12069
德里克	-12070
▁流星	-12071
▁生死	-12072
▁四分之一	-12073
▁舰长	-12074
▁鼓手	-12075
事变	-12076
▁不停	-12077
▁机翼	-12078
▁175	-12079
▁教皇	-12080
▁机能	-12081
▁端点	-12082
▁编为	-12083
▁高潮	-12084
▁巴洛克	-12085
▁国铁	-12086
▁对待	-12087
▁此曲	-12088
少女	-12089
▁会区	-12090
▁去年	-12091
▁因病	-12092
▁意愿	-12093
▁文教	-12094
▁award	-12095
200	-12096
▁台上	-12097
▁哥本	-12098
▁教廷	-12099
▁三峡	-12100
▁失效	-12101
▁妈祖	-12102
▁托米	-12103
▁露天	-12104
▁生物学	-12105
之处	-12106
▁一是	-12107
▁提示	-12108
▁水流	-12109
▁珍贵	-12110
▁蒋经国	-12111
▁稿	-12112
▁停战	-12113
▁十万	-12114
相关	-12115
▁介石	-12116
▁习近平	-12117
▁大使馆	-12118
▁资本主义	-12119
cd	-12120
斯达	-12121
▁领主	-12122
▁斯普	-12123
▁弗里德里希	-12124
▁侦查	-12125
▁山海	-12126
▁树林	-12127
▁化学家	-12128
梅利	-12129
ada	-12130
▁作法	-12131
▁李鸿	-12132
▁远程	-12133
▁篮球队	-12134
哈根	-12135
复兴	-12136
▁备受	-12137
▁情景	-12138
istr	-12139
▁保守派	-12140
▁哥本哈根	-12141
印度	-12142
尼加	-12143
▁詹姆士	-12144
▁北齐	-12145
▁1865	-12146
▁毅	-12147
讯号	-12148
▁tim	-12149
主题	-12150
▁家用	-12151
▁布斯	-12152
▁释迦	-12153
▁van	-12154
▁1864	-12155
▁work	-12156
▁天主教徒	-12157
▁优质	-12158
▁厅长	-12159
▁和尚	-12160
▁开元	-12161
▁输送	-12162
▁安全性	-12163
▁增多	-12164
▁外地	-12165
▁来看	-12166
▁厄瓜	-12167
▁肖像	-12168
▁阿列	-12169
结合	-12170
▁外侧	-12171
▁一届	-12172
▁报刊	-12173
▁邻居	-12174
▁1881	-12175
▁利夫	-12176
▁腾讯	-12177
▁高宗	-12178
▁两支	-12179
▁住户	-12180
▁紫色	-12181
▁通报	-12182
▁斯泰因	-12183
▁科殿试	-12184
▁万立方米	-12185
▁雷德	-12186
▁1878	-12187
势力	-12188
▁僧侣	-12189
▁邮票	-12190
▁270	-12191
▁二十一	-12192
代码	-12193
能够	-12194
▁各部	-12195
▁库克	-12196
▁新店	-12197
▁40%	-12198
▁为准	-12199
▁乐曲	-12200
▁残留	-12201
▁1875	-12202
▁旅客列车	-12203
可梦	-12204
泽民	-12205
▁拥护	-12206
▁揭发	-12207
▁一个月	-12208
内容	-12209
▁伙伴	-12210
▁外面	-12211
▁降水量	-12212
族自治州	-12213
▁天鹅	-12214
▁山下	-12215
▁日内瓦	-12216
▁伯里	-12217
▁统领	-12218
▁考生	-12219
▁录音室	-12220
儿子	-12221
特律	-12222
▁制式	-12223
▁压迫	-12224
▁及第	-12225
▁男双	-12226
▁不列颠	-12227
▁一向	-12228
▁不当	-12229
▁开战	-12230
ij	-12231
▁优良	-12232
教区	-12233
▁亲密	-12234
▁尼科	-12235
▁次郎	-12236
berg	-12237
▁西夏	-12238
▁乾隆帝	-12239
▁法西斯	-12240
纬度	-12241
▁继而	-12242
▁市辖区	-12243
▁残疾人	-12244
▁port	-12245
▁基准	-12246
▁布里斯	-12247
▁intel	-12248
▁反之	-12249
▁玉山	-12250
▁腹足	-12251
▁自家	-12252
▁调用	-12253
▁地理位置	-12254
▁门外	-12255
▁预赛	-12256
大夫	-12257
▁底特律	-12258
▁哥德	-12259
▁天安	-12260
▁house	-12261
▁合计	-12262
▁四季	-12263
▁dd	-12264
▁不了	-12265
▁增压	-12266
▁大安	-12267
▁摩天	-12268
▁英皇	-12269
▁1840	-12270
▁塔利	-12271
▁拉瓦	-12272
▁称其	-12273
▁737	-12274
克莱	-12275
瑟琳	-12276
▁投身	-12277
大师	-12278
▁152	-12279
▁阿姆斯特丹	-12280
历史	-12281
▁则会	-12282
▁职权	-12283
▁聪明	-12284
▁官吏	-12285
▁灯塔	-12286
▁尼克斯	-12287
埃及	-12288
▁反共	-12289
▁混双	-12290
▁先知	-12291
▁布什	-12292
报道	-12293
理事	-12294
▁司铎	-12295
▁热烈	-12296
▁现址	-12297
文尼亚	-12298
▁dem	-12299
▁美国国会	-12300
▁大国	-12301
▁时光	-12302
▁赫拉	-12303
▁聚合物	-12304
ision	-12305
▁天线	-12306
▁所示	-12307
▁百度	-12308
▁房地产	-12309
▁游戏机	-12310
▁效能	-12311
▁该堂	-12312
▁违背	-12313
▁第十五	-12314
▁一根	-12315
▁冠名	-12316
▁千里	-12317
▁斑点	-12318
▁欧亚	-12319
▁泰坦	-12320
▁远远	-12321
▁发布会	-12322
▁中为	-12323
▁百强	-12324
▁造反	-12325
ci	-12326
医学	-12327
气温	-12328
浦路	-12329
▁abc	-12330
▁bus	-12331
▁制片人	-12332
▁科索沃	-12333
▁一站	-12334
▁有过	-12335
▁视野	-12336
▁逃到	-12337
▁mel	-12338
▁第三方	-12339
▁格拉斯哥	-12340
▁绝大多数	-12341
▁腔	-12342
▁前端	-12343
▁占有	-12344
▁正选	-12345
▁法轮	-12346
▁1882	-12347
▁北韩	-12348
▁讯号	-12349
▁hol	-12350
多个	-12351
秀吉	-12352
str	-12353
▁卡车	-12354
▁愿望	-12355
▁白云	-12356
▁8000	-12357
▁苑	-12358
形态	-12359
▁估算	-12360
▁成像	-12361
阿拉伯	-12362
▁值得一	-12363
▁新石器	-12364
▁之声	-12365
▁光碟	-12366
▁单词	-12367
▁祖母	-12368
▁组别	-12369
▁忙	-12370
人数	-12371
▁区段	-12372
▁李登	-12373
▁阿特	-12374
▁德米特	-12375
▁沙特阿拉伯	-12376
wn	-12377
▁养子	-12378
▁后勤	-12379
▁或许	-12380
▁good	-12381
09	-12382
▁nt	-12383
▁特朗	-12384
▁湾大学	-12385
its	-12386
▁校址	-12387
▁法制	-12388
尔摩	-12389
▁事务所	-12390
▁车票	-12391
▁制造商	-12392
▁并开始	-12393
▁文艺复兴	-12394
易斯	-12395
▁出狱	-12396
▁召回	-12397
▁多斯	-12398
▁子孙	-12399
▁比重	-12400
▁差不多	-12401
▁东非	-12402
▁宣战	-12403
▁拉夫	-12404
▁先是	-12405
▁叶片	-12406
▁结业	-12407
▁马力	-12408
▁座落	-12409
▁敌军	-12410
▁状元	-12411
▁印度教	-12412
▁勇者	-12413
▁葬礼	-12414
▁玛格丽特	-12415
本线	-12416
▁一楼	-12417
▁一番	-12418
▁人会	-12419
▁启德	-12420
▁搜查	-12421
▁百老	-12422
▁文化部	-12423
▁演唱会	-12424
▁this	-12425
▁修女	-12426
▁公职	-12427
▁帝王	-12428
▁感动	-12429
▁未成年	-12430
▁三间	-12431
▁储备	-12432
▁溶于	-12433
▁起始	-12434
玛丽	-12435
▁发光	-12436
▁时事	-12437
▁奇异	-12438
▁苏拉	-12439
▁说话	-12440
▁阿尔卑斯	-12441
水县	-12442
▁塞纳	-12443
▁榜单	-12444
▁特洛	-12445
▁布莱克	-12446
▁做成	-12447
▁精通	-12448
▁客运专线	-12449
兹省	-12450
▁告别	-12451
▁154	-12452
卡尔	-12453
▁出海	-12454
▁激战	-12455
▁黑森	-12456
▁最常见	-12457
▁第十六	-12458
bn	-12459
▁优胜	-12460
▁句子	-12461
▁降水	-12462
▁dec	-12463
▁多项式	-12464
▁藏传佛教	-12465
▁first	-12466
▁特急	-12467
▁sir	-12468
▁穴	-12469
▁一月	-12470
▁传染	-12471
▁叔父	-12472
▁史称	-12473
▁遣使	-12474
德兰	-12475
▁侵入	-12476
▁将于	-12477
▁离散	-12478
▁十字架	-12479
▁机务段	-12480
▁一轮	-12481
▁伊藤	-12482
▁设法	-12483
▁132	-12484
▁取决于	-12485
▁华丽	-12486
▁周六	-12487
▁7000	-12488
▁associ	-12489
iew	-12490
▁执照	-12491
▁施政	-12492
▁line	-12493
▁college	-12494
▁专线	-12495
▁也许	-12496
▁二楼	-12497
▁手动	-12498
▁春节	-12499
▁海因	-12500
▁这首	-12501
▁金朝	-12502
▁圣诞节	-12503
bi	-12504
▁法则	-12505
达成	-12506
▁棉花	-12507
▁武帝	-12508
▁海伦	-12509
▁石门	-12510
▁立面	-12511
▁该次	-12512
▁hel	-12513
▁公安部	-12514
▁美少女	-12515
▁richard	-12516
发行	-12517
▁多万	-12518
▁蒙特利	-12519
▁project	-12520
▁帕克	-12521
信息	-12522
托夫	-12523
▁修理	-12524
▁加油	-12525
▁博客	-12526
▁斯德	-12527
▁汇入	-12528
▁燃油	-12529
博物馆	-12530
yth	-12531
▁不大	-12532
▁出面	-12533
▁扭曲	-12534
▁重创	-12535
▁后续	-12536
▁宝石	-12537
▁榜首	-12538
▁陆上	-12539
▁宇航员	-12540
▁巴拉圭	-12541
▁road	-12542
▁george	-12543
▁剪辑	-12544
▁功臣	-12545
▁回报	-12546
▁境外	-12547
▁更多	-12548
▁视察	-12549
▁客户端	-12550
莱德	-12551
▁伯明	-12552
▁全称	-12553
▁男友	-12554
ific	-12555
▁west	-12556
▁sport	-12557
王国	-12558
▁pd	-12559
▁耗资	-12560
▁古斯塔	-12561
威特	-12562
▁下行	-12563
▁年纪	-12564
▁埃里克	-12565
成绩	-12566
▁不设	-12567
▁去除	-12568
▁名胜	-12569
▁宿主	-12570
▁巴马州	-12571
▁隶	-12572
▁洛林	-12573
▁冠军联赛	-12574
▁有轨电车	-12575
专业	-12576
数据	-12577
▁四百	-12578
▁宣扬	-12579
▁adv	-12580
▁1874	-12581
ama	-12582
▁效忠	-12583
▁联手	-12584
▁视角	-12585
▁阻挡	-12586
▁陵墓	-12587
一样	-12588
▁庆典	-12589
▁管治	-12590
▁大于	-12591
▁太保	-12592
undam	-12593
战斗	-12594
por	-12595
▁东华	-12596
▁无缘	-12597
▁爱的	-12598
▁下议院	-12599
▁值得一提	-12600
▁南港	-12601
▁绑架	-12602
▁韩民国	-12603
▁缓冲	-12604
▁莫里	-12605
▁70%	-12606
▁lou	-12607
▁phil	-12608
▁代表大会	-12609
▁商船	-12610
▁未婚	-12611
▁波动	-12612
▁病情	-12613
▁马其	-12614
▁宝可梦	-12615
▁西州	-12616
▁魔鬼	-12617
▁高加索	-12618
▁unix	-12619
党籍	-12620
min	-12621
▁对比	-12622
▁政法	-12623
▁米哈	-12624
调查	-12625
▁si	-12626
▁犯人	-12627
▁inf	-12628
▁第四名	-12629
▁电视节目	-12630
ula	-12631
▁坚定	-12632
ated	-12633
▁dire	-12634
▁两队	-12635
▁交出	-12636
▁大为	-12637
▁收看	-12638
▁植被	-12639
▁hall	-12640
园区	-12641
▁大碟	-12642
▁附有	-12643
▁外星人	-12644
▁阿拉伯人	-12645
▁开关	-12646
▁思维	-12647
▁1863	-12648
▁朝鲜半岛	-12649
▁椎	-12650
工会	-12651
▁全垒	-12652
▁大成	-12653
▁换取	-12654
▁枪击	-12655
▁1872	-12656
▁miss	-12657
ection	-12658
▁一律	-12659
▁英美	-12660
▁mem	-12661
▁佛像	-12662
▁宗座	-12663
▁国小	-12664
▁场馆	-12665
▁投靠	-12666
▁纪元	-12667
▁路易十	-12668
▁franc	-12669
速度	-12670
▁以内	-12671
▁文昌	-12672
▁残酷	-12673
▁瑞克	-12674
▁166	-12675
▁宣传部	-12676
▁受命	-12677
▁天主	-12678
▁至元	-12679
▁西端	-12680
▁中国人	-12681
▁北爱尔兰	-12682
▁据称	-12683
▁环状	-12684
▁英冠	-12685
▁跨国	-12686
▁宁波市	-12687
文件	-12688
▁在世	-12689
▁引致	-12690
▁读音	-12691
▁wii	-12692
ery	-12693
▁农历	-12694
▁开口	-12695
▁本赛	-12696
▁柔道	-12697
▁首支	-12698
▁凯尔特	-12699
▁劳伦斯	-12700
▁重用	-12701
▁预选	-12702
ator	-12703
▁138	-12704
▁师师长	-12705
▁摩泽尔	-12706
press	-12707
吉斯	-12708
▁gt	-12709
▁会战	-12710
变化	-12711
▁偏向	-12712
▁分拆	-12713
▁特许	-12714
▁相差	-12715
▁韩语	-12716
后续	-12717
▁假面	-12718
▁浓厚	-12719
▁长篇	-12720
▁总公司	-12721
▁下滑	-12722
▁预先	-12723
▁库尔德	-12724
▁euro	-12725
▁巴伐利亚州	-12726
彼得	-12727
粤语	-12728
▁乡道	-12729
▁大明	-12730
▁手稿	-12731
▁激素	-12732
▁马其顿	-12733
乌斯	-12734
讯息	-12735
▁5%	-12736
▁中是	-12737
▁因斯	-12738
▁被视	-12739
▁感兴趣	-12740
▁李登辉	-12741
航天	-12742
▁开源	-12743
▁西雅图	-12744
协商会议	-12745
学科	-12746
▁mu	-12747
▁九十	-12748
▁佩斯	-12749
▁古墓	-12750
▁究竟	-12751
▁学生会	-12752
▁斯巴达	-12753
▁竞技场	-12754
▁1400	-12755
▁前列	-12756
▁国人	-12757
▁建构	-12758
瑞克	-12759
▁rh	-12760
▁内核	-12761
▁天启	-12762
▁潮流	-12763
▁麻省	-12764
▁叔叔	-12765
▁干道	-12766
▁库斯	-12767
▁涂装	-12768
▁gar	-12769
可能	-12770
▁分队	-12771
▁弹头	-12772
▁收获	-12773
▁标语	-12774
▁迪南	-12775
▁挑战赛	-12776
▁第五次	-12777
▁棕色	-12778
▁甲第	-12779
▁紫外	-12780
▁节省	-12781
▁骚扰	-12782
▁成都市	-12783
▁所生	-12784
▁克拉斯	-12785
▁曾效力	-12786
▁奥克兰	-12787
▁巧克力	-12788
ze	-12789
▁七世	-12790
▁国子	-12791
▁水力	-12792
▁赏识	-12793
研究院	-12794
▁acc	-12795
▁作画	-12796
▁假如	-12797
▁合一	-12798
▁同伴	-12799
▁商会	-12800
▁籍贯	-12801
▁镇江	-12802
▁cam	-12803
▁慢性	-12804
▁所述	-12805
▁拥立	-12806
▁文集	-12807
▁有如	-12808
▁爱知	-12809
▁链接	-12810
▁侧面	-12811
▁取胜	-12812
▁停泊	-12813
▁后于	-12814
▁无罪	-12815
▁每集	-12816
▁渡过	-12817
gin	-12818
▁无机	-12819
▁潜力	-12820
▁fam	-12821
▁古埃及	-12822
▁回忆录	-12823
▁第十七	-12824
▁sr	-12825
▁沃尔夫	-12826
▁相对论	-12827
▁八强	-12828
▁武德	-12829
▁这款	-12830
▁阿格	-12831
▁led	-12832
▁增大	-12833
▁李世	-12834
▁街市	-12835
▁器材	-12836
▁继母	-12837
▁罗杰	-12838
▁印第安人	-12839
▁三子	-12840
▁动漫	-12841
▁千代	-12842
▁历年	-12843
▁揭幕	-12844
▁欧拉	-12845
▁残馀	-12846
▁les	-12847
▁分治	-12848
▁女真	-12849
▁高效	-12850
▁人知	-12851
▁曾孙	-12852
ates	-12853
▁ger	-12854
大赛	-12855
▁主修	-12856
▁发车	-12857
▁张个	-12858
▁救护	-12859
十字	-12860
▁不安	-12861
▁变数	-12862
▁喀什	-12863
▁太祖	-12864
▁录像	-12865
▁海尔	-12866
▁玉环	-12867
▁www	-12868
▁太阳能	-12869
xy	-12870
▁地板	-12871
▁特质	-12872
▁mtv	-12873
▁司令官	-12874
▁事迹	-12875
▁分级	-12876
▁百分	-12877
▁阿兹	-12878
▁南开大学	-12879
▁弹道	-12880
▁活化	-12881
▁路易斯安那州	-12882
▁cv	-12883
▁军民	-12884
▁城巴	-12885
▁瓦特	-12886
▁if	-12887
▁凯撒	-12888
▁美好	-12889
▁隆庆	-12890
▁康斯坦	-12891
▁索马里	-12892
▁宫中	-12893
▁手球	-12894
▁生化	-12895
▁国民革命军	-12896
ano	-12897
▁则由	-12898
▁多明	-12899
▁安抚	-12900
▁环流	-12901
▁自卫队	-12902
▁一九	-12903
▁上部	-12904
▁古生物	-12905
▁大革命	-12906
▁诸葛亮	-12907
装置	-12908
▁mad	-12909
▁从来	-12910
▁格利	-12911
▁野外	-12912
▁上尉	-12913
▁世人	-12914
▁大不	-12915
▁离职	-12916
▁许多人	-12917
四个	-12918
坦克	-12919
▁书面	-12920
▁学园	-12921
▁少林	-12922
▁巡视	-12923
▁通商	-12924
▁韦斯	-12925
led	-12926
▁亚视	-12927
▁多达	-12928
▁小于	-12929
▁引爆	-12930
▁新民	-12931
▁误差	-12932
不断	-12933
▁fo	-12934
▁电铁	-12935
▁半决赛	-12936
▁守卫	-12937
▁满分	-12938
▁申报	-12939
▁gp	-12940
▁九个	-12941
▁所致	-12942
▁牛奶	-12943
▁wil	-12944
▁street	-12945
▁露出	-12946
▁凯文	-12947
▁江湖	-12948
▁行进	-12949
▁金币	-12950
▁atp	-12951
▁组织部	-12952
▁慎	-12953
胜出	-12954
▁回去	-12955
▁佛陀	-12956
▁温和	-12957
▁电视网	-12958
▁留学生	-12959
▁墓葬	-12960
▁繁体	-12961
▁该岛	-12962
▁拉丁语	-12963
▁神学院	-12964
▁一字	-12965
▁投奔	-12966
▁标注	-12967
▁奥古斯	-12968
▁升高	-12969
▁话剧	-12970
▁156	-12971
▁二十世纪	-12972
▁爷	-12973
▁打死	-12974
▁法文	-12975
▁charles	-12976
wan	-12977
▁ka	-12978
▁即为	-12979
▁幼虫	-12980
▁提拔	-12981
▁法国人	-12982
▁大事	-12983
▁琉璃	-12984
▁米亚	-12985
经过	-12986
▁意甲	-12987
民主党	-12988
▁中饰演	-12989
▁南韩	-12990
▁mid	-12991
文章	-12992
▁凯莉	-12993
▁出国	-12994
▁切割	-12995
▁太宗	-12996
▁全权	-12997
▁应急	-12998
▁万人次	-12999
▁马萨诸	-13000
信仰	-13001
▁专制	-13002
▁修读	-13003
浦路斯	-13004
▁rem	-13005
▁1300	-13006
▁塞浦路斯	-13007
高原	-13008
▁启蒙	-13009
▁艾哈	-13010
▁158	-13011
▁地段	-13012
▁巨蛋	-13013
▁私下	-13014
▁sky	-13015
政变	-13016
景点	-13017
▁叙事	-13018
▁退化	-13019
▁武汉大学	-13020
▁叛变	-13021
▁材质	-13022
▁用语	-13023
▁金球	-13024
▁托尔金	-13025
▁显示器	-13026
▁朋	-13027
▁亚尔	-13028
▁多尼	-13029
▁断裂	-13030
▁通风	-13031
▁国内外	-13032
控制	-13033
▁pal	-13034
▁里斯本	-13035
▁同等	-13036
▁地级	-13037
▁布鲁塞尔	-13038
▁好像	-13039
▁明日	-13040
▁第二期	-13041
▁西伯利亚	-13042
▁中尉	-13043
▁必定	-13044
ular	-13045
▁ann	-13046
▁中国内	-13047
▁中国中央	-13048
▁关西	-13049
▁历来	-13050
▁武警	-13051
▁金字塔	-13052
▁停播	-13053
▁进度	-13054
▁迪亚	-13055
▁首演	-13056
化合物	-13057
▁威廉斯	-13058
▁婆罗	-13059
▁致敬	-13060
▁司空	-13061
▁巴塞罗	-13062
ety	-13063
▁导航	-13064
▁心情	-13065
▁照相	-13066
▁会以	-13067
▁北县	-13068
▁听众	-13069
▁开来	-13070
include	-13071
▁八角	-13072
▁约合	-13073
▁行销	-13074
▁边防	-13075
▁下落	-13076
▁sum	-13077
▁出击	-13078
▁条文	-13079
▁符腾堡	-13080
功率	-13081
▁对决	-13082
▁最后一个	-13083
门员	-13084
▁公信	-13085
▁始发	-13086
▁为什么	-13087
▁中称	-13088
▁困境	-13089
▁模组	-13090
▁甚么	-13091
公尺	-13092
现代	-13093
▁仙女	-13094
▁向下	-13095
▁声调	-13096
▁英法	-13097
▁高等学校	-13098
ney	-13099
▁欧文	-13100
▁译为	-13101
▁赛马会	-13102
务委员会	-13103
▁西班牙人	-13104
▁北边	-13105
▁开支	-13106
▁样子	-13107
▁表决	-13108
▁free	-13109
▁north	-13110
▁十个	-13111
▁宴会	-13112
▁总量	-13113
▁汉武帝	-13114
ensis	-13115
▁切换	-13116
▁禁令	-13117
▁边疆	-13118
rop	-13119
▁圆柱	-13120
▁小田	-13121
▁门下	-13122
▁unic	-13123
▁城南	-13124
▁桌面	-13125
▁略有	-13126
▁苏黎	-13127
▁亚当斯	-13128
▁尼茨基	-13129
▁蒙古国	-13130
军团	-13131
特区	-13132
▁学中	-13133
▁永和	-13134
▁陶器	-13135
▁136	-13136
▁下表	-13137
▁借助	-13138
▁急性	-13139
▁病例	-13140
▁简体	-13141
▁译本	-13142
▁自民党	-13143
▁北洋政府	-13144
▁胺	-13145
宪法	-13146
uss	-13147
▁自转	-13148
▁配偶	-13149
▁mob	-13150
▁佛罗伦	-13151
▁交配	-13152
▁传到	-13153
▁岭南	-13154
▁甲午	-13155
▁科大	-13156
▁米特	-13157
▁鱼亚目	-13158
▁1866	-13159
▁内侧	-13160
▁渔民	-13161
▁蒙古人	-13162
▁长时间	-13163
▁二十五年	-13164
▁吉安	-13165
▁命题	-13166
族自治县	-13167
▁巴塞罗那	-13168
▁库容	-13169
▁各样	-13170
▁惠州	-13171
▁收复	-13172
era	-13173
▁分院	-13174
▁混音	-13175
▁贞观	-13176
▁1869	-13177
▁人身	-13178
▁写下	-13179
▁卡普	-13180
▁长途	-13181
▁革新	-13182
ista	-13183
▁148	-13184
▁100%	-13185
▁lang	-13186
▁做好	-13187
▁台风	-13188
▁吉姆	-13189
▁老鼠	-13190
▁阴道	-13191
▁metac	-13192
▁不顾	-13193
什维克	-13194
▁宾夕法	-13195
▁一般而言	-13196
▁皮埃尔	-13197
▁land	-13198
ope	-13199
▁算子	-13200
▁中信	-13201
▁共生	-13202
▁外墙	-13203
▁舍人	-13204
▁奇怪	-13205
▁宪政	-13206
泰尔	-13207
▁年入	-13208
总局	-13209
班机	-13210
登堡	-13211
▁体的	-13212
▁大人	-13213
▁独家	-13214
▁131	-13215
▁精彩	-13216
▁60%	-13217
▁莫里斯	-13218
▁宗教信仰	-13219
朝鲜	-13220
▁哈布	-13221
▁山姆	-13222
▁抚养	-13223
▁排水	-13224
▁新港	-13225
▁交通工具	-13226
▁亿年	-13227
▁刺杀	-13228
ions	-13229
▁圣彼得	-13230
▁萨斯州	-13231
▁ju	-13232
▁wr	-13233
▁党派	-13234
▁到来	-13235
▁王妃	-13236
▁短缺	-13237
▁ear	-13238
▁流域面积	-13239
▁渊	-13240
▁三项	-13241
▁人行	-13242
▁声誉	-13243
▁无需	-13244
▁雨量	-13245
▁鲜明	-13246
▁艺术品	-13247
就是	-13248
▁担忧	-13249
▁激活	-13250
▁辛格	-13251
交所	-13252
天皇	-13253
▁ko	-13254
▁协和	-13255
▁安平	-13256
▁总编	-13257
▁控告	-13258
ateg	-13259
▁资产阶级	-13260
▁反驳	-13261
▁炮击	-13262
▁意识形态	-13263
▁二段	-13264
▁俄军	-13265
▁139	-13266
维拉	-13267
▁豆科	-13268
▁跳水	-13269
▁随意	-13270
▁studio	-13271
▁农田	-13272
▁原版	-13273
▁周五	-13274
▁城乡	-13275
▁港区	-13276
▁ram	-13277
▁时有	-13278
▁over	-13279
▁阿拉伯语	-13280
假名	-13281
周年	-13282
▁溶剂	-13283
▁鱼亚	-13284
▁议案	-13285
▁音源	-13286
▁134	-13287
cript	-13288
ho	-13289
后者	-13290
▁kg	-13291
▁全场	-13292
▁喷泉	-13293
▁尔德	-13294
▁征战	-13295
ount	-13296
▁gundam	-13297
▁永康	-13298
▁狭义	-13299
▁这批	-13300
▁黑山	-13301
▁莎拉	-13302
容纳	-13303
进入	-13304
▁小麦	-13305
▁影子	-13306
▁杂交	-13307
▁env	-13308
▁天然气	-13309
▁最高峰	-13310
▁弗雷德里克	-13311
▁五星	-13312
▁寻常	-13313
▁所说	-13314
▁汉代	-13315
▁结成	-13316
▁面上	-13317
▁利比亚	-13318
▁印地安	-13319
▁尼克松	-13320
▁国产	-13321
▁家园	-13322
▁开场	-13323
▁挂牌	-13324
▁糖尿	-13325
▁语文	-13326
大使	-13327
▁南通	-13328
▁峡谷	-13329
▁相位	-13330
▁china	-13331
▁天生	-13332
▁实时	-13333
▁旧称	-13334
▁克里斯蒂安	-13335
▁斯洛文尼亚	-13336
▁中国中央电视台	-13337
com	-13338
▁pi	-13339
▁伊达	-13340
▁造像	-13341
▁配属	-13342
▁二十八	-13343
▁英联邦	-13344
▁一族	-13345
▁妖怪	-13346
▁文科	-13347
丽鱼	-13348
▁买下	-13349
▁制订	-13350
▁大河	-13351
▁选用	-13352
▁镇海	-13353
▁ast	-13354
▁内尔	-13355
▁变迁	-13356
▁国安	-13357
▁法例	-13358
▁湾总	-13359
▁雨水	-13360
▁村委会	-13361
▁国会议员	-13362
士兰	-13363
高宗	-13364
ani	-13365
▁丛林	-13366
▁修士	-13367
▁赌场	-13368
▁反坦克	-13369
▁特朗普	-13370
▁gold	-13371
玄宗	-13372
▁光滑	-13373
▁收容	-13374
▁起降	-13375
▁跳舞	-13376
▁高速铁路	-13377
分区	-13378
多尔	-13379
▁追封	-13380
▁饮用	-13381
书馆	-13382
索瓦	-13383
▁奥特	-13384
▁浦东	-13385
▁相接	-13386
▁运动场	-13387
传统	-13388
国防	-13389
理会	-13390
▁东门	-13391
▁商议	-13392
▁甲壳	-13393
▁航母	-13394
▁html	-13395
▁thomas	-13396
▁墙壁	-13397
▁大理石	-13398
▁类动物	-13399
▁制备	-13400
▁齿轮	-13401
蓝色	-13402
▁不便	-13403
▁子集	-13404
▁强力	-13405
▁江陵	-13406
▁特罗	-13407
▁迎战	-13408
▁205	-13409
▁专访	-13410
依林	-13411
▁化成	-13412
▁奥里	-13413
▁左手	-13414
▁log	-13415
证券	-13416
▁制裁	-13417
▁奥克	-13418
▁白沙	-13419
▁世锦赛	-13420
▁临海	-13421
▁报社	-13422
▁文武	-13423
▁法属	-13424
▁获释	-13425
▁表格	-13426
▁地貌	-13427
▁电器	-13428
▁下半年	-13429
▁所产生	-13430
▁jose	-13431
▁peter	-13432
▁后方	-13433
▁气流	-13434
▁金日	-13435
▁开普	-13436
▁斯诺	-13437
▁坑壁	-13438
▁武侠	-13439
▁江北	-13440
病毒	-13441
▁其一	-13442
▁射器	-13443
▁日照	-13444
▁门口	-13445
▁ray	-13446
ste	-13447
▁三代	-13448
▁中曾	-13449
▁史前	-13450
▁此一	-13451
▁秋天	-13452
▁音频	-13453
▁会谈	-13454
▁尾部	-13455
▁并把	-13456
▁时年	-13457
▁烟台	-13458
▁西贡	-13459
言论	-13460
▁兴盛	-13461
▁奉献	-13462
▁局限	-13463
▁逃避	-13464
▁皇太后	-13465
▁两倍	-13466
▁佐藤	-13467
▁全能	-13468
▁后人	-13469
▁尽量	-13470
▁kbs	-13471
▁两组	-13472
▁亚裔	-13473
▁146	-13474
▁油画	-13475
▁营地	-13476
▁校内	-13477
▁糖尿病	-13478
▁半部	-13479
▁村镇	-13480
▁民居	-13481
▁阴影	-13482
▁168	-13483
▁赫梅利	-13484
▁your	-13485
▁人家	-13486
▁佐治	-13487
▁坚守	-13488
▁户外	-13489
▁早就	-13490
▁机密	-13491
▁探险家	-13492
▁米哈伊	-13493
▁ever	-13494
德温	-13495
▁小林	-13496
▁月号	-13497
▁用品	-13498
▁介质	-13499
▁庄为	-13500
▁基隆市	-13501
▁全国人大常委会	-13502
尼察	-13503
itz	-13504
▁唯有	-13505
▁宪兵	-13506
▁触发	-13507
▁顺德	-13508
▁二十五	-13509
▁ob	-13510
▁tc	-13511
▁不堪	-13512
▁已婚	-13513
▁突围	-13514
▁绘制	-13515
▁第六十	-13516
特拉	-13517
▁特派	-13518
▁菩提	-13519
▁销售量	-13520
▁信念	-13521
▁先天	-13522
分之二	-13523
▁同一个	-13524
▁保健	-13525
▁太太	-13526
▁紧接	-13527
▁耶鲁	-13528
▁走出	-13529
▁逆转	-13530
▁顶端	-13531
ritic	-13532
▁sony	-13533
五十	-13534
▁启示	-13535
▁改动	-13536
▁美女	-13537
▁原子核	-13538
▁可行性	-13539
▁社会科学	-13540
二八	-13541
嘉义	-13542
▁午夜	-13543
▁声母	-13544
▁头号	-13545
▁星星	-13546
▁营救	-13547
▁近亲	-13548
▁张家口	-13549
ns	-13550
连接	-13551
▁尾鳍	-13552
▁底下	-13553
▁虎尾	-13554
unes	-13555
▁第十九	-13556
▁德米特里	-13557
▁迹象	-13558
ware	-13559
▁工程学院	-13560
▁伪造	-13561
▁克洛	-13562
▁军营	-13563
▁尊敬	-13564
▁总值	-13565
▁嘉义县	-13566
▁草本植物	-13567
▁叛军	-13568
▁地被	-13569
▁此项	-13570
▁货车	-13571
▁direct	-13572
总值	-13573
▁伊凡	-13574
▁致死	-13575
▁高考	-13576
ford	-13577
▁排斥	-13578
▁过的	-13579
▁奥巴马	-13580
▁立法局	-13581
▁metacritic	-13582
▁会试	-13583
▁川家	-13584
▁渠道	-13585
▁等国	-13586
▁较少	-13587
▁执政党	-13588
vin	-13589
▁倒数	-13590
▁福岛	-13591
▁联会	-13592
▁高低	-13593
▁太空船	-13594
▁并行	-13595
▁底盘	-13596
▁抗体	-13597
▁替补	-13598
▁本州	-13599
▁王氏	-13600
▁多功能	-13601
▁1700	-13602
▁在建	-13603
▁大受	-13604
▁居留	-13605
▁横向	-13606
▁south	-13607
▁limited	-13608
▁一夜	-13609
▁万千	-13610
▁南明	-13611
▁机队	-13612
▁诺斯	-13613
▁长征	-13614
ison	-13615
▁bs	-13616
▁页面	-13617
状况	-13618
▁大体	-13619
▁戴尔	-13620
▁指称	-13621
▁新庄	-13622
▁每位	-13623
▁红楼	-13624
▁第六次	-13625
后备	-13626
▁孔雀	-13627
▁巴顿	-13628
▁波多黎	-13629
▁基础设施	-13630
产量	-13631
美尔	-13632
▁影音	-13633
▁records	-13634
ki	-13635
进制	-13636
▁全都	-13637
▁支柱	-13638
▁疫情	-13639
▁认真	-13640
▁设计者	-13641
▁波多黎各	-13642
全会	-13643
装备	-13644
▁他将	-13645
▁硬体	-13646
▁稀少	-13647
▁订单	-13648
▁殖民者	-13649
▁grand	-13650
ric	-13651
▁一季	-13652
▁克什	-13653
▁加纳	-13654
▁华为	-13655
▁里奥	-13656
▁臂	-13657
▁战功	-13658
▁手册	-13659
▁pan	-13660
▁不同于	-13661
▁南北向	-13662
▁核武器	-13663
▁万多	-13664
▁中校	-13665
▁九江	-13666
▁人人	-13667
▁拉尔	-13668
▁车门	-13669
▁唐玄宗	-13670
▁大坂市	-13671
格斯	-13672
▁一派	-13673
▁住院	-13674
▁喜好	-13675
▁回顾	-13676
▁音室	-13677
▁巴尔干	-13678
▁举重	-13679
▁大业	-13680
▁long	-13681
▁其时	-13682
▁十几	-13683
▁十多	-13684
▁接见	-13685
▁牛肉	-13686
▁高空	-13687
▁荷兰人	-13688
▁礼堂	-13689
▁低音	-13690
▁入场	-13691
▁同胞	-13692
▁脉冲	-13693
▁星期五	-13694
基亚	-13695
▁便会	-13696
▁将要	-13697
▁身心	-13698
▁递交	-13699
▁魏国	-13700
▁少校	-13701
▁克里米亚	-13702
成本	-13703
▁太尉	-13704
▁红白	-13705
▁跳跃	-13706
▁141	-13707
▁布鲁克林	-13708
▁励	-13709
▁历程	-13710
▁受限	-13711
▁年级	-13712
▁人工智	-13713
▁乘降	-13714
▁其母	-13715
▁皇族	-13716
▁西拉	-13717
▁语义	-13718
▁330	-13719
▁mir	-13720
▁宜兰县	-13721
▁鳍	-13722
统治	-13723
▁招标	-13724
▁武藏	-13725
▁章节	-13726
▁西沙	-13727
▁退位	-13728
▁推力	-13729
▁普林	-13730
▁立交	-13731
▁阿巴	-13732
▁147	-13733
▁law	-13734
▁归还	-13735
▁病死	-13736
▁考取	-13737
▁luc	-13738
▁注意力	-13739
▁演算法	-13740
▁玛利亚	-13741
武装	-13742
▁住宿	-13743
▁复旦	-13744
▁整编	-13745
ally	-13746
▁价值观	-13747
▁救济	-13748
▁现身	-13749
▁广播电视	-13750
三人	-13751
▁曹魏	-13752
▁过敏	-13753
ander	-13754
▁1830	-13755
▁unicode	-13756
贝格	-13757
▁不时	-13758
▁天上	-13759
陆续	-13760
mus	-13761
▁仁川	-13762
▁县份	-13763
▁教员	-13764
▁白银	-13765
▁白马	-13766
▁超市	-13767
▁追捕	-13768
▁霍普	-13769
英格兰	-13770
▁反革命	-13771
▁民营	-13772
▁有限责任	-13773
兰德	-13774
▁两面	-13775
▁和田	-13776
▁容许	-13777
▁开火	-13778
▁承包	-13779
▁文理	-13780
▁朝向	-13781
▁沃克	-13782
▁海口	-13783
▁石川	-13784
暴力	-13785
▁宪章	-13786
▁所辖	-13787
▁稍微	-13788
▁穆尔	-13789
▁wid	-13790
能源	-13791
▁巫师	-13792
▁纲脂	-13793
▁苏门	-13794
▁警署	-13795
▁分类法	-13796
▁警务处	-13797
▁之心	-13798
▁交代	-13799
▁区东	-13800
▁古兰	-13801
▁地委	-13802
▁曲面	-13803
▁没能	-13804
▁统筹	-13805
▁荣耀	-13806
▁金沙	-13807
▁金日成	-13808
▁三分之二	-13809
训练	-13810
▁战乱	-13811
▁表情	-13812
ents	-13813
▁dom	-13814
▁改革开放	-13815
保险	-13816
应用	-13817
▁佩里	-13818
▁处置	-13819
广泛	-13820
▁上表	-13821
▁王世	-13822
▁自贡	-13823
ason	-13824
▁bab	-13825
▁sci	-13826
▁巴塞隆	-13827
专辑	-13828
芬兰	-13829
▁实录	-13830
▁客货	-13831
▁现状	-13832
▁附设	-13833
夫斯基	-13834
▁都督府	-13835
尼克	-13836
龙属	-13837
▁定向	-13838
▁曼彻	-13839
▁窗户	-13840
▁dig	-13841
▁克里夫	-13842
▁副会长	-13843
▁佛罗伦萨	-13844
wa	-13845
麦隆	-13846
▁首脑	-13847
戈夫	-13848
▁引来	-13849
▁梁振	-13850
▁流失	-13851
▁游牧	-13852
▁烟草	-13853
ql	-13854
▁仑	-13855
▁博格	-13856
新区	-13857
▁军委	-13858
▁重回	-13859
▁香山	-13860
文字	-13861
▁亚纳	-13862
▁信中	-13863
▁清河	-13864
▁龙门	-13865
▁风景区	-13866
▁哈布斯堡	-13867
▁contr	-13868
▁假定	-13869
▁史诗	-13870
▁源头	-13871
▁灯光	-13872
▁牌子	-13873
▁自卫	-13874
▁fun	-13875
▁看起来	-13876
▁白俄罗斯	-13877
危机	-13878
▁地盘	-13879
▁称谓	-13880
▁街上	-13881
▁转让	-13882
▁摇滚乐	-13883
▁第一款	-13884
▁借口	-13885
▁实为	-13886
▁效益	-13887
▁葵涌	-13888
▁血型	-13889
▁dou	-13890
▁中国工程	-13891
半部	-13892
▁下车	-13893
▁士林	-13894
▁完好	-13895
▁阿什	-13896
▁餐馆	-13897
▁驾驶员	-13898
▁城池	-13899
▁祭司	-13900
▁中央委员	-13901
▁无产阶级	-13902
宁市	-13903
▁发到	-13904
▁康德	-13905
▁轻易	-13906
▁重工	-13907
▁褐	-13908
代之	-13909
同盟	-13910
▁播音	-13911
▁出版物	-13912
▁男歌手	-13913
▁停产	-13914
▁光荣	-13915
▁前一	-13916
▁斩首	-13917
▁相交	-13918
▁西甲	-13919
▁客家人	-13920
▁罗斯福	-13921
▁最高人民法院	-13922
▁其名	-13923
▁身长	-13924
▁ltd	-13925
▁烷	-13926
▁井上	-13927
▁会将	-13928
▁希拉	-13929
▁拉曼	-13930
▁日才	-13931
▁爱上	-13932
▁全日制	-13933
▁副作用	-13934
▁召集人	-13935
▁唐太宗	-13936
▁堪萨斯州	-13937
而成	-13938
▁席次	-13939
▁广阔	-13940
▁格斗	-13941
▁渡轮	-13942
▁括	-13943
▁一至	-13944
▁交替	-13945
▁双边	-13946
▁塔吉	-13947
▁明天	-13948
▁玄武	-13949
▁经文	-13950
▁身穿	-13951
▁重申	-13952
▁限量	-13953
▁单行本	-13954
▁获选为	-13955
ex	-13956
▁掠夺	-13957
▁中文系	-13958
▁亚运会	-13959
▁学术界	-13960
动作	-13961
尔克	-13962
▁强风	-13963
▁but	-13964
省长	-13965
▁射箭	-13966
▁租用	-13967
▁mov	-13968
▁tem	-13969
▁之役	-13970
▁改以	-13971
▁艾米	-13972
▁第三位	-13973
▁1100	-13974
▁后世	-13975
▁患上	-13976
勒冈	-13977
收录	-13978
检查	-13979
▁力士	-13980
▁国庆	-13981
▁大溪	-13982
▁水师	-13983
▁威斯康	-13984
▁胡志明	-13985
▁1853	-13986
▁news	-13987
▁publ	-13988
alk	-13989
▁其下	-13990
▁唐人	-13991
▁审核	-13992
▁西非	-13993
▁证人	-13994
▁一栋	-13995
▁世宗	-13996
▁五角	-13997
▁全剧	-13998
▁打印	-13999
▁活力	-14000
▁fi	-14001
▁加德	-14002
▁解读	-14003
▁起用	-14004
▁面具	-14005
▁竞争力	-14006
▁两届	-14007
▁保禄	-14008
▁固有	-14009
▁大胆	-14010
▁脸书	-14011
▁螺科	-14012
▁阮朝	-14013
▁韦恩	-14014
▁256	-14015
▁游泳池	-14016
▁哈佛大学	-14017
锦标	-14018
▁复活	-14019
▁模范	-14020
▁众议员	-14021
▁动力学	-14022
▁执行长	-14023
▁则以	-14024
▁十名	-14025
▁战前	-14026
▁自小	-14027
▁视作	-14028
▁负载	-14029
▁门户	-14030
▁麦卡	-14031
数量	-14032
▁两张	-14033
▁之变	-14034
▁传言	-14035
▁败给	-14036
▁cur	-14037
sch	-14038
▁ah	-14039
▁业界	-14040
▁佛山	-14041
▁权限	-14042
▁汉中	-14043
意义	-14044
▁勇气	-14045
▁时机	-14046
▁汉斯	-14047
▁广电	-14048
▁托利	-14049
▁设想	-14050
▁高手	-14051
▁153	-14052
▁中山路	-14053
▁取而	-14054
▁台语	-14055
▁海港	-14056
▁金马奖	-14057
ville	-14058
▁内置	-14059
▁南安	-14060
▁季军	-14061
▁尔州	-14062
▁排出	-14063
▁旅长	-14064
▁浪费	-14065
▁mot	-14066
▁office	-14067
unt	-14068
▁功夫	-14069
▁特工	-14070
▁省立	-14071
▁黄埔	-14072
▁一曲	-14073
▁加剧	-14074
▁山田	-14075
▁有害	-14076
▁试点	-14077
▁赴美	-14078
▁风云	-14079
▁151	-14080
▁另一名	-14081
▁密苏里	-14082
价值	-14083
情况	-14084
▁aa	-14085
▁上司	-14086
▁声援	-14087
▁徽章	-14088
▁海道	-14089
▁童话	-14090
▁纵贯	-14091
▁自旋	-14092
▁起事	-14093
▁晋升为	-14094
▁江泽民	-14095
▁国民大会	-14096
▁业者	-14097
▁推移	-14098
▁凯瑟琳	-14099
▁爱荷华州	-14100
▁中国工程院	-14101
▁三日	-14102
▁阴茎	-14103
ther	-14104
▁第一书记	-14105
儿童	-14106
▁改版	-14107
▁转战	-14108
▁送回	-14109
ella	-14110
▁斯德哥	-14111
伯格	-14112
▁安纳	-14113
▁海报	-14114
▁转世	-14115
之下	-14116
线性	-14117
▁中举	-14118
▁柔佛	-14119
▁科威特	-14120
▁取而代之	-14121
▁周一	-14122
▁看似	-14123
▁福田	-14124
▁1858	-14125
▁1859	-14126
学术	-14127
▁严肃	-14128
▁低温	-14129
▁有毒	-14130
斗争	-14131
▁之位	-14132
▁字面	-14133
▁审讯	-14134
▁手臂	-14135
▁王建	-14136
参谋长	-14137
▁三角洲	-14138
▁打击率	-14139
▁物理系	-14140
吉思	-14141
▁假名	-14142
▁名次	-14143
▁港岛	-14144
▁西周	-14145
▁sbs	-14146
▁费尔德	-14147
▁布尔什维克	-14148
延长	-14149
德萨	-14150
根据	-14151
▁中段	-14152
▁史丹	-14153
▁天宝	-14154
▁落地	-14155
▁翻译成	-14156
▁斯德哥尔摩	-14157
显示	-14158
▁位处	-14159
▁其妻	-14160
▁文凭	-14161
▁毛里	-14162
▁趣	-14163
▁交会	-14164
▁反恐	-14165
▁塑胶	-14166
▁李德	-14167
▁tor	-14168
▁国防部	-14169
耶尔	-14170
▁伊势	-14171
▁入伍	-14172
▁准许	-14173
▁北北	-14174
▁桃花	-14175
▁水位	-14176
▁水星	-14177
▁精度	-14178
▁绿化	-14179
▁花样	-14180
▁高阶	-14181
▁143	-14182
▁公安局	-14183
▁萨尔瓦	-14184
▁company	-14185
▁可可	-14186
▁索引	-14187
▁中药	-14188
▁关中	-14189
▁兵库	-14190
▁迎来	-14191
▁伯明翰	-14192
▁nasa	-14193
▁中央研究院	-14194
ny	-14195
流域	-14196
▁汉密	-14197
▁进党	-14198
▁大幅度	-14199
▁基底	-14200
▁整顿	-14201
就是说	-14202
▁新泽西	-14203
ester	-14204
▁real	-14205
▁mb	-14206
▁一流	-14207
▁747	-14208
▁苏黎世	-14209
▁1857	-14210
▁副司令员	-14211
▁az	-14212
▁北斗	-14213
▁日夜	-14214
▁林下	-14215
▁积累	-14216
▁sig	-14217
▁中英	-14218
▁出征	-14219
▁创设	-14220
▁外出	-14221
▁常州	-14222
▁邻国	-14223
▁配角	-14224
▁420	-14225
▁中国国家	-14226
▁息	-14227
汉字	-14228
▁忽视	-14229
▁蒂斯	-14230
▁西尔	-14231
▁阿方	-14232
▁211	-14233
▁225	-14234
▁刺客	-14235
▁发作	-14236
▁整车	-14237
▁预选赛	-14238
▁just	-14239
事故	-14240
游行	-14241
▁25%	-14242
▁云林县	-14243
▁蕾	-14244
主事	-14245
▁山中	-14246
▁新一	-14247
▁私营	-14248
▁突发	-14249
▁美学	-14250
▁ham	-14251
▁名人堂	-14252
▁哥伦布	-14253
▁一丁	-14254
▁各处	-14255
▁廉价	-14256
▁想起	-14257
▁新高	-14258
▁泛指	-14259
▁ret	-14260
▁二十八年	-14261
▁打倒	-14262
▁弗朗索瓦	-14263
普顿	-14264
▁两类	-14265
▁尽快	-14266
▁麦迪	-14267
▁其后在	-14268
▁不准	-14269
▁东端	-14270
▁充电	-14271
▁早前	-14272
▁轮胎	-14273
▁阿瓦	-14274
▁第一所	-14275
▁east	-14276
▁人民共和国	-14277
ura	-14278
▁套件	-14279
▁第二批	-14280
▁救国	-14281
▁汉书	-14282
▁高大	-14283
idge	-14284
▁债券	-14285
▁新南	-14286
▁沉重	-14287
▁新华社	-14288
▁手续	-14289
▁短短	-14290
▁若瑟	-14291
▁mbc	-14292
ja	-14293
仪式	-14294
▁刷新	-14295
▁属名	-14296
▁日及	-14297
▁珠宝	-14298
▁登堡	-14299
▁宝贝	-14300
▁日方	-14301
▁苗族	-14302
▁大师赛	-14303
▁总指挥	-14304
▁一口	-14305
▁神宗	-14306
▁豪斯	-14307
▁静冈	-14308
▁驾崩	-14309
▁四十二年	-14310
▁争执	-14311
▁幽灵	-14312
▁流出	-14313
▁百馀	-14314
▁钱币	-14315
▁值得一提的是	-14316
▁大仙	-14317
▁蒙哥	-14318
▁gro	-14319
▁卑斯山	-14320
▁海南省	-14321
▁生产总值	-14322
阿尔	-14323
▁之作	-14324
▁向南	-14325
▁景泰	-14326
▁阿兰	-14327
▁roy	-14328
▁朵	-14329
庆祝	-14330
▁初选	-14331
▁毫不	-14332
▁十字军	-14333
成果	-14334
足协	-14335
▁星团	-14336
▁环线	-14337
▁米德	-14338
▁贵阳	-14339
▁间隔	-14340
▁坐落于	-14341
▁守门员	-14342
▁希腊人	-14343
▁1854	-14344
▁chin	-14345
▁出线	-14346
▁延期	-14347
▁鲤齿	-14348
▁api	-14349
▁pp	-14350
▁书画	-14351
▁到场	-14352
▁千克	-14353
▁无名	-14354
▁沉没	-14355
▁阻力	-14356
▁麦当	-14357
▁american	-14358
▁新月	-14359
▁日向	-14360
▁海防	-14361
▁宗派	-14362
▁川崎	-14363
▁蔡依林	-14364
政治协商会议	-14365
超过	-14366
▁售价	-14367
▁所着	-14368
▁熟知	-14369
▁网际	-14370
ball	-14371
▁三十二年	-14372
▁中国人民政治协商会议	-14373
▁艇	-14374
ush	-14375
▁列举	-14376
▁将此	-14377
▁平地	-14378
▁平常	-14379
▁感知	-14380
▁追随	-14381
▁骨头	-14382
▁阿尔伯特	-14383
行政	-14384
▁之神	-14385
▁访谈	-14386
▁girls	-14387
战车	-14388
▁东正	-14389
▁出血	-14390
▁口味	-14391
▁所指	-14392
▁法治	-14393
▁肺炎	-14394
▁成吉思	-14395
▁仙人	-14396
▁工业化	-14397
▁枢密院	-14398
出来	-14399
▁人道	-14400
▁写信	-14401
▁教务	-14402
▁燕京	-14403
▁科下	-14404
▁走上	-14405
▁杰克森	-14406
塔尔	-14407
▁以作	-14408
▁企鹅	-14409
▁冯玉	-14410
▁卫队	-14411
▁和歌	-14412
▁显现	-14413
▁定义为	-14414
▁歌剧院	-14415
fe	-14416
朗德	-14417
▁全资	-14418
▁孩童	-14419
▁泰尔	-14420
▁深深	-14421
▁着陆	-14422
▁阿利	-14423
▁amd	-14424
▁常住人口	-14425
湾区	-14426
▁可知	-14427
▁城外	-14428
▁观察到	-14429
▁一女	-14430
▁一贯	-14431
▁两周	-14432
▁姊姊	-14433
▁改正	-14434
▁极力	-14435
▁新政府	-14436
乔治	-14437
交换	-14438
▁员外	-14439
▁工农	-14440
▁插画	-14441
▁水质	-14442
▁235	-14443
▁仅为	-14444
▁员会	-14445
▁非官	-14446
▁兴奋	-14447
▁双手	-14448
▁同乡	-14449
▁夫斯	-14450
▁浮雕	-14451
▁片头	-14452
▁采矿	-14453
▁青藏	-14454
▁河岸	-14455
▁贝勒	-14456
▁通货	-14457
▁fer	-14458
▁副校长	-14459
▁军校	-14460
▁均衡	-14461
▁平凡	-14462
▁cct	-14463
▁form	-14464
交流	-14465
▁卡纳	-14466
▁相距	-14467
▁遇害	-14468
检察院	-14469
▁squ	-14470
▁号班机	-14471
▁正方形	-14472
▁泰米尔	-14473
▁二十七年	-14474
▁兵工	-14475
▁家具	-14476
▁并会	-14477
▁文法	-14478
▁校名	-14479
▁汇报	-14480
▁遍布	-14481
▁外国语	-14482
▁康熙帝	-14483
宣传	-14484
▁仲裁	-14485
▁家康	-14486
▁恶意	-14487
▁惨重	-14488
▁电厂	-14489
▁威斯特	-14490
▁切尔尼戈夫	-14491
组长	-14492
选手	-14493
▁中枢	-14494
▁核准	-14495
▁棋手	-14496
▁震惊	-14497
▁850	-14498
ye	-14499
公社	-14500
▁城关	-14501
▁半自动	-14502
▁承袭	-14503
▁州政府	-14504
▁工商管理	-14505
尔诺	-14506
▁乙酸	-14507
ning	-14508
共产	-14509
山东	-14510
鲁克	-14511
▁意即	-14512
▁数以	-14513
▁村级	-14514
▁论证	-14515
▁167	-14516
▁小说家	-14517
▁阿拉斯加州	-14518
明帝	-14519
格纳	-14520
▁加藤	-14521
▁并担	-14522
▁施塔	-14523
▁歌仔	-14524
▁船队	-14525
▁母公司	-14526
▁克里斯托	-14527
菲亚	-14528
▁乔丹	-14529
▁从小	-14530
▁击沉	-14531
▁折返	-14532
▁稍后	-14533
▁踏入	-14534
▁旋即	-14535
▁日为	-14536
▁水生	-14537
▁献给	-14538
▁落选	-14539
▁上野	-14540
▁停刊	-14541
▁惨败	-14542
▁被害	-14543
▁装修	-14544
▁赛后	-14545
▁gnu	-14546
▁jon	-14547
▁成吉思汗	-14548
▁共设	-14549
▁围墙	-14550
▁警戒	-14551
叠纪	-14552
尔州	-14553
▁初代	-14554
▁协约	-14555
▁微小	-14556
▁枪托	-14557
洛杉矶	-14558
▁亚特兰大	-14559
▁上杉	-14560
▁夏洛	-14561
▁或译	-14562
▁舒适	-14563
▁鹿儿	-14564
▁克利夫	-14565
市委	-14566
蒂冈	-14567
▁兼职	-14568
▁另类	-14569
▁203	-14570
▁亚历山	-14571
▁年轻人	-14572
▁纽约时报	-14573
▁旅顺	-14574
▁邪恶	-14575
▁丹尼尔	-14576
▁instit	-14577
▁餐饮	-14578
一致	-14579
▁字型	-14580
▁朱德	-14581
▁污水	-14582
▁sup	-14583
网站	-14584
▁护士	-14585
▁lar	-14586
▁andre	-14587
▁吉米	-14588
▁超音	-14589
▁区是	-14590
▁搜集	-14591
▁整流	-14592
▁游玩	-14593
▁用水	-14594
▁等候	-14595
▁不像	-14596
▁世子	-14597
▁吞吐	-14598
▁特效	-14599
▁石器	-14600
▁野心	-14601
▁顶峰	-14602
都拉斯	-14603
▁仅限	-14604
▁减低	-14605
▁半个	-14606
▁安庆	-14607
▁应为	-14608
▁蓝本	-14609
▁三十六	-14610
仁宗	-14611
歌曲	-14612
▁新安	-14613
▁深厚	-14614
▁立下	-14615
▁nov	-14616
▁斯蒂芬	-14617
▁孟加拉国	-14618
▁中央电视台	-14619
ui	-14620
▁商讨	-14621
▁文史	-14622
▁本属	-14623
▁构思	-14624
▁农产品	-14625
▁坚固	-14626
▁容积	-14627
▁巴巴	-14628
▁漏洞	-14629
▁相容	-14630
▁莱恩	-14631
▁里尼	-14632
▁龙科	-14633
尔尼	-14634
▁共分	-14635
▁参军	-14636
▁大本	-14637
▁年少	-14638
▁引人	-14639
▁照射	-14640
▁男生	-14641
▁右侍郎	-14642
▁blue	-14643
▁camp	-14644
▁脏	-14645
▁下达	-14646
▁传授	-14647
▁少有	-14648
▁牵连	-14649
▁庄隶属	-14650
▁梵蒂冈	-14651
▁续作	-14652
▁震动	-14653
▁梁振英	-14654
▁天山	-14655
▁民法	-14656
▁淮河	-14657
▁连胜	-14658
纪委	-14659
▁书信	-14660
▁时称	-14661
▁矿产	-14662
科大学	-14663
▁氧化物	-14664
▁第三部	-14665
▁gh	-14666
▁两间	-14667
▁分站	-14668
▁太古	-14669
▁晋身	-14670
▁科拉	-14671
▁调度	-14672
▁nav	-14673
▁多元化	-14674
▁李鸿章	-14675
▁西安市	-14676
▁伊莎	-14677
▁剂量	-14678
▁样品	-14679
▁水下	-14680
▁身材	-14681
▁违规	-14682
▁大马士	-14683
▁普通话	-14684
▁第二届	-14685
▁券	-14686
元素	-14687
的海	-14688
▁发病	-14689
▁融资	-14690
▁匹配	-14691
▁庆长	-14692
▁文库	-14693
▁祝福	-14694
▁多年生	-14695
▁production	-14696
全书	-14697
▁精密	-14698
公主	-14699
必须	-14700
▁换成	-14701
▁攻城	-14702
▁架空	-14703
▁沃特	-14704
▁chem	-14705
德森	-14706
asc	-14707
▁失控	-14708
▁德比	-14709
▁百济	-14710
▁行事	-14711
▁努尔哈	-14712
▁美国政府	-14713
诺威	-14714
▁本影	-14715
▁长约	-14716
▁lis	-14717
▁全明星	-14718
▁推崇	-14719
▁脚本	-14720
▁上下行	-14721
li	-14722
▁辈	-14723
▁xp	-14724
▁修饰	-14725
▁四条	-14726
▁帕斯	-14727
▁录得	-14728
▁颁授	-14729
▁who	-14730
▁商业区	-14731
▁车辆段	-14732
ative	-14733
▁行政区域	-14734
组成	-14735
▁试剂	-14736
▁课题	-14737
▁波罗的海	-14738
si	-14739
yr	-14740
布里	-14741
▁收养	-14742
▁日元	-14743
▁时钟	-14744
▁遥远	-14745
▁阿诺	-14746
▁音效	-14747
▁氨基酸	-14748
▁袖	-14749
主场	-14750
▁单个	-14751
▁朝政	-14752
▁黑海	-14753
ival	-14754
▁不适	-14755
▁民歌	-14756
▁重整	-14757
▁214	-14758
▁301	-14759
▁380	-14760
▁外行星	-14761
▁自动车	-14762
医生	-14763
常侍	-14764
▁两院	-14765
▁变异	-14766
▁抑郁	-14767
▁负于	-14768
▁173	-14769
▁lee	-14770
▁佔据	-14771
▁北门	-14772
▁新版	-14773
▁曾于	-14774
不可	-14775
▁万里	-14776
▁住持	-14777
▁刘少	-14778
▁各县	-14779
▁君王	-14780
▁国联	-14781
▁深造	-14782
▁贯通	-14783
▁也就是说	-14784
▁dl	-14785
▁为国	-14786
▁关怀	-14787
▁求学	-14788
▁这套	-14789
▁进食	-14790
▁连通	-14791
▁batt	-14792
▁分入	-14793
▁护航	-14794
▁枪机	-14795
▁伏尔加	-14796
▁大赏	-14797
▁词曲	-14798
▁部将	-14799
▁157	-14800
▁208	-14801
▁心脏病	-14802
red	-14803
▁堆积	-14804
▁樱花	-14805
▁永恒	-14806
▁吸引力	-14807
▁之事	-14808
▁化名	-14809
▁衡阳	-14810
▁hum	-14811
▁古斯塔夫	-14812
年间	-14813
▁小吃	-14814
▁插曲	-14815
▁祖师	-14816
▁郑国	-14817
▁sant	-14818
▁au	-14819
▁双子	-14820
▁而行	-14821
▁词典	-14822
▁川家康	-14823
▁片尾曲	-14824
奥会	-14825
▁侯爵	-14826
▁数月	-14827
▁米歇尔	-14828
▁kong	-14829
罗河	-14830
ker	-14831
▁之女	-14832
▁使馆	-14833
▁征讨	-14834
▁毁坏	-14835
▁苏里	-14836
办公厅	-14837
▁163	-14838
▁178	-14839
▁秘书处	-14840
▁世界遗产	-14841
▁乙醇	-14842
▁伪装	-14843
▁台东	-14844
▁服从	-14845
▁正中	-14846
▁被动	-14847
▁home	-14848
▁帅	-14849
▁政坛	-14850
▁沙巴	-14851
▁瓦夫	-14852
▁读取	-14853
▁距今	-14854
▁340	-14855
▁法拉利	-14856
▁完备	-14857
生子	-14858
辐射	-14859
101	-14860
▁助教	-14861
▁南沙	-14862
▁尼拉	-14863
▁拍卖	-14864
▁老大	-14865
▁202	-14866
▁拉丁字母	-14867
▁党团	-14868
▁凝聚	-14869
▁露西	-14870
▁体育会	-14871
yo	-14872
兹堡	-14873
▁东帝	-14874
▁中区	-14875
▁义的	-14876
▁存取	-14877
▁漫威	-14878
▁转录	-14879
▁侦察机	-14880
▁创伤	-14881
▁犯下	-14882
▁起步	-14883
▁麦金	-14884
▁平均气温	-14885
恩省	-14886
▁这对	-14887
尔巴	-14888
▁国泰	-14889
▁胸部	-14890
▁轰动	-14891
▁二二八	-14892
▁佔辖区	-14893
▁刚好	-14894
▁开花	-14895
▁抢劫	-14896
▁栏目	-14897
▁班机	-14898
▁自助	-14899
▁至正	-14900
▁师范大学	-14901
001	-14902
▁印有	-14903
▁商用	-14904
▁婚后	-14905
▁成书	-14906
▁ign	-14907
▁cast	-14908
多德	-14909
网络	-14910
▁东道	-14911
▁千人	-14912
▁基座	-14913
▁人民日报	-14914
▁安大略省	-14915
▁network	-14916
ua	-14917
▁牲	-14918
兄弟	-14919
▁中古	-14920
▁判刑	-14921
▁每人	-14922
▁车款	-14923
▁伊万诺	-14924
▁推论	-14925
▁直立	-14926
play	-14927
▁soc	-14928
▁汉密尔顿	-14929
▁前卫	-14930
▁动荡	-14931
▁小熊	-14932
▁归来	-14933
▁茶叶	-14934
▁冯玉祥	-14935
▁古兰经	-14936
▁新干线	-14937
定义	-14938
州区	-14939
▁华尔	-14940
▁市郊	-14941
▁song	-14942
旺斯	-14943
▁党人	-14944
▁其弟	-14945
▁定型	-14946
▁爱因	-14947
▁王宫	-14948
▁金城	-14949
▁hong	-14950
ih	-14951
▁山路	-14952
▁引述	-14953
▁瓜分	-14954
▁田纳	-14955
剧院	-14956
bor	-14957
ody	-14958
▁就会	-14959
▁特首	-14960
▁轮流	-14961
▁坛	-14962
els	-14963
▁佛法	-14964
▁华视	-14965
▁普朗	-14966
▁高棉	-14967
▁tai	-14968
▁大主教	-14969
▁影评人	-14970
▁西元前	-14971
▁传道	-14972
▁坑底	-14973
▁居士	-14974
▁总面	-14975
▁柏拉	-14976
▁激励	-14977
▁队史	-14978
▁dos	-14979
▁mal	-14980
▁哈里斯	-14981
▁1856	-14982
剧场	-14983
▁其所	-14984
▁写法	-14985
▁斐济	-14986
▁童军	-14987
▁能否	-14988
▁要么	-14989
▁中国队	-14990
▁混合物	-14991
▁克勒	-14992
▁青森	-14993
▁天文学	-14994
▁1851	-14995
▁一圈	-14996
▁却是	-14997
▁沙河	-14998
▁锁定	-14999
pc	-15000
权利	-15001
▁大甲	-15002
▁自达	-15003
▁这名	-15004
▁雷射	-15005
▁far	-15006
▁可靠性	-15007
▁麻省理工	-15008
▁个区	-15009
▁内燃	-15010
▁奉祀	-15011
▁少见	-15012
▁核糖	-15013
▁衡量	-15014
▁领兵	-15015
ello	-15016
干达	-15017
贡献	-15018
▁之久	-15019
▁关岛	-15020
▁墓碑	-15021
巴马州	-15022
▁明尼苏	-15023
▁栖息地	-15024
百万	-15025
里希	-15026
▁二维	-15027
▁急剧	-15028
▁性命	-15029
▁215	-15030
▁世纪时	-15031
▁soft	-15032
▁great	-15033
多芬	-15034
▁卡河	-15035
▁卡洛	-15036
▁罗宾	-15037
▁jul	-15038
▁会产生	-15039
▁政治局	-15040
▁cour	-15041
损失	-15042
达斯	-15043
▁侍卫	-15044
▁推导	-15045
▁深化	-15046
▁草属	-15047
▁149	-15048
▁评论员	-15049
玛斯	-15050
▁全州	-15051
▁县令	-15052
▁塞斯	-15053
▁官网	-15054
▁山脊	-15055
▁建康	-15056
▁水稻	-15057
▁海里	-15058
▁热量	-15059
▁牧区	-15060
▁置于	-15061
▁英勇	-15062
▁长老	-15063
▁当选为	-15064
▁知识分子	-15065
▁年青	-15066
▁该处	-15067
▁轨迹	-15068
▁代言人	-15069
体制	-15070
▁一街	-15071
▁发文	-15072
▁取材	-15073
▁归入	-15074
▁此为	-15075
▁火药	-15076
▁营销	-15077
▁可怕	-15078
▁斯拉	-15079
▁维勒	-15080
▁162	-15081
▁哥特式	-15082
尼基	-15083
▁庭院	-15084
▁月面	-15085
▁砂拉	-15086
▁禁区	-15087
▁财物	-15088
▁爱丽丝	-15089
▁isbn	-15090
▁上古	-15091
▁拼写	-15092
▁湘潭	-15093
▁name	-15094
▁elect	-15095
作物	-15096
▁om	-15097
▁仙台	-15098
▁依附	-15099
▁左边	-15100
▁并认	-15101
agon	-15102
▁大马士革	-15103
▁categ	-15104
▁宙	-15105
投票	-15106
里尼	-15107
▁亲缘	-15108
▁塑像	-15109
▁姿势	-15110
▁宣判	-15111
▁退回	-15112
▁避开	-15113
▁三十六年	-15114
不过	-15115
记者	-15116
证明	-15117
▁两颗	-15118
▁人来	-15119
▁唐山	-15120
▁噶尔	-15121
▁诏书	-15122
▁480	-15123
▁youn	-15124
ko	-15125
行为	-15126
▁重金	-15127
▁量产	-15128
▁防火	-15129
mann	-15130
▁cos	-15131
▁band	-15132
▁之歌	-15133
▁互通	-15134
▁儒学	-15135
▁工事	-15136
▁每逢	-15137
▁税务	-15138
▁都柏林	-15139
▁辰	-15140
▁图斯	-15141
▁外壳	-15142
▁急救	-15143
▁握把	-15144
▁正交	-15145
▁那年	-15146
▁1847	-15147
迪尔	-15148
▁选入	-15149
▁公交车	-15150
▁博士生	-15151
▁邦政府	-15152
▁音乐人	-15153
▁association	-15154
提高	-15155
▁刘氏	-15156
▁微波	-15157
▁斯皮	-15158
▁留言	-15159
▁紧邻	-15160
▁骨干	-15161
▁爱因斯坦	-15162
▁足球联赛	-15163
大众	-15164
蒂斯	-15165
▁中县	-15166
▁周遭	-15167
▁外祖	-15168
▁武则	-15169
▁碑文	-15170
▁道士	-15171
▁176	-15172
▁星期二	-15173
▁耶维奇	-15174
▁马来亚	-15175
▁尊称	-15176
学系	-15177
▁仍为	-15178
▁原籍	-15179
▁增建	-15180
▁开罗	-15181
▁这点	-15182
▁leg	-15183
▁1855	-15184
▁普罗旺斯	-15185
▁老城	-15186
▁hal	-15187
▁ut	-15188
▁两架	-15189
▁为生	-15190
▁可谓	-15191
▁果然	-15192
▁渡边	-15193
▁牙买	-15194
▁黑帮	-15195
▁候补委员	-15196
▁德克萨斯州	-15197
▁不成	-15198
▁六角	-15199
▁开心	-15200
▁闽南语	-15201
象棋	-15202
▁bb	-15203
▁变身	-15204
▁变革	-15205
▁故而	-15206
▁精品	-15207
▁编排	-15208
▁藏品	-15209
▁鉴定	-15210
▁青州	-15211
▁领取	-15212
▁其范围	-15213
▁努斯	-15214
▁承办	-15215
▁救助	-15216
▁港督	-15217
▁白话	-15218
▁足利	-15219
▁防治	-15220
▁高祖	-15221
▁bal	-15222
▁天顺	-15223
▁拉尼	-15224
▁法老	-15225
▁环礁	-15226
▁马赛	-15227
▁麦可	-15228
南道	-15229
▁一卷	-15230
▁兰德	-15231
▁拿出	-15232
▁李自	-15233
▁索伦	-15234
▁mill	-15235
▁联邦政府	-15236
▁二元	-15237
▁散布	-15238
▁机长	-15239
▁该项	-15240
▁门将	-15241
▁飞马	-15242
▁159	-15243
▁itunes	-15244
方法	-15245
▁人则	-15246
▁取出	-15247
▁太常	-15248
▁振兴	-15249
▁牧场	-15250
▁东正教	-15251
▁主炮	-15252
▁班禅	-15253
▁表达式	-15254
▁常务委员	-15255
书店	-15256
连任	-15257
▁有理	-15258
▁漫长	-15259
▁鹿港	-15260
牧区	-15261
蒙特	-15262
院校	-15263
fer	-15264
▁供水	-15265
▁县立	-15266
▁听闻	-15267
▁瑞安	-15268
▁到期	-15269
▁勃兰	-15270
▁明成	-15271
▁流感	-15272
▁航道	-15273
▁魔女	-15274
ocal	-15275
▁第四季	-15276
▁中国社会	-15277
▁圣彼得堡	-15278
米兰	-15279
▁李维	-15280
▁棋子	-15281
▁doc	-15282
▁多媒体	-15283
▁river	-15284
fr	-15285
拳道	-15286
▁ll	-15287
▁一手	-15288
▁东平	-15289
▁南县	-15290
▁哈斯	-15291
▁炸药	-15292
▁若望	-15293
▁落差	-15294
▁该馆	-15295
▁静态	-15296
zz	-15297
▁hs	-15298
▁初时	-15299
▁唐纳	-15300
▁报复	-15301
▁马达	-15302
▁标准化	-15303
gar	-15304
▁京沪	-15305
▁削减	-15306
▁天神	-15307
▁海边	-15308
▁秦始	-15309
▁赌博	-15310
▁nbc	-15311
▁副省长	-15312
▁pres	-15313
▁green	-15314
岛式	-15315
▁尤里	-15316
▁市面	-15317
▁并从	-15318
▁异性	-15319
▁德鲁	-15320
▁本舰	-15321
▁演艺圈	-15322
▁阿方索	-15323
▁gala	-15324
▁onlyinclude	-15325
0%	-15326
▁下分	-15327
▁下部	-15328
▁两千	-15329
▁国徽	-15330
▁电离	-15331
▁近卫	-15332
萨克森	-15333
▁hor	-15334
▁rap	-15335
▁达尔文	-15336
▁vict	-15337
干部	-15338
▁三藏	-15339
▁佩戴	-15340
▁包头	-15341
▁可视	-15342
▁我国	-15343
▁揭示	-15344
▁转往	-15345
▁金银	-15346
▁von	-15347
▁辅佐	-15348
▁过量	-15349
▁市政厅	-15350
▁hist	-15351
▁二度	-15352
▁天龙	-15353
▁未必	-15354
▁瓷器	-15355
▁联同	-15356
▁食性	-15357
▁两广	-15358
▁剧烈	-15359
▁年版	-15360
▁授课	-15361
▁石勒苏	-15362
▁土木工程	-15363
▁会堂	-15364
▁思潮	-15365
▁游览	-15366
▁考验	-15367
▁介乎	-15368
▁液态	-15369
▁ova	-15370
▁二十二	-15371
▁克林顿	-15372
▁展商	-15373
▁沙湾	-15374
▁益格	-15375
▁142	-15376
▁国务卿	-15377
▁阿道夫	-15378
▁集中营	-15379
▁post	-15380
▁东尼	-15381
▁中游	-15382
▁伽利	-15383
▁塔瓦	-15384
▁大田	-15385
▁如来	-15386
▁相望	-15387
▁秦王	-15388
▁how	-15389
识别	-15390
▁一头	-15391
▁不来	-15392
▁之路	-15393
▁兵马	-15394
▁持久	-15395
▁撰文	-15396
▁车路	-15397
▁意大利语	-15398
明显	-15399
▁乙未	-15400
▁停用	-15401
▁在野	-15402
▁客座	-15403
▁李家	-15404
▁科长	-15405
加州	-15406
逐渐	-15407
ila	-15408
▁万物	-15409
▁前途	-15410
▁夏侯	-15411
▁忠诚	-15412
▁悲伤	-15413
▁落叶	-15414
▁避孕	-15415
▁馆长	-15416
▁syn	-15417
▁三司	-15418
▁散馆	-15419
▁骑师	-15420
▁inv	-15421
▁主任委员	-15422
命名	-15423
经常	-15424
马场	-15425
▁大满	-15426
▁成效	-15427
▁亚述	-15428
▁德福	-15429
▁普选	-15430
▁查看	-15431
▁琉古	-15432
▁立宪	-15433
▁谈论	-15434
▁造就	-15435
▁que	-15436
▁史学家	-15437
▁装甲师	-15438
▁女巫	-15439
▁室外	-15440
▁张伯	-15441
▁想象	-15442
▁署理	-15443
▁category	-15444
级别	-15445
顾问	-15446
▁共振	-15447
▁巡防	-15448
▁斯山	-15449
▁春日	-15450
▁汉文	-15451
▁法尔	-15452
▁花生	-15453
支持	-15454
▁天赋	-15455
▁摄像	-15456
▁相处	-15457
▁tou	-15458
平面	-15459
▁那种	-15460
urch	-15461
▁370	-15462
▁town	-15463
▁white	-15464
团队	-15465
杰明	-15466
▁方位	-15467
▁车上	-15468
▁遗留	-15469
▁新闻台	-15470
▁漠	-15471
森特	-15472
ipp	-15473
use	-15474
▁从前	-15475
▁例行	-15476
▁别的	-15477
▁商圈	-15478
▁奋斗	-15479
▁改写	-15480
▁时则	-15481
▁正殿	-15482
▁贝里	-15483
特尔	-15484
▁中州	-15485
▁丹佛	-15486
▁五次	-15487
▁急速	-15488
▁恰好	-15489
▁折叠	-15490
▁有罪	-15491
▁本体	-15492
▁理学	-15493
▁美利	-15494
▁阿伦	-15495
▁183	-15496
▁四十年	-15497
vid	-15498
▁葛拉	-15499
▁面貌	-15500
▁15%	-15501
▁该游戏	-15502
my	-15503
务部	-15504
▁gb	-15505
▁卡卡	-15506
▁带着	-15507
▁无奈	-15508
▁死因	-15509
▁赞同	-15510
▁劳动力	-15511
▁night	-15512
结束	-15513
茅斯	-15514
▁城北	-15515
▁太监	-15516
▁平滑	-15517
▁行经	-15518
▁车头	-15519
▁张学良	-15520
▁第四代	-15521
蝶属	-15522
▁制止	-15523
▁放到	-15524
▁标签	-15525
▁校尉	-15526
▁神灵	-15527
▁稀有	-15528
▁自信	-15529
▁魔王	-15530
▁鲜卑	-15531
▁艾哈迈	-15532
树林	-15533
浩特	-15534
辖市	-15535
▁光芒	-15536
▁同居	-15537
▁波及	-15538
▁门票	-15539
▁集镇	-15540
▁花岗岩	-15541
▁常务委员会	-15542
威胁	-15543
▁守军	-15544
▁层级	-15545
▁广受	-15546
▁折射	-15547
▁二十三	-15548
▁heart	-15549
▁布袋	-15550
▁编年	-15551
▁志愿者	-15552
▁jean	-15553
▁三河	-15554
▁two	-15555
▁英国国会	-15556
纳哥	-15557
陵兰	-15558
gbt	-15559
▁水解	-15560
▁纷争	-15561
▁象棋	-15562
▁陕甘	-15563
▁香料	-15564
▁上旬	-15565
▁入海	-15566
▁新政	-15567
▁施瓦	-15568
▁段落	-15569
▁气味	-15570
▁soci	-15571
▁sv	-15572
▁万份	-15573
▁克隆	-15574
▁兰科	-15575
▁歌声	-15576
▁肯特	-15577
▁铜像	-15578
▁鱼目	-15579
▁霞	-15580
亚利	-15581
达尼	-15582
▁珀斯	-15583
▁生病	-15584
▁音响	-15585
▁中国工	-15586
▁乌干达	-15587
▁南南西	-15588
▁而闻名	-15589
▁高中生	-15590
文物	-15591
▁口头	-15592
▁辨识	-15593
▁die	-15594
▁伊比	-15595
▁兴化	-15596
▁墓志	-15597
▁tbs	-15598
比锡	-15599
▁后卫	-15600
▁司法部	-15601
▁公馆	-15602
▁岛的	-15603
▁行至	-15604
▁中书省	-15605
▁秦始皇	-15606
▁彦	-15607
意识	-15608
▁太多	-15609
▁封印	-15610
▁小子	-15611
▁居多	-15612
▁开皇	-15613
▁调动	-15614
▁谷地	-15615
▁主题曲	-15616
▁bank	-15617
▁机车车辆	-15618
波器	-15619
▁上学	-15620
▁乐章	-15621
▁写入	-15622
▁型式	-15623
▁大城	-15624
▁普雷	-15625
▁田家	-15626
▁胜负	-15627
▁206	-15628
▁总冠军	-15629
▁服务业	-15630
代数	-15631
▁古今	-15632
▁家村	-15633
▁本市	-15634
▁正门	-15635
▁牛头	-15636
▁伊斯坦	-15637
ws	-15638
▁为数	-15639
▁县道	-15640
▁最南	-15641
▁朝圣	-15642
▁国际性	-15643
▁研究会	-15644
▁1852	-15645
▁共产国际	-15646
▁弗拉基米尔	-15647
德勒	-15648
▁ai	-15649
▁一笔	-15650
▁府城	-15651
▁次序	-15652
▁此片	-15653
▁红海	-15654
▁维耶	-15655
▁过境	-15656
▁风气	-15657
▁下一代	-15658
▁旅游景点	-15659
通车	-15660
▁场上	-15661
▁方济	-15662
▁颈部	-15663
文组织	-15664
gram	-15665
▁ros	-15666
▁染色体	-15667
平方	-15668
▁三路	-15669
▁停运	-15670
▁转写	-15671
▁连环	-15672
▁207	-15673
▁骑常侍	-15674
▁td	-15675
▁以求	-15676
▁增添	-15677
▁报春	-15678
▁李国	-15679
▁民权	-15680
▁禅师	-15681
▁通俗	-15682
▁阶梯	-15683
莱美奖	-15684
▁汉诺威	-15685
▁大专	-15686
▁建校	-15687
▁性交	-15688
▁捕食	-15689
▁花序	-15690
▁西九龙	-15691
流量	-15692
▁1%	-15693
▁专着	-15694
▁交接	-15695
▁宾馆	-15696
▁斯威	-15697
▁桥头	-15698
▁潜入	-15699
▁电场	-15700
▁量化	-15701
▁克里斯蒂	-15702
▁恨	-15703
劳动	-15704
▁凯利	-15705
▁判官	-15706
▁半数	-15707
▁子宫	-15708
▁将士	-15709
▁走私	-15710
▁鼓楼	-15711
▁一个属	-15712
▁福州市	-15713
▁重镇	-15714
▁不高	-15715
▁古拉	-15716
▁显微	-15717
▁杜父	-15718
▁眼中	-15719
▁起因	-15720
▁鼎盛	-15721
尔斯克	-15722
▁转会费	-15723
▁县委书记	-15724
噶尔	-15725
ips	-15726
▁尝	-15727
海姆	-15728
▁中则	-15729
▁功绩	-15730
▁只限	-15731
▁塞特	-15732
▁大麻	-15733
▁知事	-15734
▁票数	-15735
▁工程系	-15736
▁地球物理	-15737
▁复旦大学	-15738
全食	-15739
创作	-15740
▁以其	-15741
▁芳香	-15742
▁刘少奇	-15743
▁第二轮	-15744
▁鲈亚目	-15745
威廉	-15746
▁东线	-15747
▁外海	-15748
▁深层	-15749
▁164	-15750
▁209	-15751
▁sat	-15752
▁尼日利亚	-15753
溪县	-15754
结果	-15755
▁加时	-15756
▁字幕	-15757
▁拉布	-15758
▁阿纳	-15759
▁champ	-15760
▁变星	-15761
▁大山	-15762
▁小米	-15763
▁强档	-15764
▁扎克	-15765
▁核能	-15766
▁汉城	-15767
▁症候	-15768
▁颠复	-15769
▁乳房	-15770
▁发声	-15771
▁恋者	-15772
▁雇员	-15773
▁年国际	-15774
▁disc	-15775
▁信众	-15776
▁外传	-15777
▁斗六	-15778
▁毒素	-15779
▁租金	-15780
▁解说	-15781
urus	-15782
▁弗雷德	-15783
▁不具	-15784
▁中风	-15785
▁古装	-15786
▁名司	-15787
▁声望	-15788
▁酸性	-15789
ets	-15790
▁乡级	-15791
▁所部	-15792
▁救生	-15793
▁诱导	-15794
▁领军	-15795
▁台湾省	-15796
▁君主制	-15797
▁纽伦堡	-15798
▁frank	-15799
百科	-15800
▁单于	-15801
▁台铁	-15802
▁吉利	-15803
▁米斯	-15804
▁耳朵	-15805
▁五十年	-15806
▁anim	-15807
▁孙女	-15808
▁持股	-15809
▁振动	-15810
▁求助	-15811
▁配件	-15812
▁md	-15813
▁亲近	-15814
▁在职	-15815
▁署名	-15816
▁该队	-15817
▁马列	-15818
▁默认	-15819
▁李自成	-15820
▁死亡率	-15821
▁威廉姆斯	-15822
民进	-15823
▁三万	-15824
▁散射	-15825
▁梅州	-15826
▁直译	-15827
▁290	-15828
▁此镇区	-15829
论文	-15830
ota	-15831
▁业主	-15832
▁平静	-15833
▁患病	-15834
▁都统	-15835
▁麦迪逊	-15836
佩斯	-15837
▁劳斯	-15838
▁围困	-15839
▁ext	-15840
▁特洛伊	-15841
ey	-15842
▁夕	-15843
给予	-15844
▁断绝	-15845
▁获利	-15846
wood	-15847
▁为食	-15848
▁军部	-15849
▁敌对	-15850
▁老街	-15851
▁考核	-15852
▁莎士	-15853
▁门前	-15854
▁usb	-15855
介绍	-15856
精卫	-15857
▁优越	-15858
▁典范	-15859
▁听说	-15860
▁捕获	-15861
▁详见	-15862
▁基因组	-15863
措施	-15864
汉地	-15865
▁伊本	-15866
▁外事	-15867
▁拆解	-15868
▁教官	-15869
▁更具	-15870
▁追逐	-15871
▁tar	-15872
▁汪精卫	-15873
新世	-15874
▁低压	-15875
▁pag	-15876
▁吞吐量	-15877
▁stand	-15878
▁young	-15879
一带	-15880
宝石	-15881
▁京兆	-15882
▁四千	-15883
▁滚石	-15884
▁sin	-15885
▁获得者	-15886
▁赫尔曼	-15887
电路	-15888
▁一再	-15889
▁一列	-15890
▁前称	-15891
▁南门	-15892
▁封号	-15893
▁萧条	-15894
▁410	-15895
枢纽	-15896
茨堡	-15897
▁中大	-15898
▁口中	-15899
ym	-15900
家族	-15901
ids	-15902
▁三合	-15903
▁众生	-15904
▁口语	-15905
▁张录	-15906
▁米拉	-15907
▁问世	-15908
▁雅各布	-15909
▁1846	-15910
世宗	-15911
教科	-15912
▁内华	-15913
▁凯恩	-15914
▁前述	-15915
▁华文	-15916
▁年将	-15917
▁武官	-15918
▁秀吉	-15919
▁该会	-15920
▁食分	-15921
ague	-15922
▁169	-15923
▁沃尔特	-15924
▁音乐厅	-15925
▁甲烷	-15926
▁粉岭	-15927
▁结为	-15928
▁过大	-15929
▁为主题	-15930
▁文化局	-15931
在一	-15932
多瓦	-15933
大街	-15934
政委	-15935
斐尔	-15936
雷尔	-15937
▁填补	-15938
▁康乐	-15939
▁拖延	-15940
▁游说	-15941
▁症候群	-15942
▁足球队	-15943
之地	-15944
▁仔细	-15945
▁图林	-15946
▁少卿	-15947
▁拉巴	-15948
▁空缺	-15949
▁耶尔	-15950
在一起	-15951
▁204	-15952
▁430	-15953
▁第七批	-15954
▁1841	-15955
▁二个	-15956
▁入伙	-15957
▁占用	-15958
▁回乡	-15959
▁更长	-15960
▁热潮	-15961
▁聚焦	-15962
▁218	-15963
▁派出所	-15964
▁太傅	-15965
▁打压	-15966
▁玉县	-15967
▁缩减	-15968
▁近乎	-15969
▁cbs	-15970
▁has	-15971
▁1849	-15972
用品	-15973
▁总部设	-15974
▁智力	-15975
▁白石	-15976
▁里尔	-15977
▁171	-15978
▁恶性	-15979
▁战地	-15980
▁本港	-15981
▁开放式	-15982
▁东征	-15983
▁波德	-15984
▁焦虑	-15985
▁近郊	-15986
▁部首	-15987
erv	-15988
▁伊莉	-15989
▁多边	-15990
▁阿瑟	-15991
▁310	-15992
▁cont	-15993
▁外交政策	-15994
▁甫	-15995
射击	-15996
▁夏尔	-15997
▁洗手	-15998
▁湖州	-15999
▁警官	-16000
▁陪伴	-16001
▁首家	-16002
▁221	-16003
▁第七十	-16004
▁哈尔滨市	-16005
▁state	-16006
▁导数	-16007
▁康乃	-16008
▁雨林	-16009
▁静止	-16010
▁成年人	-16011
▁弗吉尼亚	-16012
ios	-16013
▁任用	-16014
▁分量	-16015
▁海事	-16016
▁界限	-16017
▁维京	-16018
▁踏上	-16019
▁骑马	-16020
▁自由泳	-16021
▁低地	-16022
▁佛寺	-16023
▁发给	-16024
▁史学	-16025
▁盛世	-16026
▁秋田	-16027
▁迈克	-16028
▁选择性	-16029
▁会场	-16030
▁宜昌	-16031
▁幕后	-16032
▁梅克	-16033
▁流形	-16034
▁独有	-16035
▁车臣	-16036
star	-16037
▁第一支	-16038
▁编译器	-16039
▁width	-16040
olf	-16041
▁中会	-16042
▁单身	-16043
▁比安	-16044
▁被控	-16045
▁西魏	-16046
▁试飞	-16047
▁中华职	-16048
▁第三个	-16049
▁book	-16050
基础	-16051
希尔	-16052
ache	-16053
▁总编辑	-16054
▁运营商	-16055
▁腊	-16056
▁鲁国	-16057
▁巴斯克	-16058
▁红外线	-16059
▁西南面	-16060
▁hill	-16061
德县	-16062
神经	-16063
ira	-16064
▁三度	-16065
▁主板	-16066
▁代尔	-16067
▁山南	-16068
▁山庄	-16069
▁承建	-16070
▁柳州	-16071
▁江东	-16072
▁航程	-16073
▁贝多芬	-16074
教科文组织	-16075
▁联合国教科文组织	-16076
▁两首	-16077
▁掌权	-16078
▁日式	-16079
▁离世	-16080
sm	-16081
伊德	-16082
合约	-16083
高级	-16084
▁字节	-16085
▁明珠	-16086
▁物语	-16087
▁赛区	-16088
▁道奇	-16089
▁地下室	-16090
▁河系	-16091
▁湾仔	-16092
▁电容	-16093
▁项羽	-16094
▁入住	-16095
▁刘裕	-16096
▁处以	-16097
▁打工	-16098
▁洛桑	-16099
▁友谊赛	-16100
▁internet	-16101
云南	-16102
性质	-16103
首相	-16104
▁沉默	-16105
▁测验	-16106
▁真主	-16107
▁苏珊	-16108
天文学	-16109
▁172	-16110
▁不仅仅	-16111
▁屏东县	-16112
▁distr	-16113
丹娜	-16114
贝克	-16115
▁天河	-16116
▁护法	-16117
▁李文	-16118
▁版图	-16119
▁跟踪	-16120
▁夏洛特	-16121
▁core	-16122
蒂亚	-16123
▁大雨	-16124
▁平板	-16125
▁点击	-16126
▁直系	-16127
idae	-16128
▁文学奖	-16129
▁近现代	-16130
袭击	-16131
▁cg	-16132
▁之夜	-16133
▁轮渡	-16134
▁铭文	-16135
▁骨灰	-16136
▁浙江大学	-16137
mi	-16138
贵妃	-16139
▁度线	-16140
▁蓬勃	-16141
▁雪山	-16142
▁交界处	-16143
▁alph	-16144
▁year	-16145
▁卡瓦	-16146
▁可信	-16147
▁多瓦	-16148
▁大熊	-16149
▁方块	-16150
▁益州	-16151
▁重生	-16152
▁重臣	-16153
▁热力学	-16154
登场	-16155
硕士	-16156
▁同源	-16157
▁王安	-16158
▁精心	-16159
▁语句	-16160
▁这片	-16161
▁催化剂	-16162
塔尼	-16163
▁全英	-16164
▁山脚	-16165
▁带回	-16166
▁招商	-16167
▁明德	-16168
▁木质	-16169
▁温布	-16170
▁语中	-16171
中全会	-16172
▁ceo	-16173
▁mak	-16174
▁布列塔尼	-16175
后才	-16176
▁主观	-16177
▁公牛	-16178
▁功劳	-16179
▁女权	-16180
▁恋人	-16181
▁现出	-16182
▁排水量	-16183
▁国际象棋	-16184
▁两旁	-16185
▁乘法	-16186
▁征伐	-16187
▁立案	-16188
▁维利	-16189
▁美籍	-16190
▁逃犯	-16191
▁吉祥物	-16192
▁嘉义市	-16193
▁改编自	-16194
▁解决方案	-16195
▁北港	-16196
▁半衰	-16197
▁大风	-16198
▁年老	-16199
▁抢救	-16200
▁红星	-16201
▁计量	-16202
▁陷落	-16203
▁龙泉	-16204
产权	-16205
▁典籍	-16206
▁右边	-16207
▁扁平	-16208
▁扶手	-16209
▁搭建	-16210
▁杜鲁	-16211
▁永禄	-16212
▁该报	-16213
▁阿米	-16214
▁184	-16215
▁相结合	-16216
不起	-16217
▁提亚	-16218
▁bay	-16219
而来	-16220
▁外貌	-16221
▁实例	-16222
▁胎儿	-16223
▁选址	-16224
▁预报	-16225
ling	-16226
▁161	-16227
▁半衰期	-16228
obe	-16229
▁口音	-16230
▁四座	-16231
▁圣战	-16232
▁外援	-16233
▁性感	-16234
▁筹款	-16235
▁邮轮	-16236
no	-16237
▁锋	-16238
会社	-16239
▁停火	-16240
▁小女	-16241
▁白旗	-16242
▁而定	-16243
▁莎草	-16244
动员	-16245
▁专长	-16246
▁乌帕	-16247
▁硫化	-16248
▁误解	-16249
▁遍及	-16250
▁1815	-16251
▁微分方程	-16252
▁server	-16253
军人	-16254
戈斯	-16255
政司	-16256
▁dh	-16257
▁个案	-16258
▁单层	-16259
▁吉拉	-16260
▁国公	-16261
▁年出	-16262
▁建武	-16263
▁球面	-16264
▁追究	-16265
▁预科	-16266
▁巴士站	-16267
▁小丑	-16268
▁开端	-16269
▁核子	-16270
▁玩法	-16271
▁纵火	-16272
▁light	-16273
统计	-16274
联会	-16275
▁偏好	-16276
▁元旦	-16277
▁处女	-16278
▁护送	-16279
▁李光	-16280
▁狂热	-16281
广铁路	-16282
▁史蒂夫	-16283
▁珍珠港	-16284
▁突尼斯	-16285
▁湖南卫视	-16286
▁under	-16287
▁不惜	-16288
▁太湖	-16289
▁日因	-16290
▁滑翔	-16291
▁艾森	-16292
▁部副	-16293
erg	-16294
▁佩特	-16295
▁光速	-16296
▁艾德	-16297
▁议事	-16298
▁队成员	-16299
▁南太平洋	-16300
尼托	-16301
▁则称	-16302
▁四肢	-16303
▁安第	-16304
▁每当	-16305
▁离队	-16306
▁rt	-16307
▁专营	-16308
▁接入	-16309
▁特技	-16310
▁祭典	-16311
▁皮卡第	-16312
▁island	-16313
▁祀	-16314
▁世博	-16315
▁外郎	-16316
▁宣德	-16317
▁木儿	-16318
▁皇位	-16319
▁目慈	-16320
▁衔接	-16321
▁裁撤	-16322
▁青龙	-16323
▁埃斯特	-16324
▁努尔哈赤	-16325
总部	-16326
架构	-16327
营运	-16328
▁仍旧	-16329
▁全校	-16330
▁普京	-16331
▁梵文	-16332
▁安东尼奥	-16333
▁对外开放	-16334
人称	-16335
仆射	-16336
压器	-16337
维希	-16338
ape	-16339
▁全职	-16340
▁处在	-16341
▁日落	-16342
▁论点	-16343
▁182	-16344
▁def	-16345
▁dep	-16346
▁vii	-16347
▁每一个	-16348
总理	-16349
▁八达	-16350
▁卢布	-16351
▁名号	-16352
ional	-16353
冈山	-16354
▁亚地	-16355
▁他成	-16356
▁历官	-16357
▁托运	-16358
▁觉醒	-16359
▁解救	-16360
▁建筑风格	-16361
▁不符	-16362
▁击出	-16363
▁列强	-16364
▁四分	-16365
▁年亚	-16366
▁延至	-16367
▁监护	-16368
▁纳瓦	-16369
▁非营	-16370
▁预设	-16371
▁223	-16372
ima	-16373
▁全天	-16374
▁多特	-16375
▁居所	-16376
▁开机	-16377
▁摩西	-16378
▁由马	-16379
▁疗养	-16380
▁美人	-16381
▁波利斯	-16382
▁1820	-16383
▁集团公司	-16384
ops	-16385
▁军机	-16386
▁历届	-16387
▁发觉	-16388
▁同人	-16389
▁附着	-16390
▁bor	-16391
▁rub	-16392
▁市政局	-16393
▁情侣	-16394
▁最年	-16395
▁横扫	-16396
▁经商	-16397
▁雅加	-16398
▁面部	-16399
▁昆士兰	-16400
▁国际天文学	-16401
▁joseph	-16402
▁国际天文学联合会	-16403
伟大	-16404
▁善良	-16405
▁娃娃	-16406
▁景色	-16407
▁柴湾	-16408
▁楼层	-16409
▁dar	-16410
▁会选举	-16411
道路	-16412
▁以供	-16413
▁危地	-16414
▁和弦	-16415
▁孟买	-16416
▁无色	-16417
▁绝望	-16418
▁驻军	-16419
▁并不会	-16420
▁高科技	-16421
▁临时政府	-16422
下来	-16423
ats	-16424
▁万石	-16425
▁二字	-16426
▁名家	-16427
▁哪里	-16428
▁太大	-16429
▁微弱	-16430
▁托斯	-16431
▁热心	-16432
▁舰载	-16433
▁永久性	-16434
▁牙买加	-16435
▁主事	-16436
▁免去	-16437
▁合力	-16438
▁是将	-16439
▁省略	-16440
▁祈求	-16441
▁高僧	-16442
▁党政	-16443
▁皮特	-16444
▁相识	-16445
▁自强	-16446
▁合法性	-16447
▁幼儿园	-16448
▁忘记	-16449
▁提斯	-16450
▁曼城	-16451
▁浮游	-16452
▁王牌	-16453
▁越野	-16454
▁西海岸	-16455
▁cctv	-16456
▁义和	-16457
▁分属	-16458
▁惯性	-16459
▁达斯	-16460
▁一街庄	-16461
达科他州	-16462
▁commun	-16463
执行	-16464
▁因果	-16465
▁常绿	-16466
▁微型	-16467
▁插图	-16468
▁特地	-16469
▁相片	-16470
▁舞者	-16471
▁请愿	-16472
▁送入	-16473
▁俄勒冈	-16474
▁一具	-16475
▁世上	-16476
▁也门	-16477
▁反弹	-16478
▁岛津	-16479
▁赛场	-16480
▁道理	-16481
▁sen	-16482
▁国际法	-16483
沃尔	-16484
▁原称	-16485
▁受过	-16486
▁大雄	-16487
▁迎娶	-16488
▁法轮功	-16489
▁1844	-16490
▁维吾尔族	-16491
偏食	-16492
认为	-16493
▁中所	-16494
▁口腔	-16495
▁固态	-16496
▁拉拉	-16497
▁每组	-16498
▁病理	-16499
▁cle	-16500
yd	-16501
子弹	-16502
▁优美	-16503
▁切除	-16504
▁北道	-16505
▁小野	-16506
▁皮亚	-16507
▁石山	-16508
▁蒙大	-16509
▁蓝调	-16510
▁订立	-16511
▁静脉	-16512
▁龙山	-16513
▁凡尔赛	-16514
▁加龙省	-16515
▁地下水	-16516
▁护卫舰	-16517
观众	-16518
议席	-16519
▁失落	-16520
▁布利	-16521
▁私家	-16522
▁纹章	-16523
▁集数	-16524
▁题为	-16525
▁葡萄糖	-16526
阶层	-16527
▁左卫	-16528
▁次要	-16529
▁粤剧	-16530
▁至尊	-16531
▁色素	-16532
方面军	-16533
▁瓦西里	-16534
▁三十八年	-16535
国籍	-16536
▁tu	-16537
▁三面	-16538
▁字典	-16539
▁格伦	-16540
▁病原	-16541
▁花式	-16542
▁莉莉	-16543
▁驳回	-16544
▁龙潭	-16545
▁反对者	-16546
▁united	-16547
▁休养	-16548
▁伤口	-16549
▁八百	-16550
▁击溃	-16551
▁土城	-16552
▁圣堂	-16553
▁总务	-16554
▁末代	-16555
▁罗德	-16556
▁轻铁	-16557
▁重启	-16558
▁中文名	-16559
▁摩纳哥	-16560
▁1845	-16561
蕾舞	-16562
▁不服	-16563
▁螺属	-16564
▁隔天	-16565
▁刘家	-16566
▁审批	-16567
▁寓意	-16568
▁庄子	-16569
▁开车	-16570
▁归纳	-16571
▁水塘	-16572
主义者	-16573
▁合作社	-16574
500	-16575
▁临界	-16576
▁同心	-16577
▁极具	-16578
▁特伦	-16579
▁脱落	-16580
▁解密	-16581
▁尼加拉	-16582
▁开幕式	-16583
▁三叉	-16584
▁五四	-16585
▁公厘	-16586
▁布勒	-16587
▁普莱	-16588
▁盛大	-16589
▁老板	-16590
▁台湾岛	-16591
▁君子	-16592
▁施特	-16593
▁株洲	-16594
▁纽卡	-16595
▁缺失	-16596
▁博物院	-16597
线路	-16598
▁北投	-16599
俄比亚	-16600
▁1843	-16601
▁cons	-16602
▁埃塞俄比亚	-16603
广州	-16604
有关	-16605
▁一二	-16606
▁不料	-16607
▁建置	-16608
▁泉水	-16609
▁军分区	-16610
▁写出	-16611
▁决斗	-16612
▁蓝光	-16613
▁诗文	-16614
▁238	-16615
▁dev	-16616
▁伽利略	-16617
▁买卖	-16618
▁六大	-16619
▁总称	-16620
▁欧冠	-16621
▁表列	-16622
▁鲁斯	-16623
▁let	-16624
▁计算机科学	-16625
尚书	-16626
格鲁	-16627
皇家	-16628
ely	-16629
▁古文	-16630
▁风潮	-16631
▁委内瑞	-16632
▁海王星	-16633
ree	-16634
▁仪同	-16635
▁利马	-16636
▁可逆	-16637
▁悬崖	-16638
▁次级	-16639
▁永定	-16640
▁波旁	-16641
▁纳州	-16642
▁自然界	-16643
▁区议	-16644
▁台地	-16645
▁怪兽	-16646
▁补习	-16647
▁闭幕	-16648
▁西北面	-16649
堪萨斯州	-16650
之路	-16651
▁万亩	-16652
▁修院	-16653
▁利率	-16654
▁区块	-16655
▁处境	-16656
▁祭拜	-16657
▁该种	-16658
▁ice	-16659
▁处处长	-16660
▁游乐场	-16661
▁由美国	-16662
▁掘	-16663
路口	-16664
▁主攻	-16665
▁倒闭	-16666
▁兰斯	-16667
▁江宁	-16668
▁装载	-16669
▁郑氏	-16670
▁217	-16671
▁伊利诺	-16672
▁可容纳	-16673
▁六名	-16674
▁单程	-16675
▁压区	-16676
▁墓园	-16677
▁数种	-16678
▁丹尼斯	-16679
▁会导致	-16680
▁当事人	-16681
▁第一副	-16682
▁埃利	-16683
▁注目	-16684
▁趋向	-16685
▁高昂	-16686
▁911	-16687
▁文学家	-16688
▁委内瑞拉	-16689
▁10000	-16690
▁中常	-16691
▁各区	-16692
▁图瓦	-16693
▁将这	-16694
▁日升	-16695
▁空前	-16696
▁216	-16697
▁海德堡	-16698
▁耶稣会	-16699
▁荷兰语	-16700
▁莱比锡	-16701
▁海底隧道	-16702
常务委员会	-16703
▁henry	-16704
志愿	-16705
ucn	-16706
▁大岛	-16707
▁山形	-16708
▁承载	-16709
▁楼高	-16710
▁调往	-16711
pp	-16712
离开	-16713
解释	-16714
▁他会	-16715
▁太过	-16716
▁富山	-16717
▁山林	-16718
▁捐助	-16719
▁准噶尔	-16720
▁哥斯达	-16721
▁恩斯特	-16722
电信	-16723
▁华夏	-16724
▁将该	-16725
▁折磨	-16726
▁电波	-16727
▁百慕	-16728
▁训练班	-16729
▁高级中学	-16730
▁enviro	-16731
不满	-16732
翼龙	-16733
▁不算	-16734
▁大典	-16735
▁常任	-16736
▁张氏	-16737
▁自来	-16738
▁调味	-16739
▁鉴于	-16740
保护区	-16741
▁京都市	-16742
▁尼加拉瓜	-16743
▁之王	-16744
▁卡内	-16745
▁古坟	-16746
▁四角	-16747
▁美方	-16748
▁该城	-16749
▁面包	-16750
▁212	-16751
▁克威尔	-16752
▁选举区	-16753
gen	-16754
▁中美	-16755
▁苏共	-16756
▁中华人民共和国政府	-16757
争议	-16758
二十	-16759
▁就职	-16760
▁赫鲁	-16761
▁迷宫	-16762
▁陕北	-16763
几内亚	-16764
lation	-16765
菲尔	-16766
ugh	-16767
▁保管	-16768
▁执业	-16769
▁拆毁	-16770
▁杆菌	-16771
▁清单	-16772
▁竞逐	-16773
▁高能	-16774
▁下半场	-16775
▁平假名	-16776
▁第一首	-16777
▁委派	-16778
▁情境	-16779
▁纲领	-16780
▁为题	-16781
▁二是	-16782
▁亚拉	-16783
▁致仕	-16784
▁防暴	-16785
▁181	-16786
▁228	-16787
▁store	-16788
▁以防	-16789
▁压倒	-16790
▁史迹	-16791
▁学上	-16792
▁对岸	-16793
▁逼迫	-16794
▁222	-16795
▁440	-16796
▁斯多夫	-16797
分裂	-16798
英语	-16799
贝拉	-16800
▁无疑	-16801
▁艾莉	-16802
▁蒙大拿	-16803
▁飞行器	-16804
▁埃克	-16805
▁延平	-16806
▁祠堂	-16807
▁命中率	-16808
▁当地人	-16809
▁格陵兰	-16810
▁生产商	-16811
▁1812	-16812
▁分段	-16813
▁埃米	-16814
▁境界	-16815
▁蕨科	-16816
▁降为	-16817
▁费尔南	-16818
▁阿里山	-16819
▁非政府	-16820
▁iucn	-16821
漫画	-16822
▁db	-16823
▁转速	-16824
▁额定	-16825
▁麻雀	-16826
▁cry	-16827
▁人民公社	-16828
isc	-16829
▁凯旋	-16830
▁姑娘	-16831
▁签发	-16832
▁bon	-16833
▁亲卫队	-16834
▁喀麦隆	-16835
ather	-16836
▁space	-16837
▁干流	-16838
▁明史	-16839
▁肝脏	-16840
▁锡金	-16841
▁首座	-16842
▁神经元	-16843
之后	-16844
南区	-16845
▁恒大	-16846
▁spr	-16847
▁大本营	-16848
佔领	-16849
内阁	-16850
▁为底	-16851
▁会有	-16852
▁前三	-16853
▁吉田	-16854
▁文庙	-16855
▁时半	-16856
▁牌坊	-16857
▁龙胆	-16858
▁num	-16859
▁预告片	-16860
▁litt	-16861
▁经济学家	-16862
▁保全	-16863
▁台词	-16864
▁174	-16865
▁way	-16866
▁施塔特	-16867
▁第一台	-16868
▁艾哈迈德	-16869
▁丁丑	-16870
▁正线	-16871
▁比丘	-16872
▁留意	-16873
▁men	-16874
▁xx	-16875
▁减速	-16876
▁刊载	-16877
▁古迹	-16878
▁梵语	-16879
▁石化	-16880
▁袁绍	-16881
▁god	-16882
▁党组织	-16883
▁直流电	-16884
▁保住	-16885
▁可观	-16886
▁塔尼	-16887
▁校董	-16888
▁看待	-16889
▁非营利	-16890
▁尽管如此	-16891
▁之父	-16892
▁古时	-16893
▁护国	-16894
▁梁启	-16895
▁画廊	-16896
▁1814	-16897
▁全国代表大会	-16898
两个	-16899
锡山	-16900
▁东洋	-16901
▁两段	-16902
▁刑罚	-16903
▁宙斯	-16904
▁梁山	-16905
▁调解	-16906
over	-16907
▁奥委会	-16908
board	-16909
▁prof	-16910
▁vide	-16911
▁人工智能	-16912
▁hu	-16913
▁侵害	-16914
▁出走	-16915
▁围城	-16916
▁小山	-16917
▁柯南	-16918
▁精美	-16919
▁这句	-16920
▁明太祖	-16921
▁偿	-16922
▁国君	-16923
▁帕洛	-16924
▁磨损	-16925
▁适宜	-16926
▁适逢	-16927
▁阿鲁	-16928
▁bob	-16929
▁出版商	-16930
▁彼得堡	-16931
▁model	-16932
▁举报	-16933
▁奥布	-16934
▁导向	-16935
▁水族	-16936
菲律宾	-16937
▁无论是	-16938
▁电视节	-16939
▁一席	-16940
▁三振	-16941
▁体色	-16942
▁台州	-16943
▁学期	-16944
▁报仇	-16945
▁捕鱼	-16946
▁政体	-16947
▁数万	-16948
▁新会	-16949
▁机电	-16950
▁模样	-16951
▁精细	-16952
▁诊所	-16953
▁401	-16954
▁rpg	-16955
▁战斗中	-16956
▁平方公尺	-16957
▁弗朗西斯	-16958
体系	-16959
ift	-16960
▁一球	-16961
▁八旗	-16962
▁分流	-16963
▁强劲	-16964
▁经贸	-16965
▁小组赛	-16966
▁莱茵河	-16967
▁贝尔格	-16968
▁下萨克森	-16969
▁主轴	-16970
▁凤山	-16971
▁华特	-16972
▁存款	-16973
▁星云	-16974
▁乌帕齐	-16975
▁第五名	-16976
▁还没有	-16977
护照	-16978
试验	-16979
uth	-16980
▁北至	-16981
▁拉里	-16982
▁路边	-16983
▁黄海	-16984
▁京都府	-16985
▁洪都拉斯	-16986
▁自然保护区	-16987
▁section	-16988
▁魂	-16989
▁之弟	-16990
▁占星	-16991
▁月食	-16992
▁永嘉	-16993
科维奇	-16994
▁加重	-16995
▁单向	-16996
▁古籍	-16997
▁大坝	-16998
▁平阳	-16999
▁捐献	-17000
▁永平	-17001
▁男单	-17002
▁绿地	-17003
▁艾迪	-17004
▁crh	-17005
州长	-17006
▁世嘉	-17007
▁中甲	-17008
▁投射	-17009
▁级数	-17010
▁齐齐	-17011
▁经济部	-17012
▁运输机	-17013
▁tele	-17014
▁从中	-17015
▁洛伦	-17016
▁流水	-17017
▁评定	-17018
▁一个罗马	-17019
▁阿卜杜勒	-17020
▁manag	-17021
基因	-17022
▁松本	-17023
▁王者	-17024
▁生动	-17025
▁前一天	-17026
▁奥尔良	-17027
▁1842	-17028
主办	-17029
▁ti	-17030
▁南至	-17031
▁声乐	-17032
▁点球	-17033
▁白河	-17034
▁重现	-17035
▁martin	-17036
▁屿	-17037
干事	-17038
莫斯	-17039
▁pt	-17040
▁关羽	-17041
▁更高	-17042
▁燃气	-17043
▁鲍尔	-17044
▁吉尔吉斯	-17045
▁马萨诸塞州	-17046
六十	-17047
川市	-17048
▁中轴	-17049
▁协作	-17050
▁水坝	-17051
▁run	-17052
▁红十字	-17053
▁中华人民共和国国务院	-17054
六个	-17055
诺州	-17056
▁抗原	-17057
▁相声	-17058
▁精力	-17059
▁绝地	-17060
▁风球	-17061
▁以纪念	-17062
▁中年	-17063
▁拟定	-17064
▁文帝	-17065
▁此人	-17066
▁激起	-17067
▁独奏	-17068
▁carl	-17069
ola	-17070
▁万户	-17071
▁三门	-17072
▁两块	-17073
▁今川	-17074
▁仍会	-17075
▁前辈	-17076
▁加特	-17077
▁天国	-17078
▁方可	-17079
▁汇合	-17080
▁蒸发	-17081
▁警队	-17082
▁加速度	-17083
机械	-17084
西尔	-17085
▁中港	-17086
▁光源	-17087
▁四部	-17088
▁拓宽	-17089
▁阵列	-17090
▁霸王	-17091
开发区	-17092
▁葛拉汉地	-17093
tps	-17094
▁专卖	-17095
▁创校	-17096
▁帐号	-17097
▁林家	-17098
▁该线	-17099
▁阿美	-17100
ures	-17101
▁179	-17102
▁engine	-17103
卜勒	-17104
平台	-17105
▁因在	-17106
▁定罪	-17107
▁帐户	-17108
▁忽必	-17109
▁更进	-17110
▁来宾	-17111
▁生卒	-17112
▁缴纳	-17113
▁车轮	-17114
足球队	-17115
▁普朗克	-17116
▁别称	-17117
▁县境	-17118
▁情势	-17119
▁激动	-17120
▁留有	-17121
▁诺伊	-17122
▁象牙	-17123
▁马上	-17124
ister	-17125
▁一任	-17126
▁冰球	-17127
▁普特	-17128
▁曾用	-17129
▁湖人	-17130
▁石块	-17131
▁key	-17132
科长	-17133
▁主楼	-17134
▁加之	-17135
▁年生	-17136
▁恋情	-17137
▁曲风	-17138
▁装上	-17139
▁高射	-17140
▁一书中	-17141
▁里程碑	-17142
▁中国民主	-17143
左右	-17144
耳草	-17145
▁pv	-17146
▁人中	-17147
▁升入	-17148
▁夜市	-17149
▁湖水	-17150
▁阿联	-17151
农红军	-17152
▁发行量	-17153
▁中国工农红军	-17154
年龄	-17155
nal	-17156
▁中土	-17157
▁传感	-17158
▁城西	-17159
▁张量	-17160
▁风味	-17161
▁平均值	-17162
▁语言学家	-17163
▁ot	-17164
▁填充	-17165
▁开馆	-17166
▁手套	-17167
▁技艺	-17168
▁的确	-17169
▁粉碎	-17170
▁路旁	-17171
▁邮报	-17172
▁马山	-17173
▁夏朗德	-17174
▁海平面	-17175
夫区	-17176
▁乙丑	-17177
▁军在	-17178
▁工学	-17179
▁幅度	-17180
▁接续	-17181
▁进站	-17182
▁中心点	-17183
▁婆罗洲	-17184
博士	-17185
▁七人	-17186
▁定制	-17187
▁更强	-17188
▁看过	-17189
▁罗曼	-17190
▁阵风	-17191
▁阿拉巴马州	-17192
报告	-17193
来源	-17194
▁不已	-17195
▁义勇	-17196
▁亲信	-17197
▁功效	-17198
▁团的	-17199
▁总科	-17200
▁本县	-17201
▁死神	-17202
▁水池	-17203
▁永昌	-17204
▁破解	-17205
▁213	-17206
▁bit	-17207
▁mas	-17208
▁sel	-17209
▁1789	-17210
▁州立大学	-17211
▁理工学院	-17212
▁cross	-17213
▁弥补	-17214
▁素材	-17215
▁纳斯	-17216
▁美分	-17217
ural	-17218
▁上半年	-17219
▁忽必烈	-17220
▁海岸线	-17221
▁即用	-17222
▁同化	-17223
▁大修	-17224
▁大屿	-17225
▁广域	-17226
▁机炮	-17227
▁法王	-17228
▁熊本	-17229
▁直落	-17230
▁起火	-17231
▁都灵	-17232
▁中国社会科学院	-17233
▁偷偷	-17234
▁可乐	-17235
▁年长	-17236
▁擅自	-17237
▁最靠	-17238
▁此战	-17239
▁该县	-17240
▁jac	-17241
▁本科生	-17242
▁国家足球队	-17243
▁之手	-17244
▁仇恨	-17245
▁佔地	-17246
▁八世	-17247
▁半月	-17248
▁大象	-17249
▁每场	-17250
▁绘图	-17251
edia	-17252
▁文尼察	-17253
▁花莲县	-17254
▁转变成	-17255
▁jump	-17256
戈尔	-17257
▁影版	-17258
▁放下	-17259
▁时将	-17260
▁时所	-17261
▁树立	-17262
▁牵涉	-17263
▁记号	-17264
▁软禁	-17265
▁银色	-17266
▁砂拉越	-17267
▁这两种	-17268
▁交谈	-17269
▁偏离	-17270
▁反潜	-17271
▁索姆	-17272
▁说道	-17273
▁阿伊	-17274
▁son	-17275
▁电影院	-17276
annel	-17277
▁什叶	-17278
▁全区	-17279
▁千户	-17280
▁圆环	-17281
▁多间	-17282
▁新约	-17283
▁末日	-17284
▁法典	-17285
▁艺文	-17286
▁误会	-17287
▁依赖于	-17288
▁party	-17289
yp	-17290
▁低下	-17291
▁日光	-17292
艾利斯	-17293
▁265	-17294
交通大学	-17295
ird	-17296
▁一审	-17297
▁五种	-17298
▁胡适	-17299
▁追踪	-17300
▁通航	-17301
▁酷刑	-17302
▁信用卡	-17303
▁劳动党	-17304
▁新世纪	-17305
▁衍生物	-17306
一郎	-17307
▁水路	-17308
▁舟山	-17309
▁计数	-17310
▁集水	-17311
工业部	-17312
▁隋文帝	-17313
▁mobile	-17314
荣誉	-17315
▁大哥	-17316
▁尽头	-17317
▁戈登	-17318
▁本集	-17319
▁水产	-17320
▁求解	-17321
▁莱纳	-17322
▁出租车	-17323
▁总领事	-17324
▁解析度	-17325
▁expl	-17326
通道	-17327
酒店	-17328
den	-17329
▁ru	-17330
▁万国	-17331
▁今后	-17332
▁原意	-17333
▁小屋	-17334
▁批发	-17335
▁抗衡	-17336
▁林立	-17337
▁水溶	-17338
▁绿党	-17339
xx	-17340
卫兵	-17341
平原	-17342
票口	-17343
陀罗	-17344
▁三方	-17345
▁埔里	-17346
▁外野	-17347
▁抄袭	-17348
▁这起	-17349
▁cho	-17350
▁女配角	-17351
▁ze	-17352
▁主干	-17353
▁前秦	-17354
▁呼叫	-17355
▁将之	-17356
▁应力	-17357
▁逃生	-17358
▁阿罗	-17359
▁限度	-17360
▁255	-17361
▁谢尔盖	-17362
azine	-17363
▁battle	-17364
ji	-17365
口径	-17366
▁他任	-17367
▁侵袭	-17368
▁南段	-17369
▁各站	-17370
▁新市	-17371
▁汉阳	-17372
▁诗作	-17373
▁轮船	-17374
▁财政部长	-17375
采用	-17376
▁东涌	-17377
▁几十	-17378
▁本田	-17379
▁胸鳍	-17380
▁这会	-17381
▁这块	-17382
▁通卡	-17383
▁集群	-17384
▁卫生部	-17385
▁石灰岩	-17386
▁完全相同	-17387
▁church	-17388
选出	-17389
▁东吴	-17390
▁又译	-17391
▁战火	-17392
▁每股	-17393
▁点燃	-17394
▁瑞斯	-17395
▁阅兵	-17396
rich	-17397
▁济南市	-17398
▁专心	-17399
▁官府	-17400
▁布赖	-17401
▁带入	-17402
▁引退	-17403
▁概括	-17404
▁港台	-17405
▁热河	-17406
▁第一本	-17407
尔曼	-17408
支那	-17409
▁作成	-17410
▁大权	-17411
▁宫内	-17412
▁本种	-17413
▁清初	-17414
▁细分	-17415
▁事务局	-17416
▁半小时	-17417
▁员外郎	-17418
▁第一条	-17419
▁南京大学	-17420
日圆	-17421
rpm	-17422
▁ml	-17423
▁一众	-17424
▁三立	-17425
▁暴龙	-17426
▁机种	-17427
▁空手	-17428
▁端口	-17429
▁广播剧	-17430
cs	-17431
▁增进	-17432
▁高官	-17433
运动员	-17434
▁阿尔及利亚	-17435
主动	-17436
▁复仇	-17437
▁金花	-17438
▁https	-17439
▁但现	-17440
▁偏远	-17441
▁动量	-17442
▁女童	-17443
▁透镜	-17444
▁dm	-17445
▁厂房	-17446
▁史考	-17447
▁总奖	-17448
▁成型	-17449
▁拉比	-17450
▁招牌	-17451
▁杰夫	-17452
▁画像	-17453
▁行署	-17454
▁西式	-17455
▁费利	-17456
▁黄浦	-17457
▁福布斯	-17458
ida	-17459
▁李成	-17460
▁通告	-17461
▁农学院	-17462
▁多用途	-17463
▁朝鲜战争	-17464
▁中华民国国	-17465
▁翔	-17466
不足	-17467
科院	-17468
▁先祖	-17469
▁兴国	-17470
▁动用	-17471
▁实战	-17472
▁时许	-17473
▁极地	-17474
▁浪潮	-17475
▁高龄	-17476
乳动物	-17477
▁tok	-17478
▁思想家	-17479
▁继任者	-17480
▁弗吉尼亚州	-17481
一人	-17482
▁不宜	-17483
▁两性	-17484
▁互助	-17485
▁修斯	-17486
▁故称	-17487
▁死伤	-17488
▁球形	-17489
▁纠正	-17490
▁金牛	-17491
▁艾美奖	-17492
安打	-17493
电池	-17494
▁中非	-17495
▁但此	-17496
▁偏见	-17497
▁共通	-17498
▁地壳	-17499
▁巨额	-17500
▁徒步	-17501
▁汇率	-17502
▁虹桥	-17503
▁西奥	-17504
atic	-17505
cher	-17506
raft	-17507
▁var	-17508
▁瓦尔德	-17509
斯麦	-17510
▁三者	-17511
▁之馀	-17512
▁一则	-17513
▁伤者	-17514
▁侨民	-17515
▁内涵	-17516
▁外汇	-17517
▁建物	-17518
▁成品	-17519
▁新设	-17520
▁洲际	-17521
▁造价	-17522
▁诺贝尔奖	-17523
密特	-17524
▁右岸	-17525
▁李嘉	-17526
▁藩主	-17527
▁试播	-17528
▁而产生	-17529
▁萨摩亚	-17530
▁路德维希	-17531
▁颁奖典礼	-17532
▁radio	-17533
雷拉	-17534
▁互不	-17535
▁亲友	-17536
▁传给	-17537
▁光华	-17538
▁八里	-17539
▁园艺	-17540
▁异议	-17541
▁渔船	-17542
▁罗伊	-17543
▁血清	-17544
后勤	-17545
比克	-17546
▁农林	-17547
▁新星	-17548
▁疆域	-17549
▁舍利	-17550
修斯	-17551
费尔	-17552
▁中岛	-17553
▁便于	-17554
▁成因	-17555
▁辽朝	-17556
▁高卢	-17557
▁不计	-17558
▁克思	-17559
▁割据	-17560
▁景象	-17561
▁负伤	-17562
▁不规则	-17563
▁文学院	-17564
field	-17565
▁广播公司	-17566
▁英国皇家	-17567
乐园	-17568
▁以太	-17569
▁募集	-17570
▁双亲	-17571
▁奈特	-17572
▁报业	-17573
▁本条	-17574
▁潮间	-17575
▁腐蚀	-17576
▁豪森	-17577
▁蒙特利尔	-17578
ris	-17579
▁园内	-17580
▁基亚	-17581
▁弱势	-17582
▁排气	-17583
▁西村	-17584
▁镇上	-17585
▁波尔多	-17586
多斯	-17587
太基	-17588
托尔	-17589
esh	-17590
▁mt	-17591
▁反感	-17592
▁导入	-17593
▁推销	-17594
▁政界	-17595
▁移到	-17596
▁阮文	-17597
▁察哈尔	-17598
▁comic	-17599
▁smith	-17600
文献	-17601
▁fu	-17602
▁好奇	-17603
▁球星	-17604
▁藏文	-17605
▁被困	-17606
▁雷恩	-17607
▁cha	-17608
▁jan	-17609
大臣	-17610
杂志	-17611
▁喷气	-17612
▁埃纳	-17613
▁特意	-17614
▁连络	-17615
▁变压器	-17616
▁日偏食	-17617
中华民国	-17618
伙伴	-17619
▁布洛	-17620
▁细长	-17621
▁蓝田	-17622
▁西格	-17623
▁质素	-17624
▁最后以	-17625
▁迦太基	-17626
▁plus	-17627
▁service	-17628
▁亚里	-17629
▁免除	-17630
▁军火	-17631
▁净土	-17632
▁崇德	-17633
▁领下	-17634
▁普林斯	-17635
▁人名	-17636
▁加来	-17637
▁奇特	-17638
▁常年	-17639
▁投球	-17640
▁招股	-17641
▁西经	-17642
▁馀万	-17643
well	-17644
▁马里奥	-17645
▁全体会议	-17646
▁耶鲁大学	-17647
▁louis	-17648
多禄	-17649
▁古人	-17650
▁开府	-17651
▁搬到	-17652
▁有色	-17653
▁永兴	-17654
▁粉末	-17655
▁线条	-17656
▁蒋中	-17657
▁见解	-17658
▁什叶派	-17659
▁西城区	-17660
篮球	-17661
▁反响	-17662
▁古尔	-17663
▁武林	-17664
▁生会	-17665
▁简洁	-17666
▁苏木	-17667
▁钱塘	-17668
▁葡萄牙人	-17669
▁位移	-17670
▁城下	-17671
▁山道	-17672
▁斯基	-17673
▁晚报	-17674
▁杨家	-17675
▁精准	-17676
▁赠送	-17677
▁通州	-17678
▁以至于	-17679
▁开发商	-17680
▁美国国	-17681
▁general	-17682
制品	-17683
普尔	-17684
鲁特	-17685
▁不容	-17686
▁不慎	-17687
▁南唐	-17688
▁只用	-17689
▁塔楼	-17690
▁布加	-17691
▁幽州	-17692
▁抚顺	-17693
▁数日	-17694
▁日产	-17695
▁海豹	-17696
▁邮局	-17697
hell	-17698
希德	-17699
▁市府	-17700
▁拉脱	-17701
▁水分	-17702
▁派别	-17703
▁鳞片	-17704
▁马克斯	-17705
▁lgbt	-17706
移动	-17707
费用	-17708
▁克特	-17709
▁双线	-17710
▁尖端	-17711
▁时才	-17712
▁渡河	-17713
▁种群	-17714
▁穿透	-17715
▁筹办	-17716
▁诗词	-17717
▁阿莱	-17718
▁食邑	-17719
▁切尔尼戈夫州	-17720
记载	-17721
飞行	-17722
▁三民	-17723
▁何塞	-17724
▁善于	-17725
▁彭德	-17726
▁有子	-17727
▁西宁	-17728
▁出生地	-17729
▁音乐奖	-17730
▁pala	-17731
泰国	-17732
▁一节	-17733
▁个州	-17734
▁截面	-17735
▁改元	-17736
▁由科	-17737
▁百家	-17738
▁联谊	-17739
▁饮酒	-17740
▁online	-17741
电力	-17742
▁一心	-17743
▁三场	-17744
▁不予	-17745
▁出行	-17746
▁安慰	-17747
▁李承	-17748
▁质数	-17749
▁遗忘	-17750
▁预料	-17751
▁龙属	-17752
▁得不到	-17753
种子	-17754
▁小小	-17755
▁求婚	-17756
▁破碎	-17757
▁赵国	-17758
卢西亚	-17759
▁国民小学	-17760
▁steam	-17761
重要	-17762
▁加深	-17763
▁安乐	-17764
▁实地	-17765
▁披头	-17766
▁旁白	-17767
▁生出	-17768
▁赏赐	-17769
▁之后他	-17770
▁刘德华	-17771
▁日全食	-17772
▁第一轮	-17773
▁任一	-17774
▁县内	-17775
▁四号	-17776
▁师傅	-17777
▁户口	-17778
▁池塘	-17779
参谋部	-17780
莱纳州	-17781
▁fox	-17782
▁卡塔尔	-17783
共识	-17784
▁一作	-17785
▁入读	-17786
▁吞并	-17787
▁吸入	-17788
▁国号	-17789
▁头目	-17790
▁开学	-17791
▁新党	-17792
▁瓦莱	-17793
▁车长	-17794
▁埃德蒙	-17795
▁明成祖	-17796
▁段时间	-17797
▁理工大学	-17798
蝠侠	-17799
aya	-17800
▁中下	-17801
▁救灾	-17802
▁残存	-17803
▁炸毁	-17804
▁lam	-17805
▁mur	-17806
▁刘易斯	-17807
▁方面军	-17808
▁亿立方米	-17809
激素	-17810
锦涛	-17811
▁兵变	-17812
▁电玩	-17813
▁铺设	-17814
▁隐私	-17815
▁副处长	-17816
▁变速箱	-17817
▁沈阳市	-17818
疾病	-17819
▁狭长	-17820
▁至上	-17821
▁订定	-17822
▁费米	-17823
▁较强	-17824
▁集雨	-17825
▁arr	-17826
▁北大西洋	-17827
▁株式会社	-17828
伍德	-17829
敦道	-17830
▁注释	-17831
▁流血	-17832
▁维莱	-17833
▁罗伯	-17834
▁藏语	-17835
▁jim	-17836
▁千叶县	-17837
▁弗朗西	-17838
外交	-17839
▁一阵	-17840
▁不止	-17841
▁二郎	-17842
▁尖锐	-17843
▁遗物	-17844
▁box	-17845
▁第三届	-17846
▁asia	-17847
▁cf	-17848
▁不属	-17849
▁二极	-17850
▁哈姆	-17851
▁外号	-17852
▁往后	-17853
▁德岛	-17854
▁承接	-17855
▁拆迁	-17856
▁渔港	-17857
▁老子	-17858
▁cir	-17859
▁snh	-17860
▁使节	-17861
▁圆顶	-17862
▁奥格	-17863
▁巧妙	-17864
▁神仙	-17865
▁秀才	-17866
▁莫拉	-17867
▁高约	-17868
▁219	-17869
牙哥	-17870
用户	-17871
▁fn	-17872
▁一身	-17873
▁地道	-17874
▁多方	-17875
▁山门	-17876
▁模板	-17877
▁沙拉	-17878
▁洗衣	-17879
▁淡出	-17880
▁阅览	-17881
▁鼓吹	-17882
▁二十六	-17883
▁办公楼	-17884
▁人民代表大会	-17885
丰县	-17886
▁呼和	-17887
▁哪些	-17888
▁洪灾	-17889
▁海运	-17890
▁空地	-17891
▁麦加	-17892
▁三国志	-17893
一女	-17894
维护	-17895
▁两方	-17896
▁攻略	-17897
▁空白	-17898
▁多样化	-17899
▁第五届	-17900
韦尔	-17901
▁友善	-17902
▁双溪	-17903
▁月光	-17904
▁谈到	-17905
▁610	-17906
▁wwe	-17907
▁水电站	-17908
演出	-17909
▁介于	-17910
▁巴蒂	-17911
▁得奖	-17912
▁行者	-17913
▁三十一年	-17914
▁resear	-17915
201	-17916
▁售卖	-17917
▁无视	-17918
▁盾牌	-17919
▁编队	-17920
▁边区	-17921
▁275	-17922
▁北半球	-17923
▁magazine	-17924
oid	-17925
▁不为	-17926
▁停电	-17927
▁受访	-17928
▁多姆	-17929
▁总冠	-17930
▁jour	-17931
游记	-17932
als	-17933
▁gi	-17934
▁区长	-17935
▁千馀	-17936
▁往东	-17937
▁是种	-17938
▁谷歌	-17939
▁高尔	-17940
▁不来梅	-17941
▁最靠近	-17942
▁aust	-17943
▁league	-17944
▁蝠	-17945
实验	-17946
pan	-17947
▁任上	-17948
▁好好	-17949
▁孤独	-17950
▁无所	-17951
▁殊荣	-17952
▁衣物	-17953
▁金钟奖	-17954
▁阿尔弗	-17955
▁foot	-17956
▁pass	-17957
▁北京政府	-17958
▁文尼察州	-17959
▁奥林匹克委员会	-17960
▁个村	-17961
▁伊特	-17962
▁何时	-17963
▁北段	-17964
▁发兵	-17965
▁大举	-17966
▁清康	-17967
▁院系	-17968
▁xml	-17969
▁嫌疑人	-17970
大中	-17971
▁三期	-17972
▁升空	-17973
▁士气	-17974
▁大韩	-17975
▁头上	-17976
▁山羊	-17977
▁忧郁	-17978
▁文山	-17979
▁界定	-17980
▁秦朝	-17981
▁阿雷	-17982
ington	-17983
纤维	-17984
▁不法	-17985
▁王之	-17986
▁马路	-17987
仁大学	-17988
▁二十七	-17989
▁主宰	-17990
▁实上	-17991
▁带给	-17992
▁日日	-17993
▁皮革	-17994
▁神职	-17995
▁超级赛	-17996
三十	-17997
后代	-17998
故事	-17999
▁一尊	-18000
▁卡萨	-18001
▁徒刑	-18002
▁生性	-18003
▁矮星	-18004
国家队	-18005
▁460	-18006
▁圣约翰	-18007
▁研究成果	-18008
务员	-18009
▁中说	-18010
▁女优	-18011
▁尔特	-18012
▁弗罗	-18013
▁曼努	-18014
▁社论	-18015
▁计时	-18016
▁遵义	-18017
夫斯	-18018
▁六百	-18019
▁场的	-18020
▁工场	-18021
▁建中	-18022
▁新墨	-18023
▁特委	-18024
▁经有	-18025
▁隋唐	-18026
▁车路士	-18027
白色	-18028
▁东邻	-18029
▁九一	-18030
▁卢瓦	-18031
▁坎特	-18032
▁塞维	-18033
▁补贴	-18034
▁遥控	-18035
▁题目	-18036
▁aug	-18037
▁尽可能	-18038
▁情报局	-18039
五个	-18040
培养	-18041
联军	-18042
▁既然	-18043
▁项式	-18044
▁gla	-18045
▁反应堆	-18046
▁起义军	-18047
▁公报	-18048
▁单体	-18049
▁埃拉	-18050
▁宣武	-18051
▁应有	-18052
▁提尔	-18053
▁西卡	-18054
▁冠军赛	-18055
方向	-18056
解决	-18057
▁万个	-18058
▁中巴	-18059
▁光禄	-18060
▁藏有	-18061
▁过高	-18062
▁匹兹堡	-18063
▁有助于	-18064
▁like	-18065
知识	-18066
达赖	-18067
▁人流	-18068
▁吴语	-18069
▁多所	-18070
▁富商	-18071
▁延误	-18072
▁强硬	-18073
▁获授	-18074
▁表态	-18075
▁陆路	-18076
▁conc	-18077
公众	-18078
▁体力	-18079
▁外层	-18080
▁威利	-18081
▁知州	-18082
▁呼和浩特	-18083
▁七星	-18084
▁伊拉	-18085
▁意向	-18086
▁直选	-18087
▁节车	-18088
▁里加	-18089
▁bad	-18090
▁施泰因	-18091
▁第四批	-18092
▁muse	-18093
▁吕宋	-18094
▁土卫	-18095
▁展厅	-18096
▁张文	-18097
▁持节	-18098
▁沙俄	-18099
▁繁华	-18100
▁附带	-18101
▁总干事	-18102
▁空间站	-18103
▁鲁道夫	-18104
▁中华全国	-18105
▁君士坦丁	-18106
▁little	-18107
总会	-18108
纳粹	-18109
▁前部	-18110
▁吸烟	-18111
▁商家	-18112
▁峰会	-18113
▁时分	-18114
▁猪肉	-18115
▁禅宗	-18116
▁雇用	-18117
▁玛丹娜	-18118
少数	-18119
销量	-18120
▁ki	-18121
▁九世	-18122
▁安条	-18123
▁拉美	-18124
▁皇冠	-18125
▁豆腐	-18126
▁军政府	-18127
▁research	-18128
▁cu	-18129
▁托洛	-18130
▁投稿	-18131
▁林地	-18132
▁角落	-18133
▁720	-18134
▁mit	-18135
▁制造厂	-18136
▁一小部分	-18137
▁新墨西哥	-18138
污染	-18139
血管	-18140
ili	-18141
▁三台	-18142
▁优雅	-18143
▁保养	-18144
▁塔山	-18145
▁学问	-18146
▁言中	-18147
▁遣返	-18148
▁骨架	-18149
▁75%	-18150
▁继承权	-18151
▁超音速	-18152
▁1835	-18153
▁万岁	-18154
▁军务	-18155
▁劝说	-18156
▁友情	-18157
▁寄宿	-18158
▁尊严	-18159
▁新曲	-18160
▁水牛	-18161
▁温室	-18162
▁小时候	-18163
▁稳定性	-18164
▁绩	-18165
▁乔伊	-18166
▁千岁	-18167
▁安放	-18168
▁富含	-18169
▁并改	-18170
▁特纳	-18171
▁西城	-18172
▁斯坦福	-18173
▁福尔摩	-18174
▁伊利诺伊	-18175
▁寸	-18176
代号	-18177
纳森	-18178
▁ry	-18179
▁女单	-18180
▁宝座	-18181
▁梦幻	-18182
▁机械化	-18183
▁fest	-18184
▁pier	-18185
▁密西西比州	-18186
▁惜	-18187
▁三元	-18188
▁作赛	-18189
▁兴隆	-18190
▁减小	-18191
▁尤为	-18192
▁民初	-18193
▁蒂尔	-18194
▁轴心	-18195
▁候车室	-18196
▁汤普森	-18197
▁非官方	-18198
▁中超联赛	-18199
▁sound	-18200
▁master	-18201
几年	-18202
uct	-18203
▁人手	-18204
▁大石	-18205
▁尔顿	-18206
▁老化	-18207
▁自尽	-18208
▁莫桑	-18209
▁诞辰	-18210
▁sand	-18211
une	-18212
▁专页	-18213
▁剧目	-18214
▁南岛	-18215
▁安倍	-18216
▁封地	-18217
▁换句	-18218
▁掩盖	-18219
▁板球	-18220
▁比克	-18221
▁爱乐	-18222
▁签字	-18223
▁致电	-18224
▁萨利	-18225
▁gal	-18226
▁帝国主义	-18227
▁依序	-18228
▁双语	-18229
▁安迪	-18230
▁对照	-18231
▁排位	-18232
▁近地	-18233
▁顺化	-18234
▁sports	-18235
士顿	-18236
马利	-18237
▁卷入	-18238
▁德雷	-18239
▁数名	-18240
▁昌平	-18241
▁联播	-18242
▁mult	-18243
▁恐怖分子	-18244
▁科学研究	-18245
▁交错	-18246
▁卖出	-18247
▁商贸	-18248
▁明命	-18249
▁港币	-18250
▁港湾	-18251
▁解雇	-18252
▁还给	-18253
▁郊野	-18254
▁首日	-18255
▁华尔街	-18256
▁民政厅	-18257
民主主义	-18258
南县	-18259
▁卢克	-18260
▁吉普	-18261
▁平和	-18262
▁斯人	-18263
▁明文	-18264
▁正则	-18265
▁盈利	-18266
▁老旧	-18267
▁隔日	-18268
▁齐亚	-18269
达尼号	-18270
▁革命党	-18271
▁伊莉莎白	-18272
托克	-18273
联系	-18274
▁tg	-18275
▁专为	-18276
▁两处	-18277
▁主神	-18278
▁作风	-18279
▁山体	-18280
▁异构	-18281
▁战力	-18282
▁新桥	-18283
▁汇集	-18284
▁调控	-18285
▁陈述	-18286
▁青训	-18287
▁询委员会	-18288
▁宾夕法尼亚州	-18289
ato	-18290
▁东段	-18291
▁兰国	-18292
▁多生	-18293
▁快捷	-18294
▁正室	-18295
▁渡江	-18296
▁空战	-18297
▁达拉	-18298
▁通路	-18299
▁活动家	-18300
velop	-18301
奏曲	-18302
拉邦	-18303
空气	-18304
▁佐夫	-18305
▁佩德	-18306
▁兴安	-18307
▁法政	-18308
▁群臣	-18309
▁赞扬	-18310
▁一体化	-18311
▁全运会	-18312
冰洋	-18313
▁两派	-18314
▁光辉	-18315
▁克朗	-18316
▁大湖	-18317
▁家境	-18318
▁戒指	-18319
▁托克	-18320
▁新田	-18321
▁核电	-18322
▁沿袭	-18323
▁粉红色	-18324
▁终点站	-18325
▁junior	-18326
▁休假	-18327
▁偷袭	-18328
▁庄村	-18329
▁忠实	-18330
▁ins	-18331
▁红卫兵	-18332
▁channel	-18333
普斯	-18334
▁ku	-18335
▁vs	-18336
▁可说	-18337
▁因涉	-18338
▁壮族	-18339
▁小品	-18340
▁本岛	-18341
▁李元	-18342
▁遗传学	-18343
▁尼古拉斯	-18344
▁美式足球	-18345
英雄	-18346
资金	-18347
peg	-18348
▁三届	-18349
▁并任	-18350
▁明报	-18351
▁杨氏	-18352
▁绕过	-18353
▁英亩	-18354
▁1832	-18355
▁code	-18356
交道	-18357
▁图拉	-18358
▁小区	-18359
▁年冬	-18360
▁拍照	-18361
▁指代	-18362
▁面阔	-18363
▁365	-18364
▁set	-18365
▁主席团	-18366
▁唐纳德	-18367
▁胁	-18368
摩尔	-18369
▁四海	-18370
▁平章	-18371
▁教训	-18372
▁石桥	-18373
▁联名	-18374
▁阻塞	-18375
▁sem	-18376
▁1792	-18377
▁1795	-18378
▁bh	-18379
▁做过	-18380
▁功德	-18381
▁微笑	-18382
▁汉军	-18383
▁离岛	-18384
▁226	-18385
▁moz	-18386
▁保守党	-18387
▁第一集	-18388
地铁	-18389
瓦纳	-18390
立场	-18391
▁南澳	-18392
▁塞勒	-18393
▁奥拉	-18394
▁最深	-18395
▁深处	-18396
▁登机	-18397
▁该曲	-18398
▁银元	-18399
▁错过	-18400
▁龙头	-18401
然不同	-18402
▁克里斯托弗	-18403
公安	-18404
▁伸出	-18405
▁城东	-18406
▁建材	-18407
▁摄取	-18408
▁整备	-18409
▁首圈	-18410
▁cas	-18411
▁代理人	-18412
▁大自然	-18413
▁胡锦涛	-18414
▁萨尔瓦多	-18415
国内	-18416
▁事前	-18417
▁博洛	-18418
▁卫国	-18419
▁奇迹	-18420
▁承德	-18421
▁活着	-18422
▁编撰	-18423
▁走红	-18424
▁首名	-18425
▁印度人	-18426
▁都察院	-18427
▁1839	-18428
▁prot	-18429
▁媒体报道	-18430
▁special	-18431
▁station	-18432
书籍	-18433
变量	-18434
对手	-18435
▁本能	-18436
▁河边	-18437
▁王储	-18438
▁白血	-18439
▁食材	-18440
罗伯特	-18441
eter	-18442
ient	-18443
▁640	-18444
▁自然科学	-18445
zy	-18446
▁吴越	-18447
▁堪称	-18448
▁建新	-18449
▁清兵	-18450
▁通话	-18451
▁his	-18452
▁史考特	-18453
将军	-18454
机会	-18455
沃斯	-18456
301	-18457
▁东临	-18458
▁丰原	-18459
▁卵形	-18460
▁同一天	-18461
三种	-18462
存器	-18463
福音	-18464
邮件	-18465
▁伊恩	-18466
▁南平	-18467
▁塞内	-18468
▁选取	-18469
▁den	-18470
▁抗生素	-18471
▁3500	-18472
实际	-18473
运用	-18474
雷特	-18475
▁上传	-18476
▁不俗	-18477
▁中欧	-18478
▁停站	-18479
▁宗祠	-18480
▁英超球	-18481
▁随后在	-18482
▁梅克伦堡	-18483
cy	-18484
销售	-18485
▁kw	-18486
▁列日	-18487
▁哈比	-18488
▁钢弹	-18489
▁喜马拉	-18490
▁本路线	-18491
▁转换成	-18492
▁have	-18493
▁corpor	-18494
▁victor	-18495
▁两党	-18496
▁圣克	-18497
▁阿塔	-18498
▁rep	-18499
ks	-18500
▁中村	-18501
▁异形	-18502
▁草丛	-18503
▁克罗埃	-18504
▁海因里希	-18505
▁mount	-18506
产值	-18507
潜艇	-18508
▁互换	-18509
▁刘文	-18510
▁动乱	-18511
▁单线	-18512
▁卡梅	-18513
▁外加	-18514
▁张作	-18515
▁报警	-18516
▁液晶	-18517
▁过半	-18518
▁集装	-18519
▁雇主	-18520
▁行动党	-18521
奈尔	-18522
oud	-18523
▁令其	-18524
▁八号	-18525
▁勒姆	-18526
▁执笔	-18527
▁核弹	-18528
▁民选	-18529
▁这家	-18530
cast	-18531
▁传感器	-18532
▁埃尔斯	-18533
▁北京地铁	-18534
▁莫桑比克	-18535
庄镇	-18536
▁丛书	-18537
▁两极	-18538
▁临终	-18539
▁八千	-18540
▁反向	-18541
▁家居	-18542
▁录片	-18543
▁晚清	-18544
▁沙龙	-18545
▁生父	-18546
▁美容	-18547
▁讲学	-18548
ette	-18549
▁使人	-18550
▁和约	-18551
▁地基	-18552
▁常德	-18553
▁航速	-18554
▁诗经	-18555
▁降班	-18556
▁朱利安	-18557
▁康斯坦丁	-18558
▁ae	-18559
▁代管	-18560
▁哈伯	-18561
▁坦桑	-18562
▁抵挡	-18563
▁稳固	-18564
▁鄂尔	-18565
▁知识产权	-18566
化县	-18567
金刚	-18568
▁反动	-18569
▁油麻	-18570
▁短途	-18571
▁舰体	-18572
▁苏尔	-18573
▁金奖	-18574
▁降临	-18575
▁马耳	-18576
▁950	-18577
▁东西向	-18578
商业	-18579
存在	-18580
▁动脉	-18581
▁威海	-18582
▁实权	-18583
▁戒严	-18584
▁投放	-18585
▁控诉	-18586
▁推算	-18587
▁根源	-18588
▁百大	-18589
▁胞胎	-18590
▁隆起	-18591
▁格奥尔	-18592
▁glob	-18593
▁small	-18594
gan	-18595
▁糖果	-18596
▁绳县	-18597
▁康拉德	-18598
▁institute	-18599
尼派	-18600
▁以利	-18601
▁冀州	-18602
▁出示	-18603
▁动议	-18604
▁筹集	-18605
▁fran	-18606
ple	-18607
▁兼具	-18608
▁夺下	-18609
▁布瓦	-18610
▁淮安	-18611
eder	-18612
▁非线性	-18613
▁鲜半岛	-18614
加特	-18615
微子	-18616
承诺	-18617
▁付款	-18618
▁八面	-18619
▁四级	-18620
▁大院	-18621
▁学制	-18622
▁帮派	-18623
▁沙门	-18624
▁营长	-18625
▁龙华	-18626
▁增长率	-18627
大气	-18628
▁受聘	-18629
▁强势	-18630
▁狂风	-18631
▁船舰	-18632
▁艺员	-18633
▁馀年	-18634
▁305	-18635
▁560	-18636
▁供应商	-18637
▁marc	-18638
▁design	-18639
▁择	-18640
发动	-18641
轮机	-18642
acy	-18643
▁专职	-18644
▁光束	-18645
▁前景	-18646
▁北越	-18647
▁坚硬	-18648
▁安打	-18649
▁深感	-18650
▁深色	-18651
▁贯彻	-18652
▁起伏	-18653
▁过时	-18654
ship	-18655
▁美国队	-18656
▁三十五年	-18657
进会	-18658
▁佳绩	-18659
▁出台	-18660
▁旧名	-18661
bert	-18662
▁显微镜	-18663
▁男配角	-18664
▁喜马拉雅	-18665
oy	-18666
▁际	-18667
▁假说	-18668
▁掠过	-18669
▁推特	-18670
▁特大	-18671
▁相符	-18672
▁银币	-18673
▁小规模	-18674
▁video	-18675
北区	-18676
尔河	-18677
▁lg	-18678
▁为亚	-18679
▁云林	-18680
▁人种	-18681
▁史达	-18682
▁增补	-18683
▁尽力	-18684
▁没落	-18685
▁烟花	-18686
▁离去	-18687
▁西乡	-18688
▁非凡	-18689
adem	-18690
▁att	-18691
▁mol	-18692
▁老年人	-18693
温度	-18694
那亚	-18695
高祖	-18696
omo	-18697
▁朗德	-18698
▁硬盘	-18699
▁罪恶	-18700
▁遗失	-18701
▁001	-18702
▁南卡罗	-18703
▁摄影机	-18704
▁改隶属	-18705
▁1793	-18706
▁plan	-18707
▁兵败	-18708
▁实物	-18709
▁往南	-18710
▁很强	-18711
▁性情	-18712
▁斯福	-18713
▁甲状	-18714
▁伯克利	-18715
▁密西根	-18716
▁阿尔泰	-18717
▁外交关系	-18718
▁society	-18719
▁华山	-18720
▁圣灵	-18721
▁斥资	-18722
▁行军	-18723
▁辛未	-18724
▁777	-18725
▁字符串	-18726
▁point	-18727
四十	-18728
永远	-18729
▁仅能	-18730
▁同济	-18731
▁女排	-18732
▁求救	-18733
▁港人	-18734
▁行宫	-18735
▁热那亚	-18736
▁福冈县	-18737
▁诺基亚	-18738
▁鲍德温	-18739
▁mary	-18740
▁凯尔特人	-18741
▁三江	-18742
▁函馆	-18743
▁左营	-18744
▁水雷	-18745
政治部	-18746
iana	-18747
▁马里兰	-18748
拉省	-18749
药物	-18750
aga	-18751
▁	-18752
,	-18753
的	-18754
。	-18755
1	-18756
0	-18757
年	-18758
2	-18759
、	-18760
在	-18761
一	-18762
为	-18763
9	-18764
中	-18765
是	-18766
国	-18767
人	-18768
a	-18769
于	-18770
e	-18771
大	-18772
有	-18773
3	-18774
和	-18775
5	-18776
i	-18777
8	-18778
o	-18779
以	-18780
r	-18781
4	-18782
月	-18783
n	-18784
日	-18785
6	-18786
后	-18787
7	-18788
了	-18789
学	-18790
t	-18791
s	-18792
时	-18793
个	-18794
会	-18795
地	-18796
成	-18797
上	-18798
公	-18799
不	-18800
l	-18801
出	-18802
行	-18803
他	-18804
部	-18805
斯	-18806
与	-18807
之	-18808
区	-18809
c	-18810
名	-18811
发	-18812
其	-18813
主	-18814
作	-18815
生	-18816
尔	-18817
分	-18818
方	-18819
m	-18820
到	-18821
下	-18822
用	-18823
西	-18824
:	-18825
第	-18826
》	-18827
《	-18828
而	-18829
家	-18830
位	-18831
及	-18832
军	-18833
由	-18834
d	-18835
h	-18836
里	-18837
并	-18838
民	-18839
被	-18840
法	-18841
本	-18842
南	-18843
市	-18844
·	-18845
长	-18846
这	-18847
来	-18848
同	-18849
u	-18850
多	-18851
可	-18852
政	-18853
对	-18854
子	-18855
自	-18856
动	-18857
任	-18858
开	-18859
特	-18860
文	-18861
北	-18862
高	-18863
「	-18864
」	-18865
加	-18866
德	-18867
员	-18868
新	-18869
东	-18870
最	-18871
海	-18872
台	-18873
克	-18874
亚	-18875
前	-18876
也	-18877
平	-18878
利	-18879
代	-18880
等	-18881
所	-18882
p	-18883
面	-18884
三	-18885
度	-18886
电	-18887
因	-18888
美	-18889
此	-18890
建	-18891
经	-18892
得	-18893
道	-18894
现	-18895
进	-18896
物	-18897
“	-18898
过	-18899
要	-18900
机	-18901
间	-18902
内	-18903
g	-18904
b	-18905
事	-18906
至	-18907
教	-18908
山	-18909
立	-18910
路	-18911
当	-18912
拉	-18913
车	-18914
小	-18915
入	-18916
口	-18917
战	-18918
将	-18919
体	-18920
能	-18921
世	-18922
二	-18923
理	-18924
工	-18925
该	-18926
州	-18927
合	-18928
表	-18929
外	-18930
定	-18931
马	-18932
期	-18933
天	-18934
业	-18935
赛	-18936
制	-18937
但	-18938
化	-18939
球	-18940
科	-18941
十	-18942
次	-18943
种	-18944
使	-18945
全	-18946
;	-18947
布	-18948
通	-18949
场	-18950
称	-18951
性	-18952
队	-18953
者	-18954
f	-18955
共	-18956
线	-18957
总	-18958
设	-18959
县	-18960
式	-18961
数	-18962
重	-18963
系	-18964
都	-18965
罗	-18966
两	-18967
安	-18968
力	-18969
士	-18970
联	-18971
"	-18972
站	-18973
院	-18974
比	-18975
基	-18976
原	-18977
相	-18978
城	-18979
王	-18980
达	-18981
运	-18982
明	-18983
省	-18984
米	-18985
属	-18986
目	-18987
司	-18988
英	-18989
水	-18990
正	-18991
治	-18992
金	-18993
尼	-18994
格	-18995
华	-18996
号	-18997
统	-18998
府	-18999
k	-19000
关	-19001
组	-19002
兰	-19003
约	-19004
选	-19005
们	-19006
镇	-19007
四	-19008
或	-19009
列	-19010
如	-19011
计	-19012
元	-19013
港	-19014
起	-19015
y	-19016
影	-19017
巴	-19018
从	-19019
语	-19020
产	-19021
首	-19022
女	-19023
提	-19024
常	-19025
星	-19026
阿	-19027
改	-19028
演	-19029
林	-19030
v	-19031
议	-19032
量	-19033
心	-19034
向	-19035
然	-19036
乐	-19037
接	-19038
就	-19039
始	-19040
务	-19041
实	-19042
无	-19043
书	-19044
w	-19045
界	-19046
参	-19047
意	-19048
级	-19049
义	-19050
则	-19051
曾	-19052
广	-19053
委	-19054
管	-19055
手	-19056
受	-19057
单	-19058
程	-19059
指	-19060
交	-19061
说	-19062
卡	-19063
视	-19064
河	-19065
保	-19066
色	-19067
团	-19068
包	-19069
形	-19070
门	-19071
维	-19072
结	-19073
湾	-19074
音	-19075
已	-19076
着	-19077
型	-19078
处	-19079
香	-19080
流	-19081
党	-19082
传	-19083
直	-19084
些	-19085
获	-19086
类	-19087
集	-19088
史	-19089
太	-19090
万	-19091
认	-19092
点	-19093
应	-19094
导	-19095
夫	-19096
变	-19097
校	-19098
品	-19099
五	-19100
身	-19101
字	-19102
空	-19103
领	-19104
回	-19105
示	-19106
社	-19107
更	-19108
岛	-19109
积	-19110
展	-19111
铁	-19112
朝	-19113
江	-19114
还	-19115
古	-19116
持	-19117
师	-19118
张	-19119
图	-19120
各	-19121
奥	-19122
官	-19123
反	-19124
带	-19125
洲	-19126
专	-19127
别	-19128
据	-19129
举	-19130
只	-19131
命	-19132
纪	-19133
游	-19134
资	-19135
风	-19136
取	-19137
活	-19138
京	-19139
报	-19140
造	-19141
普	-19142
标	-19143
击	-19144
信	-19145
光	-19146
支	-19147
术	-19148
局	-19149
少	-19150
历	-19151
曲	-19152
族	-19153
近	-19154
没	-19155
非	-19156
石	-19157
纳	-19158
节	-19159
神	-19160
解	-19161
清	-19162
剧	-19163
情	-19164
际	-19165
转	-19166
研	-19167
每	-19168
苏	-19169
论	-19170
它	-19171
又	-19172
记	-19173
权	-19174
件	-19175
波	-19176
条	-19177
决	-19178
龙	-19179
即	-19180
村	-19181
放	-19182
角	-19183
片	-19184
她	-19185
气	-19186
商	-19187
伊	-19188
版	-19189
头	-19190
/	-19191
连	-19192
武	-19193
密	-19194
乡	-19195
辖	-19196
括	-19197
职	-19198
收	-19199
周	-19200
未	-19201
知	-19202
座	-19203
先	-19204
复	-19205
往	-19206
李	-19207
[...]
