<pad>	0
<unk>	0
[CLS]	0
[SEP]	0
[MASK]	0
(	0
)	0
”	0
-	0
.	0
–	0
£	0
€	0
20	-0
19	-1
201	-2
200	-3
一个	-4
▁19	-5
中国	-6
10	-7
▁在	-8
人口	-9
an	-10
18	-11
美国	-12
er	-13
位于	-14
12	-15
▁201	-16
公里	-17
in	-18
00	-19
or	-20
大学	-21
on	-22
可以	-23
11	-24
公司	-25
日本	-26
地区	-27
政府	-28
平方	-29
使用	-30
的一个	-31
成为	-32
香港	-33
开始	-34
ar	-35
国家	-36
15	-37
台湾	-38
的一	-39
第一	-40
以及	-41
▁200	-42
其中	-43
en	-44
进行	-45
la	-46
平方公里	-47
▁这	-48
包括	-49
面积	-50
主要	-51
世界	-52
16	-53
人民	-54
st	-55
17	-56
没有	-57
他们	-58
部分	-59
研究	-60
是一	-61
al	-62
199	-63
委员	-64
认为	-65
由于	-66
14	-67
获得	-68
30	-69
at	-70
▁该	-71
第二	-72
其他	-73
▁c	-74
之后	-75
因为	-76
▁他	-77
因此	-78
代表	-79
国际	-80
电影	-81
13	-82
▁t	-83
工作	-84
运动	-85
▁s	-86
当时	-87
ic	-88
政治	-89
中华	-90
同时	-91
le	-92
系统	-93
电视	-94
中心	-95
作为	-96
自己	-97
re	-98
之一	-99
中的	-100
▁m	-101
英国	-102
担任	-103
发展	-104
可能	-105
学院	-106
成立	-107
时间	-108
25	-109
不同	-110
属于	-111
」,	-112
▁此	-113
he	-114
称为	-115
设计	-116
ro	-117
中央	-118
通过	-119
for	-120
▁《	-121
发现	-122
198	-123
法国	-124
游戏	-125
社会	-126
行政	-127
it	-128
铁路	-129
表示	-130
50	-131
音乐	-132
mu	-133
他的	-134
建筑	-135
共和	-136
is	-137
委员会	-138
文化	-139
▁p	-140
负责	-141
组织	-142
年的	-143
根据	-144
历史	-145
出现	-146
21	-147
」。	-148
世纪	-149
年代	-150
参加	-151
am	-152
车站	-153
▁b	-154
学校	-155
24	-156
主义	-157
后来	-158
期间	-159
经济	-160
上的	-161
管理	-162
▁199	-163
单位	-164
所有	-165
市镇	-166
影响	-167
正式	-168
最后	-169
提供	-170
▁d	-171
发生	-172
共和国	-173
23	-174
也是	-175
城市	-176
利亚	-177
北京	-178
作品	-179
》,	-180
已经	-181
许多	-182
时期	-183
之间	-184
德国	-185
活动	-186
大的	-187
一些	-188
28	-189
、《	-190
mula	-191
▁但	-192
ac	-193
formula	-194
▁而	-195
全国	-196
教育	-197
es	-198
el	-199
,200	-200
问题	-201
26	-202
下辖	-203
人的	-204
尼亚	-205
这个	-206
目前	-207
27	-208
以下	-209
比赛	-210
足球	-211
进入	-212
服务	-213
un	-214
第三	-215
197	-216
民国	-217
上海	-218
成员	-219
名为	-220
as	-221
两个	-222
22	-223
40	-224
工程	-225
行星	-226
重要	-227
60	-228
最终	-229
ol	-230
战争	-231
这些	-232
生活	-233
密度	-234
节目	-235
il	-236
为了	-237
ch	-238
海拔	-239
关系	-240
人物	-241
方面	-242
发行	-243
联合	-244
分布	-245
000	-246
支持	-247
罗斯	-248
决定	-249
29	-250
到了	-251
学生	-252
制作	-253
ion	-254
▁198	-255
举行	-256
是在	-257
并且	-258
技术	-259
参与	-260
分别	-261
加入	-262
et	-263
高度	-264
▁h	-265
虽然	-266
》、《	-267
学家	-268
zh	-269
事件	-270
系列	-271
需要	-272
同年	-273
冠军	-274
▁由于	-275
大陆	-276
印度	-277
计划	-278
专辑	-279
地方	-280
▁其	-281
欧洲	-282
▁g	-283
建立	-284
一般	-285
人口密度	-286
的人	-287
保护	-288
学名	-289
会议	-290
拥有	-291
最高	-292
北部	-293
100	-294
▁o	-295
宣布	-296
▁大	-297
南部	-298
例如	-299
194	-300
组成	-301
▁本	-302
完成	-303
成功	-304
独立	-305
us	-306
是一个	-307
31	-308
国民	-309
▁w	-310
自由	-311
小行星	-312
要求	-313
主教	-314
斯特	-315
方式	-316
联赛	-317
▁f	-318
受到	-319
om	-320
有一	-321
位于该	-322
人民共和国	-323
存在	-324
通常	-325
就是	-326
对于	-327
所以	-328
毕业	-329
总统	-330
艺术	-331
列车	-332
开发	-333
球队	-334
▁a	-335
集团	-336
了一	-337
总面积	-338
出版	-339
管辖	-340
产生	-341
当地	-342
的大	-343
生产	-344
来自	-345
ur	-346
二十	-347
ing	-348
196	-349
ed	-350
情况	-351
and	-352
特别	-353
▁194	-354
另外	-355
的是	-356
id	-357
然而	-358
提出	-359
》。	-360
前往	-361
中华人民共和国	-362
不过	-363
形成	-364
采用	-365
195	-366
时代	-367
用于	-368
1,	-369
中共	-370
35	-371
2010	-372
选举	-373
民主	-374
生于	-375
▁18	-376
合作	-377
的一个市镇	-378
现在	-379
航空	-380
得到	-381
具有	-382
导致	-383
控制	-384
变化	-385
时的	-386
▁n	-387
ra	-388
植物	-389
70	-390
罗马	-391
机场	-392
结束	-393
▁l	-394
语言	-395
主席	-396
联盟	-397
俄罗斯	-398
造成	-399
除了	-400
只有	-401
女性	-402
一种	-403
西亚	-404
无法	-405
革命	-406
海军	-407
科学	-408
80	-409
动物	-410
2011	-411
海拔高度	-412
取得	-413
名的	-414
ig	-415
交通	-416
有限	-417
ent	-418
西班	-419
来的	-420
:“	-421
西班牙	-422
接受	-423
继续	-424
超过	-425
人员	-426
年人口	-427
新闻	-428
▁根据	-429
但是	-430
任何	-431
父亲	-432
韩国	-433
一直	-434
经过	-435
故事	-436
角色	-437
传统	-438
领导	-439
中华民国	-440
ow	-441
歌曲	-442
台北	-443
首次	-444
相关	-445
自己的	-446
如果	-447
项目	-448
增加	-449
帝国	-450
并在	-451
▁它	-452
大利	-453
位于该国	-454
部队	-455
机构	-456
都是	-457
结果	-458
附近	-459
工业	-460
结构	-461
十二	-462
37	-463
▁当	-464
▁阿	-465
▁"	-466
非常	-467
平均	-468
军事	-469
之前	-470
2019	-471
标准	-472
公园	-473
共产	-474
38	-475
36	-476
ad	-477
▁195	-478
个人	-479
ut	-480
内的	-481
也有	-482
建于	-483
中国大陆	-484
是由	-485
并不	-486
os	-487
中学	-488
行动	-489
发表	-490
公路	-491
还有	-492
版本	-493
设有	-494
居民	-495
分布于	-496
过程	-497
我们	-498
im	-499
自治	-500
现代	-501
这一	-502
90	-503
34	-504
小说	-505
苏联	-506
内容	-507
重新	-508
格兰	-509
改为	-510
分为	-511
有关	-512
演员	-513
热带	-514
▁197	-515
iv	-516
出的	-517
区域	-518
街道	-519
▁the	-520
地的	-521
电子	-522
民族	-523
年至	-524
反对	-525
直接	-526
甚至	-527
新的	-528
▁此外	-529
将军	-530
方法	-531
▁of	-532
纪念	-533
处理	-534
书记	-535
负责管辖	-536
▁k	-537
这种	-538
大量	-539
为主	-540
后的	-541
范围	-542
39	-543
教授	-544
军队	-545
朝鲜	-546
进士	-547
另一	-548
调查	-549
完全	-550
总人口	-551
共有	-552
▁有	-553
学习	-554
最佳	-555
名称	-556
建设	-557
距离	-558
必须	-559
东北	-560
2012	-561
一起	-562
:「	-563
亚洲	-564
美元	-565
协会	-566
第四	-567
环境	-568
生物	-569
位置	-570
区的	-571
主任	-572
克斯	-573
于是	-574
br	-575
战斗	-576
2,	-577
法院	-578
od	-579
太阳	-580
广东	-581
媒体	-582
45	-583
市场	-584
银行	-585
ot	-586
理论	-587
性的	-588
举办	-589
随着	-590
多数	-591
议会	-592
安全	-593
包含	-594
企业	-595
共同	-596
ia	-597
发布	-598
反应	-599
选择	-600
文学	-601
下的	-602
创作	-603
形式	-604
显示	-605
年间	-606
ir	-607
直到	-608
利用	-609
不能	-610
设立	-611
▁然而	-612
han	-613
省的一个市镇	-614
行为	-615
48	-616
▁196	-617
指挥	-618
政治人物	-619
制造	-620
联邦	-621
太平	-622
▁马	-623
数据	-624
体育	-625
执行	-626
2009	-627
自然	-628
决赛	-629
有限公司	-630
赛事	-631
小时	-632
三年	-633
基本	-634
2013	-635
解放	-636
攻击	-637
西部	-638
2016	-639
实际	-640
▁」	-641
曾经	-642
随后	-643
的地	-644
动画	-645
能够	-646
相当	-647
公开	-648
2014	-649
人类	-650
能力	-651
意大利	-652
下辖的一个	-653
日在	-654
关于	-655
计算	-656
他在	-657
女子	-658
议员	-659
33	-660
类似	-661
em	-662
——	-663
再次	-664
部长	-665
2015	-666
基础	-667
功能	-668
阿尔	-669
很多	-670
蒙古	-671
职业	-672
不是	-673
是一种	-674
共产党	-675
希望	-676
▁同年	-677
克兰	-678
使得	-679
机车	-680
法律	-681
文物	-682
大会	-683
达到	-684
32	-685
十一	-686
,《	-687
尔斯	-688
▁v	-689
表现	-690
定的	-691
ec	-692
▁其中	-693
拉斯	-694
广州	-695
不同的	-696
推出	-697
运动员	-698
一次	-699
路线	-700
空间	-701
时候	-702
主持	-703
ap	-704
离开	-705
团体	-706
三个	-707
巴士	-708
单曲	-709
作用	-710
国王	-711
um	-712
广播	-713
▁2013	-714
山东	-715
政策	-716
商业	-717
2000	-718
浙江	-719
2008	-720
op	-721
演出	-722
拍摄	-723
纪录	-724
▁st	-725
统治	-726
官方	-727
而且	-728
▁in	-729
专业	-730
,“	-731
约翰	-732
东京	-733
各种	-734
▁她	-735
▁从	-736
医院	-737
方向	-738
英文	-739
▁2016	-740
ag	-741
▁李	-742
并于	-743
▁新	-744
级行政	-745
资料	-746
,000	-747
仍然	-748
产品	-749
一样	-750
唯一	-751
实验	-752
东南	-753
乡镇	-754
等地	-755
斯坦	-756
ation	-757
▁虽然	-758
基督	-759
是法国	-760
严重	-761
之间的	-762
儿子	-763
人口为	-764
加拿	-765
▁另外	-766
的主	-767
ip	-768
相同	-769
全球	-770
模式	-771
任务	-772
▁2014	-773
早期	-774
博物	-775
第一次	-776
宗教	-777
逐渐	-778
下辖以下	-779
规模	-780
西北	-781
四川	-782
或者	-783
群岛	-784
2017	-785
飞机	-786
▁2012	-787
▁2015	-788
年在	-789
男性	-790
纽约	-791
2001	-792
」、	-793
西南	-794
以来	-795
被称为	-796
的特	-797
最大	-798
城镇	-799
▁j	-800
75	-801
天主教	-802
▁2010	-803
原因	-804
部份	-805
青年	-806
简称	-807
2007	-808
乌克兰	-809
细胞	-810
是中国	-811
▁总面积	-812
最初	-813
当选	-814
道路	-815
歌手	-816
号线	-817
希腊	-818
是下辖的一个	-819
连接	-820
击败	-821
▁曾	-822
演唱	-823
播出	-824
等人	-825
公共	-826
不久	-827
南京	-828
高速	-829
每平方公里	-830
他们的	-831
报告	-832
190	-833
▁2017	-834
家庭	-835
指出	-836
英语	-837
博士	-838
事务	-839
越南	-840
全部	-841
%,	-842
合并	-843
网络	-844
▁e	-845
2006	-846
人士	-847
应用	-848
去世	-849
导演	-850
加拿大	-851
下辖以下地区	-852
清朝	-853
65	-854
发动	-855
属的	-856
▁自	-857
▁与	-858
轨道	-859
定义	-860
2018	-861
▁,	-862
明朝	-863
ul	-864
栖息	-865
投资	-866
则是	-867
母亲	-868
司令	-869
▁2018	-870
训练	-871
地球	-872
持续	-873
广场	-874
物理	-875
者的	-876
透过	-877
不会	-878
▁2008	-879
公布	-880
它们	-881
▁2011	-882
阿拉	-883
东部	-884
年后	-885
球员	-886
死亡	-887
描述	-888
博物馆	-889
的新	-890
这样	-891
▁小行星	-892
下的一个	-893
天津	-894
男子	-895
制度	-896
整个	-897
分钟	-898
级行政单位	-899
规定	-900
列表	-901
风格	-902
开放	-903
中文	-904
目标	-905
乡镇级行政单位	-906
尽管	-907
%。	-908
记载	-909
漫画	-910
▁王	-911
名字	-912
化学	-913
比较	-914
多的	-915
先后	-916
马来	-917
办公	-918
伦敦	-919
▁现	-920
出生	-921
四年	-922
千米	-923
葡萄	-924
里斯	-925
47	-926
th	-927
科技	-928
的第	-929
大战	-930
设置	-931
美洲	-932
▁一	-933
年度	-934
速度	-935
是下辖的一个乡镇级行政单位	-936
电视台	-937
处于	-938
外交	-939
公尺	-940
出身	-941
▁后	-942
2005	-943
赛季	-944
人口密度每平方公里	-945
▁3	-946
最早	-947
连续	-948
46	-949
经常	-950
改革	-951
学者	-952
土地	-953
年起	-954
爆发	-955
河南	-956
帮助	-957
的主要	-958
▁后来	-959
恢复	-960
两人	-961
杂志	-962
55	-963
不少	-964
玩家	-965
福建	-966
然后	-967
ist	-968
是位于	-969
经营	-970
▁圣	-971
立法	-972
▁2	-973
改变	-974
澳门	-975
av	-976
作家	-977
▁西	-978
引起	-979
同样	-980
」、「	-981
乐部	-982
▁为	-983
图示	-984
命名	-985
国的	-986
ce	-987
战役	-988
陆军	-989
年时的	-990
俱乐部	-991
大部分	-992
▁该市镇	-993
著名	-994
最大的	-995
成绩	-996
网站	-997
将其	-998
家族	-999
以上	-1000
▁目前	-1001
ay	-1002
地下	-1003
te	-1004
▁中国	-1005
▁由	-1006
ie	-1007
贸易	-1008
每年	-1009
她的	-1010
飞行	-1011
人口变化	-1012
▁4	-1013
▁是	-1014
太平洋	-1015
赢得	-1016
ak	-1017
▁这些	-1018
人口变化图示	-1019
元年	-1020
当中	-1021
ter	-1022
分子	-1023
教堂	-1024
有的	-1025
og	-1026
加上	-1027
部门	-1028
物种	-1029
▁r	-1030
还是	-1031
500	-1032
斯科	-1033
的一部分	-1034
信息	-1035
表演	-1036
锦标	-1037
汽车	-1038
身份	-1039
这是	-1040
规划	-1041
取代	-1042
长的	-1043
月台	-1044
居住	-1045
业务	-1046
oc	-1047
比亚	-1048
建议	-1049
▁南	-1050
图书	-1051
中部	-1052
出生于	-1053
多次	-1054
▁因此	-1055
会的	-1056
第二次	-1057
型的	-1058
第五	-1059
教区	-1060
▁2009	-1061
尔德	-1062
人们	-1063
警察	-1064
3,	-1065
阶段	-1066
协助	-1067
▁当时	-1068
武器	-1069
建造	-1070
64	-1071
▁于	-1072
ab	-1073
95	-1074
三十	-1075
,19	-1076
▁不过	-1077
皇帝	-1078
领域	-1079
条件	-1080
体的	-1081
回到	-1082
遭到	-1083
年时的人口为	-1084
至今	-1085
分析	-1086
设施	-1087
左右	-1088
解放军	-1089
以后	-1090
▁formula	-1091
荷兰	-1092
之外	-1093
面的	-1094
设备	-1095
加坡	-1096
原本	-1097
天文	-1098
奥运	-1099
贝尔	-1100
学位	-1101
几乎	-1102
运输	-1103
状态	-1104
重要的	-1105
▁张	-1106
▁据	-1107
▁8	-1108
可以指	-1109
出任	-1110
地铁	-1111
相对	-1112
可达	-1113
▁1	-1114
江苏	-1115
自动	-1116
过去	-1117
出了	-1118
ub	-1119
的一种	-1120
一名	-1121
ers	-1122
内部	-1123
唱片	-1124
属下的一个	-1125
会在	-1126
英格兰	-1127
地区的	-1128
98	-1129
社区	-1130
五年	-1131
统一	-1132
大约	-1133
任命	-1134
▁5	-1135
兄弟	-1136
批评	-1137
超级	-1138
万人	-1139
68	-1140
是指	-1141
作战	-1142
sp	-1143
官员	-1144
又称	-1145
ov	-1146
流行	-1147
广泛	-1148
兴建	-1149
湖南	-1150
排名	-1151
the	-1152
继承	-1153
毫米	-1154
▁2007	-1155
多个	-1156
计画	-1157
乐团	-1158
星期	-1159
数量	-1160
条约	-1161
在此	-1162
普查	-1163
流域	-1164
运行	-1165
频道	-1166
发射	-1167
南极	-1168
▁之后	-1169
2004	-1170
公分	-1171
电视剧	-1172
国内	-1173
拒绝	-1174
科的	-1175
第十	-1176
二年	-1177
▁卡	-1178
伊斯	-1179
▁re	-1180
主角	-1181
线路	-1182
▁同时	-1183
巴西	-1184
生长	-1185
▁高	-1186
组合	-1187
始建于	-1188
概念	-1189
影片	-1190
农业	-1191
bo	-1192
波兰	-1193
境内	-1194
佛教	-1195
十分	-1196
▁陈	-1197
展开	-1198
云南	-1199
保持	-1200
宣传	-1201
不断	-1202
▁7	-1203
准备	-1204
好的	-1205
州市	-1206
▁6	-1207
函数	-1208
进攻	-1209
44	-1210
▁<	-1211
99	-1212
所在	-1213
用来	-1214
电脑	-1215
解决	-1216
每个	-1217
ind	-1218
舰队	-1219
国民党	-1220
评论	-1221
娱乐	-1222
▁但是	-1223
的情况	-1224
减少	-1225
▁2006	-1226
记者	-1227
被认为	-1228
记录	-1229
车辆	-1230
风暴	-1231
和平	-1232
的前	-1233
国立	-1234
锦标赛	-1235
实现	-1236
一步	-1237
山脉	-1238
空军	-1239
ard	-1240
首都	-1241
基地	-1242
▁2019	-1243
精神	-1244
儿童	-1245
日军	-1246
平台	-1247
力量	-1248
▁10	-1249
并没有	-1250
子的	-1251
资源	-1252
长期	-1253
hk	-1254
日至	-1255
董事	-1256
78	-1257
线的	-1258
机会	-1259
巴黎	-1260
程序	-1261
▁这个	-1262
了一个	-1263
限制	-1264
普通	-1265
、“	-1266
奥斯	-1267
饰演	-1268
破坏	-1269
ii	-1270
元素	-1271
维尔	-1272
初期	-1273
基于	-1274
交易	-1275
新加坡	-1276
76	-1277
文物保护	-1278
▁东	-1279
只是	-1280
运动会	-1281
都有	-1282
及其	-1283
资格	-1284
祖父	-1285
羽毛	-1286
思想	-1287
双方	-1288
或是	-1289
一位	-1290
女儿	-1291
统计	-1292
个月	-1293
日起	-1294
是美国	-1295
恒星	-1296
威廉	-1297
基金	-1298
视为	-1299
,「	-1300
无线	-1301
小学	-1302
ge	-1303
49	-1304
综合	-1305
区负责管辖	-1306
协议	-1307
公元	-1308
58	-1309
力的	-1310
▁!	-1311
非洲	-1312
因而	-1313
用的	-1314
委会	-1315
犹太	-1316
它的	-1317
文物保护单位	-1318
塞尔	-1319
一年	-1320
▁他们	-1321
▁and	-1322
tw	-1323
乔治	-1324
国务	-1325
▁三	-1326
▁中	-1327
▁9	-1328
▁北	-1329
高级	-1330
又名	-1331
第一个	-1332
all	-1333
300	-1334
年开始	-1335
机关	-1336
化的	-1337
sa	-1338
西省	-1339
教会	-1340
国会	-1341
,2009	-1342
年被	-1343
用户	-1344
▁以	-1345
半岛	-1346
殖民	-1347
参赛	-1348
成的	-1349
年轻	-1350
同意	-1351
应该	-1352
程度	-1353
up	-1354
斯基	-1355
获得了	-1356
的影响	-1357
,2001	-1358
移动	-1359
平方千米	-1360
少年	-1361
都会	-1362
总部	-1363
分类	-1364
观众	-1365
不可	-1366
▁“	-1367
著名的	-1368
接近	-1369
的时候	-1370
如下	-1371
ud	-1372
治疗	-1373
拉克	-1374
是否	-1375
金属	-1376
维持	-1377
但在	-1378
产业	-1379
王朝	-1380
夏季	-1381
不明	-1382
方案	-1383
se	-1384
解释	-1385
自治区	-1386
ik	-1387
二世	-1388
实施	-1389
总理	-1390
中国人民	-1391
▁至	-1392
知道	-1393
曾在	-1394
▁刘	-1395
2003	-1396
常见	-1397
的小	-1398
▁布	-1399
ne	-1400
大型	-1401
art	-1402
是乌克兰	-1403
一带	-1404
毕业于	-1405
澳大	-1406
投入	-1407
▁「	-1408
秘书	-1409
起来	-1410
ph	-1411
大楼	-1412
使用的	-1413
奥林	-1414
里的	-1415
来说	-1416
六年	-1417
文件	-1418
图书馆	-1419
改编	-1420
色的	-1421
价值	-1422
质量	-1423
旅游	-1424
变成	-1425
56	-1426
目的	-1427
市的	-1428
▁巴	-1429
人在	-1430
物质	-1431
交流	-1432
▁安	-1433
集中	-1434
研究所	-1435
马来西亚	-1436
快速	-1437
确定	-1438
县人	-1439
qu	-1440
到达	-1441
返回	-1442
斯的	-1443
支援	-1444
尚未	-1445
结合	-1446
="	-1447
妻子	-1448
从事	-1449
ba	-1450
,199	-1451
销售	-1452
有效	-1453
氧化	-1454
光绪	-1455
▁。	-1456
▁天	-1457
进一步	-1458
体长	-1459
海岸	-1460
证明	-1461
邀请	-1462
96	-1463
sh	-1464
ill	-1465
维亚	-1466
州的	-1467
▁金	-1468
投票	-1469
播放	-1470
鳍鱼	-1471
是乌克兰的	-1472
批准	-1473
讨论	-1474
现象	-1475
不再	-1476
if	-1477
澳大利亚	-1478
电台	-1479
85	-1480
ss	-1481
海域	-1482
42	-1483
皇家	-1484
葡萄牙	-1485
公主	-1486
保留	-1487
遗址	-1488
正在	-1489
小组	-1490
高等	-1491
其后	-1492
胜利	-1493
下午	-1494
德里	-1495
报道	-1496
体系	-1497
各地	-1498
地位	-1499
大臣	-1500
河北	-1501
▁美国	-1502
来源	-1503
ok	-1504
na	-1505
公民	-1506
一世	-1507
标为	-1508
ine	-1509
创立	-1510
议院	-1511
▁2005	-1512
创办	-1513
两种	-1514
辐鳍鱼	-1515
材料	-1516
只能	-1517
承认	-1518
辐鳍鱼纲	-1519
米的	-1520
东西	-1521
▁de	-1522
▁黄	-1523
临时	-1524
重建	-1525
▁为了	-1526
的一座	-1527
▁前	-1528
针对	-1529
村落	-1530
课程	-1531
方的	-1532
类型	-1533
操作	-1534
少数	-1535
未能	-1536
停止	-1537
属下的一个种	-1538
是以	-1539
中国共产党	-1540
威尔	-1541
广告	-1542
宪法	-1543
编号	-1544
直至	-1545
第六	-1546
前的	-1547
在美国	-1548
生涯	-1549
奥林匹	-1550
总督	-1551
77	-1552
核心	-1553
▁因为	-1554
▁12	-1555
水域	-1556
如此	-1557
为一	-1558
▁香港	-1559
高的	-1560
重庆	-1561
2002	-1562
结婚	-1563
程式	-1564
铁道	-1565
选手	-1566
ang	-1567
收录	-1568
的意	-1569
王国	-1570
上映	-1571
und	-1572
hans	-1573
选区	-1574
队的	-1575
访问	-1576
客运	-1577
进行了	-1578
尤其	-1579
效力	-1580
再度	-1581
羽毛球	-1582
重点	-1583
为辐鳍鱼纲	-1584
允许	-1585
现时	-1586
测试	-1587
主题	-1588
引擎	-1589
十八	-1590
明显	-1591
▁小	-1592
事业	-1593
▁该市镇总面积	-1594
主演	-1595
西藏	-1596
日的	-1597
亦有	-1598
中山	-1599
机械	-1600
收入	-1601
试图	-1602
未来	-1603
数学	-1604
命令	-1605
世界大战	-1606
▁ch	-1607
地震	-1608
校长	-1609
朋友	-1610
说法	-1611
是日本	-1612
人工	-1613
民众	-1614
冲突	-1615
伯特	-1616
",	-1617
大多数	-1618
的研究	-1619
97	-1620
过程中	-1621
成立于	-1622
外的	-1623
注意	-1624
逝世	-1625
提高	-1626
字母	-1627
▁190	-1628
失去	-1629
的首	-1630
德语	-1631
调整	-1632
4,	-1633
高中	-1634
路易	-1635
66	-1636
就读	-1637
ct	-1638
表达	-1639
电力	-1640
生命	-1641
是一位	-1642
也在	-1643
:00	-1644
▁奥	-1645
建成	-1646
考虑	-1647
文章	-1648
台中	-1649
市长	-1650
成为了	-1651
奥林匹克	-1652
《》	-1653
ice	-1654
▁拉	-1655
国防	-1656
卫星	-1657
取消	-1658
57	-1659
43	-1660
失败	-1661
市区	-1662
争议	-1663
股份	-1664
▁例如	-1665
▁如果	-1666
的方式	-1667
数字	-1668
体长可达	-1669
隧道	-1670
南北	-1671
▁他在	-1672
九龙	-1673
澳洲	-1674
人数	-1675
武装	-1676
地利	-1677
高雄	-1678
行政区	-1679
yo	-1680
合物	-1681
联合国	-1682
看到	-1683
;}	-1684
有时	-1685
不得	-1686
曾任	-1687
移民	-1688
翻译	-1689
十年	-1690
等等	-1691
▁罗	-1692
某些	-1693
伊斯兰	-1694
着作	-1695
列为	-1696
▁克	-1697
ma	-1698
政权	-1699
大道	-1700
医学	-1701
历史上	-1702
86	-1703
瑞典	-1704
阿拉伯	-1705
名单	-1706
观察	-1707
的原	-1708
将会	-1709
有着	-1710
信号	-1711
稳定	-1712
▁和	-1713
运营	-1714
国务院	-1715
学术	-1716
ht	-1717
文字	-1718
申请	-1719
41	-1720
one	-1721
四个	-1722
▁的	-1723
事实	-1724
是一颗	-1725
同一	-1726
球场	-1727
得以	-1728
米尔	-1729
▁17	-1730
1990	-1731
加利	-1732
基督教	-1733
ber	-1734
的第一	-1735
避免	-1736
一度	-1737
栖息在	-1738
普遍	-1739
引发	-1740
湖北	-1741
一同	-1742
可能是	-1743
尼斯	-1744
动力	-1745
发售	-1746
▁全	-1747
战后	-1748
网路	-1749
有些	-1750
人民政府	-1751
相似	-1752
对手	-1753
创造	-1754
ant	-1755
欢迎	-1756
其中男性	-1757
也会	-1758
消息	-1759
市民	-1760
古代	-1761
墨西	-1762
政党	-1763
人口普查	-1764
等为	-1765
特殊	-1766
▁尽管	-1767
▁原	-1768
67	-1769
工厂	-1770
知名	-1771
科的其中	-1772
财政	-1773
▁2004	-1774
1980	-1775
▁除了	-1776
夺得	-1777
▁他的	-1778
哈尔	-1779
容易	-1780
马克	-1781
▁伊	-1782
森林	-1783
西方	-1784
知识	-1785
编辑	-1786
也被	-1787
姆斯	-1788
气象	-1789
软件	-1790
什么	-1791
▁因	-1792
出来	-1793
尔兰	-1794
其它	-1795
1999	-1796
de	-1797
出口	-1798
本身	-1799
是一名	-1800
简单	-1801
从而	-1802
台北市	-1803
夫卡	-1804
召开	-1805
尔的	-1806
士兵	-1807
酒店	-1808
乘客	-1809
中共中央	-1810
西洋	-1811
给予	-1812
台南	-1813
并非	-1814
瑞士	-1815
关注	-1816
不足	-1817
当时的	-1818
七年	-1819
斯克	-1820
菲律	-1821
乾隆	-1822
孩子	-1823
而是	-1824
菲律宾	-1825
民间	-1826
蛋白	-1827
现场	-1828
职务	-1829
并未	-1830
之下	-1831
身体	-1832
军的	-1833
隶属于	-1834
人大	-1835
表面	-1836
▁上	-1837
墨西哥	-1838
办公室	-1839
金融	-1840
的海	-1841
▁长	-1842
▁此后	-1843
经历	-1844
提名	-1845
59	-1846
400	-1847
之中	-1848
皇后	-1849
奥地利	-1850
传说	-1851
旅客	-1852
小的	-1853
安排	-1854
喜欢	-1855
89	-1856
放弃	-1857
面积为	-1858
提升	-1859
教练	-1860
87	-1861
台风	-1862
实行	-1863
代码	-1864
实际上	-1865
迅速	-1866
月至	-1867
水平	-1868
教学	-1869
模型	-1870
警方	-1871
公司的	-1872
51	-1873
150	-1874
安装	-1875
年底	-1876
禁止	-1877
亚历	-1878
io	-1879
背景	-1880
大使	-1881
资讯	-1882
69	-1883
挑战	-1884
复杂	-1885
ver	-1886
信仰	-1887
教师	-1888
袭击	-1889
主张	-1890
亿元	-1891
时任	-1892
估计	-1893
权力	-1894
装置	-1895
竞争	-1896
尼亚州	-1897
年由	-1898
爱尔兰	-1899
发电	-1900
约为	-1901
匈牙	-1902
ows	-1903
届全国	-1904
发起	-1905
埃及	-1906
▁11	-1907
也可以	-1908
九年	-1909
特的	-1910
年美国	-1911
最后一	-1912
仪式	-1913
规则	-1914
强烈	-1915
匈牙利	-1916
安徽	-1917
都市	-1918
一定	-1919
先生	-1920
深圳	-1921
万元	-1922
色列	-1923
发出	-1924
英雄	-1925
按照	-1926
62	-1927
卡尔	-1928
里亚	-1929
外国	-1930
发现了	-1931
专门	-1932
来到	-1933
球会	-1934
哲学	-1935
52	-1936
评价	-1937
在这	-1938
1998	-1939
是乌克兰的村落	-1940
率领	-1941
的地方	-1942
的高	-1943
ell	-1944
品牌	-1945
红色	-1946
广西	-1947
54	-1948
53	-1949
工具	-1950
法兰	-1951
心理	-1952
ive	-1953
学会	-1954
能量	-1955
坦克	-1956
ian	-1957
基因	-1958
吸引	-1959
比利	-1960
完整	-1961
自行	-1962
▁同	-1963
第七	-1964
十字	-1965
积极	-1966
▁以下	-1967
飓风	-1968
英尺	-1969
民主党	-1970
高速公路	-1971
抵达	-1972
▁2003	-1973
才能	-1974
势力	-1975
营运	-1976
卫生	-1977
太子	-1978
另一个	-1979
有所	-1980
权利	-1981
面对	-1982
淡水	-1983
▁zh	-1984
不满	-1985
拉丁	-1986
▁对	-1987
至少	-1988
▁这种	-1989
▁台湾	-1990
ack	-1991
构成	-1992
作曲	-1993
而被	-1994
尚书	-1995
有一个	-1996
效果	-1997
授予	-1998
报导	-1999
命名为	-2000
彼得	-2001
贡献	-2002
东方	-2003
作者	-2004
▁to	-2005
购买	-2006
装甲	-2007
武汉	-2008
▁16	-2009
1997	-2010
感到	-2011
人和	-2012
出现在	-2013
演唱会	-2014
联系	-2015
性质	-2016
威胁	-2017
ib	-2018
co	-2019
的历史	-2020
▁明	-2021
特征	-2022
如何	-2023
ta	-2024
经验	-2025
十六	-2026
制的	-2027
标志	-2028
戏剧	-2029
司马	-2030
土耳	-2031
团队	-2032
长度	-2033
79	-2034
瓦尔	-2035
师范	-2036
之子	-2037
中间	-2038
牠们	-2039
土耳其	-2040
的重要	-2041
斯塔	-2042
候选	-2043
宇宙	-2044
县的	-2045
72	-2046
美术	-2047
首府	-2048
采取	-2049
以前	-2050
多年	-2051
平方米	-2052
多种	-2053
观测	-2054
舞台	-2055
入侵	-2056
接触	-2057
更加	-2058
维奇	-2059
专家	-2060
院长	-2061
河畔	-2062
绝对	-2063
世界杯	-2064
中国人民解放军	-2065
▁随着	-2066
indows	-2067
科的其中一种	-2068
增长	-2069
领袖	-2070
的山	-2071
为止	-2072
est	-2073
气旋	-2074
泰国	-2075
▁ro	-2076
结束后	-2077
介绍	-2078
状况	-2079
地点	-2080
更名为	-2081
北京市	-2082
全长	-2083
美军	-2084
正常	-2085
亚历山	-2086
抗日	-2087
水库	-2088
88	-2089
在中国	-2090
:"	-2091
的三	-2092
被认为是	-2093
埃尔	-2094
传播	-2095
推动	-2096
,198	-2097
定为	-2098
白色	-2099
万美元	-2100
父母	-2101
▁海	-2102
撤销	-2103
缺乏	-2104
内阁	-2105
61	-2106
有人	-2107
年时	-2108
很快	-2109
拉夫	-2110
更多	-2111
bs	-2112
十三	-2113
公众	-2114
医疗	-2115
配合	-2116
硕士	-2117
周边	-2118
岁的	-2119
边界	-2120
而言	-2121
▁第	-2122
较为	-2123
压力	-2124
健康	-2125
中国大陆的	-2126
广东省	-2127
温度	-2128
几个	-2129
需求	-2130
太空	-2131
对象	-2132
理事	-2133
华人	-2134
岁时	-2135
工人	-2136
因素	-2137
启用	-2138
▁日本	-2139
,18	-2140
▁科	-2141
律师	-2142
比如	-2143
收购	-2144
▁2000	-2145
顾问	-2146
中有	-2147
晚上	-2148
后期	-2149
oh	-2150
住宅	-2151
的作品	-2152
加盟	-2153
动作	-2154
亚目	-2155
com	-2156
观点	-2157
意义	-2158
气候	-2159
的发展	-2160
委书记	-2161
经理	-2162
一条	-2163
▁二	-2164
萨克	-2165
▁两	-2166
星等为	-2167
而在	-2168
花园	-2169
▁主要	-2170
苏格兰	-2171
找到	-2172
源于	-2173
参加了	-2174
登陆	-2175
其馀	-2176
92	-2177
机器	-2178
形目	-2179
下来	-2180
63	-2181
即使	-2182
生的	-2183
知县	-2184
说明	-2185
ity	-2186
71	-2187
驾驶	-2188
降低	-2189
▁林	-2190
机的	-2191
那些	-2192
照片	-2193
man	-2194
全面	-2195
大奖	-2196
真正	-2197
神经	-2198
队伍	-2199
所有的	-2200
柏林	-2201
装备	-2202
代表大会	-2203
tr	-2204
ex	-2205
疾病	-2206
河流	-2207
入口	-2208
南方	-2209
改善	-2210
和其他	-2211
乐队	-2212
混合	-2213
1970	-2214
出席	-2215
的国家	-2216
年前	-2217
球季	-2218
测量	-2219
社会主义	-2220
相信	-2221
加利福	-2222
延伸	-2223
▁2002	-2224
74	-2225
原子	-2226
是香港	-2227
乡试	-2228
首先	-2229
日报	-2230
的问题	-2231
lo	-2232
参谋	-2233
出道	-2234
▁杨	-2235
布鲁	-2236
意识	-2237
损失	-2238
贵族	-2239
夫人	-2240
达成	-2241
▁除	-2242
农村	-2243
年龄	-2244
局长	-2245
历任	-2246
的外	-2247
当局	-2248
江西	-2249
十五	-2250
劳动	-2251
部落	-2252
张专辑	-2253
三角	-2254
经典	-2255
强调	-2256
印尼	-2257
截至	-2258
▁清	-2259
军区	-2260
举行的	-2261
修改	-2262
明朝政治人物	-2263
旗下	-2264
哥伦	-2265
出战	-2266
并将	-2267
变得	-2268
地理	-2269
秘密	-2270
表明	-2271
比例	-2272
镇下辖以下地区	-2273
尔特	-2274
死后	-2275
请求	-2276
象征	-2277
食物	-2278
受伤	-2279
而该	-2280
奖项	-2281
▁白	-2282
办理	-2283
▁唐	-2284
ong	-2285
玛丽	-2286
通车	-2287
地图	-2288
最多	-2289
▁正	-2290
以色列	-2291
大致	-2292
保罗	-2293
▁对于	-2294
▁下	-2295
大区	-2296
种族	-2297
uc	-2298
县的一个	-2299
了解	-2300
领土	-2301
73	-2302
不仅	-2303
代理	-2304
终于	-2305
被迫	-2306
法案	-2307
▁如	-2308
系统的	-2309
部的	-2310
声明	-2311
比赛中	-2312
占领	-2313
扮演	-2314
83	-2315
少女	-2316
1996	-2317
并入	-2318
摄影	-2319
大厦	-2320
错误	-2321
新疆	-2322
火箭	-2323
1000	-2324
驱逐	-2325
年初	-2326
涉及	-2327
办事	-2328
ich	-2329
||	-2330
同盟	-2331
▁x	-2332
加州	-2333
带来	-2334
执导	-2335
扩大	-2336
go	-2337
就会	-2338
家的	-2339
lay	-2340
电话	-2341
起义	-2342
▁分布于	-2343
形象	-2344
责任	-2345
司法	-2346
运作	-2347
康熙	-2348
84	-2349
的时间	-2350
华盛	-2351
君主	-2352
打击	-2353
政府的	-2354
名义	-2355
带领	-2356
符合	-2357
试验	-2358
并以	-2359
93	-2360
改造	-2361
鱼类	-2362
▁随后	-2363
1994	-2364
94	-2365
天体	-2366
抗议	-2367
是德国	-2368
华盛顿	-2369
国家的	-2370
相比	-2371
82	-2372
指导	-2373
战略	-2374
突然	-2375
示威	-2376
亨利	-2377
so	-2378
空中	-2379
的工作	-2380
那里	-2381
的故事	-2382
科学院	-2383
一座	-2384
习性	-2385
布拉	-2386
确认	-2387
岛屿	-2388
大多	-2389
爆炸	-2390
剧情	-2391
计算机	-2392
▁2001	-2393
▁嘉	-2394
丹麦	-2395
加强	-2396
海峡	-2397
篮球	-2398
可能会	-2399
▁for	-2400
一家	-2401
以外	-2402
pe	-2403
火山	-2404
展示	-2405
投降	-2406
海外	-2407
签署	-2408
得知	-2409
在日本	-2410
▁维	-2411
▁la	-2412
作出	-2413
提到	-2414
兼任	-2415
组成的	-2416
马尔	-2417
后者	-2418
丰富	-2419
1995	-2420
空气	-2421
证据	-2422
选为	-2423
事故	-2424
间的	-2425
颜色	-2426
81	-2427
海洋	-2428
创建	-2429
山西	-2430
差异	-2431
众多	-2432
位于中国	-2433
的情况下	-2434
对外	-2435
会员	-2436
阶级	-2437
萨斯	-2438
陆续	-2439
ps	-2440
是因为	-2441
麦克	-2442
在于	-2443
次年	-2444
艺人	-2445
杀死	-2446
源自	-2447
深度	-2448
食品	-2449
称作	-2450
价格	-2451
此时	-2452
西南部	-2453
犯罪	-2454
ff	-2455
大学的	-2456
天皇	-2457
地面	-2458
时期的	-2459
ate	-2460
兴趣	-2461
资金	-2462
tv	-2463
大桥	-2464
栽培	-2465
600	-2466
毕业后	-2467
这次	-2468
南极洲	-2469
依然	-2470
围绕	-2471
州的一个市镇	-2472
▁若	-2473
政协	-2474
声音	-2475
两次	-2476
化石	-2477
真实	-2478
也就是	-2479
一段	-2480
ry	-2481
促进	-2482
史上	-2483
ug	-2484
当年	-2485
恐怖	-2486
亿美元	-2487
▁al	-2488
end	-2489
▁20	-2490
年夏季	-2491
亲王	-2492
东北部	-2493
、、	-2494
对抗	-2495
山东省	-2496
转的	-2497
在香港	-2498
莫斯科	-2499
入选	-2500
▁最后	-2501
西北部	-2502
建制	-2503
黄金	-2504
荣誉	-2505
用作	-2506
世界上	-2507
列入	-2508
也不	-2509
固定	-2510
对应	-2511
180	-2512
声称	-2513
在大	-2514
退休	-2515
退出	-2516
保存	-2517
▁格	-2518
cd	-2519
轰炸	-2520
月初	-2521
ho	-2522
安德	-2523
芬兰	-2524
国民政府	-2525
身为	-2526
缅甸	-2527
步兵	-2528
随即	-2529
任职	-2530
▁其后	-2531
而成	-2532
ast	-2533
明治	-2534
北方	-2535
参考	-2536
转移	-2537
八年	-2538
生活习性	-2539
毛泽	-2540
5,	-2541
文献	-2542
周围	-2543
量的	-2544
之战	-2545
的设计	-2546
城区	-2547
骑士	-2548
可以在	-2549
走向	-2550
通道	-2551
病毒	-2552
票房	-2553
上市	-2554
▁斯	-2555
年到	-2556
往往	-2557
ign	-2558
符号	-2559
十四	-2560
近年	-2561
青岛	-2562
▁车站	-2563
成本	-2564
黑色	-2565
亦是	-2566
设于	-2567
山区	-2568
sc	-2569
91	-2570
种子	-2571
论文	-2572
▁co	-2573
上海市	-2574
▁每	-2575
马拉	-2576
药物	-2577
认识	-2578
附近的	-2579
▁元	-2580
生活习性不明	-2581
式的	-2582
今天	-2583
依据	-2584
下降	-2585
队长	-2586
周年	-2587
私人	-2588
ix	-2589
监督	-2590
毛泽东	-2591
寻找	-2592
int	-2593
免费	-2594
朝廷	-2595
合约	-2596
释放	-2597
▁pro	-2598
军团	-2599
会长	-2600
120	-2601
的事	-2602
布尔	-2603
那么	-2604
关闭	-2605
开通	-2606
书院	-2607
资产	-2608
开设	-2609
编剧	-2610
医生	-2611
不到	-2612
陕西	-2613
签订	-2614
相互	-2615
▁德	-2616
意见	-2617
农民	-2618
难以	-2619
成了	-2620
cn	-2621
▁th	-2622
▁现在	-2623
ly	-2624
检查	-2625
强度	-2626
整体	-2627
预计	-2628
贵州	-2629
挪威	-2630
原名	-2631
满足	-2632
的两	-2633
mar	-2634
▁15	-2635
为中国	-2636
的城镇	-2637
尝试	-2638
通讯	-2639
的后	-2640
在其	-2641
注册	-2642
▁第二	-2643
平原	-2644
逮捕	-2645
be	-2646
情报	-2647
亚历山大	-2648
所谓	-2649
加拉	-2650
转向	-2651
重大	-2652
800	-2653
转换	-2654
更为	-2655
的中	-2656
浙江省	-2657
1992	-2658
与其	-2659
案件	-2660
妇女	-2661
伊朗	-2662
优秀	-2663
在该	-2664
码头	-2665
特别是	-2666
的关系	-2667
江苏省	-2668
▁古	-2669
最近	-2670
主要是	-2671
领导人	-2672
合成	-2673
候选人	-2674
立即	-2675
1993	-2676
萨尔	-2677
:30	-2678
率为	-2679
▁吴	-2680
克里	-2681
格为	-2682
哥伦比亚	-2683
退役	-2684
生长于	-2685
其实	-2686
例子	-2687
发明	-2688
刺史	-2689
东南部	-2690
▁多	-2691
耶稣	-2692
困难	-2693
州府	-2694
卡斯	-2695
以北	-2696
运用	-2697
上下	-2698
佛罗	-2699
大西洋	-2700
所属	-2701
▁第一	-2702
实验室	-2703
▁哈	-2704
消费	-2705
留下	-2706
ran	-2707
学士	-2708
努力	-2709
ace	-2710
引入	-2711
▁le	-2712
法官	-2713
四川省	-2714
三世	-2715
与其他	-2716
派遣	-2717
接着	-2718
第二次世界大战	-2719
▁普	-2720
危机	-2721
防御	-2722
1991	-2723
上有	-2724
参选	-2725
杰克	-2726
进步	-2727
优势	-2728
场的	-2729
气压	-2730
御史	-2731
第八	-2732
出演	-2733
配音	-2734
这样的	-2735
考试	-2736
则为	-2737
行的	-2738
展览	-2739
指定	-2740
主要的	-2741
▁周	-2742
城堡	-2743
长江	-2744
日治	-2745
分配	-2746
典礼	-2747
手机	-2748
排行	-2749
改名为	-2750
▁1949	-2751
奥林匹克运动会	-2752
▁苏	-2753
语的	-2754
家人	-2755
▁1999	-2756
回应	-2757
对此	-2758
将领	-2759
方言	-2760
▁波	-2761
产生的	-2762
解散	-2763
党的	-2764
▁汉	-2765
下令	-2766
分别为	-2767
石油	-2768
▁民国	-2769
感染	-2770
ort	-2771
复兴	-2772
▁可	-2773
周期	-2774
国际机场	-2775
告诉	-2776
同性	-2777
6,	-2778
成都	-2779
自杀	-2780
月球	-2781
特拉	-2782
1900	-2783
▁hd	-2784
冬季	-2785
大规模	-2786
甘肃	-2787
分布在	-2788
升级	-2789
一致	-2790
巡回	-2791
上午	-2792
ke	-2793
意为	-2794
辽宁	-2795
坚持	-2796
回归	-2797
而不	-2798
以为	-2799
ue	-2800
给了	-2801
分别是	-2802
的电影	-2803
小型	-2804
1960	-2805
cl	-2806
保守	-2807
以南	-2808
柴油	-2809
供应	-2810
西兰	-2811
▁到	-2812
记忆	-2813
组建	-2814
资本	-2815
windows	-2816
十九	-2817
出版社	-2818
▁其他	-2819
德尔	-2820
举人	-2821
交换	-2822
自身	-2823
▁一般	-2824
尼西亚	-2825
长官	-2826
▁艾	-2827
▁作为	-2828
利益	-2829
玻璃	-2830
情况下	-2831
per	-2832
最为	-2833
ri	-2834
内战	-2835
吉林	-2836
▁1998	-2837
enter	-2838
特色	-2839
上阵	-2840
办事处	-2841
国军	-2842
带有	-2843
数的	-2844
义大利	-2845
穆斯	-2846
亲自	-2847
号的	-2848
讲述	-2849
已被	-2850
son	-2851
生态	-2852
德华	-2853
西安	-2854
大师	-2855
的女	-2856
已有	-2857
保险	-2858
弟弟	-2859
基金会	-2860
员工	-2861
编码	-2862
洛杉	-2863
各个	-2864
适合	-2865
斯顿	-2866
扩展	-2867
法的	-2868
副主任	-2869
房屋	-2870
we	-2871
her	-2872
▁com	-2873
二人	-2874
ect	-2875
呈现	-2876
传媒	-2877
洛杉矶	-2878
▁埃	-2879
尼克	-2880
方便	-2881
厘米	-2882
是南极洲	-2883
关键	-2884
推广	-2885
bc	-2886
剧本	-2887
公元前	-2888
▁ar	-2889
证实	-2890
me	-2891
年美国人口普查	-2892
地质	-2893
丈夫	-2894
原住	-2895
阻止	-2896
化合物	-2897
设定	-2898
俄国	-2899
分裂	-2900
平面	-2901
ga	-2902
克拉	-2903
ft	-2904
达尔	-2905
这里	-2906
大众	-2907
公爵	-2908
佔领	-2909
▁朱	-2910
绿色	-2911
更新	-2912
任命为	-2913
升为	-2914
▁永	-2915
喜剧	-2916
演奏	-2917
公安	-2918
百万	-2919
加利福尼亚州	-2920
一切	-2921
克莱	-2922
助理	-2923
步枪	-2924
修建	-2925
各自	-2926
婚姻	-2927
措施	-2928
工程师	-2929
级联赛	-2930
▁1990	-2931
属的植物	-2932
接替	-2933
本土	-2934
被视为	-2935
▁游戏	-2936
的话	-2937
陨石	-2938
海道	-2939
管理局	-2940
特里	-2941
德拉	-2942
现实	-2943
五月	-2944
家中	-2945
副主席	-2946
的音乐	-2947
分离	-2948
主办	-2949
的成员	-2950
突破	-2951
引种	-2952
殖民地	-2953
只要	-2954
留在	-2955
大幅	-2956
▁光绪	-2957
互相	-2958
中国的	-2959
座标为	-2960
点的	-2961
特定	-2962
上述	-2963
文明	-2964
用途	-2965
常见的	-2966
危险	-2967
大小	-2968
学的	-2969
类的	-2970
奥运会	-2971
原始	-2972
离子	-2973
延长	-2974
ep	-2975
军官	-2976
此后	-2977
在一	-2978
星系	-2979
是一座	-2980
1989	-2981
派出	-2982
等级	-2983
集合	-2984
科学家	-2985
年和	-2986
研发	-2987
而非	-2988
打算	-2989
ire	-2990
遗产	-2991
洛克	-2992
邻近	-2993
ord	-2994
波斯	-2995
旅行	-2996
建立了	-2997
输入	-2998
建筑物	-2999
中期	-3000
大赛	-3001
性能	-3002
制定	-3003
剧院	-3004
由人工	-3005
原则	-3006
接收	-3007
修正	-3008
内蒙古	-3009
col	-3010
态度	-3011
爵士	-3012
董事长	-3013
罗马尼亚	-3014
服役	-3015
ont	-3016
ure	-3017
改制	-3018
武帝	-3019
录音	-3020
直径	-3021
淘汰	-3022
转的小行星	-3023
中被	-3024
令人	-3025
▁一些	-3026
▁亚	-3027
增强	-3028
▁is	-3029
西班牙语	-3030
卡拉	-3031
最低	-3032
1945	-3033
德的	-3034
器的	-3035
桃园	-3036
是为	-3037
发动机	-3038
引种栽培	-3039
隶属	-3040
成长	-3041
日期	-3042
校园	-3043
各国	-3044
▁米	-3045
利斯	-3046
相关的	-3047
我的	-3048
▁最终	-3049
由人工引种栽培	-3050
得名	-3051
▁1997	-3052
他是	-3053
立方	-3054
蒙特	-3055
靠近	-3056
得到了	-3057
天文台	-3058
射击	-3059
登上	-3060
生成	-3061
镇区	-3062
很大	-3063
7,	-3064
一级	-3065
王子	-3066
明确	-3067
质疑	-3068
龙江	-3069
对方	-3070
的水	-3071
▁弗	-3072
校区	-3073
▁y	-3074
纳粹	-3075
ha	-3076
含有	-3077
金牌	-3078
暴力	-3079
▁不	-3080
环形	-3081
生存	-3082
州刺史	-3083
具体	-3084
偶像	-3085
软体	-3086
市中心	-3087
是一部	-3088
▁而在	-3089
战士	-3090
争取	-3091
形态	-3092
指示	-3093
成立的	-3094
提供了	-3095
直隶	-3096
▁万	-3097
接任	-3098
ore	-3099
会有	-3100
ust	-3101
市政府	-3102
老师	-3103
商品	-3104
销量	-3105
谈判	-3106
穆斯林	-3107
条例	-3108
之为	-3109
是台湾	-3110
文艺	-3111
,197	-3112
位于该省	-3113
1950	-3114
国家队	-3115
均为	-3116
包围	-3117
杭州	-3118
早年	-3119
边境	-3120
尤其是	-3121
▁col	-3122
古典	-3123
本地	-3124
活跃	-3125
ess	-3126
1988	-3127
维护	-3128
撞击	-3129
大坂	-3130
南非	-3131
叙利亚	-3132
的儿子	-3133
nba	-3134
站台	-3135
▁这是	-3136
反映	-3137
循环	-3138
▁宋	-3139
hr	-3140
ty	-3141
一词	-3142
货币	-3143
另一方面	-3144
启动	-3145
杀害	-3146
长达	-3147
进士出身	-3148
度的	-3149
月的	-3150
神话	-3151
秘书长	-3152
骑兵	-3153
曾于	-3154
波罗	-3155
路口	-3156
net	-3157
足球运动员	-3158
舞蹈	-3159
港口	-3160
无论	-3161
学科	-3162
的一些	-3163
日于	-3164
▁这一	-3165
理想	-3166
受欢迎	-3167
授权	-3168
培养	-3169
废除	-3170
意志	-3171
▁四	-3172
他与	-3173
地带	-3174
的同	-3175
根廷	-3176
科夫	-3177
称呼	-3178
消失	-3179
的支持	-3180
可见	-3181
位于该国西部	-3182
尼尔	-3183
詹姆斯	-3184
巴尔	-3185
今日	-3186
分支	-3187
监察	-3188
频率	-3189
缩写	-3190
十二年	-3191
在台湾	-3192
并与	-3193
▁一个	-3194
开展	-3195
爱情	-3196
▁1950	-3197
则在	-3198
会上	-3199
克尔	-3200
天下	-3201
电气	-3202
是俄罗斯	-3203
保障	-3204
颁奖	-3205
意思	-3206
出现了	-3207
高达	-3208
辖区	-3209
▁石	-3210
天然	-3211
干部	-3212
首个	-3213
食用	-3214
里达	-3215
紧急	-3216
目前尚未	-3217
完工	-3218
理解	-3219
ight	-3220
▁14	-3221
北美	-3222
天堂	-3223
生长于海拔	-3224
五个	-3225
现今	-3226
辐射	-3227
派的	-3228
米的地区	-3229
奥尔	-3230
风险	-3231
pa	-3232
定居	-3233
的方法	-3234
而不是	-3235
档案	-3236
比利时	-3237
本人	-3238
游泳	-3239
亚军	-3240
160	-3241
支流	-3242
ass	-3243
效应	-3244
昭和	-3245
他被	-3246
副书记	-3247
列出	-3248
▁/	-3249
拆除	-3250
▁中华人民共和国	-3251
首播	-3252
冰川	-3253
主持人	-3254
一职	-3255
游行	-3256
人民币	-3257
两国	-3258
十七	-3259
吉尔	-3260
理工	-3261
长沙	-3262
克罗	-3263
剧场	-3264
即位	-3265
来越	-3266
并由	-3267
宁波	-3268
上升	-3269
出售	-3270
ond	-3271
停车	-3272
相同的	-3273
患者	-3274
阳市	-3275
撰写	-3276
不敌	-3277
▁1980	-3278
两年	-3279
吸收	-3280
导弹	-3281
执政	-3282
推进	-3283
的第二	-3284
ux	-3285
lin	-3286
▁萨	-3287
▁截至	-3288
正确	-3289
方程	-3290
形状	-3291
mo	-3292
出发	-3293
▁be	-3294
采访	-3295
日后	-3296
▁1996	-3297
布莱	-3298
日正式	-3299
以上的	-3300
陆地	-3301
铁路车站	-3302
跟随	-3303
明星	-3304
部电影	-3305
▁沙	-3306
1949	-3307
越来越	-3308
马里	-3309
机制	-3310
防止	-3311
无人	-3312
抵抗	-3313
在一起	-3314
克的	-3315
写作	-3316
意外	-3317
jr	-3318
▁不久	-3319
ens	-3320
克里斯	-3321
教宗	-3322
方面的	-3323
都在	-3324
目前尚未由人工引种栽培	-3325
多人	-3326
西斯	-3327
雷斯	-3328
人民代表大会	-3329
摇滚	-3330
颁发	-3331
"。	-3332
多利亚	-3333
书籍	-3334
探险	-3335
主场	-3336
,195	-3337
足球俱乐部	-3338
每天	-3339
必要	-3340
怀疑	-3341
乡下辖以下地区	-3342
职位	-3343
足球队	-3344
为其	-3345
决议	-3346
河南省	-3347
对其	-3348
层水域	-3349
的长	-3350
代表团	-3351
部部长	-3352
视频	-3353
斯拉夫	-3354
汉族	-3355
act	-3356
检察	-3357
经由	-3358
手段	-3359
_1	-3360
法语	-3361
苹果	-3362
装饰	-3363
性别	-3364
两位	-3365
宣称	-3366
签约	-3367
收藏	-3368
是西班牙	-3369
iz	-3370
持有	-3371
联合会	-3372
▁相	-3373
大夫	-3374
的情	-3375
另有	-3376
金山	-3377
沿海	-3378
两者	-3379
总裁	-3380
货运	-3381
收视	-3382
能源	-3383
德军	-3384
700	-3385
博士学位	-3386
黑龙江	-3387
联络	-3388
股份有限公司	-3389
货物	-3390
鼓励	-3391
两名	-3392
人权	-3393
监狱	-3394
是意大利	-3395
其中包括	-3396
▁sp	-3397
足够	-3398
其中一	-3399
下了	-3400
▁许多	-3401
为人	-3402
规范	-3403
是个	-3404
05	-3405
传教	-3406
站的	-3407
审查	-3408
现任	-3409
重视	-3410
未知	-3411
▁1945	-3412
hant	-3413
公交	-3414
les	-3415
剧集	-3416
马斯	-3417
而该地的	-3418
的名字	-3419
内地	-3420
障碍	-3421
原住民	-3422
黄色	-3423
电车	-3424
法庭	-3425
平衡	-3426
主义者	-3427
▁水	-3428
设计的	-3429
模拟	-3430
加入了	-3431
ith	-3432
1985	-3433
保证	-3434
敌人	-3435
dv	-3436
到的	-3437
事实上	-3438
升任	-3439
▁1994	-3440
新竹	-3441
1986	-3442
年时的人口为人	-3443
单元	-3444
党员	-3445
牵引	-3446
会被	-3447
山县	-3448
收集	-3449
大选	-3450
称号	-3451
陷入	-3452
竞选	-3453
阿根廷	-3454
常务	-3455
司令部	-3456
▁1993	-3457
发行的	-3458
身分	-3459
圆形	-3460
犹太人	-3461
商场	-3462
考古	-3463
节度	-3464
两侧	-3465
出场	-3466
▁1995	-3467
边缘	-3468
成就	-3469
相当于	-3470
本科	-3471
欧盟	-3472
脂鲤	-3473
▁un	-3474
量子	-3475
1987	-3476
唐朝	-3477
主力	-3478
期的	-3479
▁加	-3480
意味	-3481
苏丹	-3482
的原因	-3483
中式	-3484
to	-3485
严格	-3486
代的	-3487
变为	-3488
天后	-3489
mm	-3490
卫视	-3491
当天	-3492
蓝色	-3493
影像	-3494
▁贝	-3495
美国的	-3496
艺术家	-3497
推荐	-3498
圣经	-3499
审判	-3500
是位于美国	-3501
将在	-3502
首相	-3503
报纸	-3504
通用	-3505
已于	-3506
顺利	-3507
▁1992	-3508
以东	-3509
▁位于	-3510
诗人	-3511
▁年	-3512
觉得	-3513
倾向	-3514
常委	-3515
独立的	-3516
爱德华	-3517
港元	-3518
路段	-3519
连任	-3520
仅有	-3521
做为	-3522
古老	-3523
第九	-3524
发生在	-3525
场比赛	-3526
大量的	-3527
附属	-3528
的部分	-3529
热带风暴	-3530
无线电视	-3531
当地的	-3532
警告	-3533
但由于	-3534
有许多	-3535
▁成	-3536
通信	-3537
ck	-3538
▁莫	-3539
开幕	-3540
公斤	-3541
,2010	-3542
常常	-3543
制作的	-3544
巨大	-3545
形容	-3546
9,	-3547
约有	-3548
ies	-3549
城的	-3550
联网	-3551
坐标为	-3552
英里	-3553
▁乌	-3554
南美洲	-3555
正面	-3556
▁五	-3557
国道	-3558
输出	-3559
sm	-3560
使用者	-3561
积分	-3562
此外	-3563
警报	-3564
▁i	-3565
画家	-3566
1984	-3567
群众	-3568
格拉	-3569
战队	-3570
日开始	-3571
改进	-3572
斗争	-3573
效力于	-3574
书中	-3575
客户	-3576
研究院	-3577
商人	-3578
传统的	-3579
罗德	-3580
协调	-3581
行政院	-3582
▁黑	-3583
辞职	-3584
的角色	-3585
▁赵	-3586
▁郑	-3587
升格为	-3588
改称	-3589
同时也	-3590
▁0	-3591
波尔	-3592
举办的	-3593
并无	-3594
提及	-3595
省的	-3596
财产	-3597
下一	-3598
有机	-3599
修复	-3600
维斯	-3601
民进	-3602
8,	-3603
落成	-3604
两岸	-3605
更多的	-3606
热带气旋	-3607
主义的	-3608
美国人	-3609
环形山	-3610
特兰	-3611
打破	-3612
的总	-3613
区内	-3614
发言	-3615
时报	-3616
过的	-3617
委员会委员	-3618
从此	-3619
▁红	-3620
假设	-3621
▁胡	-3622
逻辑	-3623
享年	-3624
支付	-3625
餐厅	-3626
的位置	-3627
种植	-3628
的一条	-3629
经济学	-3630
▁塔	-3631
重量	-3632
中最	-3633
▁山	-3634
▁梅	-3635
汉语	-3636
▁u	-3637
中国国民党	-3638
本站	-3639
馀人	-3640
沃尔	-3641
的形式	-3642
▁帕	-3643
发挥	-3644
以西	-3645
之处	-3646
ment	-3647
上了	-3648
感觉	-3649
确保	-3650
凌晨	-3651
位的	-3652
东京都	-3653
岛上	-3654
证券	-3655
充满	-3656
侍郎	-3657
放在	-3658
ick	-3659
]]	-3660
架构	-3661
违反	-3662
▁史	-3663
但他	-3664
商店	-3665
安东	-3666
控股	-3667
气体	-3668
还在	-3669
英军	-3670
封为	-3671
首席	-3672
ame	-3673
都被	-3674
行业	-3675
,196	-3676
250	-3677
河北省	-3678
人为	-3679
歌词	-3680
理由	-3681
区议会	-3682
福建省	-3683
通知	-3684
十一年	-3685
ina	-3686
她在	-3687
评估	-3688
汉字	-3689
西侧	-3690
本线	-3691
使其	-3692
作业	-3693
沿岸	-3694
邮政	-3695
不要	-3696
教育部	-3697
110	-3698
路易斯	-3699
游客	-3700
▁1991	-3701
地在	-3702
满洲	-3703
上帝	-3704
阳县	-3705
▁13	-3706
日下午	-3707
魔法	-3708
的基础	-3709
▁z	-3710
五十	-3711
收费	-3712
[[	-3713
污染	-3714
》、	-3715
时段	-3716
年获	-3717
创始	-3718
图像	-3719
暂时	-3720
角度	-3721
大街	-3722
,3	-3723
太后	-3724
也没有	-3725
粒子	-3726
会议员	-3727
成立了	-3728
很少	-3729
▁直到	-3730
数位	-3731
所在地	-3732
庆祝	-3733
格尔	-3734
省道	-3735
扩张	-3736
辅助	-3737
起初	-3738
领地	-3739
的政治	-3740
区间	-3741
合法	-3742
回忆	-3743
引进	-3744
首位	-3745
院士	-3746
▁英国	-3747
近代	-3748
港铁	-3749
了许多	-3750
pro	-3751
道光	-3752
天气	-3753
脱离	-3754
加哥	-3755
以此	-3756
▁最	-3757
中将	-3758
连载	-3759
低气压	-3760
手术	-3761
燃料	-3762
前后	-3763
带着	-3764
芝加哥	-3765
早上	-3766
处的	-3767
一场	-3768
立场	-3769
佛罗里达	-3770
▁经过	-3771
做出	-3772
在内的	-3773
则有	-3774
单独	-3775
晋级	-3776
三人	-3777
▁1988	-3778
咖啡	-3779
女王	-3780
▁比	-3781
登记	-3782
现在的	-3783
场所	-3784
第十一	-3785
红军	-3786
加尔	-3787
摧毁	-3788
演化	-3789
登场	-3790
▁sh	-3791
dr	-3792
龙的	-3793
时代的	-3794
策略	-3795
ide	-3796
官至	-3797
未有	-3798
湖泊	-3799
第一位	-3800
hel	-3801
研究生	-3802
区别	-3803
手枪	-3804
称之为	-3805
使用了	-3806
症状	-3807
足协	-3808
想要	-3809
层的	-3810
查理	-3811
06	-3812
▁福	-3813
改建	-3814
京都	-3815
回国	-3816
名进士	-3817
▁文	-3818
分成	-3819
1982	-3820
01	-3821
多项	-3822
她们	-3823
▁阿尔	-3824
▁华	-3825
克林	-3826
维多利亚	-3827
战斗机	-3828
大卫	-3829
格勒	-3830
卡罗	-3831
南海	-3832
终点	-3833
式月台	-3834
指控	-3835
东亚	-3836
似乎	-3837
言论	-3838
途中	-3839
物种的	-3840
米至	-3841
的城市	-3842
▁到了	-3843
江户	-3844
流传	-3845
巡洋	-3846
线上	-3847
▁此时	-3848
死于	-3849
原来	-3850
一系列	-3851
即将	-3852
观光	-3853
巨大的	-3854
已知	-3855
星的	-3856
十月	-3857
主权	-3858
江南	-3859
米亚	-3860
通往	-3861
日本的	-3862
ark	-3863
战场	-3864
多尔	-3865
是从	-3866
交界	-3867
基斯坦	-3868
每日	-3869
级别	-3870
闻名	-3871
诺夫	-3872
成立后	-3873
动车	-3874
战车	-3875
四十	-3876
该国	-3877
州负责管辖	-3878
加以	-3879
在北京	-3880
km	-3881
体育场	-3882
车厢	-3883
的数据	-3884
切尔	-3885
印刷	-3886
遭遇	-3887
冒险	-3888
ial	-3889
▁on	-3890
民进党	-3891
最早的	-3892
▁an	-3893
陨石坑	-3894
铁路局	-3895
样的	-3896
序列	-3897
秘鲁	-3898
子女	-3899
面临	-3900
湖南省	-3901
,5	-3902
pl	-3903
的不	-3904
▁特	-3905
预算	-3906
1983	-3907
ah	-3908
总会	-3909
并被	-3910
东侧	-3911
月起	-3912
游击	-3913
制片	-3914
习惯	-3915
制作人	-3916
是不	-3917
费用	-3918
原先	-3919
海拔高度为	-3920
整合	-3921
预测	-3922
就在	-3923
海上	-3924
撤退	-3925
sk	-3926
转会	-3927
节度使	-3928
来自于	-3929
的日	-3930
工会	-3931
信徒	-3932
单一	-3933
中正	-3934
直播	-3935
镜头	-3936
ory	-3937
09	-3938
他为	-3939
培训	-3940
大家	-3941
ung	-3942
创新	-3943
的最	-3944
三国	-3945
棒球	-3946
yle	-3947
先进	-3948
交给	-3949
次于	-3950
身上	-3951
▁卢	-3952
,2011	-3953
市政	-3954
河的	-3955
大革命	-3956
约瑟	-3957
▁于是	-3958
cr	-3959
▁孙	-3960
构造	-3961
末期	-3962
东南亚	-3963
短暂	-3964
赞助	-3965
琉球	-3966
的结果	-3967
屠杀	-3968
代替	-3969
交汇	-3970
根本	-3971
唯一的	-3972
▁|	-3973
▁bo	-3974
内有	-3975
年与	-3976
援助	-3977
依照	-3978
▁博	-3979
▁面积	-3980
愿意	-3981
组织的	-3982
道德	-3983
聚集	-3984
详细	-3985
希特	-3986
复盖	-3987
钢琴	-3988
融合	-3989
改名	-3990
平均海拔高度为	-3991
资助	-3992
值得	-3993
最高的	-3994
任教	-3995
行驶	-3996
ier	-3997
的反	-3998
借由	-3999
而该地的平均海拔高度为	-4000
选出	-4001
会试	-4002
河道	-4003
认证	-4004
阿里	-4005
play	-4006
早在	-4007
目的是	-4008
巡洋舰	-4009
主动	-4010
首歌	-4011
▁1989	-4012
租界	-4013
,1	-4014
开办	-4015
▁yo	-4016
布朗	-4017
清朝政治人物	-4018
的神	-4019
互联网	-4020
相应	-4021
病逝	-4022
车队	-4023
部尚书	-4024
07	-4025
场景	-4026
替代	-4027
月在	-4028
配置	-4029
ogle	-4030
▁龙	-4031
海南	-4032
迁至	-4033
伊斯兰教	-4034
山西省	-4035
席位	-4036
利的	-4037
为台湾	-4038
任期	-4039
巴拉	-4040
▁平	-4041
▁法	-4042
后被	-4043
用以	-4044
翌年	-4045
画面	-4046
斯卡	-4047
奴隶	-4048
扩建	-4049
发音	-4050
现时由	-4051
ev	-4052
岛的	-4053
嘉义	-4054
月底	-4055
征服	-4056
网球	-4057
许可	-4058
竞赛	-4059
,2	-4060
ca	-4061
呼吁	-4062
成熟	-4063
特区	-4064
驱动	-4065
塔尔	-4066
寻求	-4067
布里	-4068
提议	-4069
战术	-4070
学系	-4071
处长	-4072
室内	-4073
城县	-4074
gro	-4075
以便	-4076
08	-4077
为大	-4078
伊拉克	-4079
判决	-4080
,	-4081
▁	-4082
的	-4083
。	-4084
1	-4085
0	-4086
年	-4087
2	-4088
、	-4089
在	-4090
一	-4091
为	-4092
9	-4093
中	-4094
是	-4095
国	-4096
人	-4097
a	-4098
于	-4099
e	-4100
大	-4101
有	-4102
3	-4103
和	-4104
5	-4105
i	-4106
8	-4107
o	-4108
以	-4109
r	-4110
4	-4111
月	-4112
n	-4113
日	-4114
6	-4115
后	-4116
7	-4117
了	-4118
学	-4119
t	-4120
s	-4121
时	-4122
个	-4123
会	-4124
地	-4125
成	-4126
上	-4127
公	-4128
不	-4129
l	-4130
出	-4131
行	-4132
他	-4133
部	-4134
斯	-4135
与	-4136
区	-4137
之	-4138
c	-4139
名	-4140
发	-4141
其	-4142
主	-4143
作	-4144
生	-4145
尔	-4146
分	-4147
方	-4148
m	-4149
到	-4150
用	-4151
下	-4152
西	-4153
:	-4154
第	-4155
》	-4156
《	-4157
而	-4158
家	-4159
位	-4160
及	-4161
军	-4162
由	-4163
d	-4164
h	-4165
里	-4166
并	-4167
民	-4168
被	-4169
法	-4170
本	-4171
南	-4172
市	-4173
·	-4174
长	-4175
这	-4176
来	-4177
同	-4178
u	-4179
多	-4180
可	-4181
政	-4182
对	-4183
子	-4184
自	-4185
动	-4186
任	-4187
开	-4188
特	-4189
文	-4190
北	-4191
高	-4192
「	-4193
」	-4194
加	-4195
德	-4196
员	-4197
新	-4198
东	-4199
最	-4200
海	-4201
台	-4202
克	-4203
亚	-4204
前	-4205
也	-4206
利	-4207
平	-4208
代	-4209
等	-4210
所	-4211
p	-4212
面	-4213
三	-4214
度	-4215
电	-4216
因	-4217
美	-4218
建	-4219
经	-4220
此	-4221
得	-4222
道	-4223
现	-4224
进	-4225
物	-4226
“	-4227
过	-4228
要	-4229
机	-4230
间	-4231
内	-4232
b	-4233
g	-4234
事	-4235
至	-4236
教	-4237
山	-4238
立	-4239
路	-4240
当	-4241
车	-4242
拉	-4243
小	-4244
入	-4245
口	-4246
将	-4247
战	-4248
体	-4249
能	-4250
世	-4251
二	-4252
理	-4253
工	-4254
该	-4255
州	-4256
合	-4257
表	-4258
外	-4259
定	-4260
马	-4261
期	-4262
天	-4263
赛	-4264
制	-4265
业	-4266
但	-4267
化	-4268
球	-4269
十	-4270
科	-4271
次	-4272
种	-4273
使	-4274
全	-4275
;	-4276
布	-4277
场	-4278
通	-4279
称	-4280
性	-4281
队	-4282
者	-4283
f	-4284
共	-4285
线	-4286
总	-4287
设	-4288
县	-4289
式	-4290
数	-4291
重	-4292
系	-4293
都	-4294
罗	-4295
两	-4296
安	-4297
力	-4298
士	-4299
联	-4300
"	-4301
站	-4302
院	-4303
比	-4304
基	-4305
原	-4306
相	-4307
城	-4308
王	-4309
达	-4310
运	-4311
明	-4312
省	-4313
米	-4314
属	-4315
目	-4316
司	-4317
英	-4318
水	-4319
正	-4320
治	-4321
金	-4322
尼	-4323
华	-4324
格	-4325
号	-4326
统	-4327
府	-4328
k	-4329
关	-4330
组	-4331
兰	-4332
约	-4333
选	-4334
们	-4335
镇	-4336
四	-4337
或	-4338
列	-4339
如	-4340
计	-4341
元	-4342
港	-4343
起	-4344
y	-4345
巴	-4346
影	-4347
从	-4348
语	-4349
产	-4350
首	-4351
女	-4352
提	-4353
常	-4354
星	-4355
阿	-4356
改	-4357
演	-4358
林	-4359
v	-4360
议	-4361
量	-4362
心	-4363
向	-4364
然	-4365
乐	-4366
接	-4367
就	-4368
始	-4369
务	-4370
实	-4371
无	-4372
书	-4373
w	-4374
界	-4375
参	-4376
级	-4377
意	-4378
则	-4379
义	-4380
曾	-4381
委	-4382
广	-4383
管	-4384
手	-4385
受	-4386
单	-4387
程	-4388
指	-4389
说	-4390
卡	-4391
交	-4392
视	-4393
河	-4394
保	-4395
色	-4396
团	-4397
包	-4398
形	-4399
门	-4400
维	-4401
结	-4402
音	-4403
湾	-4404
已	-4405
型	-4406
着	-4407
处	-4408
香	-4409
流	-4410
党	-4411
传	-4412
直	-4413
些	-4414
获	-4415
类	-4416
集	-4417
史	-4418
太	-4419
万	-4420
认	-4421
点	-4422
应	-4423
导	-4424
夫	-4425
变	-4426
校	-4427
五	-4428
品	-4429
身	-4430
字	-4431
空	-4432
领	-4433
示	-4434
回	-4435
社	-4436
更	-4437
岛	-4438
积	-4439
铁	-4440
展	-4441
朝	-4442
江	-4443
还	-4444
古	-4445
持	-4446
师	-4447
张	-4448
图	-4449
各	-4450
奥	-4451
官	-4452
反	-4453
带	-4454
洲	-4455
专	-4456
别	-4457
举	-4458
据	-4459
只	-4460
命	-4461
纪	-4462
游	-4463
资	-4464
风	-4465
取	-4466
京	-4467
活	-4468
报	-4469
造	-4470
普	-4471
击	-4472
标	-4473
光	-4474
信	-4475
支	-4476
局	-4477
术	-4478
少	-4479
历	-4480
族	-4481
曲	-4482
没	-4483
近	-4484
非	-4485
纳	-4486
石	-4487
节	-4488
神	-4489
解	-4490
剧	-4491
清	-4492
情	-4493
际	-4494
转	-4495
研	-4496
每	-4497
论	-4498
苏	-4499
它	-4500
又	-4501
记	-4502
权	-4503
件	-4504
波	-4505
条	-4506
决	-4507
龙	-4508
村	-4509
即	-4510
放	-4511
片	-4512
角	-4513
她	-4514
气	-4515
伊	-4516
商	-4517
版	-4518
头	-4519
/	-4520
连	-4521
武	-4522
密	-4523
乡	-4524
辖	-4525
括	-4526
未	-4527
知	-4528
职	-4529
收	-4530
周	-4531
座	-4532
复	-4533
先	-4534
李	-4535
往	-4536
去	-4537
根	-4538
器	-4539
创	-4540
离	-4541
白	-4542
强	-4543
歌	-4544
福	-4545
果	-4546
再	-4547
办	-4548
初	-4549
究	-4550
陆	-4551
六	-4552
且	-4553
足	-4554
派	-4555
打	-4556
调	-4557
画	-4558
引	-4559
兵	-4560
圣	-4561
完	-4562
今	-4563
亦	-4564
居	-4565
汉	-4566
域	-4567
观	-4568
帝	-4569
许	-4570
季	-4571
装	-4572
播	-4573
阳	-4574
威	-4575
网	-4576
塔	-4577
亲	-4578
z	-4579
除	-4580
题	-4581
编	-4582
宗	-4583
争	-4584
随	-4585
质	-4586
续	-4587
段	-4588
奖	-4589
服	-4590
令	-4591
育	-4592
给	-4593
构	-4594
协	-4595
较	-4596
花	-4597
言	-4598
x	-4599
爱	-4600
很	-4601
园	-4602
八	-4603
查	-4604
土	-4605
担	-4606
速	-4607
见	-4608
戏	-4609
修	-4610
问	-4611
萨	-4612
功	-4613
置	-4614
宣	-4615
规	-4616
营	-4617
另	-4618
黄	-4619
希	-4620
死	-4621
推	-4622
客	-4623
存	-4624
终	-4625
项	-4626
好	-4627
欧	-4628
超	-4629
率	-4630
%	-4631
划	-4632
投	-4633
馆	-4634
录	-4635
雷	-4636
我	-4637
哈	-4638
洛	-4639
供	-4640
护	-4641
样	-4642
吉	-4643
具	-4644
源	-4645
卫	-4646
博	-4647
准	-4648
求	-4649
班	-4650
瓦	-4651
父	-4652
九	-4653
案	-4654
青	-4655
街	-4656
男	-4657
伦	-4658
印	-4659
环	-4660
母	-4661
边	-4662
例	-4663
兴	-4664
济	-4665
负	-4666
伯	-4667
田	-4668
己	-4669
勒	-4670
j	-4671
责	-4672
湖	-4673
陈	-4674
故	-4675
众	-4676
助	-4677
均	-4678
儿	-4679
火	-4680
致	-4681
备	-4682
攻	-4683
那	-4684
鱼	-4685
沙	-4686
航	-4687
落	-4688
百	-4689
诺	-4690
份	-4691
艺	-4692
莱	-4693
皇	-4694
试	-4695
技	-4696
整	-4697
副	-4698
早	-4699
极	-4700
增	-4701
鲁	-4702
志	-4703
容	-4704
热	-4705
模	-4706
半	-4707
群	-4708
围	-4709
红	-4710
层	-4711
飞	-4712
告	-4713
七	-4714
继	-4715
越	-4716
失	-4717
登	-4718
双	-4719
评	-4720
堂	-4721
境	-4722
易	-4723
川	-4724
写	-4725
独	-4726
室	-4727
深	-4728
食	-4729
升	-4730
塞	-4731
排	-4732
需	-4733
黑	-4734
证	-4735
声	-4736
限	-4737
央	-4738
氏	-4739
医	-4740
筑	-4741
射	-4742
织	-4743
席	-4744
像	-4745
费	-4746
老	-4747
象	-4748
何	-4749
响	-4750
采	-4751
千	-4752
甲	-4753
真	-4754
才	-4755
托	-4756
盟	-4757
仍	-4758
杀	-4759
让	-4760
施	-4761
森	-4762
便	-4763
步	-4764
奇	-4765
警	-4766
木	-4767
考	-4768
防	-4769
想	-4770
配	-4771
舰	-4772
感	-4773
牙	-4774
洋	-4775
楼	-4776
岁	-4777
顿	-4778
届	-4779
哥	-4780
低	-4781
止	-4782
住	-4783
桥	-4784
留	-4785
姆	-4786
贝	-4787
效	-4788
—	-4789
律	-4790
病	-4791
农	-4792
刘	-4793
乌	-4794
范	-4795
几	-4796
泰	-4797
曼	-4798
佛	-4799
底	-4800
辑	-4801
恩	-4802
把	-4803
埃	-4804
察	-4805
料	-4806
冠	-4807
蒙	-4808
银	-4809
批	-4810
降	-4811
唱	-4812
仅	-4813
状	-4814
移	-4815
迪	-4816
库	-4817
话	-4818
俄	-4819
票	-4820
云	-4821
景	-4822
胜	-4823
看	-4824
素	-4825
测	-4826
宁	-4827
息	-4828
康	-4829
干	-4830
革	-4831
败	-4832
消	-4833
承	-4834
控	-4835
显	-4836
祖	-4837
索	-4838
授	-4839
_	-4840
算	-4841
温	-4842
念	-4843
典	-4844
词	-4845
弹	-4846
韩	-4847
习	-4848
远	-4849
载	-4850
藏	-4851
思	-4852
确	-4853
户	-4854
友	-4855
做	-4856
守	-4857
馀	-4858
满	-4859
瑞	-4860
态	-4861
拔	-4862
精	-4863
房	-4864
预	-4865
督	-4866
附	-4867
宫	-4868
依	-4869
望	-4870
叶	-4871
照	-4872
述	-4873
注	-4874
请	-4875
夏	-4876
价	-4877
征	-4878
章	-4879
执	-4880
抗	-4881
毛	-4882
停	-4883
退	-4884
牌	-4885
压	-4886
草	-4887
澳	-4888
简	-4889
虽	-4890
却	-4891
丹	-4892
永	-4893
左	-4894
富	-4895
封	-4896
丁	-4897
堡	-4898
验	-4899
坦	-4900
值	-4901
快	-4902
候	-4903
船	-4904
斗	-4905
势	-4906
侧	-4907
丽	-4908
拿	-4909
破	-4910
般	-4911
邦	-4912
宝	-4913
唐	-4914
莫	-4915
梅	-4916
隆	-4917
监	-4918
难	-4919
含	-4920
突	-4921
细	-4922
庄	-4923
庆	-4924
厂	-4925
断	-4926
郡	-4927
识	-4928
似	-4929
况	-4930
闻	-4931
寺	-4932
皮	-4933
植	-4934
旅	-4935
必	-4936
礼	-4937
蒂	-4938
读	-4939
嘉	-4940
尚	-4941
走	-4942
拥	-4943
朗	-4944
延	-4945
毕	-4946
绝	-4947
久	-4948
店	-4949
切	-4950
岸	-4951
右	-4952
厅	-4953
麦	-4954
架	-4955
杰	-4956
售	-4957
换	-4958
轮	-4959
临	-4960
旧	-4961
野	-4962
核	-4963
春	-4964
亡	-4965
弟	-4966
归	-4967
判	-4968
严	-4969
优	-4970
枪	-4971
弗	-4972
松	-4973
艾	-4974
占	-4975
佳	-4976
杨	-4977
油	-4978
雄	-4979
伤	-4980
遗	-4981
异	-4982
遭	-4983
端	-4984
灵	-4985
短	-4986
吴	-4987
股	-4988
码	-4989
练	-4990
孙	-4991
策	-4992
耶	-4993
逐	-4994
轻	-4995
役	-4996
序	-4997
赫	-4998
送	-4999
帕	-5000
旗	-5001
晚	-5002
顺	-5003
菲	-5004
须	-5005
摩	-5006
籍	-5007
若	-5008
距	-5009
暴	-5010
销	-5011
酒	-5012
乘	-5013
树	-5014
}	-5015
{	-5016
束	-5017
雅	-5018
宋	-5019
什	-5020
玛	-5021
微	-5022
末	-5023
杂	-5024
摄	-5025
输	-5026
阵	-5027
泽	-5028
秀	-5029
署	-5030
冲	-5031
卢	-5032
亿	-5033
兼	-5034
频	-5035
!	-5036
译	-5037
荣	-5038
款	-5039
胡	-5040
驻	-5041
阶	-5042
诗	-5043
良	-5044
药	-5045
庭	-5046
沃	-5047
齐	-5048
启	-5049
饰	-5050
血	-5051
善	-5052
略	-5053
劳	-5054
散	-5055
盖	-5056
津	-5057
贵	-5058
免	-5059
婚	-5060
尾	-5061
甚	-5062
丰	-5063
尽	-5064
峰	-5065
拍	-5066
予	-5067
纽	-5068
差	-5069
顶	-5070
迁	-5071
减	-5072
喜	-5073
板	-5074
鲜	-5075
假	-5076
晋	-5077
臣	-5078
杜	-5079
尺	-5080
兹	-5081
追	-5082
朱	-5083
购	-5084
财	-5085
谷	-5086
签	-5087
害	-5088
杯	-5089
烈	-5090
养	-5091
玉	-5092
背	-5093
宾	-5094
仁	-5095
爆	-5096
黎	-5097
训	-5098
罪	-5099
企	-5100
媒	-5101
舞	-5102
释	-5103
著	-5104
凯	-5105
险	-5106
互	-5107
沿	-5108
钟	-5109
盛	-5110
救	-5111
韦	-5112
夺	-5113
廷	-5114
渐	-5115
检	-5116
讯	-5117
轨	-5118
援	-5119
酸	-5120
货	-5121
审	-5122
透	-5123
秘	-5124
牛	-5125
映	-5126
屋	-5127
补	-5128
谢	-5129
昌	-5130
址	-5131
圆	-5132
币	-5133
够	-5134
介	-5135
软	-5136
访	-5137
乔	-5138
荷	-5139
君	-5140
仪	-5141
讲	-5142
扩	-5143
溪	-5144
庙	-5145
智	-5146
坡	-5147
挥	-5148
梁	-5149
材	-5150
借	-5151
按	-5152
郑	-5153
徒	-5154
适	-5155
敦	-5156
皆	-5157
童	-5158
>	-5159
益	-5160
郎	-5161
拜	-5162
辆	-5163
巡	-5164
敌	-5165
玩	-5166
混	-5167
禁	-5168
隶	-5169
颗	-5170
径	-5171
讨	-5172
蓝	-5173
巨	-5174
翰	-5175
锦	-5176
<	-5177
探	-5178
某	-5179
诸	-5180
途	-5181
夜	-5182
穆	-5183
宽	-5184
霍	-5185
觉	-5186
午	-5187
冰	-5188
额	-5189
跟	-5190
献	-5191
描	-5192
替	-5193
撤	-5194
羽	-5195
旋	-5196
刻	-5197
帮	-5198
你	-5199
赵	-5200
吸	-5201
竞	-5202
遇	-5203
刺	-5204
眼	-5205
培	-5206
刊	-5207
符	-5208
乱	-5209
找	-5210
宇	-5211
佩	-5212
殿	-5213
聚	-5214
欢	-5215
爵	-5216
私	-5217
休	-5218
充	-5219
袭	-5220
炮	-5221
逃	-5222
奉	-5223
漫	-5224
返	-5225
犯	-5226
固	-5227
毒	-5228
脑	-5229
否	-5230
耳	-5231
q	-5232
幕	-5233
唯	-5234
丝	-5235
络	-5236
雨	-5237
邻	-5238
召	-5239
捕	-5240
洪	-5241
戈	-5242
疗	-5243
骨	-5244
激	-5245
岩	-5246
废	-5247
魔	-5248
佔	-5249
茨	-5250
刑	-5251
择	-5252
靠	-5253
钱	-5254
操	-5255
怀	-5256
穿	-5257
缺	-5258
雪	-5259
宪	-5260
震	-5261
竹	-5262
露	-5263
'	-5264
忠	-5265
么	-5266
诉	-5267
坐	-5268
乎	-5269
绿	-5270
御	-5271
娜	-5272
恒	-5273
|	-5274
盘	-5275
坑	-5276
灭	-5277
翻	-5278
胞	-5279
尤	-5280
申	-5281
订	-5282
课	-5283
顾	-5284
骑	-5285
肯	-5286
赤	-5287
兄	-5288
待	-5289
抵	-5290
妻	-5291
迫	-5292
损	-5293
听	-5294
镜	-5295
坚	-5296
徐	-5297
贡	-5298
栖	-5299
浙	-5300
姓	-5301
呼	-5302
汇	-5303
刚	-5304
侵	-5305
愿	-5306
毁	-5307
谈	-5308
柏	-5309
桑	-5310
谋	-5311
陵	-5312
孩	-5313
惠	-5314
纲	-5315
秋	-5316
=	-5317
炸	-5318
脉	-5319
汽	-5320
篇	-5321
恶	-5322
辛	-5323
鳍	-5324
董	-5325
绩	-5326
横	-5327
潮	-5328
融	-5329
鸟	-5330
戴	-5331
买	-5332
舍	-5333
疑	-5334
努	-5335
芬	-5336
泉	-5337
孔	-5338
泛	-5339
绍	-5340
急	-5341
默	-5342
甘	-5343
魏	-5344
健	-5345
避	-5346
脱	-5347
卷	-5348
础	-5349
奏	-5350
缩	-5351
腊	-5352
偏	-5353
莉	-5354
榜	-5355
误	-5356
佐	-5357
墓	-5358
危	-5359
衣	-5360
套	-5361
概	-5362
呈	-5363
翼	-5364
针	-5365
坏	-5366
块	-5367
紧	-5368
隔	-5369
裁	-5370
宜	-5371
殖	-5372
肉	-5373
毫	-5374
墨	-5375
涉	-5376
寻	-5377
扎	-5378
扬	-5379
迎	-5380
染	-5381
井	-5382
赖	-5383
叫	-5384
阻	-5385
渡	-5386
虎	-5387
捷	-5388
付	-5389
冷	-5390
迷	-5391
锡	-5392
秦	-5393
贸	-5394
珠	-5395
哲	-5396
圈	-5397
缘	-5398
廉	-5399
析	-5400
弃	-5401
阴	-5402
辅	-5403
亮	-5404
卖	-5405
池	-5406
恐	-5407
招	-5408
氧	-5409
剑	-5410
彩	-5411
侯	-5412
赞	-5413
匹	-5414
虫	-5415
葡	-5416
伍	-5417
仙	-5418
症	-5419
函	-5420
琴	-5421
凤	-5422
享	-5423
味	-5424
赢	-5425
绕	-5426
寿	-5427
洞	-5428
错	-5429
钢	-5430
截	-5431
梦	-5432
]	-5433
妹	-5434
俱	-5435
颁	-5436
滨	-5437
麻	-5438
尊	-5439
暗	-5440
绘	-5441
[	-5442
瑟	-5443
俗	-5444
豪	-5445
硬	-5446
综	-5447
脚	-5448
倒	-5449
誉	-5450
崇	-5451
笔	-5452
町	-5453
驱	-5454
租	-5455
犹	-5456
矿	-5457
徽	-5458
妇	-5459
奈	-5460
铜	-5461
冬	-5462
稳	-5463
繁	-5464
逊	-5465
液	-5466
静	-5467
绪	-5468
冈	-5469
昂	-5470
阁	-5471
逝	-5472
闭	-5473
估	-5474
楚	-5475
暂	-5476
档	-5477
乙	-5478
墙	-5479
辞	-5480
辐	-5481
曹	-5482
邀	-5483
昭	-5484
+	-5485
蛋	-5486
潜	-5487
柱	-5488
掌	-5489
吕	-5490
浦	-5491
跨	-5492
册	-5493
拒	-5494
辽	-5495
郭	-5496
伐	-5497
振	-5498
纸	-5499
幼	-5500
盐	-5501
鼓	-5502
乃	-5503
岭	-5504
裂	-5505
拟	-5506
恢	-5507
裔	-5508
莎	-5509
零	-5510
?	-5511
蔡	-5512
萄	-5513
弱	-5514
轴	-5515
触	-5516
齿	-5517
赏	-5518
滑	-5519
患	-5520
陶	-5521
粉	-5522
菌	-5523
陷	-5524
淡	-5525
浪	-5526
困	-5527
障	-5528
灾	-5529
伟	-5530
览	-5531
剂	-5532
旁	-5533
偶	-5534
藤	-5535
菜	-5536
驶	-5537
彼	-5538
沈	-5539
颜	-5540
牧	-5541
埔	-5542
宿	-5543
税	-5544
丘	-5545
纯	-5546
邮	-5547
残	-5548
涅	-5549
蒋	-5550
狱	-5551
伴	-5552
柯	-5553
搭	-5554
祭	-5555
勇	-5556
促	-5557
疆	-5558
壁	-5559
昆	-5560
允	-5561
迹	-5562
灯	-5563
厦	-5564
龄	-5565
隐	-5566
敏	-5567
亨	-5568
桃	-5569
答	-5570
汤	-5571
熙	-5572
汗	-5573
仔	-5574
键	-5575
恋	-5576
遍	-5577
殊	-5578
衡	-5579
糖	-5580
句	-5581
拆	-5582
宅	-5583
珍	-5584
燃	-5585
烧	-5586
茶	-5587
幅	-5588
迈	-5589
孟	-5590
棒	-5591
葬	-5592
幸	-5593
虚	-5594
侍	-5595
折	-5596
邓	-5597
娱	-5598
沉	-5599
紫	-5600
跑	-5601
坛	-5602
莲	-5603
赴	-5604
灰	-5605
奴	-5606
幻	-5607
械	-5608
塘	-5609
厚	-5610
孝	-5611
餐	-5612
篮	-5613
贤	-5614
敬	-5615
艘	-5616
祥	-5617
叙	-5618
碑	-5619
挑	-5620
筹	-5621
磁	-5622
沟	-5623
锋	-5624
储	-5625
慈	-5626
陕	-5627
遣	-5628
纬	-5629
晶	-5630
纵	-5631
虑	-5632
萧	-5633
姐	-5634
辉	-5635
倍	-5636
箭	-5637
疾	-5638
叛	-5639
违	-5640
谱	-5641
葛	-5642
棋	-5643
贾	-5644
柴	-5645
撞	-5646
慢	-5647
冯	-5648
峡	-5649
熟	-5650
驾	-5651
妮	-5652
苦	-5653
尖	-5654
〉	-5655
枚	-5656
〈	-5657
柳	-5658
』	-5659
艇	-5660
『	-5661
凡	-5662
仰	-5663
跳	-5664
仓	-5665
坂	-5666
遂	-5667
螺	-5668
伸	-5669
伏	-5670
匈	-5671
衔	-5672
朋	-5673
烟	-5674
纹	-5675
燕	-5676
刀	-5677
瓜	-5678
撒	-5679
°	-5680
桂	-5681
彭	-5682
缓	-5683
雕	-5684
贯	-5685
潘	-5686
忆	-5687
贺	-5688
猎	-5689
迅	-5690
慕	-5691
谓	-5692
勤	-5693
兽	-5694
吃	-5695
琳	-5696
靖	-5697
详	-5698
涯	-5699
累	-5700
趣	-5701
粒	-5702
鬼	-5703
番	-5704
罕	-5705
熊	-5706
鹿	-5707
猪	-5708
脂	-5709
泊	-5710
旺	-5711
诚	-5712
掉	-5713
梯	-5714
芳	-5715
挂	-5716
胶	-5717
屯	-5718
咸	-5719
屿	-5720
赠	-5721
饮	-5722
牠	-5723
硕	-5724
晨	-5725
肃	-5726
詹	-5727
秒	-5728
纷	-5729
惊	-5730
蛇	-5731
倾	-5732
禄	-5733
怪	-5734
屏	-5735
页	-5736
抚	-5737
芝	-5738
擎	-5739
凭	-5740
拓	-5741
杉	-5742
羊	-5743
仲	-5744
浮	-5745
乳	-5746
痛	-5747
凌	-5748
俊	-5749
隧	-5750
壳	-5751
锁	-5752
缅	-5753
玄	-5754
炎	-5755
诞	-5756
卓	-5757
坎	-5758
插	-5759
鼠	-5760
弘	-5761
慧	-5762
泥	-5763
腹	-5764
猫	-5765
晓	-5766
岳	-5767
杭	-5768
～	-5769
厄	-5770
圳	-5771
励	-5772
喀	-5773
崎	-5774
搜	-5775
豆	-5776
轰	-5777
旦	-5778
塑	-5779
藩	-5780
袁	-5781
甸	-5782
卿	-5783
乏	-5784
罚	-5785
跃	-5786
戒	-5787
畔	-5788
撰	-5789
宏	-5790
鸡	-5791
笑	-5792
玻	-5793
苗	-5794
扰	-5795
盗	-5796
斑	-5797
赐	-5798
彻	-5799
洗	-5800
丧	-5801
祝	-5802
狮	-5803
寄	-5804
牵	-5805
亭	-5806
泳	-5807
溶	-5808
阮	-5809
坊	-5810
阅	-5811
崔	-5812
袖	-5813
宙	-5814
乾	-5815
胁	-5816
尉	-5817
贞	-5818
é	-5819
循	-5820
妃	-5821
焦	-5822
舒	-5823
询	-5824
巧	-5825
叔	-5826
扮	-5827
茂	-5828
郊	-5829
耀	-5830
僧	-5831
仿	-5832
吨	-5833
悬	-5834
既	-5835
箱	-5836
枢	-5837
衰	-5838
疏	-5839
粤	-5840
霸	-5841
污	-5842
捐	-5843
鲤	-5844
串	-5845
彰	-5846
侦	-5847
弥	-5848
岗	-5849
盾	-5850
逢	-5851
壮	-5852
契	-5853
碳	-5854
勃	-5855
砲	-5856
摇	-5857
措	-5858
陨	-5859
剩	-5860
浩	-5861
床	-5862
氢	-5863
枝	-5864
浓	-5865
喷	-5866
厘	-5867
翁	-5868
滚	-5869
券	-5870
歧	-5871
鸿	-5872
搬	-5873
钦	-5874
湿	-5875
递	-5876
填	-5877
夷	-5878
拳	-5879
荒	-5880
裕	-5881
滩	-5882
帅	-5883
卜	-5884
飓	-5885
浅	-5886
鲍	-5887
傅	-5888
渔	-5889
贴	-5890
欲	-5891
丈	-5892
饭	-5893
润	-5894
窗	-5895
衍	-5896
邨	-5897
割	-5898
怒	-5899
笼	-5900
淮	-5901
粮	-5902
碍	-5903
旨	-5904
尸	-5905
寨	-5906
蝶	-5907
疫	-5908
灌	-5909
侠	-5910
肥	-5911
庞	-5912
垒	-5913
惯	-5914
抽	-5915
踪	-5916
欣	-5917
赶	-5918
洁	-5919
链	-5920
鹰	-5921
珊	-5922
冒	-5923
膜	-5924
狂	-5925
胎	-5926
辩	-5927
尝	-5928
斜	-5929
聘	-5930
悉	-5931
垂	-5932
狄	-5933
稿	-5934
迟	-5935
煤	-5936
贫	-5937
吾	-5938
儒	-5939
腾	-5940
粹	-5941
陀	-5942
孤	-5943
妈	-5944
廊	-5945
湘	-5946
握	-5947
栽	-5948
壤	-5949
闽	-5950
杆	-5951
彦	-5952
耗	-5953
柔	-5954
坪	-5955
粗	-5956
抢	-5957
&	-5958
揭	-5959
逆	-5960
娘	-5961
翠	-5962
貌	-5963
铺	-5964
净	-5965
朴	-5966
琉	-5967
俘	-5968
婆	-5969
堪	-5970
狗	-5971
潭	-5972
恰	-5973
寒	-5974
挪	-5975
翌	-5976
罢	-5977
魂	-5978
璃	-5979
薄	-5980
阔	-5981
辰	-5982
忍	-5983
龟	-5984
禅	-5985
丛	-5986
癌	-5987
扶	-5988
吐	-5989
赋	-5990
丙	-5991
稍	-5992
铭	-5993
遵	-5994
坝	-5995
堆	-5996
勋	-5997
刷	-5998
伪	-5999
脏	-6000
矩	-6001
逻	-6002
碎	-6003
淘	-6004
苑	-6005
诏	-6006
荐	-6007
鼻	-6008
矶	-6009
涵	-6010
颇	-6011
丑	-6012
汪	-6013
怖	-6014
姚	-6015
叠	-6016
鸣	-6017
添	-6018
偷	-6019
栏	-6020
押	-6021
胸	-6022
寸	-6023
惟	-6024
硫	-6025
弦	-6026
逮	-6027
嫌	-6028
祀	-6029
姬	-6030
劝	-6031
扫	-6032
兆	-6033
卒	-6034
歇	-6035
吏	-6036
屠	-6037
姻	-6038
讷	-6039
狼	-6040
蛛	-6041
奔	-6042
雀	-6043
夕	-6044
奎	-6045
诊	-6046
携	-6047
脊	-6048
芒	-6049
琼	-6050
趋	-6051
泡	-6052
酶	-6053
仇	-6054
醒	-6055
蒸	-6056
卑	-6057
嗣	-6058
叉	-6059
逼	-6060
─	-6061
腐	-6062
磨	-6063
偿	-6064
菊	-6065
卵	-6066
韵	-6067
猛	-6068
劫	-6069
涂	-6070
隋	-6071
勳	-6072
厢	-6073
稣	-6074
屈	-6075
拼	-6076
薛	-6077
娃	-6078
嫁	-6079
凝	-6080
斤	-6081
犬	-6082
债	-6083
掘	-6084
肖	-6085
敢	-6086
鹤	-6087
摆	-6088
闪	-6089
嘴	-6090
悲	-6091
醇	-6092
忙	-6093
矛	-6094
伽	-6095
氯	-6096
奶	-6097
棘	-6098
铸	-6099
凉	-6100
抑	-6101
碟	-6102
侨	-6103
曰	-6104
迦	-6105
礁	-6106
姊	-6107
妙	-6108
・	-6109
肌	-6110
忽	-6111
栋	-6112
汰	-6113
祠	-6114
贩	-6115
株	-6116
舱	-6117
雍	-6118
砖	-6119
旬	-6120
鼎	-6121
扁	-6122
翔	-6123
碧	-6124
袋	-6125
吹	-6126
穷	-6127
麟	-6128
鲶	-6129
怕	-6130
抱	-6131
炉	-6132
狭	-6133
稻	-6134
甫	-6135
’	-6136
拖	-6137
姜	-6138
巫	-6139
谭	-6140
砂	-6141
铃	-6142
尹	-6143
幽	-6144
宰	-6145
夹	-6146
绳	-6147
斐	-6148
蹈	-6149
汀	-6150
孕	-6151
寓	-6152
惨	-6153
抓	-6154
剪	-6155
丸	-6156
崩	-6157
圭	-6158
恭	-6159
盆	-6160
锺	-6161
鉴	-6162
鳞	-6163
虹	-6164
沪	-6165
竟	-6166
纤	-6167
毅	-6168
邪	-6169
讚	-6170
鄂	-6171
胆	-6172
闸	-6173
→	-6174
邑	-6175
丞	-6176
寮	-6177
豫	-6178
埋	-6179
讬	-6180
倡	-6181
斋	-6182
苹	-6183
弯	-6184
辨	-6185
驳	-6186
~	-6187
鲈	-6188
廖	-6189
钻	-6190
汝	-6191
蕨	-6192
魁	-6193
渊	-6194
蓬	-6195
囊	-6196
伙	-6197
雌	-6198
珀	-6199
雾	-6200
茅	-6201
蜂	-6202
滕	-6203
襄	-6204
巢	-6205
扣	-6206
荆	-6207
郁	-6208
咖	-6209
募	-6210
拨	-6211
斩	-6212
×	-6213
催	-6214
腺	-6215
茵	-6216
氨	-6217
吧	-6218
腔	-6219
吞	-6220
脸	-6221
蟹	-6222
陪	-6223
披	-6224
挖	-6225
奋	-6226
谦	-6227
暖	-6228
耕	-6229
溯	-6230
涌	-6231
肠	-6232
苯	-6233
酷	-6234
荡	-6235
劲	-6236
擅	-6237
鸭	-6238
聪	-6239
削	-6240
棉	-6241
蜜	-6242
拘	-6243
暨	-6244
吻	-6245
耐	-6246
瓶	-6247
崖	-6248
忘	-6249
蕾	-6250
铎	-6251
舟	-6252
漠	-6253
舌	-6254
愈	-6255
仕	-6256
噶	-6257
毗	-6258
卸	-6259
邱	-6260
札	-6261
帽	-6262
蒲	-6263
栗	-6264
帐	-6265
亥	-6266
斥	-6267
喇	-6268
薇	-6269
颈	-6270
渠	-6271
拱	-6272
巷	-6273
摧	-6274
掠	-6275
谊	-6276
遥	-6277
诱	-6278
姑	-6279
薪	-6280
碱	-6281
蜀	-6282
溃	-6283
昇	-6284
婴	-6285
矮	-6286
忧	-6287
淑	-6288
鲸	-6289
稀	-6290
胺	-6291
‘	-6292
扑	-6293
啡	-6294
顷	-6295
锐	-6296
踏	-6297
邵	-6298
炼	-6299
宠	-6300
筒	-6301
肺	-6302
贼	-6303
琪	-6304
愤	-6305
鑑	-6306
冕	-6307
烯	-6308
轩	-6309
穴	-6310
椎	-6311
庶	-6312
爷	-6313
藻	-6314
葵	-6315
甜	-6316
澄	-6317
哪	-6318
畅	-6319
梨	-6320
菩	-6321
桓	-6322
雇	-6323
亩	-6324
帆	-6325
宛	-6326
睡	-6327
漏	-6328
尿	-6329
掩	-6330
磷	-6331
惜	-6332
谁	-6333
宴	-6334
碰	-6335
玲	-6336
豹	-6337
凶	-6338
卧	-6339
吁	-6340
堤	-6341
怡	-6342
梵	-6343
榄	-6344
鹅	-6345
ー	-6346
绵	-6347
夸	-6348
誓	-6349
逸	-6350
弓	-6351
翅	-6352
慎	-6353
饼	-6354
褐	-6355
瓷	-6356
冀	-6357
腿	-6358
鹏	-6359
框	-6360
挡	-6361
瘤	-6362
棕	-6363
禾	-6364
肤	-6365
桌	-6366
贪	-6367
奸	-6368
仑	-6369
绑	-6370
樱	-6371
仆	-6372
奠	-6373
蹟	-6374
侣	-6375
唇	-6376
绥	-6377
伞	-6378
悠	-6379
姿	-6380
颠	-6381
桐	-6382
弄	-6383
芦	-6384
删	-6385
爪	-6386
骚	-6387
慰	-6388
臂	-6389
娶	-6390
柬	-6391
柄	-6392
贷	-6393
骗	-6394
肿	-6395
颖	-6396
霞	-6397
鸦	-6398
肢	-6399
谐	-6400
惧	-6401
牲	-6402
抛	-6403
抄	-6404
呎	-6405
恨	-6406
盈	-6407
纠	-6408
蝠	-6409
‧	-6410
祯	-6411
辈	-6412
涛	-6413
厝	-6414
肝	-6415
窄	-6416
缴	-6417
腰	-6418
颂	-6419
践	-6420
赌	-6421
烷	-6422
庚	-6423
腓	-6424
а	-6425
劣	-6426
扭	-6427
庇	-6428
肩	-6429
讼	-6430
祈	-6431
茎	-6432
哀	-6433
囚	-6434
蚀	-6435
汶	-6436
*	-6437
坟	-6438
殷	-6439
沼	-6440
辟	-6441
逾	-6442
吊	-6443
朵	-6444
猜	-6445
妖	-6446
饶	-6447
赔	-6448
滋	-6449
秩	-6450
浸	-6451
涡	-6452
炭	-6453
遮	-6454
の	-6455
厥	-6456
滤	-6457
忌	-6458
裸	-6459
谣	-6460
槽	-6461
镑	-6462
怎	-6463
搞	-6464
悦	-6465
瑜	-6466
坠	-6467
兔	-6468
坞	-6469
尘	-6470
跌	-6471
缝	-6472
肇	-6473
α	-6474
屡	-6475
ン	-6476
寇	-6477
爬	-6478
椅	-6479
荃	-6480
C	-6481
蓄	-6482
扇	-6483
嫩	-6484
埠	-6485
夥	-6486
祸	-6487
祐	-6488
凰	-6489
о	-6490
舆	-6491
尧	-6492
芙	-6493
芭	-6494
焚	-6495
鳄	-6496
氟	-6497
戌	-6498
挺	-6499
嵌	-6500
橡	-6501
窝	-6502
趁	-6503
虾	-6504
纺	-6505
虏	-6506
庸	-6507
惩	-6508
崙	-6509
眉	-6510
跋	-6511
猴	-6512
肾	-6513
禧	-6514
骏	-6515
讽	-6516
歉	-6517
贬	-6518
瑚	-6519
昔	-6520
擦	-6521
欠	-6522
酮	-6523
$	-6524
厉	-6525
柜	-6526
晴	-6527
茄	-6528
锅	-6529
浏	-6530
佑	-6531
鞋	-6532
蕃	-6533
剥	-6534
唤	-6535
眠	-6536
坤	-6537
萝	-6538
蜥	-6539
喻	-6540
谘	-6541
挤	-6542
旱	-6543
捉	-6544
勘	-6545
浆	-6546
踢	-6547
昏	-6548
泪	-6549
#	-6550
攀	-6551
履	-6552
娅	-6553
悟	-6554
铝	-6555
厌	-6556
冻	-6557
咏	-6558
漂	-6559
怨	-6560
苍	-6561
戊	-6562
胀	-6563
爸	-6564
橄	-6565
喝	-6566
钓	-6567
炳	-6568
狐	-6569
鲷	-6570
塌	-6571
醉	-6572
烂	-6573
滥	-6574
疯	-6575
丢	-6576
撑	-6577
赣	-6578
澎	-6579
躲	-6580
竣	-6581
旭	-6582
璋	-6583
厨	-6584
钩	-6585
臀	-6586
氮	-6587
缸	-6588
帖	-6589
歼	-6590
淳	-6591
睛	-6592
僚	-6593
裴	-6594
谨	-6595
荫	-6596
и	-6597
妥	-6598
锥	-6599
哺	-6600
辱	-6601
盲	-6602
熔	-6603
穗	-6604
糕	-6605
盒	-6606
匠	-6607
牺	-6608
冢	-6609
匪	-6610
镶	-6611
椒	-6612
棚	-6613
窑	-6614
垦	-6615
钠	-6616
凸	-6617
痕	-6618
畜	-6619
缔	-6620
斌	-6621
榴	-6622
罩	-6623
霖	-6624
涨	-6625
覆	-6626
巩	-6627
摔	-6628
匣	-6629
勾	-6630
咒	-6631
酿	-6632
徙	-6633
矢	-6634
秉	-6635
欺	-6636
漆	-6637
鞍	-6638
阀	-6639
饱	-6640
煌	-6641
阜	-6642
铅	-6643
贿	-6644
聂	-6645
酯	-6646
戚	-6647
岐	-6648
梭	-6649
麓	-6650
黛	-6651
喉	-6652
虞	-6653
糊	-6654
谴	-6655
虐	-6656
菱	-6657
蛙	-6658
い	-6659
嘛	-6660
饥	-6661
佣	-6662
哭	-6663
蛮	-6664
萤	-6665
瑶	-6666
畴	-6667
枫	-6668
畏	-6669
庐	-6670
牟	-6671
笃	-6672
漳	-6673
瞄	-6674
闹	-6675
瑙	-6676
浴	-6677
祷	-6678
拦	-6679
堵	-6680
酋	-6681
拯	-6682
á	-6683
淀	-6684
阎	-6685
闯	-6686
捲	-6687
辣	-6688
庵	-6689
帜	-6690
垣	-6691
钧	-6692
谍	-6693
驰	-6694
廿	-6695
悼	-6696
朔	-6697
笛	-6698
幢	-6699
绅	-6700
吗	-6701
彬	-6702
棠	-6703
韶	-6704
鲨	-6705
凹	-6706
椭	-6707
烦	-6708
橙	-6709
噪	-6710
翡	-6711
弧	-6712
彗	-6713
棍	-6714
蝙	-6715
乞	-6716
咀	-6717
楠	-6718
吓	-6719
氛	-6720
閒	-6721
瓣	-6722
壬	-6723
焰	-6724
赦	-6725
惑	-6726
滴	-6727
胃	-6728
硝	-6729
浑	-6730
蛤	-6731
磅	-6732
骤	-6733
湛	-6734
酱	-6735
颌	-6736
缀	-6737
膨	-6738
寅	-6739
瑰	-6740
濒	-6741
е	-6742
н	-6743
粘	-6744
饲	-6745
燥	-6746
牢	-6747
窃	-6748
冶	-6749
垃	-6750
黏	-6751
摘	-6752
樑	-6753
玫	-6754
禹	-6755
杏	-6756
掷	-6757
汁	-6758
剿	-6759
谕	-6760
沧	-6761
肆	-6762
骂	-6763
谥	-6764
槟	-6765
窟	-6766
劾	-6767
匿	-6768
缆	-6769
圾	-6770
淹	-6771
孜	-6772
邸	-6773
阐	-6774
纂	-6775
懂	-6776
陇	-6777
沦	-6778
艰	-6779
迄	-6780
诈	-6781
β	-6782
泌	-6783
闲	-6784
戎	-6785
畿	-6786
寡	-6787
鹃	-6788
濑	-6789
钥	-6790
芽	-6791
喊	-6792
′	-6793
滞	-6794
橘	-6795
闵	-6796
梓	-6797
冥	-6798
窦	-6799
汕	-6800
懿	-6801
ん	-6802
酰	-6803
奕	-6804
с	-6805
酬	-6806
簧	-6807
沛	-6808
侄	-6809
煮	-6810
孚	-6811
绰	-6812
稽	-6813
妆	-6814
渗	-6815
р	-6816
蔽	-6817
隙	-6818
邹	-6819
绒	-6820
锣	-6821
筋	-6822
浊	-6823
滇	-6824
勉	-6825
纱	-6826
绣	-6827
宦	-6828
寂	-6829
雁	-6830
峻	-6831
缠	-6832
鞭	-6833
谜	-6834
泄	-6835
酵	-6836
瀑	-6837
焕	-6838
啤	-6839
芯	-6840
鳗	-6841
諡	-6842
倪	-6843
剌	-6844
蚁	-6845
俞	-6846
仗	-6847
嫡	-6848
竖	-6849
ü	-6850
萍	-6851
敖	-6852
艳	-6853
【	-6854
】	-6855
曝	-6856
妓	-6857
墩	-6858
籤	-6859
癸	-6860
狩	-6861
伺	-6862
荔	-6863
殉	-6864
萌	-6865
颅	-6866
呢	-6867
乒	-6868
挝	-6869
诛	-6870
僱	-6871
岑	-6872
垄	-6873
榆	-6874
う	-6875
傲	-6876
墅	-6877
拾	-6878
锯	-6879
墟	-6880
烤	-6881
桶	-6882
淋	-6883
啦	-6884
碘	-6885
稚	-6886
茹	-6887
彝	-6888
缪	-6889
诵	-6890
臭	-6891
裹	-6892
缉	-6893
耿	-6894
彪	-6895
吋	-6896
咨	-6897
蓉	-6898
婉	-6899
钙	-6900
暑	-6901
蕴	-6902
哇	-6903
悔	-6904
犁	-6905
堕	-6906
狸	-6907
聊	-6908
衷	-6909
谏	-6910
赚	-6911
鳉	-6912
魅	-6913
竭	-6914
琦	-6915
舜	-6916
挽	-6917
账	-6918
肪	-6919
蹄	-6920
愚	-6921
樟	-6922
砍	-6923
粟	-6924
袜	-6925
骸	-6926
※	-6927
芜	-6928
羌	-6929
爽	-6930
т	-6931
牡	-6932
锤	-6933
淫	-6934
敷	-6935
诠	-6936
嵩	-6937
藓	-6938
蔚	-6939
趾	-6940
砌	-6941
咬	-6942
舖	-6943
亏	-6944
裤	-6945
弼	-6946
龚	-6947
皖	-6948
豚	-6949
轿	-6950
晰	-6951
罐	-6952
碗	-6953
绎	-6954
蔓	-6955
垫	-6956
舅	-6957
弊	-6958
硅	-6959
茜	-6960
晖	-6961
ス	-6962
壶	-6963
擒	-6964
嫔	-6965
匡	-6966
啸	-6967
禽	-6968
莞	-6969
衙	-6970
敲	-6971
薯	-6972
愉	-6973
澜	-6974
蜡	-6975
し	-6976
檀	-6977
廓	-6978
叹	-6979
樊	-6980
钞	-6981
イ	-6982
狙	-6983
•	-6984
í	-6985
膀	-6986
剖	-6987
毓	-6988
娥	-6989
罹	-6990
赎	-6991
哩	-6992
倭	-6993
霉	-6994
嘎	-6995
擢	-6996
扳	-6997
苔	-6998
淆	-6999
炒	-7000
钾	-7001
瞬	-7002
渤	-7003
ö	-7004
蜘	-7005
驼	-7006
褒	-7007
摊	-7008
飘	-7009
泼	-7010
钮	-7011
毙	-7012
孢	-7013
釜	-7014
ā	-7015
蔬	-7016
祇	-7017
杖	-7018
乓	-7019
匀	-7020
驹	-7021
厕	-7022
鲉	-7023
鳃	-7024
鹦	-7025
郝	-7026
壹	-7027
饿	-7028
钉	-7029
棱	-7030
в	-7031
兑	-7032
暹	-7033
胚	-7034
蕉	-7035
甄	-7036
渭	-7037
烹	-7038
俯	-7039
迭	-7040
岱	-7041
睿	-7042
祁	-7043
沁	-7044
к	-7045
邯	-7046
哨	-7047
崛	-7048
霜	-7049
猩	-7050
骆	-7051
抬	-7052
娄	-7053
檐	-7054
猿	-7055
脆	-7056
凑	-7057
ル	-7058
谅	-7059
梧	-7060
沫	-7061
胤	-7062
盔	-7063
ó	-7064
渝	-7065
か	-7066
榕	-7067
疲	-7068
卦	-7069
犀	-7070
挫	-7071
凿	-7072
刹	-7073
灿	-7074
邢	-7075
舶	-7076
巾	-7077
蝴	-7078
裙	-7079
沂	-7080
膝	-7081
た	-7082
宵	-7083
楷	-7084
莹	-7085
莽	-7086
莺	-7087
眷	-7088
晤	-7089
抹	-7090
妾	-7091
矣	-7092
梗	-7093
惹	-7094
疼	-7095
袍	-7096
汐	-7097
黔	-7098
驿	-7099
醛	-7100
蝉	-7101
苷	-7102
髓	-7103
膛	-7104
雯	-7105
搁	-7106
婷	-7107
倖	-7108
媛	-7109
蕊	-7110
è	-7111
桦	-7112
匾	-7113
雏	-7114
潟	-7115
傍	-7116
肚	-7117
铀	-7118
泗	-7119
溥	-7120
谟	-7121
簿	-7122
栅	-7123
笠	-7124
л	-7125
谎	-7126
峙	-7127
膏	-7128
喙	-7129
祺	-7130
蒿	-7131
湧	-7132
勿	-7133
琅	-7134
涩	-7135
卯	-7136
堀	-7137
ラ	-7138
棺	-7139
渴	-7140
汾	-7141
葱	-7142
耻	-7143
辜	-7144
睦	-7145
卤	-7146
磡	-7147
垩	-7148
敕	-7149
俩	-7150
溉	-7151
讳	-7152
桨	-7153
鳕	-7154
奢	-7155
溢	-7156
泾	-7157
渣	-7158
と	-7159
冤	-7160
肋	-7161
顽	-7162
闢	-7163
婿	-7164
您	-7165
敛	-7166
羞	-7167
耆	-7168
岚	-7169
洽	-7170
虔	-7171
璧	-7172
幌	-7173
俭	-7174
堰	-7175
峨	-7176
晃	-7177
殴	-7178
镍	-7179
洼	-7180
郸	-7181
侬	-7182
菁	-7183
羟	-7184
寝	-7185
瘦	-7186
绸	-7187
蜗	-7188
塾	-7189
缮	-7190
吟	-7191
μ	-7192
ア	-7193
啊	-7194
蚌	-7195
紮	-7196
佥	-7197
馨	-7198
摸	-7199
枯	-7200
ä	-7201
馈	-7202
慌	-7203
焊	-7204
晏	-7205
磺	-7206
烃	-7207
羚	-7208
闰	-7209
侏	-7210
揽	-7211
匙	-7212
嘲	-7213
埼	-7214
诬	-7215
谬	-7216
鹉	-7217
枣	-7218
胖	-7219
戟	-7220
苻	-7221
骄	-7222
泵	-7223
酉	-7224
掀	-7225
糟	-7226
钝	-7227
刃	-7228
ト	-7229
捞	-7230
麒	-7231
恼	-7232
丕	-7233
骼	-7234
リ	-7235
艮	-7236
竺	-7237
岔	-7238
芹	-7239
蔷	-7240
锂	-7241
僵	-7242
衬	-7243
衫	-7244
菸	-7245
锌	-7246
慾	-7247
氰	-7248
琛	-7249
岬	-7250
倚	-7251
棵	-7252
噬	-7253
梳	-7254
な	-7255
懋	-7256
兀	-7257
抒	-7258
瑾	-7259
鸠	-7260
雳	-7261
皓	-7262
萼	-7263
斧	-7264
菇	-7265
淞	-7266
磐	-7267
芮	-7268
腕	-7269
蝇	-7270
秃	-7271
枕	-7272
搏	-7273
咪	-7274
锈	-7275
忒	-7276
暱	-7277
に	-7278
娇	-7279
哉	-7280
鸽	-7281
憾	-7282
霹	-7283
瀛	-7284
穹	-7285
兖	-7286
撕	-7287
稜	-7288
ク	-7289
瞻	-7290
瑛	-7291
睹	-7292
舷	-7293
〔	-7294
戍	-7295
棣	-7296
芸	-7297
〕	-7298
兜	-7299
诃	-7300
祂	-7301
汞	-7302
り	-7303
靶	-7304
桩	-7305
浚	-7306
溜	-7307
鰕	-7308
嘱	-7309
溴	-7310
茱	-7311
捧	-7312
焉	-7313
抨	-7314
癒	-7315
衞	-7316
荀	-7317
洩	-7318
煽	-7319
蔗	-7320
洒	-7321
д	-7322
颚	-7323
苞	-7324
篡	-7325
蚕	-7326
缚	-7327
鑫	-7328
胰	-7329
嗜	-7330
蟾	-7331
霆	-7332
蛾	-7333
炬	-7334
祕	-7335
觅	-7336
鲀	-7337
捍	-7338
栈	-7339
ا	-7340
蜒	-7341
阙	-7342
曜	-7343
陡	-7344
韧	-7345
萃	-7346
恪	-7347
帛	-7348
熹	-7349
蜿	-7350
逗	-7351
る	-7352
糙	-7353
霄	-7354
玺	-7355
−	-7356
渥	-7357
隍	-7358
〜	-7359
灶	-7360
き	-7361
怜	-7362
稠	-7363
м	-7364
ま	-7365
孵	-7366
恺	-7367
沸	-7368
镰	-7369
祚	-7370
鍊	-7371
煞	-7372
锻	-7373
翟	-7374
俾	-7375
敞	-7376
瘟	-7377
黜	-7378
妄	-7379
砾	-7380
栓	-7381
昼	-7382
慨	-7383
莓	-7384
峭	-7385
偕	-7386
皂	-7387
绞	-7388
芥	-7389
崑	-7390
巳	-7391
淇	-7392
沽	-7393
妨	-7394
粪	-7395
篷	-7396
曙	-7397
鞑	-7398
钊	-7399
筛	-7400
烛	-7401
昊	-7402
箕	-7403
矽	-7404
咤	-7405
薰	-7406
颐	-7407
埤	-7408
晕	-7409
赁	-7410
躯	-7411
麾	-7412
酚	-7413
蚤	-7414
镖	-7415
く	-7416
屑	-7417
俸	-7418
侮	-7419
硼	-7420
羁	-7421
溺	-7422
γ	-7423
恕	-7424
玮	-7425
潼	-7426
刮	-7427
邺	-7428
辗	-7429
肽	-7430
镁	-7431
泻	-7432
笨	-7433
靼	-7434
さ	-7435
乍	-7436
ッ	-7437
皋	-7438
饷	-7439
娟	-7440
斡	-7441
蚊	-7442
膳	-7443
苣	-7444
咽	-7445
盎	-7446
桢	-7447
禺	-7448
鳅	-7449
鹭	-7450
曦	-7451
泣	-7452
龛	-7453
吡	-7454
妍	-7455
堇	-7456
莆	-7457
隅	-7458
挠	-7459
は	-7460
楞	-7461
臧	-7462
晒	-7463
椰	-7464
靴	-7465
π	-7466
舵	-7467
彤	-7468
酪	-7469
□	-7470
豁	-7471
譬	-7472
贱	-7473
沥	-7474
沐	-7475
陞	-7476
挟	-7477
帘	-7478
瘫	-7479
у	-7480
纶	-7481
泸	-7482
傀	-7483
瘾	-7484
砸	-7485
驯	-7486
钜	-7487
裘	-7488
铉	-7489
暮	-7490
诅	-7491
陛	-7492
吵	-7493
埗	-7494
绮	-7495
鲑	-7496
衢	-7497
滙	-7498
氦	-7499
炫	-7500
阱	-7501
δ	-7502
こ	-7503
疹	-7504
苟	-7505
赂	-7506
柠	-7507
坜	-7508
诰	-7509
σ	-7510
鎌	-7511
儡	-7512
瞒	-7513
蓟	-7514
扔	-7515
が	-7516
佬	-7517
鞘	-7518
倩	-7519
韬	-7520
煎	-7521
夭	-7522
\	-7523
幡	-7524
萱	-7525
庾	-7526
绶	-7527
峪	-7528
镀	-7529
沮	-7530
シ	-7531
戮	-7532
汴	-7533
腥	-7534
み	-7535
呆	-7536
榈	-7537
葫	-7538
λ	-7539
拢	-7540
挣	-7541
毯	-7542
巅	-7543
淄	-7544
伶	-7545
п	-7546
ら	-7547
炯	-7548
隘	-7549
靡	-7550
@	-7551
磊	-7552
绫	-7553
羲	-7554
柑	-7555
奚	-7556
濠	-7557
醚	-7558
槛	-7559
芋	-7560
槐	-7561
琵	-7562
湄	-7563
嘻	-7564
钛	-7565
鼬	-7566
叱	-7567
瞩	-7568
钵	-7569
翘	-7570
お	-7571
晟	-7572
炀	-7573
巖	-7574
扯	-7575
姨	-7576
タ	-7577
萎	-7578
檬	-7579
旷	-7580
讶	-7581
て	-7582
鄞	-7583
矫	-7584
陌	-7585
琶	-7586
鸾	-7587
燮	-7588
崁	-7589
咎	-7590
陋	-7591
淤	-7592
カ	-7593
冉	-7594
垮	-7595
鸥	-7596
娴	-7597
醋	-7598
胥	-7599
跪	-7600
幂	-7601
笋	-7602
拷	-7603
鹫	-7604
証	-7605
â	-7606
恤	-7607
翊	-7608
锚	-7609
ç	-7610
壕	-7611
蒜	-7612
掳	-7613
痪	-7614
耦	-7615
沾	-7616
肛	-7617
蒐	-7618
ジ	-7619
稷	-7620
铠	-7621
桅	-7622
苇	-7623
ロ	-7624
悍	-7625
佚	-7626
毘	-7627
寰	-7628
あ	-7629
朽	-7630
殡	-7631
弈	-7632
憩	-7633
苛	-7634
瞿	-7635
卉	-7636
诫	-7637
拐	-7638
皱	-7639
笙	-7640
渲	-7641
篆	-7642
绛	-7643
蔑	-7644
钰	-7645
漕	-7646
珂	-7647
蕙	-7648
聆	-7649
诡	-7650
釉	-7651
峇	-7652
竿	-7653
揆	-7654
涧	-7655
悚	-7656
濮	-7657
莒	-7658
剃	-7659
懒	-7660
臼	-7661
侃	-7662
悄	-7663
汲	-7664
埕	-7665
啶	-7666
岂	-7667
铬	-7668
○	-7669
谤	-7670
颍	-7671
悖	-7672
闷	-7673
ち	-7674
荧	-7675
昙	-7676
糯	-7677
霰	-7678
孺	-7679
炽	-7680
骇	-7681
坍	-7682
昧	-7683
ε	-7684
饪	-7685
睐	-7686
驸	-7687
崭	-7688
帧	-7689
甥	-7690
苓	-7691
媚	-7692
簇	-7693
琰	-7694
臻	-7695
隼	-7696
衮	-7697
贮	-7698
杞	-7699
愁	-7700
掣	-7701
泷	-7702
盼	-7703
甬	-7704
骁	-7705
ο	-7706
ω	-7707
哆	-7708
芷	-7709
マ	-7710
铨	-7711
馏	-7712
捆	-7713
跆	-7714
褚	-7715
陂	-7716
疟	-7717
谒	-7718
蛱	-7719
昱	-7720
踩	-7721
毋	-7722
珪	-7723
攸	-7724
ド	-7725
傻	-7726
桧	-7727
聋	-7728
砷	-7729
镐	-7730
←	-7731
辕	-7732
г	-7733
僖	-7734
谚	-7735
琐	-7736
侗	-7737
撃	-7738
灼	-7739
烘	-7740
殆	-7741
鲽	-7742
じ	-7743
歪	-7744
硒	-7745
铵	-7746
妒	-7747
撼	-7748
皈	-7749
趟	-7750
葆	-7751
銮	-7752
挚	-7753
躁	-7754
遏	-7755
圻	-7756
傣	-7757
腻	-7758
侈	-7759
赈	-7760
椿	-7761
樵	-7762
畸	-7763
濬	-7764
绯	-7765
羧	-7766
茉	-7767
蜴	-7768
鳌	-7769
贻	-7770
ل	-7771
〇	-7772
レ	-7773
薹	-7774
ú	-7775
跤	-7776
褶	-7777
楔	-7778
瓯	-7779
±	-7780
雉	-7781
恳	-7782
筠	-7783
唸	-7784
铲	-7785
绢	-7786
锰	-7787
叡	-7788
瀚	-7789
卅	-7790
驴	-7791
魄	-7792
峯	-7793
潞	-7794
靳	-7795
瞳	-7796
倦	-7797
鳚	-7798
沅	-7799
媳	-7800
弩	-7801
脾	-7802
辍	-7803
ν	-7804
颊	-7805
ρ	-7806
à	-7807
浒	-7808
炜	-7809
匆	-7810
馅	-7811
勐	-7812
碉	-7813
桔	-7814
拌	-7815
捣	-7816
焘	-7817
圩	-7818
遴	-7819
栉	-7820
飙	-7821
圃	-7822
喃	-7823
耍	-7824
つ	-7825
呕	-7826
禀	-7827
潍	-7828
胱	-7829
τ	-7830
甦	-7831
肴	-7832
搅	-7833
喘	-7834
刁	-7835
愧	-7836
莘	-7837
杠	-7838
琮	-7839
迥	-7840
б	-7841
拂	-7842
澈	-7843
鹊	-7844
婢	-7845
も	-7846
窥	-7847
洮	-7848
躺	-7849
濂	-7850
颤	-7851
窜	-7852
哑	-7853
を	-7854
フ	-7855
铂	-7856
蚜	-7857
裳	-7858
姪	-7859
膺	-7860
й	-7861
琥	-7862
觐	-7863
诽	-7864
鳎	-7865
蚂	-7866
宸	-7867
菅	-7868
襟	-7869
槃	-7870
耸	-7871
浜	-7872
ô	-7873
轭	-7874
渎	-7875
朕	-7876
籽	-7877
荚	-7878
ミ	-7879
昨	-7880
辙	-7881
丫	-7882
遁	-7883
狠	-7884
蟒	-7885
邝	-7886
翎	-7887
邕	-7888
瑕	-7889
夔	-7890
猷	-7891
柿	-7892
潢	-7893
だ	-7894
乂	-7895
浇	-7896
蠕	-7897
蠢	-7898
洙	-7899
粥	-7900
冗	-7901
衅	-7902
吠	-7903
熵	-7904
晦	-7905
痴	-7906
で	-7907
枋	-7908
嫉	-7909
秽	-7910
れ	-7911
殭	-7912
筝	-7913
捡	-7914
ς	-7915
吼	-7916
妳	-7917
扈	-7918
钴	-7919
キ	-7920
僻	-7921
畑	-7922
豔	-7923
掖	-7924
骠	-7925
‰	-7926
エ	-7927
莪	-7928
溧	-7929
オ	-7930
弋	-7931
忻	-7932
逵	-7933
や	-7934
闾	-7935
俨	-7936
茛	-7937
ə	-7938
я	-7939
曳	-7940
疮	-7941
ι	-7942
螂	-7943
貂	-7944
忏	-7945
昕	-7946
瓒	-7947
奘	-7948
藔	-7949
唑	-7950
す	-7951
氹	-7952
阡	-7953
栎	-7954
惕	-7955
酥	-7956
岷	-7957
薑	-7958
斛	-7959
诀	-7960
榔	-7961
钏	-7962
絮	-7963
薨	-7964
羰	-7965
涤	-7966
孀	-7967
昶	-7968
谛	-7969
コ	-7970
拙	-7971
妊	-7972
☆	-7973
鲱	-7974
跻	-7975
剔	-7976
虢	-7977
蛟	-7978
逍	-7979
鮨	-7980
癫	-7981
捏	-7982
咳	-7983
弑	-7984
涿	-7985
醣	-7986
鹘	-7987
φ	-7988
っ	-7989
熄	-7990
渚	-7991
嶋	-7992
轼	-7993
巍	-7994
戛	-7995
偃	-7996
鸢	-7997
璜	-7998
佟	-7999
眺	-8000
栾	-8001
沌	-8002
樽	-8003
鸮	-8004
慷	-8005
叭	-8006
暇	-8007
宕	-8008
滦	-8009
佃	-8010
瑄	-8011
匝	-8012
巽	-8013
š	-8014
盏	-8015
孛	-8016
迺	-8017
囱	-8018
奄	-8019
扼	-8020
烽	-8021
颓	-8022
灏	-8023
璐	-8024
肘	-8025
螯	-8026
伎	-8027
叮	-8028
镛	-8029
阇	-8030
グ	-8031
煜	-8032
钨	-8033
砚	-8034
琏	-8035
ブ	-8036
郢	-8037
篱	-8038
荟	-8039
檗	-8040
坳	-8041
迂	-8042
歙	-8043
哗	-8044
贲	-8045
鄙	-8046
叻	-8047
馥	-8048
璇	-8049
蓼	-8050
髅	-8051
荥	-8052
尬	-8053
餵	-8054
讹	-8055
篠	-8056
缕	-8057
檎	-8058
沱	-8059
湳	-8060
黯	-8061
脖	-8062
掺	-8063
妲	-8064
氓	-8065
皿	-8066
诣	-8067
憎	-8068
颉	-8069
κ	-8070
炙	-8071
牒	-8072
璟	-8073
鞠	-8074
チ	-8075
涟	-8076
滔	-8077
仄	-8078
谯	-8079
ī	-8080
旻	-8081
惰	-8082
茫	-8083
擂	-8084
胪	-8085
咲	-8086
サ	-8087
昵	-8088
珲	-8089
麝	-8090
け	-8091
亵	-8092
峦	-8093
倘	-8094
婺	-8095
眶	-8096
鄱	-8097
骅	-8098
璞	-8099
骥	-8100
炔	-8101
匮	-8102
镕	-8103
丐	-8104
钳	-8105
榨	-8106
瞰	-8107
ナ	-8108
懈	-8109
ы	-8110
ن	-8111
荼	-8112
涪	-8113
骷	-8114
尻	-8115
浔	-8116
碁	-8117
抖	-8118
艋	-8119
挨	-8120
蝗	-8121
劈	-8122
缎	-8123
舺	-8124
呀	-8125
啄	-8126
怠	-8127
磋	-8128
θ	-8129
嗅	-8130
拇	-8131
テ	-8132
歳	-8133
掸	-8134
祉	-8135
ч	-8136
尴	-8137
麴	-8138
ウ	-8139
槓	-8140
蘑	-8141
婕	-8142
稼	-8143
玟	-8144
ム	-8145
潇	-8146
缙	-8147
呐	-8148
哮	-8149
旌	-8150
嫂	-8151
唔	-8152
^	-8153
ر	-8154
纥	-8155
卞	-8156
ь	-8157
汛	-8158
劭	-8159
岖	-8160
з	-8161
酗	-8162
鲫	-8163
咐	-8164
秤	-8165
デ	-8166
パ	-8167
撇	-8168
屎	-8169
蠍	-8170
诲	-8171
亘	-8172
ャ	-8173
酌	-8174
骧	-8175
饵	-8176
鳖	-8177
よ	-8178
わ	-8179
崧	-8180
淦	-8181
乖	-8182
祜	-8183
亢	-8184
熏	-8185
嚣	-8186
铿	-8187
罂	-8188
艏	-8189
ひ	-8190
绊	-8191
ょ	-8192
蝽	-8193
覃	-8194
佗	-8195
槿	-8196
赃	-8197
凋	-8198
嬉	-8199
å	-8200
ê	-8201
ñ	-8202
柚	-8203
蚬	-8204
睢	-8205
珉	-8206
唆	-8207
睾	-8208
プ	-8209
螈	-8210
醮	-8211
贰	-8212
睽	-8213
讥	-8214
葺	-8215
躬	-8216
枭	-8217
鱇	-8218
ィ	-8219
嗓	-8220
岘	-8221
佘	-8222
咕	-8223
ë	-8224
犍	-8225
鵰	-8226
嬴	-8227
蝨	-8228
η	-8229
笈	-8230
冼	-8231
癖	-8232
娠	-8233
魮	-8234
彷	-8235
泓	-8236
迳	-8237
え	-8238
蝎	-8239
痒	-8240
滁	-8241
鬣	-8242
鮟	-8243
谔	-8244
靓	-8245
ニ	-8246
阗	-8247
锑	-8248
髻	-8249
ø	-8250
纾	-8251
バ	-8252
粲	-8253
査	-8254
钗	-8255
●	-8256
瓮	-8257
痫	-8258
遐	-8259
羯	-8260
ハ	-8261
碌	-8262
ي	-8263
铯	-8264
鹛	-8265
堑	-8266
蜱	-8267
喆	-8268
烨	-8269
凳	-8270
恬	-8271
澡	-8272
惶	-8273
鸫	-8274
羹	-8275
耽	-8276
聿	-8277
徘	-8278
熬	-8279
ʁ	-8280
堺	-8281
橇	-8282
墘	-8283
槭	-8284
柩	-8285
徊	-8286
甩	-8287
兮	-8288
槌	-8289
浣	-8290
脩	-8291
鲆	-8292
泮	-8293
歹	-8294
蕈	-8295
摹	-8296
醯	-8297
寥	-8298
鳢	-8299
踝	-8300
轶	-8301
湍	-8302
漩	-8303
ß	-8304
燧	-8305
亳	-8306
灸	-8307
秧	-8308
筱	-8309
玖	-8310
愍	-8311
烁	-8312
忱	-8313
淖	-8314
苳	-8315
م	-8316
渍	-8317
叩	-8318
腋	-8319
窖	-8320
梢	-8321
鲿	-8322
龈	-8323
ガ	-8324
缢	-8325
蒴	-8326
窘	-8327
锭	-8328
澧	-8329
俏	-8330
怯	-8331
捻	-8332
讫	-8333
羨	-8334
赓	-8335
洵	-8336
ō	-8337
惇	-8338
漱	-8339
窒	-8340
郴	-8341
蟠	-8342
ろ	-8343
鸯	-8344
撮	-8345
荻	-8346
铳	-8347
喂	-8348
娩	-8349
疵	-8350
筲	-8351
崴	-8352
弛	-8353
垅	-8354
寞	-8355
骰	-8356
č	-8357
ダ	-8358
悯	-8359
杵	-8360
氙	-8361
珮	-8362
脐	-8363
藜	-8364
镳	-8365
ュ	-8366
屁	-8367
簷	-8368
琨	-8369
甯	-8370
洱	-8371
僭	-8372
珑	-8373
桁	-8374
鼩	-8375
唾	-8376
钍	-8377
妤	-8378
胄	-8379
呤	-8380
碇	-8381
蓓	-8382
蜕	-8383
蔻	-8384
鼐	-8385
狡	-8386
痊	-8387
碾	-8388
肄	-8389
メ	-8390
呜	-8391
晷	-8392
轧	-8393
凛	-8394
脇	-8395
筵	-8396
钼	-8397
鸳	-8398
ビ	-8399
锄	-8400
و	-8401
戳	-8402
俑	-8403
邬	-8404
茧	-8405
慑	-8406
溅	-8407
せ	-8408
晔	-8409
畠	-8410
脷	-8411
攘	-8412
堃	-8413
宥	-8414
拣	-8415
胫	-8416
邳	-8417
娼	-8418
歆	-8419
缇	-8420
踞	-8421
ɛ	-8422
榉	-8423
毡	-8424
盂	-8425
娑	-8426
阉	-8427
钺	-8428
箴	-8429
姥	-8430
掏	-8431
闇	-8432
挛	-8433
琢	-8434
鞅	-8435
嚼	-8436
猕	-8437
揉	-8438
楹	-8439
烫	-8440
驭	-8441
楣	-8442
⁄	-8443
叟	-8444
燊	-8445
铮	-8446
诹	-8447
絃	-8448
筏	-8449
挞	-8450
谪	-8451
疣	-8452
煦	-8453
闺	-8454
橱	-8455
绚	-8456
孽	-8457
矗	-8458
骊	-8459
枉	-8460
榛	-8461
璘	-8462
俳	-8463
珈	-8464
荠	-8465
辄	-8466
恃	-8467
蜻	-8468
钡	-8469
罔	-8470
扒	-8471
荨	-8472
逅	-8473
鲛	-8474
疡	-8475
琬	-8476
蜓	-8477
邂	-8478
氾	-8479
猝	-8480
隽	-8481
嘌	-8482
驮	-8483
婪	-8484
腱	-8485
悫	-8486
铢	-8487
鲹	-8488
箔	-8489
鱿	-8490
炱	-8491
め	-8492
珞	-8493
粽	-8494
瞎	-8495
铍	-8496
镭	-8497
缨	-8498
锟	-8499
辫	-8500
蝰	-8501
澍	-8502
酝	-8503
嘧	-8504
茸	-8505
蕲	-8506
ェ	-8507
榻	-8508
獭	-8509
钚	-8510
霑	-8511
雒	-8512
彧	-8513
荪	-8514
霓	-8515
咙	-8516
阆	-8517
蚓	-8518
榭	-8519
侷	-8520
肱	-8521
檄	-8522
畲	-8523
嬷	-8524
岙	-8525
抉	-8526
爹	-8527
莅	-8528
谿	-8529
鹟	-8530
岌	-8531
ē	-8532
ゅ	-8533
佼	-8534
拮	-8535
钹	-8536
糸	-8537
菠	-8538
勖	-8539
祗	-8540
镉	-8541
鹬	-8542
ū	-8543
俐	-8544
啮	-8545
鹳	-8546
腈	-8547
锢	-8548
庑	-8549
赉	-8550
粱	-8551
懦	-8552
脓	-8553
»	-8554
罄	-8555
虱	-8556
鮠	-8557
焙	-8558
纣	-8559
溼	-8560
噜	-8561
沔	-8562
谳	-8563
モ	-8564
螨	-8565
姗	-8566
栃	-8567
ã	-8568
佤	-8569
铰	-8570
匕	-8571
滘	-8572
夯	-8573
戡	-8574
腭	-8575
赘	-8576
х	-8577
弔	-8578
醍	-8579
ب	-8580
烙	-8581
杲	-8582
吩	-8583
硖	-8584
菀	-8585
帚	-8586
诟	-8587
骈	-8588
锷	-8589
矾	-8590
鹈	-8591
⋯	-8592
恽	-8593
蛹	-8594
獾	-8595
蛎	-8596
豌	-8597
郧	-8598
鲗	-8599
嬅	-8600
栩	-8601
迩	-8602
喧	-8603
殇	-8604
艉	-8605
疽	-8606
佰	-8607
俚	-8608
哔	-8609
蹲	-8610
弁	-8611
洄	-8612
羣	-8613
蠡	-8614
噩	-8615
暧	-8616
醃	-8617
醴	-8618
钒	-8619
瑠	-8620
寛	-8621
芎	-8622
氐	-8623
啼	-8624
鮡	-8625
勺	-8626
紊	-8627
骞	-8628
媲	-8629
漾	-8630
疚	-8631
î	-8632
炖	-8633
醐	-8634
ズ	-8635
垢	-8636
瑭	-8637
疤	-8638
蛭	-8639
觊	-8640
黍	-8641
鲲	-8642
痉	-8643
鳝	-8644
脍	-8645
颢	-8646
蜈	-8647
鄢	-8648
遽	-8649
犊	-8650
羔	-8651
膦	-8652
蛊	-8653
疱	-8654
ł	-8655
烬	-8656
铋	-8657
鳟	-8658
鬃	-8659
鱲	-8660
峒	-8661
彿	-8662
悌	-8663
饺	-8664
儁	-8665
嫖	-8666
酐	-8667
蚣	-8668
眩	-8669
æ	-8670
厮	-8671
瑁	-8672
轸	-8673
嗽	-8674
钯	-8675
呵	-8676
纭	-8677
«	-8678
徕	-8679
戦	-8680
瓘	-8681
糜	-8682
螳	-8683
徳	-8684
恂	-8685
涝	-8686
ど	-8687
漓	-8688
褫	-8689
鄚	-8690
ゆ	-8691
琊	-8692
镧	-8693
ć	-8694
佯	-8695
惮	-8696
杓	-8697
靛	-8698
鲂	-8699
苋	-8700
鲡	-8701
咯	-8702
萩	-8703
ц	-8704
甕	-8705
俪	-8706
孪	-8707
袒	-8708
栢	-8709
昀	-8710
ı	-8711
峤	-8712
柘	-8713
诘	-8714
υ	-8715
憬	-8716
玑	-8717
颔	-8718
庠	-8719
猬	-8720
皎	-8721
珩	-8722
繇	-8723
昴	-8724
揣	-8725
稔	-8726
绽	-8727
诩	-8728
殁	-8729
舫	-8730
邛	-8731
이	-8732
俟	-8733
骡	-8734
ノ	-8735
谗	-8736
鯙	-8737
鲳	-8738
痺	-8739
茴	-8740
ш	-8741
≤	-8742
漪	-8743
珥	-8744
―	-8745
祢	-8746
鼹	-8747
甾	-8748
帷	-8749
汹	-8750
凄	-8751
蜍	-8752
鸵	-8753
螃	-8754
ŋ	-8755
殓	-8756
ゃ	-8757
湟	-8758
筷	-8759
敍	-8760
沭	-8761
辻	-8762
蝮	-8763
娣	-8764
菏	-8765
戸	-8766
湮	-8767
赟	-8768
铣	-8769
颙	-8770
囉	-8771
歎	-8772
谌	-8773
掾	-8774
焯	-8775
赡	-8776
痘	-8777
缵	-8778
铊	-8779
ζ	-8780
瑯	-8781
蔺	-8782
驷	-8783
遶	-8784
镠	-8785
そ	-8786
觎	-8787
韭	-8788
羡	-8789
锆	-8790
隗	-8791
睫	-8792
د	-8793
ツ	-8794
咄	-8795
廍	-8796
祎	-8797
淅	-8798
癡	-8799
镌	-8800
阈	-8801
箫	-8802
嫦	-8803
痰	-8804
隈	-8805
郦	-8806
笺	-8807
蠔	-8808
逞	-8809
ご	-8810
嵊	-8811
萸	-8812
ば	-8813
瓢	-8814
喵	-8815
㑩	-8816
珅	-8817
匐	-8818
癣	-8819
斟	-8820
拚	-8821
摒	-8822
耘	-8823
顗	-8824
垭	-8825
睁	-8826
憧	-8827
裨	-8828
顼	-8829
闫	-8830
诋	-8831
晁	-8832
ㄧ	-8833
惫	-8834
邾	-8835
厩	-8836
靺	-8837
郤	-8838
嵇	-8839
★	-8840
璿	-8841
趴	-8842
盯	-8843
簪	-8844
踊	-8845
ョ	-8846
邃	-8847
阖	-8848
阑	-8849
郓	-8850
鞨	-8851
邠	-8852
涸	-8853
様	-8854
鲭	-8855
锗	-8856
扛	-8857
啉	-8858
邈	-8859
闳	-8860
辇	-8861
ワ	-8862
勅	-8863
涣	-8864
馒	-8865
亟	-8866
渺	-8867
砦	-8868
剷	-8869
廪	-8870
霁	-8871
绷	-8872
鲻	-8873
س	-8874
诒	-8875
栱	-8876
瑗	-8877
荞	-8878
霾	-8879
奭	-8880
幔	-8881
垛	-8882
鲇	-8883
侥	-8884
撷	-8885
柝	-8886
糠	-8887
嘘	-8888
ɔ	-8889
锕	-8890
鲟	-8891
嫣	-8892
嵯	-8893
涕	-8894
瘠	-8895
縻	-8896
屹	-8897
偈	-8898
咱	-8899
囤	-8900
奂	-8901
蒯	-8902
饬	-8903
猖	-8904
澹	-8905
蹦	-8906
攒	-8907
胭	-8908
忿	-8909
ふ	-8910
郯	-8911
猥	-8912
闿	-8913
匍	-8914
辎	-8915
髦	-8916
玳	-8917
ず	-8918
褪	-8919
桀	-8920
乩	-8921
榷	-8922
炊	-8923
砥	-8924
锵	-8925
砺	-8926
箍	-8927
萘	-8928
­	-8929
孰	-8930
牍	-8931
碲	-8932
玠	-8933
県	-8934
ś	-8935
晞	-8936
琇	-8937
澂	-8938
盱	-8939
笏	-8940
刍	-8941
ほ	-8942
郗	-8943
帑	-8944
梶	-8945
璠	-8946
锜	-8947
怂	-8948
恿	-8949
肮	-8950
钇	-8951
専	-8952
棻	-8953
綦	-8954
痢	-8955
铷	-8956
浬	-8957
珙	-8958
妞	-8959
璨	-8960
đ	-8961
锶	-8962
า	-8963
哄	-8964
拗	-8965
ж	-8966
稗	-8967
轲	-8968
ा	-8969
珣	-8970
茗	-8971
铐	-8972
獠	-8973
腌	-8974
苌	-8975
䌽	-8976
榘	-8977
儋	-8978
犛	-8979
恙	-8980
珏	-8981
暐	-8982
鄯	-8983
्	-8984
蒨	-8985
娲	-8986
砵	-8987
谙	-8988
豺	-8989
鵙	-8990
瀬	-8991
腮	-8992
诙	-8993
尕	-8994
璀	-8995
蛰	-8996
岫	-8997
燬	-8998
痹	-8999
逛	-9000
セ	-9001
俺	-9002
漯	-9003
翩	-9004
蔼	-9005
込	-9006
镓	-9007
菈	-9008
藕	-9009
枷	-9010
涓	-9011
壑	-9012
煲	-9013
缤	-9014
谑	-9015
郃	-9016
齧	-9017
唁	-9018
槻	-9019
毎	-9020
薙	-9021
ぶ	-9022
嚐	-9023
む	-9024
汜	-9025
苴	-9026
鳐	-9027
э	-9028
湃	-9029
濡	-9030
ی	-9031
煊	-9032
碓	-9033
麋	-9034
刈	-9035
墉	-9036
惭	-9037
ˈ	-9038
呛	-9039
涞	-9040
谶	-9041
忤	-9042
爨	-9043
窍	-9044
铆	-9045
ケ	-9046
塭	-9047
猾	-9048
讧	-9049
蝾	-9050
谧	-9051
歴	-9052
疃	-9053
陟	-9054
耒	-9055
踵	-9056
鹑	-9057
呋	-9058
憨	-9059
陲	-9060
ァ	-9061
笹	-9062
菟	-9063
咆	-9064
圜	-9065
敎	-9066
颞	-9067
秆	-9068
肼	-9069
铌	-9070
陉	-9071
鹕	-9072
ع	-9073
ร	-9074
蝌	-9075
镒	-9076
绾	-9077
蟑	-9078
嵋	-9079
楫	-9080
珐	-9081
铟	-9082
霏	-9083
燎	-9084
眙	-9085
砀	-9086
瑀	-9087
ð	-9088
ί	-9089
́	-9090
蚪	-9091
鎗	-9092
阂	-9093
喱	-9094
揪	-9095
蝓	-9096
镂	-9097
楯	-9098
蛞	-9099
ね	-9100
愫	-9101
桡	-9102
薮	-9103
讣	-9104
鹗	-9105
橐	-9106
胧	-9107
坯	-9108
氘	-9109
氪	-9110
钤	-9111
鲔	-9112
猗	-9113
豊	-9114
焜	-9115
雹	-9116
嶷	-9117
徭	-9118
恣	-9119
∈	-9120
蜚	-9121
赭	-9122
ž	-9123
旸	-9124
歩	-9125
ネ	-9126
蹇	-9127
ت	-9128
姫	-9129
煇	-9130
锉	-9131
ボ	-9132
耙	-9133
荖	-9134
χ	-9135
䜣	-9136
嘶	-9137
ぐ	-9138
芩	-9139
ˋ	-9140
啬	-9141
睇	-9142
剽	-9143
喹	-9144
碛	-9145
苎	-9146
藐	-9147
阯	-9148
ă	-9149
俶	-9150
®	-9151
ş	-9152
་	-9153
峠	-9154
坵	-9155
瞪	-9156
绀	-9157
朐	-9158
滂	-9159
龢	-9160
侑	-9161
俣	-9162
殃	-9163
嗪	-9164
翱	-9165
橹	-9166
菓	-9167
醌	-9168
挹	-9169
彊	-9170
桉	-9171
獗	-9172
菖	-9173
昉	-9174
睪	-9175
铱	-9176
勗	-9177
旃	-9178
贽	-9179
锴	-9180
粿	-9181
蹼	-9182
哌	-9183
睑	-9184
虬	-9185
黒	-9186
碣	-9187
纮	-9188
膑	-9189
汨	-9190
炅	-9191
痞	-9192
蹂	-9193
铼	-9194
翦	-9195
莿	-9196
蟆	-9197
崂	-9198
揖	-9199
蚵	-9200
宓	-9201
旼	-9202
獐	-9203
篙	-9204
脯	-9205
ザ	-9206
倻	-9207
孖	-9208
椽	-9209
瘀	-9210
脲	-9211
י	-9212
潦	-9213
纫	-9214
坨	-9215
捩	-9216
祟	-9217
ه	-9218
坷	-9219
氩	-9220
砜	-9221
恸	-9222
竑	-9223
ά	-9224
觞	-9225
ポ	-9226
楸	-9227
骐	-9228
曷	-9229
朦	-9230
綝	-9231
蚩	-9232
鳔	-9233
僳	-9234
蚺	-9235
魟	-9236
鹄	-9237
侪	-9238
沣	-9239
藨	-9240
嘟	-9241
躏	-9242
钿	-9243
卍	-9244
玷	-9245
颛	-9246
ゲ	-9247
婶	-9248
ф	-9249
吝	-9250
羿	-9251
蜷	-9252
辊	-9253
鳀	-9254
埭	-9255
槎	-9256
र	-9257
∞	-9258
暄	-9259
霭	-9260
嘅	-9261
晗	-9262
暠	-9263
≥	-9264
僮	-9265
恍	-9266
氡	-9267
傈	-9268
哼	-9269
噻	-9270
碚	-9271
铈	-9272
椁	-9273
芗	-9274
ゴ	-9275
稹	-9276
鹞	-9277
凪	-9278
褂	-9279
诂	-9280
跖	-9281
钽	-9282
弭	-9283
缜	-9284
惺	-9285
袄	-9286
輋	-9287
ぎ	-9288
冑	-9289
泞	-9290
і	-9291
惋	-9292
梆	-9293
闩	-9294
扉	-9295
葶	-9296
墀	-9297
拴	-9298
萜	-9299
蚶	-9300
ό	-9301
嘿	-9302
淝	-9303
芍	-9304
伉	-9305
窿	-9306
跷	-9307
夙	-9308
氚	-9309
筊	-9310
蚯	-9311
蹊	-9312
辘	-9313
ソ	-9314
佞	-9315
爰	-9316
箬	-9317
髯	-9318
洺	-9319
缄	-9320
芪	-9321
ˊ	-9322
畈	-9323
ギ	-9324
杷	-9325
笞	-9326
阚	-9327
ψ	-9328
び	-9329
狒	-9330
蹠	-9331
郜	-9332
ピ	-9333
寔	-9334
怛	-9335
灞	-9336
関	-9337
擘	-9338
楝	-9339
ò	-9340
傕	-9341
汎	-9342
锹	-9343
驒	-9344
¥	-9345
愔	-9346
玘	-9347
苄	-9348
蜑	-9349
崽	-9350
锝	-9351
妫	-9352
戾	-9353
穰	-9354
菴	-9355
蜃	-9356
豉	-9357
辂	-9358
ו	-9359
臆	-9360
禛	-9361
铕	-9362
勣	-9363
玥	-9364
瑷	-9365
膊	-9366
簋	-9367
酆	-9368
溟	-9369
芾	-9370
跗	-9371
ː	-9372
垠	-9373
椴	-9374
訇	-9375
沢	-9376
搓	-9377
迤	-9378
鄜	-9379
嚎	-9380
枇	-9381
柃	-9382
樋	-9383
牯	-9384
砧	-9385
û	-9386
ヤ	-9387
晾	-9388
舂	-9389
리	-9390
塬	-9391
蒾	-9392
袂	-9393
魇	-9394
囓	-9395
惣	-9396
蹴	-9397
韫	-9398
裟	-9399
镯	-9400
ベ	-9401
倬	-9402
巻	-9403
璩	-9404
箇	-9405
籁	-9406
蛄	-9407
愕	-9408
揄	-9409
涎	-9410
沆	-9411
藁	-9412
†	-9413
躄	-9414
麂	-9415
眞	-9416
袈	-9417
讪	-9418
ï	-9419
ξ	-9420
へ	-9421
啜	-9422
帼	-9423
搔	-9424
嵙	-9425
น	-9426
拭	-9427
袱	-9428
鞮	-9429
鲮	-9430
刽	-9431
孃	-9432
琚	-9433
蓁	-9434
趸	-9435
飨	-9436
泫	-9437
淼	-9438
疝	-9439
袤	-9440
嗡	-9441
崮	-9442
げ	-9443
ヒ	-9444
垓	-9445
拽	-9446
洹	-9447
`	-9448
綑	-9449
蘸	-9450
埴	-9451
増	-9452
飒	-9453
鮈	-9454
蟀	-9455
謇	-9456
廨	-9457
濯	-9458
秣	-9459
楂	-9460
槲	-9461
岀	-9462
毬	-9463
缬	-9464
铛	-9465
ح	-9466
祛	-9467
筐	-9468
吲	-9469
喔	-9470
矜	-9471
譁	-9472
菝	-9473
ý	-9474
敝	-9475
晩	-9476
眈	-9477
ʃ	-9478
蹶	-9479
亶	-9480
瞧	-9481
蜢	-9482
刎	-9483
舔	-9484
鮄	-9485
僊	-9486
峥	-9487
轫	-9488
郅	-9489
寐	-9490
ホ	-9491
姒	-9492
沓	-9493
淌	-9494
蟋	-9495
鲎	-9496
鸬	-9497
ю	-9498
佶	-9499
傉	-9500
焗	-9501
蛸	-9502
樫	-9503
瓌	-9504
荳	-9505
蔵	-9506
哚	-9507
揶	-9508
泠	-9509
篝	-9510
遹	-9511
咫	-9512
葭	-9513
哒	-9514
腑	-9515
冏	-9516
杼	-9517
貘	-9518
钐	-9519
铧	-9520
ì	-9521
礽	-9522
罡	-9523
褓	-9524
镝	-9525
馗	-9526
佺	-9527
嗝	-9528
氖	-9529
滢	-9530
鹚	-9531
ù	-9532
徇	-9533
邽	-9534
鼱	-9535
ḥ	-9536
ペ	-9537
刨	-9538
眨	-9539
隰	-9540
鎏	-9541
芈	-9542
鬬	-9543
哦	-9544
棂	-9545
蓑	-9546
̇	-9547
ة	-9548
◎	-9549
圹	-9550
澶	-9551
萦	-9552
蓣	-9553
跛	-9554
冇	-9555
咁	-9556
狈	-9557
茁	-9558
邰	-9559
ń	-9560
嵘	-9561
榎	-9562
缭	-9563
昺	-9564
ざ	-9565
畹	-9566
磘	-9567
钸	-9568
劵	-9569
犒	-9570
瘴	-9571
苾	-9572
鯓	-9573
镗	-9574
峄	-9575
滏	-9576
疙	-9577
瘩	-9578
隷	-9579
鲣	-9580
発	-9581
髋	-9582
丶	-9583
兢	-9584
淬	-9585
溱	-9586
牦	-9587
葜	-9588
诤	-9589
箐	-9590
啃	-9591
犸	-9592
伫	-9593
傚	-9594
壅	-9595
枞	-9596
樾	-9597
簸	-9598
蔴	-9599
飚	-9600
璁	-9601
菰	-9602
喋	-9603
鏖	-9604
嵬	-9605
胛	-9606
蠹	-9607
钕	-9608
囍	-9609
泚	-9610
牴	-9611
荩	-9612
仡	-9613
疍	-9614
↔	-9615
嘢	-9616
汊	-9617
ق	-9618
佢	-9619
坌	-9620
獴	-9621
糅	-9622
铤	-9623
捶	-9624
柞	-9625
皝	-9626
箓	-9627
穂	-9628
繙	-9629
鸲	-9630
勲	-9631
皙	-9632
霈	-9633
咭	-9634
廸	-9635
怿	-9636
椋	-9637
犰	-9638
苜	-9639
鸪	-9640
ư	-9641
啾	-9642
囿	-9643
嵴	-9644
撬	-9645
爻	-9646
萁	-9647
蘅	-9648
髹	-9649
噗	-9650
誊	-9651
谩	-9652
唢	-9653
舯	-9654
莴	-9655
侂	-9656
搪	-9657
磕	-9658
粑	-9659
褥	-9660
阏	-9661
塱	-9662
蔘	-9663
藿	-9664
蛀	-9665
咩	-9666
喫	-9667
燻	-9668
狳	-9669
巯	-9670
毌	-9671
闼	-9672
ě	-9673
倣	-9674
郫	-9675
锇	-9676
ش	-9677
圪	-9678
婧	-9679
恵	-9680
蛳	-9681
酣	-9682
ก	-9683
อ	-9684
媾	-9685
鹌	-9686
M	-9687
ั	-9688
攫	-9689
磾	-9690
鲢	-9691
弢	-9692
懊	-9693
祆	-9694
黻	-9695
ج	-9696
เ	-9697
冴	-9698
唧	-9699
姝	-9700
疋	-9701
蓿	-9702
呗	-9703
榫	-9704
郷	-9705
锔	-9706
闱	-9707
‖	-9708
円	-9709
孳	-9710
掐	-9711
疸	-9712
脣	-9713
饯	-9714
T	-9715
ˇ	-9716
劢	-9717
坻	-9718
嶂	-9719
棨	-9720
楽	-9721
榊	-9722
磬	-9723
荤	-9724
仝	-9725
犷	-9726
ย	-9727
鹧	-9728
鹩	-9729
ف	-9730
ㄨ	-9731
勰	-9732
焓	-9733
窈	-9734
佾	-9735
殒	-9736
苫	-9737
镫	-9738
馑	-9739
鲬	-9740
枱	-9741
栒	-9742
膈	-9743
苕	-9744
葩	-9745
逖	-9746
지	-9747
泯	-9748
舘	-9749
钌	-9750
þ	-9751
婵	-9752
拈	-9753
砻	-9754
ה	-9755
ม	-9756
ヴ	-9757
熠	-9758
邙	-9759
铑	-9760
鵟	-9761
鹀	-9762
痲	-9763
ʔ	-9764
柽	-9765
抟	-9766
谄	-9767
다	-9768
아	-9769
枸	-9770
槙	-9771
狨	-9772
莳	-9773
鼯	-9774
伕	-9775
哙	-9776
̃	-9777
咝	-9778
囧	-9779
搐	-9780
缗	-9781
葳	-9782
鉄	-9783
έ	-9784
ъ	-9785
䲗	-9786
瓩	-9787
罟	-9788
翳	-9789
凫	-9790
洸	-9791
芊	-9792
ि	-9793
△	-9794
悸	-9795
隣	-9796
ง	-9797
仞	-9798
伝	-9799
倔	-9800
胳	-9801
菘	-9802
蛆	-9803
蛏	-9804
鱚	-9805
塩	-9806
羸	-9807
蹬	-9808
駄	-9809
骘	-9810
न	-9811
沩	-9812
蒽	-9813
㹴	-9814
瓠	-9815
钋	-9816
雎	-9817
牂	-9818
蜊	-9819
酢	-9820
া	-9821
屌	-9822
溲	-9823
べ	-9824
硐	-9825
锾	-9826
麸	-9827
缈	-9828
薏	-9829
讴	-9830
赜	-9831
倜	-9832
姉	-9833
绂	-9834
螫	-9835
颏	-9836
燿	-9837
舛	-9838
趺	-9839
铪	-9840
颧	-9841
사	-9842
ك	-9843
乜	-9844
仟	-9845
榖	-9846
蚋	-9847
髑	-9848
鹋	-9849
溆	-9850
甑	-9851
噱	-9852
惘	-9853
梿	-9854
焱	-9855
蠵	-9856
鄄	-9857
ぼ	-9858
桤	-9859
炘	-9860
玹	-9861
缰	-9862
黝	-9863
대	-9864
唛	-9865
瘿	-9866
嘈	-9867
崃	-9868
捅	-9869
稙	-9870
黟	-9871
ㄚ	-9872
睬	-9873
骋	-9874
김	-9875
毂	-9876
簕	-9877
赝	-9878
麿	-9879
俎	-9880
埸	-9881
胯	-9882
가	-9883
烩	-9884
瑱	-9885
阊	-9886
ר	-9887
湜	-9888
炕	-9889
鋂	-9890
馔	-9891
ɪ	-9892
ユ	-9893
戬	-9894
砭	-9895
苈	-9896
镱	-9897
ز	-9898
俦	-9899
呱	-9900
尙	-9901
怙	-9902
扦	-9903
ɑ	-9904
効	-9905
捺	-9906
痣	-9907
钫	-9908
ى	-9909
≠	-9910
稃	-9911
鞣	-9912
ή	-9913
実	-9914
扪	-9915
鬨	-9916
鸱	-9917
ğ	-9918
א	-9919
呦	-9920
酊	-9921
鸸	-9922
吮	-9923
尪	-9924
拧	-9925
绌	-9926
螭	-9927
鬓	-9928
抡	-9929
燄	-9930
驩	-9931
龑	-9932
ա	-9933
嗟	-9934
笆	-9935
胝	-9936
荽	-9937
虻	-9938
َ	-9939
啥	-9940
噌	-9941
掴	-9942
炤	-9943
砰	-9944
磴	-9945
鋆	-9946
卹	-9947
渑	-9948
琯	-9949
痔	-9950
祏	-9951
舎	-9952
鸻	-9953
ṣ	-9954
柊	-9955
湫	-9956
阕	-9957
鰧	-9958
म	-9959
呸	-9960
嫚	-9961
耜	-9962
鹂	-9963
黼	-9964
정	-9965
■	-9966
镞	-9967
颎	-9968
ą	-9969
卬	-9970
幪	-9971
玆	-9972
窰	-9973
荏	-9974
郇	-9975
¬	-9976
ิ	-9977
剁	-9978
郾	-9979
頫	-9980
鬻	-9981
拏	-9982
柒	-9983
濉	-9984
谀	-9985
鬲	-9986
œ	-9987
ל	-9988
㓥	-9989
濶	-9990
粧	-9991
啰	-9992
壆	-9993
徨	-9994
鱀	-9995
偲	-9996
喰	-9997
笕	-9998
锫	-9999
埂	-10000
钪	-10001
鲃	-10002
鸨	-10003
仃	-10004
垌	-10005
姣	-10006
榧	-10007
肟	-10008
ส	-10009
珽	-10010
莼	-10011
讦	-10012
逹	-10013
啲	-10014
嬛	-10015
蕤	-10016
하	-10017
한	-10018
ύ	-10019
剡	-10020
塽	-10021
芃	-10022
茔	-10023
郏	-10024
의	-10025
嗲	-10026
埒	-10027
ว	-10028
嘏	-10029
団	-10030
孑	-10031
缯	-10032
裱	-10033
逋	-10034
त	-10035
嗨	-10036
圮	-10037
嶝	-10038
廆	-10039
绦	-10040
舢	-10041
饕	-10042
͡	-10043
ṭ	-10044
圉	-10045
湣	-10046
瀞	-10047
罘	-10048
ř	-10049
堉	-10050
枥	-10051
珺	-10052
诧	-10053
豨	-10054
骜	-10055
鬟	-10056
儆	-10057
対	-10058
ɕ	-10059
∶	-10060
劻	-10061
擧	-10062
癞	-10063
翥	-10064
諲	-10065
嶙	-10066
昪	-10067
क	-10068
ṇ	-10069
芫	-10070
蛉	-10071
骢	-10072
魣	-10073
்	-10074
睺	-10075
跸	-10076
ㄇ	-10077
傩	-10078
哏	-10079
巂	-10080
秭	-10081
総	-10082
缑	-10083
莨	-10084
≈	-10085
咗	-10086
屐	-10087
戋	-10088
狛	-10089
詧	-10090
鄣	-10091
▲	-10092
溏	-10093
豳	-10094
어	-10095
嚏	-10096
阋	-10097
성	-10098
纨	-10099
雩	-10100
鬘	-10101
屉	-10102
沄	-10103
濞	-10104
砹	-10105
기	-10106
哋	-10107
墬	-10108
栻	-10109
畬	-10110
胍	-10111
谲	-10112
라	-10113
呻	-10114
廕	-10115
撩	-10116
浃	-10117
浯	-10118
炆	-10119
绡	-10120
♭	-10121
々	-10122
ォ	-10123
煚	-10124
窕	-10125
璎	-10126
碶	-10127
腩	-10128
褔	-10129
鄠	-10130
鮗	-10131
鯻	-10132
鲵	-10133
鹎	-10134
♪	-10135
叁	-10136
坭	-10137
涮	-10138
蓖	-10139
辺	-10140
铄	-10141
飏	-10142
樗	-10143
觋	-10144
訚	-10145
雑	-10146
呷	-10147
晸	-10148
郛	-10149
恫	-10150
煨	-10151
骝	-10152
나	-10153
ש	-10154
枳	-10155
渌	-10156
盥	-10157
鉲	-10158
铽	-10159
憍	-10160
篾	-10161
翀	-10162
鑛	-10163
ゼ	-10164
啪	-10165
宍	-10166
昐	-10167
滉	-10168
濊	-10169
璈	-10170
蓆	-10171
邗	-10172
猞	-10173
祔	-10174
箧	-10175
粕	-10176
豢	-10177
邡	-10178
颕	-10179
炁	-10180
荛	-10181
蹋	-10182
掰	-10183
浈	-10184
熨	-10185
猁	-10186
芡	-10187
鋐	-10188
頼	-10189
馁	-10190
鱥	-10191
娓	-10192
浍	-10193
迢	-10194
서	-10195
स	-10196
戕	-10197
ʻ	-10198
מ	-10199
戢	-10200
槊	-10201
缟	-10202
翕	-10203
耨	-10204
锽	-10205
镬	-10206
ё	-10207
匏	-10208
揹	-10209
搀	-10210
蒺	-10211
饨	-10212
주	-10213
づ	-10214
忡	-10215
惚	-10216
栀	-10217
痤	-10218
镨	-10219
馄	-10220
ǎ	-10221
ท	-10222
焖	-10223
谠	-10224
鉏	-10225
प	-10226
咚	-10227
哎	-10228
崆	-10229
昰	-10230
瑊	-10231
碴	-10232
臾	-10233
蠊	-10234
诜	-10235
赊	-10236
钷	-10237
俵	-10238
咧	-10239
楙	-10240
瘁	-10241
笳	-10242
縁	-10243
茌	-10244
踹	-10245
酞	-10246
峋	-10247
狎	-10248
瑈	-10249
舾	-10250
荸	-10251
莠	-10252
豸	-10253
驺	-10254
髂	-10255
鳊	-10256
槺	-10257
禩	-10258
腴	-10259
遒	-10260
่	-10261
浐	-10262
窠	-10263
赳	-10264
铥	-10265
饴	-10266
唬	-10267
煖	-10268
玕	-10269
臬	-10270
袴	-10271
裆	-10272
襁	-10273
镥	-10274
戆	-10275
斓	-10276
燹	-10277
菽	-10278
襦	-10279
동	-10280
일	-10281
≡	-10282
伋	-10283
傥	-10284
埙	-10285
孱	-10286
懵	-10287
泺	-10288
逄	-10289
圏	-10290
悝	-10291
淯	-10292
獒	-10293
蛔	-10294
逯	-10295
镣	-10296
원	-10297
щ	-10298
ת	-10299
椤	-10300
痈	-10301
硏	-10302
茯	-10303
ב	-10304
ล	-10305
嚟	-10306
妪	-10307
潺	-10308
箝	-10309
鑀	-10310
ṃ	-10311
ヨ	-10312
咔	-10313
噢	-10314
崐	-10315
帙	-10316
杳	-10317
淸	-10318
스	-10319
怅	-10320
狍	-10321
禑	-10322
笪	-10323
篓	-10324
钆	-10325
黠	-10326
ी	-10327
吱	-10328
枹	-10329
桠	-10330
橿	-10331
衽	-10332
郞	-10333
镤	-10334
餮	-10335
嚷	-10336
揍	-10337
篦	-10338
迸	-10339
§	-10340
卟	-10341
垻	-10342
峁	-10343
遑	-10344
巿	-10345
滹	-10346
瓛	-10347
磔	-10348
糍	-10349
颀	-10350
ạ	-10351
丼	-10352
妣	-10353
捒	-10354
痍	-10355
瞥	-10356
祧	-10357
箸	-10358
芨	-10359
郕	-10360
駅	-10361
髭	-10362
도	-10363
ơ	-10364
唭	-10365
埚	-10366
嵗	-10367
樨	-10368
赧	-10369
钣	-10370
鹱	-10371
고	-10372
ა	-10373
圀	-10374
毽	-10375
烜	-10376
畋	-10377
痨	-10378
蚱	-10379
鋹	-10380
ę	-10381
垸	-10382
庥	-10383
気	-10384
汧	-10385
豕	-10386
貉	-10387
赀	-10388
铖	-10389
黥	-10390
õ	-10391
ल	-10392
寳	-10393
渟	-10394
稲	-10395
خ	-10396
ط	-10397
啖	-10398
烺	-10399
에	-10400
嚈	-10401
淠	-10402
礴	-10403
笄	-10404
裒	-10405
馍	-10406
ี	-10407
ぬ	-10408
凊	-10409
卐	-10410
絵	-10411
罽	-10412
胂	-10413
胼	-10414
貊	-10415
郿	-10416
頵	-10417
髙	-10418
鲧	-10419
미	-10420
자	-10421
ต	-10422
ぞ	-10423
娆	-10424
檩	-10425
疥	-10426
痂	-10427
鏊	-10428
鱵	-10429
수	-10430
䓬	-10431
䴉	-10432
劄	-10433
祓	-10434
พ	-10435
้	-10436
狞	-10437
皑	-10438
襞	-10439
鎭	-10440
隠	-10441
韪	-10442
ż	-10443
哟	-10444
崞	-10445
悴	-10446
満	-10447
燏	-10448
皐	-10449
竜	-10450
罴	-10451
萣	-10452
諴	-10453
ヘ	-10454
埵	-10455
桫	-10456
浠	-10457
眸	-10458
繖	-10459
雫	-10460
髪	-10461
鹨	-10462
俅	-10463
嬗	-10464
筮	-10465
覧	-10466
镈	-10467
해	-10468
ヶ	-10469
瘙	-10470
粳	-10471
鸩	-10472
麹	-10473
÷	-10474
俬	-10475
嘹	-10476
旂	-10477
汭	-10478
籓	-10479
縯	-10480
觑	-10481
赍	-10482
鈇	-10483
骶	-10484
鲼	-10485
∧	-10486
䌷	-10487
埈	-10488
捱	-10489
枧	-10490
欉	-10491
璆	-10492
蓥	-10493
酩	-10494
ะ	-10495
倧	-10496
喾	-10497
嗯	-10498
朊	-10499
梣	-10500
泱	-10501
粄	-10502
獬	-10503
铙	-10504
锲	-10505
闘	-10506
র	-10507
売	-10508
廙	-10509
悽	-10510
抜	-10511
斫	-10512
牻	-10513
疠	-10514
簃	-10515
व	-10516
ุ	-10517
壸	-10518
廻	-10519
悰	-10520
揾	-10521
瘪	-10522
瞋	-10523
掟	-10524
桷	-10525
畀	-10526
篪	-10527
胴	-10528
舐	-10529
褛	-10530
국	-10531
〖	-10532
〗	-10533
〞	-10534
憔	-10535
洎	-10536
畯	-10537
籐	-10538
诿	-10539
辋	-10540
阄	-10541
오	-10542
仵	-10543
摭	-10544
柢	-10545
滓	-10546
犄	-10547
逑	-10548
ห	-10549
♯	-10550
