<pad>	0
<unk>	0
[CLS]	0
[SEP]	0
[MASK]	0
(	0
)	0
”	0
-	0
.	0
–	0
£	0
€	0
▁,	-0
▁的	-1
▁。	-2
▁年	-3
▁1	-4
▁、	-5
▁在	-6
▁一	-7
▁为	-8
▁中	-9
▁是	-10
▁国	-11
▁人	-12
▁2	-13
▁于	-14
▁大	-15
▁有	-16
▁和	-17
▁以	-18
▁月	-19
▁日	-20
▁20	-21
▁后	-22
▁了	-23
▁学	-24
▁时	-25
▁19	-26
▁个	-27
▁会	-28
▁地	-29
▁成	-30
▁上	-31
▁公	-32
▁不	-33
▁出	-34
▁行	-35
▁他	-36
▁部	-37
▁斯	-38
▁与	-39
▁区	-40
▁之	-41
▁名	-42
▁发	-43
▁主	-44
▁其	-45
▁作	-46
▁生	-47
▁尔	-48
▁分	-49
▁方	-50
▁到	-51
▁用	-52
▁下	-53
▁西	-54
▁:	-55
▁第	-56
▁》	-57
▁《	-58
▁而	-59
▁家	-60
▁位	-61
▁及	-62
▁军	-63
▁由	-64
▁里	-65
▁并	-66
▁民	-67
▁被	-68
▁法	-69
▁本	-70
▁南	-71
▁市	-72
▁·	-73
▁长	-74
▁这	-75
▁来	-76
▁同	-77
▁3	-78
▁多	-79
▁可	-80
▁政	-81
▁对	-82
▁子	-83
▁201	-84
▁自	-85
▁动	-86
▁任	-87
▁开	-88
▁特	-89
▁文	-90
▁北	-91
▁高	-92
▁「	-93
▁」	-94
▁加	-95
▁德	-96
▁员	-97
▁新	-98
▁东	-99
▁最	-100
▁海	-101
▁台	-102
▁克	-103
▁亚	-104
▁也	-105
▁前	-106
▁代	-107
▁利	-108
▁平	-109
▁等	-110
▁所	-111
▁面	-112
▁三	-113
▁200	-114
▁度	-115
▁电	-116
▁因	-117
▁美	-118
▁建	-119
▁此	-120
▁经	-121
▁得	-122
▁道	-123
▁现	-124
▁进	-125
▁物	-126
▁“	-127
▁过	-128
▁要	-129
▁机	-130
▁间	-131
▁内	-132
▁事	-133
▁至	-134
▁教	-135
▁山	-136
▁立	-137
▁路	-138
▁当	-139
▁拉	-140
▁车	-141
▁小	-142
▁入	-143
▁口	-144
▁将	-145
▁战	-146
▁体	-147
▁能	-148
▁世	-149
▁二	-150
▁4	-151
▁理	-152
▁工	-153
▁该	-154
▁州	-155
▁合	-156
▁表	-157
▁外	-158
▁定	-159
▁马	-160
▁期	-161
▁天	-162
▁赛	-163
▁业	-164
▁制	-165
▁但	-166
▁化	-167
▁球	-168
▁十	-169
▁科	-170
▁次	-171
▁种	-172
▁5	-173
▁使	-174
▁全	-175
▁;	-176
▁布	-177
▁通	-178
▁场	-179
▁称	-180
▁性	-181
▁队	-182
▁者	-183
▁共	-184
▁总	-185
▁线	-186
▁设	-187
▁县	-188
▁式	-189
▁数	-190
▁重	-191
▁系	-192
▁都	-193
▁两	-194
▁罗	-195
▁安	-196
▁力	-197
▁6	-198
▁士	-199
▁联	-200
▁"	-201
▁站	-202
▁院	-203
▁比	-204
▁基	-205
▁原	-206
▁相	-207
▁王	-208
▁达	-209
▁城	-210
▁s	-211
▁运	-212
▁明	-213
▁省	-214
▁米	-215
▁属	-216
▁目	-217
▁司	-218
▁英	-219
▁水	-220
▁正	-221
▁治	-222
▁7	-223
▁金	-224
▁尼	-225
▁华	-226
▁格	-227
▁统	-228
▁号	-229
▁府	-230
▁关	-231
▁c	-232
▁组	-233
▁兰	-234
▁10	-235
▁约	-236
▁选	-237
▁a	-238
▁们	-239
▁8	-240
▁镇	-241
▁四	-242
▁或	-243
▁列	-244
▁如	-245
▁计	-246
▁元	-247
▁港	-248
▁起	-249
▁巴	-250
▁影	-251
▁从	-252
▁语	-253
▁产	-254
▁首	-255
▁女	-256
▁提	-257
▁常	-258
▁星	-259
▁阿	-260
▁改	-261
▁着	-262
▁演	-263
▁9	-264
▁林	-265
▁议	-266
▁量	-267
▁心	-268
▁向	-269
▁然	-270
▁乐	-271
▁t	-272
▁接	-273
▁就	-274
▁始	-275
er	-276
▁m	-277
▁务	-278
▁实	-279
▁无	-280
▁书	-281
▁界	-282
▁参	-283
▁级	-284
▁意	-285
▁则	-286
▁义	-287
▁曾	-288
▁委	-289
▁广	-290
▁管	-291
00	-292
▁手	-293
▁受	-294
▁单	-295
▁程	-296
▁指	-297
▁说	-298
▁交	-299
▁卡	-300
▁视	-301
▁河	-302
▁色	-303
▁保	-304
▁团	-305
in	-306
▁形	-307
▁包	-308
▁门	-309
▁维	-310
▁结	-311
▁12	-312
▁18	-313
▁b	-314
▁音	-315
▁湾	-316
▁已	-317
▁型	-318
▁处	-319
▁香	-320
▁流	-321
▁党	-322
▁传	-323
▁直	-324
▁些	-325
▁获	-326
an	-327
▁类	-328
▁集	-329
or	-330
▁史	-331
▁太	-332
▁万	-333
▁认	-334
▁导	-335
▁点	-336
▁应	-337
▁变	-338
▁199	-339
▁夫	-340
▁f	-341
on	-342
▁校	-343
▁品	-344
▁身	-345
▁五	-346
▁字	-347
▁空	-348
▁示	-349
▁回	-350
▁领	-351
▁社	-352
▁更	-353
▁岛	-354
▁铁	-355
▁积	-356
▁展	-357
▁朝	-358
▁江	-359
▁还	-360
▁古	-361
▁11	-362
▁持	-363
▁师	-364
▁张	-365
▁图	-366
▁各	-367
▁p	-368
▁奥	-369
▁官	-370
▁反	-371
▁带	-372
▁洲	-373
▁专	-374
▁别	-375
▁举	-376
▁据	-377
▁命	-378
▁只	-379
▁纪	-380
▁游	-381
▁资	-382
▁风	-383
▁取	-384
▁报	-385
▁京	-386
▁活	-387
▁造	-388
▁h	-389
▁d	-390
▁普	-391
▁击	-392
▁标	-393
▁光	-394
▁信	-395
▁支	-396
▁局	-397
▁术	-398
▁少	-399
▁历	-400
▁曲	-401
▁族	-402
▁近	-403
▁没	-404
▁非	-405
▁石	-406
▁纳	-407
▁节	-408
▁解	-409
▁剧	-410
▁神	-411
▁情	-412
▁清	-413
▁际	-414
▁转	-415
▁研	-416
▁每	-417
▁论	-418
▁苏	-419
▁它	-420
▁又	-421
▁记	-422
▁权	-423
▁件	-424
▁条	-425
▁波	-426
▁决	-427
▁村	-428
▁龙	-429
▁即	-430
▁放	-431
▁片	-432
▁角	-433
▁她	-434
▁气	-435
la	-436
▁商	-437
▁伊	-438
▁复	-439
▁头	-440
▁/	-441
▁连	-442
▁版	-443
▁武	-444
en	-445
▁密	-446
▁乡	-447
▁辖	-448
▁括	-449
▁知	-450
▁职	-451
▁座	-452
▁收	-453
▁未	-454
▁周	-455
▁先	-456
▁李	-457
▁往	-458
▁去	-459
▁根	-460
▁器	-461
▁创	-462
▁198	-463
▁白	-464
▁离	-465
▁歌	-466
▁强	-467
▁福	-468
▁果	-469
▁再	-470
▁办	-471
▁初	-472
▁究	-473
▁15	-474
▁陆	-475
ar	-476
▁r	-477
▁六	-478
▁且	-479
▁派	-480
▁足	-481
▁打	-482
▁n	-483
▁调	-484
▁g	-485
▁画	-486
▁引	-487
▁圣	-488
▁兵	-489
▁完	-490
▁亦	-491
▁今	-492
▁居	-493
▁汉	-494
▁域	-495
▁观	-496
▁威	-497
▁阳	-498
▁帝	-499
▁季	-500
▁装	-501
▁播	-502
▁许	-503
▁网	-504
▁塔	-505
▁亲	-506
▁除	-507
▁题	-508
▁宗	-509
▁编	-510
▁争	-511
▁随	-512
▁质	-513
▁续	-514
▁段	-515
▁服	-516
▁奖	-517
▁令	-518
▁育	-519
▁给	-520
▁构	-521
▁协	-522
▁较	-523
▁花	-524
▁言	-525
▁园	-526
▁爱	-527
▁很	-528
▁八	-529
▁查	-530
▁土	-531
▁速	-532
▁担	-533
▁16	-534
▁见	-535
▁戏	-536
▁修	-537
▁问	-538
▁l	-539
▁功	-540
▁萨	-541
▁置	-542
▁规	-543
▁宣	-544
▁营	-545
▁另	-546
▁黄	-547
▁死	-548
▁希	-549
▁推	-550
▁客	-551
▁存	-552
▁终	-553
▁项	-554
▁欧	-555
▁好	-556
▁超	-557
▁率	-558
▁17	-559
▁划	-560
▁录	-561
▁投	-562
▁我	-563
▁馆	-564
▁哈	-565
▁雷	-566
▁供	-567
▁洛	-568
▁护	-569
▁样	-570
▁吉	-571
▁i	-572
▁0	-573
▁具	-574
▁源	-575
▁卫	-576
▁准	-577
▁博	-578
▁求	-579
▁班	-580
▁瓦	-581
▁父	-582
▁案	-583
▁九	-584
▁青	-585
▁街	-586
▁男	-587
▁伦	-588
▁印	-589
▁环	-590
▁兴	-591
▁例	-592
▁边	-593
▁母	-594
es	-595
▁济	-596
▁负	-597
▁伯	-598
▁己	-599
▁勒	-600
▁田	-601
▁责	-602
▁湖	-603
▁陈	-604
▁故	-605
▁众	-606
▁助	-607
▁火	-608
▁儿	-609
▁备	-610
▁均	-611
▁攻	-612
▁致	-613
▁那	-614
▁鱼	-615
▁沙	-616
▁194	-617
▁航	-618
at	-619
▁落	-620
▁百	-621
▁诺	-622
▁份	-623
▁w	-624
▁艺	-625
▁皇	-626
▁莱	-627
▁试	-628
▁技	-629
▁副	-630
▁整	-631
▁早	-632
▁197	-633
▁增	-634
▁极	-635
▁热	-636
▁鲁	-637
▁志	-638
▁容	-639
▁模	-640
al	-641
▁半	-642
▁群	-643
▁围	-644
▁红	-645
▁层	-646
▁飞	-647
▁告	-648
▁七	-649
▁继	-650
▁越	-651
▁失	-652
▁双	-653
▁登	-654
▁14	-655
▁评	-656
▁堂	-657
ic	-658
▁境	-659
▁易	-660
▁川	-661
▁195	-662
▁独	-663
▁写	-664
▁13	-665
▁室	-666
▁深	-667
▁食	-668
▁升	-669
▁塞	-670
▁排	-671
▁黑	-672
▁需	-673
▁证	-674
▁声	-675
▁限	-676
▁氏	-677
▁央	-678
▁医	-679
▁筑	-680
▁射	-681
▁织	-682
▁席	-683
▁e	-684
▁干	-685
▁像	-686
▁老	-687
▁象	-688
▁费	-689
▁何	-690
▁响	-691
▁采	-692
▁甲	-693
▁千	-694
▁196	-695
▁真	-696
▁盟	-697
▁才	-698
▁托	-699
▁杀	-700
▁仍	-701
▁让	-702
▁施	-703
▁k	-704
▁便	-705
▁森	-706
▁步	-707
▁奇	-708
▁警	-709
▁木	-710
▁考	-711
▁o	-712
▁防	-713
▁想	-714
▁配	-715
▁牙	-716
▁舰	-717
▁感	-718
▁洋	-719
▁楼	-720
▁顿	-721
▁岁	-722
▁届	-723
▁哥	-724
▁低	-725
▁住	-726
▁桥	-727
▁止	-728
▁留	-729
▁姆	-730
▁律	-731
▁效	-732
▁—	-733
▁贝	-734
▁病	-735
▁农	-736
▁乌	-737
▁刘	-738
▁范	-739
▁几	-740
is	-741
▁泰	-742
▁曼	-743
▁佛	-744
▁底	-745
▁辑	-746
▁恩	-747
▁把	-748
▁埃	-749
▁察	-750
▁冠	-751
▁料	-752
▁193	-753
▁蒙	-754
▁唱	-755
▁银	-756
▁降	-757
▁j	-758
▁批	-759
▁for	-760
▁仅	-761
▁迪	-762
▁移	-763
▁状	-764
▁话	-765
▁库	-766
▁俄	-767
▁30	-768
▁票	-769
▁云	-770
▁景	-771
▁胜	-772
▁看	-773
▁测	-774
▁素	-775
▁息	-776
▁宁	-777
▁革	-778
▁康	-779
▁败	-780
▁消	-781
▁承	-782
▁显	-783
▁控	-784
▁祖	-785
▁授	-786
▁索	-787
▁算	-788
▁念	-789
▁温	-790
▁典	-791
▁词	-792
it	-793
mu	-794
le	-795
▁弹	-796
▁_	-797
▁21	-798
▁韩	-799
▁载	-800
▁确	-801
▁思	-802
▁z	-803
▁远	-804
▁习	-805
▁藏	-806
▁户	-807
▁友	-808
▁做	-809
▁守	-810
▁馀	-811
he	-812
▁满	-813
▁态	-814
▁瑞	-815
▁拔	-816
▁精	-817
▁房	-818
▁督	-819
▁预	-820
▁依	-821
▁宫	-822
▁附	-823
▁望	-824
▁叶	-825
▁述	-826
▁请	-827
▁照	-828
▁注	-829
▁夏	-830
▁价	-831
▁征	-832
▁章	-833
▁执	-834
▁抗	-835
▁v	-836
▁毛	-837
▁停	-838
▁2010	-839
▁退	-840
▁牌	-841
▁25	-842
mula	-843
▁压	-844
▁草	-845
▁2009	-846
▁formula	-847
▁澳	-848
▁丹	-849
▁简	-850
▁虽	-851
▁却	-852
▁永	-853
▁富	-854
▁左	-855
▁封	-856
▁堡	-857
▁丁	-858
▁坦	-859
▁验	-860
▁值	-861
el	-862
▁快	-863
▁候	-864
▁斗	-865
ou	-866
▁船	-867
▁192	-868
▁势	-869
▁侧	-870
▁拿	-871
▁破	-872
▁般	-873
▁丽	-874
▁邦	-875
▁宝	-876
▁唐	-877
am	-878
▁梅	-879
▁2011	-880
▁隆	-881
▁莫	-882
▁监	-883
▁含	-884
▁难	-885
▁庄	-886
▁突	-887
▁细	-888
▁庆	-889
▁厂	-890
▁断	-891
▁似	-892
▁郡	-893
▁识	-894
▁况	-895
▁u	-896
▁闻	-897
▁皮	-898
▁寺	-899
▁旅	-900
▁必	-901
▁植	-902
▁蒂	-903
▁礼	-904
▁读	-905
▁嘉	-906
st	-907
▁尚	-908
▁走	-909
000	-910
▁拥	-911
▁延	-912
▁毕	-913
▁朗	-914
▁绝	-915
▁久	-916
▁店	-917
▁切	-918
▁岸	-919
ol	-920
▁右	-921
▁麦	-922
▁厅	-923
▁架	-924
▁换	-925
▁杰	-926
▁售	-927
▁轮	-928
▁核	-929
▁临	-930
▁旧	-931
▁2012	-932
▁亡	-933
▁野	-934
▁春	-935
il	-936
▁22	-937
▁弟	-938
▁判	-939
▁优	-940
▁严	-941
▁归	-942
▁2013	-943
▁枪	-944
et	-945
▁弗	-946
▁松	-947
▁佳	-948
▁艾	-949
▁杨	-950
▁2016	-951
▁占	-952
ion	-953
▁油	-954
▁雄	-955
▁异	-956
▁伤	-957
▁遗	-958
▁24	-959
▁2014	-960
▁短	-961
▁端	-962
▁遭	-963
▁灵	-964
ac	-965
▁吴	-966
▁股	-967
om	-968
▁码	-969
▁孙	-970
▁2015	-971
▁练	-972
▁2008	-973
▁策	-974
▁耶	-975
▁23	-976
▁zh	-977
▁逐	-978
▁191	-979
re	-980
▁役	-981
▁轻	-982
▁序	-983
▁赫	-984
▁送	-985
▁旗	-986
▁帕	-987
▁晚	-988
▁顺	-989
▁菲	-990
▁须	-991
▁摩	-992
▁若	-993
▁距	-994
▁籍	-995
▁2001	-996
▁销	-997
▁the	-998
▁暴	-999
▁乘	-1000
▁酒	-1001
▁树	-1002
▁}	-1003
▁{	-1004
▁束	-1005
▁什	-1006
▁雅	-1007
▁微	-1008
▁玛	-1009
▁宋	-1010
▁末	-1011
▁杂	-1012
▁摄	-1013
▁输	-1014
▁泽	-1015
▁秀	-1016
▁署	-1017
▁阵	-1018
▁冲	-1019
▁卢	-1020
▁兼	-1021
as	-1022
▁2017	-1023
▁亿	-1024
▁!	-1025
▁频	-1026
▁2007	-1027
▁荣	-1028
▁驻	-1029
▁阶	-1030
▁胡	-1031
▁良	-1032
▁诗	-1033
▁款	-1034
▁译	-1035
▁药	-1036
▁庭	-1037
▁沃	-1038
▁齐	-1039
▁启	-1040
▁饰	-1041
ro	-1042
▁血	-1043
▁善	-1044
▁略	-1045
▁劳	-1046
▁散	-1047
▁盖	-1048
▁免	-1049
▁津	-1050
▁贵	-1051
▁28	-1052
▁婚	-1053
▁尾	-1054
▁甚	-1055
▁峰	-1056
▁尽	-1057
▁丰	-1058
▁2018	-1059
▁拍	-1060
▁26	-1061
▁予	-1062
▁差	-1063
▁2006	-1064
▁纽	-1065
▁顶	-1066
▁迁	-1067
▁喜	-1068
▁减	-1069
▁假	-1070
▁鲜	-1071
▁晋	-1072
▁板	-1073
▁臣	-1074
ing	-1075
▁杜	-1076
▁尺	-1077
▁兹	-1078
▁购	-1079
▁朱	-1080
▁追	-1081
▁财	-1082
▁st	-1083
▁100	-1084
▁害	-1085
▁谷	-1086
▁签	-1087
▁27	-1088
▁烈	-1089
▁杯	-1090
▁养	-1091
▁玉	-1092
▁宾	-1093
▁31	-1094
▁媒	-1095
▁背	-1096
▁仁	-1097
▁罪	-1098
▁训	-1099
▁黎	-1100
▁释	-1101
▁舞	-1102
▁爆	-1103
▁企	-1104
▁凯	-1105
▁险	-1106
▁互	-1107
▁沿	-1108
▁盛	-1109
▁钟	-1110
▁韦	-1111
▁夺	-1112
▁救	-1113
▁廷	-1114
▁渐	-1115
▁检	-1116
▁讯	-1117
▁轨	-1118
ed	-1119
▁酸	-1120
▁援	-1121
▁2005	-1122
▁审	-1123
▁货	-1124
▁透	-1125
▁秘	-1126
ch	-1127
▁屋	-1128
▁牛	-1129
▁补	-1130
▁谢	-1131
▁映	-1132
▁圆	-1133
▁昌	-1134
▁址	-1135
▁介	-1136
▁够	-1137
▁软	-1138
▁币	-1139
▁in	-1140
▁访	-1141
▁君	-1142
▁荷	-1143
▁乔	-1144
▁仪	-1145
▁庙	-1146
▁扩	-1147
▁讲	-1148
ent	-1149
▁溪	-1150
▁坡	-1151
▁智	-1152
▁挥	-1153
▁x	-1154
▁梁	-1155
▁29	-1156
us	-1157
▁材	-1158
ow	-1159
▁借	-1160
▁按	-1161
▁an	-1162
▁郑	-1163
▁2000	-1164
▁徒	-1165
▁适	-1166
▁敦	-1167
▁童	-1168
▁皆	-1169
▁>	-1170
▁益	-1171
▁巡	-1172
▁郎	-1173
▁辆	-1174
▁玩	-1175
▁敌	-1176
▁混	-1177
▁拜	-1178
▁禁	-1179
▁隶	-1180
▁颗	-1181
▁径	-1182
▁讨	-1183
▁蓝	-1184
▁巨	-1185
id	-1186
▁翰	-1187
▁某	-1188
ig	-1189
▁锦	-1190
▁<	-1191
▁探	-1192
▁途	-1193
▁夜	-1194
▁190	-1195
▁诸	-1196
▁穆	-1197
▁霍	-1198
▁宽	-1199
▁冰	-1200
▁额	-1201
▁午	-1202
▁跟	-1203
▁50	-1204
▁觉	-1205
▁献	-1206
▁撤	-1207
▁描	-1208
▁羽	-1209
▁替	-1210
▁2019	-1211
▁你	-1212
▁旋	-1213
▁刻	-1214
▁帮	-1215
▁吸	-1216
▁竞	-1217
os	-1218
▁遇	-1219
▁刺	-1220
▁赵	-1221
▁眼	-1222
ad	-1223
▁培	-1224
▁刊	-1225
▁乱	-1226
▁ch	-1227
▁找	-1228
▁符	-1229
▁聚	-1230
▁欢	-1231
▁宇	-1232
▁佩	-1233
▁殿	-1234
▁爵	-1235
▁休	-1236
▁私	-1237
▁2004	-1238
▁逃	-1239
▁炮	-1240
▁充	-1241
▁袭	-1242
▁犯	-1243
▁of	-1244
▁奉	-1245
▁y	-1246
▁返	-1247
▁漫	-1248
▁耳	-1249
▁否	-1250
▁毒	-1251
▁固	-1252
▁脑	-1253
▁丝	-1254
ur	-1255
▁幕	-1256
▁召	-1257
▁雨	-1258
▁唯	-1259
▁疗	-1260
▁络	-1261
▁戈	-1262
▁邻	-1263
▁捕	-1264
▁洪	-1265
▁骨	-1266
▁激	-1267
▁岩	-1268
▁佔	-1269
▁魔	-1270
▁靠	-1271
▁废	-1272
▁40	-1273
▁择	-1274
▁刑	-1275
▁茨	-1276
▁钱	-1277
▁操	-1278
▁雪	-1279
▁宪	-1280
▁怀	-1281
▁穿	-1282
▁竹	-1283
▁露	-1284
▁缺	-1285
▁忠	-1286
▁么	-1287
▁乎	-1288
▁诉	-1289
▁'	-1290
▁震	-1291
▁坐	-1292
▁000	-1293
▁御	-1294
▁绿	-1295
▁br	-1296
▁|	-1297
▁娜	-1298
▁恒	-1299
▁盘	-1300
▁翻	-1301
▁订	-1302
▁申	-1303
▁尤	-1304
▁胞	-1305
▁灭	-1306
▁课	-1307
▁顾	-1308
▁坑	-1309
▁骑	-1310
▁肯	-1311
▁待	-1312
▁赤	-1313
▁抵	-1314
▁妻	-1315
▁兄	-1316
▁迫	-1317
▁损	-1318
un	-1319
▁听	-1320
▁镜	-1321
▁栖	-1322
▁徐	-1323
▁贡	-1324
▁坚	-1325
▁浙	-1326
od	-1327
▁呼	-1328
▁姓	-1329
iv	-1330
▁汇	-1331
ot	-1332
▁毁	-1333
▁侵	-1334
▁愿	-1335
▁谈	-1336
▁陵	-1337
▁柏	-1338
▁刚	-1339
▁桑	-1340
▁谋	-1341
▁孩	-1342
▁惠	-1343
▁=	-1344
▁纲	-1345
ir	-1346
▁脉	-1347
▁炸	-1348
▁2003	-1349
▁汽	-1350
▁秋	-1351
▁鳍	-1352
▁篇	-1353
▁董	-1354
▁恶	-1355
▁辛	-1356
▁横	-1357
ia	-1358
▁绩	-1359
▁潮	-1360
▁鸟	-1361
▁融	-1362
▁买	-1363
▁疑	-1364
▁戴	-1365
50	-1366
▁绍	-1367
▁急	-1368
▁芬	-1369
▁舍	-1370
▁泛	-1371
▁默	-1372
▁孔	-1373
▁泉	-1374
▁努	-1375
▁健	-1376
im	-1377
▁甘	-1378
▁魏	-1379
▁卷	-1380
▁避	-1381
▁脱	-1382
20	-1383
▁奏	-1384
▁腊	-1385
▁础	-1386
▁缩	-1387
▁偏	-1388
ec	-1389
▁莉	-1390
▁榜	-1391
▁墓	-1392
▁误	-1393
▁佐	-1394
▁2002	-1395
▁危	-1396
▁套	-1397
▁衣	-1398
▁呈	-1399
▁概	-1400
▁针	-1401
▁翼	-1402
▁坏	-1403
▁紧	-1404
▁块	-1405
▁裁	-1406
▁隔	-1407
▁毫	-1408
▁宜	-1409
▁肉	-1410
▁殖	-1411
▁涉	-1412
▁寻	-1413
▁墨	-1414
▁扎	-1415
▁扬	-1416
▁染	-1417
▁迎	-1418
▁赖	-1419
▁井	-1420
▁叫	-1421
▁阻	-1422
▁渡	-1423
▁虎	-1424
▁迷	-1425
▁贸	-1426
▁付	-1427
▁冷	-1428
▁锡	-1429
▁al	-1430
▁秦	-1431
▁捷	-1432
▁缘	-1433
▁析	-1434
▁珠	-1435
▁圈	-1436
▁廉	-1437
▁哲	-1438
ag	-1439
▁阴	-1440
▁弃	-1441
▁189	-1442
▁亮	-1443
▁辅	-1444
▁卖	-1445
▁恐	-1446
▁招	-1447
ation	-1448
▁池	-1449
▁剑	-1450
▁赞	-1451
▁氧	-1452
▁匹	-1453
▁彩	-1454
▁虫	-1455
▁侯	-1456
▁函	-1457
▁伍	-1458
em	-1459
▁仙	-1460
▁味	-1461
▁葡	-1462
▁琴	-1463
▁症	-1464
um	-1465
▁凤	-1466
▁享	-1467
▁绕	-1468
▁截	-1469
▁洞	-1470
▁赢	-1471
▁错	-1472
▁梦	-1473
▁寿	-1474
▁俱	-1475
▁钢	-1476
▁60	-1477
▁尊	-1478
▁麻	-1479
▁颁	-1480
▁]	-1481
▁绘	-1482
▁妹	-1483
▁滨	-1484
▁暗	-1485
▁瑟	-1486
▁豪	-1487
▁俗	-1488
▁[	-1489
▁硬	-1490
▁综	-1491
▁脚	-1492
▁倒	-1493
▁誉	-1494
▁崇	-1495
▁町	-1496
▁笔	-1497
▁租	-1498
▁犹	-1499
▁驱	-1500
▁矿	-1501
▁徽	-1502
▁妇	-1503
▁铜	-1504
▁奈	-1505
▁稳	-1506
▁繁	-1507
▁冈	-1508
▁静	-1509
▁逊	-1510
▁液	-1511
▁绪	-1512
▁冬	-1513
▁昂	-1514
▁阁	-1515
▁逝	-1516
and	-1517
▁闭	-1518
▁估	-1519
ut	-1520
▁档	-1521
ay	-1522
▁楚	-1523
▁暂	-1524
▁1999	-1525
▁墙	-1526
▁辐	-1527
▁邀	-1528
▁乙	-1529
▁辞	-1530
▁曹	-1531
▁昭	-1532
▁吕	-1533
ap	-1534
▁浦	-1535
▁1990	-1536
▁潜	-1537
▁蛋	-1538
▁柱	-1539
▁册	-1540
▁跨	-1541
▁掌	-1542
▁35	-1543
▁拒	-1544
▁辽	-1545
▁纸	-1546
▁郭	-1547
▁伐	-1548
▁han	-1549
▁幼	-1550
▁盐	-1551
▁鼓	-1552
▁振	-1553
▁岭	-1554
▁乃	-1555
▁恢	-1556
▁裂	-1557
▁拟	-1558
▁裔	-1559
▁零	-1560
▁齿	-1561
▁弱	-1562
▁蔡	-1563
op	-1564
▁?	-1565
▁莎	-1566
▁1998	-1567
▁触	-1568
▁萄	-1569
▁赏	-1570
▁轴	-1571
▁患	-1572
▁粉	-1573
▁菌	-1574
▁滑	-1575
▁陶	-1576
▁陷	-1577
▁淡	-1578
▁浪	-1579
ter	-1580
▁障	-1581
▁困	-1582
▁览	-1583
▁灾	-1584
oc	-1585
▁剂	-1586
▁伟	-1587
▁偶	-1588
▁旁	-1589
▁藤	-1590
▁la	-1591
▁80	-1592
▁菜	-1593
▁32	-1594
▁de	-1595
▁and	-1596
▁驶	-1597
60	-1598
▁彼	-1599
▁沈	-1600
▁颜	-1601
▁1997	-1602
▁188	-1603
og	-1604
▁宿	-1605
▁税	-1606
▁埔	-1607
▁牧	-1608
▁丘	-1609
▁狱	-1610
▁纯	-1611
▁00	-1612
▁邮	-1613
▁涅	-1614
▁残	-1615
▁伴	-1616
10	-1617
▁搭	-1618
▁祭	-1619
▁蒋	-1620
▁柯	-1621
▁促	-1622
▁勇	-1623
ce	-1624
▁疆	-1625
▁昆	-1626
▁厦	-1627
▁灯	-1628
▁迹	-1629
▁允	-1630
▁壁	-1631
▁45	-1632
▁隐	-1633
▁1980	-1634
▁桃	-1635
▁亨	-1636
▁龄	-1637
▁熙	-1638
▁敏	-1639
▁答	-1640
▁汤	-1641
▁仔	-1642
▁汗	-1643
▁键	-1644
▁恋	-1645
▁70	-1646
▁遍	-1647
▁殊	-1648
▁宅	-1649
▁句	-1650
▁衡	-1651
▁燃	-1652
▁拆	-1653
▁珍	-1654
▁烧	-1655
30	-1656
▁糖	-1657
▁re	-1658
▁迈	-1659
▁幅	-1660
th	-1661
▁茶	-1662
▁孟	-1663
▁棒	-1664
▁葬	-1665
▁+	-1666
▁幸	-1667
19	-1668
av	-1669
▁侍	-1670
▁虚	-1671
▁90	-1672
▁娱	-1673
▁紫	-1674
ers	-1675
▁沉	-1676
▁折	-1677
▁赴	-1678
▁坛	-1679
▁跑	-1680
▁塘	-1681
▁械	-1682
▁莲	-1683
▁邓	-1684
▁幻	-1685
▁灰	-1686
ie	-1687
▁奴	-1688
▁ar	-1689
▁篮	-1690
▁1996	-1691
48	-1692
▁厚	-1693
▁187	-1694
▁贤	-1695
▁孝	-1696
▁艘	-1697
▁餐	-1698
▁敬	-1699
▁祥	-1700
▁碑	-1701
▁叙	-1702
▁沟	-1703
▁挑	-1704
▁筹	-1705
▁慈	-1706
▁锋	-1707
▁磁	-1708
▁储	-1709
ul	-1710
▁陕	-1711
40	-1712
▁500	-1713
▁遣	-1714
▁纬	-1715
▁纵	-1716
▁晶	-1717
▁1994	-1718
▁虑	-1719
▁萧	-1720
▁辉	-1721
▁箭	-1722
▁33	-1723
▁姐	-1724
▁倍	-1725
▁叛	-1726
▁疾	-1727
▁1995	-1728
▁贾	-1729
▁违	-1730
▁谱	-1731
▁葛	-1732
▁柴	-1733
▁慢	-1734
ip	-1735
▁棋	-1736
▁峡	-1737
▁冯	-1738
▁撞	-1739
▁熟	-1740
▁38	-1741
▁苦	-1742
▁驾	-1743
▁枚	-1744
▁尖	-1745
▁妮	-1746
▁柳	-1747
▁艇	-1748
ov	-1749
▁〈	-1750
▁〉	-1751
▁仰	-1752
▁』	-1753
▁仓	-1754
ub	-1755
▁『	-1756
▁伏	-1757
▁凡	-1758
▁跳	-1759
▁坂	-1760
▁遂	-1761
▁伸	-1762
▁匈	-1763
▁螺	-1764
▁纹	-1765
▁烟	-1766
▁衔	-1767
▁36	-1768
▁刀	-1769
ard	-1770
▁com	-1771
▁1992	-1772
▁1993	-1773
▁朋	-1774
▁燕	-1775
▁撒	-1776
▁瓜	-1777
▁桂	-1778
▁雕	-1779
▁缓	-1780
▁贯	-1781
▁°	-1782
▁th	-1783
▁忆	-1784
▁彭	-1785
ak	-1786
▁潘	-1787
▁迅	-1788
ab	-1789
▁猎	-1790
▁37	-1791
▁贺	-1792
▁tw	-1793
▁un	-1794
ind	-1795
▁慕	-1796
▁1991	-1797
▁勤	-1798
▁sh	-1799
▁吃	-1800
▁谓	-1801
▁兽	-1802
▁琳	-1803
▁1950	-1804
▁34	-1805
▁详	-1806
▁靖	-1807
▁tr	-1808
▁涯	-1809
ct	-1810
▁趣	-1811
▁鬼	-1812
▁粒	-1813
▁累	-1814
80	-1815
▁罕	-1816
▁186	-1817
▁q	-1818
▁番	-1819
oun	-1820
11	-1821
▁泊	-1822
▁熊	-1823
est	-1824
▁1949	-1825
ik	-1826
▁猪	-1827
▁1970	-1828
▁旺	-1829
▁鹿	-1830
▁脂	-1831
▁掉	-1832
▁芳	-1833
▁诚	-1834
▁梯	-1835
▁胶	-1836
▁挂	-1837
▁咸	-1838
▁赠	-1839
▁屿	-1840
▁饮	-1841
▁硕	-1842
▁sp	-1843
▁屯	-1844
▁牠	-1845
ist	-1846
▁肃	-1847
▁秒	-1848
▁晨	-1849
▁詹	-1850
12	-1851
▁纷	-1852
▁怪	-1853
▁倾	-1854
ang	-1855
▁le	-1856
▁惊	-1857
▁禄	-1858
▁1988	-1859
▁蛇	-1860
ine	-1861
▁抚	-1862
▁芝	-1863
▁页	-1864
▁屏	-1865
▁39	-1866
▁凭	-1867
▁杉	-1868
▁擎	-1869
▁浮	-1870
▁羊	-1871
▁on	-1872
▁拓	-1873
▁hk	-1874
▁1989	-1875
▁痛	-1876
▁仲	-1877
▁te	-1878
ill	-1879
▁乳	-1880
▁sa	-1881
▁1945	-1882
▁凌	-1883
▁俊	-1884
▁炎	-1885
▁hans	-1886
▁锁	-1887
▁300	-1888
▁玄	-1889
▁壳	-1890
▁隧	-1891
▁mar	-1892
25	-1893
▁弘	-1894
▁诞	-1895
▁卓	-1896
▁坎	-1897
▁腹	-1898
▁缅	-1899
▁1960	-1900
ob	-1901
▁泥	-1902
ud	-1903
▁插	-1904
▁鼠	-1905
▁慧	-1906
▁col	-1907
▁～	-1908
▁杭	-1909
▁晓	-1910
▁励	-1911
▁厄	-1912
▁岳	-1913
▁崎	-1914
▁猫	-1915
▁喀	-1916
if	-1917
▁圳	-1918
▁旦	-1919
▁豆	-1920
▁藩	-1921
▁搜	-1922
▁袁	-1923
▁轰	-1924
▁塑	-1925
▁is	-1926
ok	-1927
21	-1928
▁卿	-1929
ra	-1930
▁1985	-1931
70	-1932
▁甸	-1933
▁55	-1934
▁乏	-1935
▁戒	-1936
▁罚	-1937
▁畔	-1938
▁撰	-1939
▁跃	-1940
ess	-1941
▁鸡	-1942
▁宏	-1943
▁玻	-1944
▁笑	-1945
▁苗	-1946
▁斑	-1947
▁扰	-1948
▁盗	-1949
▁洗	-1950
▁赐	-1951
▁彻	-1952
▁ne	-1953
▁1986	-1954
▁丧	-1955
▁祝	-1956
▁狮	-1957
▁溶	-1958
▁寄	-1959
▁亭	-1960
▁坊	-1961
▁牵	-1962
▁崔	-1963
▁泳	-1964
▁阅	-1965
▁pro	-1966
▁阮	-1967
▁袖	-1968
▁宙	-1969
▁贞	-1970
▁循	-1971
15	-1972
▁尉	-1973
▁é	-1974
▁1987	-1975
▁胁	-1976
ba	-1977
▁1984	-1978
▁焦	-1979
▁巧	-1980
▁48	-1981
▁舒	-1982
▁妃	-1983
▁叔	-1984
▁扮	-1985
na	-1986
▁询	-1987
ows	-1988
▁185	-1989
▁茂	-1990
▁46	-1991
▁僧	-1992
▁耀	-1993
▁郊	-1994
▁吨	-1995
▁枢	-1996
▁捐	-1997
▁霸	-1998
▁既	-1999
▁悬	-2000
ell	-2001
▁箱	-2002
▁仿	-2003
▁污	-2004
▁粤	-2005
▁衰	-2006
▁43	-2007
▁彰	-2008
▁42	-2009
▁鲤	-2010
▁疏	-2011
▁逢	-2012
▁侦	-2013
▁壮	-2014
▁fr	-2015
ice	-2016
▁串	-2017
18	-2018
▁岗	-2019
▁盾	-2020
▁契	-2021
▁弥	-2022
▁1983	-2023
▁1982	-2024
▁砲	-2025
▁勃	-2026
16	-2027
▁措	-2028
▁碳	-2029
▁75	-2030
▁摇	-2031
▁am	-2032
▁剩	-2033
▁陨	-2034
▁as	-2035
▁%	-2036
all	-2037
▁厘	-2038
▁床	-2039
▁浓	-2040
▁歧	-2041
▁浩	-2042
▁氢	-2043
▁枝	-2044
▁鸿	-2045
▁喷	-2046
▁ap	-2047
▁搬	-2048
ian	-2049
▁滚	-2050
▁翁	-2051
▁填	-2052
▁or	-2053
▁钦	-2054
▁wind	-2055
▁夷	-2056
45	-2057
▁券	-2058
▁47	-2059
17	-2060
▁递	-2061
▁65	-2062
▁拳	-2063
▁湿	-2064
90	-2065
13	-2066
▁裕	-2067
▁hd	-2068
▁荒	-2069
▁帅	-2070
▁滩	-2071
▁卜	-2072
▁飓	-2073
▁鲍	-2074
ive	-2075
▁浅	-2076
▁贴	-2077
▁傅	-2078
▁渔	-2079
47	-2080
▁邨	-2081
▁at	-2082
▁衍	-2083
▁欲	-2084
▁粮	-2085
▁笼	-2086
▁con	-2087
▁饭	-2088
▁丈	-2089
▁怒	-2090
▁润	-2091
▁割	-2092
▁淮	-2093
▁窗	-2094
35	-2095
▁蝶	-2096
ack	-2097
▁be	-2098
▁1979	-2099
▁尸	-2100
▁碍	-2101
▁150	-2102
▁旨	-2103
▁侠	-2104
▁疫	-2105
22	-2106
▁灌	-2107
bo	-2108
te	-2109
▁寨	-2110
▁惯	-2111
▁肥	-2112
▁庞	-2113
▁垒	-2114
▁欣	-2115
▁抽	-2116
▁赶	-2117
▁踪	-2118
▁400	-2119
▁链	-2120
our	-2121
▁ma	-2122
ph	-2123
▁鹰	-2124
▁windows	-2125
ue	-2126
▁49	-2127
▁洁	-2128
▁1978	-2129
▁pr	-2130
▁珊	-2131
▁胎	-2132
14	-2133
ver	-2134
▁辩	-2135
▁to	-2136
▁冒	-2137
▁膜	-2138
igh	-2139
▁狂	-2140
▁悉	-2141
▁尝	-2142
23	-2143
▁en	-2144
▁斜	-2145
▁180	-2146
▁迟	-2147
▁稿	-2148
oh	-2149
▁垂	-2150
▁儒	-2151
▁狄	-2152
art	-2153
▁ii	-2154
▁聘	-2155
▁贫	-2156
▁se	-2157
▁煤	-2158
▁腾	-2159
▁吾	-2160
▁44	-2161
▁孤	-2162
▁湘	-2163
▁陀	-2164
▁粹	-2165
▁64	-2166
se	-2167
▁妈	-2168
▁廊	-2169
▁耗	-2170
▁柔	-2171
▁壤	-2172
▁握	-2173
▁gr	-2174
37	-2175
▁栽	-2176
▁彦	-2177
▁go	-2178
▁杆	-2179
▁闽	-2180
▁1981	-2181
▁粗	-2182
ge	-2183
ity	-2184
ert	-2185
▁揭	-2186
▁坪	-2187
▁抢	-2188
▁娘	-2189
26	-2190
▁&	-2191
24	-2192
ant	-2193
▁逆	-2194
▁翠	-2195
▁铺	-2196
▁净	-2197
▁貌	-2198
▁58	-2199
▁琉	-2200
ib	-2201
▁1946	-2202
▁朴	-2203
27	-2204
28	-2205
io	-2206
▁1958	-2207
▁俘	-2208
▁狗	-2209
▁婆	-2210
▁堪	-2211
▁潭	-2212
▁恰	-2213
▁寒	-2214
ich	-2215
▁56	-2216
▁挪	-2217
▁翌	-2218
▁璃	-2219
▁龟	-2220
▁阔	-2221
36	-2222
▁罢	-2223
▁癌	-2224
▁辰	-2225
sp	-2226
▁薄	-2227
▁魂	-2228
▁忍	-2229
▁禅	-2230
bs	-2231
▁遵	-2232
75	-2233
▁扶	-2234
▁丛	-2235
▁坝	-2236
38	-2237
▁铭	-2238
▁赋	-2239
▁1920	-2240
▁ad	-2241
▁稍	-2242
▁堆	-2243
▁丙	-2244
▁伪	-2245
▁sc	-2246
▁脏	-2247
▁吐	-2248
29	-2249
▁刷	-2250
▁勋	-2251
▁苑	-2252
▁荐	-2253
ong	-2254
▁矩	-2255
per	-2256
▁1930	-2257
▁淘	-2258
▁逻	-2259
▁1948	-2260
▁ex	-2261
▁碎	-2262
▁鼻	-2263
▁1940	-2264
▁涵	-2265
▁诏	-2266
lay	-2267
▁矶	-2268
▁颇	-2269
▁丑	-2270
▁姚	-2271
▁汪	-2272
▁胸	-2273
▁偷	-2274
▁栏	-2275
▁怖	-2276
▁1975	-2277
▁添	-2278
▁叠	-2279
▁ph	-2280
▁祀	-2281
▁弦	-2282
▁押	-2283
▁惟	-2284
▁寸	-2285
▁逮	-2286
▁劝	-2287
▁鸣	-2288
▁嫌	-2289
▁1937	-2290
▁硫	-2291
▁兆	-2292
▁卒	-2293
▁扫	-2294
▁姬	-2295
▁歇	-2296
▁su	-2297
▁1956	-2298
▁屠	-2299
▁吏	-2300
▁讷	-2301
▁120	-2302
▁夕	-2303
▁蛛	-2304
ate	-2305
▁姻	-2306
▁雀	-2307
▁狼	-2308
▁1947	-2309
▁脊	-2310
▁携	-2311
▁琼	-2312
46	-2313
▁诊	-2314
▁76	-2315
▁泡	-2316
▁仇	-2317
▁酶	-2318
▁57	-2319
▁奎	-2320
▁奔	-2321
▁趋	-2322
▁1000	-2323
▁1941	-2324
▁芒	-2325
▁蒸	-2326
▁叉	-2327
▁1976	-2328
▁嗣	-2329
39	-2330
▁卑	-2331
▁逼	-2332
▁醒	-2333
ry	-2334
▁─	-2335
▁腐	-2336
bc	-2337
▁卵	-2338
ort	-2339
▁磨	-2340
▁偿	-2341
▁涂	-2342
▁韵	-2343
▁劫	-2344
▁菊	-2345
▁猛	-2346
85	-2347
▁隋	-2348
33	-2349
▁1973	-2350
▁屈	-2351
▁勳	-2352
▁1966	-2353
▁1972	-2354
▁1955	-2355
▁稣	-2356
95	-2357
▁you	-2358
▁娃	-2359
▁66	-2360
▁厢	-2361
▁1952	-2362
44	-2363
▁薛	-2364
▁cn	-2365
▁拼	-2366
one	-2367
ect	-2368
▁嫁	-2369
86	-2370
▁债	-2371
▁犬	-2372
▁斤	-2373
ain	-2374
▁掘	-2375
32	-2376
ix	-2377
▁me	-2378
uc	-2379
ord	-2380
▁醇	-2381
▁嘴	-2382
▁600	-2383
gr	-2384
▁凝	-2385
▁敢	-2386
▁1974	-2387
▁矛	-2388
▁氯	-2389
▁摆	-2390
▁闪	-2391
▁肖	-2392
▁鹤	-2393
▁1968	-2394
ly	-2395
▁1977	-2396
▁棘	-2397
34	-2398
ne	-2399
▁伽	-2400
▁侨	-2401
▁忙	-2402
▁抑	-2403
ft	-2404
▁礁	-2405
▁悲	-2406
▁85	-2407
▁奶	-2408
▁碟	-2409
▁曰	-2410
▁凉	-2411
▁ac	-2412
▁铸	-2413
▁迦	-2414
96	-2415
▁1954	-2416
▁・	-2417
▁1938	-2418
▁1971	-2419
42	-2420
▁95	-2421
ast	-2422
▁姊	-2423
▁1964	-2424
▁妙	-2425
▁800	-2426
▁1939	-2427
▁祠	-2428
▁肌	-2429
▁忽	-2430
▁1965	-2431
ace	-2432
▁栋	-2433
▁贩	-2434
▁1944	-2435
▁扁	-2436
▁jr	-2437
▁汰	-2438
▁雍	-2439
▁株	-2440
▁砖	-2441
▁舱	-2442
▁鼎	-2443
87	-2444
▁1959	-2445
ss	-2446
▁1969	-2447
▁旬	-2448
▁碧	-2449
▁袋	-2450
ound	-2451
49	-2452
▁怕	-2453
▁翔	-2454
▁麟	-2455
▁cd	-2456
▁穷	-2457
▁吹	-2458
▁抱	-2459
▁1957	-2460
▁he	-2461
▁炉	-2462
▁鲶	-2463
▁1967	-2464
ah	-2465
▁稻	-2466
man	-2467
▁’	-2468
▁1942	-2469
▁狭	-2470
31	-2471
▁bo	-2472
▁谭	-2473
▁砂	-2474
▁拖	-2475
▁甫	-2476
ign	-2477
▁姜	-2478
▁铃	-2479
▁尹	-2480
▁绳	-2481
▁巫	-2482
▁co	-2483
▁宰	-2484
▁蹈	-2485
▁1953	-2486
▁幽	-2487
▁斐	-2488
76	-2489
▁夹	-2490
98	-2491
▁孕	-2492
▁nba	-2493
▁cent	-2494
end	-2495
▁恭	-2496
▁丸	-2497
ff	-2498
▁剪	-2499
78	-2500
▁汀	-2501
▁寓	-2502
▁盆	-2503
▁we	-2504
▁1935	-2505
▁锺	-2506
▁抓	-2507
▁1961	-2508
▁崩	-2509
▁it	-2510
▁惨	-2511
▁虹	-2512
▁鳞	-2513
▁纤	-2514
ore	-2515
▁41	-2516
▁1962	-2517
▁1943	-2518
▁鉴	-2519
▁讚	-2520
▁邪	-2521
▁1963	-2522
99	-2523
▁沪	-2524
▁毅	-2525
▁圭	-2526
▁竟	-2527
▁闸	-2528
▁68	-2529
▁倡	-2530
▁豫	-2531
▁斋	-2532
▁邑	-2533
▁→	-2534
▁埋	-2535
▁鄂	-2536
▁丞	-2537
▁ed	-2538
▁胆	-2539
▁弯	-2540
▁1936	-2541
41	-2542
▁讬	-2543
▁~	-2544
▁辨	-2545
▁苹	-2546
43	-2547
▁寮	-2548
▁1951	-2549
▁钻	-2550
▁51	-2551
▁鲈	-2552
▁驳	-2553
▁渊	-2554
▁蕨	-2555
▁sm	-2556
ps	-2557
▁雾	-2558
▁汝	-2559
▁魁	-2560
▁160	-2561
▁蓬	-2562
92	-2563
▁廖	-2564
65	-2565
▁囊	-2566
ight	-2567
▁珀	-2568
▁伙	-2569
▁蜂	-2570
▁雌	-2571
ith	-2572
▁荆	-2573
qu	-2574
▁×	-2575
▁滕	-2576
▁扣	-2577
ens	-2578
▁催	-2579
▁襄	-2580
▁咖	-2581
▁募	-2582
▁腔	-2583
97	-2584
▁郁	-2585
▁52	-2586
▁茅	-2587
▁巢	-2588
▁腺	-2589
▁吞	-2590
▁吧	-2591
▁斩	-2592
▁脸	-2593
▁氨	-2594
▁tv	-2595
▁陪	-2596
▁ng	-2597
▁挖	-2598
▁奋	-2599
▁披	-2600
▁茵	-2601
▁谦	-2602
▁蟹	-2603
▁拨	-2604
▁id	-2605
▁暖	-2606
▁涌	-2607
▁wh	-2608
▁酷	-2609
▁耕	-2610
▁苯	-2611
▁肠	-2612
iz	-2613
pe	-2614
ock	-2615
▁溯	-2616
▁鸭	-2617
▁擅	-2618
▁荡	-2619
▁棉	-2620
ies	-2621
ust	-2622
▁1933	-2623
▁2020	-2624
int	-2625
▁暨	-2626
▁劲	-2627
▁吻	-2628
▁1927	-2629
▁拘	-2630
▁聪	-2631
▁削	-2632
▁铎	-2633
▁崖	-2634
▁耐	-2635
ire	-2636
▁蜜	-2637
▁忘	-2638
ma	-2639
▁蕾	-2640
▁舟	-2641
▁愈	-2642
▁瓶	-2643
▁舌	-2644
▁札	-2645
▁漠	-2646
▁仕	-2647
▁噶	-2648
93	-2649
▁cl	-2650
62	-2651
▁卸	-2652
▁帐	-2653
▁蒲	-2654
▁栗	-2655
▁1931	-2656
▁77	-2657
▁亥	-2658
▁毗	-2659
▁帽	-2660
▁1928	-2661
▁54	-2662
▁88	-2663
sh	-2664
ond	-2665
▁car	-2666
▁sch	-2667
▁1932	-2668
ux	-2669
▁play	-2670
68	-2671
▁bl	-2672
▁sy	-2673
▁67	-2674
▁cod	-2675
▁1934	-2676
ick	-2677
▁dv	-2678
▁inter	-2679
94	-2680
▁cr	-2681
▁gam	-2682
▁78	-2683
ld	-2684
ai	-2685
▁hant	-2686
ber	-2687
▁ge	-2688
▁53	-2689
91	-2690
ial	-2691
ug	-2692
ern	-2693
▁110	-2694
son	-2695
▁par	-2696
▁1929	-2697
ment	-2698
ure	-2699
ii	-2700
▁700	-2701
▁ht	-2702
56	-2703
▁mac	-2704
▁joh	-2705
▁98	-2706
67	-2707
▁1912	-2708
▁lin	-2709
▁man	-2710
▁hr	-2711
ier	-2712
▁my	-2713
▁ak	-2714
ath	-2715
ina	-2716
▁new	-2717
64	-2718
▁el	-2719
▁130	-2720
▁72	-2721
▁dr	-2722
ory	-2723
▁dvd	-2724
▁140	-2725
yle	-2726
▁1925	-2727
66	-2728
az	-2729
▁wor	-2730
▁1924	-2731
▁1919	-2732
▁op	-2733
▁1918	-2734
xt	-2735
▁97	-2736
▁mo	-2737
ogle	-2738
▁87	-2739
▁ip	-2740
▁av	-2741
▁google	-2742
cl	-2743
▁99	-2744
▁mv	-2745
88	-2746
▁1926	-2747
iss	-2748
▁250	-2749
▁170	-2750
69	-2751
▁1922	-2752
▁mus	-2753
ont	-2754
61	-2755
55	-2756
ke	-2757
▁center	-2758
▁ab	-2759
ide	-2760
83	-2761
▁1914	-2762
▁ro	-2763
▁59	-2764
53	-2765
▁63	-2766
▁62	-2767
ish	-2768
mm	-2769
63	-2770
ube	-2771
1900	-2772
au	-2773
▁sao	-2774
57	-2775
▁61	-2776
anc	-2777
aw	-2778
▁1913	-2779
ton	-2780
89	-2781
so	-2782
▁john	-2783
▁comp	-2784
ational	-2785
▁lov	-2786
▁1917	-2787
▁ser	-2788
age	-2789
▁ist	-2790
▁1923	-2791
▁back	-2792
82	-2793
lar	-2794
ans	-2795
71	-2796
▁1921	-2797
▁style	-2798
51	-2799
▁ste	-2800
▁3000	-2801
72	-2802
▁codice	-2803
58	-2804
▁1911	-2805
52	-2806
▁qu	-2807
▁ag	-2808
ary	-2809
▁em	-2810
▁net	-2811
74	-2812
73	-2813
ala	-2814
54	-2815
ach	-2816
pl	-2817
81	-2818
▁74	-2819
▁dna	-2820
79	-2821
▁69	-2822
59	-2823
span	-2824
ile	-2825
ung	-2826
tr	-2827
▁met	-2828
▁colspan	-2829
ty	-2830
84	-2831
ann	-2832
▁istat	-2833
▁1900	-2834
ome	-2835
77	-2836
▁no	-2837
ime	-2838
ite	-2839
ta	-2840
▁1909	-2841
▁sil	-2842
▁km	-2843
▁pc	-2844
▁us	-2845
▁er	-2846
ank	-2847
ass	-2848
▁pe	-2849
are	-2850
pr	-2851
und	-2852
▁mic	-2853
iel	-2854
▁so	-2855
▁73	-2856
▁im	-2857
ium	-2858
▁per	-2859
▁po	-2860
▁one	-2861
ction	-2862
land	-2863
ts	-2864
▁now	-2865
▁1910	-2866
▁all	-2867
▁101	-2868
▁96	-2869
▁pl	-2870
ae	-2871
▁bar	-2872
▁71	-2873
▁align	-2874
amp	-2875
tv	-2876
▁yout	-2877
ground	-2878
cc	-2879
up	-2880
▁82	-2881
▁ngc	-2882
▁86	-2883
▁bd	-2884
▁ps	-2885
old	-2886
ical	-2887
▁sn	-2888
ica	-2889
ase	-2890
ence	-2891
▁81	-2892
ance	-2893
▁1905	-2894
station	-2895
ys	-2896
▁900	-2897
▁coun	-2898
ivers	-2899
▁1915	-2900
▁es	-2901
ley	-2902
▁1916	-2903
▁os	-2904
▁background	-2905
▁1901	-2906
iki	-2907
ere	-2908
ool	-2909
▁79	-2910
▁ke	-2911
de	-2912
▁will	-2913
▁gre	-2914
▁fre	-2915
▁84	-2916
▁sk	-2917
co	-2918
▁love	-2919
ck	-2920
▁83	-2921
▁playstation	-2922
own	-2923
▁fl	-2924
lat	-2925
▁chr	-2926
▁color	-2927
▁1500	-2928
▁nh	-2929
▁cor	-2930
5%	-2931
▁gen	-2932
ve	-2933
▁youtube	-2934
book	-2935
▁app	-2936
▁5000	-2937
for	-2938
▁cp	-2939
▁mod	-2940
act	-2941
▁min	-2942
▁1903	-2943
▁92	-2944
▁text	-2945
iam	-2946
we	-2947
▁intern	-2948
ash	-2949
▁ep	-2950
▁pa	-2951
ga	-2952
ame	-2953
▁live	-2954
▁mat	-2955
▁med	-2956
▁05	-2957
▁1907	-2958
▁rob	-2959
▁linux	-2960
▁89	-2961
▁mag	-2962
ale	-2963
▁gu	-2964
▁1906	-2965
▁1908	-2966
▁micro	-2967
dr	-2968
ri	-2969
▁ic	-2970
les	-2971
▁res	-2972
▁91	-2973
▁105	-2974
▁360	-2975
▁univers	-2976
▁des	-2977
ml	-2978
me	-2979
tp	-2980
▁by	-2981
▁with	-2982
▁06	-2983
ood	-2984
tc	-2985
▁1904	-2986
▁silver	-2987
km	-2988
▁cla	-2989
▁09	-2990
ise	-2991
ms	-2992
▁93	-2993
▁face	-2994
▁dav	-2995
▁super	-2996
ict	-2997
ara	-2998
ose	-2999
va	-3000
▁rec	-3001
▁world	-3002
eng	-3003
▁star	-3004
▁ty	-3005
▁int	-3006
uk	-3007
▁har	-3008
af	-3009
hel	-3010
enn	-3011
▁iii	-3012
ox	-3013
▁fe	-3014
ork	-3015
▁ent	-3016
ade	-3017
be	-3018
▁gl	-3019
▁94	-3020
der	-3021
ower	-3022
olog	-3023
ult	-3024
▁mon	-3025
yn	-3026
▁char	-3027
ony	-3028
▁01	-3029
▁pet	-3030
▁mm	-3031
mb	-3032
ins	-3033
▁can	-3034
▁air	-3035
▁music	-3036
gb	-3037
▁07	-3038
lex	-3039
oll	-3040
▁350	-3041
stem	-3042
▁bro	-3043
▁08	-3044
▁her	-3045
▁ms	-3046
▁mc	-3047
▁school	-3048
▁akb	-3049
▁bla	-3050
▁1898	-3051
▁je	-3052
▁1895	-3053
pt	-3054
ata	-3055
ana	-3056
▁stud	-3057
ward	-3058
ost	-3059
oth	-3060
▁sw	-3061
▁str	-3062
▁1902	-3063
ics	-3064
▁facebook	-3065
▁web	-3066
ax	-3067
box	-3068
du	-3069
▁ib	-3070
▁jo	-3071
▁ua	-3072
ous	-3073
▁di	-3074
▁up	-3075
▁ir	-3076
ca	-3077
▁nor	-3078
6%	-3079
▁system	-3080
4%	-3081
3%	-3082
ink	-3083
▁104	-3084
▁part	-3085
ike	-3086
▁af	-3087
▁dis	-3088
soft	-3089
ner	-3090
da	-3091
▁du	-3092
gh	-3093
▁che	-3094
▁ev	-3095
▁dc	-3096
▁ass	-3097
▁ind	-3098
1%	-3099
▁4000	-3100
2%	-3101
br	-3102
7%	-3103
ha	-3104
mer	-3105
▁sur	-3106
▁ver	-3107
▁108	-3108
itt	-3109
▁ss	-3110
ille	-3111
ane	-3112
ode	-3113
▁red	-3114
dp	-3115
▁li	-3116
▁ra	-3117
8%	-3118
cr	-3119
▁ref	-3120
▁jav	-3121
▁pol	-3122
asa	-3123
oci	-3124
▁106	-3125
irl	-3126
▁bbc	-3127
orn	-3128
▁02	-3129
▁1890	-3130
ius	-3131
▁125	-3132
ude	-3133
ald	-3134
▁04	-3135
▁high	-3136
▁102	-3137
▁jam	-3138
▁103	-3139
icon	-3140
▁del	-3141
▁mark	-3142
▁gn	-3143
roid	-3144
▁inst	-3145
yl	-3146
ster	-3147
▁220	-3148
▁ele	-3149
ited	-3150
9%	-3151
ee	-3152
oup	-3153
ien	-3154
▁1200	-3155
▁1896	-3156
▁off	-3157
▁ho	-3158
▁mr	-3159
ep	-3160
▁not	-3161
att	-3162
▁microsoft	-3163
▁william	-3164
eth	-3165
▁1897	-3166
ds	-3167
▁nowiki	-3168
▁hy	-3169
ouse	-3170
ject	-3171
oss	-3172
ition	-3173
illa	-3174
▁115	-3175
ave	-3176
ream	-3177
▁team	-3178
▁do	-3179
ement	-3180
▁iv	-3181
▁div	-3182
▁tvb	-3183
ake	-3184
▁1899	-3185
hz	-3186
▁android	-3187
pa	-3188
▁et	-3189
▁val	-3190
▁107	-3191
oo	-3192
▁ter	-3193
▁game	-3194
▁1889	-3195
▁colle	-3196
fl	-3197
▁saint	-3198
oph	-3199
▁art	-3200
ual	-3201
01	-3202
▁are	-3203
▁war	-3204
▁university	-3205
▁ec	-3206
sk	-3207
▁girl	-3208
▁international	-3209
pm	-3210
▁nhk	-3211
▁act	-3212
▁da	-3213
ene	-3214
▁cy	-3215
▁cap	-3216
▁wal	-3217
▁sec	-3218
ings	-3219
ott	-3220
▁show	-3221
▁03	-3222
able	-3223
▁pre	-3224
▁sou	-3225
▁450	-3226
▁david	-3227
▁240	-3228
ler	-3229
▁iso	-3230
▁bu	-3231
work	-3232
▁cm	-3233
sa	-3234
▁128	-3235
▁111	-3236
▁50%	-3237
▁109	-3238
ild	-3239
▁ca	-3240
▁1860	-3241
▁comm	-3242
ico	-3243
ons	-3244
ek	-3245
05	-3246
▁bas	-3247
iro	-3248
▁ig	-3249
vel	-3250
▁10%	-3251
▁1880	-3252
cm	-3253
▁sd	-3254
▁1600	-3255
▁group	-3256
▁big	-3257
▁pla	-3258
▁vi	-3259
▁ce	-3260
▁open	-3261
let	-3262
▁day	-3263
ear	-3264
▁robert	-3265
▁112	-3266
▁xbox	-3267
▁geor	-3268
rit	-3269
▁lo	-3270
▁1894	-3271
▁135	-3272
▁fin	-3273
▁christ	-3274
lo	-3275
▁tech	-3276
▁that	-3277
▁ta	-3278
▁1800	-3279
way	-3280
ett	-3281
▁sam	-3282
port	-3283
ari	-3284
ino	-3285
▁pop	-3286
▁230	-3287
ife	-3288
▁lim	-3289
▁eng	-3290
▁ang	-3291
▁http	-3292
▁fa	-3293
▁mor	-3294
▁mk	-3295
sc	-3296
▁1870	-3297
▁fc	-3298
td	-3299
▁118	-3300
▁national	-3301
ark	-3302
ena	-3303
▁paul	-3304
ael	-3305
▁produ	-3306
▁reg	-3307
▁sim	-3308
▁county	-3309
▁from	-3310
▁top	-3311
▁210	-3312
▁ts	-3313
▁155	-3314
osh	-3315
▁mich	-3316
ese	-3317
▁rich	-3318
any	-3319
▁pat	-3320
▁cro	-3321
▁max	-3322
▁1871	-3323
▁sl	-3324
▁don	-3325
que	-3326
▁kh	-3327
▁113	-3328
▁6000	-3329
▁mer	-3330
▁1885	-3331
▁280	-3332
▁il	-3333
iver	-3334
▁tom	-3335
▁time	-3336
▁was	-3337
▁city	-3338
ram	-3339
▁rad	-3340
▁trans	-3341
▁na	-3342
▁games	-3343
▁black	-3344
uro	-3345
▁aut	-3346
▁bm	-3347
▁sol	-3348
▁114	-3349
▁20%	-3350
▁cs	-3351
▁kn	-3352
▁out	-3353
ism	-3354
▁mp	-3355
by	-3356
uck	-3357
▁vis	-3358
03	-3359
▁cc	-3360
▁ds	-3361
za	-3362
▁cal	-3363
po	-3364
▁122	-3365
ya	-3366
out	-3367
ron	-3368
▁park	-3369
▁ber	-3370
▁ios	-3371
▁amer	-3372
▁116	-3373
enc	-3374
▁dj	-3375
ior	-3376
▁type	-3377
▁ol	-3378
▁117	-3379
ble	-3380
phone	-3381
▁sing	-3382
▁win	-3383
ero	-3384
▁power	-3385
▁rock	-3386
▁inc	-3387
▁lib	-3388
▁utc	-3389
02	-3390
▁org	-3391
fc	-3392
▁tour	-3393
▁king	-3394
itter	-3395
ubl	-3396
ute	-3397
▁alex	-3398
▁ww	-3399
▁james	-3400
▁1886	-3401
ital	-3402
bur	-3403
▁260	-3404
▁bet	-3405
▁1892	-3406
▁bill	-3407
▁1884	-3408
▁sar	-3409
net	-3410
aph	-3411
▁fir	-3412
▁vol	-3413
ham	-3414
▁ha	-3415
▁sal	-3416
ology	-3417
▁san	-3418
bl	-3419
ied	-3420
▁jap	-3421
▁sun	-3422
iff	-3423
pg	-3424
ven	-3425
ger	-3426
▁oricon	-3427
▁cat	-3428
osa	-3429
▁ur	-3430
to	-3431
▁class	-3432
▁jun	-3433
go	-3434
▁ba	-3435
▁1888	-3436
▁java	-3437
▁bur	-3438
▁alb	-3439
▁only	-3440
▁thom	-3441
06	-3442
▁123	-3443
▁record	-3444
04	-3445
▁1893	-3446
itch	-3447
▁kar	-3448
ield	-3449
▁90%	-3450
▁ibm	-3451
las	-3452
fa	-3453
08	-3454
▁320	-3455
mun	-3456
▁1887	-3457
▁michael	-3458
▁rna	-3459
ka	-3460
▁fla	-3461
ertain	-3462
▁1876	-3463
▁80%	-3464
ution	-3465
▁127	-3466
▁750	-3467
tin	-3468
▁145	-3469
▁121	-3470
inc	-3471
▁lu	-3472
▁tre	-3473
▁tur	-3474
▁iphone	-3475
▁cre	-3476
▁2500	-3477
▁ve	-3478
▁cpu	-3479
ull	-3480
app	-3481
▁1861	-3482
▁hot	-3483
mp	-3484
▁1850	-3485
▁best	-3486
▁bre	-3487
▁spec	-3488
▁bel	-3489
▁129	-3490
▁nat	-3491
▁ef	-3492
▁ga	-3493
▁arm	-3494
▁boy	-3495
▁wat	-3496
▁techn	-3497
▁rom	-3498
▁ben	-3499
▁gdp	-3500
▁mil	-3501
▁30%	-3502
▁1883	-3503
▁550	-3504
▁end	-3505
ations	-3506
▁gener	-3507
▁she	-3508
▁119	-3509
▁1891	-3510
▁1868	-3511
▁club	-3512
▁est	-3513
▁japan	-3514
▁entertain	-3515
▁arch	-3516
▁stre	-3517
▁vo	-3518
▁dan	-3519
ors	-3520
▁oh	-3521
ral	-3522
▁bi	-3523
ough	-3524
07	-3525
▁mg	-3526
▁der	-3527
▁entertainment	-3528
▁dream	-3529
▁serv	-3530
▁ul	-3531
▁media	-3532
▁650	-3533
▁fil	-3534
▁vir	-3535
ange	-3536
dy	-3537
▁133	-3538
▁124	-3539
clude	-3540
ump	-3541
▁126	-3542
▁mi	-3543
▁jack	-3544
▁mont	-3545
++	-3546
ini	-3547
por	-3548
ily	-3549
▁life	-3550
100	-3551
ican	-3552
▁144	-3553
▁1848	-3554
line	-3555
▁sub	-3556
▁1862	-3557
▁sg	-3558
▁1867	-3559
fs	-3560
▁kr	-3561
▁fire	-3562
▁fm	-3563
▁1877	-3564
▁ok	-3565
▁hen	-3566
lin	-3567
▁twitter	-3568
▁175	-3569
▁137	-3570
▁1865	-3571
▁177	-3572
▁oper	-3573
form	-3574
▁1873	-3575
che	-3576
▁apple	-3577
ita	-3578
▁40%	-3579
istr	-3580
▁1875	-3581
▁work	-3582
200	-3583
ipt	-3584
▁1864	-3585
erson	-3586
▁may	-3587
▁270	-3588
▁award	-3589
▁1879	-3590
▁ant	-3591
ada	-3592
▁rev	-3593
▁van	-3594
▁1878	-3595
▁165	-3596
▁1882	-3597
cd	-3598
str	-3599
▁152	-3600
▁port	-3601
▁house	-3602
▁dd	-3603
▁1840	-3604
ij	-3605
▁tim	-3606
ated	-3607
▁hol	-3608
▁line	-3609
▁abc	-3610
▁project	-3611
▁unix	-3612
▁dem	-3613
ision	-3614
wn	-3615
ora	-3616
▁1881	-3617
berg	-3618
▁737	-3619
▁intel	-3620
▁first	-3621
▁bus	-3622
▁8000	-3623
▁this	-3624
09	-3625
its	-3626
▁phil	-3627
bn	-3628
▁sport	-3629
▁1874	-3630
▁road	-3631
yth	-3632
▁dire	-3633
▁mu	-3634
▁166	-3635
ection	-3636
▁mel	-3637
▁mem	-3638
▁college	-3639
min	-3640
undam	-3641
bi	-3642
▁good	-3643
▁70%	-3644
▁richard	-3645
▁132	-3646
▁gt	-3647
▁154	-3648
▁miss	-3649
ci	-3650
▁hel	-3651
▁pd	-3652
▁associ	-3653
ific	-3654
▁nt	-3655
▁fam	-3656
▁wii	-3657
press	-3658
▁138	-3659
ator	-3660
▁gar	-3661
▁sir	-3662
gin	-3663
▁les	-3664
▁george	-3665
▁adv	-3666
▁1872	-3667
▁street	-3668
iew	-3669
▁330	-3670
▁dec	-3671
▁lou	-3672
▁hall	-3673
▁franc	-3674
▁1863	-3675
▁7000	-3676
▁rh	-3677
▁west	-3678
▁cam	-3679
xy	-3680
ama	-3681
▁if	-3682
led	-3683
▁ger	-3684
▁ka	-3685
▁inf	-3686
▁wil	-3687
▁www	-3688
ano	-3689
▁5%	-3690
▁fo	-3691
ates	-3692
▁mtv	-3693
▁cv	-3694
ula	-3695
▁156	-3696
▁si	-3697
▁atp	-3698
▁sky	-3699
▁mad	-3700
include	-3701
▁land	-3702
▁sr	-3703
▁1400	-3704
ery	-3705
▁mid	-3706
▁lang	-3707
ze	-3708
▁acc	-3709
▁euro	-3710
▁pal	-3711
▁led	-3712
▁rem	-3713
ular	-3714
▁1300	-3715
▁158	-3716
ety	-3717
▁148	-3718
▁env	-3719
ateg	-3720
▁sum	-3721
▁1866	-3722
▁1869	-3723
▁north	-3724
▁charles	-3725
▁free	-3726
▁metac	-3727
▁ann	-3728
rop	-3729
wan	-3730
▁ju	-3731
▁wr	-3732
ensis	-3733
ney	-3734
▁100%	-3735
▁over	-3736
▁60%	-3737
▁131	-3738
ista	-3739
▁gp	-3740
▁unic	-3741
▁ram	-3742
▁139	-3743
▁136	-3744
ho	-3745
▁134	-3746
▁log	-3747
▁studio	-3748
uss	-3749
▁pi	-3750
▁mob	-3751
▁gundam	-3752
ions	-3753
▁ear	-3754
com	-3755
▁gold	-3756
era	-3757
ope	-3758
▁china	-3759
ount	-3760
▁html	-3761
▁ko	-3762
▁peter	-3763
ste	-3764
▁jose	-3765
▁bs	-3766
▁205	-3767
▁ever	-3768
ritic	-3769
▁kg	-3770
▁168	-3771
▁metacritic	-3772
▁sony	-3773
▁direct	-3774
▁ast	-3775
▁thomas	-3776
ki	-3777
ford	-3778
▁ob	-3779
▁kbs	-3780
▁tc	-3781
ware	-3782
▁south	-3783
vin	-3784
▁1830	-3785
ally	-3786
▁ray	-3787
ric	-3788
cript	-3789
▁dig	-3790
itz	-3791
▁your	-3792
ani	-3793
▁records	-3794
ville	-3795
ison	-3796
ason	-3797
unes	-3798
▁law	-3799
▁grand	-3800
▁ltd	-3801
▁sci	-3802
▁bab	-3803
▁1700	-3804
▁limited	-3805
▁fun	-3806
▁146	-3807
▁mir	-3808
sch	-3809
ander	-3810
▁pan	-3811
▁long	-3812
▁141	-3813
▁mov	-3814
▁contr	-3815
▁luc	-3816
▁unicode	-3817
▁dom	-3818
▁but	-3819
mus	-3820
▁147	-3821
▁dou	-3822
▁office	-3823
▁tem	-3824
ns	-3825
▁company	-3826
ex	-3827
▁fi	-3828
▁wid	-3829
▁1858	-3830
alk	-3831
unt	-3832
▁153	-3833
▁1100	-3834
ents	-3835
▁ham	-3836
▁news	-3837
▁publ	-3838
▁form	-3839
▁420	-3840
▁1853	-3841
wa	-3842
▁256	-3843
▁sig	-3844
ther	-3845
▁sbs	-3846
ester	-3847
▁tor	-3848
ball	-3849
▁just	-3850
▁aa	-3851
▁ah	-3852
▁cur	-3853
▁ret	-3854
▁1859	-3855
ql	-3856
▁nasa	-3857
▁747	-3858
ny	-3859
▁mb	-3860
▁az	-3861
idge	-3862
▁mot	-3863
▁mbc	-3864
ella	-3865
▁1854	-3866
▁143	-3867
▁cct	-3868
▁sup	-3869
▁151	-3870
▁225	-3871
▁real	-3872
▁chin	-3873
▁gro	-3874
ush	-3875
▁211	-3876
ning	-3877
▁jon	-3878
▁203	-3879
▁25%	-3880
▁east	-3881
▁amd	-3882
▁roy	-3883
▁pp	-3884
ura	-3885
ja	-3886
▁1857	-3887
▁gnu	-3888
▁nov	-3889
▁andre	-3890
ye	-3891
▁fer	-3892
▁squ	-3893
▁american	-3894
ih	-3895
yr	-3896
▁production	-3897
▁167	-3898
▁214	-3899
▁850	-3900
▁instit	-3901
▁au	-3902
▁215	-3903
▁api	-3904
▁blue	-3905
▁camp	-3906
▁lee	-3907
ative	-3908
fe	-3909
▁301	-3910
si	-3911
▁208	-3912
▁lis	-3913
▁song	-3914
▁girls	-3915
▁380	-3916
▁157	-3917
001	-3918
▁xp	-3919
▁235	-3920
asc	-3921
▁who	-3922
▁nav	-3923
ival	-3924
yo	-3925
▁home	-3926
▁categ	-3927
▁340	-3928
▁ign	-3929
▁lar	-3930
▁sant	-3931
▁batt	-3932
▁great	-3933
▁dl	-3934
mann	-3935
▁163	-3936
▁elect	-3937
▁173	-3938
▁kong	-3939
li	-3940
ker	-3941
▁1851	-3942
ua	-3943
▁soc	-3944
▁149	-3945
▁cos	-3946
▁name	-3947
ui	-3948
▁far	-3949
▁chem	-3950
▁gh	-3951
▁soft	-3952
bor	-3953
▁band	-3954
▁cast	-3955
101	-3956
▁178	-3957
zz	-3958
play	-3959
ko	-3960
▁202	-3961
▁mal	-3962
▁youn	-3963
▁jul	-3964
▁isbn	-3965
▁green	-3966
ody	-3967
▁1856	-3968
▁hum	-3969
▁tai	-3970
▁cour	-3971
▁1847	-3972
▁hong	-3973
▁162	-3974
▁dos	-3975
0%	-3976
ello	-3977
agon	-3978
▁480	-3979
▁onlyinclude	-3980
▁ll	-3981
pc	-3982
▁mill	-3983
▁post	-3984
▁1855	-3985
▁category	-3986
els	-3987
▁pres	-3988
▁inv	-3989
gar	-3990
red	-3991
▁how	-3992
▁15%	-3993
▁rap	-3994
▁association	-3995
▁td	-3996
▁ova	-3997
▁network	-3998
▁bb	-3999
▁om	-4000
ila	-4001
▁gb	-4002
▁gala	-4003
▁leg	-4004
▁ut	-4005
▁night	-4006
▁bal	-4007
▁410	-4008
▁von	-4009
▁hist	-4010
▁jean	-4011
my	-4012
▁142	-4013
▁159	-4014
▁hal	-4015
▁hor	-4016
▁nbc	-4017
▁itunes	-4018
ios	-4019
▁two	-4020
ips	-4021
ocal	-4022
▁207	-4023
▁hs	-4024
ague	-4025
▁que	-4026
▁soci	-4027
vid	-4028
gbt	-4029
▁river	-4030
fr	-4031
▁tbs	-4032
▁370	-4033
▁syn	-4034
▁ros	-4035
▁vict	-4036
▁176	-4037
▁bank	-4038
obe	-4039
▁md	-4040
ipp	-4041
▁town	-4042
▁sin	-4043
▁209	-4044
▁frank	-4045
fer	-4046
▁206	-4047
▁white	-4048
gram	-4049
▁tou	-4050
▁internet	-4051
ota	-4052
urus	-4053
▁champ	-4054
▁ext	-4055
▁heart	-4056
▁disc	-4057
use	-4058
ira	-4059
▁183	-4060
▁1849	-4061
▁young	-4062
▁die	-4063
▁tar	-4064
▁1852	-4065
▁290	-4066
▁stand	-4067
urch	-4068
▁sat	-4069
▁ai	-4070
ym	-4071
▁pag	-4072
ws	-4073
olf	-4074
▁1%	-4075
▁430	-4076
▁doc	-4077
▁has	-4078
erv	-4079
▁cbs	-4080
▁cont	-4081
▁distr	-4082
▁164	-4083
▁state	-4084
▁310	-4085
▁1841	-4086
▁218	-4087
▁cg	-4088
▁204	-4089
▁sv	-4090
▁rub	-4091
star	-4092
wood	-4093
▁171	-4094
▁1820	-4095
▁1844	-4096
▁1846	-4097
▁island	-4098
▁mak	-4099
▁221	-4100
▁169	-4101
▁usb	-4102
ache	-4103
ey	-4104
▁under	-4105
▁width	-4106
ets	-4107
▁cctv	-4108
▁hill	-4109
no	-4110
▁tu	-4111
▁year	-4112
▁223	-4113
▁def	-4114
▁light	-4115
sm	-4116
ling	-4117
ional	-4118
erg	-4119
ids	-4120
ima	-4121
▁172	-4122
▁book	-4123
ugh	-4124
mi	-4125
▁bay	-4126
ely	-4127
▁184	-4128
▁ceo	-4129
idae	-4130
▁sen	-4131
ape	-4132
▁bor	-4133
▁1815	-4134
▁enviro	-4135
▁161	-4136
▁dev	-4137
500	-4138
▁dh	-4139
▁dar	-4140
▁alph	-4141
▁joseph	-4142
▁182	-4143
pp	-4144
▁cle	-4145
▁store	-4146
▁server	-4147
▁217	-4148
▁1845	-4149
▁10000	-4150
▁vii	-4151
▁anim	-4152
▁bon	-4153
▁united	-4154
▁commun	-4155
▁216	-4156
ats	-4157
den	-4158
ucn	-4159
▁core	-4160
▁1843	-4161
uth	-4162
▁ice	-4163
ops	-4164
▁rt	-4165
▁1812	-4166
ree	-4167
▁228	-4168
▁let	-4169
▁iucn	-4170
▁222	-4171
▁henry	-4172
▁238	-4173
▁401	-4174
gen	-4175
▁dep	-4176
▁181	-4177
▁bob	-4178
▁spr	-4179
▁cons	-4180
▁rpg	-4181
▁way	-4182
▁prof	-4183
▁section	-4184
lation	-4185
▁174	-4186
▁212	-4187
▁men	-4188
▁litt	-4189
nal	-4190
▁cry	-4191
▁ot	-4192
▁db	-4193
▁space	-4194
ift	-4195
ola	-4196
▁ti	-4197
▁hu	-4198
▁1842	-4199
▁god	-4200
▁1814	-4201
▁son	-4202
yd	-4203
▁engine	-4204
isc	-4205
▁pv	-4206
▁440	-4207
▁run	-4208
xx	-4209
▁xx	-4210
▁expl	-4211
▁carl	-4212
over	-4213
ather	-4214
ird	-4215
▁smith	-4216
▁sel	-4217
board	-4218
▁tele	-4219
▁jump	-4220
▁179	-4221
▁manag	-4222
azine	-4223
ideo	-4224
▁jan	-4225
▁martin	-4226
▁pt	-4227
▁jac	-4228
▁213	-4229
▁bit	-4230
annel	-4231
yp	-4232
ural	-4233
▁911	-4234
ister	-4235
▁ru	-4236
raft	-4237
ures	-4238
▁var	-4239
ji	-4240
▁battle	-4241
▁num	-4242
rich	-4243
▁key	-4244
▁cross	-4245
▁model	-4246
▁mas	-4247
atic	-4248
▁1789	-4249
▁general	-4250
edia	-4251
▁cho	-4252
▁mobile	-4253
cs	-4254
esh	-4255
▁mur	-4256
tps	-4257
▁cha	-4258
▁party	-4259
▁plus	-4260
cher	-4261
▁league	-4262
▁255	-4263
ida	-4264
▁arr	-4265
▁radio	-4266
▁ze	-4267
▁265	-4268
▁0%	-4269
▁fu	-4270
▁comic	-4271
ris	-4272
▁crh	-4273
▁lgbt	-4274
field	-4275
▁snh	-4276
▁ml	-4277
▁dm	-4278
▁fn	-4279
▁steam	-4280
ato	-4281
▁church	-4282
▁louis	-4283
▁magazine	-4284
▁219	-4285
▁online	-4286
rpm	-4287
▁tok	-4288
▁jour	-4289
▁conc	-4290
▁https	-4291
▁fox	-4292
▁pala	-4293
▁gi	-4294
▁foot	-4295
▁like	-4296
▁1792	-4297
▁service	-4298
201	-4299
oid	-4300
▁cir	-4301
aya	-4302
pan	-4303
▁mt	-4304
▁pass	-4305
▁resear	-4306
▁wwe	-4307
ington	-4308
▁275	-4309
▁his	-4310
▁bad	-4311
well	-4312
▁jim	-4313
lad	-4314
▁365	-4315
hell	-4316
▁610	-4317
▁mit	-4318
▁fest	-4319
▁master	-4320
▁1835	-4321
▁bh	-4322
▁little	-4323
zy	-4324
▁pier	-4325
▁muse	-4326
▁plan	-4327
▁cf	-4328
▁box	-4329
▁lam	-4330
uct	-4331
une	-4332
▁tg	-4333
▁asia	-4334
▁research	-4335
▁ry	-4336
▁mult	-4337
▁aust	-4338
▁sports	-4339
peg	-4340
▁xml	-4341
▁aug	-4342
▁gal	-4343
▁rep	-4344
ili	-4345
▁cas	-4346
▁corpor	-4347
▁ki	-4348
▁460	-4349
oud	-4350
inal	-4351
▁den	-4352
adem	-4353
▁720	-4354
▁special	-4355
ks	-4356
▁moz	-4357
▁sem	-4358
▁3500	-4359
▁fran	-4360
▁channel	-4361
cy	-4362
▁sand	-4363
ship	-4364
▁1839	-4365
▁1795	-4366
cast	-4367
301	-4368
▁cu	-4369
▁set	-4370
▁sound	-4371
▁pac	-4372
▁ku	-4373
eter	-4374
▁station	-4375
velop	-4376
▁ins	-4377
▁mount	-4378
▁vs	-4379
▁1832	-4380
lam	-4381
▁75%	-4382
▁lg	-4383
▁junior	-4384
ette	-4385
▁mary	-4386
▁560	-4387
▁design	-4388
▁226	-4389
▁ae	-4390
▁small	-4391
iana	-4392
▁224	-4393
▁code	-4394
ple	-4395
▁institute	-4396
▁001	-4397
▁950	-4398
▁non	-4399
ient	-4400
▁1793	-4401
▁society	-4402
eder	-4403
▁305	-4404
▁marc	-4405
▁mol	-4406
▁1836	-4407
▁prot	-4408
gan	-4409
▁640	-4410
▁aw	-4411
▁next	-4412
▁program	-4413
▁325	-4414
och	-4415
▁word	-4416
▁after	-4417
▁vista	-4418
▁edward	-4419
▁229	-4420
▁520	-4421
▁ly	-4422
▁232	-4423
off	-4424
▁501	-4425
▁777	-4426
▁kw	-4427
▁ny	-4428
bert	-4429
▁att	-4430
▁1821	-4431
ider	-4432
▁bea	-4433
▁1838	-4434
501	-4435
▁tak	-4436
▁2021	-4437
▁visual	-4438
▁video	-4439
asy	-4440
▁cop	-4441
▁point	-4442
▁nam	-4443
▁victor	-4444
aga	-4445
▁glob	-4446
▁maj	-4447
igo	-4448
ona	-4449
▁540	-4450
▁express	-4451
▁pm	-4452
▁1824	-4453
▁have	-4454
omo	-4455
▁low	-4456
▁tro	-4457
▁galaxy	-4458
▁public	-4459
tl	-4460
▁rd	-4461
▁234	-4462
▁brit	-4463
▁develop	-4464
▁iee	-4465
▁1644	-4466
ces	-4467
orm	-4468
pn	-4469
oy	-4470
▁rs	-4471
▁311	-4472
▁262	-4473
ility	-4474
ocket	-4475
▁1801	-4476
▁data	-4477
oney	-4478
▁249	-4479
▁final	-4480
▁239	-4481
▁happ	-4482
pi	-4483
▁601	-4484
▁1831	-4485
▁251	-4486
▁ieee	-4487
▁1825	-4488
acy	-4489
▁od	-4490
▁233	-4491
▁245	-4492
▁hard	-4493
▁680	-4494
▁978	-4495
▁map	-4496
▁bec	-4497
▁1806	-4498
▁470	-4499
▁530	-4500
▁580	-4501
burg	-4502
▁hbo	-4503
▁227	-4504
▁308	-4505
▁tel	-4506
▁kir	-4507
▁bern	-4508
ars	-4509
bit	-4510
ret	-4511
▁jer	-4512
▁1837	-4513
▁mach	-4514
▁yu	-4515
▁2022	-4516
ization	-4517
ogr	-4518
▁pu	-4519
▁rog	-4520
▁more	-4521
▁cin	-4522
olution	-4523
ize	-4524
▁steph	-4525
▁htc	-4526
▁found	-4527
▁taiwan	-4528
▁bou	-4529
▁mini	-4530
▁control	-4531
face	-4532
▁moon	-4533
ni	-4534
▁ct	-4535
▁9000	-4536
oma	-4537
▁ni	-4538
▁390	-4539
300	-4540
▁pay	-4541
▁dor	-4542
▁royal	-4543
oto	-4544
▁chinese	-4545
ng	-4546
▁get	-4547
▁vl	-4548
▁307	-4549
▁1833	-4550
win	-4551
▁eg	-4552
▁call	-4553
▁nd	-4554
▁asc	-4555
▁down	-4556
▁level	-4557
▁scott	-4558
▁science	-4559
▁brown	-4560
▁right	-4561
▁pap	-4562
▁sql	-4563
▁explor	-4564
omb	-4565
▁francis	-4566
▁mozilla	-4567
▁mos	-4568
vent	-4569
stein	-4570
▁618	-4571
▁liv	-4572
aker	-4573
wor	-4574
▁union	-4575
▁246	-4576
ness	-4577
▁matt	-4578
▁second	-4579
bour	-4580
▁fly	-4581
▁dam	-4582
▁angel	-4583
▁spe	-4584
▁peop	-4585
▁wa	-4586
▁place	-4587
▁630	-4588
▁1810	-4589
arch	-4590
▁film	-4591
▁adobe	-4592
res	-4593
▁ns	-4594
▁95%	-4595
▁proc	-4596
ote	-4597
ency	-4598
601	-4599
ky	-4600
fox	-4601
▁thr	-4602
fo	-4603
▁ax	-4604
▁1776	-4605
▁236	-4606
kg	-4607
▁left	-4608
▁flash	-4609
oro	-4610
▁620	-4611
▁corporation	-4612
uel	-4613
▁eb	-4614
▁fal	-4615
▁237	-4616
uch	-4617
▁pg	-4618
▁1834	-4619
▁rain	-4620
▁champion	-4621
▁1822	-4622
701	-4623
▁nm	-4624
▁2%	-4625
▁285	-4626
▁aud	-4627
▁cit	-4628
▁1790	-4629
▁what	-4630
▁gov	-4631
▁gra	-4632
▁eric	-4633
mat	-4634
ould	-4635
▁243	-4636
▁303	-4637
▁ace	-4638
ender	-4639
▁mvp	-4640
▁242	-4641
▁802	-4642
▁technology	-4643
▁wi	-4644
▁vr	-4645
agram	-4646
▁512	-4647
max	-4648
other	-4649
▁1826	-4650
▁510	-4651
▁card	-4652
ique	-4653
▁square	-4654
▁equ	-4655
▁digital	-4656
▁christian	-4657
ipe	-4658
▁252	-4659
▁had	-4660
▁1828	-4661
force	-4662
▁inde	-4663
▁poly	-4664
▁315	-4665
▁gard	-4666
▁vers	-4667
▁arts	-4668
▁york	-4669
▁241	-4670
▁mix	-4671
▁orig	-4672
▁jt	-4673
▁254	-4674
▁exp	-4675
▁which	-4676
▁apg	-4677
▁press	-4678
▁ub	-4679
vidia	-4680
▁beat	-4681
▁head	-4682
ao	-4683
▁nu	-4684
▁cnn	-4685
▁1804	-4686
▁maria	-4687
▁nvidia	-4688
▁chi	-4689
▁cup	-4690
▁ren	-4691
ython	-4692
▁pent	-4693
▁qq	-4694
▁318	-4695
▁ing	-4696
▁266	-4697
lor	-4698
▁sf	-4699
▁1791	-4700
▁sign	-4701
▁daniel	-4702
380	-4703
▁hold	-4704
▁comput	-4705
▁summer	-4706
▁firefox	-4707
▁hit	-4708
▁244	-4709
▁clar	-4710
▁enter	-4711
row	-4712
ume	-4713
▁tam	-4714
aster	-4715
▁mah	-4716
sport	-4717
▁1819	-4718
▁festival	-4719
vi	-4720
▁kl	-4721
▁960	-4722
iness	-4723
▁1799	-4724
▁arc	-4725
▁fif	-4726
401	-4727
▁247	-4728
▁va	-4729
onom	-4730
ston	-4731
ros	-4732
▁302	-4733
▁nad	-4734
▁1813	-4735
▁last	-4736
oe	-4737
▁ken	-4738
▁alexander	-4739
ices	-4740
▁1823	-4741
▁touch	-4742
▁338	-4743
▁bbs	-4744
▁again	-4745
yer	-4746
▁258	-4747
▁312	-4748
▁1802	-4749
▁hand	-4750
▁ri	-4751
▁248	-4752
▁wood	-4753
▁3%	-4754
▁gm	-4755
▁268	-4756
▁social	-4757
▁pen	-4758
▁global	-4759
▁switch	-4760
ury	-4761
400	-4762
▁253	-4763
▁277	-4764
cil	-4765
▁660	-4766
ago	-4767
▁bat	-4768
▁chil	-4769
▁1829	-4770
▁lady	-4771
col	-4772
▁264	-4773
▁269	-4774
▁deb	-4775
▁adam	-4776
mar	-4777
elle	-4778
▁som	-4779
▁1818	-4780
▁phone	-4781
ika	-4782
▁build	-4783
▁304	-4784
▁1645	-4785
▁europe	-4786
▁fact	-4787
di	-4788
▁psy	-4789
▁pk	-4790
▁tran	-4791
ges	-4792
▁circ	-4793
▁academ	-4794
▁explorer	-4795
▁football	-4796
gs	-4797
flix	-4798
key	-4799
▁231	-4800
▁273	-4801
▁old	-4802
▁1816	-4803
ters	-4804
▁august	-4805
▁uss	-4806
▁1780	-4807
▁sav	-4808
ascript	-4809
▁software	-4810
▁langu	-4811
▁ff	-4812
▁tal	-4813
▁series	-4814
▁bc	-4815
▁hp	-4816
ater	-4817
▁570	-4818
▁bt	-4819
▁yg	-4820
▁pos	-4821
zer	-4822
▁295	-4823
▁netflix	-4824
anna	-4825
▁people	-4826
▁instagram	-4827
▁astro	-4828
▁1807	-4829
▁cra	-4830
▁princ	-4831
▁tl	-4832
▁1805	-4833
▁fant	-4834
iga	-4835
umb	-4836
▁fx	-4837
801	-4838
▁cell	-4839
hr	-4840
ias	-4841
▁263	-4842
▁viv	-4843
▁hello	-4844
▁district	-4845
zo	-4846
▁yah	-4847
▁1775	-4848
▁journal	-4849
▁billboard	-4850
▁rail	-4851
▁og	-4852
▁1798	-4853
▁2400	-4854
▁4500	-4855
▁288	-4856
▁tcp	-4857
▁1650	-4858
▁were	-4859
2000	-4860
▁323	-4861
▁bey	-4862
▁1794	-4863
▁1796	-4864
▁257	-4865
▁299	-4866
▁eff	-4867
mo	-4868
▁fut	-4869
▁und	-4870
▁1803	-4871
▁767	-4872
▁block	-4873
▁mess	-4874
▁dance	-4875
▁management	-4876
oul	-4877
▁pur	-4878
▁cb	-4879
▁276	-4880
▁1809	-4881
ines	-4882
rick	-4883
▁prem	-4884
ograph	-4885
ti	-4886
▁306	-4887
▁nc	-4888
▁asp	-4889
▁bir	-4890
▁ker	-4891
ense	-4892
▁ash	-4893
▁four	-4894
▁perf	-4895
▁psp	-4896
▁272	-4897
▁1787	-4898
▁lond	-4899
▁mike	-4900
▁museum	-4901
inger	-4902
▁1788	-4903
▁2100	-4904
▁train	-4905
▁rb	-4906
▁bug	-4907
▁fair	-4908
▁gab	-4909
▁wom	-4910
▁pagasa	-4911
iko	-4912
▁bf	-4913
▁490	-4914
▁frame	-4915
▁family	-4916
rie	-4917
▁um	-4918
▁701	-4919
▁1808	-4920
yt	-4921
▁gun	-4922
▁imp	-4923
▁python	-4924
ohc	-4925
▁ye	-4926
▁296	-4927
▁386	-4928
▁820	-4929
▁mig	-4930
ident	-4931
▁1750	-4932
▁emu	-4933
▁fri	-4934
▁gps	-4935
▁pdf	-4936
▁force	-4937
▁dt	-4938
ible	-4939
ule	-4940
▁286	-4941
▁ipod	-4942
▁ske	-4943
▁1580	-4944
▁mcc	-4945
▁rod	-4946
▁dark	-4947
▁council	-4948
▁mun	-4949
▁ft	-4950
▁279	-4951
▁central	-4952
vo	-4953
▁278	-4954
▁425	-4955
▁780	-4956
▁ult	-4957
hd	-4958
als	-4959
aven	-4960
▁1817	-4961
▁beta	-4962
▁vocal	-4963
▁np	-4964
▁alf	-4965
▁ide	-4966
▁pin	-4967
▁ipad	-4968
▁298	-4969
▁ea	-4970
▁ja	-4971
▁ld	-4972
▁sab	-4973
tor	-4974
▁story	-4975
jo	-4976
kh	-4977
▁348	-4978
▁din	-4979
▁rat	-4980
▁tan	-4981
▁1783	-4982
▁alt	-4983
901	-4984
cho	-4985
▁1550	-4986
▁arg	-4987
▁meth	-4988
▁stad	-4989
▁zero	-4990
▁awards	-4991
▁sor	-4992
▁prom	-4993
get	-4994
▁sb	-4995
▁tn	-4996
▁357	-4997
▁hop	-4998
▁its	-4999
▁cw	-5000
▁271	-5001
▁water	-5002
ource	-5003
▁mnet	-5004
▁kit	-5005
▁soul	-5006
▁1568	-5007
▁read	-5008
▁earth	-5009
▁javascript	-5010
▁319	-5011
▁333	-5012
▁market	-5013
ami	-5014
lab	-5015
▁stat	-5016
▁inform	-5017
▁uc	-5018
▁andrew	-5019
ran	-5020
▁anton	-5021
esis	-5022
▁bul	-5023
▁well	-5024
kin	-5025
▁901	-5026
▁2600	-5027
▁385	-5028
▁670	-5029
▁main	-5030
je	-5031
ova	-5032
▁710	-5033
▁swe	-5034
nes	-5035
▁ven	-5036
▁bell	-5037
▁kim	-5038
▁tvbs	-5039
▁dur	-5040
▁1827	-5041
▁cult	-5042
▁sche	-5043
▁415	-5044
▁801	-5045
▁conn	-5046
▁basic	-5047
▁begin	-5048
▁edition	-5049
▁313	-5050
▁front	-5051
▁albert	-5052
▁bud	-5053
caa	-5054
▁324	-5055
▁375	-5056
▁1592	-5057
▁sund	-5058
▁london	-5059
aka	-5060
ful	-5061
▁335	-5062
▁ipv	-5063
osp	-5064
▁blu	-5065
▁hom	-5066
▁chan	-5067
rey	-5068
mond	-5069
iter	-5070
▁chris	-5071
▁centre	-5072
▁kill	-5073
▁leon	-5074
nd	-5075
320	-5076
▁274	-5077
▁281	-5078
▁our	-5079
▁stan	-5080
ication	-5081
▁friend	-5082
▁dun	-5083
ering	-5084
▁gall	-5085
▁human	-5086
mhz	-5087
rad	-5088
▁590	-5089
▁730	-5090
mon	-5091
▁lab	-5092
▁say	-5093
cha	-5094
dren	-5095
▁alpha	-5096
▁fried	-5097
▁2200	-5098
▁jeff	-5099
▁259	-5100
▁link	-5101
con	-5102
▁293	-5103
▁2300	-5104
▁pack	-5105
▁album	-5106
▁287	-5107
▁757	-5108
▁lake	-5109
ania	-5110
▁621	-5111
▁aaa	-5112
▁kon	-5113
men	-5114
▁284	-5115
▁85%	-5116
▁589	-5117
▁787	-5118
cept	-5119
▁328	-5120
▁880	-5121
▁vel	-5122
▁they	-5123
▁drive	-5124
iii	-5125
▁355	-5126
▁dol	-5127
don	-5128
▁lum	-5129
▁rac	-5130
▁round	-5131
▁children	-5132
▁289	-5133
▁ten	-5134
▁tit	-5135
▁base	-5136
db	-5137
▁267	-5138
▁exc	-5139
▁ncaa	-5140
kb	-5141
▁unit	-5142
▁283	-5143
▁760	-5144
▁joe	-5145
▁kiss	-5146
▁test	-5147
iy	-5148
uz	-5149
▁note	-5150
▁282	-5151
▁amaz	-5152
▁lord	-5153
▁bg	-5154
▁ath	-5155
▁kur	-5156
▁systems	-5157
sen	-5158
▁php	-5159
eta	-5160
heim	-5161
▁meg	-5162
▁fort	-5163
▁prop	-5164
▁1571	-5165
vision	-5166
▁hi	-5167
▁scr	-5168
▁trip	-5169
▁314	-5170
▁list	-5171
▁261	-5172
▁316	-5173
▁322	-5174
▁309	-5175
▁secret	-5176
▁321	-5177
▁hiv	-5178
▁gil	-5179
▁1553	-5180
▁educ	-5181
▁345	-5182
▁rows	-5183
nam	-5184
▁mx	-5185
▁525	-5186
▁dim	-5187
▁kat	-5188
ities	-5189
hs	-5190
lie	-5191
▁ls	-5192
▁development	-5193
▁903	-5194
▁1648	-5195
▁359	-5196
▁412	-5197
▁1582	-5198
▁prim	-5199
▁331	-5200
▁830	-5201
▁1583	-5202
▁hay	-5203
una	-5204
▁uk	-5205
▁344	-5206
▁iec	-5207
▁rfc	-5208
▁sla	-5209
▁appl	-5210
▁dest	-5211
▁327	-5212
▁1811	-5213
esc	-5214
▁416	-5215
▁fel	-5216
▁1570	-5217
▁dragon	-5218
▁there	-5219
▁742	-5220
▁ill	-5221
▁ple	-5222
▁tay	-5223
▁405	-5224
▁anth	-5225
▁russ	-5226
▁rowspan	-5227
▁rou	-5228
▁beyond	-5229
oco	-5230
anth	-5231
▁nar	-5232
▁1080	-5233
▁shell	-5234
▁334	-5235
▁zone	-5236
▁fan	-5237
bus	-5238
▁oc	-5239
alth	-5240
▁organ	-5241
▁villa	-5242
of	-5243
▁ia	-5244
uber	-5245
▁583	-5246
ating	-5247
▁wond	-5248
kt	-5249
ren	-5250
▁emi	-5251
▁tra	-5252
▁arth	-5253
▁happy	-5254
ati	-5255
▁356	-5256
▁758	-5257
▁ay	-5258
▁528	-5259
▁inn	-5260
▁baby	-5261
▁object	-5262
▁rp	-5263
▁jyp	-5264
▁court	-5265
ado	-5266
▁326	-5267
▁cook	-5268
▁607	-5269
▁421	-5270
house	-5271
▁lind	-5272
gu	-5273
ror	-5274
▁317	-5275
▁works	-5276
mail	-5277
▁por	-5278
▁const	-5279
hp	-5280
ria	-5281
▁404	-5282
▁ron	-5283
itte	-5284
ember	-5285
▁1565	-5286
▁shar	-5287
▁407	-5288
▁411	-5289
▁history	-5290
▁count	-5291
▁mom	-5292
▁lor	-5293
▁1640	-5294
ves	-5295
▁ie	-5296
▁417	-5297
▁feder	-5298
car	-5299
olk	-5300
▁sus	-5301
▁libr	-5302
▁some	-5303
▁person	-5304
eck	-5305
▁bmw	-5306
▁gla	-5307
▁other	-5308
ole	-5309
▁dy	-5310
▁980	-5311
▁atl	-5312
df	-5313
icle	-5314
▁707	-5315
▁1770	-5316
▁tex	-5317
▁govern	-5318
chen	-5319
▁346	-5320
▁ban	-5321
▁1777	-5322
▁fifa	-5323
▁prin	-5324
iano	-5325
▁1784	-5326
anda	-5327
▁ball	-5328
▁diff	-5329
▁mart	-5330
elf	-5331
isa	-5332
▁860	-5333
▁1778	-5334
▁math	-5335
▁smart	-5336
▁291	-5337
▁cab	-5338
▁1785	-5339
▁740	-5340
▁wta	-5341
▁steve	-5342
▁tokyo	-5343
▁343	-5344
▁got	-5345
▁1797	-5346
▁feat	-5347
▁mass	-5348
▁qual	-5349
▁seed	-5350
▁brand	-5351
▁690	-5352
▁pas	-5353
▁1646	-5354
▁1661	-5355
▁america	-5356
oon	-5357
lish	-5358
▁marie	-5359
utv	-5360
▁535	-5361
ument	-5362
▁1521	-5363
▁three	-5364
▁354	-5365
▁921	-5366
▁kde	-5367
▁queen	-5368
▁hat	-5369
▁edge	-5370
▁virt	-5371
▁operation	-5372
ques	-5373
▁445	-5374
▁930	-5375
▁fall	-5376
▁rose	-5377
▁indust	-5378
▁ted	-5379
▁lamb	-5380
val	-5381
▁418	-5382
▁their	-5383
gi	-5384
▁samu	-5385
▁business	-5386
bsd	-5387
▁403	-5388
▁1786	-5389
awa	-5390
athan	-5391
▁single	-5392
chan	-5393
▁opt	-5394
▁1577	-5395
▁1586	-5396
▁profess	-5397
▁810	-5398
▁add	-5399
▁dat	-5400
▁mmc	-5401
▁fore	-5402
▁know	-5403
▁trav	-5404
▁true	-5405
▁function	-5406
▁007	-5407
▁saf	-5408
▁rx	-5409
▁419	-5410
▁sea	-5411
▁sha	-5412
▁spir	-5413
▁order	-5414
▁fac	-5415
▁2030	-5416
▁carol	-5417
▁field	-5418
▁352	-5419
▁ghz	-5420
▁aven	-5421
▁boss	-5422
▁process	-5423
▁jay	-5424
▁kan	-5425
▁los	-5426
▁pot	-5427
anger	-5428
▁1368	-5429
▁chap	-5430
▁solo	-5431
▁358	-5432
ector	-5433
▁bridge	-5434
ban	-5435
iger	-5436
uri	-5437
yes	-5438
iti	-5439
ito	-5440
▁ton	-5441
▁1760	-5442
▁beaut	-5443
▁number	-5444
▁dog	-5445
▁stephen	-5446
600	-5447
▁johnson	-5448
▁384	-5449
▁kin	-5450
▁alan	-5451
▁start	-5452
▁viutv	-5453
▁413	-5454
▁414	-5455
▁581	-5456
▁840	-5457
ission	-5458
nm	-5459
▁402	-5460
din	-5461
▁raw	-5462
▁kk	-5463
sson	-5464
▁770	-5465
▁caf	-5466
▁rot	-5467
▁2700	-5468
lect	-5469
▁294	-5470
▁465	-5471
▁break	-5472
▁pierre	-5473
ece	-5474
▁6%	-5475
▁8%	-5476
ellow	-5477
▁292	-5478
▁shad	-5479
▁language	-5480
▁ern	-5481
▁lat	-5482
▁broad	-5483
erm	-5484
▁502	-5485
▁dal	-5486
▁dia	-5487
do	-5488
day	-5489
▁fbi	-5490
▁jud	-5491
▁336	-5492
▁367	-5493
▁yahoo	-5494
▁philip	-5495
▁tb	-5496
anga	-5497
▁329	-5498
▁conf	-5499
▁carr	-5500
▁395	-5501
▁999	-5502
▁moh	-5503
▁tod	-5504
▁common	-5505
▁hip	-5506
▁cand	-5507
▁jess	-5508
hi	-5509
▁1636	-5510
▁stra	-5511
▁econom	-5512
kw	-5513
oli	-5514
▁aim	-5515
▁ess	-5516
▁nex	-5517
par	-5518
▁see	-5519
▁cher	-5520
▁ring	-5521
▁track	-5522
▁555	-5523
lan	-5524
itor	-5525
▁342	-5526
▁625	-5527
urn	-5528
▁phot	-5529
▁take	-5530
war	-5531
amin	-5532
▁greg	-5533
▁hotel	-5534
less	-5535
▁297	-5536
▁1781	-5537
▁merc	-5538
▁standard	-5539
▁7%	-5540
▁dead	-5541
▁ruby	-5542
▁wild	-5543
▁action	-5544
▁406	-5545
▁mhz	-5546
▁studios	-5547
aki	-5548
▁870	-5549
▁karl	-5550
▁phys	-5551
▁austral	-5552
▁bin	-5553
▁gpl	-5554
▁bang	-5555
cp	-5556
ove	-5557
sky	-5558
▁505	-5559
▁anal	-5560
▁foundation	-5561
dom	-5562
ief	-5563
▁970	-5564
▁1590	-5565
▁speed	-5566
▁double	-5567
▁4%	-5568
erty	-5569
▁mpeg	-5570
▁1610	-5571
▁kenn	-5572
▁side	-5573
▁ascii	-5574
osaurus	-5575
ots	-5576
rent	-5577
▁448	-5578
▁ale	-5579
▁bag	-5580
▁dyn	-5581
▁1723	-5582
▁refer	-5583
med	-5584
▁pow	-5585
▁1683	-5586
▁education	-5587
▁collection	-5588
▁619	-5589
▁bac	-5590
▁talk	-5591
▁stage	-5592
ious	-5593
▁academy	-5594
▁lr	-5595
▁645	-5596
▁geforce	-5597
uv	-5598
▁brt	-5599
▁information	-5600
uf	-5601
pot	-5602
ming	-5603
▁339	-5604
▁627	-5605
▁produce	-5606
sl	-5607
▁kam	-5608
▁virgin	-5609
mad	-5610
elly	-5611
▁hon	-5612
▁337	-5613
▁via	-5614
light	-5615
▁cinem	-5616
▁magic	-5617
die	-5618
▁las	-5619
▁plat	-5620
utc	-5621
▁py	-5622
▁hun	-5623
▁tab	-5624
▁1559	-5625
▁1643	-5626
▁1730	-5627
▁wolf	-5628
▁states	-5629
▁williams	-5630
esa	-5631
atus	-5632
▁mik	-5633
▁row	-5634
▁view	-5635
▁lv	-5636
▁515	-5637
▁1622	-5638
▁simon	-5639
ants	-5640
▁518	-5641
▁985	-5642
▁cad	-5643
▁fab	-5644
▁1620	-5645
zi	-5646
iva	-5647
▁ee	-5648
▁nr	-5649
▁351	-5650
▁also	-5651
▁nick	-5652
▁santa	-5653
bon	-5654
urs	-5655
▁447	-5656
▁548	-5657
▁mam	-5658
▁1625	-5659
▁uh	-5660
▁347	-5661
▁flor	-5662
▁jones	-5663
eri	-5664
▁abs	-5665
▁1562	-5666
▁eleven	-5667
▁1782	-5668
▁pont	-5669
▁xm	-5670
▁1680	-5671
▁ross	-5672
▁voice	-5673
▁arthur	-5674
hed	-5675
elli	-5676
▁imax	-5677
▁roll	-5678
untu	-5679
▁485	-5680
▁eos	-5681
▁haw	-5682
apt	-5683
▁399	-5684
▁fle	-5685
▁deep	-5686
▁week	-5687
▁johann	-5688
▁617	-5689
▁chen	-5690
▁major	-5691
▁where	-5692
▁bsd	-5693
▁2800	-5694
▁pict	-5695
▁times	-5696
gl	-5697
▁mytv	-5698
▁wall	-5699
lah	-5700
head	-5701
▁jos	-5702
▁framework	-5703
iny	-5704
▁727	-5705
▁1628	-5706
▁1642	-5707
▁1772	-5708
▁case	-5709
▁tower	-5710
▁socket	-5711
ski	-5712
▁sid	-5713
▁ox	-5714
▁civ	-5715
chi	-5716
▁ya	-5717
▁639	-5718
▁into	-5719
▁interact	-5720
▁abd	-5721
▁lte	-5722
▁nik	-5723
▁yes	-5724
ments	-5725
▁lost	-5726
▁rand	-5727
▁sunday	-5728
▁353	-5729
▁15000	-5730
▁hm	-5731
▁rf	-5732
▁1763	-5733
olo	-5734
ved	-5735
▁622	-5736
▁sac	-5737
▁1547	-5738
▁1574	-5739
▁1662	-5740
▁dist	-5741
▁when	-5742
▁rc	-5743
▁529	-5744
▁pun	-5745
▁kids	-5746
▁laur	-5747
ril	-5748
▁cj	-5749
▁1517	-5750
▁1573	-5751
▁wiki	-5752
▁british	-5753
▁jackson	-5754
dle	-5755
▁gor	-5756
▁six	-5757
▁chang	-5758
▁division	-5759
▁mountain	-5760
▁35%	-5761
▁aff	-5762
▁eth	-5763
▁gog	-5764
▁377	-5765
▁nas	-5766
▁boys	-5767
▁opera	-5768
▁most	-5769
▁access	-5770
▁408	-5771
▁536	-5772
▁mba	-5773
▁file	-5774
▁invest	-5775
ois	-5776
▁341	-5777
▁1556	-5778
▁sars	-5779
▁walk	-5780
▁366	-5781
▁45%	-5782
▁sts	-5783
anced	-5784
▁1779	-5785
▁days	-5786
ify	-5787
wer	-5788
▁332	-5789
▁371	-5790
▁615	-5791
▁nmb	-5792
▁20000	-5793
▁source	-5794
ef	-5795
330	-5796
▁398	-5797
gre	-5798
▁rue	-5799
▁reb	-5800
▁3200	-5801
▁every	-5802
uit	-5803
▁432	-5804
ental	-5805
▁apache	-5806
▁427	-5807
▁920	-5808
▁cba	-5809
▁1660	-5810
▁theat	-5811
bar	-5812
▁sta	-5813
▁1511	-5814
▁fish	-5815
dm	-5816
ali	-5817
▁383	-5818
▁1598	-5819
▁1649	-5820
▁1755	-5821
▁mand	-5822
▁prince	-5823
▁605	-5824
▁885	-5825
▁910	-5826
▁wel	-5827
zen	-5828
▁705	-5829
▁cer	-5830
▁1774	-5831
▁future	-5832
▁walter	-5833
ten	-5834
▁lp	-5835
▁enc	-5836
▁lew	-5837
▁cham	-5838
▁blood	-5839
▁gw	-5840
▁css	-5841
▁graph	-5842
▁player	-5843
240	-5844
▁js	-5845
▁tm	-5846
▁fat	-5847
iction	-5848
▁georg	-5849
▁nicon	-5850
▁depart	-5851
▁ck	-5852
▁tf	-5853
vers	-5854
▁435	-5855
▁mind	-5856
▁sega	-5857
▁361	-5858
▁hkt	-5859
▁kd	-5860
▁gon	-5861
▁irt	-5862
ified	-5863
▁hero	-5864
▁made	-5865
cle	-5866
▁ala	-5867
▁1621	-5868
▁1630	-5869
▁2025	-5870
▁library	-5871
▁surface	-5872
▁396	-5873
▁oct	-5874
▁sas	-5875
abeth	-5876
usion	-5877
▁rest	-5878
▁ci	-5879
▁kt	-5880
▁shine	-5881
gate	-5882
▁bil	-5883
▁niconico	-5884
iner	-5885
kins	-5886
atory	-5887
▁full	-5888
▁make	-5889
▁about	-5890
ogen	-5891
▁eva	-5892
▁cole	-5893
▁never	-5894
▁effect	-5895
▁511	-5896
▁gpu	-5897
▁nec	-5898
▁rel	-5899
▁gang	-5900
change	-5901
▁golden	-5902
rix	-5903
▁575	-5904
▁nico	-5905
bang	-5906
▁523	-5907
▁612	-5908
▁tun	-5909
gress	-5910
▁1624	-5911
▁brad	-5912
▁computer	-5913
▁lot	-5914
▁std	-5915
▁theory	-5916
aro	-5917
▁ky	-5918
▁516	-5919
▁547	-5920
▁avenue	-5921
rom	-5922
▁mh	-5923
▁mw	-5924
▁466	-5925
▁533	-5926
▁546	-5927
▁ddr	-5928
▁iss	-5929
▁yam	-5930
▁electron	-5931
▁transport	-5932
▁aj	-5933
▁537	-5934
▁538	-5935
▁tony	-5936
▁1637	-5937
▁gear	-5938
▁esc	-5939
▁1490	-5940
▁than	-5941
▁wonder	-5942
▁lc	-5943
▁atr	-5944
▁bot	-5945
▁cel	-5946
prise	-5947
▁409	-5948
works	-5949
worth	-5950
▁io	-5951
ergy	-5952
▁emp	-5953
▁pad	-5954
▁chart	-5955
▁pf	-5956
▁tt	-5957
▁479	-5958
▁pix	-5959
▁1560	-5960
▁1720	-5961
▁samuel	-5962
iant	-5963
▁940	-5964
▁bah	-5965
▁ped	-5966
enger	-5967
▁455	-5968
▁kle	-5969
▁mars	-5970
▁infin	-5971
▁memor	-5972
issement	-5973
▁english	-5974
gam	-5975
▁gc	-5976
ists	-5977
▁549	-5978
▁death	-5979
▁virtual	-5980
inae	-5981
▁476	-5982
▁kab	-5983
▁robin	-5984
▁contin	-5985
▁magn	-5986
▁wo	-5987
▁545	-5988
▁611	-5989
▁committe	-5990
umi	-5991
ench	-5992
▁368	-5993
▁376	-5994
▁1724	-5995
▁vita	-5996
ogue	-5997
▁389	-5998
▁626	-5999
▁1748	-6000
▁here	-6001
▁capital	-6002
dc	-6003
isk	-6004
▁ik	-6005
▁388	-6006
▁1250	-6007
▁614	-6008
▁aur	-6009
▁1541	-6010
ological	-6011
▁ow	-6012
▁499	-6013
▁brian	-6014
▁taylor	-6015
esco	-6016
▁1585	-6017
▁1727	-6018
▁seven	-6019
▁sho	-6020
▁1627	-6021
▁1629	-6022
▁deut	-6023
▁rade	-6024
▁12%	-6025
▁506	-6026
▁secur	-6027
▁cosplay	-6028
▁patrick	-6029
800	-6030
mas	-6031
▁522	-6032
▁gem	-6033
▁1535	-6034
▁kevin	-6035
▁christoph	-6036
▁369	-6037
▁433	-6038
▁jet	-6039
▁1634	-6040
▁1765	-6041
▁comb	-6042
▁stadium	-6043
▁422	-6044
▁451	-6045
▁508	-6046
▁kom	-6047
▁priv	-6048
▁metal	-6049
▁hx	-6050
▁rr	-6051
▁527	-6052
▁556	-6053
▁parad	-6054
▁european	-6055
hor	-6056
▁378	-6057
▁475	-6058
▁lead	-6059
oni	-6060
ners	-6061
▁364	-6062
▁675	-6063
▁dohc	-6064
▁paris	-6065
ocr	-6066
▁kc	-6067
▁mut	-6068
▁1619	-6069
lis	-6070
tex	-6071
▁442	-6072
▁519	-6073
▁397	-6074
▁board	-6075
▁arrond	-6076
▁387	-6077
▁5500	-6078
▁372	-6079
▁428	-6080
▁526	-6081
▁1618	-6082
▁1631	-6083
▁1647	-6084
▁mega	-6085
▁movie	-6086
vet	-6087
vis	-6088
▁aqu	-6089
▁method	-6090
▁arrondissement	-6091
pson	-6092
▁790	-6093
▁area	-6094
▁cant	-6095
▁stone	-6096
▁michel	-6097
zh	-6098
▁pci	-6099
▁1538	-6100
▁republ	-6101
ols	-6102
ages	-6103
ides	-6104
ites	-6105
▁99%	-6106
▁lan	-6107
▁1740	-6108
▁rele	-6109
▁advance	-6110
icus	-6111
oper	-6112
▁362	-6113
▁439	-6114
▁hyd	-6115
▁nac	-6116
▁552	-6117
▁925	-6118
▁cob	-6119
▁lyn	-6120
▁pak	-6121
▁1651	-6122
▁381	-6123
▁nfl	-6124
▁stor	-6125
gy	-6126
▁rn	-6127
▁426	-6128
▁907	-6129
▁1736	-6130
▁1762	-6131
▁alice	-6132
▁radeon	-6133
▁wilson	-6134
ches	-6135
▁628	-6136
▁1769	-6137
▁garden	-6138
▁lm	-6139
tern	-6140
▁349	-6141
▁363	-6142
▁616	-6143
▁det	-6144
▁1616	-6145
▁doug	-6146
▁eliz	-6147
▁theatre	-6148
▁pb	-6149
back	-6150
ipei	-6151
▁51%	-6152
▁524	-6153
▁534	-6154
▁gsm	-6155
▁1745	-6156
▁committee	-6157
ete	-6158
▁gs	-6159
▁dip	-6160
▁1773	-6161
▁friedrich	-6162
▁373	-6163
▁613	-6164
▁tot	-6165
▁nich	-6166
▁wing	-6167
▁jacob	-6168
ando	-6169
reme	-6170
▁990	-6171
▁lie	-6172
▁1771	-6173
▁table	-6174
▁concert	-6175
▁pacific	-6176
▁services	-6177
▁eu	-6178
▁18%	-6179
▁436	-6180
▁joy	-6181
▁five	-6182
▁stop	-6183
bra	-6184
▁kv	-6185
▁517	-6186
▁890	-6187
▁tri	-6188
▁1529	-6189
▁pers	-6190
▁lucas	-6191
▁pse	-6192
▁spring	-6193
ardo	-6194
▁443	-6195
▁457	-6196
ollow	-6197
▁anti	-6198
▁chrome	-6199
eld	-6200
▁qs	-6201
▁423	-6202
▁486	-6203
▁655	-6204
▁nord	-6205
▁very	-6206
▁modern	-6207
her	-6208
read	-6209
▁636	-6210
▁tgv	-6211
oda	-6212
▁635	-6213
▁sap	-6214
oke	-6215
▁dp	-6216
▁ix	-6217
bach	-6218
▁606	-6219
▁623	-6220
▁715	-6221
▁usa	-6222
▁1502	-6223
▁gene	-6224
▁pink	-6225
▁taipei	-6226
view	-6227
▁567	-6228
▁kal	-6229
▁1487	-6230
▁1544	-6231
▁mode	-6232
action	-6233
▁offic	-6234
109	-6235
uce	-6236
▁825	-6237
▁aer	-6238
▁sex	-6239
▁1545	-6240
▁1603	-6241
uy	-6242
acs	-6243
▁cz	-6244
▁685	-6245
▁bes	-6246
▁cut	-6247
▁flo	-6248
iance	-6249
▁1725	-6250
▁jenn	-6251
▁lisa	-6252
▁women	-6253
▁df	-6254
iron	-6255
▁638	-6256
▁1493	-6257
▁1615	-6258
uma	-6259
▁6500	-6260
▁cube	-6261
uction	-6262
▁12000	-6263
▁mission	-6264
het	-6265
▁374	-6266
▁ubuntu	-6267
▁596	-6268
▁624	-6269
▁daw	-6270
▁pit	-6271
▁ric	-6272
▁tvn	-6273
▁1505	-6274
▁sweet	-6275
▁kb	-6276
▁713	-6277
▁mis	-6278
▁won	-6279
▁lisp	-6280
▁report	-6281
acle	-6282
▁762	-6283
▁bow	-6284
▁1757	-6285
▁health	-6286
▁394	-6287
▁495	-6288
▁553	-6289
▁585	-6290
▁815	-6291
▁3600	-6292
▁sher	-6293
▁dynam	-6294
ido	-6295
ways	-6296
▁392	-6297
▁453	-6298
▁dns	-6299
▁him	-6300
iller	-6301
▁1735	-6302
▁bour	-6303
▁building	-6304
ives	-6305
▁648	-6306
▁1670	-6307
▁watch	-6308
raw	-6309
inus	-6310
▁532	-6311
▁mes	-6312
▁smk	-6313
▁1609	-6314
▁been	-6315
▁mrna	-6316
▁379	-6317
▁431	-6318
▁jar	-6319
▁nok	-6320
ences	-6321
▁1450	-6322
▁2023	-6323
▁wave	-6324
▁motor	-6325
▁freder	-6326
illy	-6327
▁438	-6328
▁554	-6329
▁pasc	-6330
▁dir	-6331
▁rab	-6332
▁come	-6333
▁vt	-6334
helm	-6335
▁454	-6336
▁pia	-6337
tdown	-6338
▁1578	-6339
▁money	-6340
▁1689	-6341
▁anne	-6342
▁active	-6343
▁portable	-6344
oho	-6345
▁xe	-6346
▁513	-6347
▁539	-6348
▁717	-6349
▁98%	-6350
▁ali	-6351
▁1150	-6352
▁hyper	-6353
▁marsh	-6354
▁alfred	-6355
mal	-6356
▁629	-6357
▁926	-6358
▁afr	-6359
▁age	-6360
▁resp	-6361
▁pentium	-6362
▁original	-6363
▁gd	-6364
▁503	-6365
▁bmt	-6366
▁wik	-6367
▁auto	-6368
cf	-6369
▁551	-6370
▁1667	-6371
▁1759	-6372
▁stars	-6373
ht	-6374
rot	-6375
stal	-6376
▁1370	-6377
▁wester	-6378
uan	-6379
▁9%	-6380
▁fs	-6381
▁544	-6382
▁598	-6383
▁721	-6384
▁fda	-6385
▁obs	-6386
▁1764	-6387
ige	-6388
▁711	-6389
▁1659	-6390
▁1756	-6391
▁531	-6392
▁lem	-6393
fri	-6394
▁amp	-6395
▁tas	-6396
eland	-6397
▁relat	-6398
▁archive	-6399
mph	-6400
▁1623	-6401
uki	-6402
▁1688	-6403
▁hart	-6404
▁valley	-6405
mg	-6406
rol	-6407
▁962	-6408
▁ati	-6409
▁1457	-6410
▁1652	-6411
▁1728	-6412
▁712	-6413
▁1768	-6414
han	-6415
▁424	-6416
▁body	-6417
▁espn	-6418
▁energy	-6419
▁vocaloid	-6420
__	-6421
700	-6422
nel	-6423
oom	-6424
down	-6425
iers	-6426
▁514	-6427
▁55%	-6428
▁65%	-6429
▁796	-6430
▁lud	-6431
▁1635	-6432
▁sail	-6433
▁tell	-6434
ification	-6435
air	-6436
ori	-6437
▁604	-6438
▁ara	-6439
▁msn	-6440
▁fred	-6441
▁autom	-6442
▁vv	-6443
▁fern	-6444
▁jason	-6445
▁1050	-6446
▁roger	-6447
bro	-6448
vey	-6449
ians	-6450
▁7500	-6451
har	-6452
alis	-6453
aver	-6454
▁kid	-6455
▁1654	-6456
▁anna	-6457
▁review	-6458
▁gamespot	-6459
yan	-6460
▁494	-6461
▁acid	-6462
▁fami	-6463
rd	-6464
time	-6465
▁458	-6466
▁vit	-6467
▁1655	-6468
▁1733	-6469
▁1758	-6470
▁termin	-6471
▁countdown	-6472
ils	-6473
ues	-6474
▁dx	-6475
▁468	-6476
▁gas	-6477
▁lcd	-6478
▁1752	-6479
▁hell	-6480
▁index	-6481
▁lewis	-6482
mes	-6483
sey	-6484
▁576	-6485
▁loc	-6486
▁rib	-6487
▁1478	-6488
▁blog	-6489
▁inte	-6490
ucle	-6491
▁735	-6492
▁1664	-6493
▁perl	-6494
▁shop	-6495
▁castle	-6496
oa	-6497
can	-6498
▁jp	-6499
▁mn	-6500
▁1466	-6501
▁1569	-6502
▁1632	-6503
▁coll	-6504
▁planet	-6505
wh	-6506
leg	-6507
self	-6508
ulat	-6509
▁050	-6510
▁kap	-6511
bourg	-6512
▁1260	-6513
▁think	-6514
▁species	-6515
ancy	-6516
tran	-6517
▁452	-6518
▁cia	-6519
▁1575	-6520
▁freed	-6521
▁short	-6522
asia	-6523
case	-6524
hard	-6525
iday	-6526
▁393	-6527
▁pra	-6528
ature	-6529
otion	-6530
▁1496	-6531
▁gate	-6532
▁poem	-6533
▁harry	-6534
▁differ	-6535
omy	-6536
▁634	-6537
▁637	-6538
itect	-6539
▁smap	-6540
▁version	-6541
▁472	-6542
▁arn	-6543
▁1729	-6544
▁fast	-6545
▁fantasy	-6546
oria	-6547
▁391	-6548
▁509	-6549
▁565	-6550
▁716	-6551
▁fem	-6552
▁nan	-6553
ether	-6554
▁1604	-6555
▁ville	-6556
▁876	-6557
▁936	-6558
▁any	-6559
▁1767	-6560
▁mathe	-6561
▁complex	-6562
endo	-6563
▁juan	-6564
▁437	-6565
▁1638	-6566
▁spect	-6567
sd	-6568
▁ek	-6569
▁444	-6570
▁521	-6571
▁577	-6572
▁775	-6573
▁did	-6574
▁pic	-6575
scape	-6576
▁1572	-6577
▁1601	-6578
▁1684	-6579
▁bart	-6580
nie	-6581
▁597	-6582
▁718	-6583
▁nak	-6584
▁1595	-6585
▁adhd	-6586
▁food	-6587
▁solar	-6588
▁595	-6589
▁805	-6590
peria	-6591
▁barb	-6592
▁cath	-6593
ione	-6594
pend	-6595
stic	-6596
▁725	-6597
▁ost	-6598
▁vcd	-6599
▁1567	-6600
▁mort	-6601
▁struct	-6602
ogn	-6603
▁dk	-6604
▁504	-6605
▁557	-6606
▁658	-6607
▁vip	-6608
▁1540	-6609
▁1613	-6610
▁1701	-6611
▁ryan	-6612
▁vent	-6613
▁davis	-6614
▁march	-6615
▁nin	-6616
▁1626	-6617
▁1685	-6618
▁look	-6619
▁sens	-6620
▁trib	-6621
▁being	-6622
▁gnome	-6623
etta	-6624
ized	-6625
▁686	-6626
▁765	-6627
▁835	-6628
▁put	-6629
▁1350	-6630
▁lock	-6631
▁path	-6632
▁pascal	-6633
▁season	-6634
▁382	-6635
▁722	-6636
▁npc	-6637
▁sud	-6638
▁classic	-6639
▁wilhelm	-6640
imo	-6641
▁ud	-6642
▁fis	-6643
▁cost	-6644
▁anthony	-6645
▁machine	-6646
▁hl	-6647
▁492	-6648
▁507	-6649
▁632	-6650
▁912	-6651
rt	-6652
▁886	-6653
▁918	-6654
ennis	-6655
▁wong	-6656
pur	-6657
ifer	-6658
▁nig	-6659
▁hosp	-6660
▁kore	-6661
▁orient	-6662
▁interactive	-6663
oche	-6664
▁755	-6665
▁785	-6666
▁gib	-6667
thers	-6668
▁1526	-6669
▁1751	-6670
▁ital	-6671
▁738	-6672
▁hyp	-6673
▁andr	-6674
▁gamec	-6675
▁department	-6676
▁667	-6677
▁sak	-6678
berry	-6679
▁bigbang	-6680
▁holdings	-6681
▁engineering	-6682
ifi	-6683
onic	-6684
▁651	-6685
▁687	-6686
▁1614	-6687
rod	-6688
▁based	-6689
▁xperia	-6690
▁alexand	-6691
fly	-6692
atan	-6693
▁13%	-6694
▁668	-6695
▁ful	-6696
▁ufo	-6697
▁1721	-6698
▁avex	-6699
▁architect	-6700
bers	-6701
▁441	-6702
▁945	-6703
▁969	-6704
▁1612	-6705
▁cash	-6706
▁enterprise	-6707
▁christopher	-6708
itan	-6709
olic	-6710
▁586	-6711
▁986	-6712
▁kel	-6713
▁tea	-6714
inder	-6715
▁1369	-6716
enz	-6717
bury	-6718
▁464	-6719
▁484	-6720
▁684	-6721
▁tag	-6722
▁capt	-6723
▁snow	-6724
▁spot	-6725
▁allen	-6726
elo	-6727
ken	-6728
▁568	-6729
▁hub	-6730
▁commission	-6731
▁bp	-6732
icip	-6733
▁456	-6734
▁603	-6735
▁676	-6736
▁719	-6737
▁996	-6738
▁997	-6739
▁bun	-6740
▁das	-6741
▁1469	-6742
▁1587	-6743
▁yosh	-6744
▁exper	-6745
▁nokia	-6746
▁miller	-6747
▁429	-6748
▁541	-6749
▁1584	-6750
▁1713	-6751
▁hein	-6752
▁peace	-6753
▁piece	-6754
▁pseud	-6755
▁directx	-6756
▁through	-6757
110	-6758
bre	-6759
▁xi	-6760
ales	-6761
▁682	-6762
▁965	-6763
▁bol	-6764
▁neo	-6765
▁rud	-6766
▁vic	-6767
▁1707	-6768
▁cart	-6769
intosh	-6770
▁industr	-6771
▁695	-6772
▁ans	-6773
▁dre	-6774
▁1639	-6775
▁1753	-6776
▁gord	-6777
▁jane	-6778
▁past	-6779
▁rank	-6780
▁tang	-6781
▁vinc	-6782
gon	-6783
pro	-6784
ulu	-6785
▁xl	-6786
▁467	-6787
▁ois	-6788
▁tap	-6789
▁vor	-6790
▁1589	-6791
▁memory	-6792
▁nl	-6793
▁446	-6794
▁561	-6795
▁731	-6796
▁cav	-6797
▁tnt	-6798
▁rick	-6799
▁calif	-6800
▁perfect	-6801
ray	-6802
atch	-6803
▁487	-6804
▁915	-6805
▁lev	-6806
▁1754	-6807
▁ling	-6808
▁wash	-6809
350	-6810
▁496	-6811
▁698	-6812
▁jas	-6813
▁lun	-6814
▁barr	-6815
cht	-6816
▁751	-6817
▁isa	-6818
▁1561	-6819
ension	-6820
▁macos	-6821
▁metro	-6822
▁formation	-6823
arm	-6824
▁nk	-6825
osph	-6826
▁hur	-6827
▁zip	-6828
music	-6829
▁1658	-6830
▁1718	-6831
▁room	-6832
ential	-6833
▁gamer	-6834
ications	-6835
▁elizabeth	-6836
▁generation	-6837
▁government	-6838
▁482	-6839
▁498	-6840
▁562	-6841
▁647	-6842
▁845	-6843
▁itv	-6844
▁1524	-6845
▁amazon	-6846
▁howard	-6847
eno	-6848
lon	-6849
▁477	-6850
▁483	-6851
▁nic	-6852
▁1280	-6853
▁1732	-6854
▁mail	-6855
▁need	-6856
▁californ	-6857
azz	-6858
▁493	-6859
▁pga	-6860
lev	-6861
▁rg	-6862
▁alg	-6863
▁hms	-6864
▁tog	-6865
▁brun	-6866
▁polit	-6867
▁advanced	-6868
ande	-6869
aria	-6870
▁905	-6871
▁937	-6872
▁sad	-6873
▁showcase	-6874
hedr	-6875
mark	-6876
sche	-6877
▁559	-6878
▁681	-6879
▁706	-6880
▁eug	-6881
▁1555	-6882
▁1657	-6883
▁1761	-6884
▁1766	-6885
▁atom	-6886
▁turbo	-6887
een	-6888
ras	-6889
▁748	-6890
▁812	-6891
▁929	-6892
▁esp	-6893
▁oly	-6894
▁vhs	-6895
▁1593	-6896
▁feel	-6897
▁clark	-6898
▁twins	-6899
▁vision	-6900
264	-6901
▁818	-6902
▁863	-6903
▁gaon	-6904
▁cx	-6905
anny	-6906
▁813	-6907
▁ccd	-6908
imate	-6909
▁arena	-6910
▁matthe	-6911
▁product	-6912
▁universal	-6913
ones	-6914
▁478	-6915
▁3300	-6916
▁catal	-6917
▁hospital	-6918
▁youtuber	-6919
113	-6920
rum	-6921
ours	-6922
▁704	-6923
▁oce	-6924
inn	-6925
len	-6926
▁756	-6927
▁798	-6928
▁975	-6929
▁ble	-6930
▁nob	-6931
▁1520	-6932
▁roman	-6933
▁airport	-6934
eman	-6935
▁459	-6936
▁846	-6937
▁rim	-6938
▁dear	-6939
▁then	-6940
▁ultra	-6941
▁france	-6942
▁western	-6943
py	-6944
▁602	-6945
▁1460	-6946
▁dash	-6947
▁viii	-6948
▁natural	-6949
gg	-6950
▁574	-6951
▁923	-6952
▁atm	-6953
▁1475	-6954
▁1737	-6955
▁1747	-6956
▁pain	-6957
oi	-6958
ente	-6959
▁434	-6960
▁1430	-6961
▁1525	-6962
▁1607	-6963
▁dick	-6964
▁mall	-6965
ference	-6966
▁support	-6967
▁qt	-6968
▁11%	-6969
▁489	-6970
▁633	-6971
▁968	-6972
▁995	-6973
▁hey	-6974
ev	-6975
hip	-6976
▁449	-6977
▁973	-6978
▁hab	-6979
▁hud	-6980
craft	-6981
▁1690	-6982
▁1726	-6983
▁imag	-6984
▁scope	-6985
rian	-6986
▁nap	-6987
▁pul	-6988
▁1453	-6989
▁1710	-6990
▁3166	-6991
▁gary	-6992
▁storm	-6993
▁gamecube	-6994
oca	-6995
▁fd	-6996
iser	-6997
▁14%	-6998
▁471	-6999
▁823	-7000
▁1380	-7001
▁571	-7002
▁hem	-7003
▁1481	-7004
▁diam	-7005
▁prime	-7006
▁__	-7007
▁aq	-7008
▁nv	-7009
▁wc	-7010
▁729	-7011
▁1523	-7012
▁1666	-7013
▁logo	-7014
▁step	-7015
▁ther	-7016
▁exile	-7017
▁revolution	-7018
dit	-7019
fore	-7020
ysis	-7021
▁558	-7022
▁rca	-7023
▁1530	-7024
▁1675	-7025
▁1697	-7026
▁1738	-7027
▁gran	-7028
▁symb	-7029
▁championship	-7030
▁pw	-7031
▁xf	-7032
▁563	-7033
▁573	-7034
▁726	-7035
▁759	-7036
▁cass	-7037
igan	-7038
▁582	-7039
▁599	-7040
▁688	-7041
▁938	-7042
ancer	-7043
▁lion	-7044
▁xiii	-7045
105	-7046
▁588	-7047
▁609	-7048
▁dlc	-7049
▁1717	-7050
▁khan	-7051
▁studies	-7052
mc	-7053
agar	-7054
odon	-7055
▁572	-7056
▁656	-7057
▁ral	-7058
▁ras	-7059
▁1715	-7060
▁sent	-7061
▁antonio	-7062
▁nf	-7063
1000	-7064
▁16%	-7065
▁666	-7066
asure	-7067
ilton	-7068
▁1454	-7069
▁1532	-7070
▁bios	-7071
▁gram	-7072
▁carlos	-7073
▁triple	-7074
▁lt	-7075
▁463	-7076
▁935	-7077
▁edu	-7078
▁fro	-7079
▁1676	-7080
▁1744	-7081
▁match	-7082
cat	-7083
▁469	-7084
▁587	-7085
▁abb	-7086
▁dsp	-7087
▁1492	-7088
▁1576	-7089
▁azure	-7090
▁treat	-7091
bow	-7092
ogo	-7093
▁821	-7094
▁865	-7095
iment	-7096
▁1514	-7097
▁1591	-7098
▁pear	-7099
▁attack	-7100
▁579	-7101
▁678	-7102
▁1581	-7103
▁1665	-7104
▁asian	-7105
▁command	-7106
agu	-7107
▁714	-7108
▁875	-7109
▁vin	-7110
▁1564	-7111
▁1679	-7112
▁1681	-7113
▁kick	-7114
▁local	-7115
▁security	-7116
ea	-7117
▁wu	-7118
▁808	-7119
▁838	-7120
▁896	-7121
▁947	-7122
▁kad	-7123
▁1633	-7124
▁1722	-7125
▁andy	-7126
▁plaza	-7127
▁medical	-7128
kn	-7129
fan	-7130
rin	-7131
▁ks	-7132
▁643	-7133
▁lil	-7134
▁1714	-7135
▁johnny	-7136
mw	-7137
▁948	-7138
▁tat	-7139
▁zen	-7140
▁mater	-7141
▁independ	-7142
bell	-7143
phal	-7144
▁461	-7145
▁488	-7146
▁657	-7147
▁cis	-7148
apore	-7149
▁1563	-7150
▁tree	-7151
▁years	-7152
▁democr	-7153
oshi	-7154
ulus	-7155
▁542	-7156
▁702	-7157
▁826	-7158
▁bak	-7159
▁1611	-7160
▁nova	-7161
▁shin	-7162
ination	-7163
▁another	-7164
▁etc	-7165
acter	-7166
▁cycl	-7167
▁dota	-7168
▁want	-7169
▁moham	-7170
▁donald	-7171
ype	-7172
arts	-7173
▁17%	-7174
▁497	-7175
▁928	-7176
▁ria	-7177
istry	-7178
▁1588	-7179
▁1699	-7180
▁cond	-7181
▁kind	-7182
▁imper	-7183
▁naver	-7184
▁nucle	-7185
▁victoria	-7186
gn	-7187
hal	-7188
ucky	-7189
▁543	-7190
▁708	-7191
▁786	-7192
▁pil	-7193
▁quad	-7194
▁self	-7195
▁shah	-7196
▁civil	-7197
▁olymp	-7198
▁california	-7199
onia	-7200
▁745	-7201
▁887	-7202
▁927	-7203
▁lic	-7204
antic	-7205
▁hack	-7206
▁hugh	-7207
▁commer	-7208
mur	-7209
▁49%	-7210
▁817	-7211
▁sie	-7212
under	-7213
▁epic	-7214
▁page	-7215
▁penn	-7216
▁shir	-7217
▁openg	-7218
bu	-7219
gas	-7220
utt	-7221
▁819	-7222
▁847	-7223
▁888	-7224
▁933	-7225
▁1739	-7226
▁1749	-7227
bridge	-7228
uda	-7229
▁tp	-7230
▁bom	-7231
aco	-7232
ains	-7233
▁816	-7234
itive	-7235
▁1001	-7236
▁1130	-7237
▁1709	-7238
▁1734	-7239
▁25000	-7240
▁flight	-7241
▁intell	-7242
▁premium	-7243
▁francisco	-7244
pla	-7245
zzo	-7246
▁699	-7247
▁grad	-7248
▁forever	-7249
▁princip	-7250
ross	-7251
▁33%	-7252
▁761	-7253
▁lip	-7254
▁ncc	-7255
▁1605	-7256
▁bord	-7257
▁ghost	-7258
▁image	-7259
ulation	-7260
▁follow	-7261
▁living	-7262
▁medium	-7263
▁ou	-7264
▁wp	-7265
wick	-7266
▁661	-7267
▁768	-7268
▁914	-7269
▁939	-7270
▁951	-7271
▁1731	-7272
▁army	-7273
▁dave	-7274
▁dual	-7275
lu	-7276
25%	-7277
340	-7278
▁bj	-7279
▁ez	-7280
▁811	-7281
▁hav	-7282
▁1653	-7283
▁bing	-7284
▁prote	-7285
▁integr	-7286
▁1641	-7287
▁1712	-7288
▁village	-7289
lim	-7290
met	-7291
agne	-7292
▁473	-7293
▁481	-7294
▁608	-7295
▁919	-7296
▁976	-7297
▁pod	-7298
▁mond	-7299
▁against	-7300
▁anderson	-7301
▁macintosh	-7302
sung	-7303
▁659	-7304
▁728	-7305
▁828	-7306
▁lac	-7307
▁1672	-7308
▁cccc	-7309
▁maur	-7310
▁palm	-7311
▁sequ	-7312
▁songs	-7313
▁middle	-7314
▁dreamcast	-7315
lav	-7316
▁644	-7317
▁902	-7318
▁fit	-7319
ienne	-7320
istic	-7321
▁1230	-7322
▁cool	-7323
▁lear	-7324
▁margar	-7325
iet	-7326
rid	-7327
▁fp	-7328
agen	-7329
▁649	-7330
▁696	-7331
▁724	-7332
▁746	-7333
▁ach	-7334
▁bos	-7335
▁fur	-7336
▁1536	-7337
▁1687	-7338
▁bass	-7339
▁fund	-7340
icular	-7341
▁admin	-7342
▁trust	-7343
ography	-7344
▁orange	-7345
▁singapore	-7346
310	-7347
inte	-7348
▁736	-7349
▁908	-7350
▁934	-7351
oster	-7352
▁2024	-7353
gie	-7354
▁mf	-7355
iful	-7356
▁578	-7357
▁wan	-7358
ening	-7359
▁1742	-7360
▁ange	-7361
▁font	-7362
▁giov	-7363
▁exo	-7364
▁occ	-7365
▁pel	-7366
▁josh	-7367
▁author	-7368
▁community	-7369
hu	-7370
vc	-7371
uto	-7372
▁hg	-7373
▁wm	-7374
ween	-7375
▁593	-7376
▁733	-7377
▁741	-7378
▁sed	-7379
▁use	-7380
▁1673	-7381
▁1741	-7382
▁raid	-7383
▁wang	-7384
▁30000	-7385
▁debian	-7386
▁legend	-7387
▁sailor	-7388
▁pictures	-7389
▁republic	-7390
▁dn	-7391
▁rm	-7392
▁646	-7393
▁662	-7394
▁971	-7395
▁mou	-7396
▁beau	-7397
▁cdma	-7398
▁easy	-7399
▁delta	-7400
▁forest	-7401
iq	-7402
edy	-7403
iac	-7404
▁642	-7405
▁653	-7406
▁bed	-7407
▁hxd	-7408
▁jes	-7409
▁tax	-7410
▁toy	-7411
▁1602	-7412
▁bert	-7413
lection	-7414
▁nation	-7415
▁perfor	-7416
tz	-7417
▁pn	-7418
haus	-7419
lete	-7420
▁474	-7421
▁652	-7422
▁chu	-7423
▁guy	-7424
▁kay	-7425
▁1558	-7426
▁1617	-7427
enberg	-7428
▁ccccff	-7429
aa	-7430
ashi	-7431
▁979	-7432
ische	-7433
▁1597	-7434
▁eyes	-7435
▁grav	-7436
▁scar	-7437
▁ident	-7438
eb	-7439
▁641	-7440
▁eye	-7441
▁1220	-7442
▁1542	-7443
▁ferr	-7444
▁labor	-7445
▁winter	-7446
▁friends	-7447
103	-7448
orf	-7449
pent	-7450
▁cou	-7451
▁jal	-7452
▁lad	-7453
▁nit	-7454
▁pip	-7455
▁stu	-7456
space	-7457
uster	-7458
▁1599	-7459
▁hope	-7460
▁ward	-7461
▁jimmy	-7462
▁these	-7463
▁temple	-7464
iri	-7465
▁dw	-7466
▁sz	-7467
▁709	-7468
▁955	-7469
itude	-7470
▁jord	-7471
▁kent	-7472
office	-7473
▁bruce	-7474
▁kelly	-7475
02%	-7476
put	-7477
uary	-7478
wart	-7479
▁gay	-7480
▁kai	-7481
▁1127	-7482
▁1180	-7483
▁1371	-7484
▁1519	-7485
▁gent	-7486
▁texas	-7487
▁environ	-7488
icy	-7489
▁sq	-7490
▁za	-7491
olis	-7492
orph	-7493
tech	-7494
▁569	-7495
▁1527	-7496
▁midi	-7497
▁quick	-7498
▁monster	-7499
107	-7500
anni	-7501
▁564	-7502
▁683	-7503
▁822	-7504
▁824	-7505
▁beh	-7506
▁exe	-7507
▁kol	-7508
world	-7509
▁1537	-7510
▁1669	-7511
▁fight	-7512
▁yellow	-7513
▁netscape	-7514
odes	-7515
▁491	-7516
▁839	-7517
▁1579	-7518
▁teau	-7519
▁urban	-7520
▁walker	-7521
▁matthew	-7522
▁television	-7523
▁ug	-7524
reis	-7525
▁584	-7526
▁895	-7527
▁ges	-7528
▁1566	-7529
▁1674	-7530
▁fate	-7531
▁german	-7532
▁histor	-7533
▁window	-7534
▁mathemat	-7535
▁frederick	-7536
bf	-7537
▁957	-7538
▁leo	-7539
▁1522	-7540
▁ster	-7541
▁activ	-7542
▁plant	-7543
▁nature	-7544
▁594	-7545
angel	-7546
estra	-7547
▁benj	-7548
▁kara	-7549
▁exchange	-7550
▁evolution	-7551
120	-7552
▁vp	-7553
stra	-7554
▁566	-7555
▁754	-7556
▁998	-7557
▁1435	-7558
▁1711	-7559
▁orch	-7560
▁whit	-7561
▁sarah	-7562
▁gordon	-7563
▁wright	-7564
wd	-7565
usa	-7566
▁sdk	-7567
▁financ	-7568
▁between	-7569
▁freebsd	-7570
town	-7571
▁946	-7572
▁obe	-7573
▁sle	-7574
▁tet	-7575
▁1656	-7576
▁3800	-7577
▁gray	-7578
▁must	-7579
▁canon	-7580
▁quest	-7581
▁scien	-7582
▁canada	-7583
▁opengl	-7584
aku	-7585
▁oz	-7586
▁ws	-7587
anch	-7588
more	-7589
▁827	-7590
▁cec	-7591
▁gaz	-7592
▁tru	-7593
▁url	-7594
▁wol	-7595
point	-7596
▁benn	-7597
▁demo	-7598
▁jpeg	-7599
▁sevent	-7600
▁samsung	-7601
rov	-7602
aten	-7603
▁897	-7604
▁ein	-7605
▁ian	-7606
▁whe	-7607
▁morn	-7608
▁ober	-7609
▁prov	-7610
▁liber	-7611
aru	-7612
▁692	-7613
▁723	-7614
▁kun	-7615
overy	-7616
rence	-7617
▁1024	-7618
▁boot	-7619
▁root	-7620
▁jacques	-7621
▁partners	-7622
arc	-7623
idi	-7624
anne	-7625
▁ner	-7626
▁coco	-7627
▁audio	-7628
▁knight	-7629
▁lamigo	-7630
▁country	-7631
▁perfume	-7632
ulf	-7633
ilog	-7634
oker	-7635
stad	-7636
▁689	-7637
▁imm	-7638
▁syl	-7639
stone	-7640
▁1440	-7641
▁1512	-7642
▁1606	-7643
▁cert	-7644
▁incl	-7645
▁repr	-7646
▁change	-7647
▁1668	-7648
▁bomb	-7649
▁ocean	-7650
▁hunter	-7651
gio	-7652
▁898	-7653
▁913	-7654
▁rol	-7655
▁creek	-7656
▁would	-7657
▁before	-7658
▁search	-7659
▁spirit	-7660
▁president	-7661
nh	-7662
00%	-7663
adi	-7664
▁iw	-7665
▁771	-7666
ising	-7667
▁gaga	-7668
iation	-7669
▁malay	-7670
▁medic	-7671
atherine	-7672
▁alliance	-7673
▁806	-7674
▁881	-7675
▁922	-7676
▁nel	-7677
▁1508	-7678
▁factory	-7679
▁princess	-7680
▁conference	-7681
dn	-7682
104	-7683
hem	-7684
▁vf	-7685
▁xt	-7686
▁020	-7687
▁763	-7688
▁kor	-7689
▁nom	-7690
▁1702	-7691
▁beach	-7692
▁cloud	-7693
▁agency	-7694
phy	-7695
▁669	-7696
▁amb	-7697
▁hug	-7698
▁nem	-7699
▁earl	-7700
▁douglas	-7701
116	-7702
▁iz	-7703
▁855	-7704
▁987	-7705
▁ark	-7706
▁rece	-7707
▁wifi	-7708
▁beautiful	-7709
▁christmas	-7710
wig	-7711
▁ji	-7712
▁924	-7713
▁1546	-7714
▁1678	-7715
▁flow	-7716
▁nint	-7717
▁stay	-7718
▁brook	-7719
▁remix	-7720
▁noinclude	-7721
imi	-7722
▁hc	-7723
▁px	-7724
ador	-7725
▁462	-7726
▁score	-7727
▁administr	-7728
▁professional	-7729
ced	-7730
▁917	-7731
▁ibn	-7732
▁kot	-7733
▁1596	-7734
▁1719	-7735
chester	-7736
▁lambda	-7737
ju	-7738
▁lh	-7739
▁916	-7740
▁97%	-7741
▁1663	-7742
▁1703	-7743
▁host	-7744
▁spin	-7745
▁culture	-7746
▁benjamin	-7747
75%	-7748
bis	-7749
▁iu	-7750
▁uv	-7751
▁xy	-7752
ards	-7753
ules	-7754
▁732	-7755
▁842	-7756
▁plc	-7757
▁shu	-7758
▁1552	-7759
▁idol	-7760
▁mast	-7761
iah	-7762
▁bn	-7763
bird	-7764
omer	-7765
▁592	-7766
▁744	-7767
▁pon	-7768
eless	-7769
▁1451	-7770
▁turn	-7771
▁wars	-7772
▁lumia	-7773
▁moore	-7774
▁kp	-7775
▁vc	-7776
▁784	-7777
▁hir	-7778
▁1464	-7779
▁skype	-7780
▁valve	-7781
123	-7782
▁sj	-7783
▁apm	-7784
▁jak	-7785
ample	-7786
▁1277	-7787
▁books	-7788
▁shinee	-7789
hn	-7790
01%	-7791
fort	-7792
othy	-7793
riel	-7794
▁697	-7795
▁acg	-7796
▁bib	-7797
▁cub	-7798
▁oem	-7799
▁billy	-7800
▁henri	-7801
▁blackp	-7802
rs	-7803
uka	-7804
▁703	-7805
▁739	-7806
▁776	-7807
▁788	-7808
▁803	-7809
▁honey	-7810
▁still	-7811
edd	-7812
iph	-7813
▁gy	-7814
isch	-7815
▁809	-7816
▁843	-7817
▁882	-7818
▁904	-7819
▁amx	-7820
rison	-7821
▁brothers	-7822
▁electric	-7823
▁transform	-7824
▁nn	-7825
▁pav	-7826
▁1510	-7827
▁ford	-7828
▁youth	-7829
▁display	-7830
▁uf	-7831
▁1705	-7832
▁gill	-7833
▁them	-7834
▁wise	-7835
▁wanna	-7836
▁advent	-7837
▁oliver	-7838
▁environment	-7839
bw	-7840
33%	-7841
▁hz	-7842
▁967	-7843
▁981	-7844
▁988	-7845
▁acp	-7846
▁iup	-7847
▁sit	-7848
inton	-7849
▁1330	-7850
▁1499	-7851
▁1682	-7852
▁cris	-7853
▁gust	-7854
▁such	-7855
▁trin	-7856
▁moment	-7857
▁without	-7858
▁jonathan	-7859
dh	-7860
03%	-7861
emy	-7862
▁749	-7863
▁781	-7864
▁dut	-7865
▁gui	-7866
▁gym	-7867
▁1276	-7868
▁1746	-7869
▁grow	-7870
▁user	-7871
▁premier	-7872
mum	-7873
▁766	-7874
▁795	-7875
▁848	-7876
▁dod	-7877
ibili	-7878
▁1506	-7879
▁child	-7880
▁constr	-7881
▁distrib	-7882
▁kingdom	-7883
102	-7884
rah	-7885
band	-7886
iler	-7887
ired	-7888
izon	-7889
otte	-7890
▁783	-7891
▁833	-7892
▁952	-7893
▁lon	-7894
▁1445	-7895
▁1472	-7896
▁mate	-7897
▁publish	-7898
▁creative	-7899
▁memorial	-7900
omi	-7901
oux	-7902
▁ej	-7903
▁797	-7904
▁alc	-7905
▁ipa	-7906
▁psv	-7907
▁1040	-7908
▁franz	-7909
▁psych	-7910
▁trade	-7911
▁powers	-7912
▁bernard	-7913
14%	-7914
96%	-7915
cus	-7916
emb	-7917
pal	-7918
feld	-7919
▁679	-7920
▁836	-7921
▁bird	-7922
▁april	-7923
▁freedom	-7924
▁nintendo	-7925
▁together	-7926
▁691	-7927
▁gig	-7928
▁ips	-7929
▁seg	-7930
▁born	-7931
▁soph	-7932
▁heaven	-7933
▁russell	-7934
▁bilibili	-7935
▁sciences	-7936
▁southern	-7937
150	-7938
lass	-7939
▁coh	-7940
▁emb	-7941
▁tib	-7942
aceae	-7943
▁1070	-7944
▁1549	-7945
▁pixel	-7946
▁crystal	-7947
▁technolog	-7948
sy	-7949
08%	-7950
▁lf	-7951
▁004	-7952
▁829	-7953
▁837	-7954
▁866	-7955
▁1066	-7956
▁8500	-7957
▁iron	-7958
▁appro	-7959
▁hydro	-7960
▁minor	-7961
▁sigma	-7962
▁washington	-7963
▁fw	-7964
▁aba	-7965
▁1516	-7966
▁1691	-7967
▁requ	-7968
▁solid	-7969
ability	-7970
▁proble	-7971
▁diamond	-7972
190	-7973
▁bw	-7974
▁591	-7975
▁663	-7976
▁734	-7977
▁fed	-7978
▁1390	-7979
▁1696	-7980
▁vari	-7981
▁total	-7982
▁morning	-7983
▁universit	-7984
oft	-7985
olar	-7986
▁631	-7987
▁849	-7988
▁899	-7989
▁1010	-7990
▁1376	-7991
▁1385	-7992
▁1554	-7993
▁1557	-7994
▁1704	-7995
▁buff	-7996
▁jtbc	-7997
▁mong	-7998
▁used	-7999
▁smile	-8000
▁twice	-8001
▁spacex	-8002
hl	-8003
aha	-8004
bes	-8005
nik	-8006
▁jb	-8007
▁672	-8008
▁743	-8009
▁neg	-8010
antis	-8011
ittor	-8012
osoph	-8013
▁1270	-8014
▁4800	-8015
▁hamilton	-8016
aba	-8017
lard	-8018
onda	-8019
▁961	-8020
▁adm	-8021
▁saw	-8022
eller	-8023
▁1513	-8024
▁1608	-8025
▁nike	-8026
▁select	-8027
05%	-8028
15%	-8029
▁fig	-8030
▁1340	-8031
▁1528	-8032
▁1534	-8033
▁daily	-8034
▁municip	-8035
▁present	-8036
su	-8037
125	-8038
abe	-8039
omp	-8040
▁fb	-8041
▁zu	-8042
omet	-8043
▁002	-8044
▁844	-8045
▁rif	-8046
▁1275	-8047
▁1382	-8048
▁1686	-8049
▁bond	-8050
▁sang	-8051
▁scot	-8052
▁shot	-8053
▁quant	-8054
▁analysis	-8055
▁intellig	-8056
▁virginia	-8057
13%	-8058
▁vm	-8059
▁yo	-8060
▁665	-8061
▁752	-8062
▁792	-8063
▁944	-8064
▁1420	-8065
▁2050	-8066
▁chic	-8067
▁snap	-8068
ession	-8069
▁graham	-8070
▁mother	-8071
ru	-8072
04%	-8073
95%	-8074
▁ei	-8075
▁807	-8076
▁878	-8077
▁889	-8078
▁909	-8079
▁982	-8080
▁dll	-8081
▁gim	-8082
▁1320	-8083
▁1594	-8084
▁berg	-8085
▁coff	-8086
▁mile	-8087
▁cooper	-8088
▁movement	-8089
▁blackpink	-8090
106	-8091
99%	-8092
hol	-8093
▁tz	-8094
ario	-8095
▁778	-8096
▁867	-8097
▁868	-8098
▁lex	-8099
▁mul	-8100
▁spy	-8101
▁tin	-8102
▁1125	-8103
▁1543	-8104
▁3700	-8105
▁bish	-8106
▁study	-8107
▁ground	-8108
▁thunder	-8109
▁messenger	-8110
▁nb	-8111
▁693	-8112
▁851	-8113
▁kec	-8114
▁nts	-8115
▁1415	-8116
▁1480	-8117
▁grace	-8118
▁lovel	-8119
▁margaret	-8120
▁financial	-8121
▁performan	-8122
121	-8123
▁814	-8124
▁864	-8125
▁cbe	-8126
▁gur	-8127
illon	-8128
▁1030	-8129
▁1278	-8130
▁1548	-8131
▁vice	-8132
▁charl	-8133
px	-8134
amo	-8135
jan	-8136
kir	-8137
▁ue	-8138
▁664	-8139
▁677	-8140
▁862	-8141
▁bod	-8142
▁oak	-8143
▁1692	-8144
▁1694	-8145
▁1716	-8146
▁thor	-8147
▁trad	-8148
▁della	-8149
▁velvet	-8150
▁giovanni	-8151
▁vb	-8152
▁xc	-8153
▁883	-8154
▁943	-8155
▁dub	-8156
▁hid	-8157
▁rio	-8158
▁1011	-8159
▁1533	-8160
▁dean	-8161
▁stock	-8162
▁charlie	-8163
▁lawrence	-8164
▁productions	-8165
wr	-8166
aron	-8167
▁tma	-8168
▁1442	-8169
▁abdul	-8170
▁thompson	-8171
32%	-8172
hai	-8173
▁wy	-8174
▁030	-8175
▁rex	-8176
▁wow	-8177
▁lane	-8178
▁tommy	-8179
▁justice	-8180
27%	-8181
▁wn	-8182
ende	-8183
▁23%	-8184
▁dsm	-8185
anche	-8186
▁teen	-8187
▁later	-8188
▁application	-8189
67%	-8190
▁874	-8191
▁agr	-8192
ience	-8193
lines	-8194
▁1240	-8195
▁crit	-8196
▁candy	-8197
▁worms	-8198
▁steven	-8199
▁material	-8200
11%	-8201
ema	-8202
▁782	-8203
▁lux	-8204
▁ntt	-8205
▁pir	-8206
▁rgb	-8207
▁rid	-8208
cloud	-8209
▁1695	-8210
▁trax	-8211
hedral	-8212
▁guide	-8213
▁phill	-8214
▁police	-8215
oko	-8216
brid	-8217
▁779	-8218
▁799	-8219
lands	-8220
▁1170	-8221
▁1743	-8222
▁belie	-8223
▁coast	-8224
▁value	-8225
▁french	-8226
▁jordan	-8227
▁deutsch	-8228
23%	-8229
hib	-8230
kar	-8231
zza	-8232
eron	-8233
ocus	-8234
▁673	-8235
▁852	-8236
color	-8237
▁1190	-8238
▁1404	-8239
▁destiny	-8240
16%	-8241
emi	-8242
rat	-8243
▁694	-8244
▁956	-8245
▁amc	-8246
▁bam	-8247
▁1279	-8248
▁1433	-8249
▁cann	-8250
▁ming	-8251
ything	-8252
▁justin	-8253
06%	-8254
pin	-8255
ser	-8256
▁eh	-8257
ting	-8258
▁why	-8259
▁1515	-8260
▁brig	-8261
▁care	-8262
▁give	-8263
▁iata	-8264
▁origin	-8265
▁england	-8266
▁running	-8267
▁broadcast	-8268
17%	-8269
85%	-8270
▁22%	-8271
▁aks	-8272
▁eag	-8273
▁1708	-8274
▁mack	-8275
▁sncf	-8276
▁milit	-8277
▁factor	-8278
▁sainte	-8279
▁references	-8280
▁tk	-8281
▁671	-8282
▁977	-8283
▁typ	-8284
▁1234	-8285
▁1360	-8286
▁away	-8287
▁both	-8288
▁exec	-8289
▁pure	-8290
▁baron	-8291
▁bobby	-8292
vention	-8293
▁doctor	-8294
▁technologies	-8295
wc	-8296
07%	-8297
22%	-8298
▁891	-8299
▁aps	-8300
▁cov	-8301
▁rig	-8302
▁ifpi	-8303
▁keep	-8304
▁mang	-8305
▁nine	-8306
▁tolk	-8307
▁chung	-8308
▁staff	-8309
▁primary	-8310
eda	-8311
iae	-8312
bank	-8313
mont	-8314
room	-8315
▁949	-8316
▁bmg	-8317
▁kil	-8318
▁lay	-8319
▁mys	-8320
owski	-8321
▁4200	-8322
▁chun	-8323
▁40000	-8324
▁scient	-8325
▁century	-8326
▁australia	-8327
▁promotion	-8328
111	-8329
ring	-8330
▁cow	-8331
▁pau	-8332
▁rip	-8333
▁1403	-8334
▁1677	-8335
▁cafe	-8336
▁symph	-8337
▁harris	-8338
▁connect	-8339
▁gabriel	-8340
▁performance	-8341
18%	-8342
203	-8343
21%	-8344
24%	-8345
asi	-8346
mod	-8347
▁753	-8348
▁794	-8349
▁972	-8350
▁bra	-8351
▁jen	-8352
▁upd	-8353
▁veh	-8354
ledge	-8355
▁1392	-8356
▁1470	-8357
▁3400	-8358
▁prod	-8359
▁terr	-8360
▁tiger	-8361
▁legacy	-8362
▁travel	-8363
▁rainbow	-8364
▁northern	-8365
900	-8366
alo	-8367
aps	-8368
iod	-8369
uer	-8370
▁012	-8371
▁958	-8372
▁993	-8373
▁haz	-8374
▁jin	-8375
▁duke	-8376
▁hunt	-8377
▁pick	-8378
▁jerry	-8379
▁columb	-8380
▁robinson	-8381
12%	-8382
98%	-8383
▁24%	-8384
▁841	-8385
▁sib	-8386
shire	-8387
▁less	-8388
▁tolkien	-8389
▁electronic	-8390
82%	-8391
lag	-8392
▁gg	-8393
▁804	-8394
▁959	-8395
▁hob	-8396
▁jew	-8397
▁yan	-8398
▁dram	-8399
▁ping	-8400
▁craig	-8401
▁metrop	-8402
▁norman	-8403
▁provid	-8404
▁rights	-8405
▁private	-8406
kan	-8407
▁dz	-8408
▁jd	-8409
alle	-8410
▁877	-8411
▁906	-8412
▁cem	-8413
▁own	-8414
▁1204	-8415
▁event	-8416
▁holly	-8417
▁reich	-8418
▁theod	-8419
▁philosoph	-8420
ku	-8421
117	-8422
aca	-8423
avi	-8424
osis	-8425
▁869	-8426
▁983	-8427
▁1539	-8428
▁1693	-8429
▁oliv	-8430
friend	-8431
▁prize	-8432
▁scheme	-8433
▁federation	-8434
ben	-8435
ante	-8436
side	-8437
▁654	-8438
▁nut	-8439
▁1551	-8440
▁echo	-8441
▁iupac	-8442
▁korea	-8443
▁yoshiki	-8444
35%	-8445
58%	-8446
▁hb	-8447
ilia	-8448
tion	-8449
▁080	-8450
▁892	-8451
▁942	-8452
▁dag	-8453
▁1135	-8454
▁cyber	-8455
▁dennis	-8456
▁observ	-8457
▁palazzo	-8458
108	-8459
42%	-8460
tha	-8461
iles	-8462
▁kaw	-8463
▁lav	-8464
▁tec	-8465
▁tls	-8466
▁utf	-8467
▁1020	-8468
▁2900	-8469
▁hend	-8470
▁wish	-8471
▁third	-8472
kv	-8473
yon	-8474
▁ctv	-8475
▁cum	-8476
▁nes	-8477
▁arab	-8478
▁clos	-8479
▁extra	-8480
▁multi	-8481
▁multip	-8482
ythm	-8483
▁894	-8484
▁atv	-8485
▁dei	-8486
▁nag	-8487
▁1129	-8488
▁1140	-8489
▁pret	-8490
▁sata	-8491
▁yang	-8492
▁drama	-8493
▁sense	-8494
▁sugar	-8495
▁today	-8496
▁flower	-8497
▁shadow	-8498
▁million	-8499
▁cathedral	-8500
illo	-8501
▁052	-8502
▁764	-8503
▁769	-8504
▁lif	-8505
▁vvv	-8506
▁wir	-8507
▁1206	-8508
▁1388	-8509
▁fine	-8510
▁leop	-8511
▁shaw	-8512
▁grant	-8513
▁campbell	-8514
115	-8515
ahl	-8516
cer	-8517
▁789	-8518
▁831	-8519
▁992	-8520
▁fib	-8521
▁raf	-8522
▁tes	-8523
▁corp	-8524
▁glad	-8525
▁grey	-8526
▁otto	-8527
▁50000	-8528
▁brain	-8529
▁check	-8530
▁clear	-8531
▁swing	-8532
▁thing	-8533
▁gallery	-8534
▁release	-8535
▁gf	-8536
rain	-8537
▁834	-8538
▁xen	-8539
▁1120	-8540
▁1406	-8541
▁calc	-8542
▁meet	-8543
▁sever	-8544
▁artist	-8545
▁gogoro	-8546
▁normal	-8547
▁kenneth	-8548
▁animation	-8549
olla	-8550
▁010	-8551
▁21%	-8552
▁mud	-8553
▁tol	-8554
▁vpn	-8555
eline	-8556
▁june	-8557
▁jung	-8558
▁luis	-8559
▁much	-8560
▁maker	-8561
▁nexus	-8562
▁beauty	-8563
▁hudson	-8564
▁aircraft	-8565
19%	-8566
53%	-8567
anta	-8568
▁015	-8569
▁963	-8570
▁nim	-8571
▁sod	-8572
▁1138	-8573
▁1295	-8574
▁1413	-8575
▁3100	-8576
▁retrie	-8577
▁return	-8578
▁concept	-8579
37%	-8580
65%	-8581
orum	-8582
▁674	-8583
▁932	-8584
▁991	-8585
▁amu	-8586
osaur	-8587
▁1356	-8588
▁1407	-8589
▁bull	-8590
▁cover	-8591
▁shoot	-8592
▁powerpc	-8593
50%	-8594
86%	-8595
ava	-8596
ede	-8597
oen	-8598
▁ey	-8599
▁qf	-8600
▁27%	-8601
▁1375	-8602
▁1448	-8603
▁1671	-8604
▁1706	-8605
▁null	-8606
▁phen	-8607
script	-8608
▁basil	-8609
▁gmail	-8610
▁flying	-8611
▁training	-8612
38%	-8613
bat	-8614
▁jur	-8615
▁ole	-8616
▁buck	-8617
▁drop	-8618
▁chall	-8619
▁while	-8620
rh	-8621
226	-8622
29%	-8623
360	-8624
acc	-8625
rus	-8626
reen	-8627
▁931	-8628
▁kaz	-8629
oller	-8630
▁1067	-8631
▁1328	-8632
▁cmos	-8633
▁half	-8634
▁motion	-8635
▁oracle	-8636
▁heinrich	-8637
▁lovelive	-8638
▁discovery	-8639
77%	-8640
sta	-8641
lock	-8642
▁954	-8643
▁fra	-8644
▁isp	-8645
▁1439	-8646
▁1498	-8647
▁excel	-8648
▁india	-8649
▁rapper	-8650
122	-8651
30%	-8652
66%	-8653
97%	-8654
boy	-8655
▁ov	-8656
mund	-8657
▁858	-8658
▁ich	-8659
▁saab	-8660
▁circle	-8661
28%	-8662
40%	-8663
oku	-8664
ader	-8665
idea	-8666
igen	-8667
▁26%	-8668
▁bis	-8669
▁koh	-8670
▁yak	-8671
ended	-8672
▁1225	-8673
▁sept	-8674
▁sohc	-8675
stream	-8676
▁chrom	-8677
▁guard	-8678
▁liter	-8679
▁element	-8680
▁railway	-8681
wo	-8682
386	-8683
49%	-8684
mit	-8685
▁rk	-8686
ilis	-8687
▁ads	-8688
▁raj	-8689
ality	-8690
▁1509	-8691
▁bent	-8692
▁tong	-8693
▁pocket	-8694
▁rockstar	-8695
126	-8696
34%	-8697
36%	-8698
41%	-8699
▁lz	-8700
▁nx	-8701
vert	-8702
▁aid	-8703
▁1215	-8704
▁1425	-8705
▁ansi	-8706
▁kath	-8707
amatan	-8708
ipedia	-8709
▁early	-8710
▁ernest	-8711
▁includ	-8712
bb	-8713
54%	-8714
eca	-8715
edo	-8716
lec	-8717
pie	-8718
base	-8719
itar	-8720
▁sip	-8721
▁vie	-8722
▁hang	-8723
▁anime	-8724
▁hybrid	-8725
▁kecamatan	-8726
48%	-8727
92%	-8728
ska	-8729
1911	-8730
iste	-8731
iven	-8732
▁791	-8733
▁941	-8734
▁atc	-8735
▁fia	-8736
▁ome	-8737
▁arms	-8738
▁ship	-8739
▁faith	-8740
▁keith	-8741
▁senior	-8742
dl	-8743
26%	-8744
44%	-8745
46%	-8746
52%	-8747
57%	-8748
aza	-8749
ping	-8750
▁016	-8751
▁28%	-8752
▁872	-8753
▁893	-8754
▁cot	-8755
▁ecl	-8756
▁1364	-8757
▁find	-8758
▁quar	-8759
▁domin	-8760
▁emule	-8761
▁protoc	-8762
▁structure	-8763
39%	-8764
47%	-8765
iza	-8766
▁yf	-8767
char	-8768
etic	-8769
▁774	-8770
▁974	-8771
▁ana	-8772
▁clo	-8773
▁jst	-8774
▁roc	-8775
shine	-8776
▁1214	-8777
▁1421	-8778
▁gith	-8779
▁crist	-8780
▁instr	-8781
▁suite	-8782
▁magnet	-8783
zj	-8784
uli	-8785
▁kj	-8786
▁afi	-8787
▁udp	-8788
▁1488	-8789
▁1504	-8790
▁horn	-8791
▁ultr	-8792
▁wool	-8793
▁kitty	-8794
▁woman	-8795
▁animax	-8796
202	-8797
87%	-8798
93%	-8799
ail	-8800
irus	-8801
▁772	-8802
▁832	-8803
▁854	-8804
ished	-8805
▁dise	-8806
▁chief	-8807
▁colon	-8808
▁crazy	-8809
▁manga	-8810
▁ralph	-8811
▁stein	-8812
▁github	-8813
gp	-8814
ads	-8815
▁013	-8816
▁984	-8817
▁ran	-8818
▁tum	-8819
▁1290	-8820
▁1412	-8821
▁1698	-8822
▁grande	-8823
▁nathan	-8824
▁character	-8825
81%	-8826
alt	-8827
jet	-8828
oki	-8829
ango	-8830
wiki	-8831
▁989	-8832
▁1501	-8833
▁bund	-8834
▁site	-8835
ecraft	-8836
▁chand	-8837
▁shang	-8838
▁vogue	-8839
▁bgcolor	-8840
▁example	-8841
▁economic	-8842
69%	-8843
aux	-8844
▁zn	-8845
▁42%	-8846
▁spl	-8847
▁visa	-8848
▁param	-8849
▁berlin	-8850
▁stream	-8851
▁annivers	-8852
56%	-8853
kit	-8854
▁vh	-8855
aser	-8856
fish	-8857
▁003	-8858
▁040	-8859
▁jis	-8860
▁tee	-8861
▁tir	-8862
▁wer	-8863
▁1060	-8864
▁gain	-8865
▁ivan	-8866
▁sult	-8867
▁barry	-8868
▁beast	-8869
▁prest	-8870
▁around	-8871
▁compet	-8872
▁region	-8873
ei	-8874
62%	-8875
70%	-8876
▁rw	-8877
0000	-8878
▁964	-8879
▁fav	-8880
▁pie	-8881
▁1409	-8882
▁1494	-8883
▁init	-8884
▁ntfs	-8885
▁simple	-8886
▁continu	-8887
▁raymond	-8888
▁vincent	-8889
59%	-8890
mel	-8891
▁fg	-8892
esta	-8893
▁884	-8894
▁ela	-8895
▁1110	-8896
▁appe	-8897
▁logic	-8898
▁stewart	-8899
hy	-8900
20%	-8901
43%	-8902
owa	-8903
tek	-8904
▁966	-8905
▁duc	-8906
▁sis	-8907
▁1399	-8908
▁1531	-8909
▁many	-8910
▁rush	-8911
▁sonic	-8912
▁empire	-8913
▁lucasarts	-8914
lr	-8915
45%	-8916
▁070	-8917
▁96%	-8918
▁aux	-8919
▁1185	-8920
▁1394	-8921
▁risc	-8922
▁writ	-8923
▁melon	-8924
▁paper	-8925
▁suica	-8926
▁canton	-8927
▁strateg	-8928
▁interface	-8929
249	-8930
68%	-8931
73%	-8932
ovi	-8933
▁lb	-8934
chin	-8935
eler	-8936
▁879	-8937
▁ens	-8938
▁sco	-8939
▁sti	-8940
▁1507	-8941
▁imdb	-8942
▁node	-8943
▁signal	-8944
▁anniversary	-8945
55%	-8946
79%	-8947
fun	-8948
ket	-8949
▁tx	-8950
enti	-8951
unch	-8952
▁ces	-8953
▁ktv	-8954
▁maz	-8955
▁tow	-8956
ances	-8957
▁1219	-8958
▁1518	-8959
▁kamp	-8960
▁salv	-8961
▁aggre	-8962
▁marine	-8963
▁strong	-8964
▁fortran	-8965
▁stanley	-8966
71%	-8967
ipse	-8968
king	-8969
▁rer	-8970
▁heav	-8971
▁vern	-8972
▁canad	-8973
▁crown	-8974
▁marcus	-8975
▁mechan	-8976
31%	-8977
mul	-8978
▁dg	-8979
ises	-8980
▁006	-8981
▁953	-8982
▁ade	-8983
▁gap	-8984
▁ptt	-8985
▁pub	-8986
▁vas	-8987
▁epis	-8988
▁icao	-8989
▁jazz	-8990
▁baker	-8991
▁shock	-8992
▁winner	-8993
▁yourself	-8994
▁seventeen	-8995
aci	-8996
imes	-8997
nell	-8998
▁853	-8999
▁bae	-9000
▁bog	-9001
▁ssl	-9002
▁tau	-9003
ighter	-9004
▁captain	-9005
▁architecture	-9006
84%	-9007
iola	-9008
▁060	-9009
▁873	-9010
▁lod	-9011
▁tob	-9012
▁wim	-9013
▁xxx	-9014
▁1449	-9015
▁wake	-9016
▁alive	-9017
▁ernst	-9018
▁joint	-9019
▁titan	-9020
▁solution	-9021
94%	-9022
nar	-9023
▁hh	-9024
plus	-9025
▁lia	-9026
▁psr	-9027
▁rah	-9028
▁rus	-9029
▁1137	-9030
▁1160	-9031
▁1424	-9032
▁1438	-9033
▁draw	-9034
▁myster	-9035
▁nelson	-9036
▁repres	-9037
▁islands	-9038
231	-9039
89%	-9040
etti	-9041
▁793	-9042
▁kas	-9043
▁mta	-9044
▁umb	-9045
▁1387	-9046
▁1495	-9047
▁bapt	-9048
▁hide	-9049
▁soho	-9050
▁phase	-9051
112	-9052
76%	-9053
eco	-9054
oka	-9055
▁ui	-9056
ever	-9057
▁csm	-9058
▁pep	-9059
▁sns	-9060
inary	-9061
kreis	-9062
opter	-9063
▁rule	-9064
▁sold	-9065
▁sung	-9066
▁hills	-9067
▁smack	-9068
itation	-9069
09%	-9070
63%	-9071
78%	-9072
88%	-9073
▁qr	-9074
ares	-9075
lich	-9076
▁36%	-9077
▁amy	-9078
▁nab	-9079
▁pid	-9080
uring	-9081
▁1086	-9082
▁1224	-9083
▁holy	-9084
▁rate	-9085
▁complete	-9086
ls	-9087
▁856	-9088
▁857	-9089
▁jab	-9090
▁nog	-9091
▁sph	-9092
▁too	-9093
▁ufc	-9094
▁1115	-9095
▁gren	-9096
▁race	-9097
▁roth	-9098
▁trna	-9099
▁forum	-9100
▁butter	-9101
▁professor	-9102
▁communications	-9103
51%	-9104
60%	-9105
isy	-9106
sten	-9107
▁19%	-9108
▁994	-9109
▁wto	-9110
▁1155	-9111
▁1471	-9112
▁emba	-9113
▁heat	-9114
▁films	-9115
80%	-9116
bal	-9117
gel	-9118
shop	-9119
▁gmb	-9120
enson	-9121
▁1476	-9122
▁chal	-9123
▁pand	-9124
▁tard	-9125
▁dreams	-9126
▁retrieved	-9127
129	-9128
72%	-9129
khz	-9130
orp	-9131
pos	-9132
aman	-9133
ived	-9134
▁773	-9135
▁ats	-9136
▁cbc	-9137
▁hil	-9138
▁hut	-9139
▁sul	-9140
▁try	-9141
▁vik	-9142
▁1503	-9143
▁lite	-9144
▁range	-9145
▁bishop	-9146
▁alphago	-9147
▁industrial	-9148
yu	-9149
iya	-9150
kes	-9151
elin	-9152
ourt	-9153
▁43%	-9154
▁859	-9155
▁hed	-9156
▁len	-9157
▁mlb	-9158
▁pom	-9159
▁1265	-9160
▁1274	-9161
▁noth	-9162
▁shel	-9163
▁vill	-9164
▁terry	-9165
▁matrix	-9166
▁conserv	-9167
▁federal	-9168
▁herbert	-9169
▁graphics	-9170
▁sunshine	-9171
64%	-9172
rac	-9173
set	-9174
asha	-9175
fire	-9176
olas	-9177
▁051	-9178
▁aeg	-9179
▁nhl	-9180
▁sbl	-9181
▁sse	-9182
uther	-9183
▁1213	-9184
▁cust	-9185
▁tact	-9186
▁tank	-9187
▁larry	-9188
▁laura	-9189
▁pedro	-9190
118	-9191
bol	-9192
amer	-9193
aste	-9194
news	-9195
orus	-9196
▁gly	-9197
▁mrs	-9198
▁sos	-9199
▁cord	-9200
▁dawn	-9201
▁dong	-9202
▁always	-9203
▁sister	-9204
▁independent	-9205
204	-9206
▁aub	-9207
▁coc	-9208
▁1367	-9209
▁1402	-9210
▁1428	-9211
▁1465	-9212
▁each	-9213
▁prix	-9214
▁solaris	-9215
arn	-9216
ims	-9217
▁32%	-9218
▁kos	-9219
▁unc	-9220
▁wit	-9221
▁5200	-9222
▁hung	-9223
▁nato	-9224
▁pant	-9225
▁toul	-9226
▁genie	-9227
▁griff	-9228
▁thank	-9229
▁chiang	-9230
▁gangan	-9231
▁gregory	-9232
ittorrent	-9233
▁greatest	-9234
▁represent	-9235
233	-9236
sia	-9237
▁aes	-9238
▁dot	-9239
▁ssd	-9240
▁tig	-9241
▁1374	-9242
▁1497	-9243
▁4700	-9244
▁bure	-9245
▁size	-9246
▁bloom	-9247
▁rhythm	-9248
aj	-9249
83%	-9250
etz	-9251
lac	-9252
▁jc	-9253
ased	-9254
▁871	-9255
▁abu	-9256
▁agm	-9257
▁unt	-9258
▁utr	-9259
▁1075	-9260
▁1217	-9261
▁1397	-9262
▁cele	-9263
▁cosm	-9264
▁flag	-9265
▁safari	-9266
▁chicago	-9267
▁ultimate	-9268
124	-9269
ahn	-9270
pat	-9271
pet	-9272
uil	-9273
ades	-9274
dale	-9275
link	-9276
▁44%	-9277
▁1410	-9278
▁help	-9279
▁mysql	-9280
▁macbook	-9281
▁manager	-9282
▁transit	-9283
▁students	-9284
▁communication	-9285
10%	-9286
61%	-9287
ono	-9288
ined	-9289
wich	-9290
▁38%	-9291
▁1122	-9292
▁1187	-9293
▁1211	-9294
▁insp	-9295
▁same	-9296
▁11000	-9297
▁opens	-9298
▁altern	-9299
▁content	-9300
307	-9301
74%	-9302
▁kf	-9303
▁025	-9304
▁itu	-9305
▁nct	-9306
ields	-9307
opsis	-9308
▁gmbh	-9309
▁loop	-9310
▁pled	-9311
▁schm	-9312
▁monte	-9313
▁route	-9314
▁morgan	-9315
▁theater	-9316
▁smackdown	-9317
ugg	-9318
▁bk	-9319
card	-9320
enet	-9321
▁dsi	-9322
▁lap	-9323
▁roh	-9324
ovich	-9325
▁1429	-9326
▁datab	-9327
▁helen	-9328
▁innov	-9329
▁assist	-9330
▁carter	-9331
▁amazing	-9332
▁eclipse	-9333
▁evangel	-9334
▁genesis	-9335
▁include	-9336
▁medicine	-9337
136	-9338
gun	-9339
auer	-9340
enge	-9341
▁hus	-9342
▁mck	-9343
▁wes	-9344
▁1085	-9345
▁1210	-9346
▁1227	-9347
▁grou	-9348
▁ikon	-9349
▁kala	-9350
▁lanc	-9351
▁peak	-9352
▁rise	-9353
▁price	-9354
▁cultural	-9355
▁progress	-9356
▁minecraft	-9357
205	-9358
305	-9359
aby	-9360
chu	-9361
nic	-9362
▁xv	-9363
izen	-9364
▁cru	-9365
▁dab	-9366
▁deg	-9367
▁eur	-9368
▁gir	-9369
▁1016	-9370
▁1025	-9371
▁1189	-9372
▁1241	-9373
▁1358	-9374
▁conso	-9375
▁friday	-9376
▁indian	-9377
▁sultan	-9378
▁vector	-9379
▁warren	-9380
▁eastern	-9381
▁municipal	-9382
▁organization	-9383
262	-9384
apa	-9385
flow	-9386
izer	-9387
onne	-9388
▁rin	-9389
▁1208	-9390
▁bear	-9391
▁gian	-9392
▁lotus	-9393
▁spark	-9394
▁truth	-9395
▁lovely	-9396
▁airlines	-9397
▁learning	-9398
▁minister	-9399
iu	-9400
▁rl	-9401
mers	-9402
▁eld	-9403
▁kum	-9404
▁llc	-9405
▁llo	-9406
▁ott	-9407
▁sov	-9408
▁1161	-9409
▁1285	-9410
▁1455	-9411
▁dipl	-9412
▁gonz	-9413
▁kink	-9414
▁spac	-9415
▁stev	-9416
▁fusion	-9417
▁ludwig	-9418
▁someth	-9419
▁wz	-9420
wald	-9421
▁cox	-9422
▁lig	-9423
▁nfc	-9424
▁wwf	-9425
ingen	-9426
ought	-9427
▁1405	-9428
▁clay	-9429
ration	-9430
▁devil	-9431
▁laugh	-9432
▁during	-9433
▁xd	-9434
alia	-9435
come	-9436
ober	-9437
▁ntv	-9438
▁pew	-9439
ensen	-9440
▁1095	-9441
▁1235	-9442
▁bust	-9443
▁ment	-9444
▁move	-9445
▁neil	-9446
▁13000	-9447
▁birth	-9448
▁estate	-9449
▁leonard	-9450
▁congress	-9451
▁bittorrent	-9452
opa	-9453
uta	-9454
▁rv	-9455
type	-9456
▁053	-9457
▁alm	-9458
umont	-9459
▁1162	-9460
▁1253	-9461
▁1381	-9462
▁1456	-9463
▁4300	-9464
▁bott	-9465
▁flat	-9466
▁stem	-9467
▁wasp	-9468
▁cheng	-9469
▁shift	-9470
▁theor	-9471
▁oxford	-9472
▁pledis	-9473
▁myspace	-9474
▁cinemasc	-9475
▁nicholas	-9476
▁wikipedia	-9477
bel	-9478
etf	-9479
ppm	-9480
▁iq	-9481
ichi	-9482
olin	-9483
onna	-9484
▁054	-9485
▁kla	-9486
▁suz	-9487
▁1236	-9488
▁1333	-9489
ieu	-9490
iot	-9491
osc	-9492
edes	-9493
▁47%	-9494
▁52%	-9495
▁bee	-9496
▁cgi	-9497
▁hou	-9498
▁nds	-9499
▁1119	-9500
▁1418	-9501
▁1477	-9502
▁bahn	-9503
▁cnbc	-9504
▁rodr	-9505
▁vert	-9506
▁focus	-9507
▁oscar	-9508
▁letter	-9509
rik	-9510
▁jh	-9511
enda	-9512
vest	-9513
▁drm	-9514
▁ion	-9515
iform	-9516
stand	-9517
▁1044	-9518
▁1218	-9519
▁1351	-9520
▁flex	-9521
▁glass	-9522
002	-9523
roy	-9524
uve	-9525
anus	-9526
look	-9527
▁aac	-9528
▁elf	-9529
▁flu	-9530
▁lag	-9531
▁suv	-9532
▁woo	-9533
▁1099	-9534
▁1123	-9535
▁1126	-9536
▁1157	-9537
▁1271	-9538
▁1355	-9539
▁1396	-9540
▁fash	-9541
▁danny	-9542
▁better	-9543
▁disney	-9544
▁domain	-9545
▁palace	-9546
▁foreign	-9547
▁vehicle	-9548
▁document	-9549
iev	-9550
▁hf	-9551
▁tj	-9552
ager	-9553
issa	-9554
ivan	-9555
▁017	-9556
▁34%	-9557
▁gan	-9558
▁pdp	-9559
▁1153	-9560
▁1258	-9561
▁1266	-9562
▁1373	-9563
▁caen	-9564
▁mala	-9565
▁orth	-9566
▁sean	-9567
olitan	-9568
▁affair	-9569
▁claude	-9570
▁height	-9571
▁victory	-9572
▁platform	-9573
▁transfer	-9574
195	-9575
▁jf	-9576
▁sx	-9577
▁zo	-9578
▁ard	-9579
▁bai	-9580
▁dee	-9581
▁gob	-9582
▁ngo	-9583
▁ore	-9584
▁vil	-9585
▁xii	-9586
▁1004	-9587
▁1372	-9588
▁cherry	-9589
▁comics	-9590
▁constit	-9591
▁allmusic	-9592
▁investment	-9593
114	-9594
izz	-9595
blue	-9596
▁46%	-9597
▁861	-9598
▁buk	-9599
▁nod	-9600
▁rum	-9601
orton	-9602
▁1128	-9603
▁1216	-9604
▁1257	-9605
▁expo	-9606
▁gaud	-9607
▁viet	-9608
▁wait	-9609
▁blues	-9610
▁intro	-9611
▁kings	-9612
▁choice	-9613
▁fellow	-9614
▁australian	-9615
vd	-9616
tes	-9617
____	-9618
elia	-9619
pler	-9620
▁92%	-9621
▁aus	-9622
▁cfm	-9623
▁ddg	-9624
▁fuj	-9625
▁nou	-9626
▁raz	-9627
▁vog	-9628
▁1018	-9629
▁1485	-9630
▁joey	-9631
▁kirk	-9632
▁anders	-9633
▁piazza	-9634
▁valent	-9635
▁protocol	-9636
▁different	-9637
enu	-9638
▁090	-9639
▁eco	-9640
▁eif	-9641
▁ftp	-9642
▁hin	-9643
▁mpa	-9644
▁sdr	-9645
ivity	-9646
▁1198	-9647
▁1391	-9648
▁1427	-9649
▁1482	-9650
▁vall	-9651
▁chies	-9652
▁gross	-9653
▁thumb	-9654
▁melody	-9655
▁jessica	-9656
▁openoffice	-9657
wi	-9658
via	-9659
▁xb	-9660
anco	-9661
etal	-9662
ieux	-9663
ipop	-9664
itas	-9665
olia	-9666
vais	-9667
▁48%	-9668
▁riv	-9669
▁ups	-9670
▁wrc	-9671
▁1111	-9672
▁1116	-9673
▁1398	-9674
▁1419	-9675
▁kern	-9676
▁teach	-9677
▁adrian	-9678
▁assemb	-9679
▁coffee	-9680
▁temper	-9681
▁update	-9682
▁believe	-9683
▁protein	-9684
▁marshall	-9685
▁aggregate	-9686
▁francesco	-9687
cal	-9688
kov	-9689
pen	-9690
▁gk	-9691
▁qe	-9692
etch	-9693
gins	-9694
idas	-9695
iden	-9696
itis	-9697
omon	-9698
text	-9699
▁lit	-9700
▁voc	-9701
uchus	-9702
▁1139	-9703
▁1229	-9704
▁brav	-9705
▁extr	-9706
▁fung	-9707
▁large	-9708
▁nancy	-9709
▁serge	-9710
▁morris	-9711
▁safety	-9712
▁current	-9713
▁episode	-9714
▁gamerank	-9715
▁universe	-9716
lem	-9717
arin	-9718
ilus	-9719
last	-9720
roph	-9721
▁29%	-9722
▁lob	-9723
ength	-9724
▁1002	-9725
▁4400	-9726
▁tiff	-9727
▁16000	-9728
▁evans	-9729
▁fleet	-9730
▁susan	-9731
▁rogers	-9732
▁defense	-9733
▁gamerankings	-9734
ams	-9735
▁zf	-9736
cent	-9737
ress	-9738
▁005	-9739
▁ald	-9740
▁csi	-9741
▁phd	-9742
▁1076	-9743
▁1282	-9744
▁1365	-9745
▁1408	-9746
▁elle	-9747
▁iptv	-9748
▁nano	-9749
▁rosa	-9750
▁aaron	-9751
▁chain	-9752
▁eddie	-9753
▁virus	-9754
duction	-9755
▁boulev	-9756
▁landkreis	-9757
eli	-9758
pad	-9759
raf	-9760
yll	-9761
isen	-9762
jang	-9763
▁37%	-9764
▁53%	-9765
▁bmp	-9766
▁1071	-9767
▁1297	-9768
▁parl	-9769
▁rrna	-9770
▁verd	-9771
▁vvvf	-9772
ternal	-9773
▁eagle	-9774
▁krist	-9775
▁share	-9776
▁venus	-9777
▁chiesa	-9778
▁cinema	-9779
▁lantis	-9780
▁symbian	-9781
▁constant	-9782
▁something	-9783
▁cinemascore	-9784
ez	-9785
bye	-9786
the	-9787
asis	-9788
igny	-9789
iman	-9790
iral	-9791
▁gcc	-9792
▁rpm	-9793
▁tsa	-9794
▁tsh	-9795
stadt	-9796
▁1167	-9797
▁1192	-9798
▁1287	-9799
▁1389	-9800
▁1395	-9801
▁avbw	-9802
▁burn	-9803
▁late	-9804
▁sist	-9805
▁berry	-9806
▁chick	-9807
▁maxim	-9808
▁infinite	-9809
135	-9810
250	-9811
▁fh	-9812
erse	-9813
imir	-9814
rise	-9815
▁spa	-9816
▁wiz	-9817
▁1072	-9818
▁1283	-9819
▁1362	-9820
▁guid	-9821
berger	-9822
▁driver	-9823
▁policy	-9824
yg	-9825
kee	-9826
uced	-9827
▁ced	-9828
▁jum	-9829
▁kok	-9830
▁syd	-9831
▁vre	-9832
▁wav	-9833
▁zim	-9834
water	-9835
▁1195	-9836
▁1329	-9837
▁1348	-9838
▁1414	-9839
▁1467	-9840
▁1468	-9841
▁rein	-9842
▁vlad	-9843
▁austin	-9844
▁bright	-9845
▁bureau	-9846
▁georges	-9847
▁frontier	-9848
▁military	-9849
▁distribution	-9850
rup	-9851
▁ih	-9852
▁frs	-9853
▁pam	-9854
▁uci	-9855
▁1221	-9856
▁1377	-9857
▁1436	-9858
▁ebay	-9859
▁elli	-9860
▁para	-9861
▁rout	-9862
▁18000	-9863
▁beats	-9864
▁belle	-9865
▁initi	-9866
▁pract	-9867
▁syndr	-9868
▁harold	-9869
▁higher	-9870
▁member	-9871
▁parker	-9872
▁rachel	-9873
▁philipp	-9874
▁ericsson	-9875
▁boulevard	-9876
apur	-9877
outh	-9878
▁ada	-9879
▁naz	-9880
▁1131	-9881
▁1207	-9882
▁1252	-9883
▁dome	-9884
▁rang	-9885
▁succ	-9886
▁emacs	-9887
▁react	-9888
▁argent	-9889
▁athlon	-9890
▁barbara	-9891
▁official	-9892
isi	-9893
lace	-9894
walk	-9895
▁cbd	-9896
▁dak	-9897
▁dft	-9898
▁duo	-9899
▁gau	-9900
▁nur	-9901
▁pda	-9902
▁1048	-9903
▁1118	-9904
▁1141	-9905
▁1147	-9906
▁cort	-9907
▁drum	-9908
▁rome	-9909
enburg	-9910
itions	-9911
▁colin	-9912
▁crypt	-9913
▁julia	-9914
▁squad	-9915
▁steel	-9916
▁mirror	-9917
▁fashion	-9918
▁paradise	-9919
▁orchestra	-9920
005	-9921
128	-9922
175	-9923
90%	-9924
bas	-9925
lap	-9926
body	-9927
▁dic	-9928
▁kem	-9929
▁mcg	-9930
▁pri	-9931
utive	-9932
▁1156	-9933
▁cyan	-9934
▁feed	-9935
▁maxi	-9936
▁near	-9937
▁canal	-9938
▁kkbox	-9939
ibility	-9940
itional	-9941
▁shanghai	-9942
vm	-9943
▁ln	-9944
ardi	-9945
arth	-9946
▁pcr	-9947
▁ppm	-9948
▁sic	-9949
▁vod	-9950
▁1073	-9951
▁1281	-9952
▁boom	-9953
▁dock	-9954
▁kang	-9955
▁wend	-9956
▁adams	-9957
▁could	-9958
▁diction	-9959
▁disease	-9960
▁personal	-9961
▁reaction	-9962
▁hollywood	-9963
▁technical	-9964
phi	-9965
html	-9966
road	-9967
▁56%	-9968
▁fad	-9969
andal	-9970
▁1035	-9971
▁1183	-9972
▁1259	-9973
▁1378	-9974
▁4600	-9975
▁beca	-9976
▁hash	-9977
▁hdmi	-9978
▁ietf	-9979
▁momo	-9980
▁nerv	-9981
▁montb	-9982
▁relig	-9983
▁swift	-9984
▁synth	-9985
▁regional	-9986
yx	-9987
hop	-9988
uts	-9989
agan	-9990
rell	-9991
▁72%	-9992
▁emd	-9993
▁era	-9994
▁laz	-9995
▁snk	-9996
▁1324	-9997
▁1386	-9998
▁chel	-9999
▁loll	-10000
▁mine	-10001
▁poss	-10002
▁trig	-10003
▁wald	-10004
diepie	-10005
▁alone	-10006
▁amiga	-10007
▁course	-10008
▁murray	-10009
▁syndrome	-10010
nn	-10011
orpg	-10012
ucci	-10013
▁018	-10014
▁afl	-10015
▁ars	-10016
▁cet	-10017
▁dio	-10018
▁mev	-10019
▁uri	-10020
etime	-10021
▁1175	-10022
▁1286	-10023
▁1307	-10024
▁1322	-10025
▁mers	-10026
▁karen	-10027
▁phoen	-10028
▁because	-10029
▁japanese	-10030
▁pewdiepie	-10031
▁reference	-10032
uh	-10033
vs	-10034
yc	-10035
91%	-10036
uba	-10037
atar	-10038
othe	-10039
▁67%	-10040
▁job	-10041
▁wah	-10042
layer	-10043
▁1264	-10044
▁1284	-10045
▁1411	-10046
▁1461	-10047
▁bala	-10048
▁curt	-10049
▁emil	-10050
▁pred	-10051
former	-10052
▁close	-10053
▁layer	-10054
▁print	-10055
▁things	-10056
217	-10057
agh	-10058
ikh	-10059
lee	-10060
sea	-10061
▁011	-10062
▁86%	-10063
▁eid	-10064
▁fnc	-10065
▁nos	-10066
▁rak	-10067
orrow	-10068
▁1142	-10069
▁1363	-10070
▁1483	-10071
▁carn	-10072
▁surv	-10073
elling	-10074
▁alexa	-10075
▁perry	-10076
▁animal	-10077
▁danger	-10078
▁newton	-10079
abad	-10080
asse	-10081
aton	-10082
inum	-10083
▁alp	-10084
▁hap	-10085
gamer	-10086
onkey	-10087
▁1005	-10088
▁1019	-10089
▁1346	-10090
▁1416	-10091
▁mono	-10092
▁upper	-10093
▁mmorpg	-10094
▁simula	-10095
▁director	-10096
▁convention	-10097
▁everything	-10098
abi	-10099
kel	-10100
ving	-10101
▁57%	-10102
▁bgm	-10103
▁dbc	-10104
▁geo	-10105
▁mim	-10106
▁pbs	-10107
▁tac	-10108
track	-10109
▁1143	-10110
▁1314	-10111
▁2026	-10112
▁alto	-10113
▁hipp	-10114
▁mans	-10115
ective	-10116
▁cctld	-10117
▁klein	-10118
▁lloyd	-10119
▁singh	-10120
▁varia	-10121
▁import	-10122
▁miguel	-10123
▁database	-10124
127	-10125
agn	-10126
ivo	-10127
lia	-10128
low	-10129
▁nj	-10130
▁009	-10131
▁bio	-10132
▁gtk	-10133
▁pok	-10134
▁ssh	-10135
▁sut	-10136
▁1054	-10137
▁1176	-10138
▁1226	-10139
▁1256	-10140
▁1336	-10141
▁1357	-10142
▁1417	-10143
▁danc	-10144
▁dial	-10145
▁male	-10146
▁mama	-10147
▁said	-10148
▁sara	-10149
▁macau	-10150
▁racing	-10151
▁turner	-10152
▁gilbert	-10153
▁liberty	-10154
▁trinity	-10155
tb	-10156
bot	-10157
rys	-10158
uru	-10159
▁fk	-10160
▁wb	-10161
▁93%	-10162
▁gba	-10163
▁jor	-10164
▁lai	-10165
▁lyc	-10166
▁sax	-10167
▁1194	-10168
▁1238	-10169
▁1248	-10170
▁1484	-10171
▁apec	-10172
▁leed	-10173
▁mean	-10174
▁nand	-10175
▁twin	-10176
ources	-10177
▁arnold	-10178
▁console	-10179
▁hermann	-10180
amoo	-10181
enne	-10182
erve	-10183
etto	-10184
ffic	-10185
ibus	-10186
ires	-10187
ovan	-10188
▁ask	-10189
▁ets	-10190
▁wei	-10191
andro	-10192
icket	-10193
▁1049	-10194
▁1228	-10195
▁1327	-10196
▁igbt	-10197
▁mario	-10198
▁medal	-10199
▁camera	-10200
▁fisher	-10201
▁african	-10202
▁maurice	-10203
▁secretary	-10204
207	-10205
aign	-10206
▁065	-10207
▁58%	-10208
▁gav	-10209
▁hog	-10210
▁ipo	-10211
chell	-10212
icult	-10213
▁1096	-10214
▁1097	-10215
▁1191	-10216
▁1196	-10217
▁1205	-10218
▁1325	-10219
▁1437	-10220
▁crow	-10221
▁ella	-10222
▁seba	-10223
uation	-10224
▁agent	-10225
▁fresh	-10226
▁lucky	-10227
▁astron	-10228
▁ireland	-10229
▁working	-10230
▁administration	-10231
cep	-10232
eto	-10233
▁apt	-10234
▁bye	-10235
▁kak	-10236
▁oil	-10237
ships	-10238
where	-10239
▁1441	-10240
▁hood	-10241
▁hour	-10242
▁vick	-10243
▁wide	-10244
▁14000	-10245
▁ready	-10246
▁manuel	-10247
▁reddit	-10248
▁account	-10249
▁chamber	-10250
▁dynamic	-10251
▁imperial	-10252
131	-10253
onse	-10254
▁66%	-10255
▁94%	-10256
▁eun	-10257
▁muk	-10258
▁pfa	-10259
▁vid	-10260
▁vul	-10261
istan	-10262
▁1008	-10263
▁1124	-10264
▁1223	-10265
▁1486	-10266
▁lons	-10267
▁mann	-10268
▁webs	-10269
▁going	-10270
▁stefan	-10271
▁georgia	-10272
▁nations	-10273
▁nuclear	-10274
▁sunrise	-10275
▁tournam	-10276
▁columbia	-10277
▁tomorrow	-10278
omys	-10279
onex	-10280
otic	-10281
▁abl	-10282
▁cvt	-10283
▁jag	-10284
▁smg	-10285
ually	-10286
vince	-10287
▁1013	-10288
▁1121	-10289
▁1231	-10290
▁aver	-10291
▁exid	-10292
▁uber	-10293
▁cells	-10294
▁sales	-10295
borough	-10296
▁illust	-10297
▁should	-10298
▁volume	-10299
▁photosh	-10300
eni	-10301
umn	-10302
zan	-10303
▁jj	-10304
ised	-10305
loss	-10306
▁048	-10307
▁88%	-10308
▁kra	-10309
▁pig	-10310
▁1078	-10311
▁1232	-10312
▁chat	-10313
▁mint	-10314
▁riaa	-10315
▁sans	-10316
▁trop	-10317
▁ucla	-10318
▁glory	-10319
▁libre	-10320
▁photo	-10321
▁pride	-10322
formula	-10323
▁compos	-10324
icularia	-10325
▁problem	-10326
206	-10327
del	-10328
ilt	-10329
aris	-10330
burn	-10331
ffer	-10332
quer	-10333
▁dry	-10334
▁emm	-10335
▁gol	-10336
▁nir	-10337
▁rhe	-10338
▁1037	-10339
▁1042	-10340
▁1246	-10341
▁1291	-10342
▁1337	-10343
▁1347	-10344
▁1443	-10345
▁5600	-10346
▁6600	-10347
▁aiko	-10348
▁barc	-10349
▁buzz	-10350
▁isis	-10351
▁trim	-10352
▁atlas	-10353
▁title	-10354
▁celebr	-10355
▁device	-10356
▁compact	-10357
▁counter	-10358
▁tonight	-10359
▁infinity	-10360
▁physical	-10361
▁showtime	-10362
▁authority	-10363
▁photoshop	-10364
▁selection	-10365
aly	-10366
apy	-10367
edi	-10368
ampa	-10369
away	-10370
gang	-10371
iche	-10372
iley	-10373
▁41%	-10374
▁87%	-10375
▁ata	-10376
▁dop	-10377
▁gis	-10378
▁hak	-10379
▁irc	-10380
▁kop	-10381
▁nah	-10382
▁oss	-10383
▁1065	-10384
▁1366	-10385
▁1444	-10386
▁1473	-10387
▁agre	-10388
▁beck	-10389
▁piet	-10390
▁sier	-10391
urance	-10392
▁cemet	-10393
▁commod	-10394
▁jeremy	-10395
▁highway	-10396
▁canadian	-10397
eme	-10398
anti	-10399
▁epr	-10400
▁fcc	-10401
▁hex	-10402
▁wai	-10403
▁1017	-10404
▁1034	-10405
▁1107	-10406
▁1117	-10407
▁1308	-10408
▁luke	-10409
▁weap	-10410
▁wine	-10411
istics	-10412
▁cable	-10413
▁jalan	-10414
▁sandy	-10415
▁period	-10416
▁watson	-10417
▁catholic	-10418
▁philippe	-10419
▁province	-10420
▁catherine	-10421
hot	-10422
mah	-10423
roc	-10424
duct	-10425
▁63%	-10426
▁dum	-10427
▁eso	-10428
▁eve	-10429
▁fus	-10430
▁kre	-10431
▁mee	-10432
▁pps	-10433
arian	-10434
▁1106	-10435
▁1233	-10436
▁1272	-10437
▁1335	-10438
▁peng	-10439
▁chron	-10440
▁quart	-10441
▁sleep	-10442
▁words	-10443
▁please	-10444
▁stuart	-10445
▁article	-10446
▁nothing	-10447
▁schools	-10448
▁cemetery	-10449
cia	-10450
esp	-10451
oga	-10452
▁mj	-10453
▁oo	-10454
▁qb	-10455
cial	-10456
esse	-10457
load	-10458
utes	-10459
▁31%	-10460
▁fen	-10461
graph	-10462
▁1014	-10463
▁1015	-10464
▁1242	-10465
▁1261	-10466
▁bald	-10467
▁fuck	-10468
▁bound	-10469
▁elite	-10470
▁stern	-10471
▁brother	-10472
▁outlook	-10473
▁lollipop	-10474
▁utricularia	-10475
mut	-10476
uen	-10477
acon	-10478
born	-10479
isse	-10480
quin	-10481
rypt	-10482
wall	-10483
▁82%	-10484
▁dro	-10485
▁gue	-10486
▁khz	-10487
▁1055	-10488
▁1158	-10489
▁1323	-10490
▁1352	-10491
▁5400	-10492
▁attr	-10493
▁cold	-10494
▁fell	-10495
▁liqu	-10496
▁nest	-10497
▁sull	-10498
▁geoff	-10499
▁posix	-10500
▁shall	-10501
▁therm	-10502
▁bullet	-10503
▁making	-10504
▁tardis	-10505
▁fighter	-10506
▁forward	-10507
▁profile	-10508
▁fernando	-10509
▁political	-10510
119	-10511
321	-10512
dal	-10513
lyn	-10514
▁vy	-10515
ecca	-10516
▁039	-10517
▁39%	-10518
▁hod	-10519
▁liu	-10520
▁lol	-10521
▁nde	-10522
▁ord	-10523
▁1134	-10524
▁1148	-10525
▁1294	-10526
▁1422	-10527
▁dyna	-10528
▁isab	-10529
▁mick	-10530
▁save	-10531
▁claud	-10532
▁heavy	-10533
▁label	-10534
▁sorry	-10535
▁extreme	-10536
▁challenge	-10537
263	-10538
idt	-10539
▁vk	-10540
cell	-10541
wave	-10542
▁022	-10543
▁gtp	-10544
▁0001	-10545
▁1101	-10546
▁lily	-10547
▁circus	-10548
▁encore	-10549
▁gaudens	-10550
▁chemical	-10551
▁industry	-10552
▁charlotte	-10553
gt	-10554
151	-10555
ocy	-10556
web	-10557
▁jk	-10558
isan	-10559
▁84%	-10560
▁89%	-10561
▁dvb	-10562
▁gdi	-10563
▁icc	-10564
▁ioc	-10565
▁psi	-10566
▁tah	-10567
▁1132	-10568
▁1171	-10569
▁1359	-10570
▁1452	-10571
▁5300	-10572
▁cern	-10573
▁dell	-10574
▁doll	-10575
▁duck	-10576
▁gius	-10577
▁guer	-10578
▁sala	-10579
ensive	-10580
▁capit	-10581
▁frequ	-10582
▁plate	-10583
▁unity	-10584
▁cortex	-10585
▁inside	-10586
▁borough	-10587
▁collect	-10588
▁russian	-10589
▁toulouse	-10590
▁following	-10591
▁construction	-10592
004	-10593
▁ao	-10594
▁gj	-10595
akes	-10596
▁093	-10597
▁afc	-10598
▁gad	-10599
▁hib	-10600
▁rsa	-10601
▁1163	-10602
▁1345	-10603
▁aero	-10604
▁barn	-10605
▁lucy	-10606
▁once	-10607
donald	-10608
▁atenu	-10609
▁carlo	-10610
▁muham	-10611
▁navig	-10612
▁sword	-10613
▁xhtml	-10614
starter	-10615
▁ronald	-10616
▁collins	-10617
▁message	-10618
▁atlantic	-10619
nt	-10620
aur	-10621
aye	-10622
hof	-10623
oly	-10624
unk	-10625
van	-10626
▁ngt	-10627
▁thy	-10628
▁yet	-10629
etype	-10630
▁1027	-10631
▁1056	-10632
▁1103	-10633
▁1114	-10634
▁1146	-10635
▁1267	-10636
▁1303	-10637
▁1313	-10638
▁1474	-10639
▁2040	-10640
▁beam	-10641
▁fans	-10642
▁kate	-10643
manuel	-10644
▁liner	-10645
▁sharp	-10646
▁julius	-10647
▁phoenix	-10648
▁spotify	-10649
▁mitchell	-10650
▁postscript	-10651
neo	-10652
▁ij	-10653
mill	-10654
▁024	-10655
▁pab	-10656
▁png	-10657
▁pvc	-10658
▁pyr	-10659
▁rup	-10660
▁1326	-10661
▁anto	-10662
▁corn	-10663
▁hass	-10664
▁trou	-10665
▁islam	-10666
▁filter	-10667
▁quarter	-10668
▁dictionary	-10669
▁protection	-10670
▁tournament	-10671
jun	-10672
▁pj	-10673
cock	-10674
ingo	-10675
▁ate	-10676
▁ffe	-10677
▁myc	-10678
▁soh	-10679
anner	-10680
▁1045	-10681
▁1310	-10682
▁1426	-10683
▁1459	-10684
▁bush	-10685
▁clin	-10686
▁frag	-10687
▁gond	-10688
▁salt	-10689
▁chuck	-10690
▁giant	-10691
▁laser	-10692
▁lower	-10693
▁wagon	-10694
▁kirara	-10695
▁strike	-10696
▁vietnam	-10697
▁starship	-10698
▁kickstarter	-10699
mf	-10700
134	-10701
999	-10702
ady	-10703
des	-10704
zip	-10705
▁ari	-10706
▁jpg	-10707
▁nsa	-10708
▁sag	-10709
annon	-10710
encer	-10711
▁1273	-10712
▁1289	-10713
▁1462	-10714
▁rice	-10715
▁seas	-10716
▁month	-10717
▁contem	-10718
▁monkey	-10719
▁roberts	-10720
▁terminal	-10721
▁operations	-10722
▁publishing	-10723
180	-10724
319	-10725
api	-10726
epp	-10727
uke	-10728
▁xo	-10729
cycl	-10730
▁77%	-10731
▁dix	-10732
▁fps	-10733
▁nbl	-10734
▁scp	-10735
iving	-10736
▁0000	-10737
▁1090	-10738
▁1102	-10739
▁1255	-10740
▁3900	-10741
▁6400	-10742
▁6800	-10743
▁benz	-10744
▁foss	-10745
▁cohen	-10746
▁honor	-10747
▁lincol	-10748
▁rubber	-10749
▁student	-10750
▁supreme	-10751
▁cambridge	-10752
230	-10753
▁uu	-10754
rome	-10755
▁78%	-10756
▁gec	-10757
▁wag	-10758
istol	-10759
▁1006	-10760
▁1136	-10761
▁1434	-10762
▁bash	-10763
▁fitz	-10764
▁shan	-10765
▁mason	-10766
▁using	-10767
▁border	-10768
▁depend	-10769
▁target	-10770
▁goodbye	-10771
▁telecom	-10772
▁welcome	-10773
▁broadcasting	-10774
213	-10775
228	-10776
igi	-10777
▁lj	-10778
ames	-10779
▁019	-10780
▁aig	-10781
▁etf	-10782
▁gif	-10783
▁htm	-10784
▁sdn	-10785
▁ttc	-10786
illes	-10787
otype	-10788
▁1181	-10789
▁1311	-10790
▁1491	-10791
▁5800	-10792
▁7200	-10793
▁idea	-10794
▁lung	-10795
▁owen	-10796
▁clock	-10797
▁corre	-10798
▁felix	-10799
▁jesus	-10800
▁africa	-10801
▁paypal	-10802
▁lincoln	-10803
▁quality	-10804
▁quantum	-10805
▁campaign	-10806
▁johannes	-10807
▁objective	-10808
tt	-10809
007	-10810
220	-10811
450	-10812
fur	-10813
ibe	-10814
ija	-10815
nas	-10816
igne	-10817
talk	-10818
▁014	-10819
▁037	-10820
▁gto	-10821
▁sri	-10822
ected	-10823
onica	-10824
order	-10825
▁1077	-10826
▁1349	-10827
▁1463	-10828
▁1479	-10829
▁folk	-10830
▁pete	-10831
▁schw	-10832
▁ting	-10833
apping	-10834
ifying	-10835
▁ahmad	-10836
▁brave	-10837
▁error	-10838
▁petit	-10839
▁prada	-10840
▁since	-10841
▁sunny	-10842
▁tyler	-10843
▁campus	-10844
▁father	-10845
▁leslie	-10846
▁caroline	-10847
168	-10848
bey	-10849
gus	-10850
rim	-10851
tic	-10852
ared	-10853
▁067	-10854
▁62%	-10855
▁83%	-10856
▁lpl	-10857
▁tul	-10858
▁1081	-10859
▁1179	-10860
▁1202	-10861
▁1239	-10862
▁1247	-10863
▁1251	-10864
▁1263	-10865
▁1393	-10866
▁9600	-10867
▁hugo	-10868
▁kurt	-10869
▁niss	-10870
▁riot	-10871
▁term	-10872
▁joker	-10873
▁kabup	-10874
▁pitch	-10875
▁wings	-10876
▁ferdin	-10877
▁saturn	-10878
▁schwar	-10879
▁institution	-10880
dd	-10881
003	-10882
308	-10883
akh	-10884
bad	-10885
dan	-10886
opus	-10887
ouri	-10888
▁bub	-10889
▁haj	-10890
▁kee	-10891
▁mia	-10892
▁sof	-10893
ators	-10894
dress	-10895
▁1063	-10896
▁1144	-10897
▁1173	-10898
▁1177	-10899
▁bath	-10900
▁btob	-10901
▁chip	-10902
▁cogn	-10903
▁goes	-10904
▁json	-10905
▁jtwc	-10906
▁loss	-10907
▁trap	-10908
▁macro	-10909
▁notes	-10910
▁robot	-10911
▁arcade	-10912
▁spider	-10913
▁sydney	-10914
▁finance	-10915
▁kabupaten	-10916
▁knowledge	-10917
aldi	-10918
▁avc	-10919
▁crj	-10920
▁icd	-10921
▁imf	-10922
▁nay	-10923
▁oxy	-10924
▁zam	-10925
aries	-10926
burgh	-10927
▁1087	-10928
▁1094	-10929
▁1186	-10930
▁1209	-10931
▁1296	-10932
▁1431	-10933
▁1446	-10934
▁harm	-10935
▁cliff	-10936
▁emily	-10937
▁trail	-10938
▁bandar	-10939
▁forces	-10940
▁novell	-10941
▁random	-10942
▁however	-10943
▁networks	-10944
▁remember	-10945
▁executive	-10946
fb	-10947
229	-10948
aft	-10949
aii	-10950
erd	-10951
omm	-10952
city	-10953
enia	-10954
life	-10955
▁dra	-10956
▁fix	-10957
▁rss	-10958
▁vim	-10959
▁1012	-10960
▁1113	-10961
▁1165	-10962
▁1174	-10963
▁1237	-10964
▁bach	-10965
▁tung	-10966
▁corner	-10967
▁gaming	-10968
▁result	-10969
▁script	-10970
▁sebast	-10971
▁trance	-10972
▁musical	-10973
▁secondary	-10974
elt	-10975
gat	-10976
uin	-10977
ktop	-10978
teen	-10979
▁056	-10980
▁54%	-10981
▁ain	-10982
▁arp	-10983
▁egg	-10984
▁fai	-10985
▁lut	-10986
▁mbe	-10987
▁tic	-10988
▁yun	-10989
andra	-10990
itten	-10991
▁1028	-10992
▁1068	-10993
▁1152	-10994
▁1154	-10995
▁1203	-10996
▁1318	-10997
▁burg	-10998
▁drug	-10999
▁neut	-11000
▁reed	-11001
▁catch	-11002
▁corps	-11003
▁silva	-11004
▁cookie	-11005
▁eugene	-11006
▁screen	-11007
▁transp	-11008
▁waters	-11009
▁chapter	-11010
▁jennifer	-11011
130	-11012
bin	-11013
ffle	-11014
icks	-11015
lett	-11016
ores	-11017
▁085	-11018
▁baz	-11019
▁ppp	-11020
▁rie	-11021
▁1038	-11022
▁1145	-11023
▁1292	-11024
▁1341	-11025
▁1384	-11026
▁cala	-11027
▁mist	-11028
▁push	-11029
▁apoll	-11030
▁kinki	-11031
▁falcon	-11032
▁giusep	-11033
▁julian	-11034
▁allstar	-11035
▁laboratory	-11036
149	-11037
224	-11038
aks	-11039
jon	-11040
▁pz	-11041
anie	-11042
atti	-11043
quis	-11044
real	-11045
▁diy	-11046
▁gom	-11047
▁iau	-11048
▁jax	-11049
▁kus	-11050
▁phi	-11051
▁uni	-11052
ellar	-11053
forge	-11054
▁1069	-11055
▁1104	-11056
▁1112	-11057
▁1151	-11058
▁1309	-11059
▁bind	-11060
▁drag	-11061
▁gast	-11062
▁ligo	-11063
▁mant	-11064
▁mips	-11065
▁adult	-11066
▁known	-11067
▁survey	-11068
▁within	-11069
▁journey	-11070
▁beauvais	-11071
▁register	-11072
211	-11073
fet	-11074
aper	-11075
chat	-11076
enzo	-11077
step	-11078
▁kub	-11079
▁tcl	-11080
▁uhf	-11081
▁vac	-11082
▁1199	-11083
▁1268	-11084
▁1293	-11085
▁1447	-11086
▁1458	-11087
▁evan	-11088
▁phant	-11089
▁rapid	-11090
▁combat	-11091
▁fedora	-11092
▁models	-11093
▁singles	-11094
▁franklin	-11095
177	-11096
log	-11097
rem	-11098
▁vu	-11099
acht	-11100
anto	-11101
▁035	-11102
▁068	-11103
▁chs	-11104
▁cyt	-11105
▁lcc	-11106
▁peg	-11107
erner	-11108
inois	-11109
▁1009	-11110
▁1041	-11111
▁bast	-11112
▁boyz	-11113
▁cock	-11114
▁fear	-11115
▁isle	-11116
▁nice	-11117
▁ratp	-11118
▁ruth	-11119
▁task	-11120
▁array	-11121
▁elena	-11122
▁miles	-11123
▁warri	-11124
▁format	-11125
▁gerald	-11126
▁pretty	-11127
▁giuseppe	-11128
140	-11129
199	-11130
323	-11131
ovo	-11132
arat	-11133
▁kau	-11134
▁yui	-11135
frame	-11136
▁1003	-11137
▁1046	-11138
▁1133	-11139
▁1159	-11140
▁1301	-11141
▁beth	-11142
▁brid	-11143
▁emma	-11144
▁goth	-11145
▁hits	-11146
▁pale	-11147
▁latin	-11148
▁branch	-11149
▁gustav	-11150
▁treaty	-11151
▁commander	-11152
▁mountains	-11153
▁metropolitan	-11154
208	-11155
255	-11156
ucl	-11157
▁gx	-11158
▁rj	-11159
▁xa	-11160
▁zz	-11161
ento	-11162
▁044	-11163
▁apu	-11164
▁ned	-11165
▁1262	-11166
▁astr	-11167
▁bdsm	-11168
▁dame	-11169
▁july	-11170
▁omni	-11171
▁pcie	-11172
▁umts	-11173
▁coming	-11174
▁excell	-11175
▁shield	-11176
▁persona	-11177
▁assembly	-11178
▁deutsche	-11179
▁muhammad	-11180
▁straight	-11181
▁adventure	-11182
mt	-11183
np	-11184
286	-11185
non	-11186
uca	-11187
vor	-11188
▁008	-11189
▁cun	-11190
▁enh	-11191
▁fsa	-11192
▁lga	-11193
▁neu	-11194
▁rag	-11195
▁sne	-11196
okawa	-11197
▁1021	-11198
▁1047	-11199
▁1059	-11200
▁1254	-11201
▁1299	-11202
▁choc	-11203
▁fiba	-11204
▁poll	-11205
▁span	-11206
▁tenn	-11207
▁meyer	-11208
▁docomo	-11209
▁harvey	-11210
▁rocket	-11211
▁jeffrey	-11212
▁basilica	-11213
▁malaysia	-11214
hg	-11215
257	-11216
303	-11217
aea	-11218
irs	-11219
lus	-11220
▁68%	-11221
night	-11222
▁1023	-11223
▁1166	-11224
▁cape	-11225
▁disk	-11226
▁kung	-11227
▁aster	-11228
▁blade	-11229
▁heter	-11230
▁prism	-11231
▁snake	-11232
▁yonex	-11233
▁doremi	-11234
▁hammer	-11235
▁harper	-11236
▁louise	-11237
▁phenom	-11238
▁resist	-11239
▁interchange	-11240
pel	-11241
emon	-11242
essa	-11243
okie	-11244
▁faa	-11245
▁och	-11246
▁sep	-11247
child	-11248
rique	-11249
▁1033	-11250
▁1098	-11251
▁1344	-11252
▁bone	-11253
▁dian	-11254
▁hoch	-11255
▁pang	-11256
lement	-11257
▁ching	-11258
▁cream	-11259
▁nikola	-11260
▁mamamoo	-11261
vr	-11262
006	-11263
185	-11264
227	-11265
405	-11266
ako	-11267
icz	-11268
mor	-11269
inda	-11270
ishi	-11271
lain	-11272
tery	-11273
▁ado	-11274
▁cyp	-11275
▁rav	-11276
▁rey	-11277
▁uns	-11278
oides	-11279
▁1361	-11280
▁bugs	-11281
▁kiha	-11282
▁temu	-11283
▁johan	-11284
▁might	-11285
▁pearl	-11286
▁stack	-11287
▁joshua	-11288
▁coaster	-11289
▁extended	-11290
▁informer	-11291
▁programming	-11292
155	-11293
ilo	-11294
ault	-11295
olph	-11296
pers	-11297
uten	-11298
▁64%	-11299
▁aec	-11300
▁amg	-11301
▁cie	-11302
▁fol	-11303
▁gin	-11304
▁itf	-11305
▁jup	-11306
▁1182	-11307
▁1201	-11308
▁1302	-11309
▁chak	-11310
▁dart	-11311
▁mund	-11312
▁pump	-11313
▁swan	-11314
▁edwin	-11315
▁falls	-11316
▁quint	-11317
▁scale	-11318
▁carbon	-11319
▁electro	-11320
▁symphony	-11321
▁experience	-11322
737	-11323
zel	-11324
ieri	-11325
ults	-11326
urst	-11327
▁91%	-11328
▁cah	-11329
▁lak	-11330
▁tip	-11331
▁1032	-11332
▁1088	-11333
▁1184	-11334
▁1212	-11335
▁1288	-11336
▁even	-11337
▁above	-11338
▁eight	-11339
▁hanna	-11340
▁huang	-11341
▁polar	-11342
▁rifle	-11343
▁called	-11344
▁cornel	-11345
▁guitar	-11346
▁identity	-11347
▁kadokawa	-11348
▁commercial	-11349
133	-11350
137	-11351
160	-11352
▁oy	-11353
game	-11354
hood	-11355
▁acm	-11356
▁aoa	-11357
▁8859	-11358
▁bron	-11359
▁dies	-11360
▁erik	-11361
▁exit	-11362
ampton	-11363
▁custom	-11364
▁talent	-11365
▁license	-11366
▁reality	-11367
▁presents	-11368
▁agreement	-11369
▁computing	-11370
▁controller	-11371
orh	-11372
zon	-11373
▁hn	-11374
uate	-11375
▁yuk	-11376
itage	-11377
lable	-11378
▁1197	-11379
▁1315	-11380
▁farm	-11381
▁jade	-11382
▁sram	-11383
▁thir	-11384
▁wnba	-11385
▁35000	-11386
▁chaos	-11387
▁jesse	-11388
▁ridge	-11389
▁wayne	-11390
▁editor	-11391
▁nacional	-11392
▁commodore	-11393
eh	-11394
iao	-11395
leh	-11396
ungs	-11397
▁lau	-11398
▁wet	-11399
▁1149	-11400
▁glen	-11401
▁sett	-11402
▁avbwu	-11403
▁marco	-11404
▁andrea	-11405
▁foster	-11406
▁gibson	-11407
▁warner	-11408
▁holiday	-11409
▁kennedy	-11410
▁parliam	-11411
▁players	-11412
▁november	-11413
▁alternative	-11414
161	-11415
ibr	-11416
uga	-11417
ingu	-11418
ynch	-11419
▁81%	-11420
▁dad	-11421
▁dlp	-11422
▁tha	-11423
ansas	-11424
▁1083	-11425
▁1401	-11426
▁2035	-11427
▁ajax	-11428
▁gott	-11429
▁mari	-11430
▁saga	-11431
▁scsi	-11432
▁wins	-11433
▁bruno	-11434
▁diego	-11435
▁points	-11436
▁feature	-11437
▁fischer	-11438
▁olympic	-11439
▁rebecca	-11440
▁aviation	-11441
▁michelle	-11442
▁property	-11443
▁terminus	-11444
afe	-11445
iak	-11446
ici	-11447
ieg	-11448
▁jy	-11449
late	-11450
▁075	-11451
▁092	-11452
▁74%	-11453
▁apa	-11454
▁mri	-11455
▁nih	-11456
▁sob	-11457
aland	-11458
▁5700	-11459
▁amar	-11460
▁bard	-11461
▁dale	-11462
▁hind	-11463
▁hulu	-11464
▁iris	-11465
▁leaf	-11466
▁ride	-11467
▁sham	-11468
porary	-11469
▁atari	-11470
▁athlet	-11471
▁claire	-11472
▁groups	-11473
▁success	-11474
▁languages	-11475
▁industries	-11476
162	-11477
256	-11478
chy	-11479
obo	-11480
rel	-11481
avar	-11482
ayan	-11483
latz	-11484
wide	-11485
▁cyn	-11486
▁esa	-11487
▁gnz	-11488
▁xiv	-11489
mania	-11490
▁1039	-11491
▁1057	-11492
▁1093	-11493
▁1423	-11494
▁1489	-11495
▁copy	-11496
▁crim	-11497
▁dens	-11498
▁evil	-11499
▁pour	-11500
▁stro	-11501
▁todd	-11502
ermont	-11503
omorph	-11504
▁betty	-11505
▁incre	-11506
▁opent	-11507
▁strat	-11508
▁recept	-11509
▁carpent	-11510
▁scholar	-11511
▁baseball	-11512
▁parliament	-11513
159	-11514
218	-11515
222	-11516
inga	-11517
iper	-11518
▁066	-11519
▁cul	-11520
▁dup	-11521
▁ech	-11522
▁gul	-11523
▁gut	-11524
▁hmv	-11525
▁ict	-11526
▁ris	-11527
▁sae	-11528
▁sme	-11529
▁1108	-11530
▁1168	-11531
▁2029	-11532
▁5100	-11533
▁6300	-11534
▁bean	-11535
▁cout	-11536
▁else	-11537
▁homo	-11538
▁ller	-11539
▁nana	-11540
▁sexy	-11541
▁shap	-11542
▁skin	-11543
▁emerg	-11544
▁ninja	-11545
▁accord	-11546
▁basket	-11547
▁capcom	-11548
▁liquid	-11549
▁played	-11550
▁unesco	-11551
▁gfriend	-11552
▁lovelyz	-11553
▁stories	-11554
▁phillips	-11555
▁intelligence	-11556
iw	-11557
165	-11558
ecd	-11559
oce	-11560
ply	-11561
zig	-11562
arum	-11563
ding	-11564
mani	-11565
mart	-11566
otto	-11567
vard	-11568
▁028	-11569
▁cid	-11570
▁hik	-11571
▁1178	-11572
▁coup	-11573
▁elis	-11574
▁hook	-11575
▁intr	-11576
▁larg	-11577
▁wiss	-11578
▁zepp	-11579
anning	-11580
▁coach	-11581
▁rosen	-11582
▁sdram	-11583
▁wells	-11584
▁ladies	-11585
▁matter	-11586
▁clermont	-11587
▁products	-11588
qi	-11589
yi	-11590
169	-11591
ghz	-11592
had	-11593
nos	-11594
▁zi	-11595
3000	-11596
eria	-11597
este	-11598
iber	-11599
inet	-11600
rock	-11601
▁073	-11602
▁lok	-11603
▁mvc	-11604
▁pcm	-11605
▁tub	-11606
▁wen	-11607
break	-11608
icles	-11609
radio	-11610
▁2028	-11611
▁carc	-11612
▁maus	-11613
▁punk	-11614
▁upon	-11615
idence	-11616
▁stray	-11617
▁encycl	-11618
▁rabbit	-11619
▁render	-11620
▁sierra	-11621
▁laurent	-11622
▁meeting	-11623
▁paralle	-11624
▁roberto	-11625
▁sullivan	-11626
▁blackberry	-11627
138	-11628
166	-11629
188	-11630
197	-11631
503	-11632
bla	-11633
hen	-11634
opy	-11635
prs	-11636
uya	-11637
alli	-11638
wind	-11639
▁gmt	-11640
▁mbs	-11641
▁tid	-11642
▁1074	-11643
▁1331	-11644
▁1432	-11645
▁clim	-11646
▁edit	-11647
▁gone	-11648
▁viva	-11649
▁chase	-11650
▁josef	-11651
▁harmon	-11652
▁hearts	-11653
▁hughes	-11654
▁sistar	-11655
▁frances	-11656
▁september	-11657
139	-11658
esi	-11659
rab	-11660
ucc	-11661
▁lx	-11662
west	-11663
▁aol	-11664
▁ghq	-11665
▁lsd	-11666
▁mai	-11667
▁mph	-11668
▁sek	-11669
▁tyr	-11670
illus	-11671
▁1031	-11672
▁1312	-11673
▁1379	-11674
▁aria	-11675
▁luna	-11676
▁nadp	-11677
▁rare	-11678
▁tale	-11679
▁uefa	-11680
▁bible	-11681
▁craft	-11682
▁crime	-11683
▁piano	-11684
▁angela	-11685
▁linear	-11686
▁sexual	-11687
▁mystery	-11688
▁nicolas	-11689
▁spencer	-11690
▁timothy	-11691
▁approach	-11692
▁sequence	-11693
▁eurogamer	-11694
216	-11695
302	-11696
sty	-11697
pass	-11698
▁73%	-11699
▁amr	-11700
▁cdc	-11701
▁due	-11702
▁ecc	-11703
▁els	-11704
▁eps	-11705
▁fid	-11706
▁gat	-11707
▁gou	-11708
▁het	-11709
▁liz	-11710
▁mab	-11711
▁tus	-11712
▁1109	-11713
▁1193	-11714
▁1298	-11715
▁aids	-11716
▁does	-11717
▁goal	-11718
▁sinc	-11719
▁till	-11720
schaft	-11721
▁blake	-11722
▁horse	-11723
▁kanon	-11724
▁lover	-11725
▁molec	-11726
▁vmware	-11727
▁circuit	-11728
▁fiction	-11729
▁scientific	-11730
fi	-11731
oz	-11732
rc	-11733
156	-11734
404	-11735
sha	-11736
▁ew	-11737
aran	-11738
hold	-11739
kell	-11740
quet	-11741
▁029	-11742
▁038	-11743
▁csl	-11744
▁ged	-11745
▁orb	-11746
erton	-11747
▁1222	-11748
▁1339	-11749
▁craw	-11750
▁hern	-11751
▁safe	-11752
▁sogo	-11753
▁eidos	-11754
▁janet	-11755
▁compan	-11756
▁duncan	-11757
▁reason	-11758
▁resort	-11759
▁vorbis	-11760
▁angeles	-11761
▁paradox	-11762
▁popular	-11763
▁variable	-11764
164	-11765
215	-11766
456	-11767
486	-11768
603	-11769
iku	-11770
iso	-11771
▁hj	-11772
▁hw	-11773
enty	-11774
horn	-11775
uron	-11776
▁auf	-11777
▁mex	-11778
▁ont	-11779
▁rez	-11780
▁urs	-11781
▁ves	-11782
inter	-11783
▁1338	-11784
▁2047	-11785
▁grid	-11786
▁isra	-11787
▁cycle	-11788
▁demon	-11789
▁wrest	-11790
plement	-11791
▁reform	-11792
▁santos	-11793
▁cookies	-11794
▁rolling	-11795
▁academic	-11796
▁mercedes	-11797
▁economics	-11798
▁ferdinand	-11799
238	-11800
365	-11801
bee	-11802
gis	-11803
abil	-11804
atha	-11805
athy	-11806
cont	-11807
hill	-11808
mbps	-11809
orre	-11810
▁als	-11811
▁lec	-11812
▁vga	-11813
emann	-11814
odont	-11815
unier	-11816
▁dere	-11817
▁hear	-11818
▁icon	-11819
▁joel	-11820
▁load	-11821
▁bened	-11822
▁defin	-11823
▁naval	-11824
▁omega	-11825
▁porter	-11826
▁affairs	-11827
▁andreas	-11828
▁january	-11829
▁officer	-11830
▁investig	-11831
▁workshop	-11832
▁programme	-11833
132	-11834
331	-11835
jin	-11836
oor	-11837
uku	-11838
inos	-11839
ocer	-11840
▁dob	-11841
▁hdr	-11842
▁mao	-11843
▁noc	-11844
▁osi	-11845
▁1029	-11846
▁1079	-11847
▁amph	-11848
▁lich	-11849
▁opus	-11850
▁reve	-11851
▁blanc	-11852
▁destr	-11853
▁isaac	-11854
▁plane	-11855
▁adidas	-11856
▁create	-11857
▁nicola	-11858
▁pepper	-11859
▁postgr	-11860
▁admiral	-11861
▁masters	-11862
▁perform	-11863
▁subject	-11864
▁constitution	-11865
bt	-11866
192	-11867
arr	-11868
bie	-11869
gal	-11870
mud	-11871
arte	-11872
core	-11873
erie	-11874
ilar	-11875
iona	-11876
▁ais	-11877
▁boh	-11878
▁doi	-11879
▁loh	-11880
▁omn	-11881
▁sli	-11882
▁ust	-11883
chaft	-11884
▁6200	-11885
▁abra	-11886
▁hier	-11887
▁jake	-11888
▁raja	-11889
▁rena	-11890
▁blast	-11891
▁heath	-11892
▁those	-11893
▁cheung	-11894
▁kindle	-11895
▁thread	-11896
▁harrison	-11897
152	-11898
phe	-11899
uni	-11900
xxx	-11901
▁++	-11902
aldo	-11903
ases	-11904
ctic	-11905
iton	-11906
obar	-11907
▁099	-11908
▁lep	-11909
▁tox	-11910
anton	-11911
asaki	-11912
brain	-11913
lette	-11914
vania	-11915
▁1064	-11916
▁1169	-11917
▁1332	-11918
▁1343	-11919
▁infl	-11920
▁nied	-11921
▁pray	-11922
▁void	-11923
▁false	-11924
▁lance	-11925
▁leung	-11926
▁linda	-11927
▁pharm	-11928
▁nissan	-11929
▁sophie	-11930
▁string	-11931
▁verycd	-11932
▁illustr	-11933
▁october	-11934
146	-11935
157	-11936
▁hv	-11937
▁yi	-11938
endi	-11939
esia	-11940
onde	-11941
umer	-11942
wire	-11943
▁021	-11944
▁046	-11945
▁097	-11946
▁amo	-11947
▁sah	-11948
▁sau	-11949
▁shr	-11950
▁thi	-11951
▁1244	-11952
▁aaaa	-11953
▁khal	-11954
▁nipp	-11955
▁pard	-11956
▁xeon	-11957
▁ahmed	-11958
▁bella	-11959
▁gamma	-11960
▁noble	-11961
▁berger	-11962
ographic	-11963
standing	-11964
▁address	-11965
▁cartoon	-11966
▁dancing	-11967
▁gateway	-11968
▁weather	-11969
▁democratic	-11970
306	-11971
bul	-11972
say	-11973
arus	-11974
ivid	-11975
mura	-11976
zone	-11977
▁072	-11978
▁71%	-11979
▁dax	-11980
▁git	-11981
astic	-11982
rahim	-11983
shock	-11984
▁1243	-11985
▁2027	-11986
▁2048	-11987
▁caus	-11988
▁door	-11989
▁ntsb	-11990
▁ohio	-11991
▁oppo	-11992
▁swim	-11993
▁adolf	-11994
▁atlus	-11995
▁clean	-11996
▁marty	-11997
▁tales	-11998
▁teams	-11999
▁calvin	-12000
▁demand	-12001
▁female	-12002
▁glados	-12003
▁growth	-12004
▁impact	-12005
▁allison	-12006
▁antoine	-12007
▁borland	-12008
▁leaders	-12009
▁artsvision	-12010
hk	-12011
174	-12012
184	-12013
209	-12014
fla	-12015
run	-12016
iani	-12017
ipro	-12018
ithe	-12019
▁61%	-12020
▁agn	-12021
▁cim	-12022
▁iia	-12023
▁kod	-12024
▁ktm	-12025
▁pou	-12026
▁smo	-12027
drive	-12028
fried	-12029
ively	-12030
osaic	-12031
▁1022	-12032
▁1052	-12033
▁1092	-12034
▁1105	-12035
▁date	-12036
▁dust	-12037
▁fail	-12038
▁febr	-12039
▁golf	-12040
▁lect	-12041
▁sons	-12042
▁stur	-12043
▁among	-12044
▁cause	-12045
▁gamep	-12046
▁irish	-12047
▁angels	-12048
▁langon	-12049
▁holland	-12050
▁package	-12051
▁scandal	-12052
▁verilog	-12053
fm	-12054
509	-12055
emo	-12056
law	-12057
▁vx	-12058
▁xs	-12059
oire	-12060
rail	-12061
▁071	-12062
▁cep	-12063
▁dac	-12064
▁dow	-12065
▁pcb	-12066
▁sio	-12067
▁zet	-12068
▁zur	-12069
aguar	-12070
arium	-12071
ipper	-12072
known	-12073
▁1316	-12074
▁bene	-12075
▁bian	-12076
▁mash	-12077
▁teng	-12078
▁bonus	-12079
▁favor	-12080
▁hands	-12081
▁mills	-12082
▁stick	-12083
▁subst	-12084
▁boston	-12085
▁released	-12086
bh	-12087
009	-12088
145	-12089
189	-12090
304	-12091
370	-12092
lov	-12093
mos	-12094
ypt	-12095
▁jg	-12096
▁qw	-12097
eton	-12098
gers	-12099
▁023	-12100
▁078	-12101
▁76%	-12102
▁gel	-12103
▁hau	-12104
▁ong	-12105
▁pah	-12106
▁pax	-12107
▁pup	-12108
▁tav	-12109
▁tep	-12110
amine	-12111
▁1026	-12112
▁1188	-12113
▁1269	-12114
▁1306	-12115
▁fame	-12116
▁pula	-12117
▁rust	-12118
opedia	-12119
▁chess	-12120
▁julie	-12121
▁stard	-12122
▁psycho	-12123
▁contain	-12124
▁mercury	-12125
▁equation	-12126
▁missouri	-12127
▁oriental	-12128
▁treasure	-12129
▁frequency	-12130
pd	-12131
ffy	-12132
ged	-12133
udi	-12134
▁rz	-12135
▁vg	-12136
atis	-12137
uted	-12138
▁bau	-12139
▁jvc	-12140
▁rov	-12141
▁tut	-12142
▁vio	-12143
aling	-12144
verse	-12145
▁1304	-12146
▁1317	-12147
▁2758	-12148
▁bagn	-12149
▁fold	-12150
▁hast	-12151
▁hiro	-12152
▁hoff	-12153
▁kend	-12154
▁milk	-12155
▁click	-12156
▁sanct	-12157
▁scala	-12158
▁butler	-12159
▁lights	-12160
▁lonely	-12161
▁bennett	-12162
▁indiana	-12163
▁lisieux	-12164
▁illinois	-12165
▁relation	-12166
▁democracy	-12167
▁solutions	-12168
▁associates	-12169
▁historical	-12170
▁integrated	-12171
▁competition	-12172
▁championships	-12173
214	-12174
225	-12175
map	-12176
▁yy	-12177
ahan	-12178
ched	-12179
▁055	-12180
▁096	-12181
▁dhl	-12182
▁dvi	-12183
▁lub	-12184
▁sia	-12185
▁sys	-12186
▁1353	-12187
▁aber	-12188
▁brew	-12189
▁gior	-12190
▁send	-12191
▁tail	-12192
▁vend	-12193
▁zoom	-12194
▁fever	-12195
▁grass	-12196
▁thorn	-12197
▁trent	-12198
▁bleach	-12199
▁marvel	-12200
▁palais	-12201
▁bradley	-12202
▁haskell	-12203
▁horizon	-12204
▁openbsd	-12205
▁picture	-12206
▁spirits	-12207
▁thomson	-12208
▁december	-12209
▁railroad	-12210
▁vladimir	-12211
fy	-12212
170	-12213
242	-12214
254	-12215
nan	-12216
roe	-12217
▁mq	-12218
▁zb	-12219
fect	-12220
ging	-12221
ithm	-12222
ylon	-12223
▁043	-12224
▁cip	-12225
▁luk	-12226
▁msc	-12227
▁rug	-12228
▁rut	-12229
▁voy	-12230
▁wis	-12231
angle	-12232
▁anat	-12233
▁grim	-12234
▁pend	-12235
▁tool	-12236
bourne	-12237
dragon	-12238
▁chair	-12239
▁chlor	-12240
▁bandai	-12241
▁chapel	-12242
▁fields	-12243
▁killer	-12244
▁marina	-12245
▁norton	-12246
▁phosph	-12247
▁rising	-12248
▁secure	-12249
▁sungai	-12250
▁territ	-12251
▁desktop	-12252
▁wallace	-12253
▁dynamics	-12254
▁response	-12255
▁specific	-12256
▁resources	-12257
▁temperature	-12258
cw	-12259
kk	-12260
261	-12261
508	-12262
730	-12263
lax	-12264
achi	-12265
alie	-12266
vier	-12267
▁034	-12268
▁csp	-12269
▁gtx	-12270
▁rst	-12271
▁sue	-12272
▁svg	-12273
ached	-12274
antha	-12275
ianus	-12276
illac	-12277
owitz	-12278
recht	-12279
ucker	-12280
▁1053	-12281
▁1305	-12282
▁1383	-12283
▁acou	-12284
▁biow	-12285
▁chco	-12286
▁hous	-12287
▁joan	-12288
▁pter	-12289
▁colla	-12290
▁honda	-12291
▁seine	-12292
▁units	-12293
isation	-12294
▁accept	-12295
▁cancer	-12296
▁delphi	-12297
▁silent	-12298
▁techno	-12299
▁busters	-12300
▁physics	-12301
▁saunier	-12302
▁heritage	-12303
▁scotland	-12304
▁katherine	-12305
196	-12306
265	-12307
fil	-12308
oop	-12309
wen	-12310
▁zk	-12311
code	-12312
idad	-12313
ophy	-12314
opro	-12315
▁049	-12316
▁074	-12317
▁69%	-12318
▁cms	-12319
▁epa	-12320
▁ett	-12321
▁gum	-12322
▁kul	-12323
▁lhc	-12324
▁lng	-12325
▁osp	-12326
edded	-12327
itzer	-12328
▁1164	-12329
▁avai	-12330
▁chia	-12331
▁ciel	-12332
▁diva	-12333
▁mons	-12334
▁pony	-12335
▁prec	-12336
▁semi	-12337
▁spar	-12338
asonic	-12339
▁algor	-12340
▁denis	-12341
▁flick	-12342
▁ordin	-12343
▁reach	-12344
▁separ	-12345
▁wales	-12346
▁barbus	-12347
▁compon	-12348
▁everyd	-12349
▁genius	-12350
▁jaguar	-12351
▁maggie	-12352
▁myself	-12353
▁reader	-12354
▁recogn	-12355
▁holding	-12356
▁associated	-12357
pf	-12358
143	-12359
280	-12360
906	-12361
kal	-12362
pha	-12363
tle	-12364
lang	-12365
lier	-12366
name	-12367
▁062	-12368
▁dud	-12369
▁hai	-12370
▁igg	-12371
▁ira	-12372
▁sbd	-12373
▁shi	-12374
▁tis	-12375
▁tpp	-12376
ports	-12377
▁1043	-12378
▁1172	-12379
▁1245	-12380
▁enix	-12381
▁gare	-12382
▁gprs	-12383
▁sind	-12384
▁edmund	-12385
▁kaiser	-12386
▁marion	-12387
▁panzer	-12388
▁twitch	-12389
▁werner	-12390
▁theorem	-12391
167	-12392
351	-12393
bet	-12394
var	-12395
ener	-12396
imer	-12397
▁036	-12398
▁59%	-12399
▁apc	-12400
▁ell	-12401
▁hst	-12402
▁mtu	-12403
essel	-12404
radar	-12405
▁gddr	-12406
▁gree	-12407
▁kota	-12408
▁mith	-12409
▁pine	-12410
▁pool	-12411
▁vevo	-12412
▁voip	-12413
strong	-12414
▁17000	-12415
▁deter	-12416
▁namco	-12417
▁nitro	-12418
▁rules	-12419
▁monica	-12420
▁carrier	-12421
▁schwarz	-12422
▁parallel	-12423
▁truetype	-12424
▁butterfly	-12425
▁chemistry	-12426
193	-12427
458	-12428
aze	-12429
ugu	-12430
hall	-12431
isha	-12432
main	-12433
▁064	-12434
▁atf	-12435
▁cio	-12436
▁fft	-12437
▁hag	-12438
▁lik	-12439
▁pes	-12440
▁svd	-12441
▁yas	-12442
▁1089	-12443
▁1342	-12444
▁eden	-12445
▁gaba	-12446
▁lept	-12447
▁soap	-12448
▁buddh	-12449
▁indic	-12450
▁aqours	-12451
▁crisis	-12452
▁getchu	-12453
▁olivia	-12454
▁selina	-12455
▁vernon	-12456
▁wizard	-12457
▁bioware	-12458
▁passion	-12459
▁schmidt	-12460
▁birthday	-12461
▁consider	-12462
▁wolfgang	-12463
▁essential	-12464
▁including	-12465
▁qualifying	-12466
251	-12467
266	-12468
ele	-12469
ffe	-12470
1200	-12471
iate	-12472
ries	-12473
▁027	-12474
▁047	-12475
▁061	-12476
▁bry	-12477
▁cac	-12478
▁gpa	-12479
▁ket	-12480
▁kis	-12481
▁zoo	-12482
▁1036	-12483
▁1061	-12484
▁1319	-12485
▁1321	-12486
▁1354	-12487
▁chop	-12488
▁diet	-12489
▁ndez	-12490
▁sets	-12491
▁ellen	-12492
▁estab	-12493
▁tools	-12494
▁clarke	-12495
▁davies	-12496
▁leopard	-12497
▁montana	-12498
▁regular	-12499
▁insurance	-12500
▁observatory	-12501
232	-12502
anz	-12503
eus	-12504
lys	-12505
rag	-12506
weg	-12507
▁gq	-12508
▁nz	-12509
▁xr	-12510
bles	-12511
ulum	-12512
▁033	-12513
▁057	-12514
▁ley	-12515
▁nez	-12516
▁sms	-12517
oplan	-12518
▁1007	-12519
▁2150	-12520
▁4100	-12521
▁chlo	-12522
▁grac	-12523
▁norm	-12524
▁ntsc	-12525
▁prob	-12526
master	-12527
▁abbey	-12528
▁pilot	-12529
lington	-12530
▁client	-12531
▁palmer	-12532
▁roland	-12533
▁weekly	-12534
▁playing	-12535
▁stevens	-12536
▁storage	-12537
▁carolina	-12538
▁critical	-12539
▁elements	-12540
▁magnetic	-12541
▁extension	-12542
▁panasonic	-12543
▁wonderful	-12544
▁philosophy	-12545
tn	-12546
176	-12547
402	-12548
480	-12549
802	-12550
905	-12551
lio	-12552
onn	-12553
▁bv	-12554
▁bx	-12555
avan	-12556
oder	-12557
uman	-12558
▁091	-12559
▁095	-12560
▁ctr	-12561
▁psa	-12562
▁rox	-12563
▁came	-12564
▁role	-12565
▁skyl	-12566
▁vide	-12567
▁adapt	-12568
▁bryan	-12569
▁casey	-12570
▁jakob	-12571
▁joyce	-12572
▁legal	-12573
▁redmi	-12574
▁shish	-12575
▁kernel	-12576
▁patric	-12577
▁sounds	-12578
▁yamaha	-12579
▁gamespy	-12580
▁phantom	-12581
▁dualshock	-12582
▁nationale	-12583
488	-12584
606	-12585
608	-12586
fin	-12587
tax	-12588
vas	-12589
2010	-12590
ffff	-12591
oman	-12592
▁apr	-12593
▁bts	-12594
▁gmp	-12595
▁pch	-12596
▁sce	-12597
▁taw	-12598
▁til	-12599
▁ucs	-12600
ufact	-12601
▁2250	-12602
▁6700	-12603
▁8800	-12604
▁auch	-12605
▁bras	-12606
▁jojo	-12607
▁maya	-12608
▁mead	-12609
▁nash	-12610
▁navy	-12611
▁wien	-12612
▁amuse	-12613
▁besan	-12614
▁bukit	-12615
▁compi	-12616
▁jelly	-12617
▁lines	-12618
▁witch	-12619
imental	-12620
▁canyon	-12621
▁kepler	-12622
▁majest	-12623
▁mosaic	-12624
▁schema	-12625
▁verdun	-12626
▁reserve	-12627
▁shuffle	-12628
▁agricult	-12629
▁governor	-12630
▁institut	-12631
▁snapdragon	-12632
lc	-12633
179	-12634
fta	-12635
teo	-12636
urg	-12637
▁eq	-12638
▁ux	-12639
beat	-12640
comm	-12641
etry	-12642
oble	-12643
omat	-12644
onte	-12645
ouch	-12646
stre	-12647
▁058	-12648
▁088	-12649
▁hul	-12650
▁ida	-12651
▁nil	-12652
▁psl	-12653
▁rai	-12654
▁wed	-12655
arius	-12656
▁1334	-12657
▁anci	-12658
▁bend	-12659
▁casa	-12660
▁chow	-12661
▁funk	-12662
▁iast	-12663
▁imac	-12664
▁kyle	-12665
▁lynn	-12666
▁spee	-12667
willer	-12668
▁manif	-12669
▁seoul	-12670
▁toshi	-12671
issance	-12672
▁100000	-12673
▁charge	-12674
▁linked	-12675
▁murphy	-12676
▁stella	-12677
▁terror	-12678
▁effects	-12679
▁armstrong	-12680
▁marketing	-12681
▁translation	-12682
142	-12683
178	-12684
288	-12685
olt	-12686
▁uw	-12687
0001	-12688
aine	-12689
cott	-12690
enko	-12691
xton	-12692
▁bmi	-12693
▁cli	-12694
▁eat	-12695
▁fes	-12696
▁gai	-12697
▁hla	-12698
▁jia	-12699
▁nxt	-12700
▁sdf	-12701
▁tud	-12702
▁1058	-12703
▁6100	-12704
▁bint	-12705
▁fork	-12706
▁grub	-12707
▁tune	-12708
▁uniq	-12709
▁blind	-12710
▁glise	-12711
▁inner	-12712
▁wowow	-12713
▁toyota	-12714
▁abraham	-12715
▁formosa	-12716
▁initial	-12717
▁numbers	-12718
▁optical	-12719
▁opentype	-12720
aq	-12721
158	-12722
182	-12723
enk	-12724
rap	-12725
▁wd	-12726
anet	-12727
nine	-12728
odus	-12729
▁hof	-12730
▁kud	-12731
▁mbk	-12732
▁tad	-12733
▁usp	-12734
stock	-12735
▁9500	-12736
▁gimp	-12737
▁koch	-12738
▁loud	-12739
▁luck	-12740
▁mend	-12741
▁mina	-12742
▁tier	-12743
▁acfun	-12744
▁brack	-12745
▁greek	-12746
▁innoc	-12747
▁nigel	-12748
ylvania	-12749
▁chance	-12750
▁herman	-12751
▁peters	-12752
▁ibrahim	-12753
▁leopold	-12754
▁manufact	-12755
▁memories	-12756
▁wordpress	-12757
▁intelligent	-12758
sw	-12759
154	-12760
357	-12761
lib	-12762
uge	-12763
ongo	-12764
tron	-12765
▁069	-12766
▁cfa	-12767
▁gag	-12768
▁isu	-12769
▁kes	-12770
▁lop	-12771
▁zun	-12772
media	-12773
▁1249	-12774
▁2049	-12775
▁caps	-12776
▁pico	-12777
ention	-12778
▁diana	-12779
▁knock	-12780
▁terra	-12781
▁write	-12782
▁desire	-12783
▁electr	-12784
▁falcom	-12785
▁heroes	-12786
▁troyes	-12787
▁usenet	-12788
▁airways	-12789
▁brandon	-12790
▁britain	-12791
▁consort	-12792
▁grammar	-12793
▁restaur	-12794
▁instrument	-12795
▁environmental	-12796
186	-12797
259	-12798
358	-12799
kat	-12800
lew	-12801
▁qi	-12802
atin	-12803
bold	-12804
onso	-12805
rett	-12806
uche	-12807
ushi	-12808
▁agb	-12809
▁coe	-12810
▁oth	-12811
▁une	-12812
block	-12813
ernet	-12814
▁1091	-12815
▁dior	-12816
▁glas	-12817
▁info	-12818
▁tall	-12819
▁carry	-12820
▁equip	-12821
▁jewel	-12822
▁jorge	-12823
▁kitch	-12824
embourg	-12825
▁gainax	-12826
▁prison	-12827
▁queens	-12828
▁alberto	-12829
▁concord	-12830
▁monitor	-12831
▁shirley	-12832
▁similar	-12833
▁whitney	-12834
tf	-12835
236	-12836
287	-12837
605	-12838
ccc	-12839
lea	-12840
▁zw	-12841
1917	-12842
elot	-12843
file	-12844
oron	-12845
phin	-12846
▁foo	-12847
▁kob	-12848
▁leh	-12849
▁mei	-12850
▁mum	-12851
elles	-12852
▁alma	-12853
▁haus	-12854
▁held	-12855
▁lala	-12856
▁myth	-12857
▁nadh	-12858
▁peer	-12859
▁bless	-12860
▁fritz	-12861
▁paint	-12862
▁sarre	-12863
▁tibet	-12864
▁atomic	-12865
▁decade	-12866
▁formos	-12867
▁rounds	-12868
▁twenty	-12869
▁charter	-12870
▁kentucky	-12871
▁worldwide	-12872
▁soundtrack	-12873
187	-12874
355	-12875
gpp	-12876
jar	-12877
ocl	-12878
tml	-12879
▁zx	-12880
▁032	-12881
▁arb	-12882
▁bic	-12883
▁dul	-12884
▁jed	-12885
▁kow	-12886
▁mec	-12887
▁tie	-12888
▁tms	-12889
▁xav	-12890
acker	-12891
▁abba	-12892
▁dhcp	-12893
▁kris	-12894
▁tube	-12895
▁aless	-12896
▁alleg	-12897
▁chrys	-12898
▁disco	-12899
▁dutch	-12900
▁links	-12901
▁pages	-12902
▁scene	-12903
▁spike	-12904
▁bailey	-12905
▁length	-12906
▁applied	-12907
▁promise	-12908
▁woollim	-12909
▁automatic	-12910
▁directory	-12911
▁basketball	-12912
kr	-12913
nc	-12914
239	-12915
505	-12916
arp	-12917
asv	-12918
hes	-12919
los	-12920
see	-12921
ococ	-12922
rill	-12923
show	-12924
▁098	-12925
▁coo	-12926
▁gew	-12927
▁gle	-12928
▁orn	-12929
▁vix	-12930
▁zap	-12931
ption	-12932
▁flip	-12933
▁herz	-12934
▁jing	-12935
▁nina	-12936
▁purp	-12937
ically	-12938
▁conse	-12939
▁jamie	-12940
▁noise	-12941
▁schne	-12942
▁swiss	-12943
▁tears	-12944
▁cnblue	-12945
▁holmes	-12946
▁webkit	-12947
▁artists	-12948
▁burning	-12949
▁evening	-12950
▁newtype	-12951
▁pierrot	-12952
▁provinc	-12953
▁springs	-12954
▁wonders	-12955
▁disorder	-12956
▁everyday	-12957
▁contemporary	-12958
198	-12959
502	-12960
ieh	-12961
ijn	-12962
tur	-12963
yne	-12964
zzi	-12965
achy	-12966
atum	-12967
erto	-12968
imal	-12969
ismo	-12970
mune	-12971
ondo	-12972
▁083	-12973
▁adp	-12974
▁gos	-12975
▁kah	-12976
▁kry	-12977
▁piz	-12978
▁sai	-12979
▁sto	-12980
▁vos	-12981
ersch	-12982
ogram	-12983
video	-12984
▁1082	-12985
▁2033	-12986
▁badm	-12987
▁crew	-12988
▁cruz	-12989
▁goto	-12990
▁kerr	-12991
▁vamp	-12992
▁yard	-12993
▁yuen	-12994
▁algol	-12995
▁allan	-12996
▁bibli	-12997
▁cache	-12998
▁lands	-12999
▁teddy	-13000
roliner	-13001
▁credit	-13002
▁matlab	-13003
▁realme	-13004
▁remote	-13005
▁clement	-13006
▁distance	-13007
▁madhouse	-13008
▁spectrum	-13009
▁winchester	-13010
mh	-13011
141	-13012
194	-13013
hat	-13014
hev	-13015
mac	-13016
2500	-13017
arta	-13018
atsu	-13019
dorf	-13020
ploy	-13021
pool	-13022
rice	-13023
▁042	-13024
▁079	-13025
▁081	-13026
▁082	-13027
▁084	-13028
▁beg	-13029
▁crt	-13030
▁cus	-13031
▁fay	-13032
▁tft	-13033
▁ttl	-13034
ifier	-13035
▁apps	-13036
▁audi	-13037
▁axis	-13038
▁byte	-13039
▁glay	-13040
▁pern	-13041
▁plas	-13042
▁rfid	-13043
▁daisy	-13044
▁jenny	-13045
▁jules	-13046
▁gloria	-13047
▁magnus	-13048
▁capitol	-13049
▁edwards	-13050
▁individ	-13051
▁reading	-13052
▁chandler	-13053
▁fantasia	-13054
▁mohammed	-13055
295	-13056
333	-13057
409	-13058
erc	-13059
▁oe	-13060
▁ym	-13061
iffe	-13062
ogon	-13063
quar	-13064
▁jsp	-13065
▁lal	-13066
▁nev	-13067
ither	-13068
izing	-13069
leton	-13070
▁aeon	-13071
▁beng	-13072
▁coal	-13073
▁diss	-13074
▁item	-13075
▁mell	-13076
▁mits	-13077
▁tiny	-13078
▁ware	-13079
ellite	-13080
▁60000	-13081
▁amber	-13082
▁annie	-13083
▁draft	-13084
▁fairy	-13085
▁lives	-13086
▁petro	-13087
▁whole	-13088
▁examin	-13089
▁hypert	-13090
▁members	-13091
▁session	-13092
▁trouble	-13093
▁acoustic	-13094
▁chaumont	-13095
▁contract	-13096
▁ministry	-13097
▁mohammad	-13098
▁regiment	-13099
▁happiness	-13100
▁connection	-13101
▁richardson	-13102
▁introduction	-13103
lb	-13104
171	-13105
406	-13106
455	-13107
▁vz	-13108
baum	-13109
icia	-13110
ulin	-13111
▁026	-13112
▁bwv	-13113
▁dex	-13114
▁ink	-13115
▁jct	-13116
▁sym	-13117
enter	-13118
icity	-13119
▁aacs	-13120
▁done	-13121
▁impl	-13122
▁laws	-13123
▁maps	-13124
▁meta	-13125
▁soon	-13126
schule	-13127
▁bring	-13128
▁derek	-13129
▁pablo	-13130
▁unter	-13131
▁barnes	-13132
▁compar	-13133
▁gentle	-13134
▁libert	-13135
▁nippon	-13136
▁defence	-13137
▁fortune	-13138
▁wolfram	-13139
▁monument	-13140
▁carpenter	-13141
▁classical	-13142
▁initiative	-13143
cn	-13144
gf	-13145
172	-13146
270	-13147
enh	-13148
gia	-13149
loo	-13150
reg	-13151
sel	-13152
abet	-13153
atra	-13154
▁aik	-13155
▁aix	-13156
▁bid	-13157
▁cpr	-13158
▁eia	-13159
▁hbl	-13160
▁mhc	-13161
▁orc	-13162
▁paw	-13163
▁tae	-13164
▁xsl	-13165
arten	-13166
attan	-13167
▁bold	-13168
▁brow	-13169
▁budd	-13170
▁eure	-13171
▁flav	-13172
▁costa	-13173
▁exist	-13174
▁natur	-13175
▁often	-13176
▁weiss	-13177
▁geomet	-13178
▁scream	-13179
▁chicken	-13180
▁cluster	-13181
▁several	-13182
▁walking	-13183
▁commerce	-13184
▁february	-13185
▁enterbrain	-13186
▁processing	-13187
191	-13188
375	-13189
cmg	-13190
eor	-13191
ipa	-13192
shi	-13193
▁vd	-13194
▁wg	-13195
acha	-13196
iong	-13197
mans	-13198
phus	-13199
wser	-13200
▁059	-13201
▁063	-13202
▁agp	-13203
▁aic	-13204
▁dao	-13205
▁ecm	-13206
▁hok	-13207
▁lup	-13208
▁rng	-13209
▁tia	-13210
ament	-13211
keley	-13212
tranz	-13213
▁auth	-13214
▁hale	-13215
▁nguy	-13216
▁polo	-13217
▁yoho	-13218
▁civic	-13219
▁damon	-13220
▁dirty	-13221
▁drink	-13222
▁edgar	-13223
▁glenn	-13224
▁issue	-13225
▁limit	-13226
▁trick	-13227
▁uncle	-13228
▁israel	-13229
▁adtranz	-13230
▁bedford	-13231
▁cameron	-13232
▁edonkey	-13233
▁fellows	-13234
▁houston	-13235
▁lieuten	-13236
▁microsd	-13237
▁request	-13238
▁stellar	-13239
▁multiple	-13240
▁postgres	-13241
▁relative	-13242
▁wireless	-13243
▁badminton	-13244
▁elisabeth	-13245
▁gamesradar	-13246
nu	-13247
352	-13248
ahu	-13249
oba	-13250
wal	-13251
yev	-13252
zia	-13253
bras	-13254
rant	-13255
udio	-13256
▁bsp	-13257
▁fah	-13258
▁ssg	-13259
▁1062	-13260
▁bits	-13261
▁dion	-13262
▁niel	-13263
▁reyn	-13264
▁siri	-13265
▁emper	-13266
▁penns	-13267
▁radar	-13268
▁roche	-13269
▁speak	-13270
▁until	-13271
▁wille	-13272
▁across	-13273
▁escape	-13274
▁italia	-13275
▁harbour	-13276
▁fighting	-13277
▁scottish	-13278
▁mediawiki	-13279
▁centroliner	-13280
rp	-13281
008	-13282
183	-13283
604	-13284
ech	-13285
gor	-13286
oir	-13287
qua	-13288
rog	-13289
▁fv	-13290
▁qa	-13291
borg	-13292
elyn	-13293
gren	-13294
iere	-13295
omyc	-13296
▁biz	-13297
▁chn	-13298
▁cvs	-13299
▁hig	-13300
▁ibf	-13301
▁rpc	-13302
▁uml	-13303
▁zfc	-13304
annad	-13305
ascar	-13306
enses	-13307
etics	-13308
heart	-13309
ornis	-13310
raine	-13311
▁herm	-13312
▁iowa	-13313
▁mare	-13314
▁porn	-13315
▁scor	-13316
▁thre	-13317
player	-13318
▁apink	-13319
▁cours	-13320
▁elvis	-13321
▁exhib	-13322
▁grade	-13323
▁meego	-13324
▁morph	-13325
▁wendy	-13326
▁binary	-13327
▁keroro	-13328
▁murder	-13329
▁baptist	-13330
▁bigorre	-13331
▁deliver	-13332
▁regulat	-13333
▁therapy	-13334
▁tiffany	-13335
▁interest	-13336
▁montbard	-13337
▁alexandra	-13338
▁strategic	-13339
cu	-13340
jd	-13341
356	-13342
403	-13343
855	-13344
boys	-13345
fare	-13346
fast	-13347
ilon	-13348
lord	-13349
olds	-13350
▁076	-13351
▁fou	-13352
▁ish	-13353
▁jub	-13354
▁koi	-13355
▁ses	-13356
▁wak	-13357
▁zan	-13358
ijing	-13359
ilder	-13360
▁braz	-13361
▁chol	-13362
▁dent	-13363
▁gale	-13364
▁lpga	-13365
▁nist	-13366
▁phon	-13367
▁pron	-13368
▁spex	-13369
▁wick	-13370
▁zach	-13371
▁zion	-13372
cement	-13373
kinson	-13374
phalus	-13375
▁45000	-13376
▁80000	-13377
▁gucci	-13378
▁oasis	-13379
▁satur	-13380
▁tempo	-13381
▁whats	-13382
▁concep	-13383
▁konami	-13384
▁parade	-13385
▁maxwell	-13386
▁romance	-13387
▁patricia	-13388
▁direction	-13389
▁equipment	-13390
▁mathematica	-13391
▁mathematics	-13392
pb	-13393
276	-13394
407	-13395
asp	-13396
bec	-13397
joy	-13398
rax	-13399
▁jl	-13400
omed	-13401
pret	-13402
sted	-13403
▁041	-13404
▁boc	-13405
▁cay	-13406
▁hos	-13407
▁laf	-13408
▁lms	-13409
▁nun	-13410
▁ola	-13411
▁tse	-13412
▁zel	-13413
iston	-13414
mouth	-13415
quest	-13416
ridge	-13417
▁7800	-13418
▁kwok	-13419
▁ogle	-13420
▁symp	-13421
▁temp	-13422
inator	-13423
▁ayumi	-13424
▁boost	-13425
▁choco	-13426
▁melan	-13427
▁patri	-13428
▁sight	-13429
▁amanda	-13430
▁archae	-13431
▁powell	-13432
▁carroll	-13433
▁economy	-13434
ellschaft	-13435
▁geoffrey	-13436
▁michigan	-13437
▁position	-13438
▁smalltalk	-13439
▁lieutenant	-13440
153	-13441
309	-13442
uxe	-13443
▁lw	-13444
ceed	-13445
chia	-13446
crib	-13447
feed	-13448
oris	-13449
rand	-13450
ymph	-13451
▁045	-13452
▁crc	-13453
▁dit	-13454
▁dms	-13455
▁hac	-13456
▁lug	-13457
▁ops	-13458
▁osm	-13459
▁seo	-13460
maker	-13461
▁1051	-13462
▁2046	-13463
▁8086	-13464
▁alam	-13465
▁conv	-13466
▁finn	-13467
▁hsbc	-13468
▁koda	-13469
▁labs	-13470
▁vega	-13471
▁wear	-13472
estyle	-13473
ousand	-13474
schild	-13475
▁apost	-13476
▁ellis	-13477
▁grove	-13478
▁montg	-13479
▁ouest	-13480
▁trend	-13481
version	-13482
▁brooks	-13483
▁config	-13484
▁except	-13485
▁fergus	-13486
▁magnum	-13487
▁rudolf	-13488
▁tennis	-13489
▁griffin	-13490
▁shadows	-13491
▁berkeley	-13492
▁junction	-13493
▁tactical	-13494
▁cherbourg	-13495
▁encyclopedia	-13496
285	-13497
bak	-13498
dam	-13499
iat	-13500
ijk	-13501
mec	-13502
ohn	-13503
utz	-13504
bike	-13505
clus	-13506
fest	-13507
pora	-13508
▁aab	-13509
▁dfa	-13510
▁dil	-13511
▁hes	-13512
▁sik	-13513
▁tik	-13514
▁tna	-13515
front	-13516
iling	-13517
teron	-13518
▁2060	-13519
▁aclu	-13520
▁carm	-13521
▁deal	-13522
▁lenn	-13523
▁levi	-13524
▁noah	-13525
▁oecd	-13526
▁pere	-13527
▁rage	-13528
▁sync	-13529
▁visc	-13530
▁ying	-13531
▁zico	-13532
escent	-13533
▁22000	-13534
▁chong	-13535
▁derby	-13536
▁merry	-13537
▁prima	-13538
▁taste	-13539
▁torre	-13540
▁types	-13541
▁wheel	-13542
▁darwin	-13543
▁expans	-13544
▁jensen	-13545
▁kinect	-13546
▁margin	-13547
▁produc	-13548
▁purple	-13549
▁savage	-13550
▁status	-13551
▁indones	-13552
▁shannon	-13553
▁thousand	-13554
▁synthesis	-13555
▁resolution	-13556
▁transportation	-13557
366	-13558
475	-13559
806	-13560
903	-13561
jek	-13562
oha	-13563
tec	-13564
pton	-13565
▁077	-13566
▁cai	-13567
▁dah	-13568
▁ecu	-13569
▁wap	-13570
▁wpa	-13571
▁yar	-13572
asser	-13573
ennes	-13574
otten	-13575
sters	-13576
▁canc	-13577
▁chau	-13578
▁este	-13579
▁gour	-13580
▁jumo	-13581
▁lith	-13582
▁omar	-13583
▁puma	-13584
▁risk	-13585
▁shen	-13586
▁vine	-13587
▁along	-13588
▁bulld	-13589
▁coord	-13590
▁maint	-13591
▁notre	-13592
▁angelo	-13593
▁connor	-13594
▁events	-13595
▁output	-13596
▁clannad	-13597
▁millenn	-13598
▁rosetta	-13599
▁unknown	-13600
▁certific	-13601
▁whatsapp	-13602
▁manchester	-13603
▁thunderbird	-13604
▁pennsylvania	-13605
163	-13606
223	-13607
237	-13608
702	-13609
706	-13610
dic	-13611
efi	-13612
haw	-13613
lak	-13614
udo	-13615
uti	-13616
2001	-13617
amax	-13618
imon	-13619
▁acs	-13620
▁ams	-13621
▁emo	-13622
▁pvp	-13623
▁ree	-13624
▁ruf	-13625
▁snp	-13626
▁sop	-13627
▁txt	-13628
▁yee	-13629
ibada	-13630
place	-13631
▁1084	-13632
▁boat	-13633
▁defe	-13634
▁hair	-13635
▁hawk	-13636
▁mbps	-13637
▁mord	-13638
▁oled	-13639
▁spas	-13640
utical	-13641
▁allow	-13642
▁avran	-13643
▁bunny	-13644
▁floyd	-13645
▁globe	-13646
▁neuro	-13647
▁orbit	-13648
▁quake	-13649
▁rider	-13650
▁vegas	-13651
▁apollo	-13652
▁desert	-13653
▁hidden	-13654
▁pietro	-13655
▁radical	-13656
▁pleasure	-13657
▁receptor	-13658
▁elementary	-13659
yk	-13660
144	-13661
368	-13662
ela	-13663
fre	-13664
inx	-13665
jee	-13666
▁xu	-13667
eeee	-13668
eric	-13669
erno	-13670
mind	-13671
mons	-13672
ulty	-13673
▁ait	-13674
▁baa	-13675
▁icu	-13676
▁naw	-13677
▁rpk	-13678
▁tlc	-13679
ensor	-13680
▁8300	-13681
▁alth	-13682
▁dice	-13683
▁gulf	-13684
▁leuc	-13685
▁metz	-13686
▁sana	-13687
ingham	-13688
▁behav	-13689
▁boris	-13690
▁irene	-13691
▁mausu	-13692
▁punch	-13693
▁recon	-13694
▁sampa	-13695
▁slash	-13696
▁trial	-13697
▁volks	-13698
▁albums	-13699
▁bottom	-13700
▁groove	-13701
▁leader	-13702
▁marsan	-13703
▁nights	-13704
▁plasma	-13705
▁rivers	-13706
▁bristol	-13707
▁lorenzo	-13708
▁phillip	-13709
▁spexial	-13710
▁verizon	-13711
▁morrison	-13712
▁christine	-13713
▁satellite	-13714
210	-13715
244	-13716
246	-13717
284	-13718
359	-13719
457	-13720
atz	-13721
oso	-13722
tar	-13723
▁zr	-13724
1897	-13725
iker	-13726
opia	-13727
otus	-13728
oven	-13729
▁hcl	-13730
▁miz	-13731
▁nus	-13732
▁ski	-13733
▁wrx	-13734
encia	-13735
onder	-13736
ovsky	-13737
▁dias	-13738
▁hers	-13739
▁kane	-13740
▁lest	-13741
▁wwdc	-13742
▁zeta	-13743
▁bever	-13744
▁moody	-13745
▁novel	-13746
▁sabah	-13747
▁shake	-13748
▁stere	-13749
▁worth	-13750
▁ashley	-13751
▁assess	-13752
▁multim	-13753
▁wesley	-13754
▁ancient	-13755
▁conduct	-13756
▁missing	-13757
▁intermed	-13758
▁lightning	-13759
▁principle	-13760
▁sourceforge	-13761
orb	-13762
▁cq	-13763
▁jw	-13764
▁oa	-13765
4000	-13766
hail	-13767
inth	-13768
kbps	-13769
otes	-13770
▁086	-13771
▁089	-13772
▁79%	-13773
▁dts	-13774
▁edg	-13775
▁fet	-13776
▁hui	-13777
▁kev	-13778
▁kou	-13779
▁lys	-13780
▁tao	-13781
▁wad	-13782
▁xer	-13783
▁zar	-13784
▁zig	-13785
aller	-13786
guard	-13787
vious	-13788
▁2160	-13789
▁ding	-13790
▁musa	-13791
▁parc	-13792
▁phyl	-13793
▁poor	-13794
▁scen	-13795
▁smrt	-13796
▁trac	-13797
▁turb	-13798
▁typh	-13799
system	-13800
ymetal	-13801
▁chanel	-13802
▁flickr	-13803
▁marian	-13804
▁module	-13805
▁parish	-13806
▁speech	-13807
▁summit	-13808
▁transm	-13809
▁beijing	-13810
▁consult	-13811
▁gardens	-13812
▁harmony	-13813
▁langres	-13814
▁opteron	-13815
▁theodor	-13816
▁emmanuel	-13817
▁question	-13818
▁resource	-13819
▁avranches	-13820
▁beginning	-13821
▁champions	-13822
▁individual	-13823
▁innovation	-13824
▁powerpoint	-13825
▁generations	-13826
332	-13827
416	-13828
▁mz	-13829
▁uz	-13830
alon	-13831
angu	-13832
hart	-13833
idan	-13834
▁bpm	-13835
▁ler	-13836
▁rit	-13837
▁yao	-13838
asing	-13839
crete	-13840
insky	-13841
▁berk	-13842
▁disp	-13843
▁miui	-13844
▁mori	-13845
▁nate	-13846
ometer	-13847
▁brett	-13848
▁floor	-13849
▁gates	-13850
▁miche	-13851
▁phila	-13852
▁randy	-13853
▁ratio	-13854
▁shore	-13855
▁split	-13856
osuchus	-13857
▁eeeeee	-13858
▁figure	-13859
▁lovers	-13860
▁sprint	-13861
▁browser	-13862
▁statist	-13863
▁zealand	-13864
▁historic	-13865
▁positive	-13866
▁religion	-13867
▁babymetal	-13868
▁expression	-13869
▁resistance	-13870
▁electronics	-13871
271	-13872
602	-13873
raz	-13874
eces	-13875
iami	-13876
icum	-13877
illi	-13878
opal	-13879
thor	-13880
▁ack	-13881
▁ags	-13882
▁aia	-13883
▁alv	-13884
▁anc	-13885
▁ave	-13886
▁rae	-13887
▁ska	-13888
▁vig	-13889
ignan	-13890
inkle	-13891
kirch	-13892
▁4900	-13893
▁doom	-13894
▁eval	-13895
▁evol	-13896
▁lass	-13897
▁manh	-13898
▁sage	-13899
▁uefi	-13900
▁went	-13901
▁witt	-13902
ughter	-13903
▁angle	-13904
▁arsen	-13905
▁blair	-13906
▁comet	-13907
▁freak	-13908
▁gecko	-13909
▁answer	-13910
▁korean	-13911
▁kotaku	-13912
▁lancer	-13913
▁openss	-13914
▁salins	-13915
▁falling	-13916
▁greater	-13917
▁thought	-13918
▁bernhard	-13919
▁embedded	-13920
▁township	-13921
▁functions	-13922
▁standards	-13923
258	-13924
504	-13925
705	-13926
fff	-13927
iry	-13928
oxy	-13929
ped	-13930
▁xz	-13931
ippi	-13932
ovic	-13933
ulla	-13934
▁094	-13935
▁alo	-13936
▁atx	-13937
▁dcc	-13938
▁dok	-13939
▁msm	-13940
▁zer	-13941
endar	-13942
uctor	-13943
▁blow	-13944
▁hole	-13945
▁nero	-13946
▁viol	-13947
▁zeit	-13948
▁banks	-13949
▁crush	-13950
▁eleph	-13951
▁liver	-13952
▁reven	-13953
▁annual	-13954
▁conrad	-13955
▁infant	-13956
▁meteor	-13957
▁methyl	-13958
▁nicole	-13959
▁really	-13960
▁weapon	-13961
▁concern	-13962
▁imaging	-13963
▁respons	-13964
▁workers	-13965
▁behavior	-13966
▁motorola	-13967
▁richmond	-13968
▁soribada	-13969
▁available	-13970
▁materials	-13971
bm	-13972
181	-13973
275	-13974
298	-13975
387	-13976
653	-13977
abo	-13978
fit	-13979
oge	-13980
▁bz	-13981
▁wf	-13982
aint	-13983
four	-13984
inem	-13985
shan	-13986
▁087	-13987
▁asm	-13988
▁kei	-13989
▁ltp	-13990
▁qew	-13991
ilian	-13992
iscus	-13993
▁7600	-13994
▁alta	-13995
▁chad	-13996
▁fuse	-13997
▁gift	-13998
▁goss	-13999
▁hund	-14000
▁lens	-14001
▁mime	-14002
▁rode	-14003
▁seth	-14004
▁thai	-14005
▁blitz	-14006
▁curve	-14007
▁frost	-14008
▁named	-14009
▁neway	-14010
▁rotem	-14011
▁shape	-14012
▁vreux	-14013
▁aurora	-14014
▁deport	-14015
▁magdal	-14016
▁nogent	-14017
▁quadro	-14018
▁dorothy	-14019
▁florida	-14020
▁measure	-14021
▁related	-14022
▁warrior	-14023
▁darkness	-14024
▁descript	-14025
▁mapframe	-14026
▁shishamo	-14027
▁theodore	-14028
▁relations	-14029
▁wrestling	-14030
▁postgresql	-14031
pu	-14032
777	-14033
993	-14034
gro	-14035
oks	-14036
▁kz	-14037
colm	-14038
erne	-14039
list	-14040
mule	-14041
oday	-14042
prom	-14043
tale	-14044
wehr	-14045
▁diz	-14046
▁edm	-14047
▁kdl	-14048
▁ldl	-14049
▁mgm	-14050
▁nie	-14051
▁owl	-14052
▁tos	-14053
▁ucc	-14054
▁yen	-14055
ethyl	-14056
idium	-14057
▁2036	-14058
▁7400	-14059
▁9800	-14060
▁bike	-14061
▁dhar	-14062
▁guil	-14063
▁leap	-14064
▁mixt	-14065
▁sank	-14066
▁sten	-14067
▁vivo	-14068
▁brass	-14069
▁burns	-14070
▁paolo	-14071
▁bonnie	-14072
▁native	-14073
▁propos	-14074
▁reserv	-14075
▁sidney	-14076
▁zetima	-14077
▁dynasty	-14078
▁gravity	-14079
▁madonna	-14080
▁miracle	-14081
▁internal	-14082
▁midnight	-14083
▁treatment	-14084
fz	-14085
268	-14086
269	-14087
297	-14088
907	-14089
eti	-14090
gra	-14091
uls	-14092
▁dq	-14093
alan	-14094
chet	-14095
inia	-14096
thal	-14097
ylie	-14098
▁031	-14099
▁bej	-14100
▁ccr	-14101
▁ddt	-14102
▁jah	-14103
▁nia	-14104
▁nmr	-14105
▁obl	-14106
▁siv	-14107
▁uic	-14108
attle	-14109
otive	-14110
umann	-14111
▁3001	-14112
▁8700	-14113
▁avro	-14114
▁dana	-14115
▁fang	-14116
▁graf	-14117
▁mens	-14118
▁slow	-14119
▁tram	-14120
▁advis	-14121
▁entry	-14122
▁prior	-14123
▁pulau	-14124
▁romeo	-14125
▁theta	-14126
imation	-14127
▁dollar	-14128
▁fiesta	-14129
▁mojang	-14130
▁rafael	-14131
▁xavier	-14132
▁malcolm	-14133
▁mirande	-14134
▁missile	-14135
▁download	-14136
▁problems	-14137
▁dangerous	-14138
▁jefferson	-14139
▁quicktime	-14140
▁liberation	-14141
▁continental	-14142
xi	-14143
173	-14144
273	-14145
282	-14146
296	-14147
gle	-14148
nen	-14149
ogy	-14150
1500	-14151
3100	-14152
iale	-14153
isto	-14154
lair	-14155
omes	-14156
▁fog	-14157
▁gne	-14158
▁ivy	-14159
▁nai	-14160
▁nis	-14161
▁scb	-14162
▁srb	-14163
obile	-14164
▁bret	-14165
▁dans	-14166
▁ecfa	-14167
▁herr	-14168
▁hess	-14169
▁kost	-14170
▁sale	-14171
▁seal	-14172
▁suit	-14173
atives	-14174
▁britt	-14175
▁dress	-14176
▁europ	-14177
▁inhib	-14178
▁paulo	-14179
▁prosp	-14180
▁rever	-14181
▁tumbl	-14182
▁irving	-14183
▁kansas	-14184
▁monday	-14185
▁viktor	-14186
________	-14187
▁assault	-14188
▁jenkins	-14189
▁maximum	-14190
▁chromium	-14191
▁cyanogen	-14192
▁enhanced	-14193
▁reflection	-14194
mk	-14195
wu	-14196
148	-14197
252	-14198
277	-14199
354	-14200
fps	-14201
opt	-14202
yar	-14203
▁fy	-14204
▁hq	-14205
arro	-14206
boot	-14207
iese	-14208
lash	-14209
sons	-14210
uler	-14211
▁alx	-14212
▁cic	-14213
▁cts	-14214
▁erp	-14215
▁ism	-14216
▁kha	-14217
▁kwk	-14218
▁lfa	-14219
▁lus	-14220
▁meh	-14221
▁ptr	-14222
▁ssr	-14223
▁usc	-14224
▁yau	-14225
athon	-14226
basic	-14227
etric	-14228
ulata	-14229
▁chir	-14230
▁cros	-14231
▁kann	-14232
▁loen	-14233
▁mbit	-14234
▁mora	-14235
▁nept	-14236
▁ofdm	-14237
▁panc	-14238
▁rift	-14239
▁sach	-14240
▁tone	-14241
▁32000	-14242
▁brock	-14243
▁genus	-14244
▁given	-14245
▁impre	-14246
▁johor	-14247
▁lemon	-14248
▁levin	-14249
▁logan	-14250
▁neigh	-14251
▁porta	-14252
▁ribon	-14253
▁sparc	-14254
▁genome	-14255
▁lauren	-14256
▁marcel	-14257
▁nforce	-14258
▁prolog	-14259
▁wagner	-14260
▁giorgio	-14261
▁harvard	-14262
▁mapping	-14263
▁silicon	-14264
▁trident	-14265
▁webster	-14266
▁determin	-14267
▁grenoble	-14268
▁hamasaki	-14269
▁politics	-14270
▁pressure	-14271
▁singular	-14272
▁alexandre	-14273
908	-14274
agi	-14275
iji	-14276
urb	-14277
▁eo	-14278
avia	-14279
esto	-14280
icit	-14281
olan	-14282
ylan	-14283
▁ani	-14284
▁coa	-14285
▁dsc	-14286
▁eds	-14287
▁eli	-14288
▁kaf	-14289
▁pec	-14290
▁rtl	-14291
▁wig	-14292
▁yum	-14293
emble	-14294
ulate	-14295
▁2038	-14296
▁7300	-14297
▁fool	-14298
▁herc	-14299
▁hila	-14300
▁kumi	-14301
▁mage	-14302
▁soar	-14303
▁tart	-14304
▁toll	-14305
▁volt	-14306
▁wink	-14307
ements	-14308
▁absol	-14309
▁egypt	-14310
▁forms	-14311
▁paras	-14312
▁sheph	-14313
▁ziers	-14314
asaurus	-14315
jection	-14316
▁crytek	-14317
▁elliot	-14318
▁singer	-14319
▁takara	-14320
▁teresa	-14321
▁atlanta	-14322
▁emperor	-14323
▁eternal	-14324
▁lambert	-14325
▁seasons	-14326
▁sisters	-14327
▁deadline	-14328
▁important	-14329
▁robertson	-14330
▁literature	-14331
▁restaurant	-14332
465	-14333
477	-14334
805	-14335
bir	-14336
dma	-14337
etr	-14338
far	-14339
nor	-14340
upa	-14341
ync	-14342
asan	-14343
fall	-14344
ipes	-14345
onto	-14346
yang	-14347
▁aek	-14348
▁boe	-14349
▁bri	-14350
▁ipc	-14351
▁lua	-14352
▁lyr	-14353
▁mct	-14354
▁mpl	-14355
▁suk	-14356
▁tpe	-14357
▁wyn	-14358
erver	-14359
iency	-14360
style	-14361
▁2080	-14362
▁9700	-14363
▁bore	-14364
▁cnet	-14365
▁eccl	-14366
▁kall	-14367
▁mara	-14368
▁nast	-14369
▁popc	-14370
▁seng	-14371
▁yeah	-14372
▁alien	-14373
▁wimax	-14374
▁woods	-14375
▁appear	-14376
▁curtis	-14377
▁deluxe	-14378
▁fourth	-14379
▁jackie	-14380
▁sphere	-14381
▁beatles	-14382
▁chapman	-14383
▁imagine	-14384
▁kampung	-14385
▁macross	-14386
▁ricardo	-14387
▁activity	-14388
▁dinosaur	-14389
▁laughing	-14390
▁practice	-14391
▁molecular	-14392
▁sebastian	-14393
▁applications	-14394
609	-14395
mic	-14396
▁yh	-14397
icht	-14398
inct	-14399
jour	-14400
otti	-14401
pack	-14402
ples	-14403
rale	-14404
▁esr	-14405
▁gev	-14406
▁kav	-14407
▁lid	-14408
▁mdr	-14409
▁mug	-14410
▁ort	-14411
▁qui	-14412
▁slo	-14413
▁smt	-14414
▁xyz	-14415
ilion	-14416
▁bung	-14417
▁chok	-14418
▁hala	-14419
▁syfy	-14420
▁tina	-14421
hausen	-14422
ischen	-14423
lander	-14424
▁benny	-14425
▁curie	-14426
▁eugen	-14427
▁input	-14428
▁lynch	-14429
▁raven	-14430
▁theme	-14431
▁zhang	-14432
avarman	-14433
▁armani	-14434
▁finder	-14435
▁milton	-14436
▁mongol	-14437
▁patter	-14438
▁travis	-14439
▁barrett	-14440
▁biology	-14441
▁contact	-14442
▁heights	-14443
▁letters	-14444
▁website	-14445
▁addition	-14446
▁colorado	-14447
▁concepts	-14448
▁crawford	-14449
▁shopping	-14450
▁telltale	-14451
▁ventures	-14452
▁everybody	-14453
▁expansion	-14454
js	-14455
353	-14456
395	-14457
399	-14458
506	-14459
988	-14460
afa	-14461
chr	-14462
fax	-14463
ioc	-14464
itr	-14465
opp	-14466
top	-14467
acom	-14468
wise	-14469
▁ded	-14470
▁ees	-14471
▁eta	-14472
▁img	-14473
▁jus	-14474
▁muc	-14475
▁psc	-14476
▁pso	-14477
▁vag	-14478
archy	-14479
asson	-14480
iella	-14481
iques	-14482
otech	-14483
▁7100	-14484
▁baob	-14485
▁hann	-14486
▁hime	-14487
▁junk	-14488
▁lamp	-14489
▁plug	-14490
▁repl	-14491
▁slip	-14492
▁vela	-14493
estone	-14494
heimer	-14495
▁asper	-14496
▁birds	-14497
▁filip	-14498
▁kuala	-14499
▁leave	-14500
▁mouse	-14501
▁percy	-14502
▁retro	-14503
▁revol	-14504
▁tango	-14505
ensions	-14506
▁amoled	-14507
▁analyt	-14508
▁become	-14509
▁cities	-14510
▁ending	-14511
▁loving	-14512
▁qwerty	-14513
▁activex	-14514
▁auguste	-14515
▁brigade	-14516
▁germany	-14517
▁harvest	-14518
▁opening	-14519
▁tenness	-14520
▁powershot	-14521
sr	-14522
377	-14523
378	-14524
607	-14525
jay	-14526
obi	-14527
▁gv	-14528
acty	-14529
ects	-14530
eroy	-14531
gard	-14532
itus	-14533
▁buy	-14534
▁cly	-14535
▁cmg	-14536
▁csf	-14537
▁evo	-14538
▁fas	-14539
▁giv	-14540
▁mcp	-14541
▁nup	-14542
▁pha	-14543
▁slc	-14544
▁spc	-14545
▁viz	-14546
acher	-14547
acity	-14548
allow	-14549
ately	-14550
ially	-14551
lated	-14552
uttle	-14553
▁7700	-14554
▁8100	-14555
▁beer	-14556
▁cald	-14557
▁dang	-14558
▁fand	-14559
▁mask	-14560
▁moss	-14561
▁ones	-14562
▁rene	-14563
▁sina	-14564
▁wann	-14565
▁whis	-14566
▁yand	-14567
ifolia	-14568
prises	-14569
▁clara	-14570
▁coron	-14571
▁cyrix	-14572
▁debut	-14573
▁dijon	-14574
▁donna	-14575
▁hobby	-14576
▁klaus	-14577
▁loire	-14578
▁mercy	-14579
▁pione	-14580
▁schwe	-14581
▁stark	-14582
▁weber	-14583
enstein	-14584
▁baobab	-14585
▁condom	-14586
▁forbes	-14587
▁ticket	-14588
▁tienne	-14589
▁vivian	-14590
pression	-14591
▁anthrop	-14592
▁blender	-14593
▁chester	-14594
▁impreza	-14595
▁mohamed	-14596
▁ranking	-14597
▁simpson	-14598
▁athletic	-14599
▁mcdonald	-14600
▁signific	-14601
▁superior	-14602
▁supercell	-14603
▁alexandria	-14604
▁instruction	-14605
dx	-14606
267	-14607
408	-14608
arh	-14609
plo	-14610
spe	-14611
uis	-14612
yst	-14613
2008	-14614
2012	-14615
ipur	-14616
mbit	-14617
werk	-14618
▁dmc	-14619
▁dmm	-14620
▁hoy	-14621
▁lsa	-14622
▁nfa	-14623
▁pim	-14624
▁sna	-14625
▁xxi	-14626
▁zak	-14627
icher	-14628
wagen	-14629
▁alle	-14630
▁amus	-14631
▁cerv	-14632
▁hyde	-14633
▁join	-14634
▁lump	-14635
▁morg	-14636
▁msci	-14637
▁pair	-14638
▁pros	-14639
▁quiz	-14640
▁ribe	-14641
▁sole	-14642
▁stag	-14643
▁tain	-14644
▁vera	-14645
▁yuan	-14646
lababy	-14647
▁bains	-14648
▁curry	-14649
▁entre	-14650
▁mende	-14651
▁miami	-14652
▁pyram	-14653
▁americ	-14654
▁breath	-14655
▁carmen	-14656
▁hannah	-14657
▁limoux	-14658
▁martha	-14659
▁weight	-14660
▁gardner	-14661
▁destruct	-14662
▁frankfur	-14663
▁platinum	-14664
▁polytech	-14665
▁algorithm	-14666
bj	-14667
wy	-14668
234	-14669
289	-14670
454	-14671
aho	-14672
azi	-14673
ifl	-14674
1001	-14675
adia	-14676
aeus	-14677
awak	-14678
▁afp	-14679
▁anu	-14680
▁ene	-14681
▁ere	-14682
▁iga	-14683
▁lcs	-14684
▁nix	-14685
▁rau	-14686
▁sug	-14687
ained	-14688
annes	-14689
brand	-14690
ignac	-14691
olens	-14692
▁aman	-14693
▁cuda	-14694
▁drew	-14695
▁judy	-14696
▁lara	-14697
▁seam	-14698
▁shim	-14699
▁slam	-14700
▁trag	-14701
eneuve	-14702
untime	-14703
▁armor	-14704
▁arrow	-14705
▁bravo	-14706
▁delay	-14707
▁enemy	-14708
▁heinz	-14709
▁mixed	-14710
▁sally	-14711
▁santo	-14712
▁shirt	-14713
▁entity	-14714
▁icloud	-14715
▁jerome	-14716
▁metall	-14717
▁penins	-14718
▁stanag	-14719
▁though	-14720
▁tumblr	-14721
▁elliott	-14722
▁liberal	-14723
▁catalogue	-14724
▁certificate	-14725
▁universities	-14726
kl	-14727
qa	-14728
235	-14729
293	-14730
373	-14731
388	-14732
ifa	-14733
nis	-14734
qui	-14735
▁qc	-14736
ably	-14737
anya	-14738
atur	-14739
buck	-14740
club	-14741
phia	-14742
shaw	-14743
ydro	-14744
▁cns	-14745
▁luv	-14746
▁mbt	-14747
▁mip	-14748
▁mtd	-14749
▁pem	-14750
▁vat	-14751
ently	-14752
games	-14753
oting	-14754
▁alge	-14755
▁arte	-14756
▁forg	-14757
▁halo	-14758
▁kwan	-14759
▁mcle	-14760
▁sort	-14761
▁thou	-14762
▁tres	-14763
▁wein	-14764
▁yuki	-14765
erties	-14766
▁21000	-14767
▁marin	-14768
▁marks	-14769
▁riley	-14770
▁spice	-14771
▁twist	-14772
limited	-14773
▁domini	-14774
▁expert	-14775
▁horace	-14776
▁jennie	-14777
▁horipro	-14778
▁methods	-14779
▁solomon	-14780
▁unified	-14781
▁audition	-14782
▁external	-14783
▁stardust	-14784
▁strategy	-14785
▁assistant	-14786
▁emergency	-14787
▁navigator	-14788
▁tennessee	-14789
▁psychology	-14790
▁silverlight	-14791
279	-14792
376	-14793
389	-14794
396	-14795
507	-14796
551	-14797
708	-14798
nia	-14799
oti	-14800
rew	-14801
▁pq	-14802
▁vj	-14803
▁yb	-14804
1903	-14805
aire	-14806
aves	-14807
icom	-14808
lake	-14809
mith	-14810
noon	-14811
ogne	-14812
▁adj	-14813
▁dss	-14814
▁ebs	-14815
▁efi	-14816
▁ego	-14817
▁fuk	-14818
▁hua	-14819
▁ims	-14820
▁nsx	-14821
▁siu	-14822
court	-14823
ersen	-14824
iplex	-14825
power	-14826
▁2034	-14827
▁5900	-14828
▁8200	-14829
▁edin	-14830
▁foix	-14831
▁henn	-14832
▁lgpl	-14833
▁lyon	-14834
▁marx	-14835
▁oste	-14836
▁pert	-14837
▁styl	-14838
▁verb	-14839
▁27000	-14840
▁chanc	-14841
▁chant	-14842
▁crane	-14843
▁fifth	-14844
▁guang	-14845
▁guild	-14846
▁humph	-14847
▁icoca	-14848
▁jonas	-14849
▁kappa	-14850
▁maple	-14851
▁msnbc	-14852
▁outer	-14853
▁quinn	-14854
▁rocky	-14855
▁rubin	-14856
▁tsing	-14857
▁broken	-14858
▁dallas	-14859
▁hassan	-14860
▁hotels	-14861
▁luther	-14862
▁minute	-14863
▁telesc	-14864
▁balance	-14865
▁celeron	-14866
▁feeling	-14867
▁flowers	-14868
▁gamepro	-14869
▁miranda	-14870
▁pearson	-14871
▁contents	-14872
▁decision	-14873
▁publications	-14874
243	-14875
334	-14876
398	-14877
476	-14878
485	-14879
789	-14880
957	-14881
gee	-14882
lal	-14883
▁ql	-14884
alus	-14885
iago	-14886
mine	-14887
orie	-14888
vaux	-14889
wara	-14890
▁esi	-14891
▁hoh	-14892
▁iic	-14893
▁iis	-14894
▁kut	-14895
▁spd	-14896
▁ugc	-14897
▁zis	-14898
antin	-14899
icola	-14900
oland	-14901
ories	-14902
▁2650	-14903
▁adel	-14904
▁boun	-14905
▁dena	-14906
▁falk	-14907
▁fips	-14908
▁guns	-14909
▁pong	-14910
▁saul	-14911
▁shib	-14912
▁sous	-14913
▁symm	-14914
▁toys	-14915
▁wade	-14916
▁wire	-14917
▁yong	-14918
ending	-14919
kirche	-14920
struct	-14921
wealth	-14922
▁bones	-14923
▁buddy	-14924
▁chloe	-14925
▁digic	-14926
▁miner	-14927
▁trich	-14928
▁clover	-14929
▁degree	-14930
▁fraser	-14931
▁improv	-14932
▁jessie	-14933
▁context	-14934
▁endless	-14935
▁objects	-14936
▁pattern	-14937
▁traffic	-14938
▁baptiste	-14939
▁seminary	-14940
▁operating	-14941
▁schneider	-14942
▁unlimited	-14943
▁leadership	-14944
▁rothschild	-14945
▁villeneuve	-14946
fx	-14947
uj	-14948
xa	-14949
219	-14950
707	-14951
807	-14952
902	-14953
954	-14954
965	-14955
hab	-14956
odi	-14957
riz	-14958
vic	-14959
anos	-14960
boro	-14961
grad	-14962
only	-14963
onym	-14964
▁bmd	-14965
▁ils	-14966
▁lez	-14967
▁moa	-14968
▁nen	-14969
▁ucl	-14970
icial	-14971
omery	-14972
▁adsl	-14973
▁ampl	-14974
▁chch	-14975
▁chim	-14976
▁geek	-14977
▁harr	-14978
▁ivpp	-14979
▁kell	-14980
▁raff	-14981
▁vlan	-14982
island	-14983
▁aleks	-14984
▁artem	-14985
▁basin	-14986
▁brent	-14987
▁brien	-14988
▁juice	-14989
▁kenny	-14990
▁luigi	-14991
▁means	-14992
▁towns	-14993
▁tribe	-14994
▁bernay	-14995
▁darren	-14996
▁enough	-14997
▁hubert	-14998
▁labour	-14999
▁oculus	-15000
▁pseudo	-15001
▁trophy	-15002
▁betamax	-15003
▁complet	-15004
▁madison	-15005
▁mississ	-15006
▁results	-15007
▁variety	-15008
▁florence	-15009
▁isabella	-15010
▁operator	-15011
▁sterling	-15012
▁powerbook	-15013
▁superstar	-15014
▁angelababy	-15015
▁excellence	-15016
▁population	-15017
▁libreoffice	-15018
241	-15019
283	-15020
364	-15021
704	-15022
709	-15023
kas	-15024
lei	-15025
▁zd	-15026
eaux	-15027
ills	-15028
ried	-15029
rine	-15030
uria	-15031
▁arx	-15032
▁avi	-15033
▁bma	-15034
▁ccc	-15035
▁cps	-15036
▁doh	-15037
▁eck	-15038
▁ifa	-15039
▁ked	-15040
▁mez	-15041
▁wee	-15042
▁wur	-15043
ersey	-15044
eston	-15045
lator	-15046
oming	-15047
onian	-15048
▁acer	-15049
▁alco	-15050
▁arct	-15051
▁cray	-15052
▁desc	-15053
▁espa	-15054
▁fing	-15055
▁keys	-15056
▁lynx	-15057
▁marg	-15058
▁nach	-15059
▁resc	-15060
▁rost	-15061
braska	-15062
etimes	-15063
nesota	-15064
▁abstr	-15065
▁arist	-15066
▁goose	-15067
▁behind	-15068
▁gerard	-15069
▁tarbes	-15070
ransport	-15071
▁baldwin	-15072
▁buffalo	-15073
▁richter	-15074
▁runtime	-15075
▁testing	-15076
▁tournon	-15077
▁altkirch	-15078
▁anywhere	-15079
▁nebraska	-15080
▁philadel	-15081
▁canonical	-15082
▁condition	-15083
▁henderson	-15084
▁minnesota	-15085
▁soundcloud	-15086
▁experimental	-15087
uw	-15088
274	-15089
453	-15090
478	-15091
479	-15092
655	-15093
kor	-15094
mag	-15095
ryn	-15096
uez	-15097
▁nw	-15098
2018	-15099
geon	-15100
omen	-15101
ozer	-15102
quel	-15103
tera	-15104
▁abi	-15105
▁adl	-15106
▁akm	-15107
▁ibe	-15108
▁ico	-15109
▁igm	-15110
▁iib	-15111
▁jkt	-15112
▁wcw	-15113
ibald	-15114
inski	-15115
print	-15116
▁2032	-15117
▁8400	-15118
▁8600	-15119
▁cars	-15120
▁cola	-15121
▁cope	-15122
▁dahl	-15123
▁foll	-15124
▁pash	-15125
▁pull	-15126
▁seek	-15127
▁tiss	-15128
▁turk	-15129
▁twil	-15130
▁yves	-15131
▁68000	-15132
▁anglo	-15133
▁autoc	-15134
▁gesch	-15135
▁penny	-15136
▁resid	-15137
assonne	-15138
uration	-15139
▁applet	-15140
▁edmond	-15141
▁gregor	-15142
▁hollow	-15143
▁mental	-15144
▁nobody	-15145
▁patrol	-15146
▁sketch	-15147
▁soccer	-15148
▁tablet	-15149
▁binding	-15150
▁faculty	-15151
▁warning	-15152
▁augustus	-15153
▁latitude	-15154
▁properties	-15155
▁investments	-15156
▁commonwealth	-15157
▁independence	-15158
369	-15159
459	-15160
474	-15161
955	-15162
daq	-15163
rai	-15164
sex	-15165
sum	-15166
uty	-15167
amar	-15168
anes	-15169
anor	-15170
atro	-15171
ened	-15172
hand	-15173
oter	-15174
uela	-15175
ught	-15176
vill	-15177
▁asa	-15178
▁bia	-15179
▁blg	-15180
▁dsl	-15181
▁gia	-15182
▁gug	-15183
▁gus	-15184
▁hpa	-15185
▁hsp	-15186
▁jug	-15187
▁mie	-15188
▁mls	-15189
▁mmx	-15190
▁nhs	-15191
▁ode	-15192
▁una	-15193
▁xin	-15194
▁zum	-15195
atore	-15196
▁4217	-15197
▁aise	-15198
▁chao	-15199
▁ctrl	-15200
▁duty	-15201
▁knox	-15202
▁lime	-15203
▁phoe	-15204
▁reid	-15205
▁sylv	-15206
▁tess	-15207
▁thin	-15208
▁vest	-15209
anthus	-15210
▁alain	-15211
▁blink	-15212
▁crash	-15213
▁latex	-15214
▁restr	-15215
▁rural	-15216
▁scout	-15217
▁winfs	-15218
▁berryz	-15219
▁bomber	-15220
▁divers	-15221
▁domest	-15222
▁franco	-15223
▁freddy	-15224
▁nieder	-15225
▁option	-15226
▁rather	-15227
▁roguel	-15228
▁sacred	-15229
▁serial	-15230
▁static	-15231
▁supers	-15232
▁trevor	-15233
▁willie	-15234
▁zimmer	-15235
▁carrera	-15236
▁clinton	-15237
▁neutral	-15238
▁partido	-15239
▁tracker	-15240
▁writing	-15241
▁although	-15242
▁clinical	-15243
▁graduate	-15244
▁certified	-15245
▁crossfire	-15246
▁manhattan	-15247
▁millennium	-15248
▁wonderswan	-15249
▁carcassonne	-15250
▁includeonly	-15251
221	-15252
253	-15253
278	-15254
317	-15255
464	-15256
468	-15257
472	-15258
768	-15259
hpa	-15260
irt	-15261
▁iy	-15262
1919	-15263
akan	-15264
arez	-15265
emen	-15266
enna	-15267
ffen	-15268
into	-15269
inux	-15270
olta	-15271
ssen	-15272
word	-15273
▁bip	-15274
▁cae	-15275
▁dea	-15276
▁eas	-15277
▁fsb	-15278
▁haf	-15279
▁hoc	-15280
▁ire	-15281
▁miy	-15282
▁ssa	-15283
▁stl	-15284
ifera	-15285
ockey	-15286
olith	-15287
query	-15288
riage	-15289
strom	-15290
▁caes	-15291
▁cave	-15292
▁flet	-15293
▁hert	-15294
▁lago	-15295
▁lvmh	-15296
▁plum	-15297
▁tort	-15298
▁vire	-15299
saurus	-15300
▁70000	-15301
▁caval	-15302
▁confl	-15303
▁expos	-15304
▁muret	-15305
▁nexon	-15306
▁pulse	-15307
▁rania	-15308
▁voith	-15309
▁dakota	-15310
▁former	-15311
▁fundam	-15312
▁garnet	-15313
▁honour	-15314
▁mighty	-15315
▁oxygen	-15316
▁prepar	-15317
▁priest	-15318
▁citizen	-15319
▁podcast	-15320
▁astronom	-15321
▁breaking	-15322
▁cardinal	-15323
▁discover	-15324
▁according	-15325
▁indonesia	-15326
▁sometimes	-15327
▁montgomery	-15328
▁mississippi	-15329
fd	-15330
318	-15331
466	-15332
483	-15333
pon	-15334
▁lk	-15335
▁uo	-15336
adio	-15337
chel	-15338
pace	-15339
sein	-15340
▁ami	-15341
▁cfc	-15342
▁chh	-15343
▁ctc	-15344
▁ctu	-15345
▁dma	-15346
▁dys	-15347
▁fow	-15348
▁ini	-15349
▁kag	-15350
▁kib	-15351
▁kiv	-15352
▁kov	-15353
▁mcl	-15354
▁neb	-15355
▁pcl	-15356
▁stg	-15357
▁tup	-15358
▁vec	-15359
▁yeh	-15360
▁ymc	-15361
antes	-15362
books	-15363
idine	-15364
illed	-15365
inson	-15366
plate	-15367
utter	-15368
▁aqua	-15369
▁maid	-15370
▁taxi	-15371
▁tick	-15372
▁erich	-15373
▁leeds	-15374
▁marit	-15375
▁ricky	-15376
▁rogue	-15377
berland	-15378
▁barcel	-15379
▁minimi	-15380
▁outlet	-15381
▁portal	-15382
▁regina	-15383
▁tunnel	-15384
▁chronic	-15385
▁density	-15386
▁enrique	-15387
▁fitness	-15388
▁freeman	-15389
▁gerhard	-15390
▁neoplan	-15391
▁purpose	-15392
▁fletcher	-15393
▁largenti	-15394
▁negative	-15395
▁samantha	-15396
▁twilight	-15397
▁chronicle	-15398
▁consortium	-15399
▁hypertransport	-15400
bg	-15401
fp	-15402
fu	-15403
212	-15404
656	-15405
alu	-15406
fam	-15407
fig	-15408
fix	-15409
jew	-15410
org	-15411
rou	-15412
▁jm	-15413
▁tq	-15414
bolt	-15415
chor	-15416
etus	-15417
heit	-15418
leen	-15419
onga	-15420
quez	-15421
toon	-15422
▁arl	-15423
▁boo	-15424
▁cpa	-15425
▁cpg	-15426
▁dtv	-15427
▁erg	-15428
▁gdf	-15429
▁kne	-15430
▁kro	-15431
▁ktx	-15432
▁mca	-15433
▁mog	-15434
▁nsc	-15435
▁pte	-15436
▁sdl	-15437
▁wma	-15438
agnet	-15439
entin	-15440
reich	-15441
state	-15442
ungen	-15443
▁alum	-15444
▁brah	-15445
▁carb	-15446
▁grup	-15447
▁holl	-15448
▁jaya	-15449
▁jill	-15450
▁neal	-15451
▁perm	-15452
▁quot	-15453
▁reef	-15454
▁siam	-15455
▁slim	-15456
▁surf	-15457
burger	-15458
engine	-15459
ophone	-15460
▁atrac	-15461
▁elias	-15462
▁elisa	-15463
▁exped	-15464
▁konst	-15465
▁metra	-15466
▁mouth	-15467
ococcus	-15468
▁cotton	-15469
▁finals	-15470
▁fuller	-15471
▁jewish	-15472
▁ration	-15473
▁strept	-15474
▁violet	-15475
▁voyage	-15476
▁xtreme	-15477
▁calling	-15478
▁partner	-15479
▁anything	-15480
▁guardian	-15481
▁recording	-15482
▁roguelike	-15483
▁assessment	-15484
▁enterprises	-15485
▁wissembourg	-15486
tu	-15487
956	-15488
lic	-15489
mex	-15490
otr	-15491
pis	-15492
pod	-15493
athe	-15494
chem	-15495
muse	-15496
rina	-15497
wing	-15498
writ	-15499
▁aip	-15500
▁ape	-15501
▁btr	-15502
▁dha	-15503
▁dus	-15504
▁eap	-15505
▁fec	-15506
▁ina	-15507
▁lom	-15508
▁msv	-15509
▁nii	-15510
▁paz	-15511
▁roe	-15512
▁rtm	-15513
▁ryo	-15514
▁tgf	-15515
▁wcd	-15516
atops	-15517
isoft	-15518
orpor	-15519
▁2312	-15520
▁9200	-15521
▁beos	-15522
▁frog	-15523
▁hors	-15524
▁iran	-15525
▁kale	-15526
▁mein	-15527
▁mosc	-15528
▁neur	-15529
▁rend	-15530
▁saml	-15531
▁webb	-15532
illing	-15533
▁anita	-15534
▁brick	-15535
▁cecil	-15536
▁clamp	-15537
▁corey	-15538
▁geass	-15539
▁lingu	-15540
▁matth	-15541
▁names	-15542
▁prius	-15543
▁salon	-15544
▁semic	-15545
▁taman	-15546
▁volvo	-15547
▁banana	-15548
▁herald	-15549
▁jersey	-15550
▁legion	-15551
▁mosfet	-15552
▁pieces	-15553
▁proced	-15554
▁sheikh	-15555
▁sophia	-15556
▁jupiter	-15557
▁mikhail	-15558
▁polygon	-15559
▁sarawak	-15560
▁warfare	-15561
▁ftisland	-15562
▁qualcomm	-15563
▁sandwich	-15564
▁telegram	-15565
▁coutances	-15566
▁evangelion	-15567
▁multimedia	-15568
▁wonderland	-15569
wb	-15570
342	-15571
497	-15572
550	-15573
803	-15574
904	-15575
cam	-15576
gow	-15577
hey	-15578
oms	-15579
zin	-15580
▁zg	-15581
2011	-15582
angi	-15583
arya	-15584
enau	-15585
eney	-15586
idis	-15587
itri	-15588
oral	-15589
osus	-15590
ynos	-15591
▁cog	-15592
▁deh	-15593
▁dmr	-15594
▁fug	-15595
▁gsh	-15596
▁ofo	-15597
▁rcs	-15598
▁sfc	-15599
▁ufj	-15600
▁zoe	-15601
enzie	-15602
iting	-15603
write	-15604
▁alba	-15605
▁blur	-15606
▁capp	-15607
▁cron	-15608
▁dino	-15609
▁diod	-15610
▁emer	-15611
▁fuel	-15612
▁iana	-15613
▁mene	-15614
▁niko	-15615
▁pope	-15616
▁quin	-15617
▁stef	-15618
▁thus	-15619
▁troy	-15620
▁vene	-15621
▁vint	-15622
ipping	-15623
minute	-15624
weiler	-15625
▁aacsb	-15626
▁began	-15627
▁bitch	-15628
▁campo	-15629
▁diane	-15630
▁drake	-15631
▁hazel	-15632
▁ideal	-15633
▁oppos	-15634
▁pasha	-15635
▁tesla	-15636
▁treas	-15637
▁veloc	-15638
▁winds	-15639
▁became	-15640
▁cannon	-15641
▁cobras	-15642
▁fabric	-15643
▁gilles	-15644
▁guilla	-15645
▁macrom	-15646
▁moving	-15647
▁nascar	-15648
▁netbsd	-15649
▁pchome	-15650
▁proton	-15651
▁rescue	-15652
▁turtle	-15653
▁weaver	-15654
▁colonel	-15655
▁dolphin	-15656
▁ettoday	-15657
▁kitchen	-15658
▁schloss	-15659
▁clarence	-15660
▁griffith	-15661
▁standing	-15662
▁featuring	-15663
▁principal	-15664
▁stephanie	-15665
▁experiment	-15666
384	-15667
385	-15668
444	-15669
804	-15670
808	-15671
ahi	-15672
chs	-15673
hua	-15674
oum	-15675
acki	-15676
ados	-15677
alat	-15678
beck	-15679
care	-15680
girl	-15681
idia	-15682
olus	-15683
park	-15684
▁adc	-15685
▁dai	-15686
▁hew	-15687
▁kip	-15688
▁mib	-15689
▁ocn	-15690
▁pis	-15691
anium	-15692
sburg	-15693
▁axel	-15694
▁casc	-15695
▁chiu	-15696
▁chos	-15697
▁cypr	-15698
▁dend	-15699
▁garo	-15700
▁kktv	-15701
▁kont	-15702
▁ssri	-15703
▁vale	-15704
itting	-15705
▁ambro	-15706
▁below	-15707
▁bourg	-15708
▁chcoo	-15709
▁dolby	-15710
▁dolce	-15711
▁etops	-15712
▁files	-15713
▁glock	-15714
▁hydra	-15715
▁kunst	-15716
▁mayer	-15717
▁naked	-15718
▁bacter	-15719
▁ballad	-15720
▁centro	-15721
▁willis	-15722
▁britann	-15723
▁changes	-15724
▁germain	-15725
▁killing	-15726
▁landing	-15727
▁organiz	-15728
▁percent	-15729
▁sneaker	-15730
▁various	-15731
▁youbike	-15732
▁prestige	-15733
▁reynolds	-15734
▁triangle	-15735
▁communist	-15736
▁functional	-15737
▁mediaworks	-15738
▁transition	-15739
▁conservation	-15740
zn	-15741
349	-15742
367	-15743
703	-15744
864	-15745
atu	-15746
odo	-15747
wei	-15748
yal	-15749
▁bq	-15750
aged	-15751
blog	-15752
garh	-15753
idus	-15754
iros	-15755
lane	-15756
rose	-15757
unda	-15758
▁adr	-15759
▁aph	-15760
▁bpp	-15761
▁daf	-15762
▁dct	-15763
▁dkz	-15764
▁eis	-15765
▁ike	-15766
▁isi	-15767
▁loe	-15768
▁mpc	-15769
▁pud	-15770
▁pwm	-15771
▁qbz	-15772
▁snr	-15773
▁src	-15774
▁tux	-15775
▁tvs	-15776
▁viu	-15777
▁wps	-15778
▁yer	-15779
ables	-15780
achim	-15781
chant	-15782
gaard	-15783
platz	-15784
▁belg	-15785
▁bram	-15786
▁bros	-15787
▁chas	-15788
▁choi	-15789
▁dwar	-15790
▁giul	-15791
▁hina	-15792
▁kash	-15793
▁lima	-15794
▁mika	-15795
▁moto	-15796
▁perc	-15797
▁yung	-15798
ishing	-15799
senses	-15800
yright	-15801
▁ahead	-15802
▁barth	-15803
▁cases	-15804
▁cisco	-15805
▁citiz	-15806
▁engel	-15807
▁eniac	-15808
▁foods	-15809
▁impro	-15810
▁legis	-15811
▁liang	-15812
▁monde	-15813
▁pound	-15814
▁scorp	-15815
▁spart	-15816
▁verge	-15817
▁wcdma	-15818
essions	-15819
iciency	-15820
osphere	-15821
▁announ	-15822
▁bundes	-15823
▁cedric	-15824
▁column	-15825
▁comedy	-15826
▁eduard	-15827
▁exynos	-15828
▁ffffff	-15829
▁finger	-15830
▁hansen	-15831
▁levels	-15832
▁supply	-15833
▁sylvia	-15834
▁teredo	-15835
▁tracks	-15836
▁yandex	-15837
▁algebra	-15838
▁contrib	-15839
▁describ	-15840
▁scratch	-15841
▁waiting	-15842
▁walkman	-15843
▁clifford	-15844
▁criminal	-15845
▁ferguson	-15846
▁previous	-15847
bv	-15848
pv	-15849
jah	-15850
jam	-15851
jav	-15852
rex	-15853
tim	-15854
vik	-15855
yat	-15856
zar	-15857
▁wt	-15858
awan	-15859
jure	-15860
lade	-15861
ogie	-15862
witz	-15863
▁abo	-15864
▁apl	-15865
▁aws	-15866
▁cdk	-15867
▁cuc	-15868
▁gce	-15869
▁gta	-15870
▁nhc	-15871
▁sds	-15872
▁thf	-15873
▁ute	-15874
▁vst	-15875
andez	-15876
asion	-15877
borne	-15878
olate	-15879
▁batu	-15880
▁cats	-15881
▁chou	-15882
▁dors	-15883
▁gest	-15884
▁gplv	-15885
▁hebe	-15886
▁lego	-15887
▁lope	-15888
▁pitt	-15889
▁slot	-15890
▁smtp	-15891
▁sohr	-15892
▁tent	-15893
▁thal	-15894
▁yuri	-15895
aneous	-15896
etting	-15897
▁24000	-15898
▁braun	-15899
▁clare	-15900
▁cocoa	-15901
▁haven	-15902
▁icann	-15903
▁megan	-15904
▁mines	-15905
▁reyes	-15906
▁rough	-15907
▁scher	-15908
▁sdkfz	-15909
▁tracy	-15910
▁benson	-15911
▁colors	-15912
▁conver	-15913
▁jeanne	-15914
▁kimber	-15915
▁morton	-15916
▁nether	-15917
▁perche	-15918
▁pierce	-15919
▁shader	-15920
▁telnet	-15921
▁animals	-15922
▁massive	-15923
▁moments	-15924
▁openssl	-15925
▁silence	-15926
▁citizens	-15927
▁creation	-15928
▁peterson	-15929
▁construct	-15930
▁peninsula	-15931
▁alessandro	-15932
▁fellowship	-15933
▁statistical	-15934
▁philadelphia	-15935
nx	-15936
471	-15937
487	-15938
958	-15939
cod	-15940
cos	-15941
enf	-15942
amps	-15943
appy	-15944
igma	-15945
live	-15946
ocks	-15947
▁anh	-15948
▁csa	-15949
▁ehr	-15950
▁isc	-15951
▁joa	-15952
▁jou	-15953
▁mcd	-15954
▁oma	-15955
▁opc	-15956
▁pcs	-15957
▁pne	-15958
▁rts	-15959
▁sui	-15960
▁wcg	-15961
arthy	-15962
hurst	-15963
ignon	-15964
ombie	-15965
stown	-15966
▁2350	-15967
▁alab	-15968
▁alla	-15969
▁amba	-15970
▁asha	-15971
▁bess	-15972
▁dish	-15973
▁ecma	-15974
▁ered	-15975
▁guar	-15976
▁liam	-15977
▁maha	-15978
▁meng	-15979
▁papa	-15980
▁rhin	-15981
▁sass	-15982
▁tata	-15983
▁thur	-15984
▁util	-15985
▁uuid	-15986
▁wedd	-15987
▁wisc	-15988
▁zard	-15989
▁edith	-15990
▁flora	-15991
▁invol	-15992
▁membr	-15993
▁moses	-15994
▁patch	-15995
▁plain	-15996
▁ponte	-15997
▁quadr	-15998
▁shark	-15999
▁spear	-16000
▁trace	-16001
▁burton	-16002
▁chakra	-16003
▁contra	-16004
▁criter	-16005
▁maison	-16006
▁nichol	-16007
▁proper	-16008
▁unique	-16009
▁wanted	-16010
▁winamp	-16011
▁aniplex	-16012
▁eduardo	-16013
▁moselle	-16014
▁popcorn	-16015
▁segment	-16016
▁santiago	-16017
▁christina	-16018
▁copyright	-16019
▁dependent	-16020
▁adventures	-16021
▁particular	-16022
▁investigation	-16023
jm	-16024
292	-16025
650	-16026
666	-16027
877	-16028
967	-16029
ays	-16030
bau	-16031
dev	-16032
▁yr	-16033
▁ys	-16034
anka	-16035
apan	-16036
fork	-16037
ghan	-16038
jekt	-16039
jung	-16040
pond	-16041
▁ems	-16042
▁jaw	-16043
▁msx	-16044
▁odd	-16045
▁pgm	-16046
▁tbf	-16047
▁thq	-16048
▁urb	-16049
ichth	-16050
pedia	-16051
pling	-16052
rance	-16053
rough	-16054
▁0011	-16055
▁0800	-16056
▁abcd	-16057
▁aram	-16058
▁cous	-16059
▁crtc	-16060
▁dumb	-16061
▁flux	-16062
▁hana	-16063
▁laun	-16064
▁maru	-16065
▁moba	-16066
▁moll	-16067
▁noel	-16068
▁radi	-16069
▁sauv	-16070
▁sugg	-16071
▁suse	-16072
▁swed	-16073
▁tear	-16074
▁tian	-16075
▁triv	-16076
ecesis	-16077
market	-16078
ologie	-16079
uments	-16080
▁carne	-16081
▁deriv	-16082
▁hutch	-16083
▁liard	-16084
▁salem	-16085
▁shaft	-16086
▁alexis	-16087
▁beaune	-16088
▁divine	-16089
▁rodrig	-16090
▁ultras	-16091
▁certain	-16092
▁classes	-16093
▁contest	-16094
▁outside	-16095
▁sherman	-16096
▁terrace	-16097
▁trigger	-16098
▁abdullah	-16099
▁confeder	-16100
▁consumer	-16101
▁planning	-16102
▁saturday	-16103
▁shepherd	-16104
▁bulldozer	-16105
▁dimension	-16106
▁definition	-16107
nl	-16108
sf	-16109
025	-16110
272	-16111
751	-16112
bek	-16113
cio	-16114
hee	-16115
▁wl	-16116
2700	-16117
2800	-16118
chus	-16119
inea	-16120
iris	-16121
kong	-16122
olor	-16123
ophe	-16124
rows	-16125
spot	-16126
vere	-16127
▁ama	-16128
▁imi	-16129
▁jae	-16130
▁kik	-16131
▁ohv	-16132
▁omg	-16133
▁pst	-16134
▁sdp	-16135
▁vom	-16136
illet	-16137
oding	-16138
▁0002	-16139
▁acca	-16140
▁alej	-16141
▁awak	-16142
▁gand	-16143
▁gogo	-16144
▁isla	-16145
▁rack	-16146
▁repe	-16147
▁siem	-16148
▁subs	-16149
▁sulf	-16150
▁tara	-16151
veland	-16152
▁actor	-16153
▁agnes	-16154
▁guest	-16155
▁influ	-16156
▁mandr	-16157
▁mitch	-16158
▁olive	-16159
▁persp	-16160
▁ports	-16161
▁rapha	-16162
▁sting	-16163
▁ultim	-16164
▁benton	-16165
▁castel	-16166
▁diesel	-16167
▁garcia	-16168
▁hawaii	-16169
▁muscle	-16170
▁rhodes	-16171
▁spread	-16172
▁polymer	-16173
▁reverse	-16174
▁simmons	-16175
aceutical	-16176
▁crossing	-16177
▁histoire	-16178
▁included	-16179
▁location	-16180
▁oriented	-16181
▁springer	-16182
▁archibald	-16183
▁corporate	-16184
▁developer	-16185
▁edinburgh	-16186
▁fantastic	-16187
▁macdonald	-16188
▁potential	-16189
▁socialist	-16190
▁principles	-16191
▁documentary	-16192
▁theological	-16193
▁intermediate	-16194
657	-16195
858	-16196
868	-16197
bed	-16198
cro	-16199
gil	-16200
igm	-16201
ned	-16202
nex	-16203
pop	-16204
two	-16205
zac	-16206
acaf	-16207
cker	-16208
conn	-16209
enza	-16210
etes	-16211
fact	-16212
fred	-16213
gets	-16214
iang	-16215
ioni	-16216
mate	-16217
pard	-16218
uder	-16219
utex	-16220
ydia	-16221
▁csv	-16222
▁fns	-16223
▁hpv	-16224
▁idf	-16225
▁ine	-16226
▁itt	-16227
▁kii	-16228
▁mii	-16229
▁msg	-16230
▁ntp	-16231
▁rdf	-16232
▁roi	-16233
▁sox	-16234
▁svo	-16235
▁zag	-16236
activ	-16237
antan	-16238
ienna	-16239
ourne	-16240
ourse	-16241
▁acro	-16242
▁amor	-16243
▁baba	-16244
▁bowl	-16245
▁brie	-16246
▁chcl	-16247
▁chno	-16248
▁cine	-16249
▁cran	-16250
▁ddos	-16251
▁glam	-16252
▁jude	-16253
▁sell	-16254
▁shak	-16255
▁suff	-16256
ailles	-16257
ospace	-16258
▁26000	-16259
▁fiona	-16260
▁grund	-16261
▁numer	-16262
▁pluto	-16263
▁porte	-16264
▁rouge	-16265
▁stade	-16266
▁synch	-16267
▁trump	-16268
▁xanga	-16269
▁almost	-16270
▁attrib	-16271
▁bachel	-16272
▁coding	-16273
▁crater	-16274
▁launch	-16275
▁mystic	-16276
▁values	-16277
▁andrews	-16278
▁clayton	-16279
▁looking	-16280
▁meliola	-16281
▁pioneer	-16282
▁talking	-16283
▁typhoon	-16284
▁chambers	-16285
▁chartres	-16286
▁particip	-16287
▁projects	-16288
▁salvador	-16289
▁shooting	-16290
▁afternoon	-16291
▁component	-16292
▁dominique	-16293
▁valentine	-16294
▁exhibition	-16295
▁expedition	-16296
bp	-16297
jk	-16298
147	-16299
363	-16300
484	-16301
555	-16302
aev	-16303
dog	-16304
irn	-16305
seg	-16306
umm	-16307
▁yv	-16308
asta	-16309
estr	-16310
liga	-16311
mare	-16312
obia	-16313
raph	-16314
▁avr	-16315
▁bok	-16316
▁cen	-16317
▁clr	-16318
▁csr	-16319
▁fim	-16320
▁fos	-16321
▁kpa	-16322
▁lah	-16323
▁ldh	-16324
▁mbr	-16325
▁miu	-16326
▁ntc	-16327
▁rar	-16328
▁sgi	-16329
▁vap	-16330
▁yaw	-16331
amina	-16332
icted	-16333
ighth	-16334
▁aure	-16335
▁baye	-16336
▁dela	-16337
▁luca	-16338
▁luft	-16339
▁mitt	-16340
▁rash	-16341
▁scan	-16342
▁sick	-16343
▁susp	-16344
▁tape	-16345
▁vanc	-16346
ayoshi	-16347
cliffe	-16348
ereign	-16349
lahoma	-16350
▁alias	-16351
▁delle	-16352
▁eshop	-16353
▁hasan	-16354
▁immun	-16355
▁loves	-16356
▁offer	-16357
▁rally	-16358
▁shawn	-16359
▁straw	-16360
▁tomas	-16361
▁declar	-16362
▁oloron	-16363
▁russia	-16364
▁smooth	-16365
▁stanis	-16366
▁symbol	-16367
▁bracket	-16368
▁convent	-16369
▁cunning	-16370
▁further	-16371
▁instant	-16372
▁powered	-16373
▁proceed	-16374
▁towards	-16375
▁vampire	-16376
▁distingu	-16377
▁historia	-16378
▁incorpor	-16379
▁rankings	-16380
▁received	-16381
▁sporting	-16382
▁veronica	-16383
▁cleveland	-16384
▁establish	-16385
▁injection	-16386
▁spotlight	-16387
▁electrical	-16388
▁destructoid	-16389
mn	-16390
291	-16391
341	-16392
362	-16393
393	-16394
397	-16395
473	-16396
788	-16397
964	-16398
968	-16399
bay	-16400
bcl	-16401
dot	-16402
hin	-16403
jer	-16404
naz	-16405
▁jn	-16406
▁rq	-16407
▁wx	-16408
▁yc	-16409
aces	-16410
alla	-16411
bing	-16412
enta	-16413
guer	-16414
ikan	-16415
roit	-16416
▁bez	-16417
▁bfr	-16418
▁bhd	-16419
▁bwf	-16420
▁csx	-16421
▁ejb	-16422
▁erd	-16423
▁icl	-16424
▁mpi	-16425
▁phr	-16426
▁srs	-16427
▁zee	-16428
angan	-16429
eness	-16430
igeac	-16431
isson	-16432
leigh	-16433
nagar	-16434
▁2045	-16435
▁apex	-16436
▁chev	-16437
▁deco	-16438
▁eddy	-16439
▁exam	-16440
▁fpga	-16441
▁gong	-16442
▁heck	-16443
▁heil	-16444
▁jard	-16445
▁larp	-16446
▁lund	-16447
▁phra	-16448
▁tyra	-16449
▁vixx	-16450
▁bomis	-16451
▁consc	-16452
▁doyle	-16453
▁polym	-16454
▁rings	-16455
▁shire	-16456
▁tunes	-16457
▁walsh	-16458
▁cosmic	-16459
▁greene	-16460
▁hypoth	-16461
▁lawson	-16462
▁mickey	-16463
▁monsta	-16464
▁oregon	-16465
▁ranger	-16466
▁sandra	-16467
▁torres	-16468
▁acceler	-16469
▁animage	-16470
▁failure	-16471
▁joachim	-16472
▁olivier	-16473
▁porsche	-16474
▁suggest	-16475
▁webtoon	-16476
▁bulletin	-16477
▁campagne	-16478
▁collabor	-16479
▁compound	-16480
▁elephant	-16481
▁mccarthy	-16482
▁amusement	-16483
▁champagne	-16484
▁engineers	-16485
▁methodist	-16486
▁sarrebourg	-16487
▁gesellschaft	-16488
294	-16489
335	-16490
469	-16491
625	-16492
750	-16493
962	-16494
mpp	-16495
1100	-16496
9001	-16497
anza	-16498
axis	-16499
emia	-16500
itia	-16501
lach	-16502
loon	-16503
ochi	-16504
rond	-16505
uchi	-16506
udan	-16507
urer	-16508
zzle	-16509
▁agu	-16510
▁bie	-16511
▁bii	-16512
▁bop	-16513
▁bov	-16514
▁bru	-16515
▁cyg	-16516
▁dst	-16517
▁duk	-16518
▁hep	-16519
▁nwa	-16520
▁ond	-16521
▁pus	-16522
▁vhf	-16523
▁vox	-16524
inium	-16525
stall	-16526
tress	-16527
ystem	-16528
▁9300	-16529
▁cory	-16530
▁deen	-16531
▁dehp	-16532
▁dich	-16533
▁dimm	-16534
▁espr	-16535
▁gert	-16536
▁guez	-16537
▁gung	-16538
▁kbit	-16539
▁lips	-16540
▁loth	-16541
▁lour	-16542
▁marm	-16543
▁noaa	-16544
▁prel	-16545
▁ramp	-16546
▁seat	-16547
▁skyt	-16548
▁surr	-16549
▁whip	-16550
▁abram	-16551
▁allin	-16552
▁botan	-16553
▁built	-16554
▁carat	-16555
▁hours	-16556
▁marqu	-16557
▁molly	-16558
▁orion	-16559
▁pizza	-16560
▁sauer	-16561
▁scada	-16562
▁taiji	-16563
▁trium	-16564
▁vital	-16565
▁bayeux	-16566
▁europa	-16567
▁gondor	-16568
▁gothic	-16569
▁having	-16570
▁jacobs	-16571
▁julien	-16572
▁jungle	-16573
▁listen	-16574
▁manual	-16575
▁others	-16576
▁recoch	-16577
▁replay	-16578
▁royale	-16579
▁smtown	-16580
▁worlds	-16581
▁capsule	-16582
▁italian	-16583
▁knights	-16584
▁majesty	-16585
▁natalie	-16586
▁pyramid	-16587
▁valence	-16588
▁weapons	-16589
▁concacaf	-16590
▁illusion	-16591
▁infantry	-16592
▁implement	-16593
▁sovereign	-16594
▁significant	-16595
lt	-16596
uo	-16597
381	-16598
392	-16599
461	-16600
561	-16601
752	-16602
909	-16603
cey	-16604
fen	-16605
ilm	-16606
iop	-16607
jas	-16608
zam	-16609
zni	-16610
▁zy	-16611
2014	-16612
enos	-16613
holm	-16614
kamp	-16615
nick	-16616
rico	-16617
unte	-16618
▁gma	-16619
▁ifc	-16620
▁iot	-16621
▁ply	-16622
▁pts	-16623
▁reh	-16624
▁sca	-16625
▁sss	-16626
▁ubi	-16627
▁unr	-16628
▁waf	-16629
aging	-16630
bonne	-16631
onsin	-16632
orial	-16633
quist	-16634
▁2031	-16635
▁2037	-16636
▁9100	-16637
▁able	-16638
▁buch	-16639
▁defa	-16640
▁emot	-16641
▁fala	-16642
▁gatt	-16643
▁lact	-16644
▁lies	-16645
▁mela	-16646
▁mesa	-16647
▁moor	-16648
▁noir	-16649
▁quer	-16650
▁rste	-16651
▁shor	-16652
▁toon	-16653
▁vood	-16654
iensis	-16655
▁23000	-16656
▁80386	-16657
▁bench	-16658
▁blois	-16659
▁cites	-16660
▁cloth	-16661
▁ether	-16662
▁faust	-16663
▁fruit	-16664
▁lopez	-16665
▁minix	-16666
▁optim	-16667
▁panor	-16668
▁pratt	-16669
▁proof	-16670
▁recre	-16671
▁sofia	-16672
▁vogel	-16673
▁barber	-16674
▁canvas	-16675
▁muslim	-16676
▁necess	-16677
▁presby	-16678
▁quartz	-16679
▁saints	-16680
▁sharon	-16681
▁stress	-16682
▁valign	-16683
▁wiener	-16684
▁chelsea	-16685
▁plastic	-16686
▁respect	-16687
▁weekend	-16688
▁davidson	-16689
▁friedman	-16690
▁libourne	-16691
▁oklahoma	-16692
▁survival	-16693
▁crossover	-16694
▁recochoku	-16695
▁telescope	-16696
▁missionary	-16697
▁pharmaceutical	-16698
bd	-16699
vb	-16700
686	-16701
769	-16702
809	-16703
ahr	-16704
hub	-16705
ogi	-16706
owe	-16707
psy	-16708
rae	-16709
yre	-16710
2017	-16711
alam	-16712
chio	-16713
fone	-16714
idon	-16715
ilan	-16716
inge	-16717
ture	-16718
week	-16719
▁aed	-16720
▁asv	-16721
▁bum	-16722
▁cmm	-16723
▁euc	-16724
▁jit	-16725
▁kpl	-16726
▁mae	-16727
▁muz	-16728
▁nga	-16729
▁nio	-16730
▁nsf	-16731
▁ors	-16732
▁ota	-16733
▁pik	-16734
▁tsi	-16735
▁vad	-16736
▁wbc	-16737
▁wha	-16738
▁yin	-16739
brook	-16740
forms	-16741
linux	-16742
oslav	-16743
▁belt	-16744
▁bout	-16745
▁boyd	-16746
▁bran	-16747
▁denn	-16748
▁deta	-16749
▁gbit	-16750
▁gras	-16751
▁leth	-16752
▁masc	-16753
▁ning	-16754
▁ospf	-16755
▁revo	-16756
▁sack	-16757
▁seti	-16758
▁simd	-16759
▁tend	-16760
emaker	-16761
engers	-16762
▁12306	-16763
▁apart	-16764
▁domen	-16765
▁eryth	-16766
▁helic	-16767
▁illum	-16768
▁kraft	-16769
▁laval	-16770
▁minas	-16771
▁parks	-16772
▁platy	-16773
▁retur	-16774
▁rodez	-16775
▁scdma	-16776
▁shing	-16777
▁tours	-16778
▁trill	-16779
▁truck	-16780
minster	-16781
omorpha	-16782
▁barker	-16783
▁eminem	-16784
▁pernay	-16785
▁reilly	-16786
▁average	-16787
▁castell	-16788
▁climate	-16789
▁shuttle	-16790
▁strange	-16791
▁thermal	-16792
▁wavelet	-16793
▁written	-16794
▁bergerac	-16795
▁features	-16796
▁missions	-16797
▁pavilion	-16798
▁richards	-16799
▁cornelius	-16800
▁louisiana	-16801
▁progressive	-16802
▁manufacturing	-16803
▁representation	-16804
cz	-16805
qs	-16806
862	-16807
ais	-16808
amb	-16809
bid	-16810
dia	-16811
ems	-16812
eny	-16813
izo	-16814
uko	-16815
wyn	-16816
andr	-16817
edit	-16818
iera	-16819
ilyn	-16820
ocom	-16821
ropy	-16822
vich	-16823
yard	-16824
[...]
