<pad>	0
<unk>	0
[CLS]	0
[SEP]	0
[MASK]	0
(	0
)	0
”	0
-	0
.	0
–	0
£	0
€	0
20	-0
19	-1
201	-2
200	-3
一个	-4
▁19	-5
中国	-6
10	-7
▁在	-8
人口	-9
an	-10
18	-11
美国	-12
er	-13
位于	-14
12	-15
▁201	-16
公里	-17
in	-18
00	-19
or	-20
on	-21
大学	-22
可以	-23
11	-24
公司	-25
日本	-26
地区	-27
政府	-28
平方	-29
使用	-30
的一个	-31
成为	-32
香港	-33
开始	-34
ar	-35
国家	-36
15	-37
台湾	-38
的一	-39
第一	-40
以及	-41
▁200	-42
其中	-43
en	-44
进行	-45
la	-46
平方公里	-47
▁这	-48
包括	-49
面积	-50
世界	-51
st	-52
人民	-53
主要	-54
16	-55
17	-56
没有	-57
他们	-58
部分	-59
研究	-60
是一	-61
al	-62
199	-63
委员	-64
认为	-65
由于	-66
14	-67
获得	-68
at	-69
30	-70
▁该	-71
其他	-72
第二	-73
▁c	-74
之后	-75
因为	-76
▁他	-77
代表	-78
因此	-79
国际	-80
电影	-81
13	-82
▁t	-83
运动	-84
当时	-85
工作	-86
▁s	-87
ic	-88
中华	-89
政治	-90
同时	-91
le	-92
电视	-93
系统	-94
中心	-95
作为	-96
自己	-97
re	-98
之一	-99
中的	-100
▁m	-101
担任	-102
英国	-103
可能	-104
发展	-105
学院	-106
成立	-107
时间	-108
25	-109
属于	-110
不同	-111
」,	-112
he	-113
称为	-114
设计	-115
ro	-116
▁此	-117
通过	-118
中央	-119
for	-120
▁《	-121
198	-122
发现	-123
法国	-124
游戏	-125
行政	-126
社会	-127
it	-128
铁路	-129
表示	-130
他的	-131
mu	-132
50	-133
音乐	-134
共和	-135
建筑	-136
委员会	-137
is	-138
文化	-139
▁p	-140
负责	-141
历史	-142
21	-143
出现	-144
年的	-145
根据	-146
组织	-147
」。	-148
参加	-149
年代	-150
▁b	-151
车站	-152
am	-153
世纪	-154
学校	-155
24	-156
后来	-157
期间	-158
主义	-159
经济	-160
上的	-161
单位	-162
管理	-163
▁199	-164
市镇	-165
所有	-166
影响	-167
正式	-168
最后	-169
提供	-170
▁d	-171
发生	-172
共和国	-173
23	-174
也是	-175
北京	-176
作品	-177
城市	-178
利亚	-179
许多	-180
》,	-181
之间	-182
活动	-183
大的	-184
已经	-185
时期	-186
28	-187
德国	-188
ac	-189
mula	-190
一些	-191
、《	-192
▁但	-193
formula	-194
▁而	-195
全国	-196
问题	-197
26	-198
下辖	-199
教育	-200
es	-201
,200	-202
尼亚	-203
el	-204
人的	-205
这个	-206
目前	-207
比赛	-208
以下	-209
27	-210
服务	-211
足球	-212
进入	-213
上海	-214
197	-215
第三	-216
un	-217
民国	-218
成员	-219
名为	-220
as	-221
两个	-222
工程	-223
22	-224
重要	-225
40	-226
最终	-227
行星	-228
ol	-229
60	-230
战争	-231
生活	-232
密度	-233
节目	-234
il	-235
人物	-236
这些	-237
ch	-238
关系	-239
为了	-240
海拔	-241
联合	-242
罗斯	-243
方面	-244
000	-245
发行	-246
支持	-247
分布	-248
29	-249
学生	-250
决定	-251
到了	-252
ion	-253
制作	-254
▁198	-255
是在	-256
举行	-257
技术	-258
并且	-259
分别	-260
加入	-261
参与	-262
et	-263
高度	-264
》、《	-265
事件	-266
学家	-267
▁h	-268
虽然	-269
系列	-270
计划	-271
同年	-272
▁由于	-273
大陆	-274
需要	-275
冠军	-276
地方	-277
印度	-278
专辑	-279
▁其	-280
▁g	-281
一般	-282
zh	-283
的人	-284
欧洲	-285
建立	-286
人口密度	-287
会议	-288
保护	-289
学名	-290
拥有	-291
最高	-292
▁o	-293
北部	-294
100	-295
宣布	-296
▁大	-297
南部	-298
194	-299
完成	-300
例如	-301
成功	-302
▁本	-303
组成	-304
独立	-305
是一个	-306
us	-307
31	-308
国民	-309
▁w	-310
要求	-311
自由	-312
主教	-313
小行星	-314
斯特	-315
方式	-316
受到	-317
联赛	-318
▁f	-319
人民共和国	-320
通常	-321
om	-322
就是	-323
位于该	-324
存在	-325
有一	-326
对于	-327
所以	-328
球队	-329
毕业	-330
开发	-331
总统	-332
▁a	-333
列车	-334
集团	-335
艺术	-336
总面积	-337
了一	-338
产生	-339
管辖	-340
生产	-341
当地	-342
来自	-343
出版	-344
的大	-345
ur	-346
ed	-347
ing	-348
情况	-349
196	-350
另外	-351
二十	-352
特别	-353
提出	-354
▁194	-355
的是	-356
and	-357
中华人民共和国	-358
前往	-359
然而	-360
》。	-361
id	-362
形成	-363
采用	-364
不过	-365
时代	-366
用于	-367
195	-368
2010	-369
35	-370
选举	-371
1,	-372
中共	-373
民主	-374
出生	-375
▁18	-376
得到	-377
现在	-378
航空	-379
时的	-380
导致	-381
ra	-382
的一个市镇	-383
具有	-384
合作	-385
控制	-386
▁n	-387
变化	-388
70	-389
植物	-390
机场	-391
罗马	-392
俄罗斯	-393
▁l	-394
主席	-395
语言	-396
结束	-397
联盟	-398
除了	-399
造成	-400
西亚	-401
一种	-402
女性	-403
科学	-404
只有	-405
名的	-406
无法	-407
革命	-408
动物	-409
取得	-410
2011	-411
交通	-412
80	-413
海拔高度	-414
海军	-415
ig	-416
ent	-417
:“	-418
有限	-419
接受	-420
来的	-421
任何	-422
继续	-423
西班	-424
年人口	-425
超过	-426
西班牙	-427
人员	-428
新闻	-429
韩国	-430
一直	-431
▁根据	-432
父亲	-433
但是	-434
故事	-435
角色	-436
领导	-437
传统	-438
首次	-439
歌曲	-440
中华民国	-441
ow	-442
经过	-443
项目	-444
并在	-445
台北	-446
如果	-447
相关	-448
自己的	-449
增加	-450
大利	-451
位于该国	-452
▁它	-453
帝国	-454
部队	-455
机构	-456
都是	-457
结构	-458
结果	-459
十二	-460
附近	-461
工业	-462
37	-463
▁阿	-464
▁当	-465
▁"	-466
2019	-467
之前	-468
平均	-469
非常	-470
军事	-471
标准	-472
ut	-473
36	-474
公园	-475
个人	-476
38	-477
共产	-478
也有	-479
ad	-480
▁195	-481
中学	-482
并不	-483
建于	-484
中国大陆	-485
内的	-486
os	-487
是由	-488
行动	-489
设有	-490
居民	-491
发表	-492
版本	-493
我们	-494
现代	-495
自治	-496
还有	-497
im	-498
这一	-499
公路	-500
过程	-501
分布于	-502
苏联	-503
小说	-504
90	-505
重新	-506
热带	-507
内容	-508
街道	-509
区域	-510
分为	-511
有关	-512
出的	-513
▁197	-514
▁the	-515
演员	-516
格兰	-517
34	-518
iv	-519
民族	-520
年至	-521
反对	-522
方法	-523
直接	-524
改为	-525
将军	-526
地的	-527
电子	-528
新的	-529
▁of	-530
书记	-531
甚至	-532
纪念	-533
▁此外	-534
后的	-535
▁k	-536
39	-537
负责管辖	-538
这种	-539
进士	-540
总人口	-541
为主	-542
处理	-543
范围	-544
大量	-545
名称	-546
学习	-547
教授	-548
共有	-549
最佳	-550
调查	-551
另一	-552
东北	-553
必须	-554
建设	-555
:「	-556
军队	-557
距离	-558
完全	-559
亚洲	-560
2012	-561
▁有	-562
环境	-563
朝鲜	-564
一起	-565
位置	-566
区的	-567
生物	-568
第四	-569
协会	-570
主任	-571
od	-572
克斯	-573
于是	-574
广东	-575
战斗	-576
美元	-577
45	-578
br	-579
安全	-580
共同	-581
法院	-582
2,	-583
媒体	-584
多数	-585
随着	-586
举办	-587
太阳	-588
市场	-589
形式	-590
性的	-591
议会	-592
ia	-593
银行	-594
ot	-595
包含	-596
企业	-597
理论	-598
发布	-599
下的	-600
选择	-601
反应	-602
年间	-603
创作	-604
显示	-605
文学	-606
直到	-607
不能	-608
ir	-609
联邦	-610
设立	-611
制造	-612
政治人物	-613
▁196	-614
▁然而	-615
▁马	-616
指挥	-617
太平	-618
48	-619
利用	-620
省的一个市镇	-621
2009	-622
执行	-623
赛事	-624
行为	-625
基本	-626
决赛	-627
自然	-628
han	-629
体育	-630
随后	-631
数据	-632
下辖的一个	-633
攻击	-634
有限公司	-635
三年	-636
▁」	-637
能力	-638
西部	-639
曾经	-640
动画	-641
能够	-642
2013	-643
解放	-644
公开	-645
人类	-646
实际	-647
相当	-648
小时	-649
2016	-650
的地	-651
2014	-652
日在	-653
计算	-654
类似	-655
意大利	-656
再次	-657
——	-658
他在	-659
33	-660
关于	-661
基础	-662
em	-663
女子	-664
议员	-665
蒙古	-666
功能	-667
很多	-668
2015	-669
阿尔	-670
部长	-671
是一种	-672
职业	-673
不是	-674
▁同年	-675
克兰	-676
希望	-677
机车	-678
使得	-679
ec	-680
大会	-681
32	-682
文物	-683
表现	-684
共产党	-685
达到	-686
运动员	-687
空间	-688
,《	-689
尔斯	-690
法律	-691
一次	-692
定的	-693
广州	-694
▁v	-695
团体	-696
路线	-697
▁其中	-698
不同的	-699
ap	-700
离开	-701
拉斯	-702
十一	-703
三个	-704
推出	-705
巴士	-706
作用	-707
时候	-708
商业	-709
主持	-710
政策	-711
山东	-712
单曲	-713
2000	-714
2008	-715
纪录	-716
专业	-717
浙江	-718
▁2013	-719
广播	-720
国王	-721
op	-722
演出	-723
东京	-724
官方	-725
统治	-726
而且	-727
拍摄	-728
▁st	-729
um	-730
▁in	-731
约翰	-732
▁新	-733
,“	-734
▁2016	-735
并于	-736
级行政	-737
▁从	-738
▁李	-739
各种	-740
乡镇	-741
▁她	-742
医院	-743
ag	-744
英文	-745
,000	-746
方向	-747
仍然	-748
实验	-749
资料	-750
产品	-751
东南	-752
一样	-753
ation	-754
唯一	-755
等地	-756
▁另外	-757
的主	-758
人口为	-759
儿子	-760
斯坦	-761
▁虽然	-762
之间的	-763
ip	-764
加拿	-765
严重	-766
规模	-767
▁2012	-768
第一次	-769
基督	-770
任务	-771
模式	-772
相同	-773
是法国	-774
全球	-775
西北	-776
▁2014	-777
早期	-778
四川	-779
西南	-780
宗教	-781
下辖以下	-782
博物	-783
逐渐	-784
▁2015	-785
被称为	-786
2017	-787
的特	-788
2001	-789
以来	-790
年在	-791
男性	-792
群岛	-793
原因	-794
纽约	-795
飞机	-796
▁2010	-797
、「	-798
▁j	-799
75	-800
或者	-801
是中国	-802
城镇	-803
是下辖的一个	-804
最大	-805
青年	-806
部份	-807
乌克兰	-808
简称	-809
道路	-810
细胞	-811
最初	-812
连接	-813
号线	-814
不久	-815
报告	-816
南京	-817
当选	-818
▁曾	-819
2007	-820
天主教	-821
▁总面积	-822
播出	-823
2006	-824
▁2017	-825
歌手	-826
希腊	-827
击败	-828
公共	-829
▁e	-830
家庭	-831
他们的	-832
演唱	-833
每平方公里	-834
指出	-835
英语	-836
等人	-837
190	-838
合并	-839
高速	-840
事务	-841
应用	-842
65	-843
越南	-844
博士	-845
导演	-846
清朝	-847
▁,	-848
人士	-849
▁自	-850
网络	-851
2018	-852
▁与	-853
%,	-854
加拿大	-855
下辖以下地区	-856
定义	-857
全部	-858
物理	-859
去世	-860
则是	-861
属的	-862
▁2018	-863
广场	-864
ul	-865
训练	-866
发动	-867
投资	-868
轨道	-869
明朝	-870
母亲	-871
▁2011	-872
不会	-873
它们	-874
司令	-875
栖息	-876
透过	-877
目标	-878
描述	-879
东部	-880
持续	-881
男子	-882
球员	-883
的新	-884
级行政单位	-885
这样	-886
▁2008	-887
死亡	-888
阿拉	-889
四年	-890
者的	-891
下的一个	-892
博物馆	-893
乡镇级行政单位	-894
分钟	-895
%。	-896
公布	-897
中文	-898
制度	-899
整个	-900
名字	-901
地球	-902
▁小行星	-903
风格	-904
记载	-905
伦敦	-906
尽管	-907
规定	-908
th	-909
天津	-910
▁现	-911
的第	-912
比较	-913
化学	-914
列表	-915
开放	-916
生于	-917
▁一	-918
年后	-919
办公	-920
是下辖的一个乡镇级行政单位	-921
大战	-922
47	-923
千米	-924
▁王	-925
漫画	-926
设置	-927
多的	-928
▁后	-929
科技	-930
马来	-931
先后	-932
年度	-933
速度	-934
赛季	-935
里斯	-936
葡萄	-937
美洲	-938
电视台	-939
处于	-940
经常	-941
出身	-942
▁3	-943
连续	-944
土地	-945
人口密度每平方公里	-946
▁后来	-947
外交	-948
杂志	-949
46	-950
改革	-951
帮助	-952
玩家	-953
2005	-954
福建	-955
最早	-956
是位于	-957
公尺	-958
命名	-959
学者	-960
改变	-961
年起	-962
av	-963
爆发	-964
▁2	-965
ist	-966
立法	-967
经营	-968
河南	-969
不少	-970
的主要	-971
两人	-972
恢复	-973
55	-974
▁西	-975
作家	-976
地下	-977
▁为	-978
然后	-979
陆军	-980
澳门	-981
引起	-982
▁圣	-983
ce	-984
成绩	-985
年时的	-986
」、「	-987
▁该市镇	-988
同样	-989
ie	-990
图示	-991
贸易	-992
将其	-993
国的	-994
乐部	-995
大部分	-996
最大的	-997
家族	-998
▁这些	-999
太平洋	-1000
▁是	-1001
以上	-1002
▁目前	-1003
俱乐部	-1004
▁由	-1005
著名	-1006
ter	-1007
▁4	-1008
ay	-1009
▁中国	-1010
赢得	-1011
飞行	-1012
ak	-1013
网站	-1014
战役	-1015
的一部分	-1016
分子	-1017
每年	-1018
人口变化	-1019
og	-1020
她的	-1021
人口变化图示	-1022
表演	-1023
te	-1024
物种	-1025
当中	-1026
加上	-1027
教堂	-1028
还是	-1029
信息	-1030
图书	-1031
▁r	-1032
有的	-1033
建议	-1034
月台	-1035
长的	-1036
这是	-1037
部门	-1038
规划	-1039
▁5	-1040
锦标	-1041
身份	-1042
取代	-1043
居住	-1044
出生于	-1045
95	-1046
汽车	-1047
oc	-1048
▁因此	-1049
比亚	-1050
斯科	-1051
元年	-1052
中部	-1053
会的	-1054
教区	-1055
3,	-1056
第二次	-1057
▁南	-1058
业务	-1059
▁于	-1060
▁2009	-1061
尔德	-1062
警察	-1063
协助	-1064
皇帝	-1065
多次	-1066
第五	-1067
体的	-1068
人们	-1069
型的	-1070
阶段	-1071
三十	-1072
遭到	-1073
至今	-1074
64	-1075
建造	-1076
年时的人口为	-1077
分析	-1078
设施	-1079
武器	-1080
ab	-1081
▁不过	-1082
运输	-1083
,19	-1084
原本	-1085
领域	-1086
相对	-1087
▁当时	-1088
自动	-1089
之外	-1090
▁据	-1091
学位	-1092
地铁	-1093
荷兰	-1094
加坡	-1095
回到	-1096
面的	-1097
状态	-1098
左右	-1099
可以指	-1100
条件	-1101
几乎	-1102
奥运	-1103
▁1	-1104
重要的	-1105
设备	-1106
ub	-1107
天文	-1108
超级	-1109
以后	-1110
▁8	-1111
会在	-1112
贝尔	-1113
江苏	-1114
解放军	-1115
▁formula	-1116
ov	-1117
的一种	-1118
五年	-1119
出任	-1120
98	-1121
唱片	-1122
属下的一个	-1123
可达	-1124
兄弟	-1125
▁张	-1126
过去	-1127
英格兰	-1128
任命	-1129
社区	-1130
ers	-1131
统一	-1132
地区的	-1133
又称	-1134
一名	-1135
内部	-1136
兴建	-1137
湖南	-1138
流行	-1139
出了	-1140
大约	-1141
68	-1142
排名	-1143
计画	-1144
万人	-1145
是指	-1146
作战	-1147
批评	-1148
电视剧	-1149
乐团	-1150
500	-1151
流域	-1152
南极	-1153
频道	-1154
毫米	-1155
sp	-1156
条约	-1157
the	-1158
广泛	-1159
在此	-1160
继承	-1161
▁2007	-1162
官员	-1163
▁之后	-1164
多个	-1165
拒绝	-1166
普查	-1167
组合	-1168
二年	-1169
发射	-1170
数量	-1171
2004	-1172
第十	-1173
公分	-1174
国内	-1175
伊斯	-1176
bo	-1177
科的	-1178
主角	-1179
展开	-1180
运行	-1181
星期	-1182
▁同时	-1183
始建于	-1184
▁卡	-1185
保持	-1186
▁re	-1187
境内	-1188
农业	-1189
十分	-1190
▁高	-1191
概念	-1192
波兰	-1193
生长	-1194
所在	-1195
不断	-1196
函数	-1197
云南	-1198
巴西	-1199
州市	-1200
▁陈	-1201
▁7	-1202
影片	-1203
宣传	-1204
佛教	-1205
准备	-1206
的情况	-1207
线路	-1208
舰队	-1209
的前	-1210
电脑	-1211
解决	-1212
记者	-1213
44	-1214
每个	-1215
▁6	-1216
▁<	-1217
进攻	-1218
99	-1219
ind	-1220
、“	-1221
评论	-1222
娱乐	-1223
车辆	-1224
国民党	-1225
好的	-1226
减少	-1227
用来	-1228
ard	-1229
▁2006	-1230
山脉	-1231
风暴	-1232
和平	-1233
▁但是	-1234
资源	-1235
日军	-1236
记录	-1237
并没有	-1238
一步	-1239
了一个	-1240
▁10	-1241
国立	-1242
实现	-1243
锦标赛	-1244
78	-1245
力量	-1246
精神	-1247
▁2019	-1248
日至	-1249
巴黎	-1250
程序	-1251
被认为	-1252
线的	-1253
空军	-1254
▁这个	-1255
长期	-1256
儿童	-1257
平台	-1258
子的	-1259
董事	-1260
基地	-1261
普通	-1262
饰演	-1263
奥斯	-1264
首都	-1265
机会	-1266
▁东	-1267
资格	-1268
基于	-1269
限制	-1270
破坏	-1271
ii	-1272
双方	-1273
新加坡	-1274
初期	-1275
只是	-1276
文物保护	-1277
,「	-1278
统计	-1279
女儿	-1280
hk	-1281
思想	-1282
维尔	-1283
交易	-1284
是美国	-1285
个月	-1286
运动会	-1287
无线	-1288
祖父	-1289
及其	-1290
视为	-1291
元素	-1292
都有	-1293
一位	-1294
或是	-1295
委会	-1296
羽毛	-1297
基金	-1298
日起	-1299
区负责管辖	-1300
76	-1301
威廉	-1302
综合	-1303
犹太	-1304
公元	-1305
的影响	-1306
▁!	-1307
恒星	-1308
小学	-1309
非洲	-1310
58	-1311
ge	-1312
协议	-1313
,2009	-1314
300	-1315
用的	-1316
西省	-1317
一年	-1318
文物保护单位	-1319
▁北	-1320
49	-1321
▁中	-1322
力的	-1323
▁and	-1324
乔治	-1325
第一个	-1326
因而	-1327
应该	-1328
▁9	-1329
殖民	-1330
化的	-1331
高级	-1332
它的	-1333
塞尔	-1334
又名	-1335
程度	-1336
成的	-1337
▁以	-1338
年开始	-1339
年轻	-1340
获得了	-1341
接近	-1342
用户	-1343
斯基	-1344
▁三	-1345
▁他们	-1346
教会	-1347
半岛	-1348
平方千米	-1349
all	-1350
参赛	-1351
sa	-1352
▁“	-1353
国会	-1354
ud	-1355
移动	-1356
up	-1357
tw	-1358
机关	-1359
少年	-1360
都会	-1361
同意	-1362
自治区	-1363
国务	-1364
,2001	-1365
不可	-1366
方案	-1367
的时候	-1368
夏季	-1369
著名的	-1370
维持	-1371
年被	-1372
色的	-1373
总部	-1374
但在	-1375
ik	-1376
不明	-1377
art	-1378
实施	-1379
知道	-1380
投入	-1381
▁刘	-1382
产业	-1383
ss	-1384
2003	-1385
是否	-1386
观众	-1387
图书馆	-1388
▁至	-1389
拉克	-1390
曾在	-1391
ne	-1392
物质	-1393
金属	-1394
治疗	-1395
二世	-1396
里的	-1397
是乌克兰	-1398
中国人民	-1399
如下	-1400
王朝	-1401
秘书	-1402
大型	-1403
一带	-1404
总理	-1405
ph	-1406
改编	-1407
分类	-1408
解释	-1409
常见	-1410
奥林	-1411
使用的	-1412
人在	-1413
小组	-1414
目的	-1415
▁安	-1416
起来	-1417
变成	-1418
六年	-1419
澳大	-1420
大楼	-1421
▁「	-1422
研究所	-1423
文件	-1424
质量	-1425
确定	-1426
来说	-1427
▁布	-1428
集中	-1429
光绪	-1430
市的	-1431
斯的	-1432
ba	-1433
▁巴	-1434
56	-1435
从事	-1436
毕业于	-1437
到达	-1438
氧化	-1439
返回	-1440
县人	-1441
尚未	-1442
价值	-1443
,199	-1444
▁天	-1445
旅游	-1446
="	-1447
▁。	-1448
海岸	-1449
进一步	-1450
if	-1451
se	-1452
qu	-1453
现象	-1454
交流	-1455
马来西亚	-1456
支援	-1457
结合	-1458
妻子	-1459
有效	-1460
体长	-1461
销售	-1462
快速	-1463
▁金	-1464
体系	-1465
ill	-1466
96	-1467
不再	-1468
是乌克兰的	-1469
电台	-1470
邀请	-1471
证明	-1472
讨论	-1473
ok	-1474
42	-1475
的小	-1476
sh	-1477
高等	-1478
维亚	-1479
鳍鱼	-1480
公主	-1481
批准	-1482
85	-1483
其后	-1484
大臣	-1485
材料	-1486
保留	-1487
报道	-1488
创立	-1489
议院	-1490
下午	-1491
皇家	-1492
澳大利亚	-1493
来源	-1494
地位	-1495
州的	-1496
一世	-1497
临时	-1498
胜利	-1499
方的	-1500
创办	-1501
na	-1502
正在	-1503
播放	-1504
投票	-1505
各地	-1506
ine	-1507
只能	-1508
课程	-1509
海域	-1510
遗址	-1511
葡萄牙	-1512
两种	-1513
的一座	-1514
少数	-1515
标为	-1516
▁黄	-1517
东西	-1518
类型	-1519
停止	-1520
德里	-1521
针对	-1522
承认	-1523
选手	-1524
▁前	-1525
河北	-1526
公民	-1527
▁美国	-1528
是以	-1529
村落	-1530
辐鳍鱼	-1531
重建	-1532
▁2005	-1533
编号	-1534
属下的一个种	-1535
直至	-1536
辐鳍鱼纲	-1537
如此	-1538
前的	-1539
77	-1540
操作	-1541
米的	-1542
核心	-1543
▁为了	-1544
在美国	-1545
上映	-1546
为一	-1547
威尔	-1548
生涯	-1549
▁de	-1550
▁香港	-1551
奥林匹	-1552
铁道	-1553
▁12	-1554
重庆	-1555
ang	-1556
现时	-1557
的意	-1558
收录	-1559
选区	-1560
水域	-1561
结婚	-1562
王国	-1563
中国共产党	-1564
高的	-1565
未能	-1566
重点	-1567
▁该市镇总面积	-1568
队的	-1569
主题	-1570
第六	-1571
宪法	-1572
程式	-1573
▁小	-1574
▁因为	-1575
广告	-1576
事业	-1577
2002	-1578
收入	-1579
机械	-1580
访问	-1581
效力	-1582
测试	-1583
允许	-1584
尤其	-1585
朋友	-1586
引擎	-1587
总督	-1588
试图	-1589
进行了	-1590
为辐鳍鱼纲	-1591
客运	-1592
日的	-1593
世界大战	-1594
羽毛球	-1595
十八	-1596
主演	-1597
亦有	-1598
数学	-1599
是日本	-1600
民众	-1601
西藏	-1602
伯特	-1603
und	-1604
明显	-1605
再度	-1606
地震	-1607
说法	-1608
人工	-1609
▁ch	-1610
97	-1611
校长	-1612
中山	-1613
冲突	-1614
德语	-1615
命令	-1616
字母	-1617
提高	-1618
▁190	-1619
",	-1620
成立于	-1621
调整	-1622
未来	-1623
逝世	-1624
大多数	-1625
注意	-1626
外的	-1627
的研究	-1628
失去	-1629
hans	-1630
卫星	-1631
就读	-1632
4,	-1633
路易	-1634
表达	-1635
台中	-1636
文章	-1637
电力	-1638
高中	-1639
▁奥	-1640
ct	-1641
是一位	-1642
ice	-1643
的首	-1644
地利	-1645
过程中	-1646
86	-1647
成为了	-1648
《》	-1649
也在	-1650
建成	-1651
武装	-1652
市区	-1653
数字	-1654
:00	-1655
▁他在	-1656
▁拉	-1657
医学	-1658
43	-1659
失败	-1660
市长	-1661
南北	-1662
生命	-1663
考虑	-1664
奥林匹克	-1665
澳洲	-1666
列为	-1667
股份	-1668
联合国	-1669
着作	-1670
yo	-1671
学术	-1672
移民	-1673
争议	-1674
合物	-1675
某些	-1676
57	-1677
国防	-1678
的方式	-1679
取消	-1680
▁克	-1681
▁例如	-1682
▁如果	-1683
隧道	-1684
高雄	-1685
体长可达	-1686
▁罗	-1687
曾任	-1688
瑞典	-1689
看到	-1690
历史上	-1691
等等	-1692
九龙	-1693
大道	-1694
行政区	-1695
十年	-1696
信号	-1697
得以	-1698
伊斯兰	-1699
人数	-1700
66	-1701
有时	-1702
翻译	-1703
文字	-1704
将会	-1705
ma	-1706
的原	-1707
41	-1708
one	-1709
阿拉伯	-1710
ht	-1711
同一	-1712
名单	-1713
事实	-1714
1990	-1715
网路	-1716
的第一	-1717
加利	-1718
球场	-1719
湖北	-1720
运营	-1721
不得	-1722
▁和	-1723
稳定	-1724
人民政府	-1725
四个	-1726
普遍	-1727
有着	-1728
;}	-1729
避免	-1730
观察	-1731
▁17	-1732
ant	-1733
战后	-1734
▁的	-1735
有些	-1736
米尔	-1737
申请	-1738
栖息在	-1739
ber	-1740
是一颗	-1741
政权	-1742
尼斯	-1743
国务院	-1744
▁全	-1745
发售	-1746
等为	-1747
古代	-1748
一度	-1749
▁他的	-1750
▁原	-1751
可能是	-1752
也会	-1753
创造	-1754
引发	-1755
动力	-1756
相似	-1757
政党	-1758
人口普查	-1759
夫卡	-1760
森林	-1761
工厂	-1762
欢迎	-1763
基督教	-1764
一同	-1765
▁2004	-1766
1980	-1767
对手	-1768
消息	-1769
墨西	-1770
知名	-1771
特殊	-1772
▁除了	-1773
什么	-1774
其中男性	-1775
西方	-1776
容易	-1777
也被	-1778
乘客	-1779
出口	-1780
简单	-1781
夺得	-1782
市民	-1783
乾隆	-1784
召开	-1785
蛋白	-1786
▁尽管	-1787
本身	-1788
的海	-1789
科的其中	-1790
▁因	-1791
是一名	-1792
马克	-1793
67	-1794
财政	-1795
气象	-1796
知识	-1797
其它	-1798
关注	-1799
菲律	-1800
中共中央	-1801
之下	-1802
斯克	-1803
1999	-1804
菲律宾	-1805
身体	-1806
编辑	-1807
出来	-1808
从而	-1809
瑞士	-1810
de	-1811
孩子	-1812
七年	-1813
奥地利	-1814
人大	-1815
并非	-1816
尔的	-1817
▁长	-1818
隶属于	-1819
▁伊	-1820
给予	-1821
尔兰	-1822
▁上	-1823
台南	-1824
金融	-1825
台北市	-1826
酒店	-1827
喜欢	-1828
而是	-1829
51	-1830
软件	-1831
经历	-1832
安排	-1833
哈尔	-1834
提名	-1835
不足	-1836
士兵	-1837
民间	-1838
西洋	-1839
墨西哥	-1840
职务	-1841
姆斯	-1842
旅客	-1843
当时的	-1844
教练	-1845
放弃	-1846
办公室	-1847
现场	-1848
面积为	-1849
军的	-1850
水平	-1851
皇后	-1852
表面	-1853
89	-1854
并未	-1855
59	-1856
公司的	-1857
警方	-1858
实行	-1859
大使	-1860
▁此后	-1861
小的	-1862
提升	-1863
400	-1864
亿元	-1865
挑战	-1866
传说	-1867
87	-1868
主张	-1869
禁止	-1870
年底	-1871
模型	-1872
之中	-1873
台风	-1874
复杂	-1875
尼亚州	-1876
估计	-1877
教学	-1878
装置	-1879
埃及	-1880
io	-1881
实际上	-1882
安装	-1883
资讯	-1884
迅速	-1885
袭击	-1886
代码	-1887
深圳	-1888
届全国	-1889
先生	-1890
69	-1891
年美国	-1892
强烈	-1893
ver	-1894
英雄	-1895
150	-1896
竞争	-1897
月至	-1898
都市	-1899
年由	-1900
最后一	-1901
背景	-1902
仪式	-1903
信仰	-1904
发起	-1905
ows	-1906
一定	-1907
特的	-1908
发出	-1909
九年	-1910
万元	-1911
匈牙	-1912
62	-1913
色列	-1914
亚历	-1915
也可以	-1916
哲学	-1917
时任	-1918
匈牙利	-1919
约为	-1920
▁11	-1921
发电	-1922
54	-1923
广西	-1924
里亚	-1925
▁同	-1926
学会	-1927
基因	-1928
按照	-1929
的地方	-1930
教师	-1931
坦克	-1932
来到	-1933
工具	-1934
爱尔兰	-1935
1998	-1936
权力	-1937
专门	-1938
在这	-1939
外国	-1940
ell	-1941
率领	-1942
能量	-1943
品牌	-1944
自行	-1945
规则	-1946
53	-1947
▁台湾	-1948
52	-1949
的高	-1950
是乌克兰的村落	-1951
▁对	-1952
球会	-1953
装甲	-1954
作曲	-1955
抵达	-1956
评价	-1957
▁以下	-1958
第七	-1959
民主党	-1960
太子	-1961
红色	-1962
ive	-1963
完整	-1964
尚书	-1965
安徽	-1966
发现了	-1967
飓风	-1968
ri	-1969
十字	-1970
卡尔	-1971
面对	-1972
比利	-1973
至少	-1974
有一个	-1975
的历史	-1976
积极	-1977
有所	-1978
势力	-1979
营运	-1980
▁2003	-1981
东方	-1982
授予	-1983
吸引	-1984
心理	-1985
英尺	-1986
权利	-1987
▁这种	-1988
威胁	-1989
才能	-1990
淡水	-1991
卫生	-1992
出现在	-1993
武汉	-1994
效果	-1995
法兰	-1996
而被	-1997
经验	-1998
联系	-1999
另一个	-2000
购买	-2001
作者	-2002
▁to	-2003
感到	-2004
命名为	-2005
高速公路	-2006
彼得	-2007
拉丁	-2008
报导	-2009
ack	-2010
制的	-2011
构成	-2012
不满	-2013
牠们	-2014
长度	-2015
戏剧	-2016
ta	-2017
co	-2018
斯塔	-2019
十六	-2020
性质	-2021
72	-2022
团队	-2023
演唱会	-2024
贡献	-2025
特征	-2026
▁16	-2027
▁zh	-2028
的重要	-2029
舞台	-2030
▁明	-2031
多种	-2032
宇宙	-2033
人和	-2034
平方米	-2035
1997	-2036
首府	-2037
专家	-2038
师范	-2039
之子	-2040
标志	-2041
观测	-2042
增长	-2043
79	-2044
如何	-2045
美军	-2046
候选	-2047
维奇	-2048
土耳	-2049
采取	-2050
美术	-2051
世界杯	-2052
以前	-2053
泰国	-2054
更名为	-2055
接触	-2056
indows	-2057
多年	-2058
土耳其	-2059
更加	-2060
有人	-2061
推动	-2062
入侵	-2063
县的	-2064
▁ro	-2065
尔特	-2066
气旋	-2067
bs	-2068
绝对	-2069
结束后	-2070
温度	-2071
,198	-2072
硕士	-2073
中间	-2074
院长	-2075
88	-2076
▁随着	-2077
科的其中一种	-2078
司马	-2079
的山	-2080
领袖	-2081
河畔	-2082
更多	-2083
定为	-2084
年时	-2085
状况	-2086
抗日	-2087
全长	-2088
内阁	-2089
正常	-2090
水库	-2091
介绍	-2092
压力	-2093
北京市	-2094
理事	-2095
为止	-2096
三角	-2097
:"	-2098
传播	-2099
启用	-2100
▁海	-2101
广东省	-2102
岁的	-2103
61	-2104
在中国	-2105
est	-2106
而言	-2107
ian	-2108
配合	-2109
亚历山	-2110
中国人民解放军	-2111
动作	-2112
花园	-2113
岁时	-2114
oh	-2115
地点	-2116
公众	-2117
被认为是	-2118
较为	-2119
委书记	-2120
气候	-2121
十三	-2122
对象	-2123
撤销	-2124
周边	-2125
缺乏	-2126
父母	-2127
很快	-2128
比如	-2129
▁第	-2130
白色	-2131
健康	-2132
埃尔	-2133
住宅	-2134
拉夫	-2135
com	-2136
后期	-2137
万美元	-2138
▁日本	-2139
几个	-2140
中国大陆的	-2141
的作品	-2142
晚上	-2143
因素	-2144
工人	-2145
63	-2146
登陆	-2147
边界	-2148
的问题	-2149
医疗	-2150
华人	-2151
收购	-2152
太空	-2153
,18	-2154
一条	-2155
▁主要	-2156
中有	-2157
▁2000	-2158
经理	-2159
驾驶	-2160
混合	-2161
参加了	-2162
▁二	-2163
大奖	-2164
的发展	-2165
▁科	-2166
意义	-2167
下来	-2168
星等为	-2169
代表大会	-2170
亚目	-2171
即使	-2172
机器	-2173
而在	-2174
需求	-2175
源于	-2176
▁林	-2177
萨克	-2178
律师	-2179
观点	-2180
乡试	-2181
顾问	-2182
找到	-2183
那些	-2184
全面	-2185
其馀	-2186
71	-2187
加盟	-2188
降低	-2189
首先	-2190
lo	-2191
92	-2192
man	-2193
参谋	-2194
照片	-2195
和其他	-2196
原子	-2197
生的	-2198
ran	-2199
测量	-2200
河流	-2201
形目	-2202
的国家	-2203
说明	-2204
相信	-2205
苏格兰	-2206
出席	-2207
南方	-2208
柏林	-2209
▁两	-2210
入口	-2211
知县	-2212
ex	-2213
▁2002	-2214
真正	-2215
1970	-2216
疾病	-2217
▁杨	-2218
神经	-2219
农村	-2220
装备	-2221
加利福	-2222
机的	-2223
江西	-2224
通车	-2225
改善	-2226
出道	-2227
年前	-2228
ity	-2229
乐队	-2230
经典	-2231
年龄	-2232
日报	-2233
▁除	-2234
张专辑	-2235
社会主义	-2236
局长	-2237
办理	-2238
强调	-2239
变得	-2240
74	-2241
损失	-2242
的外	-2243
夫人	-2244
队伍	-2245
食物	-2246
球季	-2247
部落	-2248
印尼	-2249
所有的	-2250
是香港	-2251
受伤	-2252
意识	-2253
布鲁	-2254
军区	-2255
劳动	-2256
旗下	-2257
请求	-2258
历任	-2259
并入	-2260
▁唐	-2261
▁正	-2262
▁清	-2263
明朝政治人物	-2264
当局	-2265
十五	-2266
死后	-2267
瓦尔	-2268
贵族	-2269
大区	-2270
go	-2271
地理	-2272
表明	-2273
大致	-2274
代理	-2275
延伸	-2276
玛丽	-2277
以色列	-2278
修改	-2279
达成	-2280
举行的	-2281
涉及	-2282
象征	-2283
摄影	-2284
▁对于	-2285
了解	-2286
部的	-2287
比例	-2288
并将	-2289
而该	-2290
镇下辖以下地区	-2291
最多	-2292
驱逐	-2293
截至	-2294
▁白	-2295
终于	-2296
被迫	-2297
||	-2298
比赛中	-2299
县的一个	-2300
地图	-2301
uc	-2302
出战	-2303
扮演	-2304
新疆	-2305
▁下	-2306
不仅	-2307
秘密	-2308
种族	-2309
的三	-2310
领土	-2311
声明	-2312
哥伦	-2313
保罗	-2314
奖项	-2315
ich	-2316
73	-2317
同盟	-2318
错误	-2319
占领	-2320
94	-2321
试验	-2322
▁x	-2323
形象	-2324
1996	-2325
就会	-2326
少女	-2327
电话	-2328
大厦	-2329
改造	-2330
▁如	-2331
责任	-2332
lay	-2333
办事	-2334
法案	-2335
年初	-2336
ong	-2337
加州	-2338
火箭	-2339
▁随后	-2340
83	-2341
符合	-2342
科学院	-2343
执导	-2344
的时间	-2345
1000	-2346
1994	-2347
ry	-2348
93	-2349
的故事	-2350
名义	-2351
带来	-2352
相比	-2353
空中	-2354
康熙	-2355
一家	-2356
君主	-2357
带领	-2358
起义	-2359
系统的	-2360
ib	-2361
亨利	-2362
爆炸	-2363
并以	-2364
加强	-2365
确认	-2366
运作	-2367
岛屿	-2368
▁分布于	-2369
扩大	-2370
天体	-2371
突然	-2372
在日本	-2373
以外	-2374
打击	-2375
抗议	-2376
战略	-2377
华盛	-2378
提到	-2379
84	-2380
指导	-2381
间的	-2382
那里	-2383
鱼类	-2384
pe	-2385
剧情	-2386
大多	-2387
组成的	-2388
示威	-2389
海外	-2390
篮球	-2391
计算机	-2392
▁2001	-2393
ps	-2394
颜色	-2395
一座	-2396
山西	-2397
海洋	-2398
创建	-2399
华盛顿	-2400
司法	-2401
习性	-2402
政府的	-2403
82	-2404
▁维	-2405
化石	-2406
海峡	-2407
可能会	-2408
兼任	-2409
投降	-2410
在于	-2411
国家的	-2412
火山	-2413
作出	-2414
▁嘉	-2415
后者	-2416
的情况下	-2417
差异	-2418
是德国	-2419
签署	-2420
的工作	-2421
1995	-2422
展示	-2423
源自	-2424
丹麦	-2425
事故	-2426
空气	-2427
▁la	-2428
建制	-2429
布拉	-2430
杀死	-2431
犯罪	-2432
马尔	-2433
这次	-2434
萨斯	-2435
对外	-2436
得知	-2437
家的	-2438
so	-2439
▁for	-2440
大学的	-2441
地面	-2442
真实	-2443
证据	-2444
西南部	-2445
位于中国	-2446
选为	-2447
南极洲	-2448
天皇	-2449
对抗	-2450
81	-2451
ff	-2452
次年	-2453
亲王	-2454
ate	-2455
阶级	-2456
恐怖	-2457
时期的	-2458
声音	-2459
称作	-2460
价格	-2461
世界上	-2462
此时	-2463
政协	-2464
是因为	-2465
会员	-2466
600	-2467
tv	-2468
固定	-2469
艺人	-2470
毕业后	-2471
丰富	-2472
ast	-2473
围绕	-2474
▁20	-2475
食品	-2476
在大	-2477
▁若	-2478
ug	-2479
步兵	-2480
史上	-2481
促进	-2482
麦克	-2483
的两	-2484
依然	-2485
也就是	-2486
退休	-2487
年夏季	-2488
东北部	-2489
明治	-2490
亿美元	-2491
栽培	-2492
声称	-2493
▁格	-2494
任职	-2495
黄金	-2496
西北部	-2497
在香港	-2498
一段	-2499
资金	-2500
众多	-2501
州的一个市镇	-2502
陆续	-2503
转的	-2504
▁其后	-2505
▁al	-2506
用作	-2507
荣誉	-2508
兴趣	-2509
当年	-2510
列入	-2511
而成	-2512
、、	-2513
票房	-2514
的设计	-2515
开设	-2516
退出	-2517
大桥	-2518
▁th	-2519
保存	-2520
转移	-2521
北方	-2522
骑士	-2523
山东省	-2524
也不	-2525
深度	-2526
cd	-2527
对应	-2528
毛泽	-2529
月初	-2530
▁最后	-2531
180	-2532
量的	-2533
周围	-2534
成本	-2535
缅甸	-2536
身为	-2537
往往	-2538
入选	-2539
ly	-2540
▁斯	-2541
end	-2542
国民政府	-2543
随即	-2544
文献	-2545
德尔	-2546
芬兰	-2547
马拉	-2548
八年	-2549
资产	-2550
附近的	-2551
莫斯科	-2552
青岛	-2553
山区	-2554
病毒	-2555
之战	-2556
年到	-2557
轰炸	-2558
式的	-2559
可以在	-2560
黑色	-2561
会长	-2562
军团	-2563
难以	-2564
▁每	-2565
亦是	-2566
认识	-2567
毛泽东	-2568
通道	-2569
生活习性	-2570
上市	-2571
合约	-2572
关闭	-2573
周年	-2574
▁pro	-2575
城区	-2576
书院	-2577
近年	-2578
下降	-2579
sc	-2580
合成	-2581
符号	-2582
论文	-2583
私人	-2584
依据	-2585
120	-2586
int	-2587
免费	-2588
今天	-2589
两次	-2590
种子	-2591
▁co	-2592
医生	-2593
队长	-2594
陕西	-2595
参考	-2596
药物	-2597
预计	-2598
▁元	-2599
上海市	-2600
mar	-2601
5,	-2602
走向	-2603
的事	-2604
ign	-2605
监督	-2606
释放	-2607
▁车站	-2608
十四	-2609
91	-2610
布尔	-2611
所谓	-2612
退役	-2613
相互	-2614
生活习性不明	-2615
▁现在	-2616
不到	-2617
那么	-2618
ho	-2619
编剧	-2620
的后	-2621
江苏省	-2622
注册	-2623
平原	-2624
整体	-2625
原名	-2626
挪威	-2627
be	-2628
贵州	-2629
开通	-2630
东南部	-2631
满足	-2632
的关系	-2633
设于	-2634
重大	-2635
通讯	-2636
朝廷	-2637
为中国	-2638
▁哈	-2639
意见	-2640
逮捕	-2641
转向	-2642
亚历山大	-2643
寻找	-2644
签订	-2645
1992	-2646
检查	-2647
▁15	-2648
强度	-2649
的中	-2650
情报	-2651
格为	-2652
特别是	-2653
转换	-2654
浙江省	-2655
▁吴	-2656
1991	-2657
码头	-2658
在其	-2659
cn	-2660
▁第二	-2661
800	-2662
最近	-2663
加拉	-2664
萨尔	-2665
妇女	-2666
ace	-2667
更为	-2668
与其	-2669
出演	-2670
州府	-2671
运用	-2672
发明	-2673
的城镇	-2674
学士	-2675
消费	-2676
农民	-2677
优秀	-2678
主要是	-2679
卡斯	-2680
在该	-2681
实验室	-2682
其实	-2683
接着	-2684
1993	-2685
尝试	-2686
候选人	-2687
以北	-2688
▁第一	-2689
▁古	-2690
上下	-2691
案件	-2692
率为	-2693
▁普	-2694
与其他	-2695
所属	-2696
例子	-2697
成了	-2698
▁周	-2699
三世	-2700
立即	-2701
生长于	-2702
▁多	-2703
领导人	-2704
佛罗	-2705
留下	-2706
第二次世界大战	-2707
上有	-2708
▁le	-2709
长江	-2710
伊朗	-2711
▁德	-2712
引入	-2713
场的	-2714
考试	-2715
进步	-2716
耶稣	-2717
:30	-2718
派遣	-2719
大西洋	-2720
克里	-2721
防御	-2722
行的	-2723
典礼	-2724
危机	-2725
杰克	-2726
配音	-2727
刺史	-2728
优势	-2729
气压	-2730
四川省	-2731
手机	-2732
法官	-2733
分别为	-2734
这样的	-2735
改名为	-2736
指定	-2737
▁苏	-2738
周期	-2739
御史	-2740
▁民国	-2741
哥伦比亚	-2742
则为	-2743
城堡	-2744
努力	-2745
产生的	-2746
复兴	-2747
国际机场	-2748
日治	-2749
家人	-2750
安德	-2751
成都	-2752
参选	-2753
排行	-2754
第八	-2755
党的	-2756
感染	-2757
▁1999	-2758
分配	-2759
困难	-2760
以为	-2761
ue	-2762
特拉	-2763
甘肃	-2764
自杀	-2765
主要的	-2766
冬季	-2767
方言	-2768
回归	-2769
大规模	-2770
月球	-2771
▁波	-2772
▁可	-2773
辽宁	-2774
下令	-2775
玻璃	-2776
解散	-2777
上午	-2778
石油	-2779
▁其他	-2780
ep	-2781
供应	-2782
给了	-2783
自身	-2784
ort	-2785
6,	-2786
▁汉	-2787
长官	-2788
将领	-2789
语的	-2790
十九	-2791
小型	-2792
分布在	-2793
展览	-2794
▁1949	-2795
对此	-2796
而不	-2797
保守	-2798
升级	-2799
奥林匹克运动会	-2800
吉林	-2801
▁一般	-2802
坚持	-2803
1900	-2804
最为	-2805
西兰	-2806
巡回	-2807
一致	-2808
告诉	-2809
组建	-2810
▁hd	-2811
同性	-2812
回应	-2813
意为	-2814
cl	-2815
数的	-2816
▁艾	-2817
国军	-2818
的电影	-2819
已被	-2820
交换	-2821
内战	-2822
1960	-2823
大师	-2824
生态	-2825
特色	-2826
亲自	-2827
义大利	-2828
enter	-2829
讲述	-2830
▁到	-2831
举人	-2832
windows	-2833
穆斯	-2834
ect	-2835
号的	-2836
▁作为	-2837
带有	-2838
办事处	-2839
ke	-2840
工程师	-2841
▁ar	-2842
保险	-2843
柴油	-2844
剧院	-2845
利益	-2846
扩展	-2847
尼西亚	-2848
分裂	-2849
出版社	-2850
斯顿	-2851
资本	-2852
丈夫	-2853
分别是	-2854
化合物	-2855
以南	-2856
上阵	-2857
呈现	-2858
德华	-2859
per	-2860
适合	-2861
▁埃	-2862
是南极洲	-2863
▁1998	-2864
房屋	-2865
西安	-2866
年美国人口普查	-2867
法的	-2868
推广	-2869
这里	-2870
基金会	-2871
ix	-2872
原住	-2873
厘米	-2874
her	-2875
公爵	-2876
佔领	-2877
各个	-2878
俄国	-2879
编码	-2880
已有	-2881
情况下	-2882
平面	-2883
大众	-2884
达尔	-2885
剧本	-2886
的女	-2887
bc	-2888
1989	-2889
证实	-2890
ont	-2891
加利福尼亚州	-2892
公元前	-2893
克拉	-2894
弟弟	-2895
二人	-2896
洛杉	-2897
克莱	-2898
海道	-2899
尼克	-2900
▁com	-2901
ft	-2902
助理	-2903
▁游戏	-2904
关键	-2905
阻止	-2906
更新	-2907
殖民地	-2908
军官	-2909
接替	-2910
设定	-2911
在一	-2912
方便	-2913
地质	-2914
记忆	-2915
类的	-2916
本土	-2917
百万	-2918
副主任	-2919
洛杉矶	-2920
陨石	-2921
son	-2922
▁永	-2923
点的	-2924
▁光绪	-2925
升为	-2926
me	-2927
被视为	-2928
副主席	-2929
绿色	-2930
措施	-2931
奥运会	-2932
员工	-2933
喜剧	-2934
文明	-2935
▁朱	-2936
ord	-2937
任命为	-2938
ga	-2939
大幅	-2940
学的	-2941
中国的	-2942
we	-2943
演奏	-2944
制定	-2945
传媒	-2946
派出	-2947
▁1990	-2948
各自	-2949
特定	-2950
上述	-2951
婚姻	-2952
接收	-2953
一切	-2954
旅行	-2955
管理局	-2956
步枪	-2957
离子	-2958
家中	-2959
五月	-2960
性能	-2961
罗马尼亚	-2962
分离	-2963
令人	-2964
互相	-2965
打算	-2966
ure	-2967
属的植物	-2968
公安	-2969
蒙特	-2970
▁最终	-2971
是一座	-2972
原始	-2973
遗产	-2974
留在	-2975
ire	-2976
的话	-2977
引种	-2978
增强	-2979
邻近	-2980
科学家	-2981
常见的	-2982
研发	-2983
修建	-2984
集合	-2985
座标为	-2986
修正	-2987
▁亚	-2988
col	-2989
态度	-2990
突破	-2991
的音乐	-2992
德拉	-2993
星系	-2994
中期	-2995
的成员	-2996
改制	-2997
等级	-2998
此后	-2999
一级	-3000
洛克	-3001
只要	-3002
董事长	-3003
西班牙语	-3004
波斯	-3005
内蒙古	-3006
录音	-3007
偶像	-3008
延长	-3009
明确	-3010
靠近	-3011
校园	-3012
▁is	-3013
淘汰	-3014
桃园	-3015
▁米	-3016
器的	-3017
生成	-3018
建筑物	-3019
用途	-3020
原则	-3021
现实	-3022
▁1997	-3023
而非	-3024
级联赛	-3025
利斯	-3026
主办	-3027
我的	-3028
各国	-3029
大小	-3030
暴力	-3031
由人工	-3032
特里	-3033
立方	-3034
建立了	-3035
1945	-3036
登上	-3037
环形	-3038
转的小行星	-3039
他是	-3040
成长	-3041
危险	-3042
隶属	-3043
的水	-3044
爵士	-3045
得到了	-3046
校区	-3047
波罗	-3048
发动机	-3049
大赛	-3050
年和	-3051
谈判	-3052
市中心	-3053
最低	-3054
具体	-3055
7,	-3056
引种栽培	-3057
是为	-3058
服役	-3059
本地	-3060
中被	-3061
文艺	-3062
穆斯林	-3063
接任	-3064
输入	-3065
金牌	-3066
德的	-3067
镇区	-3068
由人工引种栽培	-3069
▁弗	-3070
大坂	-3071
成立的	-3072
含有	-3073
生存	-3074
很大	-3075
会有	-3076
日期	-3077
▁一些	-3078
形态	-3079
老师	-3080
之为	-3081
ust	-3082
纳粹	-3083
相关的	-3084
▁这是	-3085
软体	-3086
射击	-3087
直径	-3088
质疑	-3089
,197	-3090
站台	-3091
卡拉	-3092
均为	-3093
是一部	-3094
▁而在	-3095
nba	-3096
叙利亚	-3097
培养	-3098
得名	-3099
天文台	-3100
武帝	-3101
尤其是	-3102
可见	-3103
的儿子	-3104
杭州	-3105
市政府	-3106
港口	-3107
ha	-3108
循环	-3109
▁col	-3110
▁不	-3111
▁y	-3112
曾于	-3113
古典	-3114
条例	-3115
对方	-3116
提供了	-3117
▁万	-3118
国家队	-3119
1988	-3120
的方法	-3121
王子	-3122
进士出身	-3123
是台湾	-3124
龙江	-3125
战士	-3126
骑兵	-3127
1950	-3128
销量	-3129
巴尔	-3130
直隶	-3131
的支持	-3132
废除	-3133
维护	-3134
舞蹈	-3135
早年	-3136
称呼	-3137
撞击	-3138
指示	-3139
ess	-3140
争取	-3141
天然	-3142
边境	-3143
秘书长	-3144
足球运动员	-3145
月的	-3146
活跃	-3147
日于	-3148
包围	-3149
位于该省	-3150
ore	-3151
杀害	-3152
南非	-3153
▁这一	-3154
科夫	-3155
根廷	-3156
商品	-3157
地带	-3158
十二年	-3159
分支	-3160
开展	-3161
启动	-3162
五个	-3163
理想	-3164
意志	-3165
州刺史	-3166
监察	-3167
游泳	-3168
辐射	-3169
他被	-3170
度的	-3171
另一方面	-3172
他与	-3173
频率	-3174
▁一个	-3175
而不是	-3176
意思	-3177
完工	-3178
的一些	-3179
授权	-3180
ty	-3181
一词	-3182
出现了	-3183
受欢迎	-3184
▁石	-3185
支流	-3186
学科	-3187
神话	-3188
pa	-3189
今日	-3190
缩写	-3191
的同	-3192
货币	-3193
爱情	-3194
路口	-3195
奥尔	-3196
尼尔	-3197
效应	-3198
颁奖	-3199
长沙	-3200
▁1950	-3201
比利时	-3202
定居	-3203
▁宋	-3204
北美	-3205
hr	-3206
不敌	-3207
克罗	-3208
消失	-3209
两年	-3210
上升	-3211
net	-3212
保障	-3213
干部	-3214
辖区	-3215
反映	-3216
无论	-3217
形状	-3218
本人	-3219
首个	-3220
ight	-3221
在台湾	-3222
天下	-3223
天堂	-3224
游行	-3225
首播	-3226
冰川	-3227
里达	-3228
克尔	-3229
昭和	-3230
是俄罗斯	-3231
档案	-3232
长达	-3233
亚军	-3234
导弹	-3235
并由	-3236
人民代表大会	-3237
克里斯	-3238
詹姆斯	-3239
的第二	-3240
▁中华人民共和国	-3241
宁波	-3242
吉尔	-3243
主持人	-3244
位于该国西部	-3245
高达	-3246
采访	-3247
风险	-3248
则在	-3249
160	-3250
跟随	-3251
十七	-3252
理解	-3253
目前尚未	-3254
▁1980	-3255
▁四	-3256
ass	-3257
紧急	-3258
患者	-3259
雷斯	-3260
▁be	-3261
阳市	-3262
派的	-3263
抵抗	-3264
电气	-3265
生长于海拔	-3266
并与	-3267
食用	-3268
出售	-3269
人民币	-3270
理工	-3271
撰写	-3272
米的地区	-3273
拆除	-3274
正确	-3275
铁路车站	-3276
教宗	-3277
会上	-3278
以上的	-3279
一职	-3280
吸收	-3281
副书记	-3282
都在	-3283
日正式	-3284
▁沙	-3285
停车	-3286
现今	-3287
山县	-3288
多人	-3289
机制	-3290
相同的	-3291
▁/	-3292
即位	-3293
两国	-3294
▁萨	-3295
列出	-3296
剧场	-3297
执政	-3298
"。	-3299
克的	-3300
来越	-3301
▁不久	-3302
签约	-3303
ond	-3304
明星	-3305
▁14	-3306
▁1996	-3307
方程	-3308
法语	-3309
方面的	-3310
在一起	-3311
的长	-3312
两位	-3313
lin	-3314
摇滚	-3315
jr	-3316
意外	-3317
防止	-3318
视频	-3319
陆地	-3320
ens	-3321
布莱	-3322
持有	-3323
1949	-3324
推进	-3325
无人	-3326
的情	-3327
收视	-3328
决议	-3329
700	-3330
手段	-3331
职位	-3332
▁截至	-3333
怀疑	-3334
写作	-3335
收藏	-3336
总裁	-3337
部电影	-3338
为其	-3339
tr	-3340
苹果	-3341
审查	-3342
越来越	-3343
iz	-3344
每天	-3345
大夫	-3346
目前尚未由人工引种栽培	-3347
乡下辖以下地区	-3348
马里	-3349
常务	-3350
两者	-3351
ux	-3352
河南省	-3353
斯拉夫	-3354
_1	-3355
mo	-3356
能源	-3357
身分	-3358
必要	-3359
代表团	-3360
les	-3361
出发	-3362
鼓励	-3363
日后	-3364
站的	-3365
监狱	-3366
多利亚	-3367
足球队	-3368
检察	-3369
德军	-3370
是个	-3371
场比赛	-3372
颁发	-3373
经由	-3374
加入了	-3375
商场	-3376
是意大利	-3377
▁sp	-3378
货运	-3379
层水域	-3380
联合会	-3381
▁1945	-3382
设计的	-3383
▁相	-3384
汉族	-3385
对其	-3386
是西班牙	-3387
书籍	-3388
牵引	-3389
装饰	-3390
博士学位	-3391
两名	-3392
公交	-3393
沿海	-3394
规范	-3395
货物	-3396
保证	-3397
未知	-3398
模拟	-3399
▁许多	-3400
其中包括	-3401
足球俱乐部	-3402
探险	-3403
重视	-3404
敌人	-3405
股份有限公司	-3406
剧集	-3407
原住民	-3408
首相	-3409
05	-3410
dv	-3411
to	-3412
马斯	-3413
陷入	-3414
升任	-3415
下了	-3416
足够	-3417
代的	-3418
黄色	-3419
▁位于	-3420
,195	-3421
另有	-3422
现任	-3423
诗人	-3424
觉得	-3425
ith	-3426
传教	-3427
电车	-3428
宣称	-3429
其中一	-3430
司令部	-3431
法庭	-3432
的名字	-3433
人权	-3434
考古	-3435
▁水	-3436
障碍	-3437
联络	-3438
mm	-3439
阿根廷	-3440
▁1994	-3441
内地	-3442
收集	-3443
1985	-3444
是位于美国	-3445
主力	-3446
主义者	-3447
平衡	-3448
竞选	-3449
唐朝	-3450
圆形	-3451
性别	-3452
已于	-3453
量子	-3454
黑龙江	-3455
会被	-3456
意味	-3457
1987	-3458
为人	-3459
西斯	-3460
而该地的	-3461
顺利	-3462
到的	-3463
两侧	-3464
警告	-3465
常委	-3466
的原因	-3467
成就	-3468
act	-3469
▁1993	-3470
单元	-3471
期的	-3472
相当于	-3473
影像	-3474
▁贝	-3475
犹太人	-3476
▁1995	-3477
卫视	-3478
报纸	-3479
美国的	-3480
,2010	-3481
中式	-3482
hant	-3483
推荐	-3484
事实上	-3485
1986	-3486
边缘	-3487
加尔	-3488
脂鲤	-3489
主场	-3490
联网	-3491
此外	-3492
新竹	-3493
▁莫	-3494
▁年	-3495
古老	-3496
大选	-3497
部部长	-3498
圣经	-3499
天后	-3500
9,	-3501
常常	-3502
同时也	-3503
战队	-3504
本科	-3505
出场	-3506
称号	-3507
苏丹	-3508
倾向	-3509
热带风暴	-3510
连任	-3511
路段	-3512
爱德华	-3513
有许多	-3514
年时的人口为人	-3515
省的	-3516
大量的	-3517
无线电视	-3518
sm	-3519
仅有	-3520
以东	-3521
城的	-3522
英里	-3523
蓝色	-3524
欧盟	-3525
开幕	-3526
第九	-3527
▁1992	-3528
将在	-3529
通信	-3530
发生在	-3531
五十	-3532
形容	-3533
1984	-3534
环形山	-3535
▁成	-3536
审判	-3537
约有	-3538
变为	-3539
制作的	-3540
举办的	-3541
严格	-3542
港元	-3543
做为	-3544
ck	-3545
日开始	-3546
协调	-3547
使用者	-3548
发行的	-3549
警报	-3550
▁0	-3551
▁乌	-3552
独立的	-3553
辞职	-3554
公斤	-3555
汉语	-3556
附属	-3557
中最	-3558
▁un	-3559
沃尔	-3560
画家	-3561
党员	-3562
金山	-3563
两岸	-3564
但由于	-3565
改称	-3566
正面	-3567
当地的	-3568
巨大	-3569
▁i	-3570
下一	-3571
通用	-3572
罗德	-3573
坐标为	-3574
波尔	-3575
▁赵	-3576
行政院	-3577
改进	-3578
▁郑	-3579
节度	-3580
主义的	-3581
过的	-3582
ies	-3583
财产	-3584
当天	-3585
东京都	-3586
有机	-3587
餐厅	-3588
南美洲	-3589
升格为	-3590
种植	-3591
修复	-3592
商人	-3593
书中	-3594
维斯	-3595
▁胡	-3596
效力于	-3597
输出	-3598
并无	-3599
委员会委员	-3600
支付	-3601
逻辑	-3602
▁红	-3603
▁塔	-3604
的部分	-3605
艺术家	-3606
国道	-3607
热带气旋	-3608
的总	-3609
群众	-3610
馀人	-3611
经济学	-3612
之处	-3613
民进	-3614
评估	-3615
的角色	-3616
发言	-3617
发挥	-3618
打破	-3619
侍郎	-3620
架构	-3621
假设	-3622
重量	-3623
位的	-3624
本站	-3625
上帝	-3626
研究院	-3627
传统的	-3628
以西	-3629
封为	-3630
落成	-3631
客户	-3632
游客	-3633
ame	-3634
英军	-3635
8,	-3636
歌词	-3637
更多的	-3638
享年	-3639
上了	-3640
▁黑	-3641
充满	-3642
积分	-3643
中国国民党	-3644
▁最	-3645
的一条	-3646
时报	-3647
她在	-3648
满洲	-3649
特兰	-3650
的基础	-3651
格拉	-3652
]]	-3653
▁山	-3654
▁13	-3655
▁梅	-3656
放在	-3657
的形式	-3658
▁史	-3659
区议会	-3660
但他	-3661
气体	-3662
行业	-3663
暂时	-3664
的位置	-3665
▁五	-3666
提及	-3667
ick	-3668
省道	-3669
110	-3670
区内	-3671
演化	-3672
250	-3673
还在	-3674
回忆	-3675
沿岸	-3676
▁z	-3677
▁帕	-3678
▁u	-3679
美国人	-3680
违反	-3681
都被	-3682
首席	-3683
证券	-3684
使用了	-3685
福建省	-3686
成立了	-3687
ment	-3688
[[	-3689
从此	-3690
未有	-3691
河北省	-3692
场所	-3693
理由	-3694
粒子	-3695
三人	-3696
地在	-3697
港铁	-3698
污染	-3699
路易斯	-3700
,196	-3701
感觉	-3702
魔法	-3703
,3	-3704
咖啡	-3705
角度	-3706
确保	-3707
辅助	-3708
西侧	-3709
商店	-3710
不要	-3711
江南	-3712
战斗机	-3713
阳县	-3714
邮政	-3715
本线	-3716
教育部	-3717
安东	-3718
时段	-3719
岛上	-3720
晋级	-3721
连载	-3722
低气压	-3723
引进	-3724
改建	-3725
日本的	-3726
凌晨	-3727
带着	-3728
十一年	-3729
做出	-3730
第一位	-3731
所在地	-3732
数位	-3733
研究生	-3734
燃料	-3735
天气	-3736
她们	-3737
庆祝	-3738
pro	-3739
控股	-3740
▁英国	-3741
策略	-3742
首位	-3743
▁1991	-3744
区间	-3745
立场	-3746
近代	-3747
通知	-3748
创始	-3749
汉字	-3750
症状	-3751
官至	-3752
了许多	-3753
日下午	-3754
想要	-3755
ah	-3756
江户	-3757
时代的	-3758
中将	-3759
斗争	-3760
女王	-3761
也没有	-3762
指控	-3763
道光	-3764
前后	-3765
收费	-3766
人为	-3767
会议员	-3768
▁加	-3769
▁sh	-3770
加哥	-3771
称之为	-3772
年获	-3773
院士	-3774
龙的	-3775
通往	-3776
▁经过	-3777
序列	-3778
扩张	-3779
太后	-3780
芝加哥	-3781
战车	-3782
式月台	-3783
作业	-3784
佛罗里达	-3785
总会	-3786
▁比	-3787
合法	-3788
大街	-3789
早上	-3790
足协	-3791
十月	-3792
ark	-3793
06	-3794
以此	-3795
01	-3796
的政治	-3797
▁文	-3798
使其	-3799
登场	-3800
领地	-3801
每日	-3802
脱离	-3803
现在的	-3804
ina	-3805
名进士	-3806
大卫	-3807
京都	-3808
起初	-3809
观光	-3810
▁福	-3811
图像	-3812
》、	-3813
是从	-3814
摧毁	-3815
hel	-3816
陨石坑	-3817
闻名	-3818
物种的	-3819
登记	-3820
▁直到	-3821
红军	-3822
言论	-3823
格勒	-3824
回国	-3825
线上	-3826
东亚	-3827
▁华	-3828
格尔	-3829
很少	-3830
处的	-3831
▁1988	-3832
手术	-3833
一场	-3834
在内的	-3835
利的	-3836
基斯坦	-3837
dr	-3838
▁阿尔	-3839
克林	-3840
则有	-3841
ide	-3842
原来	-3843
手枪	-3844
诺夫	-3845
工会	-3846
级别	-3847
终点	-3848
途中	-3849
星的	-3850
南海	-3851
一系列	-3852
多项	-3853
单独	-3854
印刷	-3855
预算	-3856
区别	-3857
大家	-3858
中正	-3859
分成	-3860
主权	-3861
ial	-3862
▁an	-3863
末期	-3864
米亚	-3865
原先	-3866
的日	-3867
培训	-3868
巨大的	-3869
,5	-3870
1982	-3871
km	-3872
整合	-3873
遭遇	-3874
▁特	-3875
已知	-3876
详细	-3877
成立后	-3878
查理	-3879
东南亚	-3880
维多利亚	-3881
似乎	-3882
面临	-3883
层的	-3884
流传	-3885
死于	-3886
该国	-3887
第十一	-3888
四十	-3889
约瑟	-3890
体育场	-3891
民进党	-3892
他为	-3893
湖泊	-3894
州负责管辖	-3895
即将	-3896
pl	-3897
样的	-3898
河的	-3899
▁到了	-3900
撤退	-3901
先进	-3902
年与	-3903
身上	-3904
东侧	-3905
构造	-3906
车厢	-3907
月起	-3908
切尔	-3909
电动	-3910
在北京	-3911
界的	-3912
yle	-3913
创新	-3914
米至	-3915
会试	-3916
直播	-3917
卡罗	-3918
战场	-3919
制作人	-3920
次于	-3921
认证	-3922
并被	-3923
play	-3924
巡洋	-3925
秘鲁	-3926
内有	-3927
最高的	-3928
子女	-3929
援助	-3930
最早的	-3931
ory	-3932
▁此时	-3933
岛的	-3934
湖南省	-3935
是不	-3936
冒险	-3937
加以	-3938
市政	-3939
费用	-3940
车队	-3941
09	-3942
ung	-3943
▁bo	-3944
复盖	-3945
多尔	-3946
就在	-3947
屠杀	-3948
布朗	-3949
▁面积	-3950
为台湾	-3951
1983	-3952
的不	-3953
棒球	-3954
三国	-3955
主动	-3956
互联网	-3957
的数据	-3958
城县	-3959
替代	-3960
现时由	-3961
海上	-3962
▁孙	-3963
交汇	-3964
唯一的	-3965
河道	-3966
▁于是	-3967
镜头	-3968
海拔高度为	-3969
▁1989	-3970
任教	-3971
铁路局	-3972
预测	-3973
选出	-3974
清朝政治人物	-3975
来自于	-3976
愿意	-3977
▁博	-3978
首歌	-3979
驱动	-3980
聚集	-3981
行驶	-3982
▁yo	-3983
短暂	-3984
▁卢	-3985
扩建	-3986
▁龙	-3987
探测	-3988
钢琴	-3989
单一	-3990
代替	-3991
道德	-3992
▁瓦	-3993
的反	-3994
目的是	-3995
习惯	-3996
制片	-3997
部尚书	-3998
场景	-3999
阿里	-4000
信徒	-4001
塔尔	-4002
改名	-4003
ogle	-4004
,2011	-4005
任期	-4006
▁平	-4007
▁on	-4008
130	-4009
后被	-4010
根本	-4011
病逝	-4012
ier	-4013
伊斯兰教	-4014
海南	-4015
sk	-4016
的神	-4017
席位	-4018
网球	-4019
相应	-4020
1979	-4021
山西省	-4022
值得	-4023
月底	-4024
竞赛	-4025
室内	-4026
早在	-4027
转会	-4028
游击	-4029
奴隶	-4030
▁|	-4031
交给	-4032
赞助	-4033
大革命	-4034
融合	-4035
体制	-4036
发音	-4037
美丽	-4038
借由	-4039
的最	-4040
南极条约	-4041
呼吁	-4042
琉球	-4043
翌年	-4044
的结果	-4045
cr	-4046
致力	-4047
平均海拔高度为	-4048
战术	-4049
▁ex	-4050
三种	-4051
公里的	-4052
特勒	-4053
开办	-4054
自我	-4055
节度使	-4056
掌握	-4057
而该地的平均海拔高度为	-4058
用以	-4059
嘉义	-4060
▁县	-4061
成熟	-4062
依照	-4063
资助	-4064
都督	-4065
,2	-4066
寻求	-4067
沈阳	-4068
征服	-4069
ev	-4070
ca	-4071
超越	-4072
画面	-4073
07	-4074
▁所以	-4075
以便	-4076
处长	-4077
福德	-4078
迁至	-4079
,	-4080
▁	-4081
的	-4082
。	-4083
1	-4084
0	-4085
年	-4086
2	-4087
、	-4088
在	-4089
一	-4090
为	-4091
9	-4092
中	-4093
是	-4094
国	-4095
人	-4096
a	-4097
于	-4098
e	-4099
大	-4100
有	-4101
3	-4102
和	-4103
5	-4104
i	-4105
8	-4106
o	-4107
以	-4108
r	-4109
4	-4110
月	-4111
n	-4112
日	-4113
6	-4114
后	-4115
7	-4116
了	-4117
学	-4118
t	-4119
s	-4120
时	-4121
个	-4122
会	-4123
地	-4124
成	-4125
上	-4126
公	-4127
不	-4128
l	-4129
出	-4130
行	-4131
他	-4132
部	-4133
斯	-4134
与	-4135
区	-4136
之	-4137
c	-4138
名	-4139
发	-4140
其	-4141
主	-4142
作	-4143
生	-4144
尔	-4145
分	-4146
方	-4147
m	-4148
到	-4149
用	-4150
下	-4151
西	-4152
第	-4153
:	-4154
》	-4155
《	-4156
而	-4157
家	-4158
位	-4159
及	-4160
军	-4161
由	-4162
d	-4163
h	-4164
里	-4165
并	-4166
被	-4167
民	-4168
本	-4169
法	-4170
南	-4171
市	-4172
·	-4173
这	-4174
长	-4175
来	-4176
同	-4177
u	-4178
可	-4179
多	-4180
政	-4181
对	-4182
子	-4183
自	-4184
动	-4185
任	-4186
开	-4187
特	-4188
文	-4189
北	-4190
高	-4191
「	-4192
」	-4193
加	-4194
德	-4195
新	-4196
员	-4197
东	-4198
最	-4199
海	-4200
台	-4201
克	-4202
亚	-4203
代	-4204
前	-4205
也	-4206
利	-4207
平	-4208
等	-4209
所	-4210
p	-4211
面	-4212
三	-4213
度	-4214
电	-4215
因	-4216
美	-4217
建	-4218
经	-4219
得	-4220
此	-4221
道	-4222
现	-4223
物	-4224
进	-4225
“	-4226
过	-4227
要	-4228
机	-4229
间	-4230
内	-4231
b	-4232
事	-4233
g	-4234
至	-4235
教	-4236
山	-4237
立	-4238
路	-4239
车	-4240
当	-4241
拉	-4242
小	-4243
入	-4244
口	-4245
将	-4246
体	-4247
战	-4248
能	-4249
世	-4250
二	-4251
理	-4252
工	-4253
该	-4254
合	-4255
州	-4256
表	-4257
外	-4258
定	-4259
马	-4260
期	-4261
天	-4262
赛	-4263
业	-4264
制	-4265
化	-4266
但	-4267
科	-4268
十	-4269
球	-4270
种	-4271
次	-4272
使	-4273
全	-4274
;	-4275
布	-4276
通	-4277
场	-4278
称	-4279
性	-4280
队	-4281
线	-4282
者	-4283
f	-4284
共	-4285
总	-4286
设	-4287
县	-4288
式	-4289
数	-4290
重	-4291
系	-4292
罗	-4293
都	-4294
两	-4295
安	-4296
力	-4297
士	-4298
联	-4299
"	-4300
站	-4301
院	-4302
比	-4303
原	-4304
基	-4305
相	-4306
城	-4307
达	-4308
王	-4309
运	-4310
明	-4311
省	-4312
米	-4313
属	-4314
目	-4315
司	-4316
水	-4317
英	-4318
治	-4319
正	-4320
金	-4321
尼	-4322
华	-4323
格	-4324
号	-4325
府	-4326
k	-4327
统	-4328
关	-4329
组	-4330
约	-4331
兰	-4332
选	-4333
们	-4334
镇	-4335
或	-4336
四	-4337
列	-4338
如	-4339
计	-4340
港	-4341
元	-4342
影	-4343
y	-4344
起	-4345
巴	-4346
从	-4347
语	-4348
产	-4349
首	-4350
女	-4351
提	-4352
常	-4353
星	-4354
阿	-4355
改	-4356
演	-4357
林	-4358
v	-4359
议	-4360
心	-4361
量	-4362
向	-4363
然	-4364
接	-4365
乐	-4366
就	-4367
始	-4368
务	-4369
实	-4370
无	-4371
书	-4372
界	-4373
w	-4374
参	-4375
级	-4376
意	-4377
曾	-4378
则	-4379
义	-4380
委	-4381
广	-4382
管	-4383
受	-4384
手	-4385
单	-4386
程	-4387
指	-4388
视	-4389
说	-4390
交	-4391
卡	-4392
色	-4393
团	-4394
河	-4395
保	-4396
形	-4397
包	-4398
门	-4399
维	-4400
结	-4401
湾	-4402
型	-4403
音	-4404
已	-4405
着	-4406
流	-4407
香	-4408
处	-4409
直	-4410
党	-4411
传	-4412
些	-4413
获	-4414
类	-4415
集	-4416
史	-4417
万	-4418
太	-4419
点	-4420
夫	-4421
应	-4422
认	-4423
导	-4424
变	-4425
校	-4426
五	-4427
身	-4428
品	-4429
字	-4430
空	-4431
领	-4432
回	-4433
更	-4434
社	-4435
岛	-4436
示	-4437
积	-4438
铁	-4439
江	-4440
展	-4441
还	-4442
朝	-4443
古	-4444
持	-4445
师	-4446
张	-4447
图	-4448
各	-4449
奥	-4450
官	-4451
反	-4452
带	-4453
洲	-4454
专	-4455
别	-4456
举	-4457
据	-4458
命	-4459
只	-4460
纪	-4461
游	-4462
资	-4463
风	-4464
取	-4465
京	-4466
报	-4467
活	-4468
造	-4469
普	-4470
标	-4471
光	-4472
击	-4473
信	-4474
支	-4475
术	-4476
局	-4477
少	-4478
历	-4479
曲	-4480
族	-4481
近	-4482
剧	-4483
没	-4484
石	-4485
纳	-4486
神	-4487
节	-4488
清	-4489
非	-4490
情	-4491
解	-4492
转	-4493
际	-4494
每	-4495
研	-4496
论	-4497
苏	-4498
它	-4499
又	-4500
记	-4501
件	-4502
波	-4503
权	-4504
条	-4505
龙	-4506
决	-4507
即	-4508
片	-4509
放	-4510
村	-4511
角	-4512
她	-4513
气	-4514
/	-4515
商	-4516
连	-4517
版	-4518
头	-4519
伊	-4520
武	-4521
密	-4522
乡	-4523
辖	-4524
括	-4525
复	-4526
先	-4527
收	-4528
座	-4529
周	-4530
职	-4531
知	-4532
未	-4533
往	-4534
李	-4535
去	-4536
根	-4537
创	-4538
器	-4539
白	-4540
离	-4541
强	-4542
歌	-4543
福	-4544
再	-4545
果	-4546
办	-4547
初	-4548
陆	-4549
究	-4550
派	-4551
六	-4552
且	-4553
足	-4554
打	-4555
调	-4556
画	-4557
兵	-4558
引	-4559
圣	-4560
完	-4561
居	-4562
亦	-4563
今	-4564
汉	-4565
域	-4566
季	-4567
许	-4568
观	-4569
装	-4570
帝	-4571
威	-4572
播	-4573
塔	-4574
阳	-4575
网	-4576
亲	-4577
题	-4578
除	-4579
编	-4580
随	-4581
z	-4582
宗	-4583
质	-4584
争	-4585
段	-4586
续	-4587
奖	-4588
服	-4589
令	-4590
构	-4591
给	-4592
育	-4593
较	-4594
花	-4595
协	-4596
x	-4597
言	-4598
很	-4599
爱	-4600
八	-4601
园	-4602
土	-4603
查	-4604
问	-4605
担	-4606
见	-4607
戏	-4608
修	-4609
功	-4610
速	-4611
置	-4612
萨	-4613
营	-4614
规	-4615
宣	-4616
黄	-4617
死	-4618
另	-4619
客	-4620
希	-4621
推	-4622
存	-4623
终	-4624
项	-4625
%	-4626
欧	-4627
超	-4628
好	-4629
我	-4630
率	-4631
划	-4632
馆	-4633
录	-4634
投	-4635
雷	-4636
供	-4637
洛	-4638
护	-4639
样	-4640
哈	-4641
具	-4642
源	-4643
吉	-4644
卫	-4645
博	-4646
求	-4647
准	-4648
班	-4649
瓦	-4650
案	-4651
九	-4652
父	-4653
青	-4654
街	-4655
环	-4656
男	-4657
印	-4658
伦	-4659
母	-4660
边	-4661
兴	-4662
例	-4663
济	-4664
负	-4665
伯	-4666
勒	-4667
湖	-4668
田	-4669
己	-4670
j	-4671
责	-4672
故	-4673
助	-4674
陈	-4675
众	-4676
致	-4677
儿	-4678
火	-4679
均	-4680
沙	-4681
航	-4682
攻	-4683
那	-4684
鱼	-4685
备	-4686
落	-4687
百	-4688
诺	-4689
份	-4690
莱	-4691
试	-4692
皇	-4693
副	-4694
整	-4695
技	-4696
艺	-4697
早	-4698
增	-4699
热	-4700
极	-4701
模	-4702
鲁	-4703
志	-4704
容	-4705
半	-4706
围	-4707
红	-4708
群	-4709
飞	-4710
告	-4711
七	-4712
层	-4713
继	-4714
登	-4715
双	-4716
失	-4717
评	-4718
越	-4719
境	-4720
堂	-4721
易	-4722
川	-4723
写	-4724
独	-4725
室	-4726
食	-4727
升	-4728
深	-4729
塞	-4730
排	-4731
黑	-4732
需	-4733
声	-4734
证	-4735
限	-4736
氏	-4737
医	-4738
央	-4739
席	-4740
射	-4741
筑	-4742
织	-4743
象	-4744
像	-4745
费	-4746
老	-4747
何	-4748
响	-4749
真	-4750
千	-4751
采	-4752
甲	-4753
才	-4754
杀	-4755
仍	-4756
盟	-4757
托	-4758
施	-4759
让	-4760
警	-4761
森	-4762
便	-4763
奇	-4764
步	-4765
木	-4766
考	-4767
防	-4768
感	-4769
想	-4770
配	-4771
舰	-4772
楼	-4773
洋	-4774
牙	-4775
岁	-4776
届	-4777
住	-4778
顿	-4779
低	-4780
止	-4781
桥	-4782
哥	-4783
留	-4784
姆	-4785
—	-4786
效	-4787
贝	-4788
病	-4789
刘	-4790
乌	-4791
律	-4792
几	-4793
农	-4794
范	-4795
泰	-4796
曼	-4797
辑	-4798
埃	-4799
底	-4800
佛	-4801
把	-4802
恩	-4803
蒙	-4804
冠	-4805
料	-4806
察	-4807
唱	-4808
降	-4809
仅	-4810
批	-4811
状	-4812
银	-4813
移	-4814
迪	-4815
话	-4816
俄	-4817
库	-4818
云	-4819
胜	-4820
看	-4821
景	-4822
票	-4823
测	-4824
干	-4825
康	-4826
息	-4827
素	-4828
宁	-4829
败	-4830
革	-4831
消	-4832
控	-4833
_	-4834
承	-4835
索	-4836
显	-4837
授	-4838
温	-4839
算	-4840
祖	-4841
词	-4842
念	-4843
典	-4844
弹	-4845
韩	-4846
远	-4847
确	-4848
载	-4849
习	-4850
藏	-4851
户	-4852
思	-4853
做	-4854
友	-4855
守	-4856
馀	-4857
满	-4858
态	-4859
瑞	-4860
拔	-4861
房	-4862
精	-4863
望	-4864
预	-4865
依	-4866
宫	-4867
督	-4868
附	-4869
述	-4870
夏	-4871
章	-4872
征	-4873
注	-4874
照	-4875
叶	-4876
请	-4877
价	-4878
抗	-4879
执	-4880
毛	-4881
停	-4882
退	-4883
牌	-4884
压	-4885
草	-4886
澳	-4887
却	-4888
简	-4889
左	-4890
封	-4891
验	-4892
虽	-4893
丹	-4894
永	-4895
富	-4896
堡	-4897
丁	-4898
坦	-4899
船	-4900
值	-4901
候	-4902
丽	-4903
般	-4904
快	-4905
势	-4906
破	-4907
侧	-4908
拿	-4909
斗	-4910
邦	-4911
隆	-4912
宝	-4913
唐	-4914
梅	-4915
莫	-4916
细	-4917
监	-4918
郡	-4919
含	-4920
难	-4921
厂	-4922
突	-4923
庄	-4924
庆	-4925
似	-4926
断	-4927
闻	-4928
识	-4929
况	-4930
植	-4931
旅	-4932
必	-4933
皮	-4934
寺	-4935
蒂	-4936
礼	-4937
读	-4938
嘉	-4939
尚	-4940
走	-4941
拥	-4942
绝	-4943
延	-4944
朗	-4945
毕	-4946
久	-4947
岸	-4948
厅	-4949
右	-4950
店	-4951
切	-4952
架	-4953
麦	-4954
临	-4955
核	-4956
春	-4957
换	-4958
轮	-4959
旧	-4960
售	-4961
优	-4962
杰	-4963
野	-4964
归	-4965
亡	-4966
弟	-4967
严	-4968
枪	-4969
判	-4970
艾	-4971
占	-4972
佳	-4973
雄	-4974
松	-4975
油	-4976
弗	-4977
杨	-4978
伤	-4979
异	-4980
灵	-4981
遭	-4982
遗	-4983
练	-4984
端	-4985
策	-4986
吴	-4987
短	-4988
码	-4989
股	-4990
孙	-4991
耶	-4992
逐	-4993
轻	-4994
序	-4995
赫	-4996
晚	-4997
送	-4998
帕	-4999
旗	-5000
顺	-5001
役	-5002
菲	-5003
须	-5004
乘	-5005
若	-5006
摩	-5007
距	-5008
暴	-5009
籍	-5010
酒	-5011
树	-5012
雅	-5013
销	-5014
束	-5015
}	-5016
微	-5017
玛	-5018
{	-5019
杂	-5020
什	-5021
末	-5022
宋	-5023
摄	-5024
输	-5025
泽	-5026
秀	-5027
频	-5028
阵	-5029
亿	-5030
兼	-5031
冲	-5032
署	-5033
!	-5034
卢	-5035
良	-5036
药	-5037
胡	-5038
诗	-5039
译	-5040
驻	-5041
款	-5042
阶	-5043
庭	-5044
荣	-5045
沃	-5046
饰	-5047
启	-5048
齐	-5049
血	-5050
略	-5051
善	-5052
盖	-5053
劳	-5054
散	-5055
尾	-5056
贵	-5057
尽	-5058
婚	-5059
免	-5060
峰	-5061
拍	-5062
予	-5063
津	-5064
甚	-5065
丰	-5066
顶	-5067
差	-5068
纽	-5069
迁	-5070
喜	-5071
减	-5072
板	-5073
臣	-5074
杜	-5075
假	-5076
兹	-5077
晋	-5078
鲜	-5079
追	-5080
购	-5081
尺	-5082
财	-5083
朱	-5084
害	-5085
谷	-5086
签	-5087
烈	-5088
杯	-5089
养	-5090
玉	-5091
爆	-5092
宾	-5093
训	-5094
黎	-5095
背	-5096
互	-5097
舞	-5098
凯	-5099
救	-5100
罪	-5101
著	-5102
仁	-5103
释	-5104
媒	-5105
企	-5106
沿	-5107
钟	-5108
盛	-5109
险	-5110
夺	-5111
轨	-5112
讯	-5113
韦	-5114
廷	-5115
酸	-5116
审	-5117
渐	-5118
检	-5119
援	-5120
透	-5121
货	-5122
牛	-5123
秘	-5124
屋	-5125
补	-5126
映	-5127
圆	-5128
够	-5129
昌	-5130
址	-5131
介	-5132
谢	-5133
仪	-5134
软	-5135
溪	-5136
币	-5137
荷	-5138
访	-5139
君	-5140
乔	-5141
庙	-5142
智	-5143
讲	-5144
挥	-5145
扩	-5146
坡	-5147
材	-5148
梁	-5149
借	-5150
按	-5151
>	-5152
敦	-5153
适	-5154
郑	-5155
徒	-5156
拜	-5157
童	-5158
敌	-5159
辆	-5160
皆	-5161
混	-5162
益	-5163
郎	-5164
玩	-5165
巡	-5166
禁	-5167
<	-5168
颗	-5169
隶	-5170
翰	-5171
讨	-5172
锦	-5173
径	-5174
巨	-5175
探	-5176
蓝	-5177
某	-5178
夜	-5179
冰	-5180
霍	-5181
诸	-5182
穆	-5183
途	-5184
宽	-5185
午	-5186
额	-5187
描	-5188
跟	-5189
旋	-5190
觉	-5191
献	-5192
撤	-5193
替	-5194
羽	-5195
刻	-5196
帮	-5197
你	-5198
眼	-5199
竞	-5200
遇	-5201
培	-5202
刺	-5203
符	-5204
赵	-5205
宇	-5206
刊	-5207
吸	-5208
佩	-5209
聚	-5210
乱	-5211
炮	-5212
休	-5213
爵	-5214
找	-5215
欢	-5216
私	-5217
殿	-5218
袭	-5219
逃	-5220
充	-5221
固	-5222
脑	-5223
返	-5224
犯	-5225
丝	-5226
奉	-5227
漫	-5228
毒	-5229
邻	-5230
召	-5231
否	-5232
捕	-5233
q	-5234
唯	-5235
废	-5236
雨	-5237
骨	-5238
洪	-5239
耳	-5240
幕	-5241
戈	-5242
络	-5243
激	-5244
茨	-5245
疗	-5246
佔	-5247
刑	-5248
靠	-5249
岩	-5250
魔	-5251
择	-5252
震	-5253
操	-5254
钱	-5255
么	-5256
穿	-5257
缺	-5258
坐	-5259
'	-5260
乎	-5261
怀	-5262
露	-5263
诉	-5264
雪	-5265
|	-5266
娜	-5267
御	-5268
绿	-5269
忠	-5270
竹	-5271
宪	-5272
盘	-5273
恒	-5274
骑	-5275
坑	-5276
胞	-5277
赤	-5278
灭	-5279
肯	-5280
尤	-5281
兄	-5282
申	-5283
听	-5284
课	-5285
翻	-5286
抵	-5287
待	-5288
订	-5289
妻	-5290
迫	-5291
镜	-5292
损	-5293
呼	-5294
顾	-5295
坚	-5296
浙	-5297
徐	-5298
姓	-5299
栖	-5300
汇	-5301
贡	-5302
刚	-5303
愿	-5304
毁	-5305
侵	-5306
谈	-5307
柏	-5308
桑	-5309
谋	-5310
篇	-5311
陵	-5312
秋	-5313
=	-5314
孩	-5315
纲	-5316
炸	-5317
脉	-5318
汽	-5319
辛	-5320
绩	-5321
董	-5322
惠	-5323
恶	-5324
横	-5325
融	-5326
戴	-5327
潮	-5328
泉	-5329
鳍	-5330
舍	-5331
鸟	-5332
芬	-5333
默	-5334
买	-5335
努	-5336
疑	-5337
甘	-5338
孔	-5339
避	-5340
泛	-5341
卷	-5342
绍	-5343
魏	-5344
础	-5345
健	-5346
急	-5347
缩	-5348
脱	-5349
腊	-5350
偏	-5351
奏	-5352
莉	-5353
墓	-5354
翼	-5355
榜	-5356
针	-5357
呈	-5358
概	-5359
误	-5360
套	-5361
宜	-5362
衣	-5363
肉	-5364
块	-5365
殖	-5366
危	-5367
佐	-5368
隔	-5369
坏	-5370
紧	-5371
裁	-5372
毫	-5373
墨	-5374
涉	-5375
叫	-5376
染	-5377
扎	-5378
迎	-5379
赖	-5380
扬	-5381
寻	-5382
冷	-5383
阻	-5384
井	-5385
贸	-5386
捷	-5387
虎	-5388
圈	-5389
付	-5390
渡	-5391
缘	-5392
哲	-5393
阴	-5394
珠	-5395
迷	-5396
弃	-5397
秦	-5398
廉	-5399
亮	-5400
析	-5401
恐	-5402
锡	-5403
辅	-5404
卖	-5405
招	-5406
氧	-5407
凤	-5408
池	-5409
琴	-5410
剑	-5411
虫	-5412
函	-5413
彩	-5414
赞	-5415
侯	-5416
仙	-5417
葡	-5418
症	-5419
享	-5420
匹	-5421
错	-5422
赢	-5423
味	-5424
伍	-5425
]	-5426
绕	-5427
洞	-5428
寿	-5429
截	-5430
滨	-5431
麻	-5432
绘	-5433
暗	-5434
梦	-5435
尊	-5436
[	-5437
瑟	-5438
妹	-5439
钢	-5440
颁	-5441
俗	-5442
豪	-5443
俱	-5444
硬	-5445
脚	-5446
综	-5447
倒	-5448
驱	-5449
町	-5450
妇	-5451
奈	-5452
崇	-5453
犹	-5454
誉	-5455
笔	-5456
租	-5457
矿	-5458
绪	-5459
繁	-5460
静	-5461
冈	-5462
冬	-5463
估	-5464
昂	-5465
阁	-5466
铜	-5467
档	-5468
稳	-5469
逝	-5470
闭	-5471
逊	-5472
徽	-5473
液	-5474
暂	-5475
辞	-5476
墙	-5477
楚	-5478
柱	-5479
掌	-5480
乙	-5481
曹	-5482
蛋	-5483
辐	-5484
+	-5485
潜	-5486
册	-5487
拒	-5488
昭	-5489
纸	-5490
浦	-5491
跨	-5492
辽	-5493
邀	-5494
郭	-5495
吕	-5496
幼	-5497
伐	-5498
裂	-5499
盐	-5500
乃	-5501
振	-5502
齿	-5503
岭	-5504
?	-5505
拟	-5506
陷	-5507
粉	-5508
蔡	-5509
恢	-5510
莎	-5511
鼓	-5512
触	-5513
弱	-5514
浪	-5515
裔	-5516
患	-5517
零	-5518
赏	-5519
陶	-5520
轴	-5521
滑	-5522
萄	-5523
菌	-5524
灾	-5525
淡	-5526
偶	-5527
障	-5528
困	-5529
伟	-5530
旁	-5531
剂	-5532
驶	-5533
菜	-5534
藤	-5535
览	-5536
彼	-5537
颜	-5538
埔	-5539
沈	-5540
牧	-5541
税	-5542
搭	-5543
纯	-5544
涅	-5545
狱	-5546
柯	-5547
祭	-5548
宿	-5549
疆	-5550
丘	-5551
勇	-5552
蒋	-5553
邮	-5554
伴	-5555
壁	-5556
促	-5557
残	-5558
昆	-5559
迹	-5560
厦	-5561
允	-5562
龄	-5563
隐	-5564
亨	-5565
仔	-5566
句	-5567
敏	-5568
汤	-5569
答	-5570
桃	-5571
灯	-5572
熙	-5573
茶	-5574
衡	-5575
遍	-5576
珍	-5577
糖	-5578
殊	-5579
键	-5580
恋	-5581
汗	-5582
拆	-5583
幅	-5584
烧	-5585
燃	-5586
孟	-5587
宅	-5588
侍	-5589
迈	-5590
幸	-5591
棒	-5592
虚	-5593
葬	-5594
娱	-5595
械	-5596
紫	-5597
沉	-5598
邓	-5599
餐	-5600
坛	-5601
艘	-5602
折	-5603
厚	-5604
塘	-5605
跑	-5606
赴	-5607
莲	-5608
篮	-5609
贤	-5610
奴	-5611
挑	-5612
敬	-5613
孝	-5614
筹	-5615
幻	-5616
碑	-5617
锋	-5618
叙	-5619
磁	-5620
灰	-5621
陕	-5622
慈	-5623
沟	-5624
祥	-5625
遣	-5626
纬	-5627
储	-5628
姐	-5629
纵	-5630
晶	-5631
疾	-5632
虑	-5633
棋	-5634
倍	-5635
辉	-5636
违	-5637
叛	-5638
慢	-5639
萧	-5640
谱	-5641
箭	-5642
峡	-5643
撞	-5644
葛	-5645
柴	-5646
冯	-5647
苦	-5648
跳	-5649
驾	-5650
贾	-5651
妮	-5652
〉	-5653
熟	-5654
〈	-5655
『	-5656
』	-5657
艇	-5658
尖	-5659
遂	-5660
朋	-5661
坂	-5662
伏	-5663
衔	-5664
仰	-5665
匈	-5666
枚	-5667
仓	-5668
柳	-5669
烟	-5670
螺	-5671
凡	-5672
刀	-5673
燕	-5674
伸	-5675
贯	-5676
纹	-5677
撒	-5678
桂	-5679
瓜	-5680
猎	-5681
潘	-5682
缓	-5683
°	-5684
彭	-5685
谓	-5686
忆	-5687
贺	-5688
雕	-5689
迅	-5690
勤	-5691
慕	-5692
吃	-5693
兽	-5694
详	-5695
粒	-5696
鬼	-5697
琳	-5698
涯	-5699
靖	-5700
累	-5701
趣	-5702
罕	-5703
掉	-5704
番	-5705
挂	-5706
鹿	-5707
猪	-5708
诚	-5709
屿	-5710
熊	-5711
屯	-5712
梯	-5713
泊	-5714
脂	-5715
赠	-5716
硕	-5717
牠	-5718
咸	-5719
胶	-5720
旺	-5721
饮	-5722
抚	-5723
肃	-5724
怪	-5725
秒	-5726
倾	-5727
蛇	-5728
晨	-5729
芳	-5730
屏	-5731
凭	-5732
詹	-5733
惊	-5734
纷	-5735
禄	-5736
擎	-5737
芝	-5738
羊	-5739
仲	-5740
页	-5741
痛	-5742
杉	-5743
壳	-5744
拓	-5745
乳	-5746
玄	-5747
锁	-5748
插	-5749
缅	-5750
凌	-5751
浮	-5752
俊	-5753
隧	-5754
炎	-5755
卓	-5756
泥	-5757
坎	-5758
诞	-5759
喀	-5760
腹	-5761
鼠	-5762
慧	-5763
圳	-5764
励	-5765
杭	-5766
～	-5767
弘	-5768
猫	-5769
旦	-5770
袁	-5771
厄	-5772
晓	-5773
崎	-5774
岳	-5775
搜	-5776
轰	-5777
跃	-5778
罚	-5779
甸	-5780
豆	-5781
塑	-5782
乏	-5783
藩	-5784
玻	-5785
戒	-5786
撰	-5787
畔	-5788
宏	-5789
笑	-5790
鸡	-5791
洗	-5792
卿	-5793
扰	-5794
彻	-5795
盗	-5796
牵	-5797
泳	-5798
祝	-5799
苗	-5800
溶	-5801
丧	-5802
斑	-5803
崔	-5804
乾	-5805
赐	-5806
狮	-5807
坊	-5808
亭	-5809
é	-5810
寄	-5811
胁	-5812
宙	-5813
阅	-5814
袖	-5815
叔	-5816
循	-5817
尉	-5818
舒	-5819
巧	-5820
扮	-5821
妃	-5822
阮	-5823
僧	-5824
郊	-5825
焦	-5826
贞	-5827
询	-5828
粤	-5829
悬	-5830
茂	-5831
仿	-5832
箱	-5833
耀	-5834
污	-5835
霸	-5836
疏	-5837
弥	-5838
衰	-5839
侦	-5840
枢	-5841
捐	-5842
既	-5843
岗	-5844
契	-5845
砲	-5846
壮	-5847
盾	-5848
床	-5849
吨	-5850
摇	-5851
措	-5852
鲤	-5853
碳	-5854
勃	-5855
彰	-5856
逢	-5857
陨	-5858
鸿	-5859
串	-5860
枝	-5861
氢	-5862
浓	-5863
浩	-5864
剩	-5865
厘	-5866
喷	-5867
夷	-5868
翁	-5869
钦	-5870
湿	-5871
歧	-5872
滚	-5873
滩	-5874
拳	-5875
填	-5876
裕	-5877
搬	-5878
递	-5879
券	-5880
荒	-5881
鲍	-5882
卜	-5883
浅	-5884
飓	-5885
窗	-5886
欲	-5887
帅	-5888
丈	-5889
傅	-5890
衍	-5891
饭	-5892
贴	-5893
润	-5894
割	-5895
怒	-5896
灌	-5897
疫	-5898
粮	-5899
邨	-5900
旨	-5901
淮	-5902
侠	-5903
踪	-5904
碍	-5905
笼	-5906
寨	-5907
肥	-5908
抽	-5909
洁	-5910
渔	-5911
垒	-5912
尸	-5913
庞	-5914
赶	-5915
欣	-5916
链	-5917
蝶	-5918
惯	-5919
珊	-5920
膜	-5921
悉	-5922
冒	-5923
斜	-5924
辩	-5925
胎	-5926
鹰	-5927
垂	-5928
孤	-5929
聘	-5930
壤	-5931
耗	-5932
贫	-5933
粹	-5934
迟	-5935
吾	-5936
狄	-5937
湘	-5938
尝	-5939
柔	-5940
腾	-5941
狂	-5942
稿	-5943
握	-5944
儒	-5945
坪	-5946
廊	-5947
揭	-5948
煤	-5949
陀	-5950
栽	-5951
彦	-5952
逆	-5953
闽	-5954
粗	-5955
杆	-5956
婆	-5957
妈	-5958
俘	-5959
貌	-5960
&	-5961
抢	-5962
铺	-5963
狗	-5964
朴	-5965
娘	-5966
琉	-5967
净	-5968
璃	-5969
恰	-5970
潭	-5971
翌	-5972
翠	-5973
堪	-5974
阔	-5975
挪	-5976
魂	-5977
丛	-5978
辰	-5979
寒	-5980
罢	-5981
龟	-5982
稍	-5983
丙	-5984
扶	-5985
堆	-5986
薄	-5987
赋	-5988
禅	-5989
坝	-5990
遵	-5991
癌	-5992
丑	-5993
吐	-5994
勋	-5995
刷	-5996
忍	-5997
诏	-5998
淘	-5999
鼻	-6000
矩	-6001
偷	-6002
铭	-6003
碎	-6004
涵	-6005
逻	-6006
荐	-6007
脏	-6008
伪	-6009
怖	-6010
苑	-6011
栏	-6012
姚	-6013
矶	-6014
鸣	-6015
卒	-6016
硫	-6017
颇	-6018
寸	-6019
押	-6020
汪	-6021
叠	-6022
弦	-6023
嫌	-6024
添	-6025
祀	-6026
劝	-6027
逮	-6028
胸	-6029
扫	-6030
屠	-6031
姬	-6032
惟	-6033
吏	-6034
奔	-6035
姻	-6036
泡	-6037
歇	-6038
蒸	-6039
诊	-6040
携	-6041
蛛	-6042
讷	-6043
酶	-6044
兆	-6045
夕	-6046
仇	-6047
雀	-6048
琼	-6049
─	-6050
芒	-6051
叉	-6052
逼	-6053
奎	-6054
卑	-6055
狼	-6056
趋	-6057
涂	-6058
脊	-6059
磨	-6060
韵	-6061
腐	-6062
隋	-6063
醒	-6064
偿	-6065
卵	-6066
勳	-6067
猛	-6068
拼	-6069
嗣	-6070
娃	-6071
菊	-6072
嫁	-6073
厢	-6074
屈	-6075
劫	-6076
稣	-6077
薛	-6078
敢	-6079
鹤	-6080
斤	-6081
犬	-6082
掘	-6083
悲	-6084
摆	-6085
肖	-6086
凝	-6087
氯	-6088
忙	-6089
闪	-6090
债	-6091
伽	-6092
醇	-6093
肌	-6094
矛	-6095
凉	-6096
嘴	-6097
碟	-6098
抑	-6099
棘	-6100
铸	-6101
姊	-6102
奶	-6103
侨	-6104
・	-6105
妙	-6106
栋	-6107
旬	-6108
汰	-6109
忽	-6110
株	-6111
砖	-6112
鼎	-6113
稻	-6114
袋	-6115
礁	-6116
炉	-6117
迦	-6118
舱	-6119
雍	-6120
碧	-6121
→	-6122
抱	-6123
麟	-6124
鲶	-6125
贩	-6126
怕	-6127
扁	-6128
祠	-6129
拖	-6130
穷	-6131
寓	-6132
曰	-6133
砂	-6134
狭	-6135
幽	-6136
翔	-6137
尹	-6138
谭	-6139
吹	-6140
铃	-6141
姜	-6142
’	-6143
惨	-6144
蹈	-6145
绳	-6146
剪	-6147
汀	-6148
竟	-6149
夹	-6150
圭	-6151
虹	-6152
盆	-6153
邑	-6154
崩	-6155
讚	-6156
孕	-6157
宰	-6158
甫	-6159
斐	-6160
丸	-6161
倡	-6162
鄂	-6163
巫	-6164
鉴	-6165
邪	-6166
闸	-6167
抓	-6168
讬	-6169
恭	-6170
埋	-6171
沪	-6172
胆	-6173
毅	-6174
苹	-6175
辨	-6176
锺	-6177
斋	-6178
纤	-6179
豫	-6180
寮	-6181
驳	-6182
雌	-6183
渊	-6184
鳞	-6185
魁	-6186
襄	-6187
咖	-6188
伙	-6189
廖	-6190
汝	-6191
蓬	-6192
钻	-6193
囊	-6194
荆	-6195
×	-6196
雾	-6197
弯	-6198
珀	-6199
丞	-6200
蕨	-6201
募	-6202
催	-6203
氨	-6204
鲈	-6205
蟹	-6206
斩	-6207
吞	-6208
郁	-6209
拨	-6210
蜂	-6211
巢	-6212
滕	-6213
茅	-6214
茵	-6215
扣	-6216
~	-6217
脸	-6218
挖	-6219
腔	-6220
披	-6221
吧	-6222
涌	-6223
腺	-6224
陪	-6225
暖	-6226
肠	-6227
擅	-6228
奋	-6229
谦	-6230
苯	-6231
劲	-6232
聪	-6233
拘	-6234
舌	-6235
瓶	-6236
铎	-6237
蜜	-6238
吻	-6239
耕	-6240
崖	-6241
棉	-6242
喇	-6243
鸭	-6244
暨	-6245
荡	-6246
蕾	-6247
溯	-6248
酷	-6249
栗	-6250
忘	-6251
耐	-6252
漠	-6253
舟	-6254
削	-6255
邱	-6256
仕	-6257
噶	-6258
札	-6259
薪	-6260
帽	-6261
愈	-6262
薇	-6263
卸	-6264
毗	-6265
帐	-6266
诱	-6267
渠	-6268
颈	-6269
啡	-6270
姑	-6271
遥	-6272
鲸	-6273
稀	-6274
婴	-6275
碱	-6276
顷	-6277
矮	-6278
昇	-6279
亥	-6280
巷	-6281
溃	-6282
蜀	-6283
谊	-6284
胺	-6285
蒲	-6286
掠	-6287
扑	-6288
摧	-6289
贼	-6290
拱	-6291
斥	-6292
踏	-6293
锐	-6294
‘	-6295
忧	-6296
愤	-6297
宠	-6298
淑	-6299
穴	-6300
烯	-6301
筒	-6302
爷	-6303
梨	-6304
鑑	-6305
邵	-6306
畅	-6307
肺	-6308
哪	-6309
尿	-6310
椎	-6311
琪	-6312
宴	-6313
谁	-6314
炼	-6315
葵	-6316
冕	-6317
藻	-6318
雇	-6319
庶	-6320
凶	-6321
睡	-6322
惜	-6323
宛	-6324
掩	-6325
轩	-6326
亩	-6327
梵	-6328
漏	-6329
菩	-6330
瘤	-6331
鹅	-6332
框	-6333
翅	-6334
帆	-6335
桓	-6336
磷	-6337
玲	-6338
饼	-6339
澄	-6340
鹏	-6341
肤	-6342
甜	-6343
吁	-6344
唇	-6345
碰	-6346
绵	-6347
誓	-6348
仑	-6349
卧	-6350
豹	-6351
仆	-6352
怡	-6353
禾	-6354
弓	-6355
慎	-6356
奠	-6357
堤	-6358
绥	-6359
贪	-6360
ー	-6361
伞	-6362
夸	-6363
榄	-6364
腿	-6365
挡	-6366
棕	-6367
芦	-6368
瓷	-6369
绑	-6370
褐	-6371
樱	-6372
逸	-6373
奸	-6374
侣	-6375
颠	-6376
爪	-6377
冀	-6378
桌	-6379
蹟	-6380
悠	-6381
骚	-6382
弄	-6383
肿	-6384
删	-6385
蝠	-6386
鸦	-6387
臂	-6388
谐	-6389
姿	-6390
贷	-6391
‧	-6392
桐	-6393
柬	-6394
肝	-6395
呎	-6396
娶	-6397
惧	-6398
慰	-6399
霞	-6400
腓	-6401
纠	-6402
肢	-6403
缴	-6404
*	-6405
颖	-6406
柄	-6407
辈	-6408
牲	-6409
抄	-6410
抛	-6411
骗	-6412
盈	-6413
赌	-6414
恨	-6415
窄	-6416
の	-6417
祯	-6418
践	-6419
庚	-6420
囚	-6421
哀	-6422
蚀	-6423
辟	-6424
庇	-6425
厝	-6426
肩	-6427
腰	-6428
烷	-6429
坟	-6430
浸	-6431
殷	-6432
颂	-6433
赔	-6434
沼	-6435
忌	-6436
茎	-6437
涛	-6438
汶	-6439
扭	-6440
祈	-6441
吊	-6442
滋	-6443
劣	-6444
а	-6445
朵	-6446
滤	-6447
讼	-6448
逾	-6449
搞	-6450
遮	-6451
妖	-6452
饶	-6453
猜	-6454
裸	-6455
炭	-6456
坠	-6457
怎	-6458
秩	-6459
荃	-6460
谣	-6461
厥	-6462
涡	-6463
缝	-6464
蓄	-6465
祸	-6466
槽	-6467
尘	-6468
爬	-6469
祐	-6470
跌	-6471
镑	-6472
悦	-6473
凰	-6474
挺	-6475
芭	-6476
扇	-6477
椅	-6478
瑜	-6479
舆	-6480
夥	-6481
芙	-6482
兔	-6483
坞	-6484
α	-6485
埠	-6486
C	-6487
о	-6488
ン	-6489
庸	-6490
猴	-6491
虾	-6492
寇	-6493
尧	-6494
讽	-6495
屡	-6496
氟	-6497
惩	-6498
虏	-6499
肇	-6500
趁	-6501
戌	-6502
焚	-6503
嵌	-6504
柜	-6505
鳄	-6506
纺	-6507
晴	-6508
嫩	-6509
酮	-6510
崙	-6511
贬	-6512
瑚	-6513
肾	-6514
锅	-6515
歉	-6516
昔	-6517
窝	-6518
橡	-6519
厉	-6520
禧	-6521
佑	-6522
跋	-6523
唤	-6524
眉	-6525
眠	-6526
欠	-6527
喻	-6528
剥	-6529
娅	-6530
$	-6531
勘	-6532
挤	-6533
坤	-6534
擦	-6535
蕃	-6536
茄	-6537
谘	-6538
捉	-6539
骏	-6540
履	-6541
滥	-6542
泪	-6543
萝	-6544
浆	-6545
攀	-6546
昏	-6547
蜥	-6548
#	-6549
爸	-6550
咏	-6551
冻	-6552
怨	-6553
浏	-6554
鞋	-6555
厌	-6556
悟	-6557
胀	-6558
踢	-6559
旱	-6560
铝	-6561
厨	-6562
戊	-6563
醉	-6564
炳	-6565
漂	-6566
帖	-6567
橄	-6568
钓	-6569
喝	-6570
澎	-6571
竣	-6572
撑	-6573
苍	-6574
塌	-6575
氮	-6576
烂	-6577
歼	-6578
丢	-6579
疯	-6580
鲷	-6581
躲	-6582
旭	-6583
榴	-6584
璋	-6585
缔	-6586
凸	-6587
淳	-6588
裴	-6589
赣	-6590
畜	-6591
盒	-6592
臀	-6593
穗	-6594
覆	-6595
锥	-6596
谨	-6597
匪	-6598
椒	-6599
缸	-6600
钩	-6601
盲	-6602
熔	-6603
狐	-6604
垦	-6605
糕	-6606
睛	-6607
僚	-6608
冢	-6609
荫	-6610
妥	-6611
哺	-6612
镶	-6613
酯	-6614
嘛	-6615
罩	-6616
匠	-6617
漆	-6618
窑	-6619
摔	-6620
霖	-6621
斌	-6622
阀	-6623
棚	-6624
匣	-6625
牺	-6626
巩	-6627
钠	-6628
痕	-6629
徙	-6630
阜	-6631
и	-6632
咒	-6633
涨	-6634
喉	-6635
谴	-6636
酿	-6637
虐	-6638
辱	-6639
贿	-6640
煌	-6641
戚	-6642
黛	-6643
岐	-6644
梭	-6645
饱	-6646
铅	-6647
鞍	-6648
秉	-6649
聂	-6650
矢	-6651
虞	-6652
勾	-6653
饥	-6654
蛮	-6655
糊	-6656
佣	-6657
菱	-6658
蛙	-6659
欺	-6660
麓	-6661
瑶	-6662
瞄	-6663
哭	-6664
枫	-6665
浴	-6666
萤	-6667
畴	-6668
笃	-6669
庐	-6670
漳	-6671
酋	-6672
い	-6673
辣	-6674
畏	-6675
拦	-6676
闹	-6677
堵	-6678
闯	-6679
á	-6680
庵	-6681
驰	-6682
捲	-6683
瑙	-6684
谍	-6685
淀	-6686
牟	-6687
祷	-6688
拯	-6689
阎	-6690
钧	-6691
棠	-6692
垣	-6693
幢	-6694
朔	-6695
笛	-6696
乞	-6697
彗	-6698
绅	-6699
蝙	-6700
悼	-6701
椭	-6702
韶	-6703
廿	-6704
凹	-6705
吗	-6706
楠	-6707
瓣	-6708
棍	-6709
閒	-6710
饲	-6711
鲨	-6712
彬	-6713
胃	-6714
帜	-6715
烦	-6716
氛	-6717
膨	-6718
硝	-6719
颌	-6720
濒	-6721
焰	-6722
弧	-6723
滴	-6724
噪	-6725
粘	-6726
壬	-6727
吓	-6728
赦	-6729
惑	-6730
浑	-6731
橙	-6732
沧	-6733
骤	-6734
牢	-6735
翡	-6736
咀	-6737
樑	-6738
冶	-6739
剿	-6740
寡	-6741
缀	-6742
蛤	-6743
瑰	-6744
湛	-6745
掷	-6746
骂	-6747
燥	-6748
磅	-6749
寅	-6750
黏	-6751
杏	-6752
窃	-6753
谕	-6754
懂	-6755
缆	-6756
禹	-6757
肆	-6758
垃	-6759
谥	-6760
н	-6761
酱	-6762
е	-6763
匿	-6764
汕	-6765
玫	-6766
劾	-6767
孜	-6768
槟	-6769
迄	-6770
橘	-6771
酰	-6772
β	-6773
淹	-6774
窦	-6775
邸	-6776
摘	-6777
梓	-6778
闲	-6779
陇	-6780
隙	-6781
鹃	-6782
圾	-6783
沦	-6784
窟	-6785
簧	-6786
汁	-6787
滞	-6788
阐	-6789
艰	-6790
稽	-6791
泌	-6792
渗	-6793
喊	-6794
钥	-6795
峻	-6796
滇	-6797
闵	-6798
】	-6799
【	-6800
煮	-6801
侄	-6802
濑	-6803
с	-6804
ん	-6805
锣	-6806
纂	-6807
戎	-6808
冥	-6809
畿	-6810
绰	-6811
酵	-6812
蚁	-6813
鞭	-6814
筋	-6815
勉	-6816
妓	-6817
孚	-6818
浊	-6819
绒	-6820
诈	-6821
蔽	-6822
奕	-6823
邹	-6824
焕	-6825
懿	-6826
雁	-6827
芽	-6828
р	-6829
纱	-6830
瀑	-6831
泄	-6832
仗	-6833
啤	-6834
鳗	-6835
缠	-6836
剌	-6837
酬	-6838
′	-6839
沛	-6840
宦	-6841
曝	-6842
竖	-6843
諡	-6844
颅	-6845
萍	-6846
狩	-6847
艳	-6848
妆	-6849
傲	-6850
う	-6851
绣	-6852
芯	-6853
嫡	-6854
碘	-6855
寂	-6856
谜	-6857
呢	-6858
乒	-6859
俞	-6860
墅	-6861
籤	-6862
挝	-6863
倪	-6864
墩	-6865
淋	-6866
殉	-6867
臭	-6868
僱	-6869
裹	-6870
荔	-6871
敖	-6872
诵	-6873
诛	-6874
榆	-6875
岑	-6876
缪	-6877
伺	-6878
锯	-6879
癸	-6880
ü	-6881
萌	-6882
耿	-6883
垄	-6884
稚	-6885
吋	-6886
蓉	-6887
彝	-6888
缉	-6889
桶	-6890
樟	-6891
啦	-6892
钙	-6893
墟	-6894
衷	-6895
咬	-6896
琦	-6897
烤	-6898
谏	-6899
聊	-6900
牡	-6901
嫔	-6902
婉	-6903
哇	-6904
竭	-6905
堕	-6906
犁	-6907
茹	-6908
弼	-6909
※	-6910
魅	-6911
敷	-6912
暑	-6913
嵩	-6914
彪	-6915
趾	-6916
裤	-6917
豚	-6918
蹄	-6919
罐	-6920
咨	-6921
爽	-6922
肪	-6923
蜡	-6924
悔	-6925
砍	-6926
蔚	-6927
砌	-6928
晰	-6929
舜	-6930
拾	-6931
藓	-6932
袜	-6933
粟	-6934
芜	-6935
淫	-6936
赚	-6937
愚	-6938
禽	-6939
锤	-6940
亏	-6941
樊	-6942
擒	-6943
骸	-6944
茜	-6945
诠	-6946
龚	-6947
挽	-6948
衙	-6949
愉	-6950
账	-6951
し	-6952
啸	-6953
弊	-6954
赎	-6955
叹	-6956
垫	-6957
壶	-6958
扳	-6959
轿	-6960
鳉	-6961
蕴	-6962
т	-6963
钾	-6964
ス	-6965
羌	-6966
薯	-6967
驼	-6968
舖	-6969
狸	-6970
澜	-6971
檀	-6972
蔓	-6973
匡	-6974
碗	-6975
舅	-6976
狙	-6977
•	-6978
晖	-6979
莞	-6980
绎	-6981
嘎	-6982
廓	-6983
硅	-6984
孢	-6985
厕	-6986
褒	-6987
í	-6988
剖	-6989
皖	-6990
擢	-6991
敲	-6992
イ	-6993
摊	-6994
鹦	-6995
罹	-6996
杖	-6997
膀	-6998
钞	-6999
哩	-7000
鳃	-7001
蜘	-7002
壹	-7003
泼	-7004
乓	-7005
飘	-7006
娥	-7007
毓	-7008
祁	-7009
炒	-7010
渤	-7011
瞬	-7012
钮	-7013
ā	-7014
苔	-7015
倭	-7016
淆	-7017
饿	-7018
棱	-7019
霉	-7020
蔬	-7021
驹	-7022
к	-7023
蕉	-7024
毙	-7025
胚	-7026
ö	-7027
釜	-7028
迭	-7029
兑	-7030
匀	-7031
岱	-7032
暹	-7033
俯	-7034
邯	-7035
卦	-7036
郝	-7037
ó	-7038
骆	-7039
猩	-7040
渭	-7041
娄	-7042
甄	-7043
霜	-7044
鲉	-7045
祇	-7046
舶	-7047
盔	-7048
崛	-7049
烹	-7050
凑	-7051
猿	-7052
抬	-7053
沫	-7054
た	-7055
钉	-7056
в	-7057
疲	-7058
睿	-7059
谅	-7060
醛	-7061
梗	-7062
挫	-7063
脆	-7064
哨	-7065
檐	-7066
梧	-7067
犀	-7068
渝	-7069
沁	-7070
胤	-7071
榕	-7072
ル	-7073
楷	-7074
沂	-7075
抹	-7076
矣	-7077
刹	-7078
膛	-7079
晤	-7080
か	-7081
匾	-7082
妾	-7083
莽	-7084
雯	-7085
眷	-7086
驿	-7087
巾	-7088
栅	-7089
傍	-7090
汐	-7091
蝴	-7092
黔	-7093
宵	-7094
惹	-7095
肚	-7096
л	-7097
峙	-7098
疼	-7099
邢	-7100
婷	-7101
凿	-7102
搁	-7103
莺	-7104
溥	-7105
髓	-7106
汾	-7107
蝉	-7108
莹	-7109
è	-7110
灿	-7111
蕊	-7112
铀	-7113
谟	-7114
琅	-7115
耻	-7116
膝	-7117
溉	-7118
裙	-7119
桦	-7120
垩	-7121
媛	-7122
泗	-7123
湧	-7124
苷	-7125
雏	-7126
谎	-7127
蒿	-7128
袍	-7129
堀	-7130
潟	-7131
渴	-7132
簿	-7133
笠	-7134
と	-7135
祺	-7136
倖	-7137
棺	-7138
磡	-7139
顽	-7140
讳	-7141
ラ	-7142
冤	-7143
敕	-7144
勿	-7145
喙	-7146
辜	-7147
卤	-7148
卯	-7149
敛	-7150
睦	-7151
俩	-7152
泾	-7153
涩	-7154
溢	-7155
耆	-7156
桨	-7157
洼	-7158
羞	-7159
堰	-7160
洽	-7161
膏	-7162
郸	-7163
葱	-7164
瘦	-7165
奢	-7166
肋	-7167
慌	-7168
虔	-7169
闢	-7170
紮	-7171
镍	-7172
菁	-7173
烃	-7174
羟	-7175
佥	-7176
渣	-7177
俭	-7178
鳕	-7179
岚	-7180
晏	-7181
侬	-7182
摸	-7183
吟	-7184
婿	-7185
ア	-7186
羚	-7187
殴	-7188
绸	-7189
晃	-7190
馈	-7191
谬	-7192
峨	-7193
璧	-7194
匙	-7195
鹉	-7196
您	-7197
侏	-7198
啊	-7199
糟	-7200
幌	-7201
泵	-7202
骄	-7203
寝	-7204
钝	-7205
枣	-7206
枯	-7207
缮	-7208
丕	-7209
磺	-7210
诬	-7211
嘲	-7212
戟	-7213
苻	-7214
焊	-7215
骼	-7216
馨	-7217
闰	-7218
揽	-7219
ä	-7220
艮	-7221
芮	-7222
埼	-7223
刃	-7224
蜗	-7225
衫	-7226
μ	-7227
芹	-7228
酉	-7229
竺	-7230
蚌	-7231
岔	-7232
捞	-7233
琛	-7234
噬	-7235
塾	-7236
ト	-7237
岬	-7238
氰	-7239
掀	-7240
衬	-7241
リ	-7242
锂	-7243
淞	-7244
磐	-7245
倚	-7246
鸠	-7247
麒	-7248
蔷	-7249
兀	-7250
棵	-7251
に	-7252
胖	-7253
萼	-7254
慾	-7255
锌	-7256
皓	-7257
瑾	-7258
菇	-7259
哉	-7260
恼	-7261
搏	-7262
梳	-7263
僵	-7264
腕	-7265
瀛	-7266
抒	-7267
枕	-7268
懋	-7269
抨	-7270
忒	-7271
斧	-7272
咪	-7273
な	-7274
暱	-7275
靶	-7276
瑛	-7277
穹	-7278
秃	-7279
り	-7280
娇	-7281
ا	-7282
瞻	-7283
颚	-7284
鲀	-7285
锈	-7286
戍	-7287
兜	-7288
捧	-7289
溴	-7290
癒	-7291
荀	-7292
菸	-7293
浚	-7294
睹	-7295
撕	-7296
栈	-7297
〔	-7298
稜	-7299
〕	-7300
雳	-7301
兖	-7302
芸	-7303
桩	-7304
溜	-7305
ク	-7306
洩	-7307
诃	-7308
鸽	-7309
憾	-7310
棣	-7311
嘱	-7312
嗜	-7313
祂	-7314
蝇	-7315
帛	-7316
曜	-7317
舷	-7318
煽	-7319
蚕	-7320
る	-7321
汞	-7322
衞	-7323
缚	-7324
觅	-7325
茱	-7326
苞	-7327
蔗	-7328
篡	-7329
霄	-7330
洒	-7331
焉	-7332
鑫	-7333
镰	-7334
怜	-7335
渥	-7336
捍	-7337
翟	-7338
霹	-7339
胰	-7340
陡	-7341
韧	-7342
蛾	-7343
蜒	-7344
鰕	-7345
д	-7346
峭	-7347
祚	-7348
蜿	-7349
恪	-7350
灶	-7351
蟾	-7352
祕	-7353
炬	-7354
き	-7355
鍊	-7356
妄	-7357
煞	-7358
敞	-7359
〜	-7360
慨	-7361
萃	-7362
ま	-7363
稠	-7364
霆	-7365
逗	-7366
锻	-7367
绞	-7368
熹	-7369
淇	-7370
−	-7371
糙	-7372
恺	-7373
沽	-7374
瘟	-7375
乍	-7376
昊	-7377
芥	-7378
曙	-7379
□	-7380
烛	-7381
偕	-7382
钊	-7383
隍	-7384
阙	-7385
崑	-7386
麾	-7387
黜	-7388
巳	-7389
肽	-7390
昼	-7391
皂	-7392
篷	-7393
镖	-7394
玺	-7395
м	-7396
孵	-7397
粪	-7398
蚤	-7399
莓	-7400
鞑	-7401
砾	-7402
筛	-7403
栓	-7404
躯	-7405
吡	-7406
俾	-7407
笨	-7408
泻	-7409
颐	-7410
沸	-7411
辗	-7412
箕	-7413
矽	-7414
硼	-7415
薰	-7416
γ	-7417
邺	-7418
は	-7419
妨	-7420
咤	-7421
饷	-7422
屑	-7423
溺	-7424
皋	-7425
禺	-7426
羁	-7427
さ	-7428
譬	-7429
く	-7430
椰	-7431
曦	-7432
玮	-7433
膳	-7434
鳅	-7435
潼	-7436
酚	-7437
傀	-7438
埤	-7439
晕	-7440
挠	-7441
瘾	-7442
赁	-7443
镁	-7444
泣	-7445
酪	-7446
斡	-7447
纶	-7448
俸	-7449
楞	-7450
恕	-7451
靼	-7452
隅	-7453
刮	-7454
龛	-7455
娟	-7456
鹭	-7457
陞	-7458
\	-7459
妍	-7460
晒	-7461
贱	-7462
暮	-7463
疹	-7464
铉	-7465
吵	-7466
豁	-7467
莆	-7468
ッ	-7469
咽	-7470
苣	-7471
侮	-7472
彤	-7473
绮	-7474
臧	-7475
葫	-7476
蚊	-7477
儡	-7478
堇	-7479
盎	-7480
裘	-7481
鎌	-7482
阱	-7483
赂	-7484
桢	-7485
驯	-7486
靴	-7487
こ	-7488
炫	-7489
衢	-7490
诅	-7491
佬	-7492
钜	-7493
沥	-7494
π	-7495
が	-7496
埗	-7497
庾	-7498
舵	-7499
峪	-7500
萱	-7501
砸	-7502
镀	-7503
陛	-7504
钵	-7505
δ	-7506
み	-7507
氦	-7508
泸	-7509
挟	-7510
鲑	-7511
坜	-7512
瞒	-7513
湄	-7514
磊	-7515
沐	-7516
绶	-7517
柠	-7518
扔	-7519
瘫	-7520
绫	-7521
鞘	-7522
倩	-7523
汴	-7524
て	-7525
帘	-7526
у	-7527
タ	-7528
幡	-7529
柑	-7530
滙	-7531
呆	-7532
@	-7533
ら	-7534
诰	-7535
σ	-7536
奚	-7537
拢	-7538
炀	-7539
煎	-7540
韬	-7541
夭	-7542
炯	-7543
伶	-7544
晟	-7545
戮	-7546
羲	-7547
腥	-7548
钛	-7549
濠	-7550
靡	-7551
巅	-7552
毯	-7553
沮	-7554
榈	-7555
卉	-7556
拷	-7557
矫	-7558
臼	-7559
萎	-7560
λ	-7561
咎	-7562
挣	-7563
醋	-7564
醚	-7565
蓟	-7566
カ	-7567
ジ	-7568
蒜	-7569
陋	-7570
п	-7571
琵	-7572
瞩	-7573
苟	-7574
お	-7575
淄	-7576
鸾	-7577
シ	-7578
垮	-7579
闷	-7580
恤	-7581
稷	-7582
陌	-7583
槛	-7584
巖	-7585
扯	-7586
崁	-7587
淤	-7588
鸥	-7589
寰	-7590
涧	-7591
翘	-7592
苇	-7593
幂	-7594
槐	-7595
佚	-7596
隘	-7597
笙	-7598
燮	-7599
←	-7600
懒	-7601
証	-7602
讶	-7603
ç	-7604
檬	-7605
憩	-7606
霰	-7607
芋	-7608
叱	-7609
蔑	-7610
诡	-7611
沾	-7612
笋	-7613
鼬	-7614
竿	-7615
篆	-7616
娴	-7617
悚	-7618
琶	-7619
肛	-7620
铠	-7621
弈	-7622
蒐	-7623
绛	-7624
冉	-7625
铬	-7626
珂	-7627
鹫	-7628
壕	-7629
旷	-7630
ち	-7631
姨	-7632
岂	-7633
朽	-7634
臻	-7635
帧	-7636
悍	-7637
皱	-7638
ロ	-7639
殡	-7640
跪	-7641
锚	-7642
揆	-7643
毘	-7644
釉	-7645
苛	-7646
颍	-7647
聆	-7648
莒	-7649
漕	-7650
痪	-7651
剃	-7652
嘻	-7653
あ	-7654
胥	-7655
孺	-7656
荧	-7657
骇	-7658
琰	-7659
蕙	-7660
甥	-7661
睐	-7662
坍	-7663
杞	-7664
桅	-7665
汲	-7666
○	-7667
鄞	-7668
馏	-7669
渲	-7670
ε	-7671
愁	-7672
谒	-7673
甬	-7674
翊	-7675
拐	-7676
掳	-7677
昱	-7678
瞿	-7679
ل	-7680
昙	-7681
饪	-7682
â	-7683
哆	-7684
糯	-7685
耦	-7686
悄	-7687
谤	-7688
踩	-7689
埕	-7690
诫	-7691
啶	-7692
骁	-7693
炽	-7694
贮	-7695
悖	-7696
衮	-7697
跆	-7698
捆	-7699
妒	-7700
崭	-7701
撃	-7702
辕	-7703
簇	-7704
绯	-7705
陂	-7706
ω	-7707
マ	-7708
隼	-7709
昧	-7710
蛱	-7711
钰	-7712
珪	-7713
傻	-7714
峇	-7715
濮	-7716
盼	-7717
挚	-7718
苓	-7719
铵	-7720
攸	-7721
芷	-7722
皈	-7723
烘	-7724
铨	-7725
泷	-7726
茉	-7727
褚	-7728
疟	-7729
硒	-7730
圻	-7731
腻	-7732
媚	-7733
〇	-7734
じ	-7735
桧	-7736
侃	-7737
掣	-7738
灼	-7739
濬	-7740
僖	-7741
撼	-7742
魄	-7743
ú	-7744
殆	-7745
琐	-7746
ド	-7747
镐	-7748
驸	-7749
椿	-7750
褶	-7751
傣	-7752
銮	-7753
瀚	-7754
毋	-7755
砷	-7756
レ	-7757
躁	-7758
谚	-7759
雉	-7760
恳	-7761
侈	-7762
赈	-7763
绢	-7764
歪	-7765
蜴	-7766
г	-7767
卅	-7768
侗	-7769
跤	-7770
倦	-7771
葆	-7772
铲	-7773
±	-7774
ο	-7775
叡	-7776
薹	-7777
聋	-7778
脾	-7779
畸	-7780
圩	-7781
楔	-7782
趟	-7783
遏	-7784
峯	-7785
鲽	-7786
婢	-7787
筠	-7788
を	-7789
贻	-7790
ρ	-7791
й	-7792
唸	-7793
沅	-7794
媳	-7795
桔	-7796
鳌	-7797
炜	-7798
潞	-7799
弩	-7800
呕	-7801
禀	-7802
羧	-7803
鳚	-7804
刁	-7805
焘	-7806
瓯	-7807
喃	-7808
胱	-7809
勐	-7810
飙	-7811
圃	-7812
樵	-7813
荚	-7814
莘	-7815
靳	-7816
杠	-7817
辍	-7818
辙	-7819
捣	-7820
馅	-7821
锰	-7822
琮	-7823
菅	-7824
б	-7825
フ	-7826
澈	-7827
肴	-7828
颊	-7829
驴	-7830
も	-7831
甦	-7832
瞳	-7833
颤	-7834
à	-7835
τ	-7836
つ	-7837
匆	-7838
躺	-7839
窜	-7840
柿	-7841
迥	-7842
耸	-7843
拂	-7844
愧	-7845
遴	-7846
哑	-7847
裳	-7848
乂	-7849
拌	-7850
襟	-7851
狠	-7852
丫	-7853
搅	-7854
晦	-7855
潍	-7856
ν	-7857
鹊	-7858
だ	-7859
夔	-7860
籽	-7861
浒	-7862
耍	-7863
で	-7864
碉	-7865
熵	-7866
诽	-7867
す	-7868
轭	-7869
洮	-7870
琥	-7871
膺	-7872
栉	-7873
喘	-7874
ə	-7875
ミ	-7876
濂	-7877
秽	-7878
粥	-7879
昨	-7880
觐	-7881
猷	-7882
洙	-7883
邝	-7884
冗	-7885
蚜	-7886
蠢	-7887
槃	-7888
я	-7889
窥	-7890
姪	-7891
宸	-7892
瑕	-7893
羰	-7894
豔	-7895
吠	-7896
弋	-7897
疮	-7898
捡	-7899
妳	-7900
渎	-7901
铂	-7902
ô	-7903
枋	-7904
浜	-7905
斛	-7906
逵	-7907
仄	-7908
僻	-7909
嫉	-7910
ς	-7911
オ	-7912
忻	-7913
曳	-7914
茛	-7915
蠕	-7916
衅	-7917
钴	-7918
翎	-7919
薑	-7920
吼	-7921
潢	-7922
莪	-7923
闾	-7924
咳	-7925
遁	-7926
酥	-7927
浇	-7928
瓒	-7929
痴	-7930
れ	-7931
殭	-7932
蚂	-7933
掖	-7934
昶	-7935
朕	-7936
邕	-7937
奘	-7938
惕	-7939
岷	-7940
螂	-7941
癫	-7942
诀	-7943
虢	-7944
や	-7945
エ	-7946
熄	-7947
ι	-7948
藔	-7949
骠	-7950
氹	-7951
っ	-7952
栾	-7953
孀	-7954
筝	-7955
蟒	-7956
‰	-7957
琏	-7958
阡	-7959
俨	-7960
迺	-7961
茫	-7962
昕	-7963
逍	-7964
醣	-7965
扈	-7966
溧	-7967
剔	-7968
谛	-7969
コ	-7970
煜	-7971
貂	-7972
轼	-7973
唑	-7974
弑	-7975
钨	-7976
盏	-7977
湳	-7978
螯	-7979
拙	-7980
榔	-7981
栎	-7982
缕	-7983
鳎	-7984
偃	-7985
烽	-7986
畑	-7987
絮	-7988
鸢	-7989
眺	-7990
妊	-7991
巍	-7992
忏	-7993
☆	-7994
渚	-7995
灏	-7996
钏	-7997
キ	-7998
戛	-7999
璜	-8000
跻	-8001
婺	-8002
捏	-8003
涟	-8004
鲱	-8005
φ	-8006
砚	-8007
孛	-8008
荥	-8009
伎	-8010
叭	-8011
坳	-8012
篱	-8013
贲	-8014
涤	-8015
擂	-8016
颓	-8017
囱	-8018
檗	-8019
荟	-8020
璐	-8021
暇	-8022
嶋	-8023
瑄	-8024
佟	-8025
叮	-8026
鮨	-8027
ī	-8028
ブ	-8029
慷	-8030
巽	-8031
樽	-8032
谯	-8033
滦	-8034
肘	-8035
薨	-8036
迂	-8037
š	-8038
扼	-8039
沱	-8040
篠	-8041
憎	-8042
歙	-8043
滔	-8044
炔	-8045
蛟	-8046
尬	-8047
涿	-8048
け	-8049
倘	-8050
荼	-8051
グ	-8052
髅	-8053
宕	-8054
蓼	-8055
旻	-8056
馥	-8057
ن	-8058
チ	-8059
鞠	-8060
峦	-8061
鹘	-8062
掺	-8063
脖	-8064
镛	-8065
璇	-8066
挨	-8067
氓	-8068
丐	-8069
鸮	-8070
璟	-8071
皿	-8072
艋	-8073
讹	-8074
黯	-8075
哗	-8076
檎	-8077
餵	-8078
骥	-8079
炙	-8080
珲	-8081
舺	-8082
ر	-8083
钳	-8084
郢	-8085
沌	-8086
胪	-8087
鲫	-8088
蚬	-8089
佃	-8090
惰	-8091
旌	-8092
嫂	-8093
匝	-8094
璞	-8095
鄙	-8096
镕	-8097
劭	-8098
匮	-8099
唔	-8100
ナ	-8101
阇	-8102
麝	-8103
蝽	-8104
鄱	-8105
尻	-8106
浔	-8107
颉	-8108
骅	-8109
叻	-8110
昵	-8111
牒	-8112
眶	-8113
纥	-8114
з	-8115
わ	-8116
奄	-8117
妲	-8118
骷	-8119
亘	-8120
啄	-8121
缎	-8122
撇	-8123
涪	-8124
骧	-8125
歳	-8126
秤	-8127
蘑	-8128
诣	-8129
デ	-8130
玟	-8131
痒	-8132
瞰	-8133
呀	-8134
诲	-8135
ы	-8136
サ	-8137
ч	-8138
κ	-8139
ム	-8140
尴	-8141
嗅	-8142
崧	-8143
懈	-8144
凋	-8145
鳖	-8146
嚣	-8147
怠	-8148
劈	-8149
呐	-8150
槿	-8151
碁	-8152
亵	-8153
蠍	-8154
婕	-8155
祉	-8156
阗	-8157
酗	-8158
掸	-8159
汛	-8160
熏	-8161
磋	-8162
祜	-8163
岖	-8164
睾	-8165
讥	-8166
ي	-8167
淦	-8168
咲	-8169
ь	-8170
ウ	-8171
抖	-8172
拇	-8173
パ	-8174
卞	-8175
榨	-8176
睢	-8177
稼	-8178
缙	-8179
ñ	-8180
η	-8181
槓	-8182
ャ	-8183
螈	-8184
醮	-8185
钗	-8186
饵	-8187
亢	-8188
潇	-8189
睽	-8190
鱇	-8191
ひ	-8192
ょ	-8193
テ	-8194
滁	-8195
烨	-8196
麴	-8197
え	-8198
铿	-8199
罂	-8200
鮟	-8201
哮	-8202
珉	-8203
よ	-8204
覃	-8205
鼩	-8206
唆	-8207
屎	-8208
冼	-8209
赃	-8210
å	-8211
岘	-8212
铯	-8213
靓	-8214
嬉	-8215
ê	-8216
ë	-8217
乖	-8218
嗓	-8219
撮	-8220
査	-8221
葺	-8222
θ	-8223
羯	-8224
咐	-8225
枭	-8226
笈	-8227
魮	-8228
鵰	-8229
彷	-8230
熬	-8231
蝎	-8232
洵	-8233
秧	-8234
ィ	-8235
凳	-8236
墘	-8237
惶	-8238
م	-8239
プ	-8240
橇	-8241
澧	-8242
痫	-8243
粲	-8244
佗	-8245
绊	-8246
酌	-8247
鹛	-8248
迳	-8249
遐	-8250
柚	-8251
堺	-8252
槌	-8253
澡	-8254
鸫	-8255
佘	-8256
摹	-8257
羹	-8258
蝨	-8259
槭	-8260
燧	-8261
蜱	-8262
ō	-8263
徘	-8264
烁	-8265
聿	-8266
^	-8267
ø	-8268
咕	-8269
娠	-8270
嬴	-8271
腋	-8272
艏	-8273
髻	-8274
愍	-8275
堑	-8276
喆	-8277
蝗	-8278
谔	-8279
淖	-8280
鸯	-8281
柩	-8282
ʁ	-8283
ハ	-8284
寥	-8285
浣	-8286
鬣	-8287
徊	-8288
歹	-8289
犍	-8290
鲿	-8291
ュ	-8292
珑	-8293
纾	-8294
踝	-8295
瓮	-8296
醯	-8297
锑	-8298
讫	-8299
鸳	-8300
ß	-8301
ニ	-8302
渍	-8303
癖	-8304
漱	-8305
甯	-8306
荻	-8307
躬	-8308
バ	-8309
窖	-8310
轶	-8311
鲆	-8312
碌	-8313
贰	-8314
喂	-8315
忱	-8316
梢	-8317
碇	-8318
铳	-8319
泓	-8320
洱	-8321
灸	-8322
筱	-8323
羨	-8324
茧	-8325
娼	-8326
脐	-8327
缢	-8328
鳢	-8329
钡	-8330
湍	-8331
钍	-8332
ろ	-8333
亳	-8334
叩	-8335
赓	-8336
郴	-8337
俏	-8338
琨	-8339
甩	-8340
窒	-8341
垅	-8342
怯	-8343
氙	-8344
蟠	-8345
俑	-8346
崴	-8347
桁	-8348
筲	-8349
寞	-8350
龈	-8351
叟	-8352
娩	-8353
胄	-8354
呜	-8355
恬	-8356
缇	-8357
锭	-8358
悯	-8359
蔻	-8360
邬	-8361
●	-8362
捻	-8363
苳	-8364
兮	-8365
窘	-8366
脩	-8367
ダ	-8368
肄	-8369
č	-8370
晔	-8371
晷	-8372
玖	-8373
蓓	-8374
蜕	-8375
弛	-8376
疵	-8377
钺	-8378
و	-8379
せ	-8380
惇	-8381
慑	-8382
漩	-8383
痊	-8384
轧	-8385
闇	-8386
鞅	-8387
耽	-8388
蒴	-8389
蕈	-8390
骰	-8391
呤	-8392
珞	-8393
镳	-8394
鼐	-8395
ガ	-8396
掏	-8397
煦	-8398
脇	-8399
谪	-8400
ɛ	-8401
ビ	-8402
屁	-8403
盂	-8404
嚼	-8405
宥	-8406
杵	-8407
毡	-8408
拣	-8409
姥	-8410
炱	-8411
疣	-8412
狡	-8413
罔	-8414
歆	-8415
脷	-8416
俳	-8417
挛	-8418
碾	-8419
筏	-8420
僭	-8421
妤	-8422
燊	-8423
驭	-8424
箔	-8425
胫	-8426
锄	-8427
泮	-8428
岙	-8429
檄	-8430
溅	-8431
铮	-8432
め	-8433
メ	-8434
畠	-8435
凛	-8436
枉	-8437
踞	-8438
雒	-8439
扒	-8440
箴	-8441
赉	-8442
锟	-8443
堃	-8444
珈	-8445
ェ	-8446
氾	-8447
獭	-8448
隽	-8449
恃	-8450
烫	-8451
逅	-8452
邂	-8453
钼	-8454
骊	-8455
瞎	-8456
簷	-8457
邳	-8458
鲛	-8459
攘	-8460
猕	-8461
腱	-8462
荠	-8463
辫	-8464
霓	-8465
婪	-8466
珮	-8467
矗	-8468
铢	-8469
驮	-8470
孽	-8471
藜	-8472
鹬	-8473
ب	-8474
榛	-8475
唾	-8476
抉	-8477
畲	-8478
镭	-8479
筵	-8480
楣	-8481
沔	-8482
蕲	-8483
娑	-8484
祗	-8485
鮠	-8486
悫	-8487
楹	-8488
疡	-8489
绚	-8490
缨	-8491
佼	-8492
荨	-8493
戳	-8494
璘	-8495
絃	-8496
榉	-8497
挞	-8498
粱	-8499
蜻	-8500
霑	-8501
佤	-8502
脓	-8503
鹳	-8504
澍	-8505
糸	-8506
螨	-8507
辄	-8508
酝	-8509
阉	-8510
嘌	-8511
姗	-8512
疤	-8513
鹟	-8514
镉	-8515
闺	-8516
揉	-8517
茸	-8518
钹	-8519
骈	-8520
峒	-8521
拮	-8522
焙	-8523
荪	-8524
诹	-8525
ū	-8526
蚓	-8527
嘧	-8528
蜓	-8529
俚	-8530
恽	-8531
溼	-8532
岌	-8533
榻	-8534
锢	-8535
漾	-8536
琢	-8537
钒	-8538
钚	-8539
ゅ	-8540
嗽	-8541
噩	-8542
琬	-8543
饺	-8544
侷	-8545
疱	-8546
肱	-8547
醃	-8548
阆	-8549
⋯	-8550
咙	-8551
炖	-8552
罄	-8553
紊	-8554
黍	-8555
橱	-8556
豌	-8557
栃	-8558
蛎	-8559
モ	-8560
烙	-8561
谳	-8562
赘	-8563
铍	-8564
鼹	-8565
ã	-8566
寛	-8567
猝	-8568
痉	-8569
遽	-8570
⁄	-8571
ど	-8572
咯	-8573
庑	-8574
彧	-8575
이	-8576
匕	-8577
媲	-8578
戡	-8579
瑭	-8580
粽	-8581
蛹	-8582
靛	-8583
鲹	-8584
ш	-8585
啮	-8586
徕	-8587
菀	-8588
鲲	-8589
弁	-8590
虱	-8591
佰	-8592
栩	-8593
腈	-8594
勺	-8595
呵	-8596
戦	-8597
鮡	-8598
鲗	-8599
»	-8600
脍	-8601
谿	-8602
锷	-8603
嬷	-8604
瓘	-8605
鳟	-8606
ē	-8607
榭	-8608
疚	-8609
鱿	-8610
俐	-8611
滘	-8612
垢	-8613
帚	-8614
洄	-8615
漓	-8616
矾	-8617
鳝	-8618
爹	-8619
猬	-8620
腭	-8621
菠	-8622
≤	-8623
彿	-8624
懦	-8625
杲	-8626
蛭	-8627
鄢	-8628
鲡	-8629
杓	-8630
醴	-8631
昴	-8632
涝	-8633
稔	-8634
芎	-8635
诟	-8636
ł	-8637
氐	-8638
莅	-8639
蜈	-8640
疽	-8641
蠡	-8642
郧	-8643
鄚	-8644
î	-8645
吩	-8646
噜	-8647
弔	-8648
汹	-8649
纭	-8650
蹲	-8651
艉	-8652
铰	-8653
鬃	-8654
庠	-8655
恂	-8656
殇	-8657
獾	-8658
舫	-8659
隗	-8660
鸵	-8661
啼	-8662
酐	-8663
醍	-8664
ı	-8665
囉	-8666
鹈	-8667
勖	-8668
嬅	-8669
徳	-8670
栢	-8671
蚣	-8672
«	-8673
ć	-8674
哔	-8675
珥	-8676
痰	-8677
膦	-8678
峤	-8679
揣	-8680
珅	-8681
痺	-8682
羣	-8683
υ	-8684
ц	-8685
喧	-8686
昀	-8687
蛊	-8688
х	-8689
厮	-8690
悌	-8691
暧	-8692
淅	-8693
瑠	-8694
迩	-8695
凄	-8696
喵	-8697
孪	-8698
硖	-8699
纣	-8700
赡	-8701
そ	-8702
祢	-8703
筷	-8704
醐	-8705
颔	-8706
骞	-8707
帷	-8708
烬	-8709
诘	-8710
颢	-8711
俟	-8712
敍	-8713
甕	-8714
羔	-8715
袒	-8716
ズ	-8717
垭	-8718
嫖	-8719
踊	-8720
逞	-8721
阈	-8722
骡	-8723
柘	-8724
珩	-8725
瑁	-8726
繇	-8727
菏	-8728
铣	-8729
ゃ	-8730
惮	-8731
鲳	-8732
歎	-8733
琊	-8734
绽	-8735
æ	-8736
漪	-8737
犊	-8738
盯	-8739
褫	-8740
辻	-8741
ζ	-8742
鲂	-8743
ゆ	-8744
殁	-8745
皎	-8746
铋	-8747
镧	-8748
د	-8749
夯	-8750
瓢	-8751
缵	-8752
觊	-8753
轸	-8754
痘	-8755
癡	-8756
眩	-8757
萩	-8758
螳	-8759
锆	-8760
鲭	-8761
俪	-8762
湟	-8763
蜍	-8764
镠	-8765
摒	-8766
邛	-8767
鯙	-8768
―	-8769
糜	-8770
苋	-8771
郓	-8772
镌	-8773
ノ	-8774
佯	-8775
奭	-8776
掾	-8777
涣	-8778
羡	-8779
萸	-8780
咱	-8781
沭	-8782
箫	-8783
鲟	-8784
蝰	-8785
邾	-8786
儁	-8787
邃	-8788
鱲	-8789
憬	-8790
霾	-8791
髦	-8792
铊	-8793
阑	-8794
靺	-8795
晁	-8796
砦	-8797
啉	-8798
嫣	-8799
焯	-8800
瑯	-8801
笺	-8802
谗	-8803
遶	-8804
ŋ	-8805
祎	-8806
阖	-8807
嵇	-8808
玑	-8809
惫	-8810
戸	-8811
簪	-8812
钯	-8813
涕	-8814
茴	-8815
蝮	-8816
螃	-8817
廍	-8818
甾	-8819
睫	-8820
鞨	-8821
拚	-8822
郦	-8823
铐	-8824
闫	-8825
顼	-8826
ㄧ	-8827
撷	-8828
璿	-8829
褪	-8830
邈	-8831
顗	-8832
★	-8833
涸	-8834
诩	-8835
剷	-8836
娣	-8837
殓	-8838
炊	-8839
睁	-8840
荞	-8841
赟	-8842
馒	-8843
憧	-8844
湮	-8845
س	-8846
厩	-8847
谌	-8848
蹦	-8849
­	-8850
ョ	-8851
㑩	-8852
鲻	-8853
匐	-8854
嵊	-8855
邠	-8856
锗	-8857
耘	-8858
蔺	-8859
蠔	-8860
驷	-8861
扛	-8862
箍	-8863
匍	-8864
奂	-8865
澂	-8866
郯	-8867
锕	-8868
霁	-8869
亟	-8870
偈	-8871
砺	-8872
裨	-8873
颙	-8874
嘘	-8875
斟	-8876
辎	-8877
钇	-8878
đ	-8879
ご	-8880
ふ	-8881
ツ	-8882
乩	-8883
觎	-8884
诒	-8885
瘠	-8886
绷	-8887
萘	-8888
辇	-8889
侥	-8890
勅	-8891
攒	-8892
柝	-8893
様	-8894
闿	-8895
韭	-8896
鲇	-8897
胭	-8898
隈	-8899
牍	-8900
珏	-8901
嫦	-8902
専	-8903
嵯	-8904
縻	-8905
诋	-8906
郗	-8907
ば	-8908
栱	-8909
猥	-8910
郤	-8911
锵	-8912
闳	-8913
饬	-8914
珣	-8915
ś	-8916
孰	-8917
浬	-8918
玳	-8919
県	-8920
恙	-8921
咄	-8922
瑗	-8923
癣	-8924
砥	-8925
碲	-8926
笏	-8927
幔	-8928
晞	-8929
璠	-8930
苌	-8931
茗	-8932
藕	-8933
ɔ	-8934
镓	-8935
渺	-8936
澹	-8937
蒯	-8938
蟑	-8939
轲	-8940
า	-8941
儋	-8942
忿	-8943
涞	-8944
稗	-8945
锜	-8946
桀	-8947
э	-8948
ع	-8949
恿	-8950
榘	-8951
煲	-8952
璨	-8953
趴	-8954
嘶	-8955
廪	-8956
獠	-8957
痹	-8958
ワ	-8959
娲	-8960
怂	-8961
爨	-8962
蔼	-8963
鵙	-8964
ず	-8965
痢	-8966
盱	-8967
ж	-8968
拗	-8969
汜	-8970
鄯	-8971
呛	-8972
壑	-8973
屹	-8974
帑	-8975
槻	-8976
猖	-8977
璀	-8978
鳐	-8979
刍	-8980
玠	-8981
珙	-8982
腌	-8983
込	-8984
ा	-8985
囤	-8986
榷	-8987
讧	-8988
逛	-8989
セ	-8990
漯	-8991
薙	-8992
咆	-8993
枷	-8994
琇	-8995
糠	-8996
菈	-8997
्	-8998
棻	-8999
陉	-9000
ร	-9001
ほ	-9002
䌽	-9003
刈	-9004
揪	-9005
綦	-9006
肮	-9007
珐	-9008
睪	-9009
蛰	-9010
颞	-9011
嚐	-9012
煇	-9013
燬	-9014
碛	-9015
ァ	-9016
ケ	-9017
忤	-9018
涓	-9019
绀	-9020
绾	-9021
铌	-9022
ぶ	-9023
楯	-9024
钿	-9025
陲	-9026
ی	-9027
む	-9028
暐	-9029
ね	-9030
俺	-9031
橹	-9032
菟	-9033
郃	-9034
垛	-9035
岫	-9036
憨	-9037
锶	-9038
呋	-9039
毎	-9040
瀬	-9041
笹	-9042
ˈ	-9043
嵋	-9044
梶	-9045
蝾	-9046
唁	-9047
圜	-9048
碓	-9049
翩	-9050
耒	-9051
薮	-9052
ş	-9053
尕	-9054
旃	-9055
瑀	-9056
砵	-9057
鎗	-9058
铟	-9059
ί	-9060
ボ	-9061
倻	-9062
墉	-9063
燎	-9064
讣	-9065
镒	-9066
阂	-9067
齧	-9068
妞	-9069
峠	-9070
挹	-9071
疃	-9072
鹗	-9073
殃	-9074
湃	-9075
濡	-9076
煊	-9077
缤	-9078
ž	-9079
猾	-9080
芩	-9081
谑	-9082
谙	-9083
铼	-9084
鹑	-9085
ぐ	-9086
嘿	-9087
虬	-9088
蝌	-9089
踵	-9090
י	-9091
哄	-9092
惭	-9093
歴	-9094
氘	-9095
蒨	-9096
贽	-9097
麋	-9098
俣	-9099
椽	-9100
祟	-9101
菓	-9102
χ	-9103
暠	-9104
楫	-9105
胧	-9106
蚪	-9107
铷	-9108
锉	-9109
鲔	-9110
侑	-9111
愫	-9112
蚶	-9113
赭	-9114
阯	-9115
雹	-9116
嗪	-9117
蹂	-9118
ˋ	-9119
∈	-9120
徭	-9121
旸	-9122
镂	-9123
ð	-9124
塭	-9125
椁	-9126
楸	-9127
氩	-9128
焜	-9129
陟	-9130
眙	-9131
碣	-9132
秆	-9133
窍	-9134
荖	-9135
谧	-9136
谶	-9137
朐	-9138
桡	-9139
砀	-9140
腮	-9141
诙	-9142
䜣	-9143
剽	-9144
勗	-9145
氡	-9146
氪	-9147
瘀	-9148
睇	-9149
苴	-9150
藨	-9151
蹇	-9152
炅	-9153
獐	-9154
脲	-9155
醌	-9156
ă	-9157
恣	-9158
歩	-9159
痞	-9160
і	-9161
ت	-9162
侪	-9163
喹	-9164
坯	-9165
嶷	-9166
捩	-9167
猗	-9168
苎	-9169
豺	-9170
钤	-9171
鼱	-9172
ネ	-9173
槎	-9174
滂	-9175
藐	-9176
蜚	-9177
鹕	-9178
་	-9179
坵	-9180
彊	-9181
嘅	-9182
旼	-9183
氚	-9184
沣	-9185
犛	-9186
豊	-9187
黒	-9188
ザ	-9189
哌	-9190
寔	-9191
惺	-9192
纫	-9193
躏	-9194
凪	-9195
弭	-9196
瞪	-9197
芗	-9198
铆	-9199
锴	-9200
坨	-9201
揖	-9202
昉	-9203
翦	-9204
铱	-9205
龢	-9206
ˊ	-9207
耙	-9208
́	-9209
卍	-9210
啬	-9211
嗡	-9212
墀	-9213
爰	-9214
竑	-9215
ф	-9216
ぎ	-9217
僮	-9218
姫	-9219
孖	-9220
朦	-9221
橐	-9222
玷	-9223
羿	-9224
脯	-9225
芍	-9226
葶	-9227
袄	-9228
敎	-9229
畈	-9230
纮	-9231
觞	-9232
蹼	-9233
翱	-9234
髯	-9235
ά	-9236
र	-9237
僳	-9238
愔	-9239
獗	-9240
砜	-9241
俶	-9242
恍	-9243
汨	-9244
魟	-9245
び	-9246
ゴ	-9247
傈	-9248
塬	-9249
晗	-9250
菖	-9251
輋	-9252
ポ	-9253
崂	-9254
椴	-9255
鹞	-9256
宓	-9257
曷	-9258
篙	-9259
綝	-9260
肼	-9261
蚵	-9262
蹊	-9263
迤	-9264
阚	-9265
®	-9266
勣	-9267
惋	-9268
筊	-9269
缄	-9270
膑	-9271
蟆	-9272
辂	-9273
ه	-9274
ゲ	-9275
恸	-9276
扉	-9277
泞	-9278
臆	-9279
≥	-9280
嘟	-9281
夙	-9282
潦	-9283
蚺	-9284
蜷	-9285
霭	-9286
惣	-9287
暄	-9288
笞	-9289
関	-9290
鳀	-9291
睑	-9292
裟	-9293
锝	-9294
闩	-9295
拴	-9296
蚯	-9297
蝓	-9298
袈	-9299
铈	-9300
颛	-9301
鳔	-9302
戾	-9303
杷	-9304
牯	-9305
粿	-9306
蛞	-9307
蟀	-9308
诂	-9309
郜	-9310
鄜	-9311
鹄	-9312
ό	-9313
坷	-9314
擘	-9315
淝	-9316
玘	-9317
驒	-9318
吝	-9319
哼	-9320
窿	-9321
蜑	-9322
蹴	-9323
搓	-9324
讪	-9325
骐	-9326
喱	-9327
噻	-9328
峥	-9329
桉	-9330
稹	-9331
芪	-9332
ʃ	-9333
∞	-9334
倬	-9335
汎	-9336
莿	-9337
萜	-9338
跷	-9339
嵙	-9340
柃	-9341
蒾	-9342
藁	-9343
跖	-9344
辊	-9345
钽	-9346
霏	-9347
¥	-9348
ï	-9349
ピ	-9350
僊	-9351
璩	-9352
傕	-9353
芾	-9354
蜃	-9355
袱	-9356
跗	-9357
妫	-9358
崽	-9359
梆	-9360
灞	-9361
瑷	-9362
缬	-9363
嚎	-9364
禛	-9365
缜	-9366
膊	-9367
蟋	-9368
锹	-9369
埭	-9370
蚩	-9371
韫	-9372
飒	-9373
ו	-9374
げ	-9375
崮	-9376
枇	-9377
涎	-9378
砧	-9379
鞮	-9380
ソ	-9381
伉	-9382
沢	-9383
洺	-9384
碚	-9385
豉	-9386
飨	-9387
ح	-9388
佞	-9389
冑	-9390
搔	-9391
淼	-9392
琚	-9393
箬	-9394
蛄	-9395
酣	-9396
喔	-9397
敝	-9398
楂	-9399
溟	-9400
玥	-9401
籁	-9402
刽	-9403
怛	-9404
苄	-9405
趸	-9406
鮈	-9407
孃	-9408
泠	-9409
狒	-9410
箇	-9411
褂	-9412
ψ	-9413
傉	-9414
垓	-9415
楝	-9416
沓	-9417
綑	-9418
리	-9419
へ	-9420
刎	-9421
垠	-9422
巻	-9423
愕	-9424
泫	-9425
淌	-9426
眞	-9427
舂	-9428
轫	-9429
魇	-9430
ý	-9431
น	-9432
ベ	-9433
晾	-9434
毬	-9435
篝	-9436
簋	-9437
躄	-9438
酆	-9439
铕	-9440
铛	-9441
ː	-9442
囓	-9443
姒	-9444
婶	-9445
罡	-9446
袂	-9447
謇	-9448
ò	-9449
ヒ	-9450
佺	-9451
埴	-9452
揄	-9453
樋	-9454
祛	-9455
秣	-9456
貘	-9457
û	-9458
廨	-9459
訇	-9460
冏	-9461
樫	-9462
洹	-9463
濯	-9464
腑	-9465
菝	-9466
`	-9467
†	-9468
ホ	-9469
刨	-9470
啃	-9471
繙	-9472
葭	-9473
镯	-9474
ì	-9475
◎	-9476
沆	-9477
発	-9478
筐	-9479
菴	-9480
蜢	-9481
袤	-9482
蹶	-9483
ギ	-9484
哒	-9485
囍	-9486
拽	-9487
粑	-9488
蘸	-9489
丶	-9490
冇	-9491
澶	-9492
疙	-9493
穰	-9494
蓣	-9495
鲎	-9496
瘩	-9497
蹠	-9498
郅	-9499
镝	-9500
啾	-9501
牦	-9502
瓌	-9503
荳	-9504
辘	-9505
ヤ	-9506
媾	-9507
懊	-9508
杼	-9509
钕	-9510
樾	-9511
眨	-9512
蛀	-9513
髹	-9514
ة	-9515
อ	-9516
咫	-9517
啜	-9518
坌	-9519
増	-9520
氖	-9521
滢	-9522
缭	-9523
苾	-9524
钐	-9525
飚	-9526
鹀	-9527
ù	-9528
柞	-9529
爻	-9530
疍	-9531
眈	-9532
芈	-9533
荩	-9534
锔	-9535
鲣	-9536
鲮	-9537
麂	-9538
ξ	-9539
ペ	-9540
唧	-9541
揶	-9542
昺	-9543
獴	-9544
铧	-9545
嵘	-9546
狈	-9547
畹	-9548
瘴	-9549
礽	-9550
舔	-9551
阏	-9552
勲	-9553
哦	-9554
峄	-9555
廸	-9556
馑	-9557
鯓	-9558
鸲	-9559
ม	-9560
劵	-9561
圹	-9562
帼	-9563
怿	-9564
柽	-9565
槲	-9566
犒	-9567
璁	-9568
疝	-9569
钸	-9570
隷	-9571
다	-9572
寐	-9573
枞	-9574
焗	-9575
蓁	-9576
誊	-9577
邰	-9578
郫	-9579
霈	-9580
馗	-9581
伫	-9582
円	-9583
冴	-9584
婵	-9585
拭	-9586
淬	-9587
蔵	-9588
褥	-9589
鮄	-9590
鸬	-9591
ง	-9592
榎	-9593
矜	-9594
簸	-9595
脣	-9596
蛳	-9597
诤	-9598
遹	-9599
ъ	-9600
ش	-9601
亶	-9602
傚	-9603
吲	-9604
葜	-9605
镗	-9606
ń	-9607
ก	-9608
譁	-9609
谩	-9610
跛	-9611
ざ	-9612
勰	-9613
姉	-9614
姝	-9615
岀	-9616
棂	-9617
滏	-9618
瞧	-9619
茁	-9620
菰	-9621
藿	-9622
蛸	-9623
铤	-9624
闼	-9625
髋	-9626
鬬	-9627
咁	-9628
哚	-9629
喋	-9630
塱	-9631
洸	-9632
穂	-9633
隰	-9634
鹚	-9635
鼯	-9636
ư	-9637
ف	-9638
ق	-9639
ḥ	-9640
唢	-9641
嗝	-9642
捶	-9643
枱	-9644
楽	-9645
犷	-9646
磕	-9647
糅	-9648
㹴	-9649
徇	-9650
掐	-9651
燿	-9652
葩	-9653
蔴	-9654
鎏	-9655
̇	-9656
ㄨ	-9657
佢	-9658
佶	-9659
兢	-9660
咩	-9661
囿	-9662
壅	-9663
椋	-9664
榫	-9665
燻	-9666
箐	-9667
膈	-9668
蓑	-9669
闱	-9670
呗	-9671
咭	-9672
搪	-9673
泚	-9674
磘	-9675
荤	-9676
莳	-9677
鏖	-9678
锇	-9679
鵟	-9680
ю	-9681
ั	-9682
仡	-9683
圪	-9684
悸	-9685
牴	-9686
皙	-9687
皝	-9688
莴	-9689
ك	-9690
เ	-9691
惘	-9692
撬	-9693
棨	-9694
翳	-9695
蘅	-9696
蛏	-9697
褓	-9698
지	-9699
ˇ	-9700
া	-9701
↔	-9702
劢	-9703
喫	-9704
噗	-9705
坻	-9706
沩	-9707
砻	-9708
苕	-9709
萦	-9710
邽	-9711
饯	-9712
鹋	-9713
아	-9714
ج	-9715
嘢	-9716
晩	-9717
枸	-9718
熠	-9719
窈	-9720
苜	-9721
蛆	-9722
酢	-9723
M	-9724
ز	-9725
ぼ	-9726
伕	-9727
倣	-9728
囧	-9729
毌	-9730
泯	-9731
犸	-9732
痲	-9733
钋	-9734
镫	-9735
ヴ	-9736
哙	-9737
孳	-9738
嵴	-9739
扪	-9740
溱	-9741
焓	-9742
磬	-9743
郷	-9744
T	-9745
べ	-9746
侂	-9747
塩	-9748
嵬	-9749
嶂	-9750
巯	-9751
狨	-9752
蜊	-9753
蠹	-9754
颧	-9755
鹌	-9756
ɑ	-9757
̃	-9758
乜	-9759
拈	-9760
瓠	-9761
疸	-9762
蔘	-9763
鲢	-9764
■	-9765
埸	-9766
殒	-9767
绂	-9768
舘	-9769
苈	-9770
谄	-9771
逖	-9772
鸸	-9773
ย	-9774
‖	-9775
△	-9776
汊	-9777
舯	-9778
莼	-9779
蹬	-9780
ि	-9781
凫	-9782
噱	-9783
恵	-9784
榊	-9785
溆	-9786
磾	-9787
胯	-9788
葳	-9789
赜	-9790
邙	-9791
镱	-9792
ר	-9793
崃	-9794
梿	-9795
疋	-9796
阕	-9797
骘	-9798
犰	-9799
箓	-9800
芊	-9801
蓿	-9802
虻	-9803
趺	-9804
钌	-9805
骋	-9806
佾	-9807
毂	-9808
苫	-9809
茔	-9810
萁	-9811
黻	-9812
ě	-9813
䲗	-9814
仞	-9815
婧	-9816
弢	-9817
徨	-9818
狳	-9819
瑱	-9820
簕	-9821
罟	-9822
薏	-9823
蠵	-9824
鄄	-9825
铑	-9826
濶	-9827
牂	-9828
痣	-9829
祆	-9830
缰	-9831
胛	-9832
김	-9833
사	-9834
実	-9835
炤	-9836
玹	-9837
癞	-9838
窰	-9839
蓖	-9840
酊	-9841
隣	-9842
鸪	-9843
伝	-9844
倜	-9845
捺	-9846
睬	-9847
菘	-9848
赝	-9849
郇	-9850
龑	-9851
þ	-9852
ㄚ	-9853
咝	-9854
壆	-9855
尙	-9856
烩	-9857
瓩	-9858
绌	-9859
郾	-9860
锫	-9861
阊	-9862
驩	-9863
麸	-9864
하	-9865
͡	-9866
ա	-9867
ה	-9868
仝	-9869
倔	-9870
唛	-9871
嗲	-9872
搐	-9873
栒	-9874
燄	-9875
缈	-9876
胳	-9877
酞	-9878
雎	-9879
駄	-9880
鬓	-9881
鱚	-9882
έ	-9883
≠	-9884
ユ	-9885
効	-9886
湫	-9887
甑	-9888
笆	-9889
荽	-9890
螫	-9891
髑	-9892
鬨	-9893
가	-9894
א	-9895
々	-9896
捅	-9897
攫	-9898
枥	-9899
槙	-9900
沄	-9901
渑	-9902
炘	-9903
蕤	-9904
蛉	-9905
饕	-9906
鹧	-9907
麿	-9908
의	-9909
俦	-9910
呦	-9911
啲	-9912
圉	-9913
抡	-9914
拧	-9915
溲	-9916
秭	-9917
笳	-9918
舛	-9919
谀	-9920
钫	-9921
鰧	-9922
鹩	-9923
기	-9924
ɪ	-9925
怙	-9926
湜	-9927
砹	-9928
颏	-9929
鬲	-9930
黟	-9931
œ	-9932
ή	-9933
்	-9934
ว	-9935
ิ	-9936
㓥	-9937
仃	-9938
嗨	-9939
垌	-9940
戬	-9941
掰	-9942
砭	-9943
羸	-9944
芫	-9945
黝	-9946
त	-9947
噌	-9948
柊	-9949
桤	-9950
榖	-9951
痔	-9952
稙	-9953
褔	-9954
鉄	-9955
鋂	-9956
锾	-9957
나	-9958
म	-9959
ṣ	-9960
稃	-9961
翕	-9962
荏	-9963
蒽	-9964
阋	-9965
馔	-9966
鲬	-9967
鹎	-9968
한	-9969
ʔ	-9970
卬	-9971
吮	-9972
喰	-9973
圮	-9974
濉	-9975
炆	-9976
焱	-9977
祏	-9978
笕	-9979
逋	-9980
郏	-9981
鋆	-9982
铪	-9983
鸱	-9984
鹂	-9985
ğ	-9986
ל	-9987
่	-9988
卹	-9989
嘈	-9990
扦	-9991
抟	-9992
煚	-9993
玆	-9994
磴	-9995
肟	-9996
舢	-9997
莨	-9998
蚋	-9999
讴	-10000
辺	-10001
鄣	-10002
骜	-10003
대	-10004
俎	-10005
儆	-10006
呱	-10007
屌	-10008
拏	-10009
掴	-10010
溏	-10011
砰	-10012
绡	-10013
豨	-10014
豳	-10015
锽	-10016
黼	-10017
¬	-10018
ř	-10019
ё	-10020
∶	-10021
呸	-10022
娓	-10023
绦	-10024
缟	-10025
耜	-10026
舎	-10027
芨	-10028
螭	-10029
訚	-10030
鄠	-10031
钪	-10032
雩	-10033
颎	-10034
鳊	-10035
ύ	-10036
啥	-10037
嫚	-10038
嶝	-10039
廕	-10040
撩	-10041
珺	-10042
硐	-10043
芃	-10044
頫	-10045
鬻	-10046
鸨	-10047
ى	-10048
▲	-10049
哏	-10050
嚏	-10051
団	-10052
姣	-10053
涮	-10054
讦	-10055
谲	-10056
鱀	-10057
鲵	-10058
鸻	-10059
어	-10060
न	-10061
剡	-10062
咗	-10063
塽	-10064
幪	-10065
怅	-10066
懵	-10067
淠	-10068
瀞	-10069
盥	-10070
篾	-10071
裱	-10072
鞣	-10073
정	-10074
ṇ	-10075
≈	-10076
啰	-10077
嗟	-10078
嘏	-10079
孑	-10080
対	-10081
尪	-10082
踹	-10083
馁	-10084
ǎ	-10085
ส	-10086
偲	-10087
埂	-10088
屐	-10089
恫	-10090
柒	-10091
煖	-10092
琯	-10093
瘿	-10094
睺	-10095
粧	-10096
胝	-10097
荛	-10098
跸	-10099
铄	-10100
骢	-10101
鬟	-10102
ą	-10103
俵	-10104
劻	-10105
哋	-10106
嵗	-10107
戋	-10108
渌	-10109
湣	-10110
焖	-10111
罘	-10112
諲	-10113
鬘	-10114
주	-10115
क	-10116
ṭ	-10117
匏	-10118
杳	-10119
珽	-10120
窕	-10121
诧	-10122
铽	-10123
餮	-10124
仟	-10125
呻	-10126
埒	-10127
廆	-10128
濞	-10129
祔	-10130
縁	-10131
纨	-10132
翀	-10133
頼	-10134
성	-10135
坭	-10136
堉	-10137
宍	-10138
崆	-10139
嶙	-10140
擧	-10141
榧	-10142
潺	-10143
烺	-10144
狛	-10145
玕	-10146
瑊	-10147
缯	-10148
耨	-10149
逹	-10150
鲃	-10151
라	-10152
ɕ	-10153
ა	-10154
ㄇ	-10155
剁	-10156
屉	-10157
忡	-10158
栻	-10159
炕	-10160
熨	-10161
璎	-10162
畬	-10163
碶	-10164
総	-10165
胍	-10166
菽	-10167
蠊	-10168
詧	-10169
迢	-10170
骝	-10171
啪	-10172
圏	-10173
墬	-10174
浃	-10175
浈	-10176
禑	-10177
臾	-10178
芡	-10179
飏	-10180
동	-10181
щ	-10182
啖	-10183
璈	-10184
疥	-10185
痤	-10186
硏	-10187
窠	-10188
絵	-10189
鉏	-10190
镞	-10191
雑	-10192
颕	-10193
饴	-10194
髭	-10195
خ	-10196
呷	-10197
揹	-10198
搀	-10199
橿	-10200
浯	-10201
滉	-10202
禩	-10203
粕	-10204
缗	-10205
翥	-10206
腩	-10207
荸	-10208
衽	-10209
逯	-10210
鉲	-10211
鋐	-10212
魣	-10213
♭	-10214
傥	-10215
叁	-10216
憍	-10217
戕	-10218
昰	-10219
枹	-10220
栀	-10221
濊	-10222
臬	-10223
郛	-10224
미	-10225
ゼ	-10226
䇲	-10227
埚	-10228
晸	-10229
檩	-10230
煨	-10231
蓆	-10232
袴	-10233
豢	-10234
饨	-10235
도	-10236
서	-10237
מ	-10238
寳	-10239
悝	-10240
戆	-10241
昪	-10242
炁	-10243
狎	-10244
箸	-10245
莠	-10246
诜	-10247
鑛	-10248
일	-10249
ש	-10250
♪	-10251
⟩	-10252
䌷	-10253
哎	-10254
唬	-10255
巂	-10256
斫	-10257
楙	-10258
汭	-10259
淯	-10260
燏	-10261
狍	-10262
瘙	-10263
箝	-10264
粳	-10265
罴	-10266
舾	-10267
茌	-10268
觑	-10269
豕	-10270
迸	-10271
钆	-10272
钣	-10273
馄	-10274
黠	-10275
ط	-10276
َ	-10277
प	-10278
ต	-10279
俅	-10280
唭	-10281
垻	-10282
斓	-10283
昐	-10284
樨	-10285
満	-10286
猁	-10287
猞	-10288
瑈	-10289
碴	-10290
笪	-10291
箧	-10292
钷	-10293
镥	-10294
해	-10295
ʻ	-10296
स	-10297
ท	-10298
ạ	-10299
⟨	-10300
丼	-10301
嬛	-10302
崐	-10303
惚	-10304
槊	-10305
畯	-10306
祧	-10307
稲	-10308
蛔	-10309
裆	-10310
铡	-10311
髂	-10312
§	-10313
ぬ	-10314
伋	-10315
咚	-10316
埙	-10317
帙	-10318
捒	-10319
浐	-10320
瘁	-10321
蒺	-10322
觋	-10323
遑	-10324
闘	-10325
颀	-10326
스	-10327
ב	-10328
ת	-10329
ล	-10330
≡	-10331
哟	-10332
峋	-10333
摭	-10334
梣	-10335
椤	-10336
浍	-10337
舐	-10338
赊	-10339
赳	-10340
遒	-10341
髡	-10342
수	-10343
원	-10344
้	-10345
ぞ	-10346
ォ	-10347
凊	-10348
咔	-10349
嘹	-10350
孱	-10351
泺	-10352
渟	-10353
滹	-10354
玎	-10355
玢	-10356
眸	-10357
祓	-10358
裾	-10359
鑀	-10360
镬	-10361
鮗	-10362
ი	-10363
∧	-10364
♯	-10365
卟	-10366
庥	-10367
戢	-10368
痍	-10369
瞋	-10370
缑	-10371
腴	-10372
谠	-10373
邗	-10374
郞	-10375
镨	-10376
霎	-10377
驺	-10378
ę	-10379
พ	-10380
啧	-10381
圀	-10382
枳	-10383
樗	-10384
泱	-10385
痈	-10386
赀	-10387
铙	-10388
镤	-10389
駅	-10390
髙	-10391
ี	-10392
ุ	-10393
ヘ	-10394
嚷	-10395
圯	-10396
峁	-10397
嶲	-10398
愎	-10399
桫	-10400
欉	-10401
淸	-10402
獒	-10403
瞥	-10404
糍	-10405
繖	-10406
胂	-10407
蚱	-10408
襞	-10409
襦	-10410
赍	-10411
赧	-10412
郿	-10413
阄	-10414
隠	-10415
鲧	-10416
에	-10417
䴉	-10418
仵	-10419
傩	-10420
嗯	-10421
嬗	-10422
澪	-10423
稞	-10424
镈	-10425
馍	-10426
髪	-10427
鱥	-10428
鹱	-10429
์	-10430
〞	-10431
亓	-10432
吱	-10433
咋	-10434
嚟	-10435
坩	-10436
巿	-10437
悴	-10438
浠	-10439
瓛	-10440
痂	-10441
皐	-10442
蓥	-10443
襁	-10444
고	-10445
자	-10446
õ	-10447
ơ	-10448
ị	-10449
╱	-10450
劄	-10451
勷	-10452
喾	-10453
朊	-10454
烜	-10455
燹	-10456
竦	-10457
笄	-10458
篦	-10459
籓	-10460
谆	-10461
镣	-10462
오	-10463
倧	-10464
叨	-10465
咧	-10466
峩	-10467
庹	-10468
怆	-10469
悰	-10470
栝	-10471
篓	-10472
籐	-10473
胼	-10474
茯	-10475
诿	-10476
铖	-10477
व	-10478
র	-10479
⇔	-10480
囗	-10481
夤	-10482
妪	-10483
寘	-10484
徬	-10485
恻	-10486
枧	-10487
桠	-10488
滓	-10489
磔	-10490
礴	-10491
竜	-10492
簃	-10493
胴	-10494
萣	-10495
螅	-10496
鋹	-10497
铥	-10498
頵	-10499
黥	-10500
ी	-10501
ห	-10502
⇒	-10503
ヶ	-10504
値	-10505
卐	-10506
廞	-10507
徴	-10508
悭	-10509
桷	-10510
犄	-10511
畷	-10512
瞽	-10513
秸	-10514
肜	-10515
藦	-10516
覧	-10517
酩	-10518
鎭	-10519
锲	-10520
鳂	-10521
ә	-10522
〖	-10523
〗	-10524
ヨ	-10525
俬	-10526
嘀	-10527
埈	-10528
売	-10529
悽	-10530
憔	-10531
掟	-10532
汧	-10533
牻	-10534
獬	-10535
璆	-10536
筮	-10537
縯	-10538
菑	-10539
辋	-10540
迨	-10541
邡	-10542
韪	-10543
÷	-10544
द	-10545
ल	-10546
ṃ	-10547
♥	-10548
ㄩ	-10549
䓬	-10550
