<pad>	0
<unk>	0
[CLS]	0
[SEP]	0
[MASK]	0
(	0
)	0
”	0
-	0
.	0
–	0
£	0
€	0
20	-0
19	-1
201	-2
200	-3
一个	-4
▁19	-5
中国	-6
10	-7
▁在	-8
人口	-9
an	-10
18	-11
美国	-12
er	-13
位于	-14
12	-15
▁201	-16
公里	-17
in	-18
00	-19
or	-20
on	-21
大学	-22
可以	-23
11	-24
公司	-25
日本	-26
地区	-27
政府	-28
平方	-29
使用	-30
的一个	-31
成为	-32
香港	-33
开始	-34
ar	-35
国家	-36
15	-37
台湾	-38
的一	-39
第一	-40
以及	-41
▁200	-42
其中	-43
en	-44
进行	-45
la	-46
平方公里	-47
▁这	-48
包括	-49
面积	-50
世界	-51
st	-52
人民	-53
主要	-54
16	-55
17	-56
没有	-57
他们	-58
部分	-59
研究	-60
是一	-61
al	-62
199	-63
委员	-64
认为	-65
由于	-66
14	-67
获得	-68
at	-69
30	-70
▁该	-71
其他	-72
第二	-73
▁c	-74
之后	-75
因为	-76
▁他	-77
代表	-78
因此	-79
国际	-80
电影	-81
13	-82
▁t	-83
运动	-84
当时	-85
工作	-86
▁s	-87
ic	-88
中华	-89
政治	-90
同时	-91
le	-92
电视	-93
系统	-94
中心	-95
作为	-96
自己	-97
re	-98
之一	-99
中的	-100
▁m	-101
担任	-102
英国	-103
可能	-104
发展	-105
学院	-106
成立	-107
时间	-108
25	-109
属于	-110
不同	-111
」,	-112
he	-113
称为	-114
设计	-115
ro	-116
▁此	-117
通过	-118
中央	-119
for	-120
▁《	-121
198	-122
发现	-123
法国	-124
游戏	-125
行政	-126
社会	-127
it	-128
铁路	-129
表示	-130
他的	-131
mu	-132
50	-133
音乐	-134
共和	-135
建筑	-136
委员会	-137
is	-138
文化	-139
▁p	-140
负责	-141
历史	-142
21	-143
出现	-144
年的	-145
根据	-146
组织	-147
」。	-148
参加	-149
年代	-150
▁b	-151
车站	-152
am	-153
世纪	-154
学校	-155
24	-156
后来	-157
期间	-158
主义	-159
经济	-160
上的	-161
单位	-162
管理	-163
▁199	-164
市镇	-165
所有	-166
影响	-167
正式	-168
最后	-169
提供	-170
▁d	-171
发生	-172
共和国	-173
23	-174
也是	-175
北京	-176
作品	-177
城市	-178
利亚	-179
许多	-180
》,	-181
之间	-182
活动	-183
大的	-184
已经	-185
时期	-186
28	-187
德国	-188
ac	-189
mula	-190
一些	-191
、《	-192
▁但	-193
formula	-194
▁而	-195
全国	-196
问题	-197
26	-198
下辖	-199
教育	-200
es	-201
,200	-202
尼亚	-203
el	-204
人的	-205
这个	-206
目前	-207
比赛	-208
以下	-209
27	-210
服务	-211
足球	-212
进入	-213
上海	-214
197	-215
第三	-216
un	-217
民国	-218
成员	-219
名为	-220
as	-221
两个	-222
工程	-223
22	-224
重要	-225
40	-226
最终	-227
行星	-228
ol	-229
60	-230
战争	-231
生活	-232
密度	-233
节目	-234
il	-235
人物	-236
这些	-237
ch	-238
关系	-239
为了	-240
海拔	-241
联合	-242
罗斯	-243
方面	-244
000	-245
发行	-246
支持	-247
分布	-248
29	-249
学生	-250
决定	-251
到了	-252
ion	-253
制作	-254
▁198	-255
是在	-256
举行	-257
技术	-258
并且	-259
分别	-260
加入	-261
参与	-262
et	-263
高度	-264
》、《	-265
事件	-266
学家	-267
▁h	-268
虽然	-269
系列	-270
计划	-271
同年	-272
▁由于	-273
大陆	-274
需要	-275
冠军	-276
地方	-277
印度	-278
专辑	-279
▁其	-280
▁g	-281
一般	-282
zh	-283
的人	-284
欧洲	-285
建立	-286
人口密度	-287
会议	-288
保护	-289
学名	-290
拥有	-291
最高	-292
▁o	-293
北部	-294
100	-295
宣布	-296
▁大	-297
南部	-298
194	-299
完成	-300
例如	-301
成功	-302
▁本	-303
组成	-304
独立	-305
是一个	-306
us	-307
31	-308
国民	-309
▁w	-310
要求	-311
自由	-312
主教	-313
小行星	-314
斯特	-315
方式	-316
受到	-317
联赛	-318
▁f	-319
人民共和国	-320
通常	-321
om	-322
就是	-323
位于该	-324
存在	-325
有一	-326
对于	-327
所以	-328
球队	-329
毕业	-330
开发	-331
总统	-332
▁a	-333
列车	-334
集团	-335
艺术	-336
总面积	-337
了一	-338
产生	-339
管辖	-340
生产	-341
当地	-342
来自	-343
出版	-344
的大	-345
ur	-346
ed	-347
ing	-348
情况	-349
196	-350
另外	-351
二十	-352
特别	-353
提出	-354
▁194	-355
的是	-356
and	-357
中华人民共和国	-358
前往	-359
然而	-360
》。	-361
id	-362
形成	-363
采用	-364
不过	-365
时代	-366
用于	-367
195	-368
2010	-369
35	-370
选举	-371
1,	-372
中共	-373
民主	-374
出生	-375
▁18	-376
得到	-377
现在	-378
航空	-379
时的	-380
导致	-381
ra	-382
的一个市镇	-383
具有	-384
合作	-385
控制	-386
▁n	-387
变化	-388
70	-389
植物	-390
机场	-391
罗马	-392
俄罗斯	-393
▁l	-394
主席	-395
语言	-396
结束	-397
联盟	-398
除了	-399
造成	-400
西亚	-401
一种	-402
女性	-403
科学	-404
只有	-405
名的	-406
无法	-407
革命	-408
动物	-409
取得	-410
2011	-411
交通	-412
80	-413
海拔高度	-414
海军	-415
ig	-416
ent	-417
:“	-418
有限	-419
接受	-420
来的	-421
任何	-422
继续	-423
西班	-424
年人口	-425
超过	-426
西班牙	-427
人员	-428
新闻	-429
韩国	-430
一直	-431
▁根据	-432
父亲	-433
但是	-434
故事	-435
角色	-436
领导	-437
传统	-438
首次	-439
歌曲	-440
中华民国	-441
ow	-442
经过	-443
项目	-444
并在	-445
台北	-446
如果	-447
相关	-448
自己的	-449
增加	-450
大利	-451
位于该国	-452
▁它	-453
帝国	-454
部队	-455
机构	-456
都是	-457
结构	-458
结果	-459
十二	-460
附近	-461
工业	-462
37	-463
▁阿	-464
▁当	-465
▁"	-466
2019	-467
之前	-468
平均	-469
非常	-470
军事	-471
标准	-472
ut	-473
36	-474
公园	-475
个人	-476
38	-477
共产	-478
也有	-479
ad	-480
▁195	-481
中学	-482
并不	-483
建于	-484
中国大陆	-485
内的	-486
os	-487
是由	-488
行动	-489
设有	-490
居民	-491
发表	-492
版本	-493
我们	-494
现代	-495
自治	-496
还有	-497
im	-498
这一	-499
公路	-500
过程	-501
分布于	-502
苏联	-503
小说	-504
90	-505
重新	-506
热带	-507
内容	-508
街道	-509
区域	-510
分为	-511
有关	-512
出的	-513
▁197	-514
▁the	-515
演员	-516
格兰	-517
34	-518
iv	-519
民族	-520
年至	-521
反对	-522
方法	-523
直接	-524
改为	-525
将军	-526
地的	-527
电子	-528
新的	-529
▁of	-530
书记	-531
甚至	-532
纪念	-533
▁此外	-534
后的	-535
▁k	-536
39	-537
负责管辖	-538
这种	-539
进士	-540
总人口	-541
为主	-542
处理	-543
范围	-544
大量	-545
名称	-546
学习	-547
教授	-548
共有	-549
最佳	-550
调查	-551
另一	-552
东北	-553
必须	-554
建设	-555
:「	-556
军队	-557
距离	-558
完全	-559
亚洲	-560
2012	-561
▁有	-562
环境	-563
朝鲜	-564
一起	-565
位置	-566
区的	-567
生物	-568
第四	-569
协会	-570
主任	-571
od	-572
克斯	-573
于是	-574
广东	-575
战斗	-576
美元	-577
45	-578
br	-579
安全	-580
共同	-581
法院	-582
2,	-583
媒体	-584
多数	-585
随着	-586
举办	-587
太阳	-588
市场	-589
形式	-590
性的	-591
议会	-592
ia	-593
银行	-594
ot	-595
包含	-596
企业	-597
理论	-598
发布	-599
下的	-600
选择	-601
反应	-602
年间	-603
创作	-604
显示	-605
文学	-606
直到	-607
不能	-608
ir	-609
联邦	-610
设立	-611
制造	-612
政治人物	-613
▁196	-614
▁然而	-615
▁马	-616
指挥	-617
太平	-618
48	-619
利用	-620
省的一个市镇	-621
2009	-622
执行	-623
赛事	-624
行为	-625
基本	-626
决赛	-627
自然	-628
han	-629
体育	-630
随后	-631
数据	-632
下辖的一个	-633
攻击	-634
有限公司	-635
三年	-636
▁」	-637
能力	-638
西部	-639
曾经	-640
动画	-641
能够	-642
2013	-643
解放	-644
公开	-645
人类	-646
实际	-647
相当	-648
小时	-649
2016	-650
的地	-651
2014	-652
日在	-653
计算	-654
类似	-655
意大利	-656
再次	-657
——	-658
他在	-659
33	-660
关于	-661
基础	-662
em	-663
女子	-664
议员	-665
蒙古	-666
功能	-667
很多	-668
2015	-669
阿尔	-670
部长	-671
是一种	-672
职业	-673
不是	-674
▁同年	-675
克兰	-676
希望	-677
机车	-678
使得	-679
ec	-680
大会	-681
32	-682
文物	-683
表现	-684
共产党	-685
达到	-686
运动员	-687
空间	-688
,《	-689
尔斯	-690
法律	-691
一次	-692
定的	-693
广州	-694
▁v	-695
团体	-696
路线	-697
▁其中	-698
不同的	-699
ap	-700
离开	-701
拉斯	-702
十一	-703
三个	-704
推出	-705
巴士	-706
作用	-707
时候	-708
商业	-709
主持	-710
政策	-711
山东	-712
单曲	-713
2000	-714
2008	-715
纪录	-716
专业	-717
浙江	-718
▁2013	-719
广播	-720
国王	-721
op	-722
演出	-723
东京	-724
官方	-725
统治	-726
而且	-727
拍摄	-728
▁st	-729
um	-730
▁in	-731
约翰	-732
▁新	-733
,“	-734
▁2016	-735
并于	-736
级行政	-737
▁从	-738
▁李	-739
各种	-740
乡镇	-741
▁她	-742
医院	-743
ag	-744
英文	-745
,000	-746
方向	-747
仍然	-748
实验	-749
资料	-750
产品	-751
东南	-752
一样	-753
ation	-754
唯一	-755
等地	-756
▁另外	-757
的主	-758
人口为	-759
儿子	-760
斯坦	-761
▁虽然	-762
之间的	-763
ip	-764
加拿	-765
严重	-766
规模	-767
▁2012	-768
第一次	-769
基督	-770
任务	-771
模式	-772
相同	-773
是法国	-774
全球	-775
西北	-776
▁2014	-777
早期	-778
四川	-779
西南	-780
宗教	-781
下辖以下	-782
博物	-783
逐渐	-784
▁2015	-785
被称为	-786
2017	-787
的特	-788
2001	-789
以来	-790
年在	-791
男性	-792
群岛	-793
原因	-794
纽约	-795
飞机	-796
▁2010	-797
、「	-798
▁j	-799
75	-800
或者	-801
是中国	-802
城镇	-803
是下辖的一个	-804
最大	-805
青年	-806
部份	-807
乌克兰	-808
简称	-809
道路	-810
细胞	-811
最初	-812
连接	-813
号线	-814
不久	-815
报告	-816
南京	-817
当选	-818
▁曾	-819
2007	-820
天主教	-821
▁总面积	-822
播出	-823
2006	-824
▁2017	-825
歌手	-826
希腊	-827
击败	-828
公共	-829
▁e	-830
家庭	-831
他们的	-832
演唱	-833
每平方公里	-834
指出	-835
英语	-836
等人	-837
190	-838
合并	-839
高速	-840
事务	-841
应用	-842
65	-843
越南	-844
博士	-845
导演	-846
清朝	-847
▁,	-848
人士	-849
▁自	-850
网络	-851
2018	-852
▁与	-853
%,	-854
加拿大	-855
下辖以下地区	-856
定义	-857
全部	-858
物理	-859
去世	-860
则是	-861
属的	-862
▁2018	-863
广场	-864
ul	-865
训练	-866
发动	-867
投资	-868
轨道	-869
明朝	-870
母亲	-871
▁2011	-872
不会	-873
它们	-874
司令	-875
栖息	-876
透过	-877
目标	-878
描述	-879
东部	-880
持续	-881
男子	-882
球员	-883
的新	-884
级行政单位	-885
这样	-886
▁2008	-887
死亡	-888
阿拉	-889
四年	-890
者的	-891
下的一个	-892
博物馆	-893
乡镇级行政单位	-894
分钟	-895
%。	-896
公布	-897
中文	-898
制度	-899
整个	-900
名字	-901
地球	-902
▁小行星	-903
风格	-904
记载	-905
伦敦	-906
尽管	-907
规定	-908
th	-909
天津	-910
▁现	-911
的第	-912
比较	-913
化学	-914
列表	-915
开放	-916
生于	-917
▁一	-918
年后	-919
办公	-920
是下辖的一个乡镇级行政单位	-921
大战	-922
47	-923
千米	-924
▁王	-925
漫画	-926
设置	-927
多的	-928
▁后	-929
科技	-930
马来	-931
先后	-932
年度	-933
速度	-934
赛季	-935
里斯	-936
葡萄	-937
美洲	-938
电视台	-939
处于	-940
经常	-941
出身	-942
▁3	-943
连续	-944
土地	-945
人口密度每平方公里	-946
▁后来	-947
外交	-948
杂志	-949
46	-950
改革	-951
帮助	-952
玩家	-953
2005	-954
福建	-955
最早	-956
是位于	-957
公尺	-958
命名	-959
学者	-960
改变	-961
年起	-962
av	-963
爆发	-964
▁2	-965
ist	-966
立法	-967
经营	-968
河南	-969
不少	-970
的主要	-971
两人	-972
恢复	-973
55	-974
▁西	-975
作家	-976
地下	-977
▁为	-978
然后	-979
陆军	-980
澳门	-981
引起	-982
▁圣	-983
ce	-984
成绩	-985
年时的	-986
」、「	-987
▁该市镇	-988
同样	-989
ie	-990
图示	-991
贸易	-992
将其	-993
国的	-994
乐部	-995
大部分	-996
最大的	-997
家族	-998
▁这些	-999
太平洋	-1000
▁是	-1001
以上	-1002
▁目前	-1003
俱乐部	-1004
▁由	-1005
著名	-1006
ter	-1007
▁4	-1008
ay	-1009
▁中国	-1010
赢得	-1011
飞行	-1012
ak	-1013
网站	-1014
战役	-1015
的一部分	-1016
分子	-1017
每年	-1018
人口变化	-1019
og	-1020
她的	-1021
人口变化图示	-1022
表演	-1023
te	-1024
物种	-1025
当中	-1026
加上	-1027
教堂	-1028
还是	-1029
信息	-1030
图书	-1031
▁r	-1032
有的	-1033
建议	-1034
月台	-1035
长的	-1036
这是	-1037
部门	-1038
规划	-1039
▁5	-1040
锦标	-1041
身份	-1042
取代	-1043
居住	-1044
出生于	-1045
95	-1046
汽车	-1047
oc	-1048
▁因此	-1049
比亚	-1050
斯科	-1051
元年	-1052
中部	-1053
会的	-1054
教区	-1055
3,	-1056
第二次	-1057
▁南	-1058
业务	-1059
▁于	-1060
▁2009	-1061
尔德	-1062
警察	-1063
协助	-1064
皇帝	-1065
多次	-1066
第五	-1067
体的	-1068
人们	-1069
型的	-1070
阶段	-1071
三十	-1072
遭到	-1073
至今	-1074
64	-1075
建造	-1076
年时的人口为	-1077
分析	-1078
设施	-1079
武器	-1080
ab	-1081
▁不过	-1082
运输	-1083
,19	-1084
原本	-1085
领域	-1086
相对	-1087
▁当时	-1088
自动	-1089
之外	-1090
▁据	-1091
学位	-1092
地铁	-1093
荷兰	-1094
加坡	-1095
回到	-1096
面的	-1097
状态	-1098
左右	-1099
可以指	-1100
条件	-1101
几乎	-1102
奥运	-1103
▁1	-1104
重要的	-1105
设备	-1106
ub	-1107
天文	-1108
超级	-1109
以后	-1110
▁8	-1111
会在	-1112
贝尔	-1113
江苏	-1114
解放军	-1115
▁formula	-1116
ov	-1117
的一种	-1118
五年	-1119
出任	-1120
98	-1121
唱片	-1122
属下的一个	-1123
可达	-1124
兄弟	-1125
▁张	-1126
过去	-1127
英格兰	-1128
任命	-1129
社区	-1130
ers	-1131
统一	-1132
地区的	-1133
又称	-1134
一名	-1135
内部	-1136
兴建	-1137
湖南	-1138
流行	-1139
出了	-1140
大约	-1141
68	-1142
排名	-1143
计画	-1144
万人	-1145
是指	-1146
作战	-1147
批评	-1148
电视剧	-1149
乐团	-1150
500	-1151
流域	-1152
南极	-1153
频道	-1154
毫米	-1155
sp	-1156
条约	-1157
the	-1158
广泛	-1159
在此	-1160
继承	-1161
▁2007	-1162
官员	-1163
▁之后	-1164
多个	-1165
拒绝	-1166
普查	-1167
组合	-1168
二年	-1169
发射	-1170
数量	-1171
2004	-1172
第十	-1173
公分	-1174
国内	-1175
伊斯	-1176
bo	-1177
科的	-1178
主角	-1179
展开	-1180
运行	-1181
星期	-1182
▁同时	-1183
始建于	-1184
▁卡	-1185
保持	-1186
▁re	-1187
境内	-1188
农业	-1189
十分	-1190
▁高	-1191
概念	-1192
波兰	-1193
生长	-1194
所在	-1195
不断	-1196
函数	-1197
云南	-1198
巴西	-1199
州市	-1200
▁陈	-1201
▁7	-1202
影片	-1203
宣传	-1204
佛教	-1205
准备	-1206
的情况	-1207
线路	-1208
舰队	-1209
的前	-1210
电脑	-1211
解决	-1212
记者	-1213
44	-1214
每个	-1215
▁6	-1216
▁<	-1217
进攻	-1218
99	-1219
ind	-1220
、“	-1221
评论	-1222
娱乐	-1223
车辆	-1224
国民党	-1225
好的	-1226
减少	-1227
用来	-1228
ard	-1229
▁2006	-1230
山脉	-1231
风暴	-1232
和平	-1233
▁但是	-1234
资源	-1235
日军	-1236
记录	-1237
并没有	-1238
一步	-1239
了一个	-1240
▁10	-1241
国立	-1242
实现	-1243
锦标赛	-1244
78	-1245
力量	-1246
精神	-1247
▁2019	-1248
日至	-1249
巴黎	-1250
程序	-1251
被认为	-1252
线的	-1253
空军	-1254
▁这个	-1255
长期	-1256
儿童	-1257
平台	-1258
子的	-1259
董事	-1260
基地	-1261
普通	-1262
饰演	-1263
奥斯	-1264
首都	-1265
机会	-1266
▁东	-1267
资格	-1268
基于	-1269
限制	-1270
破坏	-1271
ii	-1272
双方	-1273
新加坡	-1274
初期	-1275
只是	-1276
文物保护	-1277
,「	-1278
统计	-1279
女儿	-1280
hk	-1281
思想	-1282
维尔	-1283
交易	-1284
是美国	-1285
个月	-1286
运动会	-1287
无线	-1288
祖父	-1289
及其	-1290
视为	-1291
元素	-1292
都有	-1293
一位	-1294
或是	-1295
委会	-1296
羽毛	-1297
基金	-1298
日起	-1299
区负责管辖	-1300
76	-1301
威廉	-1302
综合	-1303
犹太	-1304
公元	-1305
的影响	-1306
▁!	-1307
恒星	-1308
小学	-1309
非洲	-1310
58	-1311
ge	-1312
协议	-1313
,2009	-1314
300	-1315
用的	-1316
西省	-1317
一年	-1318
文物保护单位	-1319
▁北	-1320
49	-1321
▁中	-1322
力的	-1323
▁and	-1324
乔治	-1325
第一个	-1326
因而	-1327
应该	-1328
▁9	-1329
殖民	-1330
化的	-1331
高级	-1332
它的	-1333
塞尔	-1334
又名	-1335
程度	-1336
成的	-1337
▁以	-1338
年开始	-1339
年轻	-1340
获得了	-1341
接近	-1342
用户	-1343
斯基	-1344
▁三	-1345
▁他们	-1346
教会	-1347
半岛	-1348
平方千米	-1349
all	-1350
参赛	-1351
sa	-1352
▁“	-1353
国会	-1354
ud	-1355
移动	-1356
up	-1357
tw	-1358
机关	-1359
少年	-1360
都会	-1361
同意	-1362
自治区	-1363
国务	-1364
,2001	-1365
不可	-1366
方案	-1367
的时候	-1368
夏季	-1369
著名的	-1370
维持	-1371
年被	-1372
色的	-1373
总部	-1374
但在	-1375
ik	-1376
不明	-1377
art	-1378
实施	-1379
知道	-1380
投入	-1381
▁刘	-1382
产业	-1383
ss	-1384
2003	-1385
是否	-1386
观众	-1387
图书馆	-1388
▁至	-1389
拉克	-1390
曾在	-1391
ne	-1392
物质	-1393
金属	-1394
治疗	-1395
二世	-1396
里的	-1397
是乌克兰	-1398
中国人民	-1399
如下	-1400
王朝	-1401
秘书	-1402
大型	-1403
一带	-1404
总理	-1405
ph	-1406
改编	-1407
分类	-1408
解释	-1409
常见	-1410
奥林	-1411
使用的	-1412
人在	-1413
小组	-1414
目的	-1415
▁安	-1416
起来	-1417
变成	-1418
六年	-1419
澳大	-1420
大楼	-1421
▁「	-1422
研究所	-1423
文件	-1424
质量	-1425
确定	-1426
来说	-1427
▁布	-1428
集中	-1429
光绪	-1430
市的	-1431
斯的	-1432
ba	-1433
▁巴	-1434
56	-1435
从事	-1436
毕业于	-1437
到达	-1438
氧化	-1439
返回	-1440
县人	-1441
尚未	-1442
价值	-1443
,199	-1444
▁天	-1445
旅游	-1446
="	-1447
▁。	-1448
海岸	-1449
进一步	-1450
if	-1451
se	-1452
qu	-1453
现象	-1454
交流	-1455
马来西亚	-1456
支援	-1457
结合	-1458
妻子	-1459
有效	-1460
体长	-1461
销售	-1462
快速	-1463
▁金	-1464
体系	-1465
ill	-1466
96	-1467
不再	-1468
是乌克兰的	-1469
电台	-1470
邀请	-1471
证明	-1472
讨论	-1473
ok	-1474
42	-1475
的小	-1476
sh	-1477
高等	-1478
维亚	-1479
鳍鱼	-1480
公主	-1481
批准	-1482
85	-1483
其后	-1484
大臣	-1485
材料	-1486
保留	-1487
报道	-1488
创立	-1489
议院	-1490
下午	-1491
皇家	-1492
澳大利亚	-1493
来源	-1494
地位	-1495
州的	-1496
一世	-1497
临时	-1498
胜利	-1499
方的	-1500
创办	-1501
na	-1502
正在	-1503
播放	-1504
投票	-1505
各地	-1506
ine	-1507
只能	-1508
课程	-1509
海域	-1510
遗址	-1511
葡萄牙	-1512
两种	-1513
的一座	-1514
少数	-1515
标为	-1516
▁黄	-1517
东西	-1518
类型	-1519
停止	-1520
德里	-1521
针对	-1522
承认	-1523
选手	-1524
▁前	-1525
河北	-1526
公民	-1527
▁美国	-1528
是以	-1529
村落	-1530
辐鳍鱼	-1531
重建	-1532
▁2005	-1533
编号	-1534
属下的一个种	-1535
直至	-1536
辐鳍鱼纲	-1537
如此	-1538
前的	-1539
77	-1540
操作	-1541
米的	-1542
核心	-1543
▁为了	-1544
在美国	-1545
上映	-1546
为一	-1547
威尔	-1548
生涯	-1549
▁de	-1550
▁香港	-1551
奥林匹	-1552
铁道	-1553
▁12	-1554
重庆	-1555
ang	-1556
现时	-1557
的意	-1558
收录	-1559
选区	-1560
水域	-1561
结婚	-1562
王国	-1563
中国共产党	-1564
高的	-1565
未能	-1566
重点	-1567
▁该市镇总面积	-1568
队的	-1569
主题	-1570
第六	-1571
宪法	-1572
程式	-1573
▁小	-1574
▁因为	-1575
广告	-1576
事业	-1577
2002	-1578
收入	-1579
机械	-1580
访问	-1581
效力	-1582
测试	-1583
允许	-1584
尤其	-1585
朋友	-1586
引擎	-1587
总督	-1588
试图	-1589
进行了	-1590
为辐鳍鱼纲	-1591
客运	-1592
日的	-1593
世界大战	-1594
羽毛球	-1595
十八	-1596
主演	-1597
亦有	-1598
数学	-1599
是日本	-1600
民众	-1601
西藏	-1602
伯特	-1603
und	-1604
明显	-1605
再度	-1606
地震	-1607
说法	-1608
人工	-1609
▁ch	-1610
97	-1611
校长	-1612
中山	-1613
冲突	-1614
德语	-1615
命令	-1616
字母	-1617
提高	-1618
▁190	-1619
",	-1620
成立于	-1621
调整	-1622
未来	-1623
逝世	-1624
大多数	-1625
注意	-1626
外的	-1627
的研究	-1628
失去	-1629
hans	-1630
卫星	-1631
就读	-1632
4,	-1633
路易	-1634
表达	-1635
台中	-1636
文章	-1637
电力	-1638
高中	-1639
▁奥	-1640
ct	-1641
是一位	-1642
ice	-1643
的首	-1644
地利	-1645
过程中	-1646
86	-1647
成为了	-1648
《》	-1649
也在	-1650
建成	-1651
武装	-1652
市区	-1653
数字	-1654
:00	-1655
▁他在	-1656
▁拉	-1657
医学	-1658
43	-1659
失败	-1660
市长	-1661
南北	-1662
生命	-1663
考虑	-1664
奥林匹克	-1665
澳洲	-1666
列为	-1667
股份	-1668
联合国	-1669
着作	-1670
yo	-1671
学术	-1672
移民	-1673
争议	-1674
合物	-1675
某些	-1676
57	-1677
国防	-1678
的方式	-1679
取消	-1680
▁克	-1681
▁例如	-1682
▁如果	-1683
隧道	-1684
高雄	-1685
体长可达	-1686
▁罗	-1687
曾任	-1688
瑞典	-1689
看到	-1690
历史上	-1691
等等	-1692
九龙	-1693
大道	-1694
行政区	-1695
十年	-1696
信号	-1697
得以	-1698
伊斯兰	-1699
人数	-1700
66	-1701
有时	-1702
翻译	-1703
文字	-1704
将会	-1705
ma	-1706
的原	-1707
41	-1708
one	-1709
阿拉伯	-1710
ht	-1711
同一	-1712
名单	-1713
事实	-1714
1990	-1715
网路	-1716
的第一	-1717
加利	-1718
球场	-1719
湖北	-1720
运营	-1721
不得	-1722
▁和	-1723
稳定	-1724
人民政府	-1725
四个	-1726
普遍	-1727
有着	-1728
;}	-1729
避免	-1730
观察	-1731
▁17	-1732
ant	-1733
战后	-1734
▁的	-1735
有些	-1736
米尔	-1737
申请	-1738
栖息在	-1739
ber	-1740
是一颗	-1741
政权	-1742
尼斯	-1743
国务院	-1744
▁全	-1745
发售	-1746
等为	-1747
古代	-1748
一度	-1749
▁他的	-1750
▁原	-1751
可能是	-1752
也会	-1753
创造	-1754
引发	-1755
动力	-1756
相似	-1757
政党	-1758
人口普查	-1759
夫卡	-1760
森林	-1761
工厂	-1762
欢迎	-1763
基督教	-1764
一同	-1765
▁2004	-1766
1980	-1767
对手	-1768
消息	-1769
墨西	-1770
知名	-1771
特殊	-1772
▁除了	-1773
什么	-1774
其中男性	-1775
西方	-1776
容易	-1777
也被	-1778
乘客	-1779
出口	-1780
简单	-1781
夺得	-1782
市民	-1783
乾隆	-1784
召开	-1785
蛋白	-1786
▁尽管	-1787
本身	-1788
的海	-1789
科的其中	-1790
▁因	-1791
是一名	-1792
马克	-1793
67	-1794
财政	-1795
气象	-1796
知识	-1797
其它	-1798
关注	-1799
菲律	-1800
中共中央	-1801
之下	-1802
斯克	-1803
1999	-1804
菲律宾	-1805
身体	-1806
编辑	-1807
出来	-1808
从而	-1809
瑞士	-1810
de	-1811
孩子	-1812
七年	-1813
奥地利	-1814
人大	-1815
并非	-1816
尔的	-1817
▁长	-1818
隶属于	-1819
▁伊	-1820
给予	-1821
尔兰	-1822
▁上	-1823
台南	-1824
金融	-1825
台北市	-1826
酒店	-1827
喜欢	-1828
而是	-1829
51	-1830
软件	-1831
经历	-1832
安排	-1833
哈尔	-1834
提名	-1835
不足	-1836
士兵	-1837
民间	-1838
西洋	-1839
墨西哥	-1840
职务	-1841
姆斯	-1842
旅客	-1843
当时的	-1844
教练	-1845
放弃	-1846
办公室	-1847
现场	-1848
面积为	-1849
军的	-1850
水平	-1851
皇后	-1852
表面	-1853
89	-1854
并未	-1855
59	-1856
公司的	-1857
警方	-1858
实行	-1859
大使	-1860
▁此后	-1861
小的	-1862
提升	-1863
400	-1864
亿元	-1865
挑战	-1866
传说	-1867
87	-1868
主张	-1869
禁止	-1870
年底	-1871
模型	-1872
之中	-1873
台风	-1874
复杂	-1875
尼亚州	-1876
估计	-1877
教学	-1878
装置	-1879
埃及	-1880
io	-1881
实际上	-1882
安装	-1883
资讯	-1884
迅速	-1885
袭击	-1886
代码	-1887
深圳	-1888
届全国	-1889
先生	-1890
69	-1891
年美国	-1892
强烈	-1893
ver	-1894
英雄	-1895
150	-1896
竞争	-1897
月至	-1898
都市	-1899
年由	-1900
最后一	-1901
背景	-1902
仪式	-1903
信仰	-1904
发起	-1905
ows	-1906
一定	-1907
特的	-1908
发出	-1909
九年	-1910
万元	-1911
匈牙	-1912
62	-1913
色列	-1914
亚历	-1915
也可以	-1916
哲学	-1917
时任	-1918
匈牙利	-1919
约为	-1920
▁11	-1921
发电	-1922
54	-1923
广西	-1924
里亚	-1925
▁同	-1926
学会	-1927
基因	-1928
按照	-1929
的地方	-1930
教师	-1931
坦克	-1932
来到	-1933
工具	-1934
爱尔兰	-1935
1998	-1936
权力	-1937
专门	-1938
在这	-1939
外国	-1940
ell	-1941
率领	-1942
能量	-1943
品牌	-1944
自行	-1945
规则	-1946
53	-1947
▁台湾	-1948
52	-1949
的高	-1950
是乌克兰的村落	-1951
▁对	-1952
球会	-1953
装甲	-1954
作曲	-1955
抵达	-1956
评价	-1957
▁以下	-1958
第七	-1959
民主党	-1960
太子	-1961
红色	-1962
ive	-1963
完整	-1964
尚书	-1965
安徽	-1966
发现了	-1967
飓风	-1968
ri	-1969
十字	-1970
卡尔	-1971
面对	-1972
比利	-1973
至少	-1974
有一个	-1975
的历史	-1976
积极	-1977
有所	-1978
势力	-1979
营运	-1980
▁2003	-1981
东方	-1982
授予	-1983
吸引	-1984
心理	-1985
英尺	-1986
权利	-1987
▁这种	-1988
威胁	-1989
才能	-1990
淡水	-1991
卫生	-1992
出现在	-1993
武汉	-1994
效果	-1995
法兰	-1996
而被	-1997
经验	-1998
联系	-1999
另一个	-2000
购买	-2001
作者	-2002
▁to	-2003
感到	-2004
命名为	-2005
高速公路	-2006
彼得	-2007
拉丁	-2008
报导	-2009
ack	-2010
制的	-2011
构成	-2012
不满	-2013
牠们	-2014
长度	-2015
戏剧	-2016
ta	-2017
co	-2018
斯塔	-2019
十六	-2020
性质	-2021
72	-2022
团队	-2023
演唱会	-2024
贡献	-2025
特征	-2026
▁16	-2027
▁zh	-2028
的重要	-2029
舞台	-2030
▁明	-2031
多种	-2032
宇宙	-2033
人和	-2034
平方米	-2035
1997	-2036
首府	-2037
专家	-2038
师范	-2039
之子	-2040
标志	-2041
观测	-2042
增长	-2043
79	-2044
如何	-2045
美军	-2046
候选	-2047
维奇	-2048
土耳	-2049
采取	-2050
美术	-2051
世界杯	-2052
以前	-2053
泰国	-2054
更名为	-2055
接触	-2056
indows	-2057
多年	-2058
土耳其	-2059
更加	-2060
有人	-2061
推动	-2062
入侵	-2063
县的	-2064
▁ro	-2065
尔特	-2066
气旋	-2067
bs	-2068
绝对	-2069
结束后	-2070
温度	-2071
,198	-2072
硕士	-2073
中间	-2074
院长	-2075
88	-2076
▁随着	-2077
科的其中一种	-2078
司马	-2079
的山	-2080
领袖	-2081
河畔	-2082
更多	-2083
定为	-2084
年时	-2085
状况	-2086
抗日	-2087
全长	-2088
内阁	-2089
正常	-2090
水库	-2091
介绍	-2092
压力	-2093
北京市	-2094
理事	-2095
为止	-2096
三角	-2097
:"	-2098
传播	-2099
启用	-2100
▁海	-2101
广东省	-2102
岁的	-2103
61	-2104
在中国	-2105
est	-2106
而言	-2107
ian	-2108
配合	-2109
亚历山	-2110
中国人民解放军	-2111
动作	-2112
花园	-2113
岁时	-2114
oh	-2115
地点	-2116
公众	-2117
被认为是	-2118
较为	-2119
委书记	-2120
气候	-2121
十三	-2122
对象	-2123
撤销	-2124
周边	-2125
缺乏	-2126
父母	-2127
很快	-2128
比如	-2129
▁第	-2130
白色	-2131
健康	-2132
埃尔	-2133
住宅	-2134
拉夫	-2135
com	-2136
后期	-2137
万美元	-2138
▁日本	-2139
几个	-2140
中国大陆的	-2141
的作品	-2142
晚上	-2143
因素	-2144
工人	-2145
63	-2146
登陆	-2147
边界	-2148
的问题	-2149
医疗	-2150
华人	-2151
收购	-2152
太空	-2153
,18	-2154
一条	-2155
▁主要	-2156
中有	-2157
▁2000	-2158
经理	-2159
驾驶	-2160
混合	-2161
参加了	-2162
▁二	-2163
大奖	-2164
的发展	-2165
▁科	-2166
意义	-2167
下来	-2168
星等为	-2169
代表大会	-2170
亚目	-2171
即使	-2172
机器	-2173
而在	-2174
需求	-2175
源于	-2176
▁林	-2177
萨克	-2178
律师	-2179
观点	-2180
乡试	-2181
顾问	-2182
找到	-2183
那些	-2184
全面	-2185
其馀	-2186
71	-2187
加盟	-2188
降低	-2189
首先	-2190
lo	-2191
92	-2192
man	-2193
参谋	-2194
照片	-2195
和其他	-2196
原子	-2197
生的	-2198
ran	-2199
测量	-2200
河流	-2201
形目	-2202
的国家	-2203
说明	-2204
相信	-2205
苏格兰	-2206
出席	-2207
南方	-2208
柏林	-2209
▁两	-2210
入口	-2211
知县	-2212
ex	-2213
▁2002	-2214
真正	-2215
1970	-2216
疾病	-2217
▁杨	-2218
神经	-2219
农村	-2220
装备	-2221
加利福	-2222
机的	-2223
江西	-2224
通车	-2225
改善	-2226
出道	-2227
年前	-2228
ity	-2229
乐队	-2230
经典	-2231
年龄	-2232
日报	-2233
▁除	-2234
张专辑	-2235
社会主义	-2236
局长	-2237
办理	-2238
强调	-2239
变得	-2240
74	-2241
损失	-2242
的外	-2243
夫人	-2244
队伍	-2245
食物	-2246
球季	-2247
部落	-2248
印尼	-2249
所有的	-2250
是香港	-2251
受伤	-2252
意识	-2253
布鲁	-2254
军区	-2255
劳动	-2256
旗下	-2257
请求	-2258
历任	-2259
并入	-2260
▁唐	-2261
▁正	-2262
▁清	-2263
明朝政治人物	-2264
当局	-2265
十五	-2266
死后	-2267
瓦尔	-2268
贵族	-2269
大区	-2270
go	-2271
地理	-2272
表明	-2273
大致	-2274
代理	-2275
延伸	-2276
玛丽	-2277
以色列	-2278
修改	-2279
达成	-2280
举行的	-2281
涉及	-2282
象征	-2283
摄影	-2284
▁对于	-2285
了解	-2286
部的	-2287
比例	-2288
并将	-2289
而该	-2290
镇下辖以下地区	-2291
最多	-2292
驱逐	-2293
截至	-2294
▁白	-2295
终于	-2296
被迫	-2297
||	-2298
比赛中	-2299
县的一个	-2300
地图	-2301
uc	-2302
出战	-2303
扮演	-2304
新疆	-2305
▁下	-2306
不仅	-2307
秘密	-2308
种族	-2309
的三	-2310
领土	-2311
声明	-2312
哥伦	-2313
保罗	-2314
奖项	-2315
ich	-2316
73	-2317
同盟	-2318
错误	-2319
占领	-2320
94	-2321
试验	-2322
▁x	-2323
形象	-2324
1996	-2325
就会	-2326
少女	-2327
电话	-2328
大厦	-2329
改造	-2330
▁如	-2331
责任	-2332
lay	-2333
办事	-2334
法案	-2335
年初	-2336
ong	-2337
加州	-2338
火箭	-2339
▁随后	-2340
83	-2341
符合	-2342
科学院	-2343
执导	-2344
的时间	-2345
1000	-2346
1994	-2347
ry	-2348
93	-2349
的故事	-2350
名义	-2351
带来	-2352
相比	-2353
空中	-2354
康熙	-2355
一家	-2356
君主	-2357
带领	-2358
起义	-2359
系统的	-2360
ib	-2361
亨利	-2362
爆炸	-2363
并以	-2364
加强	-2365
确认	-2366
运作	-2367
岛屿	-2368
▁分布于	-2369
扩大	-2370
天体	-2371
突然	-2372
在日本	-2373
以外	-2374
打击	-2375
抗议	-2376
战略	-2377
华盛	-2378
提到	-2379
84	-2380
指导	-2381
间的	-2382
那里	-2383
鱼类	-2384
pe	-2385
剧情	-2386
大多	-2387
组成的	-2388
示威	-2389
海外	-2390
篮球	-2391
计算机	-2392
▁2001	-2393
ps	-2394
颜色	-2395
一座	-2396
山西	-2397
海洋	-2398
创建	-2399
华盛顿	-2400
司法	-2401
习性	-2402
政府的	-2403
82	-2404
▁维	-2405
化石	-2406
海峡	-2407
可能会	-2408
兼任	-2409
投降	-2410
在于	-2411
国家的	-2412
火山	-2413
作出	-2414
▁嘉	-2415
后者	-2416
的情况下	-2417
差异	-2418
是德国	-2419
签署	-2420
的工作	-2421
1995	-2422
展示	-2423
源自	-2424
丹麦	-2425
事故	-2426
空气	-2427
▁la	-2428
建制	-2429
布拉	-2430
杀死	-2431
犯罪	-2432
马尔	-2433
这次	-2434
萨斯	-2435
对外	-2436
得知	-2437
家的	-2438
so	-2439
▁for	-2440
大学的	-2441
地面	-2442
真实	-2443
证据	-2444
西南部	-2445
位于中国	-2446
选为	-2447
南极洲	-2448
天皇	-2449
对抗	-2450
81	-2451
ff	-2452
次年	-2453
亲王	-2454
ate	-2455
阶级	-2456
恐怖	-2457
时期的	-2458
声音	-2459
称作	-2460
价格	-2461
世界上	-2462
此时	-2463
政协	-2464
是因为	-2465
会员	-2466
600	-2467
tv	-2468
固定	-2469
艺人	-2470
毕业后	-2471
丰富	-2472
ast	-2473
围绕	-2474
▁20	-2475
食品	-2476
在大	-2477
▁若	-2478
ug	-2479
步兵	-2480
史上	-2481
促进	-2482
麦克	-2483
的两	-2484
依然	-2485
也就是	-2486
退休	-2487
年夏季	-2488
东北部	-2489
明治	-2490
亿美元	-2491
栽培	-2492
声称	-2493
▁格	-2494
任职	-2495
黄金	-2496
西北部	-2497
在香港	-2498
一段	-2499
资金	-2500
众多	-2501
州的一个市镇	-2502
陆续	-2503
转的	-2504
▁其后	-2505
▁al	-2506
用作	-2507
荣誉	-2508
兴趣	-2509
当年	-2510
列入	-2511
而成	-2512
、、	-2513
票房	-2514
的设计	-2515
开设	-2516
退出	-2517
大桥	-2518
▁th	-2519
保存	-2520
转移	-2521
北方	-2522
骑士	-2523
山东省	-2524
也不	-2525
深度	-2526
cd	-2527
对应	-2528
毛泽	-2529
月初	-2530
▁最后	-2531
180	-2532
量的	-2533
周围	-2534
成本	-2535
缅甸	-2536
身为	-2537
往往	-2538
入选	-2539
ly	-2540
▁斯	-2541
end	-2542
国民政府	-2543
随即	-2544
文献	-2545
德尔	-2546
芬兰	-2547
马拉	-2548
八年	-2549
资产	-2550
附近的	-2551
莫斯科	-2552
青岛	-2553
山区	-2554
病毒	-2555
之战	-2556
年到	-2557
轰炸	-2558
式的	-2559
可以在	-2560
黑色	-2561
会长	-2562
军团	-2563
难以	-2564
▁每	-2565
亦是	-2566
认识	-2567
毛泽东	-2568
通道	-2569
生活习性	-2570
上市	-2571
合约	-2572
关闭	-2573
周年	-2574
▁pro	-2575
城区	-2576
书院	-2577
近年	-2578
下降	-2579
sc	-2580
合成	-2581
符号	-2582
论文	-2583
私人	-2584
依据	-2585
120	-2586
int	-2587
免费	-2588
今天	-2589
两次	-2590
种子	-2591
▁co	-2592
医生	-2593
队长	-2594
陕西	-2595
参考	-2596
药物	-2597
预计	-2598
▁元	-2599
上海市	-2600
mar	-2601
5,	-2602
走向	-2603
的事	-2604
ign	-2605
监督	-2606
释放	-2607
▁车站	-2608
十四	-2609
91	-2610
布尔	-2611
所谓	-2612
退役	-2613
相互	-2614
生活习性不明	-2615
▁现在	-2616
不到	-2617
那么	-2618
ho	-2619
编剧	-2620
的后	-2621
江苏省	-2622
注册	-2623
平原	-2624
整体	-2625
原名	-2626
挪威	-2627
be	-2628
贵州	-2629
开通	-2630
东南部	-2631
满足	-2632
的关系	-2633
设于	-2634
重大	-2635
通讯	-2636
朝廷	-2637
为中国	-2638
▁哈	-2639
意见	-2640
逮捕	-2641
转向	-2642
亚历山大	-2643
寻找	-2644
签订	-2645
1992	-2646
检查	-2647
▁15	-2648
强度	-2649
的中	-2650
情报	-2651
格为	-2652
特别是	-2653
转换	-2654
浙江省	-2655
▁吴	-2656
1991	-2657
码头	-2658
在其	-2659
cn	-2660
▁第二	-2661
800	-2662
最近	-2663
加拉	-2664
萨尔	-2665
妇女	-2666
ace	-2667
更为	-2668
与其	-2669
出演	-2670
州府	-2671
运用	-2672
发明	-2673
的城镇	-2674
学士	-2675
消费	-2676
农民	-2677
优秀	-2678
主要是	-2679
卡斯	-2680
在该	-2681
实验室	-2682
其实	-2683
接着	-2684
1993	-2685
尝试	-2686
候选人	-2687
以北	-2688
▁第一	-2689
▁古	-2690
上下	-2691
案件	-2692
率为	-2693
▁普	-2694
与其他	-2695
所属	-2696
例子	-2697
成了	-2698
▁周	-2699
三世	-2700
立即	-2701
生长于	-2702
▁多	-2703
领导人	-2704
佛罗	-2705
留下	-2706
第二次世界大战	-2707
上有	-2708
▁le	-2709
长江	-2710
伊朗	-2711
▁德	-2712
引入	-2713
场的	-2714
考试	-2715
进步	-2716
耶稣	-2717
:30	-2718
派遣	-2719
大西洋	-2720
克里	-2721
防御	-2722
行的	-2723
典礼	-2724
危机	-2725
杰克	-2726
配音	-2727
刺史	-2728
优势	-2729
气压	-2730
四川省	-2731
手机	-2732
法官	-2733
分别为	-2734
这样的	-2735
改名为	-2736
指定	-2737
▁苏	-2738
周期	-2739
御史	-2740
▁民国	-2741
哥伦比亚	-2742
则为	-2743
城堡	-2744
努力	-2745
产生的	-2746
复兴	-2747
国际机场	-2748
日治	-2749
家人	-2750
安德	-2751
成都	-2752
参选	-2753
排行	-2754
第八	-2755
党的	-2756
感染	-2757
▁1999	-2758
分配	-2759
困难	-2760
以为	-2761
ue	-2762
特拉	-2763
甘肃	-2764
自杀	-2765
主要的	-2766
冬季	-2767
方言	-2768
回归	-2769
大规模	-2770
月球	-2771
▁波	-2772
▁可	-2773
辽宁	-2774
下令	-2775
玻璃	-2776
解散	-2777
上午	-2778
石油	-2779
▁其他	-2780
ep	-2781
供应	-2782
给了	-2783
自身	-2784
ort	-2785
6,	-2786
▁汉	-2787
长官	-2788
将领	-2789
语的	-2790
十九	-2791
小型	-2792
分布在	-2793
展览	-2794
▁1949	-2795
对此	-2796
而不	-2797
保守	-2798
升级	-2799
奥林匹克运动会	-2800
吉林	-2801
▁一般	-2802
坚持	-2803
1900	-2804
最为	-2805
西兰	-2806
巡回	-2807
一致	-2808
告诉	-2809
组建	-2810
▁hd	-2811
同性	-2812
回应	-2813
意为	-2814
cl	-2815
数的	-2816
▁艾	-2817
国军	-2818
的电影	-2819
已被	-2820
交换	-2821
内战	-2822
1960	-2823
大师	-2824
生态	-2825
特色	-2826
亲自	-2827
义大利	-2828
enter	-2829
讲述	-2830
▁到	-2831
举人	-2832
windows	-2833
穆斯	-2834
ect	-2835
号的	-2836
▁作为	-2837
带有	-2838
办事处	-2839
ke	-2840
工程师	-2841
▁ar	-2842
保险	-2843
柴油	-2844
剧院	-2845
利益	-2846
扩展	-2847
尼西亚	-2848
分裂	-2849
出版社	-2850
斯顿	-2851
资本	-2852
丈夫	-2853
分别是	-2854
化合物	-2855
以南	-2856
上阵	-2857
呈现	-2858
德华	-2859
per	-2860
适合	-2861
▁埃	-2862
是南极洲	-2863
▁1998	-2864
房屋	-2865
西安	-2866
年美国人口普查	-2867
法的	-2868
推广	-2869
这里	-2870
基金会	-2871
ix	-2872
原住	-2873
厘米	-2874
her	-2875
公爵	-2876
佔领	-2877
各个	-2878
俄国	-2879
编码	-2880
已有	-2881
情况下	-2882
平面	-2883
大众	-2884
达尔	-2885
剧本	-2886
的女	-2887
bc	-2888
1989	-2889
证实	-2890
ont	-2891
加利福尼亚州	-2892
公元前	-2893
克拉	-2894
弟弟	-2895
二人	-2896
洛杉	-2897
克莱	-2898
海道	-2899
尼克	-2900
▁com	-2901
ft	-2902
助理	-2903
▁游戏	-2904
关键	-2905
阻止	-2906
更新	-2907
殖民地	-2908
军官	-2909
接替	-2910
设定	-2911
在一	-2912
方便	-2913
地质	-2914
记忆	-2915
类的	-2916
本土	-2917
百万	-2918
副主任	-2919
洛杉矶	-2920
陨石	-2921
son	-2922
▁永	-2923
点的	-2924
▁光绪	-2925
升为	-2926
me	-2927
被视为	-2928
副主席	-2929
绿色	-2930
措施	-2931
奥运会	-2932
员工	-2933
喜剧	-2934
文明	-2935
▁朱	-2936
ord	-2937
任命为	-2938
ga	-2939
大幅	-2940
学的	-2941
中国的	-2942
we	-2943
演奏	-2944
制定	-2945
传媒	-2946
派出	-2947
▁1990	-2948
各自	-2949
特定	-2950
上述	-2951
婚姻	-2952
接收	-2953
一切	-2954
旅行	-2955
管理局	-2956
步枪	-2957
离子	-2958
家中	-2959
五月	-2960
性能	-2961
罗马尼亚	-2962
分离	-2963
令人	-2964
互相	-2965
打算	-2966
ure	-2967
属的植物	-2968
公安	-2969
蒙特	-2970
▁最终	-2971
是一座	-2972
原始	-2973
遗产	-2974
留在	-2975
ire	-2976
的话	-2977
引种	-2978
增强	-2979
邻近	-2980
科学家	-2981
常见的	-2982
研发	-2983
修建	-2984
集合	-2985
座标为	-2986
修正	-2987
▁亚	-2988
col	-2989
态度	-2990
突破	-2991
的音乐	-2992
德拉	-2993
星系	-2994
中期	-2995
的成员	-2996
改制	-2997
等级	-2998
此后	-2999
一级	-3000
洛克	-3001
只要	-3002
董事长	-3003
西班牙语	-3004
波斯	-3005
内蒙古	-3006
录音	-3007
偶像	-3008
延长	-3009
明确	-3010
靠近	-3011
校园	-3012
▁is	-3013
淘汰	-3014
桃园	-3015
▁米	-3016
器的	-3017
生成	-3018
建筑物	-3019
用途	-3020
原则	-3021
现实	-3022
▁1997	-3023
而非	-3024
级联赛	-3025
利斯	-3026
主办	-3027
我的	-3028
各国	-3029
大小	-3030
暴力	-3031
由人工	-3032
特里	-3033
立方	-3034
建立了	-3035
1945	-3036
登上	-3037
环形	-3038
转的小行星	-3039
他是	-3040
成长	-3041
危险	-3042
隶属	-3043
的水	-3044
爵士	-3045
得到了	-3046
校区	-3047
波罗	-3048
发动机	-3049
大赛	-3050
年和	-3051
谈判	-3052
市中心	-3053
最低	-3054
具体	-3055
7,	-3056
引种栽培	-3057
是为	-3058
服役	-3059
本地	-3060
中被	-3061
文艺	-3062
穆斯林	-3063
接任	-3064
输入	-3065
金牌	-3066
德的	-3067
镇区	-3068
由人工引种栽培	-3069
▁弗	-3070
大坂	-3071
成立的	-3072
含有	-3073
生存	-3074
很大	-3075
会有	-3076
日期	-3077
▁一些	-3078
形态	-3079
老师	-3080
之为	-3081
ust	-3082
纳粹	-3083
相关的	-3084
▁这是	-3085
软体	-3086
射击	-3087
直径	-3088
质疑	-3089
,197	-3090
站台	-3091
卡拉	-3092
均为	-3093
是一部	-3094
▁而在	-3095
nba	-3096
叙利亚	-3097
培养	-3098
得名	-3099
天文台	-3100
武帝	-3101
尤其是	-3102
可见	-3103
的儿子	-3104
杭州	-3105
市政府	-3106
港口	-3107
ha	-3108
循环	-3109
▁col	-3110
▁不	-3111
▁y	-3112
曾于	-3113
古典	-3114
条例	-3115
对方	-3116
提供了	-3117
▁万	-3118
国家队	-3119
1988	-3120
的方法	-3121
王子	-3122
进士出身	-3123
是台湾	-3124
龙江	-3125
战士	-3126
骑兵	-3127
1950	-3128
销量	-3129
巴尔	-3130
直隶	-3131
的支持	-3132
废除	-3133
维护	-3134
舞蹈	-3135
早年	-3136
称呼	-3137
撞击	-3138
指示	-3139
ess	-3140
争取	-3141
天然	-3142
边境	-3143
秘书长	-3144
足球运动员	-3145
月的	-3146
活跃	-3147
日于	-3148
包围	-3149
位于该省	-3150
ore	-3151
杀害	-3152
南非	-3153
▁这一	-3154
科夫	-3155
根廷	-3156
商品	-3157
地带	-3158
十二年	-3159
分支	-3160
开展	-3161
启动	-3162
五个	-3163
理想	-3164
意志	-3165
州刺史	-3166
监察	-3167
游泳	-3168
辐射	-3169
他被	-3170
度的	-3171
另一方面	-3172
他与	-3173
频率	-3174
▁一个	-3175
而不是	-3176
意思	-3177
完工	-3178
的一些	-3179
授权	-3180
ty	-3181
一词	-3182
出现了	-3183
受欢迎	-3184
▁石	-3185
支流	-3186
学科	-3187
神话	-3188
pa	-3189
今日	-3190
缩写	-3191
的同	-3192
货币	-3193
爱情	-3194
路口	-3195
奥尔	-3196
尼尔	-3197
效应	-3198
颁奖	-3199
长沙	-3200
▁1950	-3201
比利时	-3202
定居	-3203
▁宋	-3204
北美	-3205
hr	-3206
不敌	-3207
克罗	-3208
消失	-3209
两年	-3210
上升	-3211
net	-3212
保障	-3213
干部	-3214
辖区	-3215
反映	-3216
无论	-3217
形状	-3218
本人	-3219
首个	-3220
ight	-3221
在台湾	-3222
天下	-3223
天堂	-3224
游行	-3225
首播	-3226
冰川	-3227
里达	-3228
克尔	-3229
昭和	-3230
是俄罗斯	-3231
档案	-3232
长达	-3233
亚军	-3234
导弹	-3235
并由	-3236
人民代表大会	-3237
克里斯	-3238
詹姆斯	-3239
的第二	-3240
▁中华人民共和国	-3241
宁波	-3242
吉尔	-3243
主持人	-3244
位于该国西部	-3245
高达	-3246
采访	-3247
风险	-3248
则在	-3249
160	-3250
跟随	-3251
十七	-3252
理解	-3253
目前尚未	-3254
▁1980	-3255
▁四	-3256
ass	-3257
紧急	-3258
患者	-3259
雷斯	-3260
▁be	-3261
阳市	-3262
派的	-3263
抵抗	-3264
电气	-3265
生长于海拔	-3266
并与	-3267
食用	-3268
出售	-3269
人民币	-3270
理工	-3271
撰写	-3272
米的地区	-3273
拆除	-3274
正确	-3275
铁路车站	-3276
教宗	-3277
会上	-3278
以上的	-3279
一职	-3280
吸收	-3281
副书记	-3282
都在	-3283
日正式	-3284
▁沙	-3285
停车	-3286
现今	-3287
山县	-3288
多人	-3289
机制	-3290
相同的	-3291
▁/	-3292
即位	-3293
两国	-3294
▁萨	-3295
列出	-3296
剧场	-3297
执政	-3298
"。	-3299
克的	-3300
来越	-3301
▁不久	-3302
签约	-3303
ond	-3304
明星	-3305
▁14	-3306
▁1996	-3307
方程	-3308
法语	-3309
方面的	-3310
在一起	-3311
的长	-3312
两位	-3313
lin	-3314
摇滚	-3315
jr	-3316
意外	-3317
防止	-3318
视频	-3319
陆地	-3320
ens	-3321
布莱	-3322
持有	-3323
1949	-3324
推进	-3325
无人	-3326
的情	-3327
收视	-3328
决议	-3329
700	-3330
手段	-3331
职位	-3332
▁截至	-3333
怀疑	-3334
写作	-3335
收藏	-3336
总裁	-3337
部电影	-3338
为其	-3339
tr	-3340
苹果	-3341
审查	-3342
越来越	-3343
iz	-3344
每天	-3345
大夫	-3346
目前尚未由人工引种栽培	-3347
乡下辖以下地区	-3348
马里	-3349
常务	-3350
两者	-3351
ux	-3352
河南省	-3353
斯拉夫	-3354
_1	-3355
mo	-3356
能源	-3357
身分	-3358
必要	-3359
代表团	-3360
les	-3361
出发	-3362
鼓励	-3363
日后	-3364
站的	-3365
监狱	-3366
多利亚	-3367
足球队	-3368
检察	-3369
德军	-3370
是个	-3371
场比赛	-3372
颁发	-3373
经由	-3374
加入了	-3375
商场	-3376
是意大利	-3377
▁sp	-3378
货运	-3379
层水域	-3380
联合会	-3381
▁1945	-3382
设计的	-3383
▁相	-3384
汉族	-3385
对其	-3386
是西班牙	-3387
书籍	-3388
牵引	-3389
装饰	-3390
博士学位	-3391
两名	-3392
公交	-3393
沿海	-3394
规范	-3395
货物	-3396
保证	-3397
未知	-3398
模拟	-3399
▁许多	-3400
其中包括	-3401
足球俱乐部	-3402
探险	-3403
重视	-3404
敌人	-3405
股份有限公司	-3406
剧集	-3407
原住民	-3408
首相	-3409
05	-3410
dv	-3411
to	-3412
马斯	-3413
陷入	-3414
升任	-3415
下了	-3416
足够	-3417
代的	-3418
黄色	-3419
▁位于	-3420
,195	-3421
另有	-3422
现任	-3423
诗人	-3424
觉得	-3425
ith	-3426
传教	-3427
电车	-3428
宣称	-3429
其中一	-3430
司令部	-3431
法庭	-3432
的名字	-3433
人权	-3434
考古	-3435
▁水	-3436
障碍	-3437
联络	-3438
mm	-3439
阿根廷	-3440
▁1994	-3441
内地	-3442
收集	-3443
1985	-3444
是位于美国	-3445
主力	-3446
主义者	-3447
平衡	-3448
竞选	-3449
唐朝	-3450
圆形	-3451
性别	-3452
已于	-3453
量子	-3454
黑龙江	-3455
会被	-3456
意味	-3457
1987	-3458
为人	-3459
西斯	-3460
而该地的	-3461
顺利	-3462
到的	-3463
两侧	-3464
警告	-3465
常委	-3466
的原因	-3467
成就	-3468
act	-3469
▁1993	-3470
单元	-3471
期的	-3472
相当于	-3473
影像	-3474
▁贝	-3475
犹太人	-3476
▁1995	-3477
卫视	-3478
报纸	-3479
美国的	-3480
,2010	-3481
中式	-3482
hant	-3483
推荐	-3484
事实上	-3485
1986	-3486
边缘	-3487
加尔	-3488
脂鲤	-3489
主场	-3490
联网	-3491
此外	-3492
新竹	-3493
▁莫	-3494
▁年	-3495
古老	-3496
大选	-3497
部部长	-3498
圣经	-3499
天后	-3500
9,	-3501
常常	-3502
同时也	-3503
战队	-3504
本科	-3505
出场	-3506
称号	-3507
苏丹	-3508
倾向	-3509
热带风暴	-3510
连任	-3511
路段	-3512
爱德华	-3513
有许多	-3514
年时的人口为人	-3515
省的	-3516
大量的	-3517
无线电视	-3518
sm	-3519
仅有	-3520
以东	-3521
城的	-3522
英里	-3523
蓝色	-3524
欧盟	-3525
开幕	-3526
第九	-3527
▁1992	-3528
将在	-3529
通信	-3530
发生在	-3531
五十	-3532
形容	-3533
1984	-3534
环形山	-3535
▁成	-3536
审判	-3537
约有	-3538
变为	-3539
制作的	-3540
举办的	-3541
严格	-3542
港元	-3543
做为	-3544
ck	-3545
日开始	-3546
协调	-3547
使用者	-3548
发行的	-3549
警报	-3550
▁0	-3551
▁乌	-3552
独立的	-3553
辞职	-3554
公斤	-3555
汉语	-3556
附属	-3557
中最	-3558
▁un	-3559
沃尔	-3560
画家	-3561
党员	-3562
金山	-3563
两岸	-3564
但由于	-3565
改称	-3566
正面	-3567
当地的	-3568
巨大	-3569
▁i	-3570
下一	-3571
通用	-3572
罗德	-3573
坐标为	-3574
波尔	-3575
▁赵	-3576
行政院	-3577
改进	-3578
▁郑	-3579
节度	-3580
主义的	-3581
过的	-3582
ies	-3583
财产	-3584
当天	-3585
东京都	-3586
有机	-3587
餐厅	-3588
南美洲	-3589
升格为	-3590
种植	-3591
修复	-3592
商人	-3593
书中	-3594
维斯	-3595
▁胡	-3596
效力于	-3597
输出	-3598
并无	-3599
委员会委员	-3600
支付	-3601
逻辑	-3602
▁红	-3603
▁塔	-3604
的部分	-3605
艺术家	-3606
国道	-3607
热带气旋	-3608
的总	-3609
群众	-3610
馀人	-3611
经济学	-3612
之处	-3613
民进	-3614
评估	-3615
的角色	-3616
发言	-3617
发挥	-3618
打破	-3619
侍郎	-3620
架构	-3621
假设	-3622
重量	-3623
位的	-3624
本站	-3625
上帝	-3626
研究院	-3627
传统的	-3628
以西	-3629
封为	-3630
落成	-3631
客户	-3632
游客	-3633
ame	-3634
英军	-3635
8,	-3636
歌词	-3637
更多的	-3638
享年	-3639
上了	-3640
▁黑	-3641
充满	-3642
积分	-3643
中国国民党	-3644
▁最	-3645
的一条	-3646
时报	-3647
她在	-3648
满洲	-3649
特兰	-3650
的基础	-3651
格拉	-3652
]]	-3653
▁山	-3654
▁13	-3655
▁梅	-3656
放在	-3657
的形式	-3658
▁史	-3659
区议会	-3660
但他	-3661
气体	-3662
行业	-3663
暂时	-3664
的位置	-3665
▁五	-3666
提及	-3667
ick	-3668
省道	-3669
110	-3670
区内	-3671
演化	-3672
250	-3673
还在	-3674
回忆	-3675
沿岸	-3676
▁z	-3677
▁帕	-3678
▁u	-3679
美国人	-3680
违反	-3681
都被	-3682
首席	-3683
证券	-3684
使用了	-3685
福建省	-3686
成立了	-3687
ment	-3688
[[	-3689
从此	-3690
未有	-3691
河北省	-3692
场所	-3693
理由	-3694
粒子	-3695
三人	-3696
地在	-3697
港铁	-3698
污染	-3699
路易斯	-3700
,196	-3701
感觉	-3702
魔法	-3703
,3	-3704
咖啡	-3705
角度	-3706
确保	-3707
辅助	-3708
西侧	-3709
商店	-3710
不要	-3711
江南	-3712
战斗机	-3713
阳县	-3714
邮政	-3715
本线	-3716
教育部	-3717
安东	-3718
时段	-3719
岛上	-3720
晋级	-3721
连载	-3722
低气压	-3723
引进	-3724
改建	-3725
日本的	-3726
凌晨	-3727
带着	-3728
十一年	-3729
做出	-3730
第一位	-3731
所在地	-3732
数位	-3733
研究生	-3734
燃料	-3735
天气	-3736
她们	-3737
庆祝	-3738
pro	-3739
控股	-3740
▁英国	-3741
策略	-3742
首位	-3743
▁1991	-3744
区间	-3745
立场	-3746
近代	-3747
通知	-3748
创始	-3749
汉字	-3750
症状	-3751
官至	-3752
了许多	-3753
日下午	-3754
想要	-3755
ah	-3756
江户	-3757
时代的	-3758
中将	-3759
斗争	-3760
女王	-3761
也没有	-3762
指控	-3763
道光	-3764
前后	-3765
收费	-3766
人为	-3767
会议员	-3768
▁加	-3769
▁sh	-3770
加哥	-3771
称之为	-3772
年获	-3773
院士	-3774
龙的	-3775
通往	-3776
▁经过	-3777
序列	-3778
扩张	-3779
太后	-3780
芝加哥	-3781
战车	-3782
式月台	-3783
作业	-3784
佛罗里达	-3785
总会	-3786
▁比	-3787
合法	-3788
大街	-3789
早上	-3790
足协	-3791
十月	-3792
ark	-3793
06	-3794
以此	-3795
01	-3796
的政治	-3797
▁文	-3798
使其	-3799
登场	-3800
领地	-3801
每日	-3802
脱离	-3803
现在的	-3804
ina	-3805
名进士	-3806
大卫	-3807
京都	-3808
起初	-3809
观光	-3810
▁福	-3811
图像	-3812
》、	-3813
是从	-3814
摧毁	-3815
hel	-3816
陨石坑	-3817
闻名	-3818
物种的	-3819
登记	-3820
▁直到	-3821
红军	-3822
言论	-3823
格勒	-3824
回国	-3825
线上	-3826
东亚	-3827
▁华	-3828
格尔	-3829
很少	-3830
处的	-3831
▁1988	-3832
手术	-3833
一场	-3834
在内的	-3835
利的	-3836
基斯坦	-3837
dr	-3838
▁阿尔	-3839
克林	-3840
则有	-3841
ide	-3842
原来	-3843
手枪	-3844
诺夫	-3845
工会	-3846
级别	-3847
终点	-3848
途中	-3849
星的	-3850
南海	-3851
一系列	-3852
多项	-3853
单独	-3854
印刷	-3855
预算	-3856
区别	-3857
大家	-3858
中正	-3859
分成	-3860
主权	-3861
ial	-3862
▁an	-3863
末期	-3864
米亚	-3865
原先	-3866
的日	-3867
培训	-3868
巨大的	-3869
,5	-3870
1982	-3871
km	-3872
整合	-3873
遭遇	-3874
▁特	-3875
已知	-3876
详细	-3877
成立后	-3878
查理	-3879
东南亚	-3880
维多利亚	-3881
似乎	-3882
面临	-3883
层的	-3884
流传	-3885
死于	-3886
该国	-3887
第十一	-3888
四十	-3889
约瑟	-3890
体育场	-3891
民进党	-3892
他为	-3893
湖泊	-3894
州负责管辖	-3895
即将	-3896
pl	-3897
样的	-3898
河的	-3899
▁到了	-3900
撤退	-3901
先进	-3902
年与	-3903
身上	-3904
东侧	-3905
构造	-3906
车厢	-3907
月起	-3908
切尔	-3909
电动	-3910
在北京	-3911
界的	-3912
yle	-3913
创新	-3914
米至	-3915
会试	-3916
直播	-3917
卡罗	-3918
战场	-3919
制作人	-3920
次于	-3921
认证	-3922
并被	-3923
play	-3924
巡洋	-3925
秘鲁	-3926
内有	-3927
最高的	-3928
子女	-3929
援助	-3930
最早的	-3931
ory	-3932
▁此时	-3933
岛的	-3934
湖南省	-3935
是不	-3936
冒险	-3937
加以	-3938
市政	-3939
费用	-3940
车队	-3941
09	-3942
ung	-3943
▁bo	-3944
复盖	-3945
多尔	-3946
就在	-3947
屠杀	-3948
布朗	-3949
▁面积	-3950
为台湾	-3951
1983	-3952
的不	-3953
棒球	-3954
三国	-3955
主动	-3956
互联网	-3957
的数据	-3958
城县	-3959
替代	-3960
现时由	-3961
海上	-3962
▁孙	-3963
交汇	-3964
唯一的	-3965
河道	-3966
▁于是	-3967
镜头	-3968
海拔高度为	-3969
▁1989	-3970
任教	-3971
铁路局	-3972
预测	-3973
选出	-3974
清朝政治人物	-3975
来自于	-3976
愿意	-3977
▁博	-3978
首歌	-3979
驱动	-3980
聚集	-3981
行驶	-3982
▁yo	-3983
短暂	-3984
▁卢	-3985
扩建	-3986
▁龙	-3987
探测	-3988
钢琴	-3989
单一	-3990
代替	-3991
道德	-3992
▁瓦	-3993
的反	-3994
目的是	-3995
习惯	-3996
制片	-3997
部尚书	-3998
场景	-3999
阿里	-4000
信徒	-4001
塔尔	-4002
改名	-4003
ogle	-4004
,2011	-4005
任期	-4006
▁平	-4007
▁on	-4008
130	-4009
后被	-4010
根本	-4011
病逝	-4012
ier	-4013
伊斯兰教	-4014
海南	-4015
sk	-4016
的神	-4017
席位	-4018
网球	-4019
相应	-4020
1979	-4021
山西省	-4022
值得	-4023
月底	-4024
竞赛	-4025
室内	-4026
早在	-4027
转会	-4028
游击	-4029
奴隶	-4030
▁|	-4031
交给	-4032
赞助	-4033
大革命	-4034
融合	-4035
体制	-4036
发音	-4037
美丽	-4038
借由	-4039
的最	-4040
南极条约	-4041
呼吁	-4042
琉球	-4043
翌年	-4044
的结果	-4045
cr	-4046
致力	-4047
平均海拔高度为	-4048
战术	-4049
▁ex	-4050
三种	-4051
公里的	-4052
特勒	-4053
开办	-4054
自我	-4055
节度使	-4056
掌握	-4057
而该地的平均海拔高度为	-4058
用以	-4059
嘉义	-4060
▁县	-4061
成熟	-4062
依照	-4063
资助	-4064
都督	-4065
,2	-4066
寻求	-4067
沈阳	-4068
征服	-4069
ev	-4070
ca	-4071
超越	-4072
画面	-4073
07	-4074
▁所以	-4075
以便	-4076
处长	-4077
福德	-4078
迁至	-4079
镇压	-4080
住在	-4081
航班	-4082
建筑师	-4083
判决	-4084
干线	-4085
收到	-4086
奥斯卡	-4087
更是	-4088
巡洋舰	-4089
组织的	-4090
南极条约体系	-4091
ms	-4092
配置	-4093
▁在此	-4094
的城市	-4095
巴拉	-4096
特区	-4097
彻底	-4098
月在	-4099
,,	-4100
▁1985	-4101
布里	-4102
斯卡	-4103
是为了	-4104
尔顿	-4105
gro	-4106
08	-4107
西里	-4108
是印度	-4109
的绝对	-4110
俗称	-4111
学系	-4112
日由	-4113
众议院	-4114
抗日战争	-4115
办法	-4116
也可	-4117
船只	-4118
公开赛	-4119
南极条约体系管理	-4120
型号	-4121
莱茵	-4122
mv	-4123
卫队	-4124
来往	-4125
叛乱	-4126
配备	-4127
停靠	-4128
▁建	-4129
公顷	-4130
公会	-4131
ary	-4132
加利亚	-4133
排列	-4134
捷运	-4135
意味着	-4136
设计师	-4137
视星等为	-4138
▁法	-4139
为大	-4140
地产	-4141
定期	-4142
遭受	-4143
eng	-4144
提议	-4145
算法	-4146
担心	-4147
二级	-4148
在中	-4149
士顿	-4150
伊拉克	-4151
北海道	-4152
,4	-4153
▁谢	-4154
的地区	-4155
女主角	-4156
区和	-4157
准决赛	-4158
提出了	-4159
线性	-4160
,1	-4161
「」	-4162
出来的	-4163
占地	-4164
的山峰	-4165
攻打	-4166
自称	-4167
▁韦	-4168
商务	-4169
可前往	-4170
也曾	-4171
▁主	-4172
族群	-4173
矛盾	-4174
日上午	-4175
span	-4176
岩石	-4177
视觉	-4178
▁这颗	-4179
救援	-4180
的对	-4181
发现的	-4182
特尔	-4183
追溯	-4184
为新	-4185
透露	-4186
分之一	-4187
委任	-4188
进行的	-4189
潜艇	-4190
由此	-4191
居民点	-4192
现时由南极条约体系管理	-4193
而来	-4194
ohn	-4195
四大	-4196
济南	-4197
适应	-4198
领事	-4199
场地	-4200
bd	-4201
▁他是	-4202
1946	-4203
非法	-4204
指数	-4205
粤语	-4206
赤纬	-4207
清华	-4208
分区	-4209
年以	-4210
任中共	-4211
三大	-4212
为基础	-4213
许可	-4214
的父亲	-4215
青少年	-4216
吉他	-4217
影视	-4218
种类	-4219
望远	-4220
永久	-4221
年世界	-4222
▁1986	-4223
gr	-4224
总站	-4225
交界	-4226
ton	-4227
ube	-4228
▁ne	-4229
写的	-4230
企图	-4231
遇到	-4232
几何	-4233
军人	-4234
色彩	-4235
赤经	-4236
米兰	-4237
land	-4238
▁雷	-4239
▁徐	-4240
修道	-4241
周刊	-4242
保加利亚	-4243
2020	-4244
叫做	-4245
夫妇	-4246
天的	-4247
参谋长	-4248
口径	-4249
入球	-4250
合唱	-4251
工艺	-4252
▁乾隆	-4253
实力	-4254
微软	-4255
巴基斯坦	-4256
ach	-4257
延续	-4258
绘画	-4259
斯托	-4260
士尼	-4261
电力机车	-4262
▁武	-4263
像是	-4264
智慧	-4265
▁总	-4266
清楚	-4267
边的	-4268
共计	-4269
理查	-4270
1978	-4271
这项	-4272
弗里	-4273
一百	-4274
战国	-4275
che	-4276
彰化	-4277
now	-4278
三甲	-4279
春秋	-4280
主管	-4281
年他	-4282
航天	-4283
较大	-4284
定理	-4285
的内容	-4286
日语	-4287
矩阵	-4288
迪士尼	-4289
are	-4290
消防	-4291
全世界	-4292
长子	-4293
委副书记	-4294
保安	-4295
翰林	-4296
食性	-4297
新界	-4298
被捕	-4299
pr	-4300
人称	-4301
坐落	-4302
▁现时	-4303
道的	-4304
ai	-4305
▁并	-4306
同性恋	-4307
地形	-4308
1981	-4309
的特有	-4310
将于	-4311
▁1984	-4312
旋转	-4313
的电	-4314
河流域	-4315
北平	-4316
赫尔	-4317
营业	-4318
演艺	-4319
全国人大	-4320
效率	-4321
相继	-4322
,2007	-4323
普鲁	-4324
青海	-4325
出现的	-4326
年任	-4327
指令	-4328
也因此	-4329
▁它们	-4330
塞尔维亚	-4331
劳工	-4332
▁莱	-4333
一人	-4334
摩尔	-4335
iss	-4336
的美国	-4337
ld	-4338
▁=	-4339
望远镜	-4340
录影	-4341
恐龙	-4342
04	-4343
成果	-4344
等的	-4345
伯爵	-4346
火车站	-4347
为每	-4348
更换	-4349
陕西省	-4350
认同	-4351
立法会	-4352
就有	-4353
斯洛	-4354
▁1982	-4355
双打	-4356
新建	-4357
多名	-4358
妹妹	-4359
成年	-4360
修订	-4361
行走	-4362
sao	-4363
登进士	-4364
▁1983	-4365
议题	-4366
no	-4367
推出的	-4368
日发行	-4369
名人	-4370
代码为	-4371
的座标为	-4372
参议院	-4373
逢星期	-4374
史密	-4375
等于	-4376
参与了	-4377
早期的	-4378
,8	-4379
台币	-4380
好评	-4381
说是	-4382
了他	-4383
哈尔滨	-4384
当代	-4385
二战	-4386
格式	-4387
总经理	-4388
的国际	-4389
协定	-4390
女演员	-4391
改制为	-4392
省负责管辖	-4393
图案	-4394
理念	-4395
国家公园	-4396
gc	-4397
逐步	-4398
分校	-4399
年中	-4400
联军	-4401
胜出	-4402
队员	-4403
张单曲	-4404
长安	-4405
集体	-4406
增加了	-4407
足球联赛	-4408
▁ra	-4409
山市	-4410
降雨	-4411
译为	-4412
位于银	-4413
指挥官	-4414
慈善	-4415
埔寨	-4416
下列	-4417
巴马	-4418
座堂	-4419
加速	-4420
区分	-4421
录制	-4422
认可	-4423
刺激	-4424
名词	-4425
希尔	-4426
让他	-4427
少将	-4428
的学生	-4429
▁皮	-4430
cod	-4431
世纪初	-4432
综艺	-4433
前进	-4434
巴斯	-4435
的概念	-4436
为此	-4437
bl	-4438
▁1946	-4439
完成了	-4440
版的	-4441
柬埔寨	-4442
于此	-4443
仍有	-4444
搜索	-4445
▁我	-4446
的生活	-4447
不详	-4448
罗伯特	-4449
马丁	-4450
泰勒	-4451
想法	-4452
施工	-4453
依赖	-4454
百姓	-4455
大气	-4456
物体	-4457
福利	-4458
激烈	-4459
的意思	-4460
其为	-4461
奥斯曼	-4462
具备	-4463
ork	-4464
出入口	-4465
相连	-4466
成分	-4467
男女	-4468
银纬	-4469
机动	-4470
北市	-4471
演讲	-4472
纳德	-4473
论坛	-4474
加入中国共产党	-4475
▁杜	-4476
的地位	-4477
下属	-4478
地上	-4479
工作室	-4480
造成的	-4481
▁1970	-4482
坐标为赤经	-4483
标本	-4484
纳入	-4485
位于银经	-4486
租界	-4487
产生了	-4488
就可以	-4489
无限	-4490
作曲家	-4491
▁八	-4492
▁索	-4493
为首	-4494
开始在	-4495
03	-4496
厦门	-4497
裁判	-4498
的所有	-4499
较低	-4500
▁1987	-4501
az	-4502
但因	-4503
ern	-4504
的中国	-4505
仍在	-4506
深入	-4507
科尔	-4508
▁当地	-4509
,6	-4510
▁双	-4511
阅读	-4512
死刑	-4513
私立	-4514
设在	-4515
力学	-4516
电视节目	-4517
ational	-4518
模特	-4519
慕尼	-4520
▁有些	-4521
向量	-4522
省级	-4523
的行为	-4524
的分	-4525
乌斯	-4526
不得不	-4527
议席	-4528
02	-4529
合同	-4530
成人	-4531
观看	-4532
包括了	-4533
▁吉	-4534
推行	-4535
蛋白质	-4536
专用	-4537
心脏	-4538
拉尔	-4539
▁曾祖	-4540
欧元	-4541
首度	-4542
▁电影	-4543
城墙	-4544
对称	-4545
歌唱	-4546
1920	-4547
家乡	-4548
国语	-4549
po	-4550
密切	-4551
混乱	-4552
化为	-4553
1948	-4554
在他	-4555
罗夫	-4556
航线	-4557
▁现任	-4558
的歌曲	-4559
罗马帝国	-4560
dvd	-4561
灭绝	-4562
太阳公	-4563
1975	-4564
洛斯	-4565
ile	-4566
洛夫	-4567
安徽省	-4568
▁塞	-4569
号为	-4570
次日	-4571
顺序	-4572
pc	-4573
仅次于	-4574
一部	-4575
任内	-4576
总监	-4577
航空公司	-4578
女孩	-4579
狮子	-4580
中书	-4581
低于	-4582
局的	-4583
任天堂	-4584
▁te	-4585
1930	-4586
他们在	-4587
▁con	-4588
▁这颗小行星	-4589
评为	-4590
,7	-4591
承诺	-4592
,2005	-4593
范围内	-4594
服装	-4595
生产的	-4596
高原	-4597
萨斯州	-4598
伤害	-4599
聚落	-4600
同时也是	-4601
重复	-4602
▁1960	-4603
两条	-4604
大公	-4605
平民	-4606
旧址	-4607
▁通常	-4608
my	-4609
尼奥	-4610
数为	-4611
战争中	-4612
之际	-4613
慕尼黑	-4614
驱逐舰	-4615
1947	-4616
1941	-4617
提出的	-4618
湖北省	-4619
物理学	-4620
福音	-4621
格里	-4622
题材	-4623
物品	-4624
王位	-4625
选秀	-4626
七月	-4627
从未	-4628
团结	-4629
喜爱	-4630
赛中	-4631
的名称	-4632
的绝对星等为	-4633
德斯	-4634
编组	-4635
交易所	-4636
十大	-4637
兵团	-4638
同学	-4639
志愿	-4640
▁这颗小行星的绝对星等为	-4641
精灵	-4642
世纪的	-4643
哥哥	-4644
进口	-4645
好友	-4646
奖金	-4647
纷纷	-4648
送到	-4649
1940	-4650
其中一个	-4651
描绘	-4652
类似的	-4653
,9	-4654
、2	-4655
发达	-4656
hy	-4657
消灭	-4658
衍生	-4659
都不	-4660
3000	-4661
沙田	-4662
流量	-4663
了他的	-4664
司职	-4665
子弹	-4666
排行榜	-4667
尼古	-4668
相邻	-4669
左翼	-4670
101	-4671
围绕太阳公	-4672
事务所	-4673
医学院	-4674
凤凰	-4675
推翻	-4676
维埃	-4677
里克	-4678
▁利	-4679
此同时	-4680
基隆	-4681
日常	-4682
格雷	-4683
的上	-4684
补充	-4685
{}	-4686
黑暗	-4687
au	-4688
军在	-4689
猪笼	-4690
最高点	-4691
建国	-4692
智能	-4693
及其他	-4694
发生了	-4695
是一颗围绕太阳公	-4696
▁无	-4697
▁被	-4698
▁1978	-4699
是一颗围绕太阳公转的小行星	-4700
在英国	-4701
▁sch	-4702
每周	-4703
维修	-4704
炸弹	-4705
共有人口	-4706
准确	-4707
前身	-4708
雷达	-4709
事后	-4710
捷克	-4711
▁通过	-4712
天府	-4713
猪笼草	-4714
北侧	-4715
ove	-4716
始于	-4717
行人	-4718
飞弹	-4719
▁he	-4720
赛的	-4721
此天体	-4722
所辖	-4723
检测	-4724
处理器	-4725
游戏的	-4726
istat	-4727
原为	-4728
曾被	-4729
格鲁	-4730
ock	-4731
是英国	-4732
▁开	-4733
太守	-4734
old	-4735
火车	-4736
▁库	-4737
向南	-4738
连结	-4739
人才	-4740
▁托	-4741
主导	-4742
物的	-4743
获胜	-4744
看见	-4745
▁父亲	-4746
洛阳	-4747
福州	-4748
取得了	-4749
批判	-4750
弗朗	-4751
数十	-4752
xt	-4753
age	-4754
即可	-4755
后于	-4756
练习	-4757
兵力	-4758
开工	-4759
引用	-4760
火星	-4761
强的	-4762
遗传	-4763
天文学家	-4764
▁中华民国	-4765
宣告	-4766
▁&	-4767
刑事	-4768
客车	-4769
届全国人民代表大会	-4770
外观	-4771
▁1937	-4772
主流	-4773
向北	-4774
粮食	-4775
网上	-4776
鸟类	-4777
第一届	-4778
职棒	-4779
孟加拉	-4780
方程式	-4781
安娜	-4782
纤维	-4783
途经	-4784
共产主义	-4785
环球	-4786
下载	-4787
现存	-4788
着有	-4789
中华人民共和国政治人物	-4790
乐器	-4791
▁me	-4792
位于该国北部	-4793
协商	-4794
▁内	-4795
争夺	-4796
外围	-4797
之地	-4798
屯门	-4799
始终	-4800
展现	-4801
形的	-4802
并不是	-4803
极为	-4804
这场	-4805
分解	-4806
工商	-4807
颁布	-4808
流动	-4809
萨拉	-4810
冲击	-4811
中原	-4812
传奇	-4813
use	-4814
生活在	-4815
圣母	-4816
弗雷	-4817
此之外	-4818
1972	-4819
采用了	-4820
台湾的	-4821
四月	-4822
电路	-4823
之后的	-4824
台中市	-4825
形成的	-4826
▁嘉靖	-4827
▁1979	-4828
气温	-4829
携带	-4830
四世	-4831
政变	-4832
彼此	-4833
注入	-4834
级的	-4835
非建制	-4836
天使	-4837
1976	-4838
探索	-4839
相反	-4840
发生的	-4841
公告	-4842
幻想	-4843
▁国际	-4844
奖最佳	-4845
法兰克	-4846
加工	-4847
ish	-4848
一部分	-4849
很大的	-4850
现有	-4851
苏州	-4852
诞生	-4853
ames	-4854
主打	-4855
强制	-4856
发展的	-4857
全体	-4858
▁最初	-4859
年香港	-4860
竞技	-4861
国旗	-4862
在新	-4863
加斯	-4864
打败	-4865
垂直	-4866
布雷	-4867
转为	-4868
的能力	-4869
初年	-4870
凭借	-4871
▁凯	-4872
互动	-4873
安县	-4874
该市	-4875
分之	-4876
▁日	-4877
▁叶	-4878
追求	-4879
ica	-4880
乔治亚	-4881
并且在	-4882
定位	-4883
次的	-4884
穿着	-4885
地中	-4886
形成了	-4887
有可能	-4888
严重的	-4889
元帅	-4890
南侧	-4891
拿下	-4892
留学	-4893
里面	-4894
cp	-4895
军委	-4896
涵盖	-4897
观音	-4898
运算	-4899
dna	-4900
东海	-4901
地亚	-4902
直升	-4903
后来的	-4904
同名	-4905
1958	-4906
伤亡	-4907
移居	-4908
ax	-4909
师范大学	-4910
反而	-4911
山的	-4912
肯定	-4913
布斯	-4914
开启	-4915
车道	-4916
▁第三	-4917
政务	-4918
经纪	-4919
太原	-4920
最多的	-4921
写道	-4922
纳斯	-4923
高架	-4924
印第	-4925
承担	-4926
在一个	-4927
特性	-4928
勒斯	-4929
有线	-4930
负责人	-4931
菲利	-4932
突出	-4933
包含了	-4934
大批	-4935
祖先	-4936
第十二	-4937
印象	-4938
夏威	-4939
数百	-4940
政治家	-4941
菩萨	-4942
传输	-4943
功率	-4944
▁洪	-4945
首尔	-4946
1944	-4947
是中华人民共和国	-4948
容纳	-4949
%;	-4950
拉德	-4951
则由	-4952
剧中	-4953
不变	-4954
赛车	-4955
▁霍	-4956
▁1958	-4957
立法委员	-4958
女神	-4959
读书	-4960
雅典	-4961
▁as	-4962
迷你	-4963
德意志	-4964
查尔斯	-4965
ime	-4966
1973	-4967
其他的	-4968
大字	-4969
出自	-4970
所需	-4971
出版的	-4972
之名	-4973
股东	-4974
ple	-4975
▁所有	-4976
back	-4977
的轨道	-4978
名举人	-4979
金刚	-4980
、3	-4981
做法	-4982
观赏	-4983
飞行员	-4984
珊瑚	-4985
的主题	-4986
li	-4987
标记	-4988
重返	-4989
中心的	-4990
继任	-4991
选举中	-4992
存在的	-4993
是一个位于	-4994
夺取	-4995
印第安	-4996
性格	-4997
防守	-4998
鲁斯	-4999
成功的	-5000
▁1948	-5001
_2	-5002
可在	-5003
该校	-5004
之上	-5005
园区	-5006
实践	-5007
抑制	-5008
为由	-5009
头衔	-5010
预备	-5011
讨伐	-5012
附加	-5013
非建制地区	-5014
巡抚	-5015
的女儿	-5016
标题	-5017
诉讼	-5018
但却	-5019
穿过	-5020
大连	-5021
筹备	-5022
年夏季奥林匹克运动会	-5023
描写	-5024
此事	-5025
迁移	-5026
部署	-5027
团长	-5028
仅仅	-5029
弟子	-5030
▁达	-5031
知府	-5032
爱国	-5033
体育馆	-5034
夏威夷	-5035
1974	-5036
维克	-5037
▁so	-5038
的成绩	-5039
勋章	-5040
局局长	-5041
google	-5042
任意	-5043
电池	-5044
祭祀	-5045
的世界	-5046
▁又	-5047
美国海军	-5048
」;	-5049
现为	-5050
该公司	-5051
压缩	-5052
当选为	-5053
伊利	-5054
年春	-5055
有两个	-5056
年毕业于	-5057
行政区划	-5058
回合	-5059
技巧	-5060
ite	-5061
县城	-5062
止于	-5063
公式	-5064
幕府	-5065
弹药	-5066
首歌曲	-5067
枢纽	-5068
高于	-5069
诺贝尔	-5070
品质	-5071
是对	-5072
沟通	-5073
fl	-5074
▁光	-5075
战胜	-5076
见于	-5077
年期间	-5078
的机会	-5079
当作	-5080
▁该市镇年时的人口为人	-5081
富汗	-5082
期刊	-5083
美尼亚	-5084
或称	-5085
▁但在	-5086
慕容	-5087
涉嫌	-5088
传递	-5089
出土	-5090
等职	-5091
da	-5092
昆明	-5093
运河	-5094
单打	-5095
年成立	-5096
抗战	-5097
渐渐	-5098
较高	-5099
回答	-5100
也纳	-5101
修道院	-5102
政治部	-5103
事情	-5104
英镑	-5105
居住在	-5106
宜兰	-5107
巴赫	-5108
天津市	-5109
产物	-5110
权的	-5111
神秘	-5112
突厥	-5113
领先	-5114
灭亡	-5115
经费	-5116
财务	-5117
▁牠们	-5118
滨海	-5119
入境	-5120
六月	-5121
房间	-5122
是最	-5123
添加	-5124
院校	-5125
cc	-5126
▁1981	-5127
和他的	-5128
上游	-5129
原理	-5130
▁at	-5131
守护	-5132
格林	-5133
加勒	-5134
时间为	-5135
尸体	-5136
性和	-5137
的说法	-5138
清代	-5139
队友	-5140
运动的	-5141
▁另一方面	-5142
医师	-5143
购物	-5144
领导的	-5145
皮肤	-5146
系列的	-5147
下半	-5148
纪录片	-5149
lat	-5150
九月	-5151
判断	-5152
外交部	-5153
开始了	-5154
示威者	-5155
都可以	-5156
▁何	-5157
剧团	-5158
品种	-5159
东区	-5160
是有	-5161
该地	-5162
饮食	-5163
▁id	-5164
管制	-5165
群体	-5166
小姐	-5167
拉多	-5168
不但	-5169
宣言	-5170
识别	-5171
第一次世界大战	-5172
迫使	-5173
约瑟夫	-5174
▁该物种的	-5175
印度尼西亚	-5176
乡村	-5177
接管	-5178
至于	-5179
法兰西	-5180
同步	-5181
职员	-5182
强大的	-5183
不知	-5184
公社	-5185
此次	-5186
的日本	-5187
葡萄牙语	-5188
一天	-5189
菲尔德	-5190
1942	-5191
参数	-5192
得分	-5193
,10	-5194
手中	-5195
读者	-5196
入围	-5197
年获得	-5198
在内	-5199
德克	-5200
感情	-5201
第一百	-5202
立方米	-5203
900	-5204
▁天主教	-5205
改良	-5206
类型的	-5207
反抗	-5208
▁1947	-5209
国有	-5210
之时	-5211
交响	-5212
六个	-5213
离婚	-5214
云南省	-5215
iel	-5216
station	-5217
pt	-5218
有两	-5219
本书	-5220
重的	-5221
动车	-5222
过于	-5223
认定	-5224
问题的	-5225
变换	-5226
叙述	-5227
1968	-5228
橄榄	-5229
▁style	-5230
以往	-5231
正义	-5232
覆盖	-5233
日被	-5234
1977	-5235
▁am	-5236
罕默	-5237
日举行	-5238
▁梁	-5239
农场	-5240
多为	-5241
没有任何	-5242
面向	-5243
▁se	-5244
副部长	-5245
司机	-5246
永远	-5247
它是	-5248
随机	-5249
古巴	-5250
机枪	-5251
南昌	-5252
曾是	-5253
环保	-5254
全线	-5255
变种	-5256
均有	-5257
流经	-5258
支线	-5259
制成	-5260
平等	-5261
及后	-5262
高雄市	-5263
清真	-5264
前来	-5265
地名	-5266
认为是	-5267
轨道交通	-5268
fo	-5269
ara	-5270
的代表	-5271
点是	-5272
集会	-5273
马克思	-5274
数目	-5275
这段	-5276
储存	-5277
月开始	-5278
三次	-5279
内亚	-5280
硕士学位	-5281
打开	-5282
宿舍	-5283
▁or	-5284
时刻	-5285
为一个	-5286
book	-5287
栖息在底	-5288
年于	-5289
穿越	-5290
粉丝	-5291
高校	-5292
和人口	-5293
赢得了	-5294
介石	-5295
▁顺	-5296
地域	-5297
的多	-5298
▁欧	-5299
受害	-5300
▁次年	-5301
的一位	-5302
致力于	-5303
数码	-5304
毗邻	-5305
风景	-5306
山脉的一部分	-5307
上诉	-5308
文化大革命	-5309
姓氏	-5310
曹操	-5311
基本上	-5312
的光	-5313
终止	-5314
本地区	-5315
又在	-5316
的有	-5317
一支	-5318
iii	-5319
季后	-5320
ground	-5321
较少	-5322
被杀	-5323
划归	-5324
大部份	-5325
异常	-5326
旗下的	-5327
北京大学	-5328
人民法院	-5329
教徒	-5330
发现了此天体	-5331
有了	-5332
为热带	-5333
指责	-5334
诗歌	-5335
受到了	-5336
开发的	-5337
上面	-5338
盟军	-5339
本来	-5340
他人	-5341
荣获	-5342
,2006	-5343
名誉	-5344
研制	-5345
轰炸机	-5346
共和党	-5347
情绪	-5348
男孩	-5349
繁殖	-5350
识字	-5351
原创	-5352
容量	-5353
虚拟	-5354
大奖赛	-5355
总教区	-5356
hd	-5357
长春	-5358
年以来	-5359
1971	-5360
头部	-5361
流浪	-5362
雍正	-5363
佛罗里达州	-5364
灵魂	-5365
金曲	-5366
蒋介石	-5367
1966	-5368
海水	-5369
网友	-5370
集的	-5371
重组	-5372
穆罕默	-5373
简单的	-5374
▁学校	-5375
,2012	-5376
川县	-5377
考察	-5378
▁至于	-5379
工作的	-5380
ve	-5381
本名	-5382
du	-5383
县长	-5384
殿试	-5385
阿富汗	-5386
其顿	-5387
旨在	-5388
21、	-5389
即是	-5390
了一些	-5391
▁1955	-5392
▁1920	-5393
发掘	-5394
广州市	-5395
提交	-5396
原有	-5397
ml	-5398
等待	-5399
解除	-5400
业馀	-5401
公务	-5402
参观	-5403
社团	-5404
▁法国	-5405
受损	-5406
起源	-5407
▁郭	-5408
河口	-5409
模式产	-5410
获奖	-5411
ley	-5412
的圣	-5413
的大型	-5414
沿用	-5415
的开	-5416
,"	-5417
向东	-5418
牧师	-5419
▁另	-5420
月中	-5421
可以通过	-5422
大队	-5423
百科	-5424
迪亚	-5425
ical	-5426
yout	-5427
条目	-5428
大联盟	-5429
比尔	-5430
充分	-5431
良好	-5432
书法	-5433
担当	-5434
饭店	-5435
主事	-5436
公寓	-5437
大帝	-5438
平定	-5439
法令	-5440
台南市	-5441
燃烧	-5442
1956	-5443
进而	-5444
mer	-5445
德罗	-5446
ium	-5447
专科	-5448
直辖	-5449
首领	-5450
停车场	-5451
兰州	-5452
ann	-5453
1967	-5454
纳尔	-5455
罗马天主教	-5456
长约	-5457
提供的	-5458
最重要的	-5459
jo	-5460
强化	-5461
村民	-5462
照顾	-5463
专利	-5464
人生	-5465
曾为	-5466
史密斯	-5467
子公司	-5468
山地	-5469
个国家	-5470
居委会	-5471
微博	-5472
否认	-5473
在上海	-5474
政协委员	-5475
三月	-5476
之内	-5477
iki	-5478
维也纳	-5479
拿破	-5480
pre	-5481
昆虫	-5482
ence	-5483
巴勒	-5484
结论	-5485
center	-5486
▁费	-5487
大同	-5488
各类	-5489
增设	-5490
对话	-5491
往来	-5492
ath	-5493
三位	-5494
书写	-5495
▁国家	-5496
▁爱	-5497
尼泊	-5498
歧义	-5499
首任	-5500
研究中心	-5501
他还	-5502
历史学家	-5503
布兰	-5504
推测	-5505
ts	-5506
名叫	-5507
班次	-5508
日晚	-5509
短期	-5510
car	-5511
▁基	-5512
战中	-5513
cy	-5514
作的	-5515
率军	-5516
每次	-5517
被发现	-5518
最高法院	-5519
细菌	-5520
rom	-5521
年代初	-5522
丁目	-5523
在西	-5524
面体	-5525
1/	-5526
恩来	-5527
基督徒	-5528
个体	-5529
那州	-5530
▁1941	-5531
德川	-5532
▁1952	-5533
▁1956	-5534
股权	-5535
广播电台	-5536
裔美国人	-5537
ivers	-5538
杰出	-5539
眼睛	-5540
1943	-5541
田径	-5542
二月	-5543
观念	-5544
ds	-5545
他也	-5546
鱼雷	-5547
1969	-5548
事变	-5549
整理	-5550
若干	-5551
下来的	-5552
便是	-5553
八月	-5554
之意	-5555
波士顿	-5556
伐利亚	-5557
义务	-5558
堂区	-5559
着的	-5560
就读于	-5561
格拉斯	-5562
版本的	-5563
独特的	-5564
颁奖典礼	-5565
长大	-5566
信任	-5567
一共	-5568
农历	-5569
战败	-5570
能在	-5571
命名的	-5572
召集	-5573
术语	-5574
cm	-5575
党组	-5576
千人	-5577
姊妹	-5578
侦察	-5579
导师	-5580
数个	-5581
编写	-5582
里奥	-5583
面上	-5584
数值	-5585
韦尔	-5586
革命军	-5587
丽莎	-5588
年才	-5589
竣工	-5590
蒸汽	-5591
主教练	-5592
螺旋	-5593
如同	-5594
大将军	-5595
1964	-5596
前锋	-5597
天文学	-5598
的经济	-5599
跑道	-5600
正是	-5601
112	-5602
水量	-5603
物资	-5604
通行	-5605
▁麦	-5606
一至	-5607
内政	-5608
十三年	-5609
旧金山	-5610
向西	-5611
精确	-5612
途径	-5613
难民	-5614
第三次	-5615
尺寸	-5616
搭载	-5617
科会试	-5618
类似于	-5619
以外的	-5620
文帝	-5621
造型	-5622
amp	-5623
吾尔	-5624
理学	-5625
钢铁	-5626
黑人	-5627
上将	-5628
依靠	-5629
aw	-5630
接壤	-5631
予以	-5632
和大	-5633
地处	-5634
改装	-5635
防空	-5636
af	-5637
年成为	-5638
下方	-5639
▁该地的	-5640
二次	-5641
主教座堂	-5642
在北	-5643
▁佩	-5644
当日	-5645
族的	-5646
晶体	-5647
,17	-5648
sil	-5649
的道路	-5650
▁1938	-5651
过渡	-5652
苏维埃	-5653
的马	-5654
免疫	-5655
王室	-5656
▁曾任	-5657
原来的	-5658
的一次	-5659
人所	-5660
体积	-5661
牺牲	-5662
背鳍	-5663
发生于	-5664
硬币	-5665
词汇	-5666
▁江	-5667
是大	-5668
新台币	-5669
国共	-5670
多夫	-5671
提前	-5672
因其	-5673
电信	-5674
评审	-5675
国防部	-5676
常委会	-5677
并有	-5678
划分	-5679
温泉	-5680
发表了	-5681
的特有植物	-5682
ae	-5683
ase	-5684
▁清朝	-5685
的前身	-5686
村庄	-5687
直升机	-5688
1965	-5689
codice	-5690
人体	-5691
伯格	-5692
电流	-5693
见到	-5694
con	-5695
▁1954	-5696
面积和人口	-5697
诊断	-5698
选中	-5699
对阵	-5700
晚期	-5701
立陶	-5702
▁关于	-5703
台湾省	-5704
▁该物种的模式产	-5705
年来	-5706
就任	-5707
换乘	-5708
140	-5709
智利	-5710
选民	-5711
▁sy	-5712
指的是	-5713
香港的	-5714
人次	-5715
优先	-5716
▁神	-5717
主体	-5718
后方	-5719
起了	-5720
▁约翰	-5721
即为	-5722
编制	-5723
限于	-5724
希特勒	-5725
社群	-5726
以及中国大陆的	-5727
▁康	-5728
供奉	-5729
近年来	-5730
封闭	-5731
归类	-5732
流亡	-5733
皆未知	-5734
雕塑	-5735
▁go	-5736
面积和人口皆未知	-5737
▁该地的面积和人口皆未知	-5738
适用于	-5739
模仿	-5740
端的	-5741
立法院	-5742
同志	-5743
战舰	-5744
亚美尼亚	-5745
行政长官	-5746
谋杀	-5747
呼吸	-5748
拉特	-5749
某种	-5750
但不	-5751
▁毛	-5752
则以	-5753
列宁	-5754
可以用	-5755
教科	-5756
来看	-5757
青春	-5758
暂停	-5759
车手	-5760
完整的	-5761
》《	-5762
东路	-5763
起点	-5764
▁将	-5765
多元	-5766
▁泰	-5767
万历	-5768
转乘	-5769
他和	-5770
即时	-5771
相机	-5772
▁战后	-5773
次列车	-5774
位于该国中部	-5775
人与	-5776
确实	-5777
交流道	-5778
这也是	-5779
重庆市	-5780
合理	-5781
被任命为	-5782
下游	-5783
台东	-5784
的阿	-5785
离心	-5786
1500	-5787
;"	-5788
在位	-5789
民政	-5790
▁康熙	-5791
5000	-5792
太宗	-5793
维基	-5794
普及	-5795
景点	-5796
mac	-5797
于同年	-5798
超级联赛	-5799
电影节	-5800
流域面积	-5801
保卫	-5802
判处	-5803
华北	-5804
电视动画	-5805
产量	-5806
平安	-5807
新人	-5808
紧张	-5809
的第一个	-5810
土壤	-5811
立陶宛	-5812
职业生涯	-5813
实体	-5814
山坡	-5815
地中海	-5816
ob	-5817
银河	-5818
获取	-5819
地址	-5820
得票	-5821
擅长	-5822
的四	-5823
▁夏	-5824
复活	-5825
福特	-5826
司令员	-5827
▁分布在	-5828
代数	-5829
、1	-5830
决策	-5831
工党	-5832
身亡	-5833
各大	-5834
真正的	-5835
复制	-5836
▁1940	-5837
失踪	-5838
英超	-5839
参见	-5840
策划	-5841
年人口普查	-5842
为期	-5843
的手	-5844
尔夫	-5845
州长	-5846
新增	-5847
杀人	-5848
水深	-5849
语音	-5850
这两个	-5851
之女	-5852
uk	-5853
陨坑	-5854
鲈形目	-5855
白人	-5856
取自	-5857
是巴西	-5858
太郎	-5859
研究员	-5860
▁鲁	-5861
总共	-5862
那个	-5863
上方	-5864
乐园	-5865
哺乳	-5866
温带	-5867
ale	-5868
集团军	-5869
1939	-5870
侵略	-5871
环绕	-5872
国家足球队	-5873
最有	-5874
毫无	-5875
台风警报	-5876
▁初	-5877
后在	-5878
网页	-5879
创始人	-5880
男主角	-5881
较大的	-5882
球迷	-5883
通常是	-5884
穆罕默德	-5885
屏东	-5886
就被	-5887
讯息	-5888
人认为	-5889
喇嘛	-5890
圣诞	-5891
攻势	-5892
▁it	-5893
动工	-5894
片的	-5895
met	-5896
face	-5897
年世界杯	-5898
溶液	-5899
清真寺	-5900
出于	-5901
得主	-5902
沙漠	-5903
交叉	-5904
就像	-5905
尼泊尔	-5906
休息	-5907
母舰	-5908
缓慢	-5909
1959	-5910
无线电	-5911
1963	-5912
▁1930	-5913
夜间	-5914
密码	-5915
交战	-5916
外界	-5917
定律	-5918
富士	-5919
起诉	-5920
ster	-5921
align	-5922
新城	-5923
考入	-5924
高层	-5925
之前的	-5926
库尔	-5927
正月	-5928
主题曲	-5929
vi	-5930
▁花	-5931
真的	-5932
都没有	-5933
有三	-5934
水利	-5935
片段	-5936
辞去	-5937
1957	-5938
普鲁士	-5939
中断	-5940
分享	-5941
号种子	-5942
以其	-5943
伦多	-5944
道教	-5945
谴责	-5946
▁本站	-5947
县知县	-5948
客家	-5949
细节	-5950
时常	-5951
的社会	-5952
完美	-5953
图形	-5954
维吾尔	-5955
连续剧	-5956
1937	-5957
克利	-5958
是一家	-5959
▁蒙	-5960
公署	-5961
模特儿	-5962
马其顿	-5963
后卫	-5964
将他	-5965
科罗	-5966
▁使用	-5967
消歧义	-5968
专区	-5969
ool	-5970
国外	-5971
格斯	-5972
统治者	-5973
,2008	-5974
机组	-5975
条款	-5976
命运	-5977
崇祯	-5978
族人	-5979
织田	-5980
放射	-5981
十二月	-5982
十八年	-5983
荃湾	-5984
突击	-5985
继位	-5986
世纪末	-5987
但仍	-5988
投手	-5989
栖息深度	-5990
每一	-5991
社交	-5992
总局	-5993
公约	-5994
友谊	-5995
秩序	-5996
草案	-5997
它们的	-5998
▁约	-5999
前线	-6000
▁德国	-6001
亚科	-6002
累积	-6003
还要	-6004
十五年	-6005
巴伐利亚	-6006
乘坐	-6007
皆为	-6008
大使馆	-6009
复合	-6010
的建筑	-6011
路径	-6012
黄河	-6013
如今	-6014
在当时	-6015
减弱	-6016
周末	-6017
护照	-6018
第二个	-6019
史蒂	-6020
某个	-6021
阵亡	-6022
red	-6023
族自治	-6024
纪念碑	-6025
会社	-6026
搭配	-6027
沿着	-6028
的内	-6029
属的动物	-6030
原型	-6031
情节	-6032
1952	-6033
梦想	-6034
线和	-6035
尊重	-6036
,12	-6037
海底	-6038
文的	-6039
虚构	-6040
十四年	-6041
孙中山	-6042
上一	-6043
临床	-6044
否则	-6045
耶夫	-6046
车的	-6047
▁故事	-6048
新北市	-6049
寺院	-6050
1962	-6051
兴起	-6052
夏天	-6053
▁本届	-6054
播出的	-6055
布罗	-6056
新西兰	-6057
的一个县	-6058
年欧洲	-6059
爱好	-6060
政治局	-6061
orld	-6062
伦斯	-6063
褐色	-6064
辽宁省	-6065
会计	-6066
理事会	-6067
每小时	-6068
立刻	-6069
次数	-6070
防卫	-6071
▁1975	-6072
的第三	-6073
入了	-6074
大埔	-6075
江西省	-6076
神社	-6077
马力	-6078
▁inter	-6079
playstation	-6080
改组	-6081
蝙蝠	-6082
带来的	-6083
录影带	-6084
寄生	-6085
min	-6086
幸福	-6087
节奏	-6088
日凌晨	-6089
二甲	-6090
曲目	-6091
神圣	-6092
▁这次	-6093
明的	-6094
车型	-6095
巴尼亚	-6096
▁总人口	-6097
军舰	-6098
ction	-6099
位于该国南部	-6100
各项	-6101
贝格	-6102
▁诺	-6103
听到	-6104
打造	-6105
的热	-6106
民籍	-6107
罕见	-6108
▁该地	-6109
的特征	-6110
▁首	-6111
桥梁	-6112
波音	-6113
出生在	-6114
存在于	-6115
不受	-6116
常规	-6117
fc	-6118
浏览	-6119
随之	-6120
五世	-6121
的中心	-6122
篇小说	-6123
重点文物保护单位	-6124
响应	-6125
background	-6126
tt	-6127
博览	-6128
景观	-6129
财经	-6130
迁往	-6131
改编自	-6132
1961	-6133
因应	-6134
▁除此之外	-6135
为辐鳍鱼纲鲈形目	-6136
丁堡	-6137
悬挂	-6138
站房	-6139
ash	-6140
各地的	-6141
的一个区	-6142
封面	-6143
此地	-6144
参议员	-6145
哈利	-6146
路军	-6147
体验	-6148
已在	-6149
曲线	-6150
队在	-6151
机器人	-6152
,2013	-6153
尔摩	-6154
誉为	-6155
亦为	-6156
监制	-6157
ste	-6158
john	-6159
▁美	-6160
进军	-6161
影响力	-6162
之乱	-6163
所谓的	-6164
支持者	-6165
gb	-6166
不多	-6167
省道台	-6168
封锁	-6169
科幻	-6170
也能	-6171
▁1966	-6172
年为	-6173
牙齿	-6174
ys	-6175
翰林院	-6176
真人	-6177
日治时期	-6178
动态	-6179
的游戏	-6180
;0	-6181
作词	-6182
典型的	-6183
的身份	-6184
热带低气压	-6185
美国国家	-6186
youtube	-6187
的活动	-6188
_3	-6189
克斯坦	-6190
周恩来	-6191
时速	-6192
公立	-6193
高峰	-6194
位于该国西南部	-6195
盆地	-6196
确立	-6197
转变	-6198
过度	-6199
光学	-6200
波特	-6201
mic	-6202
境内的	-6203
剩馀	-6204
婚礼	-6205
委员会的	-6206
▁、	-6207
绍兴	-6208
own	-6209
存储	-6210
闽南	-6211
集结	-6212
普林	-6213
歧视	-6214
一项	-6215
伍德	-6216
大林	-6217
的西	-6218
text	-6219
▁里	-6220
并为	-6221
很难	-6222
▁太	-6223
▁与此同时	-6224
者为	-6225
选拔	-6226
科进士	-6227
▁man	-6228
又被	-6229
的金	-6230
调节	-6231
这座	-6232
▁1939	-6233
屋顶	-6234
还包括	-6235
营养	-6236
唱片公司	-6237
补给	-6238
哈拉	-6239
看法	-6240
道夫	-6241
制造商	-6242
场合	-6243
崇拜	-6244
框架	-6245
color	-6246
为食	-6247
明显的	-6248
神父	-6249
声优	-6250
星际	-6251
政使	-6252
类别	-6253
时间的	-6254
活动的	-6255
总司令	-6256
bert	-6257
▁沃	-6258
威尼斯	-6259
一号	-6260
他对	-6261
伐克	-6262
差距	-6263
放置	-6264
贝克	-6265
县的一个非建制地区	-6266
动词	-6267
质的	-6268
先前	-6269
每一个	-6270
极大	-6271
空调	-6272
开业	-6273
托尔	-6274
卡特	-6275
百年	-6276
▁1953	-6277
给他	-6278
降雨量	-6279
一路	-6280
▁istat	-6281
街道下辖以下地区	-6282
可能性	-6283
美术馆	-6284
英国的	-6285
歇尔	-6286
清水	-6287
辩论	-6288
戈尔	-6289
的最高	-6290
、4	-6291
干扰	-6292
定义为	-6293
委员会主席	-6294
射入	-6295
年有	-6296
柴油机车	-6297
草原	-6298
!」	-6299
血液	-6300
说服	-6301
ome	-6302
</	-6303
连同	-6304
甲级联赛	-6305
▁也	-6306
ins	-6307
一开始	-6308
▁[	-6309
北洋	-6310
的全	-6311
站位于	-6312
平行	-6313
南下	-6314
多样	-6315
1955	-6316
广义	-6317
fr	-6318
一份	-6319
应当	-6320
105	-6321
1954	-6322
后续	-6323
指标	-6324
校舍	-6325
电压	-6326
高山	-6327
股票	-6328
国籍	-6329
特定的	-6330
年加入	-6331
享有	-6332
世界的	-6333
建立的	-6334
三级	-6335
权威	-6336
一生	-6337
系的	-6338
是南极洲的	-6339
强大	-6340
总是	-6341
月任	-6342
正规	-6343
亮相	-6344
期望	-6345
亦可	-6346
月份	-6347
失去了	-6348
政府在	-6349
明代	-6350
1936	-6351
▁ser	-6352
uper	-6353
情形	-6354
南斯拉夫	-6355
直属	-6356
诸多	-6357
使他	-6358
厂商	-6359
又有	-6360
嘉宾	-6361
婴儿	-6362
讯号	-6363
知名的	-6364
总部位于	-6365
之称	-6366
对他	-6367
法学	-6368
立委	-6369
进球	-6370
5%	-6371
中东	-6372
家庄	-6373
死去	-6374
遗迹	-6375
泽尔	-6376
会议上	-6377
漫画家	-6378
染色	-6379
动员	-6380
爱的	-6381
转任	-6382
工作人员	-6383
大大	-6384
ult	-6385
的比赛	-6386
1938	-6387
▁coun	-6388
专线	-6389
更改	-6390
▁mar	-6391
刊登	-6392
大正	-6393
版权	-6394
年亚洲	-6395
少数民族	-6396
▁蔡	-6397
可靠	-6398
世代	-6399
预定	-6400
▁1976	-6401
争论	-6402
规格	-6403
▁we	-6404
联合台风警报	-6405
创意	-6406
表现出	-6407
远东	-6408
高铁	-6409
大学生	-6410
▁1944	-6411
大军	-6412
自此	-6413
莱斯	-6414
ict	-6415
传教士	-6416
领队	-6417
一千	-6418
中以	-6419
播映	-6420
那样	-6421
ode	-6422
和美国	-6423
因此在	-6424
心的	-6425
ree	-6426
教导	-6427
科研	-6428
几内亚	-6429
字符	-6430
巴塞	-6431
法尔	-6432
自主	-6433
零售	-6434
的过程	-6435
冲绳	-6436
型机车	-6437
联合台风警报中心	-6438
高地	-6439
但其	-6440
航空母舰	-6441
军方	-6442
网民	-6443
▁青	-6444
高丽	-6445
▁我们	-6446
的存在	-6447
体现	-6448
半径	-6449
师长	-6450
独自	-6451
十一月	-6452
来源于	-6453
批复	-6454
纺织	-6455
古老的	-6456
的作用	-6457
浓度	-6458
火力	-6459
▁秦	-6460
这两	-6461
清华大学	-6462
攻入	-6463
信奉	-6464
族自治区	-6465
生长在	-6466
俘虏	-6467
澎湖	-6468
签证	-6469
繁忙	-6470
撞击坑	-6471
▁尼	-6472
▁洛	-6473
▁1951	-6474
、6	-6475
中场	-6476
肉食性	-6477
元朝	-6478
马达	-6479
动车组	-6480
被告	-6481
名列	-6482
在他的	-6483
▁1942	-6484
主唱	-6485
关东	-6486
gen	-6487
生物学	-6488
fa	-6489
他于	-6490
推出了	-6491
一半	-6492
野生	-6493
人文	-6494
分开	-6495
枪管	-6496
灵感	-6497
亚热带	-6498
在这里	-6499
▁经	-6500
片中	-6501
谘询	-6502
▁1973	-6503
▁时	-6504
男人	-6505
车体	-6506
iam	-6507
仪器	-6508
帕尔	-6509
空袭	-6510
的同时	-6511
生效	-6512
瑞拉	-6513
的一座城市	-6514
att	-6515
哈佛	-6516
布局	-6517
纳州	-6518
逃亡	-6519
累计	-6520
box	-6521
校友	-6522
频繁	-6523
igh	-6524
出兵	-6525
牛津	-6526
百货	-6527
跨越	-6528
县政府	-6529
的消息	-6530
纽西兰	-6531
元音	-6532
权益	-6533
帝国的	-6534
第十三	-6535
元朗	-6536
并获得	-6537
更大的	-6538
的母亲	-6539
赔偿	-6540
或其他	-6541
徒刑	-6542
观塘	-6543
▁cl	-6544
年球季	-6545
并成为	-6546
市内	-6547
为日本	-6548
▁colspan	-6549
方形	-6550
不可能	-6551
农村居民点	-6552
▁魏	-6553
政委	-6554
趋势	-6555
击败了	-6556
▁九	-6557
rit	-6558
的老	-6559
物理学家	-6560
位在	-6561
▁他于	-6562
北美洲	-6563
文化的	-6564
翡翠	-6565
1953	-6566
mon	-6567
萨克森	-6568
大于	-6569
射线	-6570
甲组	-6571
终身	-6572
▁许	-6573
肌肉	-6574
,2014	-6575
茨基	-6576
调任	-6577
良好的	-6578
可分为	-6579
▁1968	-6580
吉林省	-6581
ower	-6582
▁ngc	-6583
▁六	-6584
时会	-6585
民党	-6586
这类	-6587
中所	-6588
学堂	-6589
技能	-6590
消费者	-6591
▁各	-6592
乡道	-6593
宰相	-6594
十六年	-6595
ios	-6596
占据	-6597
弗兰	-6598
拉萨	-6599
ise	-6600
上半	-6601
毁灭	-6602
过世	-6603
拯救	-6604
海关	-6605
▁ap	-6606
诸侯	-6607
▁本鱼	-6608
丹尼	-6609
影展	-6610
▁1959	-6611
诺斯	-6612
铜牌	-6613
年中国	-6614
回复	-6615
路德	-6616
还原	-6617
的要求	-6618
sy	-6619
代号	-6620
故障	-6621
病人	-6622
水的	-6623
天桥	-6624
认知	-6625
只在	-6626
干涉	-6627
愤怒	-6628
▁他还	-6629
火灾	-6630
▁外	-6631
器官	-6632
众人	-6633
写成	-6634
垃圾	-6635
更有	-6636
社长	-6637
赋予	-6638
年轻的	-6639
▁ho	-6640
▁1965	-6641
典型	-6642
沿线	-6643
重修	-6644
是一款	-6645
▁该物种的模式产地在	-6646
为名	-6647
北魏	-6648
华语	-6649
所得	-6650
葬于	-6651
发布了	-6652
德勒	-6653
甘肃省	-6654
而得名	-6655
建筑面积	-6656
二十年	-6657
▁纳	-6658
共识	-6659
又译	-6660
回家	-6661
拜占	-6662
王后	-6663
这部	-6664
稳定的	-6665
:,	-6666
▁施	-6667
的双	-6668
行车	-6669
与大	-6670
排名第	-6671
▁韩	-6672
之路	-6673
做了	-6674
普罗	-6675
的功能	-6676
的标准	-6677
剑桥	-6678
安置	-6679
浪漫	-6680
贷款	-6681
东日本	-6682
年担任	-6683
的传统	-6684
的使用	-6685
1935	-6686
是一颗恒星	-6687
银牌	-6688
差别	-6689
日文	-6690
一只	-6691
起飞	-6692
印度洋	-6693
发行了	-6694
书店	-6695
奖章	-6696
▁1943	-6697
ner	-6698
女性为	-6699
ger	-6700
在那里	-6701
亚利	-6702
年秋	-6703
据点	-6704
350	-6705
国际赛	-6706
系统中	-6707
太祖	-6708
新区	-6709
等站	-6710
▁而且	-6711
尼古拉	-6712
评论家	-6713
national	-6714
」、	-6715
传佛教	-6716
自行车	-6717
寺庙	-6718
提琴	-6719
发电厂	-6720
广播公司	-6721
有很多	-6722
▁1927	-6723
弗拉	-6724
四人	-6725
悠久	-6726
截止	-6727
歌剧	-6728
ars	-6729
在前	-6730
深刻	-6731
次子	-6732
撤离	-6733
月刊	-6734
也称	-6735
这时	-6736
再加上	-6737
的家	-6738
mp	-6739
两大	-6740
于香港	-6741
蒂利亚	-6742
先锋	-6743
公车	-6744
极端	-6745
委常委	-6746
的表现	-6747
▁1936	-6748
全国重点文物保护单位	-6749
个别	-6750
关联	-6751
故此	-6752
纽约市	-6753
进程	-6754
爆发后	-6755
现已	-6756
不及	-6757
蒂安	-6758
2。	-6759
回来	-6760
反射	-6761
曾有	-6762
城市的	-6763
▁吕	-6764
财富	-6765
体重	-6766
省份	-6767
选票	-6768
办公厅	-6769
电子游戏	-6770
团的	-6771
,16	-6772
▁1935	-6773
上任	-6774
制品	-6775
威尔斯	-6776
最后的	-6777
移植	-6778
赛会	-6779
合并为	-6780
因子	-6781
局部	-6782
战列	-6783
祖籍	-6784
近似	-6785
姐妹	-6786
远征	-6787
促使	-6788
光谱	-6789
去世后	-6790
接受了	-6791
社会的	-6792
马德里	-6793
梅尔	-6794
▁结果	-6795
党籍	-6796
电磁	-6797
时间内	-6798
的土地	-6799
do	-6800
人是	-6801
咸丰	-6802
阵容	-6803
你们	-6804
古希腊	-6805
菲利普	-6806
▁1957	-6807
依旧	-6808
过了	-6809
隔离	-6810
▁毕业于	-6811
初步	-6812
新一	-6813
普拉	-6814
stem	-6815
则被	-6816
城门	-6817
物浦	-6818
适当	-6819
▁sc	-6820
inter	-6821
特点	-6822
现代化	-6823
开播	-6824
汤姆	-6825
118	-6826
▁1964	-6827
法师	-6828
在欧洲	-6829
年代为	-6830
不如	-6831
侵犯	-6832
1。	-6833
庙宇	-6834
2》	-6835
提案	-6836
身高	-6837
设置的	-6838
日益	-6839
口号	-6840
座位	-6841
阳光	-6842
只好	-6843
建有	-6844
繁荣	-6845
催化	-6846
斯图	-6847
,0	-6848
:《	-6849
伊尔	-6850
在南	-6851
▁1931	-6852
▁1972	-6853
冷却	-6854
街头	-6855
ata	-6856
sn	-6857
业者	-6858
山顶	-6859
型态	-6860
用在	-6861
影评	-6862
石器	-6863
用了	-6864
礼拜	-6865
面前	-6866
▁ac	-6867
委内	-6868
时空	-6869
列颠	-6870
变更	-6871
售票	-6872
定了	-6873
石头	-6874
原因是	-6875
降落	-6876
发言人	-6877
东汉	-6878
卑斯	-6879
谢尔	-6880
反对派	-6881
有人口	-6882
的不同	-6883
一点	-6884
大理	-6885
省长	-6886
两座	-6887
▁上海	-6888
名称为	-6889
▁1977	-6890
末年	-6891
索尼	-6892
多伦多	-6893
引起了	-6894
一书	-6895
北伐	-6896
道歉	-6897
,2015	-6898
▁母	-6899
塔基	-6900
1933	-6901
▁1928	-6902
延安	-6903
编曲	-6904
讽刺	-6905
起源于	-6906
ance	-6907
就能	-6908
mb	-6909
学校的	-6910
数学家	-6911
一角	-6912
足以	-6913
silver	-6914
su	-6915
则会	-6916
和新	-6917
花费	-6918
作物	-6919
瞄准	-6920
委内瑞拉	-6921
华东	-6922
国中	-6923
▁温	-6924
城际	-6925
逃离	-6926
预告	-6927
导致了	-6928
年因	-6929
终结	-6930
▁世界	-6931
赛马	-6932
男演员	-6933
花莲	-6934
交付	-6935
英寸	-6936
配角	-6937
▁戴	-6938
后又	-6939
边形	-6940
火炮	-6941
相近	-6942
编入	-6943
金斯	-6944
斯里	-6945
真菌	-6946
一旦	-6947
九州	-6948
分散	-6949
要塞	-6950
中世纪	-6951
事件的	-6952
5"	-6953
▁松	-6954
处决	-6955
恐惧	-6956
时尚	-6957
西区	-6958
学院的	-6959
就已经	-6960
悉尼	-6961
风速	-6962
流通	-6963
车身	-6964
间接	-6965
人死亡	-6966
在本	-6967
完善	-6968
黑龙江省	-6969
org	-6970
使者	-6971
独特	-6972
限定	-6973
也成为	-6974
加勒比	-6975
专员	-6976
警员	-6977
▁然后	-6978
气象局	-6979
▁gro	-6980
▁老	-6981
法规	-6982
的东	-6983
特别行政区	-6984
友好	-6985
的大部分	-6986
▁图	-6987
县级	-6988
首批	-6989
南路	-6990
游戏中	-6991
▁1971	-6992
公平	-6993
各省	-6994
时被	-6995
诸如	-6996
电影的	-6997
国民革命军	-6998
为该	-6999
主编	-7000
字体	-7001
意图	-7002
和一个	-7003
治所在	-7004
遗体	-7005
宫殿	-7006
中央电视台	-7007
快乐	-7008
耶律	-7009
门的	-7010
运会	-7011
总督府	-7012
的目标	-7013
阿尔巴尼亚	-7014
不佳	-7015
舆论	-7016
额外	-7017
常被	-7018
托马斯	-7019
的技术	-7020
商标	-7021
季节	-7022
法人	-7023
1,000	-7024
一所	-7025
参演	-7026
▁现代	-7027
综艺节目	-7028
主人	-7029
1951	-7030
传动	-7031
与中国	-7032
部分的	-7033
dc	-7034
共享	-7035
打进	-7036
十七年	-7037
城内	-7038
巴布	-7039
排除	-7040
文本	-7041
癌症	-7042
约克	-7043
膨胀	-7044
化工	-7045
敏感	-7046
配乐	-7047
为香港	-7048
创作的	-7049
创办人	-7050
、5	-7051
宫廷	-7052
范畴	-7053
广泛的	-7054
通过了	-7055
▁1961	-7056
发的	-7057
改任	-7058
武术	-7059
最终在	-7060
1912	-7061
女人	-7062
迫害	-7063
董事会	-7064
▁小行星列表	-7065
que	-7066
利安	-7067
皇室	-7068
sch	-7069
▁1933	-7070
▁1962	-7071
──	-7072
一张	-7073
为他	-7074
出局	-7075
岁人口	-7076
手法	-7077
放送	-7078
野战	-7079
有一些	-7080
费尔	-7081
▁北京	-7082
型电力机车	-7083
圣殿	-7084
不同于	-7085
曾担任	-7086
ward	-7087
阿尔卑斯	-7088
复杂的	-7089
▁乔	-7090
不在	-7091
斯蒂	-7092
法定	-7093
▁今	-7094
示范	-7095
站在	-7096
电梯	-7097
的人口	-7098
便利	-7099
发送	-7100
变量	-7101
为主要	-7102
学员	-7103
恶化	-7104
月后	-7105
个性	-7106
体型	-7107
创下	-7108
历代	-7109
洪水	-7110
活性	-7111
原有的	-7112
亚当	-7113
刚果	-7114
科技大学	-7115
▁1932	-7116
▁近	-7117
olog	-7118
旗帜	-7119
阴谋	-7120
雕像	-7121
▁或	-7122
借此	-7123
提倡	-7124
熟悉	-7125
肿瘤	-7126
攻占	-7127
榴弹	-7128
角逐	-7129
预防	-7130
第三甲	-7131
学士学位	-7132
美国总统	-7133
其子	-7134
全国人大代表	-7135
三名	-7136
日记	-7137
的天	-7138
不愿	-7139
改由	-7140
长轴	-7141
▁它是	-7142
▁you	-7143
小平	-7144
撒冷	-7145
耶路	-7146
预期	-7147
巴勒斯坦	-7148
实业	-7149
强迫	-7150
让人	-7151
识字率	-7152
元首	-7153
思考	-7154
无关	-7155
紧密	-7156
路上	-7157
▁杰	-7158
▁由此	-7159
的基本	-7160
▁:	-7161
包装	-7162
物业	-7163
的心	-7164
苗栗	-7165
奖励	-7166
最好的	-7167
电气化	-7168
斯和	-7169
不需要	-7170
为中心	-7171
吉亚	-7172
极限	-7173
gre	-7174
▁万历	-7175
▁new	-7176
国土	-7177
菲尔	-7178
前者	-7179
客机	-7180
西元	-7181
录音室	-7182
语法	-7183
程度上	-7184
乌拉	-7185
北面	-7186
探讨	-7187
普尔	-7188
的美	-7189
河谷	-7190
过后	-7191
西路	-7192
str	-7193
中等	-7194
战机	-7195
="5"	-7196
ka	-7197
合金	-7198
第一部	-7199
丧失	-7200
名录	-7201
战事	-7202
清军	-7203
造船	-7204
▁1969	-7205
检验	-7206
ics	-7207
为主的	-7208
soft	-7209
全书	-7210
州立	-7211
为主题	-7212
淡水鱼	-7213
利于	-7214
楼梯	-7215
拜占庭	-7216
习俗	-7217
节日	-7218
邮件	-7219
ram	-7220
并止于	-7221
湖广	-7222
资深	-7223
可以是	-7224
率先	-7225
_4	-7226
哈里	-7227
被选为	-7228
中环	-7229
克劳	-7230
兰卡	-7231
宁夏	-7232
战争的	-7233
年总人口	-7234
会以	-7235
加热	-7236
怀孕	-7237
▁田	-7238
头的	-7239
改用	-7240
1928	-7241
▁受	-7242
ls	-7243
一直到	-7244
击退	-7245
分组	-7246
搭档	-7247
武昌	-7248
威尔士	-7249
二氧化	-7250
编译	-7251
姐姐	-7252
干燥	-7253
曼联	-7254
职责	-7255
转型	-7256
耶路撒冷	-7257
图片	-7258
pan	-7259
全数	-7260
南面	-7261
服务器	-7262
变形	-7263
哈德	-7264
复仇	-7265
治理	-7266
往返	-7267
▁中央	-7268
交汇处	-7269
总书记	-7270
小行星带	-7271
▁单	-7272
与他	-7273
删除	-7274
晋升	-7275
简化	-7276
▁mo	-7277
继承人	-7278
隐藏	-7279
伯利亚	-7280
工作者	-7281
丘陵	-7282
勳章	-7283
泰尔	-7284
年代的	-7285
▁希	-7286
捐赠	-7287
罢工	-7288
树林	-7289
兄长	-7290
氯化	-7291
血管	-7292
哲学家	-7293
陆战队	-7294
居于	-7295
斯在	-7296
显著	-7297
线路口	-7298
围棋	-7299
坐标	-7300
日本人	-7301
较多	-7302
他认为	-7303
上校	-7304
几年	-7305
,11	-7306
▁就	-7307
支撑	-7308
航行	-7309
她与	-7310
较小	-7311
有关的	-7312
海盗	-7313
气象厅	-7314
▁饰	-7315
▁ed	-7316
朝鲜半岛	-7317
夫卡是乌克兰的村落	-7318
了对	-7319
巴拿	-7320
心理学	-7321
▁赫	-7322
莱坞	-7323
体操	-7324
北区	-7325
北极	-7326
寿命	-7327
标示	-7328
送往	-7329
240	-7330
▁穆	-7331
事宜	-7332
山口	-7333
郎中	-7334
优惠	-7335
密西	-7336
州人	-7337
实质	-7338
站厅	-7339
追击	-7340
同一个	-7341
一时	-7342
发育	-7343
有多	-7344
语中	-7345
▁它的	-7346
▁明朝	-7347
鱼亚目	-7348
万张	-7349
支部	-7350
最具	-7351
的重	-7352
面包	-7353
届全国政协委员	-7354
升降	-7355
年末	-7356
珍珠	-7357
fe	-7358
一间	-7359
传送	-7360
国立台湾	-7361
ya	-7362
吉斯	-7363
消耗	-7364
▁1974	-7365
一日	-7366
克雷	-7367
告知	-7368
半长轴	-7369
1932	-7370
联赛冠军	-7371
成为一个	-7372
啤酒	-7373
小于	-7374
答应	-7375
透明	-7376
交往	-7377
才会	-7378
替换	-7379
磷酸	-7380
fer	-7381
导体	-7382
液体	-7383
▁ph	-7384
又称为	-7385
—6	-7386
事物	-7387
人都	-7388
水中	-7389
已经被	-7390
意思是	-7391
在第	-7392
布置	-7393
港澳	-7394
,2002	-7395
行政中心	-7396
▁迪	-7397
混凝	-7398
脊椎	-7399
龙科	-7400
▁tr	-7401
供电	-7402
和西	-7403
常数	-7404
雅各	-7405
第一名	-7406
by	-7407
▁萧	-7408
不良	-7409
的信	-7410
耶尔	-7411
的军事	-7412
gu	-7413
运送	-7414
国家级	-7415
开发区	-7416
万吨	-7417
情感	-7418
灾难	-7419
阿姆	-7420
亚利桑	-7421
人气	-7422
北路	-7423
华侨	-7424
音乐会	-7425
▁mus	-7426
级行政区	-7427
pm	-7428
▁包括	-7429
编号为	-7430
无锡	-7431
本部	-7432
专案	-7433
的区域	-7434
并称	-7435
生素	-7436
证书	-7437
不列颠	-7438
td	-7439
株式	-7440
ink	-7441
全台	-7442
大力	-7443
转投	-7444
人被	-7445
内斯	-7446
其中男	-7447
季后赛	-7448
▁富	-7449
但是在	-7450
该党	-7451
与美国	-7452
利物浦	-7453
引力	-7454
目录	-7455
金像	-7456
ank	-7457
执法	-7458
新华	-7459
桂林	-7460
胡同	-7461
年正式	-7462
▁1967	-7463
位居	-7464
反击	-7465
彗星	-7466
衣服	-7467
前身为	-7468
位于该国东部	-7469
天王	-7470
阵线	-7471
全美	-7472
缩短	-7473
new	-7474
未来的	-7475
集中在	-7476
节点	-7477
株式会社	-7478
也将	-7479
奖牌	-7480
收复	-7481
▁每个	-7482
大败	-7483
丰富的	-7484
其中有	-7485
混凝土	-7486
围攻	-7487
烈士	-7488
▁按	-7489
专注	-7490
委讬	-7491
阵营	-7492
局势	-7493
▁旧	-7494
瑞克	-7495
和中国	-7496
si	-7497
就业	-7498
暴动	-7499
年出版	-7500
1934	-7501
常用	-7502
应对	-7503
时装	-7504
该片	-7505
德国的	-7506
1929	-7507
▁那	-7508
制动	-7509
口岸	-7510
这么	-7511
县的一个城镇	-7512
南宋	-7513
▁孔	-7514
战死	-7515
步行	-7516
金门	-7517
▁部分	-7518
追溯到	-7519
年代中期	-7520
旋律	-7521
这位	-7522
mat	-7523
▁wh	-7524
女歌手	-7525
理事长	-7526
电机	-7527
走廊	-7528
香港政府	-7529
海姆	-7530
但没有	-7531
的速度	-7532
类型为	-7533
不论	-7534
总计	-7535
损害	-7536
购入	-7537
转而	-7538
郊区	-7539
探险队	-7540
一边	-7541
武力	-7542
消除	-7543
的计划	-7544
并向	-7545
德兰	-7546
监视	-7547
app	-7548
分别在	-7549
▁1963	-7550
je	-7551
的机	-7552
遵守	-7553
其中的	-7554
拼音	-7555
议长	-7556
进展	-7557
副总统	-7558
参赛者	-7559
同为	-7560
普森	-7561
伟大的	-7562
的其他	-7563
位于该国西北部	-7564
五百	-7565
蒙德	-7566
金额	-7567
1918	-7568
▁曹	-7569
施行	-7570
询问	-7571
验证	-7572
1931	-7573
下去	-7574
公投	-7575
进驻	-7576
的事情	-7577
其在	-7578
还会	-7579
斯大林	-7580
区议会选举	-7581
乐坛	-7582
总长	-7583
里程	-7584
▁with	-7585
集团有限公司	-7586
国公	-7587
玫瑰	-7588
介入	-7589
光明	-7590
是他	-7591
莲花	-7592
bar	-7593
▁在这	-7594
▁1934	-7595
享受	-7596
医药	-7597
历经	-7598
数千	-7599
的生	-7600
传入	-7601
瓦拉	-7602
出境	-7603
房子	-7604
所长	-7605
暗杀	-7606
负担	-7607
都要	-7608
rad	-7609
处死	-7610
▁br	-7611
岁以下	-7612
本质	-7613
湾仔	-7614
及利亚	-7615
的定义	-7616
造成了	-7617
恋爱	-7618
也开始	-7619
和社会	-7620
调查局	-7621
▁windows	-7622
护卫	-7623
ere	-7624
看起来	-7625
剩下	-7626
嘉靖	-7627
局面	-7628
而死	-7629
▁早年	-7630
发表的	-7631
可以被	-7632
迈克尔	-7633
▁方	-7634
云林	-7635
士坦	-7636
是该	-7637
其中男性为	-7638
行李	-7639
▁car	-7640
决于	-7641
的非	-7642
三角形	-7643
雕刻	-7644
ike	-7645
横滨	-7646
玩具	-7647
之初	-7648
军长	-7649
真相	-7650
恩斯	-7651
脂肪	-7652
日发售	-7653
的正	-7654
row	-7655
元件	-7656
司铎	-7657
夥伴	-7658
激进	-7659
色情	-7660
ala	-7661
亦会	-7662
巴克	-7663
枢机	-7664
乔治亚州	-7665
唐代	-7666
拓跋	-7667
新生	-7668
含量	-7669
置于	-7670
二百	-7671
决心	-7672
基辅	-7673
诸葛	-7674
104	-7675
年代末	-7676
南区	-7677
结局	-7678
吏部	-7679
1927	-7680
属肉食性	-7681
则于	-7682
右翼	-7683
怎么	-7684
搭乘	-7685
▁专辑	-7686
应用于	-7687
进入了	-7688
▁邓	-7689
世的	-7690
战时	-7691
王的	-7692
重播	-7693
彻斯特	-7694
三部	-7695
普通话	-7696
其父	-7697
故意	-7698
本作	-7699
罪名	-7700
官职	-7701
丽莎白	-7702
列斯	-7703
勇士	-7704
在今	-7705
最小	-7706
面积约为	-7707
▁道光	-7708
战役中	-7709
▁pre	-7710
facebook	-7711
▁七	-7712
软条	-7713
时间逢星期	-7714
足球甲级联赛	-7715
原料	-7716
多位	-7717
少量	-7718
形势	-7719
血统	-7720
1914	-7721
▁勒	-7722
首张	-7723
;0—6	-7724
教友	-7725
迪斯	-7726
驻地	-7727
年上映	-7728
法学院	-7729
mi	-7730
了两	-7731
期徒刑	-7732
的结构	-7733
奖的	-7734
▁fo	-7735
发布的	-7736
延迟	-7737
tain	-7738
科罗拉多	-7739
108	-7740
并开始	-7741
是秘鲁	-7742
▁one	-7743
一群	-7744
影业	-7745
操纵	-7746
收视率	-7747
大厅	-7748
转播	-7749
linux	-7750
:1	-7751
海湾	-7752
莱昂	-7753
马路	-7754
asa	-7755
北宋	-7756
保护区	-7757
较高的	-7758
ana	-7759
纵队	-7760
170	-7761
铁路的	-7762
之父	-7763
出赛	-7764
icon	-7765
理工学院	-7766
部副部长	-7767
巴达	-7768
洛伊	-7769
支球队	-7770
一方	-7771
一等	-7772
深受	-7773
该庄	-7774
《》,	-7775
是韩国	-7776
汉堡	-7777
系数	-7778
ler	-7779
奥古	-7780
是被	-7781
职工	-7782
霍夫	-7783
台的	-7784
组长	-7785
另一种	-7786
阿拉斯	-7787
高宗	-7788
君士坦	-7789
出租	-7790
绘入	-7791
航海	-7792
▁他也	-7793
▁他曾	-7794
森堡	-7795
ris	-7796
决赛以	-7797
拍摄的	-7798
有一种	-7799
干预	-7800
后不久	-7801
1911	-7802
后裔	-7803
给出	-7804
水域面积为	-7805
哥华	-7806
展出	-7807
开创	-7808
的一所	-7809
1919	-7810
可以使用	-7811
最著名的	-7812
▁1929	-7813
涡轮	-7814
站是	-7815
vel	-7816
陆地面积为	-7817
树木	-7818
1913	-7819
▁大多数	-7820
河道全长	-7821
分布于南美洲	-7822
信长	-7823
水上	-7824
最后一次	-7825
分割	-7826
和华	-7827
完颜	-7828
续集	-7829
臀鳍	-7830
enn	-7831
出身于	-7832
显得	-7833
温和	-7834
新兴	-7835
则认为	-7836
4000	-7837
大学教授	-7838
有意	-7839
林中	-7840
迄今	-7841
主要由	-7842
▁曾祖父	-7843
家属	-7844
引导	-7845
苏军	-7846
落后	-7847
铃木	-7848
之一的	-7849
人类的	-7850
项目的	-7851
▁school	-7852
开封	-7853
泽西	-7854
足总	-7855
长老	-7856
led	-7857
日公布	-7858
▁台	-7859
俄亥	-7860
后勤	-7861
国小	-7862
短片	-7863
领衔	-7864
我们的	-7865
党委	-7866
ald	-7867
1"	-7868
hz	-7869
三百	-7870
暴露	-7871
法军	-7872
俄亥俄	-7873
sd	-7874
畅销	-7875
属的一种	-7876
▁根据美国	-7877
▁该小行星	-7878
公益	-7879
击中	-7880
外部	-7881
神学	-7882
维拉	-7883
都能	-7884
中华民国政府	-7885
总体	-7886
总值	-7887
来了	-7888
童军	-7889
urn	-7890
他将	-7891
灰色	-7892
金钟	-7893
▁接着	-7894
万平方米	-7895
杜鹃	-7896
ude	-7897
的两个	-7898
南投	-7899
月被	-7900
地区代表	-7901
号码	-7902
老板	-7903
玛丽亚	-7904
今属	-7905
出资	-7906
废止	-7907
ron	-7908
以及在	-7909
绕太阳	-7910
缺陷	-7911
行使	-7912
足联	-7913
▁直至	-7914
世界各地	-7915
离心率为	-7916
▁更	-7917
对比	-7918
焦点	-7919
鱼科的其中一种	-7920
冰岛	-7921
执教	-7922
无效	-7923
袁世	-7924
为何	-7925
交由	-7926
南端	-7927
巨人	-7928
当晚	-7929
不等	-7930
去了	-7931
尚有	-7932
瀑布	-7933
的比	-7934
六十	-7935
分数	-7936
原址	-7937
orn	-7938
恶魔	-7939
西门	-7940
形式的	-7941
日发现	-7942
旁边	-7943
磁场	-7944
▁ua	-7945
而闻名	-7946
公子	-7947
小孩	-7948
▁by	-7949
中的一个	-7950
战争期间	-7951
二层	-7952
晚间	-7953
死者	-7954
潜在	-7955
发展出	-7956
取决于	-7957
半长轴为	-7958
精选	-7959
说的	-7960
明尼	-7961
精英	-7962
主要为	-7963
领事馆	-7964
街道办事处	-7965
▁广	-7966
匈奴	-7967
编程	-7968
接下来	-7969
为邻	-7970
干事	-7971
的头	-7972
而已	-7973
连串	-7974
设立的	-7975
达到了	-7976
edia	-7977
绘入地图	-7978
五大	-7979
是将	-7980
har	-7981
企业家	-7982
该地区	-7983
山镇	-7984
登堡	-7985
老挝	-7986
itt	-7987
ser	-7988
弹劾	-7989
▁崔	-7990
▁常	-7991
硫酸	-7992
人力	-7993
河内	-7994
流放	-7995
移交	-7996
被指	-7997
转入	-7998
nowiki	-7999
天空	-8000
横跨	-8001
亦在	-8002
服务的	-8003
中央军委	-8004
gn	-8005
公演	-8006
并对	-8007
日内	-8008
苏里	-8009
▁欧洲	-8010
文化遗产	-8011
扬州	-8012
方针	-8013
痛苦	-8014
聘请	-8015
总决赛	-8016
样本	-8017
纪念馆	-8018
▁隋	-8019
和阿	-8020
uch	-8021
袁世凯	-8022
的轨道半长轴为	-8023
sw	-8024
体内	-8025
首映	-8026
毕业生	-8027
的军队	-8028
颗恒星	-8029
可供	-8030
的自	-8031
达赖	-8032
间谍	-8033
仍是	-8034
创业	-8035
奉命	-8036
追踪	-8037
霍尔	-8038
oci	-8039
内蒙古自治区	-8040
//	-8041
船员	-8042
主机	-8043
半球	-8044
告示	-8045
、7	-8046
夺冠	-8047
特种	-8048
防线	-8049
绝大多数	-8050
宝石	-8051
pet	-8052
,2004	-8053
加泰	-8054
高等教育	-8055
所属的	-8056
▁※	-8057
低地	-8058
史料	-8059
映射	-8060
相对于	-8061
▁该小行星于	-8062
案例	-8063
的妻子	-8064
入学	-8065
绕太阳运	-8066
▁英	-8067
海滩	-8068
翌日	-8069
运载	-8070
风力	-8071
ave	-8072
也可能	-8073
▁木	-8074
客串	-8075
欣赏	-8076
种种	-8077
罗门	-8078
而后	-8079
郑州	-8080
国会议员	-8081
传承	-8082
庄村	-8083
第一批	-8084
氏的	-8085
赤道	-8086
是一颗绕太阳运	-8087
是一颗绕太阳运转的小行星	-8088
和中	-8089
预言	-8090
▁印度	-8091
▁1925	-8092
dp	-8093
▁这样	-8094
代表队	-8095
▁事实上	-8096
付费	-8097
uth	-8098
安达	-8099
搬到	-8100
以及其他	-8101
中国科学院	-8102
张家	-8103
法拉	-8104
▁她在	-8105
会谈	-8106
公国	-8107
防护	-8108
103	-8109
举行了	-8110
ited	-8111
会将	-8112
微分	-8113
歌舞	-8114
ose	-8115
被列为	-8116
位于该国东北部	-8117
各界	-8118
合肥	-8119
夫妻	-8120
整数	-8121
部下	-8122
出现于	-8123
意识到	-8124
而成的	-8125
▁潘	-8126
候补	-8127
好莱坞	-8128
蒋中正	-8129
不敢	-8130
人对	-8131
各有	-8132
的比赛中	-8133
▁伯	-8134
京师	-8135
青铜	-8136
与日本	-8137
基础上	-8138
这首歌	-8139
下旬	-8140
文革	-8141
语和	-8142
▁在美国	-8143
之用	-8144
哈特	-8145
中饰演	-8146
语言的	-8147
流行音乐	-8148
弘治	-8149
扩充	-8150
诺尔	-8151
图尔	-8152
本届	-8153
舰艇	-8154
钻石	-8155
作品的	-8156
人事	-8157
攻陷	-8158
▁玩家	-8159
▁香港时间逢星期	-8160
杀手	-8161
生前	-8162
神的	-8163
修正案	-8164
方向的	-8165
方面军	-8166
卡斯蒂利亚	-8167
和小	-8168
摩托	-8169
是一所	-8170
立体	-8171
解体	-8172
驻守	-8173
,15	-8174
▁城	-8175
大将	-8176
此一	-8177
重伤	-8178
102	-8179
克罗地亚	-8180
,2016	-8181
的亲	-8182
绘制	-8183
聚会	-8184
125	-8185
释出	-8186
port	-8187
小行星带小行星	-8188
利尼	-8189
贵州省	-8190
司徒	-8191
代表作	-8192
人口密度为每	-8193
助于	-8194
度假	-8195
的一家	-8196
▁宣	-8197
后因	-8198
顶点	-8199
ene	-8200
▁另一	-8201
多年的	-8202
特殊的	-8203
为主小行星带小行星	-8204
们的	-8205
保育	-8206
爵位	-8207
夫斯基	-8208
一事	-8209
文中	-8210
清廷	-8211
炮兵	-8212
说话	-8213
七个	-8214
人群	-8215
例外	-8216
地狱	-8217
很有	-8218
挖掘	-8219
公司在	-8220
收录了	-8221
1922	-8222
▁冯	-8223
巴哈	-8224
老人	-8225
106	-8226
排球	-8227
直流	-8228
wo	-8229
蜘蛛	-8230
警务	-8231
阶层	-8232
年首次	-8233
日晚上	-8234
ille	-8235
回收	-8236
当然	-8237
后来被	-8238
的基础上	-8239
会面	-8240
属性	-8241
基尔	-8242
▁1926	-8243
ng	-8244
▁兰	-8245
帕拉	-8246
治安	-8247
沼泽	-8248
管道	-8249
青山	-8250
一层	-8251
主播	-8252
之事	-8253
刊物	-8254
可用	-8255
巴嫩	-8256
式为	-8257
橡胶	-8258
▁按照	-8259
山谷	-8260
钓鱼	-8261
学金	-8262
日和	-8263
派人	-8264
年左右	-8265
狙击	-8266
用地	-8267
起兵	-8268
1910	-8269
岛式月台	-8270
几种	-8271
武士	-8272
着手	-8273
秀吉	-8274
组的	-8275
akb	-8276
▁沈	-8277
按察	-8278
艾伦	-8279
1924	-8280
micro	-8281
不用	-8282
宋朝	-8283
报复	-8284
更高	-8285
远的	-8286
制造的	-8287
南部的	-8288
亚斯	-8289
洛特	-8290
ham	-8291
公共交通	-8292
关节	-8293
隔年	-8294
▁1924	-8295
先驱	-8296
清晰	-8297
而有	-8298
lan	-8299
民主主义	-8300
、"	-8301
中立	-8302
暗示	-8303
进化	-8304
肯塔基	-8305
黎巴嫩	-8306
乒乓	-8307
后才	-8308
官兵	-8309
宾夕	-8310
曾与	-8311
阿拉巴马	-8312
德利	-8313
泰因	-8314
比赛的	-8315
巩固	-8316
战区	-8317
的环境	-8318
射手	-8319
草地	-8320
诺曼	-8321
roid	-8322
最后一个	-8323
一对	-8324
上层	-8325
东站	-8326
守备	-8327
生育	-8328
进修	-8329
在当地	-8330
面积约	-8331
rist	-8332
县市	-8333
重力	-8334
板块	-8335
远离	-8336
的女性	-8337
▁world	-8338
混淆	-8339
较于	-8340
门外	-8341
360	-8342
篮球运动员	-8343
落实	-8344
▁丁	-8345
加里	-8346
220	-8347
丹尼尔	-8348
由美国	-8349
埃德	-8350
推理	-8351
更名	-8352
不幸	-8353
反复	-8354
最少	-8355
监管	-8356
巴拿马	-8357
指挥部	-8358
不一	-8359
摄政	-8360
未经	-8361
解析	-8362
▁桑	-8363
前夕	-8364
安妮	-8365
惩罚	-8366
也称为	-8367
转移到	-8368
沙尼亚	-8369
_5	-8370
了该	-8371
他又	-8372
最新	-8373
党内	-8374
岭南	-8375
工资	-8376
废弃	-8377
理查德	-8378
的行动	-8379
江户时代	-8380
黎明	-8381
佩尔	-8382
在与	-8383
时为	-8384
江县	-8385
候车	-8386
得出	-8387
战的	-8388
温哥华	-8389
翡翠台	-8390
仓库	-8391
完结	-8392
年及	-8393
日以	-8394
的下	-8395
腐败	-8396
▁还有	-8397
115	-8398
▁国	-8399
一片	-8400
厅长	-8401
宗室	-8402
边为	-8403
法国的	-8404
参赛资格	-8405
加密	-8406
早已	-8407
风云	-8408
▁比如	-8409
1905	-8410
信用	-8411
先发	-8412
北上	-8413
向前	-8414
班机	-8415
的名	-8416
2,000	-8417
▁宝	-8418
否决	-8419
收回	-8420
租借	-8421
西比	-8422
同样的	-8423
三层	-8424
位列	-8425
壁画	-8426
关系的	-8427
▁陆	-8428
▁齐	-8429
速率	-8430
金钱	-8431
ream	-8432
▁只	-8433
▁des	-8434
启发	-8435
对立	-8436
拉姆	-8437
残疾	-8438
了一种	-8439
入狱	-8440
月中旬	-8441
▁景	-8442
上空	-8443
至此	-8444
部件	-8445
交通部	-8446
应用程序	-8447
从小	-8448
偶尔	-8449
更大	-8450
▁ii	-8451
中途	-8452
冲锋	-8453
别墅	-8454
招募	-8455
的无	-8456
见面	-8457
违法	-8458
的河流	-8459
work	-8460
纳粹德国	-8461
司长	-8462
户部	-8463
皆有	-8464
mus	-8465
但也	-8466
的官方	-8467
草科	-8468
杰克逊	-8469
的资料	-8470
人均	-8471
俄语	-8472
可是	-8473
日与	-8474
曝光	-8475
环节	-8476
但因为	-8477
专栏	-8478
生意	-8479
作品中	-8480
及时	-8481
公务员	-8482
的大小	-8483
▁all	-8484
离开了	-8485
节目中	-8486
星球	-8487
与之	-8488
大门	-8489
嫁给	-8490
年号	-8491
是一条	-8492
平方英里	-8493
日宣布	-8494
最初的	-8495
西岸	-8496
负面	-8497
在这个	-8498
美的	-8499
诺伊	-8500
阿布	-8501
操作系统	-8502
伙伴	-8503
正统	-8504
民族主义	-8505
▁河	-8506
倾斜	-8507
戏院	-8508
电荷	-8509
它在	-8510
给事	-8511
舞台剧	-8512
lass	-8513
ition	-8514
减轻	-8515
直线	-8516
破产	-8517
par	-8518
宾夕法	-8519
身边	-8520
所使用的	-8521
科学技术	-8522
助攻	-8523
妈妈	-8524
巨星	-8525
107	-8526
utc	-8527
厄尔	-8528
巡演	-8529
迁徙	-8530
控制的	-8531
国共内战	-8532
ement	-8533
威斯	-8534
故居	-8535
监禁	-8536
一般的	-8537
支队	-8538
北部的	-8539
的一项	-8540
illiam	-8541
▁阮	-8542
仍未	-8543
假名	-8544
垒打	-8545
天地	-8546
轨电车	-8547
ject	-8548
千万	-8549
巡逻	-8550
里奇	-8551
动物的	-8552
是瑞士	-8553
通常会	-8554
内陆	-8555
▁也有	-8556
延伸至	-8557
音乐家	-8558
eric	-8559
的一部	-8560
记者会	-8561
▁范	-8562
南华	-8563
ual	-8564
▁该片	-8565
布政使	-8566
纽约州	-8567
自由党	-8568
1917	-8569
政治委员	-8570
资本主义	-8571
溪流	-8572
者和	-8573
马逊	-8574
理工大学	-8575
外线	-8576
带到	-8577
的意见	-8578
扩散	-8579
沙特	-8580
顶部	-8581
外交官	-8582
栖息在底层水域	-8583
军用	-8584
亦被	-8585
卫冕	-8586
显着	-8587
足球会	-8588
停留	-8589
固体	-8590
存的	-8591
月到	-8592
碰撞	-8593
肯尼	-8594
见证	-8595
高清	-8596
▁pr	-8597
可能的	-8598
县负责管辖	-8599
足球超级联赛	-8600
一套	-8601
惯例	-8602
强烈的	-8603
高等学校	-8604
古蹟	-8605
是用	-8606
中和	-8607
star	-8608
文艺复兴	-8609
高级中学	-8610
人口密度为每平方千米	-8611
体字	-8612
垄断	-8613
定于	-8614
巡回演唱会	-8615
▁整个	-8616
的变化	-8617
的名义	-8618
活佛	-8619
琼斯	-8620
莫尔	-8621
描述了	-8622
▁1912	-8623
yn	-8624
世宗	-8625
厚的	-8626
员外	-8627
开除	-8628
本片	-8629
激素	-8630
西站	-8631
晋升为	-8632
▁当地共有人口	-8633
家长	-8634
耳曼	-8635
阵地	-8636
部位	-8637
龙类	-8638
vis	-8639
将军澳	-8640
的语言	-8641
白俄罗斯	-8642
西藏自治区	-8643
而人口密度为每平方千米	-8644
丞相	-8645
亚种	-8646
作客	-8647
做的	-8648
害怕	-8649
莱特	-8650
战斗中	-8651
深圳市	-8652
为美国	-8653
发放	-8654
古屋	-8655
年仅	-8656
接待	-8657
赛事中	-8658
句话	-8659
数次	-8660
的现象	-8661
▁但由于	-8662
会合	-8663
彩虹	-8664
汗国	-8665
宇文	-8666
崩溃	-8667
开行	-8668
羽球	-8669
1,0	-8670
▁韩国	-8671
投入服务	-8672
佔地	-8673
小镇	-8674
氨基	-8675
鸦片	-8676
万人次	-8677
1926	-8678
总统选举	-8679
的过程中	-8680
里昂	-8681
ven	-8682
的权利	-8683
还没有	-8684
let	-8685
只有一	-8686
为热带淡水鱼	-8687
》;	-8688
立为	-8689
阿肯	-8690
不知道	-8691
天然气	-8692
奥斯曼帝国	-8693
腓特	-8694
路站	-8695
▁担任	-8696
1200	-8697
万名	-8698
分歧	-8699
工部	-8700
考虑到	-8701
领域的	-8702
▁贾	-8703
后代	-8704
的单	-8705
这条	-8706
变成了	-8707
杀了	-8708
▁成立于	-8709
上是	-8710
乌尔	-8711
小巴	-8712
慢慢	-8713
此前	-8714
港岛	-8715
落败	-8716
ari	-8717
tp	-8718
件事	-8719
总管	-8720
攻克	-8721
通勤	-8722
也被称为	-8723
千叶	-8724
就职	-8725
显然	-8726
:""	-8727
的一员	-8728
的状态	-8729
▁辛	-8730
却被	-8731
培育	-8732
将来	-8733
当初	-8734
真理	-8735
||0	-8736
还可以	-8737
在东	-8738
增至	-8739
将近	-8740
当前	-8741
拿破仑	-8742
全新	-8743
生日	-8744
ild	-8745
长时间	-8746
伊丽莎白	-8747
此举	-8748
灌木	-8749
▁两人	-8750
卢瓦尔	-8751
代谢	-8752
军政	-8753
合资	-8754
罗斯福	-8755
▁戈	-8756
他以	-8757
塔克	-8758
莱尔	-8759
中队	-8760
排序	-8761
福冈	-8762
装有	-8763
贫困	-8764
保守党	-8765
中央委员会	-8766
人民解放军	-8767
的乡	-8768
神庙	-8769
年统计	-8770
抽象	-8771
窗口	-8772
组件	-8773
bi	-8774
堡垒	-8775
数据库	-8776
有效的	-8777
腓特烈	-8778
line	-8779
亦称	-8780
八十	-8781
前方	-8782
设立了	-8783
邓小平	-8784
地方政府	-8785
学派	-8786
王国的	-8787
巴士路线	-8788
,2000	-8789
塞拜	-8790
徐州	-8791
朝阳	-8792
▁+	-8793
一说	-8794
命中	-8795
的建议	-8796
旅客铁道	-8797
写了	-8798
却是	-8799
战绩	-8800
服饰	-8801
铜锣	-8802
▁sm	-8803
由英国	-8804
以致	-8805
太极	-8806
姓名	-8807
灾害	-8808
已成为	-8809
1925	-8810
▁love	-8811
新村	-8812
讲话	-8813
地表	-8814
损坏	-8815
一架	-8816
债务	-8817
生殖	-8818
礼仪	-8819
阻碍	-8820
东岸	-8821
八个	-8822
安定	-8823
富豪	-8824
的和	-8825
way	-8826
后来在	-8827
关心	-8828
莱德	-8829
根据地	-8830
木材	-8831
的可	-8832
▁本作	-8833
之所以	-8834
日本气象厅	-8835
哈顿	-8836
灵顿	-8837
父子	-8838
镇守	-8839
黄埔	-8840
▁祖父	-8841
受害者	-8842
的决定	-8843
年美国人口普查的数据	-8844
号在	-8845
夫州	-8846
等同	-8847
象棋	-8848
政府军	-8849
一组	-8850
他说	-8851
幼儿	-8852
战俘	-8853
风格的	-8854
冰原	-8855
吉祥	-8856
拉的	-8857
南站	-8858
合适	-8859
想到	-8860
托勒	-8861
酋长	-8862
▁stud	-8863
后世	-8864
绑架	-8865
马上	-8866
的理论	-8867
二十世纪	-8868
▁隆	-8869
全程	-8870
待遇	-8871
汉人	-8872
纳西	-8873
结识	-8874
unt	-8875
,2017	-8876
以至	-8877
新教	-8878
孔子	-8879
民兵	-8880
莉亚	-8881
109	-8882
取代了	-8883
他曾	-8884
千瓦	-8885
平县	-8886
并把	-8887
旗舰	-8888
罪行	-8889
追随	-8890
获得的	-8891
mr	-8892
▁月	-8893
分局	-8894
初级	-8895
号召	-8896
含义	-8897
拘捕	-8898
此类	-8899
氨酸	-8900
特鲁	-8901
标准的	-8902
1909	-8903
arch	-8904
而水域面积为	-8905
▁曼	-8906
致命	-8907
高压	-8908
▁节目	-8909
获得第	-8910
当中陆地面积为	-8911
利奥	-8912
各级	-8913
接口	-8914
改成	-8915
甲板	-8916
赞成	-8917
▁在中国	-8918
dd	-8919
动的	-8920
奇幻	-8921
学历	-8922
民用	-8923
不太	-8924
党校	-8925
庄园	-8926
1921	-8927
改设	-8928
旺角	-8929
的一场	-8930
▁再	-8931
不大	-8932
敌军	-8933
现金	-8934
▁可以	-8935
出版了	-8936
发现于	-8937
奖学金	-8938
是当时	-8939
专科学校	-8940
▁system	-8941
副使	-8942
新型	-8943
移除	-8944
全年	-8945
▁my	-8946
▁公司	-8947
二等	-8948
华州	-8949
多家	-8950
富有	-8951
主要有	-8952
注重	-8953
英属	-8954
警备	-8955
台大	-8956
过来	-8957
飞船	-8958
结束了	-8959
内外	-8960
▁过去	-8961
六世	-8962
史称	-8963
恶劣	-8964
的音	-8965
裁定	-8966
迁到	-8967
通称	-8968
的数量	-8969
亚洲电视	-8970
一期	-8971
步骤	-8972
贯穿	-8973
性行为	-8974
斯里兰卡	-8975
出色	-8976
江市	-8977
红旗	-8978
贩卖	-8979
生活的	-8980
1%	-8981
一面	-8982
概率	-8983
克拉克	-8984
1923	-8985
3。	-8986
出去	-8987
刑部	-8988
晚年	-8989
纪律	-8990
讲师	-8991
迎接	-8992
tvb	-8993
illa	-8994
优异	-8995
行程	-8996
fran	-8997
利润	-8998
前去	-8999
埃塞	-9000
才是	-9001
饮料	-9002
的最大	-9003
第二轮	-9004
位于该国中	-9005
他州	-9006
句丽	-9007
车厂	-9008
键盘	-9009
嘉庆	-9010
崛起	-9011
第二季	-9012
足够的	-9013
牛顿	-9014
甲基	-9015
直通	-9016
酒吧	-9017
采纳	-9018
马利	-9019
决定将	-9020
avid	-9021
介于	-9022
划入	-9023
溶于	-9024
电站	-9025
郡的	-9026
击落	-9027
攻下	-9028
民意	-9029
水扁	-9030
状的	-9031
一周	-9032
份子	-9033
契约	-9034
疯狂	-9035
费城	-9036
▁这时	-9037
相互作用	-9038
保定	-9039
务段	-9040
单纯	-9041
右侧	-9042
航站	-9043
ings	-9044
前任	-9045
拓扑	-9046
湿地	-9047
吉士	-9048
完毕	-9049
捐款	-9050
藤原	-9051
逃往	-9052
▁en	-9053
技术的	-9054
1907	-9055
▁玛	-9056
不利	-9057
但被	-9058
出家	-9059
只会	-9060
放映	-9061
教室	-9062
每月	-9063
创造了	-9064
iversity	-9065
▁彭	-9066
伦堡	-9067
多少	-9068
改编为	-9069
1908	-9070
pg	-9071
文书	-9072
用品	-9073
的香港	-9074
接到	-9075
热门	-9076
独裁	-9077
蝴蝶	-9078
▁本片	-9079
为什么	-9080
的版本	-9081
组成部分	-9082
对付	-9083
支配	-9084
▁反	-9085
四周	-9086
季军	-9087
应付	-9088
星云	-9089
演说	-9090
疫苗	-9091
白金	-9092
索尔	-9093
在法国	-9094
年之后	-9095
接驳	-9096
珠海	-9097
硬件	-9098
的任务	-9099
位于台湾	-9100
中午	-9101
舰只	-9102
▁1919	-9103
助手	-9104
号和	-9105
卸任	-9106
合共	-9107
要在	-9108
决赛中	-9109
房地产	-9110
蝙蝠侠	-9111
1、	-9112
幕后	-9113
郡王	-9114
斯科特	-9115
▁live	-9116
上演	-9117
实用	-9118
煤矿	-9119
诸塞	-9120
这也	-9121
450	-9122
区议员	-9123
▁及	-9124
家康	-9125
是于	-9126
水准	-9127
水泥	-9128
职能	-9129
▁影片	-9130
是属于	-9131
ko	-9132
ze	-9133
在线	-9134
ero	-9135
rich	-9136
的一部份	-9137
人大常委会	-9138
▁蓝	-9139
宁县	-9140
感受	-9141
财团	-9142
的统治	-9143
三条	-9144
制服	-9145
华南	-9146
感谢	-9147
满意	-9148
结盟	-9149
总统府	-9150
应用程式	-9151
三千	-9152
188	-9153
▁着有	-9154
的态度	-9155
打入	-9156
注意到	-9157
阿肯色	-9158
是奥地利	-9159
的历史年代为	-9160
侦探	-9161
贝拉	-9162
贩售	-9163
超人	-9164
▁ma	-9165
青海省	-9166
佩斯	-9167
和南	-9168
板桥	-9169
果实	-9170
者在	-9171
jav	-9172
中也	-9173
着称	-9174
饲养	-9175
ott	-9176
高尔夫	-9177
经纪公司	-9178
▁赛	-9179
翻唱	-9180
▁qu	-9181
人口的	-9182
亿港元	-9183
孙子	-9184
分泌	-9185
遇难	-9186
间隔	-9187
ico	-9188
被誉为	-9189
able	-9190
为界	-9191
德堡	-9192
过往	-9193
博览会	-9194
韩民国	-9195
可汗	-9196
宽度	-9197
山上	-9198
很高	-9199
民航	-9200
考量	-9201
一个人	-9202
完成后	-9203
出品	-9204
广大	-9205
沉积	-9206
补助	-9207
预警	-9208
总兵	-9209
ake	-9210
被称作	-9211
orth	-9212
党委书记	-9213
实习	-9214
宦官	-9215
研究的	-9216
中国国家	-9217
线索	-9218
魔术	-9219
年轻人	-9220
条件下	-9221
邮政编码	-9222
处罚	-9223
早于	-9224
渔业	-9225
hi	-9226
▁雅	-9227
新星	-9228
演习	-9229
ray	-9230
uro	-9231
西伯利亚	-9232
,2018	-9233
ki	-9234
东风	-9235
大略	-9236
air	-9237
cord	-9238
▁are	-9239
前期	-9240
将此	-9241
永乐	-9242
研讨	-9243
那时	-9244
难度	-9245
bur	-9246
的声音	-9247
中国政府	-9248
亚利桑那州	-9249
古城	-9250
地势	-9251
致使	-9252
电动机	-9253
鲶形目	-9254
char	-9255
中层水域	-9256
▁早期	-9257
发生后	-9258
一体	-9259
中日	-9260
前作	-9261
土著	-9262
连锁	-9263
、21	-9264
有一座	-9265
关卡	-9266
▁朝鲜	-9267
位于日本	-9268
依次	-9269
办学	-9270
和其	-9271
而出	-9272
迁入	-9273
名古屋	-9274
战列舰	-9275
民主派	-9276
泉州	-9277
知的	-9278
小时的	-9279
月下旬	-9280
是其	-9281
▁ge	-9282
乒乓球	-9283
爱沙尼亚	-9284
▁中华人民共和国成立后	-9285
将被	-9286
最快	-9287
理会	-9288
琳娜	-9289
的控制	-9290
备受	-9291
摩洛	-9292
10,	-9293
铁道部	-9294
▁music	-9295
希伯	-9296
跟着	-9297
辽东	-9298
▁威廉	-9299
单曲榜	-9300
〉、	-9301
奥利	-9302
边疆	-9303
web	-9304
企划	-9305
就此	-9306
马萨	-9307
有一定	-9308
、8	-9309
贪污	-9310
280	-9311
ade	-9312
桃园市	-9313
▁1918	-9314
加利福尼亚	-9315
传记	-9316
德州	-9317
检察官	-9318
▁第二次世界大战	-9319
包裹	-9320
bbc	-9321
北约	-9322
审理	-9323
彩色	-9324
烧毁	-9325
语系	-9326
陈列	-9327
ino	-9328
一个月	-9329
开始于	-9330
1906	-9331
公正	-9332
总结	-9333
适用	-9334
高温	-9335
影响了	-9336
是匈牙利	-9337
伴侣	-9338
剧组	-9339
年从	-9340
古建筑	-9341
正式的	-9342
伺服	-9343
土木	-9344
全民	-9345
大名	-9346
工农	-9347
顾客	-9348
但最终	-9349
改变了	-9350
的事件	-9351
华纳	-9352
卡通	-9353
怪物	-9354
撤回	-9355
散文	-9356
诠释	-9357
逃到	-9358
采购	-9359
▁此次	-9360
曾经在	-9361
乃至	-9362
北站	-9363
承受	-9364
掌管	-9365
时有	-9366
深夜	-9367
牡丹	-9368
▁即使	-9369
大城市	-9370
标志着	-9371
为辐鳍鱼纲鲶形目	-9372
""	-9373
mc	-9374
与新	-9375
学部	-9376
维新	-9377
该站	-9378
长城	-9379
别人	-9380
英九	-9381
▁可是	-9382
经历了	-9383
吸血	-9384
开国	-9385
怀特	-9386
下议院	-9387
极大的	-9388
的特殊	-9389
▁1922	-9390
三星	-9391
篮板	-9392
一方面	-9393
▁钱	-9394
收获	-9395
盛行	-9396
道具	-9397
德里克	-9398
罗尼亚	-9399
不同的是	-9400
位于该国东南部	-9401
依法	-9402
机身	-9403
豪华	-9404
交通大学	-9405
伊万	-9406
接手	-9407
的政策	-9408
阿拉巴马州	-9409
演变	-9410
留守	-9411
空降	-9412
贵的	-9413
年完成	-9414
的个人	-9415
民主进步	-9416
首府设于	-9417
失业	-9418
译名	-9419
集成	-9420
收录于	-9421
平成	-9422
物件	-9423
笔名	-9424
的情形	-9425
相对论	-9426
给事中	-9427
五代	-9428
修筑	-9429
楚国	-9430
背面	-9431
腹部	-9432
西克	-9433
▁同日	-9434
▁期间	-9435
▁这里	-9436
在国际	-9437
外围赛	-9438
广西壮	-9439
hone	-9440
缩小	-9441
帮助下	-9442
的地下	-9443
的相关	-9444
陈水扁	-9445
作为一个	-9446
接下来的	-9447
联邦政府	-9448
清晨	-9449
的国	-9450
都城	-9451
部作品	-9452
两层	-9453
为第	-9454
五人	-9455
出入	-9456
夺回	-9457
手下	-9458
接纳	-9459
监控	-9460
翻新	-9461
格达	-9462
▁历任	-9463
的人士	-9464
的观点	-9465
的铁路	-9466
▁1923	-9467
阿尔及利亚	-9468
党派	-9469
全市	-9470
努尔	-9471
底部	-9472
有四	-9473
气氛	-9474
的力量	-9475
努斯	-9476
过多	-9477
处处长	-9478
▁会	-9479
渤海	-9480
▁卡尔	-9481
音乐学院	-9482
!》	-9483
左侧	-9484
金马	-9485
传统上	-9486
及香港	-9487
探测器	-9488
直辖市	-9489
最终幻想	-9490
庇护	-9491
掩护	-9492
故乡	-9493
深水	-9494
者是	-9495
铸造	-9496
并担任	-9497
得到的	-9498
ll	-9499
丧生	-9500
住房	-9501
各式	-9502
武将	-9503
230	-9504
公里处	-9505
曼哈顿	-9506
▁cor	-9507
藏传佛教	-9508
该市有人口	-9509
不合	-9510
侵蚀	-9511
忽略	-9512
滑雪	-9513
是罗马尼亚	-9514
证券交易所	-9515
za	-9516
▁人	-9517
屋苑	-9518
水晶	-9519
讲座	-9520
年参加	-9521
的演出	-9522
封建	-9523
游击队	-9524
低压	-9525
政事	-9526
的二	-9527
马尼	-9528
半导体	-9529
栖息于	-9530
大火	-9531
女士	-9532
ife	-9533
的制作	-9534
▁奇	-9535
动机	-9536
据说	-9537
邪恶	-9538
ans	-9539
葡萄酒	-9540
投入使用	-9541
▁gr	-9542
全垒打	-9543
宇航	-9544
岛县	-9545
遇上	-9546
ute	-9547
行省	-9548
被判	-9549
▁25	-9550
利比亚	-9551
日耳曼	-9552
在中国大陆	-9553
▁假	-9554
尼日	-9555
洪武	-9556
纳米	-9557
▁研究	-9558
▁翌年	-9559
的球员	-9560
知名度	-9561
堪萨斯州	-9562
变动	-9563
是新	-9564
末端	-9565
纠纷	-9566
法兰克福	-9567
型柴油机车	-9568
格罗	-9569
父亲的	-9570
1904	-9571
▁抗日战争	-9572
光的	-9573
登录	-9574
萨摩	-9575
段时间	-9576
的组织	-9577
一辆	-9578
位元	-9579
其间	-9580
尾巴	-9581
峡谷	-9582
德甲	-9583
林业	-9584
玻利	-9585
alk	-9586
告示牌	-9587
多年来	-9588
有线电视	-9589
下设	-9590
哥特	-9591
年第	-9592
必然	-9593
正教	-9594
135	-9595
320	-9596
云南等地	-9597
不够	-9598
教义	-9599
特斯	-9600
特罗	-9601
联会	-9602
艺名	-9603
的规定	-9604
较小的	-9605
亦于	-9606
却在	-9607
年份	-9608
扫描	-9609
矿物	-9610
车次	-9611
辩护	-9612
▁下午	-9613
▁成化	-9614
南京市	-9615
高等法院	-9616
vo	-9617
四军	-9618
断层	-9619
狩猎	-9620
贫穷	-9621
浏览器	-9622
转向架	-9623
习近	-9624
奥多	-9625
列车的	-9626
中子	-9627
关押	-9628
后备	-9629
山站	-9630
检讨	-9631
自愿	-9632
谈话	-9633
高速铁路	-9634
和谐	-9635
雄性	-9636
ena	-9637
常用的	-9638
经济发展	-9639
▁短	-9640
便会	-9641
因病	-9642
宗旨	-9643
武田	-9644
约束	-9645
128	-9646
亚太	-9647
位素	-9648
刚刚	-9649
县治	-9650
放大	-9651
笔记	-9652
,20	-9653
第一代	-9654
州和	-9655
牧区	-9656
避难	-9657
阿克	-9658
ini	-9659
的纪录	-9660
va	-9661
为四	-9662
创刊	-9663
庶吉士	-9664
额外的	-9665
▁等	-9666
在外	-9667
眼镜	-9668
话题	-9669
羽毛球锦标赛	-9670
副都	-9671
卫斯	-9672
西贡	-9673
为首的	-9674
合作的	-9675
▁以下为	-9676
中央政府	-9677
广西壮族自治区	-9678
会见	-9679
票价	-9680
▁po	-9681
一线	-9682
克鲁	-9683
对战	-9684
结尾	-9685
西汉	-9686
1903	-9687
是南极洲的山峰	-9688
征召	-9689
简称为	-9690
群岛的	-9691
总数	-9692
曲的	-9693
260	-9694
总面积为	-9695
▁属	-9696
委托	-9697
意指	-9698
从中	-9699
弹匣	-9700
首届	-9701
程度的	-9702
是世界上	-9703
一批	-9704
搜寻	-9705
时在	-9706
要素	-9707
了一场	-9708
开发者	-9709
,2003	-9710
灌溉	-9711
://	-9712
▁歌曲	-9713
不应	-9714
分辨	-9715
困扰	-9716
绰号	-9717
▁苏联	-9718
副院长	-9719
航站楼	-9720
天府乡试	-9721
师范学校	-9722
▁1917	-9723
斯德	-9724
最好	-9725
出色的	-9726
的核心	-9727
lack	-9728
委员会主任	-9729
轻轨	-9730
ius	-9731
社会科学	-9732
共青	-9733
混血	-9734
重叠	-9735
南北朝	-9736
▁柳	-9737
左派	-9738
逃走	-9739
习近平	-9740
染色体	-9741
▁注	-9742
参军	-9743
师团	-9744
生下	-9745
福克	-9746
但后来	-9747
▁柯	-9748
▁热	-9749
一代	-9750
仅在	-9751
保留了	-9752
食用鱼	-9753
一段时间	-9754
代价	-9755
十馀	-9756
护理	-9757
插入	-9758
行列	-9759
博尔	-9760
流体	-9761
的字	-9762
译本	-9763
职人员	-9764
卓越	-9765
多斯	-9766
嫌疑	-9767
征收	-9768
收益	-9769
林肯	-9770
流入	-9771
阿斯	-9772
爱好者	-9773
官方网站	-9774
对该	-9775
欧阳	-9776
流程	-9777
量产	-9778
▁用	-9779
人心	-9780
传达	-9781
南越	-9782
模糊	-9783
年以后	-9784
2:	-9785
大堂	-9786
清治	-9787
ane	-9788
斯特拉	-9789
相应的	-9790
社会党	-9791
▁俄罗斯	-9792
一颗	-9793
借用	-9794
全日	-9795
快车	-9796
水道	-9797
噶尔	-9798
开拓	-9799
球衣	-9800
王朝的	-9801
军中	-9802
补偿	-9803
被人	-9804
nhk	-9805
是一个位于美国	-9806
乌鲁	-9807
学说	-9808
将该	-9809
真空	-9810
铁线	-9811
划分为	-9812
初始	-9813
密的	-9814
蔬菜	-9815
安东尼	-9816
所在的	-9817
的记载	-9818
削弱	-9819
总署	-9820
感应	-9821
彼得堡	-9822
很容易	-9823
的特性	-9824
继承了	-9825
与李	-9826
军校	-9827
审议	-9828
▁政府	-9829
之间的关系	-9830
吐蕃	-9831
排放	-9832
百合	-9833
▁很多	-9834
▁马来	-9835
分别于	-9836
但这	-9837
特雷	-9838
▁该党	-9839
安打	-9840
撤出	-9841
不久后	-9842
世纪中	-9843
监察御史	-9844
上场	-9845
之久	-9846
剥夺	-9847
危害	-9848
县道	-9849
吉隆	-9850
式建筑	-9851
契丹	-9852
清理	-9853
运转	-9854
▁值得	-9855
华德	-9856
县和	-9857
巴比	-9858
师从	-9859
吉尼亚	-9860
第一任	-9861
▁group	-9862
拨款	-9863
界面	-9864
、10	-9865
主要以	-9866
的车站	-9867
而人口密度为每平方千米人	-9868
两项	-9869
巴登	-9870
游乐	-9871
音节	-9872
制片人	-9873
的平均	-9874
▁分布于中国大陆的	-9875
分部	-9876
失望	-9877
水面	-9878
船舶	-9879
三十年	-9880
▁晋	-9881
假日	-9882
都尉	-9883
▁顺治	-9884
年进入	-9885
1915	-9886
▁应	-9887
两地	-9888
原作	-9889
和他	-9890
攻佔	-9891
的副	-9892
中文版	-9893
省政府	-9894
将之	-9895
山峰	-9896
人受伤	-9897
配音员	-9898
足球协会	-9899
代言	-9900
摩根	-9901
并表示	-9902
_6	-9903
在上	-9904
满贯	-9905
炮台	-9906
缘故	-9907
于台湾	-9908
初中	-9909
岛峰	-9910
狭窄	-9911
的石	-9912
订购	-9913
降级	-9914
联盟的	-9915
哈佛大学	-9916
佔据	-9917
巴特	-9918
患有	-9919
是与	-9920
校方	-9921
重型	-9922
就开始	-9923
科三甲	-9924
东面	-9925
哈萨	-9926
门下	-9927
▁im	-9928
后面	-9929
屏幕	-9930
期待	-9931
会导致	-9932
大概	-9933
容许	-9934
白垩	-9935
科长	-9936
也为	-9937
同日	-9938
墓地	-9939
昔日	-9940
已经在	-9941
第一季	-9942
德克萨斯州	-9943
中亚	-9944
从来	-9945
传染	-9946
兰德	-9947
加索	-9948
多瓦	-9949
布伦	-9950
▁早在	-9951
▁任	-9952
之星	-9953
平坦	-9954
每秒	-9955
派往	-9956
等人的	-9957
到来	-9958
学界	-9959
欧美	-9960
汉朝	-9961
▁km	-9962
▁per	-9963
中文大学	-9964
宣誓	-9965
格丽	-9966
楼高	-9967
清洁	-9968
登山	-9969
一直是	-9970
更好的	-9971
刺杀	-9972
大和	-9973
损伤	-9974
祈祷	-9975
wh	-9976
不见	-9977
人间	-9978
加的	-9979
子孙	-9980
案的	-9981
滑冰	-9982
盟友	-9983
美食	-9984
mun	-9985
一定的	-9986
成员国	-9987
不被	-9988
会馆	-9989
四强	-9990
妈祖	-9991
得奖	-9992
民生	-9993
艾尔	-9994
年当选	-9995
有不少	-9996
可由	-9997
多达	-9998
辅导	-9999
家族的	-10000
也就	-10001
学园	-10002
未被	-10003
极其	-10004
理性	-10005
纯粹	-10006
评选	-10007
遵循	-10008
庄为邻	-10009
拒绝了	-10010
的文章	-10011
的一系列	-10012
人之	-10013
外星	-10014
路的	-10015
一直在	-10016
构成的	-10017
子和	-10018
花科	-10019
顺位	-10020
▁以下是	-10021
阿肯色州	-10022
属下的一个变种	-10023
全省	-10024
双向	-10025
拦截	-10026
沉没	-10027
采集	-10028
▁1921	-10029
不了	-10030
基层	-10031
清末	-10032
起草	-10033
个人的	-10034
存在着	-10035
批复同意	-10036
▁市	-10037
圣地	-10038
弹性	-10039
记述	-10040
,14	-10041
▁os	-10042
上获得	-10043
正式成立	-10044
▁蒋	-10045
中毒	-10046
咨询	-10047
对待	-10048
年内	-10049
拓展	-10050
摆脱	-10051
隆头	-10052
分类法	-10053
栖息地	-10054
目的地	-10055
手持	-10056
西德	-10057
所辖的一个	-10058
中止	-10059
华裔	-10060
碎片	-10061
美金	-10062
卫斯理	-10063
的冠军	-10064
android	-10065
cs	-10066
南开	-10067
南韩	-10068
天水	-10069
家臣	-10070
干道	-10071
罗宾	-10072
规律	-10073
中使用	-10074
匈牙利语	-10075
▁公	-10076
▁尤	-10077
▁非	-10078
历时	-10079
总额	-10080
ael	-10081
中国人	-10082
则是在	-10083
系列赛	-10084
中兴	-10085
处分	-10086
外来	-10087
学业	-10088
操控	-10089
统帅	-10090
送给	-10091
首周	-10092
其他人	-10093
的意义	-10094
1600	-10095
▁1909	-10096
录取	-10097
以来的	-10098
是来自	-10099
冰原岛峰	-10100
再生	-10101
为三	-10102
你的	-10103
夫的	-10104
生母	-10105
龙属	-10106
带来了	-10107
戴维斯	-10108
是根据	-10109
纽约时报	-10110
▁1914	-10111
使馆	-10112
北韩	-10113
贡士	-10114
八路军	-10115
太阳系	-10116
也就是说	-10117
bb	-10118
利尔	-10119
替补	-10120
药品	-10121
都以	-10122
116	-10123
anc	-10124
▁关	-10125
和在	-10126
普里	-10127
条纹	-10128
严厉	-10129
史记	-10130
处在	-10131
家里	-10132
山城	-10133
世纪时	-10134
日上映	-10135
正确的	-10136
结构的	-10137
九巴	-10138
年又	-10139
强行	-10140
111	-10141
人口密度为	-10142
同治	-10143
战线	-10144
掉了	-10145
温暖	-10146
的风	-10147
视野	-10148
金星	-10149
圣保罗	-10150
日早上	-10151
深海	-10152
酸盐	-10153
顶级	-10154
▁23	-10155
对应的	-10156
音乐剧	-10157
西太平洋	-10158
存活	-10159
旅馆	-10160
罗杰	-10161
上书	-10162
进出	-10163
113	-10164
▁每年	-10165
小说家	-10166
终点站	-10167
一万	-10168
复出	-10169
尔本	-10170
酒精	-10171
▁本剧	-10172
或者是	-10173
录音室专辑	-10174
内尔	-10175
国子	-10176
虐待	-10177
二十四	-10178
而来的	-10179
高句丽	-10180
▁part	-10181
▁enter	-10182
水系	-10183
珍妮	-10184
看作	-10185
斯克州	-10186
1916	-10187
基亚	-10188
格的	-10189
港区	-10190
猎人	-10191
魁北	-10192
▁在他	-10193
下诏	-10194
海战	-10195
等价	-10196
雷诺	-10197
历史的	-10198
找到了	-10199
省会	-10200
融入	-10201
▁do	-10202
的一名	-10203
的法律	-10204
国家安全	-10205
波罗的海	-10206
▁扎	-10207
传出	-10208
密集	-10209
幽默	-10210
最长	-10211
罗曼	-10212
▁原本	-10213
▁同样	-10214
摩洛哥	-10215
▁辖	-10216
全身	-10217
招生	-10218
注射	-10219
产阶级	-10220
性鱼类	-10221
最长的	-10222
的居民	-10223
铜锣湾	-10224
军阀	-10225
实在	-10226
编修	-10227
第一轮	-10228
野战军	-10229
iver	-10230
区的一个	-10231
历史建筑	-10232
部分地区	-10233
日到	-10234
月间	-10235
皮尔	-10236
约旦	-10237
兵部	-10238
分店	-10239
统领	-10240
邯郸	-10241
uck	-10242
事件中	-10243
庞大的	-10244
_7	-10245
人马	-10246
双重	-10247
布什	-10248
星光	-10249
硬棘	-10250
缺少	-10251
员外郎	-10252
位于香港	-10253
ny	-10254
公所	-10255
记忆体	-10256
信义	-10257
枪械	-10258
行本	-10259
广播电视	-10260
一台	-10261
书的	-10262
挑选	-10263
颗粒	-10264
114	-10265
ref	-10266
演绎	-10267
潜水	-10268
签下	-10269
生活于	-10270
gl	-10271
一块	-10272
宗座	-10273
层次	-10274
西尔	-10275
吉他手	-10276
加泰罗尼亚	-10277
同进士出身	-10278
▁盖	-10279
拿到	-10280
民事	-10281
里约	-10282
的英国	-10283
中位	-10284
二号	-10285
受体	-10286
朗德	-10287
年推出	-10288
super	-10289
外科	-10290
料理	-10291
▁第四	-10292
副局长	-10293
发源于	-10294
庞大	-10295
张学	-10296
电源	-10297
因斯坦	-10298
大地震	-10299
集中营	-10300
专题	-10301
宠物	-10302
于美国	-10303
转化为	-10304
▁土	-10305
投诉	-10306
ova	-10307
个月后	-10308
他成为	-10309
日食	-10310
背后	-10311
▁近年	-10312
多项式	-10313
克里米亚	-10314
受欢迎的	-10315
迷你专辑	-10316
▁分布在中国大陆的	-10317
7%	-10318
全力	-10319
曼谷	-10320
正好	-10321
炮塔	-10322
般的	-10323
鹦鹉	-10324
人口有	-10325
1901	-10326
注意的是	-10327
和解	-10328
和高	-10329
省委	-10330
警卫	-10331
转到	-10332
por	-10333
的特点	-10334
不错	-10335
切断	-10336
台语	-10337
普利	-10338
某一	-10339
段的	-10340
聚居	-10341
chn	-10342
合唱团	-10343
本次	-10344
疗法	-10345
uss	-10346
▁大学	-10347
大屠杀	-10348
的特色	-10349
▁1913	-10350
填海	-10351
师生	-10352
指南	-10353
病的	-10354
自从	-10355
拉丁语	-10356
柴油机	-10357
占地面积	-10358
最高点为	-10359
生产总值	-10360
塔拉	-10361
此处	-10362
电讯	-10363
编为	-10364
,13	-10365
▁只有	-10366
▁嘉庆	-10367
位于南	-10368
了一系列	-10369
演技	-10370
爪哇	-10371
fin	-10372
假期	-10373
竞争对手	-10374
停办	-10375
兵器	-10376
尖沙	-10377
强奸	-10378
的距离	-10379
同事	-10380
换取	-10381
纳的	-10382
航运	-10383
雌性	-10384
▁她的	-10385
《》。	-10386
月加入中国共产党	-10387
党部	-10388
分会	-10389
利沃	-10390
汉口	-10391
评级	-10392
辅音	-10393
除非	-10394
▁这座	-10395
央视	-10396
师的	-10397
民俗	-10398
生理	-10399
不存在	-10400
亚马逊	-10401
加州大学	-10402
大规模的	-10403
是位于美国加利福尼亚州	-10404
』,	-10405
玉米	-10406
ert	-10407
iso	-10408
元璋	-10409
光禄	-10410
奉天	-10411
枢密	-10412
比起	-10413
水果	-10414
可用于	-10415
自己是	-10416
自治市	-10417
1:	-10418
ou	-10419
分的	-10420
塑料	-10421
归还	-10422
背叛	-10423
脉冲	-10424
eth	-10425
另一位	-10426
还有一	-10427
microsoft	-10428
3%	-10429
客场	-10430
化学家	-10431
▁1901	-10432
两度	-10433
内务	-10434
只得	-10435
头角	-10436
揭露	-10437
las	-10438
、9	-10439
公墓	-10440
戏曲	-10441
的北	-10442
质子	-10443
马英九	-10444
▁ass	-10445
增援	-10446
拆卸	-10447
无需	-10448
▁24	-10449
动物园	-10450
第二代	-10451
皇家海军	-10452
岛式	-10453
走了	-10454
达斯	-10455
塞拜疆	-10456
完成的	-10457
引发了	-10458
月参加	-10459
的权力	-10460
▁查	-10461
亮的	-10462
成名	-10463
抵制	-10464
营造	-10465
国家杯	-10466
生物学家	-10467
译作	-10468
ien	-10469
▁他们的	-10470
构想	-10471
▁该陨坑	-10472
▁丰	-10473
▁百	-10474
▁要	-10475
京剧	-10476
大兴	-10477
山村	-10478
矿业	-10479
在全国	-10480
学生的	-10481
4%	-10482
半部	-10483
南洋	-10484
园林	-10485
录得	-10486
在德国	-10487
▁另一个	-10488
世俗	-10489
侦测	-10490
山路	-10491
117	-10492
年电影	-10493
的范围	-10494
▁铁	-10495
七十	-10496
投影	-10497
本剧	-10498
希望能	-10499
吉尼亚州	-10500
上台	-10501
分队	-10502
在海	-10503
电报	-10504
祖国	-10505
▁30	-10506
▁并且	-10507
万英镑	-10508
主教为	-10509
全新的	-10510
也与	-10511
派系	-10512
表彰	-10513
亚特兰	-10514
改建为	-10515
教会的	-10516
向上	-10517
新鲜	-10518
蒂斯	-10519
较早	-10520
骨骼	-10521
中学校	-10522
希伯来	-10523
年日本	-10524
音乐节	-10525
2%	-10526
之人	-10527
由来	-10528
在校	-10529
拜仁	-10530
欢乐	-10531
里希	-10532
创建于	-10533
东莞	-10534
兼容	-10535
分发	-10536
和马	-10537
归属	-10538
无力	-10539
电器	-10540
稍后	-10541
站至	-10542
共青团	-10543
商学院	-10544
斯基区	-10545
的自由	-10546
商会	-10547
推举	-10548
政司	-10549
率兵	-10550
情人	-10551
把他	-10552
景区	-10553
礼部	-10554
▁比赛	-10555
是法国上	-10556
加装	-10557
度过	-10558
▁air	-10559
▁mod	-10560
场上	-10561
带回	-10562
所组成	-10563
1902	-10564
万美元的	-10565
加勒比海	-10566
石器时代	-10567
▁1911	-10568
2、	-10569
▁道	-10570
拘留	-10571
詹姆	-10572
副教授	-10573
的精神	-10574
▁that	-10575
民主共和国	-10576
▁colle	-10577
:'	-10578
pi	-10579
名额	-10580
氧气	-10581
腓力	-10582
零件	-10583
俄比亚	-10584
的文化	-10585
的需求	-10586
xbox	-10587
偏西	-10588
又以	-10589
后人	-10590
王朱	-10591
▁乐	-10592
▁兴	-10593
万年	-10594
墓葬	-10595
里尼	-10596
哈萨克	-10597
▁袁	-10598
木星	-10599
相传	-10600
div	-10601
希腊语	-10602
总公司	-10603
法尔茨	-10604
魁北克	-10605
参照	-10606
大部分的	-10607
▁county	-10608
拜访	-10609
时所	-10610
线与	-10611
马场	-10612
号月台	-10613
是通过	-10614
的弟弟	-10615
系主任	-10616
是西班牙卡斯蒂利亚	-10617
四位	-10618
是中	-10619
的五	-10620
6000	-10621
▁art	-10622
dy	-10623
先行	-10624
失利	-10625
签名	-10626
纪元	-10627
艺员	-10628
闪电	-10629
ugh	-10630
吉隆坡	-10631
这一点	-10632
青岛市	-10633
大为	-10634
太多	-10635
学和	-10636
对流	-10637
没收	-10638
顺治	-10639
▁为此	-10640
▁现今	-10641
马来亚	-10642
亦曾	-10643
入读	-10644
官话	-10645
接连	-10646
开采	-10647
攻读	-10648
达科	-10649
380	-10650
rna	-10651
过去的	-10652
form	-10653
格鲁吉亚	-10654
阿拉伯语	-10655
供给	-10656
暹罗	-10657
▁在中国大陆	-10658
6%	-10659
拍卖	-10660
沙滩	-10661
足利	-10662
举办了	-10663
飓风中心	-10664
乘车	-10665
传闻	-10666
射程	-10667
因为在	-10668
密西西比	-10669
▁蒂	-10670
南至	-10671
和第	-10672
山乡	-10673
沿途	-10674
的花	-10675
论述	-10676
该剧	-10677
仍然是	-10678
的领导	-10679
让他们	-10680
香港电影	-10681
不想	-10682
刻有	-10683
哈根	-10684
年所	-10685
珠江	-10686
突袭	-10687
长崎	-10688
住户	-10689
守军	-10690
洞穴	-10691
引起的	-10692
第二届	-10693
不动	-10694
初次	-10695
迁居	-10696
▁pe	-10697
八达	-10698
原声	-10699
波利	-10700
阿姆斯特	-10701
了在	-10702
分手	-10703
富裕	-10704
毛利	-10705
轻松	-10706
遇见	-10707
▁基于	-10708
建造的	-10709
放射性	-10710
科维奇	-10711
陶瓷	-10712
可以从	-10713
ital	-10714
安德烈	-10715
四名	-10716
容器	-10717
心灵	-10718
所知	-10719
照明	-10720
登基	-10721
诉求	-10722
过滤	-10723
内政部	-10724
感兴趣	-10725
特别是在	-10726
省级文物保护单位	-10727
没能	-10728
潮湿	-10729
激光	-10730
ater	-10731
一道	-10732
塔斯	-10733
着重	-10734
藏书	-10735
迈阿	-10736
逆转	-10737
是由于	-10738
橄榄球	-10739
的效果	-10740
▁即	-10741
全港	-10742
国安	-10743
看台	-10744
筹建	-10745
先后在	-10746
的目的	-10747
二十三年	-10748
到底	-10749
▁起初	-10750
学生会	-10751
摄影师	-10752
普法尔茨	-10753
买卖	-10754
托夫	-10755
画作	-10756
圣公会	-10757
大区的	-10758
更高的	-10759
事发	-10760
光复	-10761
几次	-10762
压制	-10763
召唤	-10764
和的	-10765
称赞	-10766
win	-10767
▁bl	-10768
在全球	-10769
▁下辖以下地区	-10770
普顿	-10771
洋基	-10772
电阻	-10773
算是	-10774
119	-10775
122	-10776
sur	-10777
▁自从	-10778
分布于非洲	-10779
分隔	-10780
很好	-10781
考证	-10782
萤幕	-10783
红十字	-10784
兹别	-10785
印地	-10786
年将	-10787
故宫	-10788
的爱	-10789
礼堂	-10790
/10	-10791
来进行	-10792
认为这	-10793
的车	-10794
转化	-10795
的公司	-10796
中路	-10797
在地	-10798
女友	-10799
年幼	-10800
衰落	-10801
铁路公司	-10802
巴里	-10803
暴雨	-10804
皮卡	-10805
礼物	-10806
草本	-10807
来表示	-10808
的台湾	-10809
wa	-10810
标识	-10811
的生产	-10812
研究室	-10813
全境	-10814
加快	-10815
约在	-10816
除外	-10817
▁par	-10818
三十四年	-10819
五千	-10820
威力	-10821
服从	-10822
看来	-10823
330	-10824
xy	-10825
丽的	-10826
元老	-10827
善于	-10828
季风	-10829
帆船	-10830
的黑	-10831
▁如今	-10832
平均降雨量	-10833
无穷	-10834
配套	-10835
吸引了	-10836
影响的	-10837
观赏鱼	-10838
使命	-10839
侍中	-10840
北欧	-10841
忍者	-10842
河东	-10843
片尾	-10844
玄宗	-10845
率部	-10846
mod	-10847
▁两个	-10848
史蒂芬	-10849
和英国	-10850
委员长	-10851
脱维亚	-10852
革命党	-10853
后再	-10854
喷射	-10855
有个	-10856
▁no	-10857
而成为	-10858
共用	-10859
海滨	-10860
齿轮	-10861
可作为	-10862
di	-10863
为例	-10864
了其	-10865
参议	-10866
客观	-10867
榜单	-10868
看出	-10869
西蒙	-10870
首部	-10871
aut	-10872
彰化县	-10873
▁子	-10874
伯恩	-10875
指的	-10876
文凭	-10877
▁up	-10878
空中照片	-10879
番茄	-10880
铸币	-10881
飞往	-10882
〉、〈	-10883
的节目	-10884
发表声明	-10885
周年纪念	-10886
外交关系	-10887
主的	-10888
交互	-10889
歌迷	-10890
骚扰	-10891
副市长	-10892
卢森堡	-10893
墨尔本	-10894
流域为	-10895
苏联的	-10896
ja	-10897
mg	-10898
一艘	-10899
养殖	-10900
北海	-10901
卒于	-10902
和约	-10903
填词	-10904
字子	-10905
155	-10906
▁崇祯	-10907
和国家	-10908
大学士	-10909
计划的	-10910
上以	-10911
名将	-10912
样式	-10913
莱恩	-10914
已经有	-10915
了自己的	-10916
不易	-10917
为中	-10918
报名	-10919
的白	-10920
群的	-10921
茨克	-10922
满洲国	-10923
而该地	-10924
1800	-10925
下的一个属	-10926
▁玉	-10927
仁宗	-10928
祖母	-10929
中出现	-10930
了一座	-10931
演出的	-10932
的球队	-10933
耶和华	-10934
将其升格为	-10935
0,	-10936
加特	-10937
处女	-10938
长途	-10939
魔戒	-10940
▁据说	-10941
▁澳门	-10942
甚至是	-10943
的安全	-10944
大王	-10945
有功	-10946
over	-10947
▁汤	-10948
市级	-10949
晚会	-10950
don	-10951
原本的	-10952
大法官	-10953
便宜	-10954
写为	-10955
刘备	-10956
败给	-10957
中获得	-10958
伦西亚	-10959
赛冠军	-10960
哈萨克斯坦	-10961
优化	-10962
可惜	-10963
同知	-10964
四种	-10965
招收	-10966
了中国	-10967
随后的	-10968
南朝	-10969
户籍	-10970
了这个	-10971
伺服器	-10972
的开发	-10973
客量	-10974
更好	-10975
马鞍	-10976
inc	-10977
▁马尔	-10978
副会长	-10979
▁cont	-10980
为中国的特有植物	-10981
是中国的特有植物	-10982
ef	-10983
南道	-10984
迪克	-10985
▁中华	-10986
托勒密	-10987
日启用	-10988
年纪	-10989
目击	-10990
50%	-10991
在世界	-10992
车人次	-10993
最高点为海拔高度	-10994
分行	-10995
相遇	-10996
科隆	-10997
罗伯	-10998
输送	-10999
参与者	-11000
总冠军	-11001
父亲是	-11002
稳定性	-11003
而该地最高点为海拔高度	-11004
的形象	-11005
足总杯	-11006
▁from	-11007
8%	-11008
双层	-11009
日圆	-11010
水源	-11011
河川	-11012
清除	-11013
的旧	-11014
老虎	-11015
轻微	-11016
val	-11017
▁gir	-11018
德里希	-11019
控制器	-11020
协同	-11021
思维	-11022
衰退	-11023
11,	-11024
年以前	-11025
日内瓦	-11026
是世界	-11027
财政部	-11028
rans	-11029
▁赤	-11030
泰山	-11031
的的	-11032
东印度	-11033
两家	-11034
多于	-11035
影集	-11036
潮州	-11037
煤炭	-11038
预留	-11039
尖沙咀	-11040
月正式	-11041
▁tra	-11042
参战	-11043
反派	-11044
录像	-11045
年夏天	-11046
2500	-11047
4。	-11048
特在	-11049
猛烈	-11050
税收	-11051
ral	-11052
由中国	-11053
▁云	-11054
一班	-11055
信心	-11056
北纬	-11057
团员	-11058
星座	-11059
赛道	-11060
以下的	-11061
▁mag	-11062
领衔主演	-11063
管理委员会	-11064
伦理	-11065
单车	-11066
查询	-11067
罗那	-11068
青衣	-11069
▁下辖	-11070
以前的	-11071
▁黎	-11072
否定	-11073
国铁	-11074
宋代	-11075
指向	-11076
摩擦	-11077
激发	-11078
日推出	-11079
科罗拉多州	-11080
xx	-11081
〉,	-11082
会与	-11083
悲剧	-11084
红磡	-11085
选项	-11086
127	-11087
安装在	-11088
影评人	-11089
教科文	-11090
的一切	-11091
▁幼	-11092
一首	-11093
动脉	-11094
化物	-11095
平壤	-11096
弹簧	-11097
想像	-11098
日间	-11099
起的	-11100
123	-11101
129	-11102
1898	-11103
使之	-11104
味道	-11105
抨击	-11106
计划在	-11107
捕捉	-11108
李氏	-11109
特务	-11110
活跃于	-11111
▁can	-11112
ichael	-11113
▁保	-11114
世袭	-11115
带动	-11116
港府	-11117
该区	-11118
▁阿拉	-11119
▁首先	-11120
其实是	-11121
可以将	-11122
▁bar	-11123
日本政府	-11124
▁所	-11125
修斯	-11126
北条	-11127
孤立	-11128
帕克	-11129
最先	-11130
民建	-11131
▁di	-11132
地下铁	-11133
中央委员	-11134
itter	-11135
▁佐	-11136
中视	-11137
场馆	-11138
籍贯	-11139
麦可	-11140
白垩纪	-11141
州立大学	-11142
▁佛	-11143
荆州	-11144
误差	-11145
贵妃	-11146
基本法	-11147
fs	-11148
▁;	-11149
一郎	-11150
也以	-11151
像素	-11152
多处	-11153
尼基	-11154
建的	-11155
连线	-11156
阿勒	-11157
囚禁	-11158
灌丛	-11159
今天的	-11160
植物种	-11161
遇到了	-11162
▁not	-11163
▁甘	-11164
▁鲍	-11165
全军	-11166
几位	-11167
在天	-11168
提督	-11169
状元	-11170
瓦斯	-11171
移至	-11172
轻型	-11173
蔡英文	-11174
侧式月台	-11175
▁play	-11176
他所	-11177
参政	-11178
ele	-11179
mag	-11180
发展成	-11181
工学院	-11182
学者认为	-11183
制备	-11184
合一	-11185
海口	-11186
▁车	-11187
南宁	-11188
并列	-11189
晶片	-11190
林斯	-11191
释迦	-11192
▁截止	-11193
宣布将	-11194
并将其	-11195
清政府	-11196
一中	-11197
儒家	-11198
卜杜	-11199
大胜	-11200
履行	-11201
开辟	-11202
西面	-11203
客户端	-11204
率领的	-11205
apan	-11206
交会	-11207
军衔	-11208
反攻	-11209
合称	-11210
安市	-11211
简易	-11212
集资	-11213
主打歌	-11214
是基于	-11215
1890	-11216
二十四年	-11217
发出的	-11218
iphone	-11219
▁依	-11220
尔加	-11221
庆典	-11222
潮流	-11223
逃脱	-11224
era	-11225
▁丹	-11226
业界	-11227
务局	-11228
场面	-11229
忠诚	-11230
汇报	-11231
145	-11232
曾多次	-11233
最终以	-11234
的出现	-11235
的地点	-11236
下面	-11237
与同	-11238
光年	-11239
始祖	-11240
推迟	-11241
消化	-11242
爸爸	-11243
行进	-11244
阳郡	-11245
ibm	-11246
isc	-11247
ism	-11248
号称	-11249
教材	-11250
淮南	-11251
的古	-11252
可能有	-11253
的一个铁路车站	-11254
民主主义人民共和国	-11255
写信	-11256
寻常	-11257
明白	-11258
水手	-11259
炮弹	-11260
皇宫	-11261
神户	-11262
二氧化碳	-11263
肯塔基州	-11264
一处	-11265
斑点	-11266
火焰	-11267
首长	-11268
的人类	-11269
saint	-11270
▁地	-11271
摄氏	-11272
破裂	-11273
被毁	-11274
有所不同	-11275
是俄罗斯联邦	-11276
也很	-11277
奠基	-11278
找出	-11279
日子	-11280
ines	-11281
▁进士出身	-11282
之役	-11283
压迫	-11284
特朗	-11285
离职	-11286
螺科	-11287
贝斯	-11288
可做为	-11289
目标是	-11290
师范学院	-11291
斯洛伐克	-11292
联队	-11293
葬礼	-11294
相似的	-11295
影响力的	-11296
东欧	-11297
报章	-11298
拉格	-11299
提醒	-11300
正当	-11301
毒品	-11302
珠宝	-11303
站名	-11304
逼近	-11305
了一份	-11306
和日本	-11307
篇文章	-11308
集团的	-11309
公布时间为	-11310
之家	-11311
科斯	-11312
表决	-11313
门口	-11314
埃塞俄比亚	-11315
不当	-11316
丑闻	-11317
再转	-11318
军籍	-11319
北端	-11320
复数	-11321
缺点	-11322
罪犯	-11323
遍布	-11324
▁us	-11325
▁最近	-11326
当年的	-11327
的价格	-11328
被列入	-11329
mark	-11330
月时	-11331
瓦解	-11332
米勒	-11333
内部的	-11334
因为它	-11335
行政村	-11336
解决方案	-11337
在高	-11338
楼宇	-11339
莉丝	-11340
专注于	-11341
海岸线	-11342
由香港	-11343
后来成为	-11344
外借	-11345
子弟	-11346
帽子	-11347
秦国	-11348
金华	-11349
270	-11350
pol	-11351
法西斯	-11352
丽丝	-11353
异性	-11354
约定	-11355
角的	-11356
的报告	-11357
仙奴	-11358
延至	-11359
神奈	-11360
福尔	-11361
罚款	-11362
逃跑	-11363
:15	-11364
▁浙江	-11365
留下的	-11366
等海域	-11367
也许	-11368
喀尔	-11369
大都	-11370
歼灭	-11371
镶嵌	-11372
随时	-11373
驻华	-11374
很快就	-11375
迈阿密	-11376
▁大部分	-11377
经国	-11378
苏达	-11379
被俘	-11380
▁建筑	-11381
十九年	-11382
中央人民政府	-11383
人选	-11384
度为	-11385
▁安德	-11386
▁雍正	-11387
赛事于	-11388
▁在这个	-11389
民主进步党	-11390
gi	-11391
修行	-11392
多部	-11393
直达	-11394
进制	-11395
ors	-11396
▁进入	-11397
太阳的	-11398
两端	-11399
两部	-11400
史诗	-11401
向外	-11402
坚决	-11403
私有	-11404
的人们	-11405
研究者	-11406
国歌	-11407
布达	-11408
维希	-11409
ons	-11410
兰克林	-11411
经常被	-11412
乙级联赛	-11413
巴士总站	-11414
年度最佳	-11415
三重	-11416
化妆	-11417
月号	-11418
松山	-11419
水县	-11420
渗透	-11421
的好	-11422
石灰	-11423
转运	-11424
ww	-11425
之旅	-11426
早晨	-11427
迪南	-11428
▁op	-11429
吸血鬼	-11430
哺乳动物	-11431
举动	-11432
全家	-11433
力和	-11434
志明	-11435
收取	-11436
美奖	-11437
越过	-11438
升降机	-11439
领导小组	-11440
羽毛球国际赛	-11441
与前	-11442
整修	-11443
新任	-11444
组装	-11445
ubl	-11446
他担任	-11447
阿波罗	-11448
上线	-11449
四处	-11450
家村	-11451
散布	-11452
的南	-11453
米高	-11454
改革开放	-11455
困境	-11456
收缩	-11457
有权	-11458
高出	-11459
▁县治	-11460
日本帝国	-11461
▁馀	-11462
取景	-11463
她是	-11464
敌对	-11465
ric	-11466
▁埃尔	-11467
乌拉圭	-11468
对中国	-11469
电影院	-11470
约翰逊	-11471
ield	-11472
上传	-11473
倡议	-11474
协和	-11475
变速	-11476
府知府	-11477
检察院	-11478
有期徒刑	-11479
▁威	-11480
▁锡	-11481
僧人	-11482
大洋	-11483
安抚	-11484
浦东	-11485
bre	-11486
加斯加	-11487
安德鲁	-11488
的一段	-11489
第二名	-11490
但未	-11491
几天	-11492
而其	-11493
船长	-11494
ces	-11495
▁自此	-11496
回到了	-11497
岛上的	-11498
工业区	-11499
立法会议员	-11500
出动	-11501
华沙	-11502
归国	-11503
甲壳	-11504
男双	-11505
结晶	-11506
因为他	-11507
有机会	-11508
圣彼得堡	-11509
不含	-11510
二期	-11511
北岸	-11512
改以	-11513
旅程	-11514
站点	-11515
▁et	-11516
的乡份	-11517
科大学	-11518
殿试登进士	-11519
乐曲	-11520
正选	-11521
▁gu	-11522
的攻击	-11523
▁近年来	-11524
是罗马尼亚的乡份	-11525
sl	-11526
天子	-11527
或许	-11528
支那	-11529
的王	-11530
副校长	-11531
可容纳	-11532
社会学	-11533
协商会议	-11534
战争爆发	-11535
路易斯安	-11536
亚视	-11537
分出	-11538
圆柱	-11539
巴德	-11540
模块	-11541
聚合	-11542
蒂亚	-11543
行销	-11544
维基百科	-11545
二千	-11546
八强	-11547
关税	-11548
域名	-11549
文档	-11550
里尔	-11551
陪同	-11552
会产生	-11553
布拉格	-11554
成员的	-11555
第三名	-11556
3,000	-11557
修缮	-11558
后为	-11559
教派	-11560
是自	-11561
藏族	-11562
驻扎	-11563
福尔摩	-11564
▁gen	-11565
ology	-11566
▁细	-11567
不安	-11568
回族	-11569
大地	-11570
弯曲	-11571
马匹	-11572
▁jo	-11573
为代表	-11574
的人物	-11575
二十一年	-11576
加拿大的	-11577
角色扮演	-11578
之孙	-11579
倒塌	-11580
偶然	-11581
耕地	-11582
创作了	-11583
9%	-11584
会战	-11585
倡导	-11586
升至	-11587
巡航	-11588
得多	-11589
暴风	-11590
量为	-11591
oss	-11592
分公司	-11593
有三个	-11594
第二位	-11595
ions	-11596
▁出生于	-11597
建立一个	-11598
指定地区	-11599
,1998	-11600
马克思主义	-11601
ti	-11602
十万	-11603
和水	-11604
失误	-11605
空难	-11606
而与	-11607
落在	-11608
进了	-11609
追赠	-11610
所需的	-11611
地方法院	-11612
常务委员会	-11613
以免	-11614
岛和	-11615
幸运	-11616
比斯	-11617
湿润	-11618
相隔	-11619
立面	-11620
亥革命	-11621
卡罗莱	-11622
击沉	-11623
是西	-11624
ony	-11625
▁sa	-11626
得贡士	-11627
最终于	-11628
的例子	-11629
乡是罗马尼亚的乡份	-11630
开枪	-11631
的书	-11632
获颁	-11633
菊科	-11634
小时内	-11635
有超过	-11636
的唯一	-11637
▁mac	-11638
鲶科的其中一种	-11639
埼玉	-11640
抗争	-11641
▁el	-11642
市政厅	-11643
并要求	-11644
成功地	-11645
1895	-11646
历史上的	-11647
属下	-11648
招待	-11649
现役	-11650
诗集	-11651
马赛	-11652
米特里	-11653
年代后期	-11654
▁record	-11655
++	-11656
▁半	-11657
动漫	-11658
路斯	-11659
受邀	-11660
囚犯	-11661
四国	-11662
均匀	-11663
夜晚	-11664
姿态	-11665
木齐	-11666
语文	-11667
vol	-11668
▁tv	-11669
与台湾	-11670
的地面	-11671
美国政府	-11672
便于	-11673
出使	-11674
厕所	-11675
夫兰	-11676
安提	-11677
导航	-11678
疼痛	-11679
站内	-11680
▁ad	-11681
管理的	-11682
选择了	-11683
▁gre	-11684
波多	-11685
生在	-11686
穆尔	-11687
▁fr	-11688
和文化	-11689
尼克斯	-11690
森特	-11691
bal	-11692
大学和	-11693
描述为	-11694
的反应	-11695
▁恩	-11696
在对	-11697
塞拉	-11698
就要	-11699
尼的	-11700
期限	-11701
死了	-11702
溶剂	-11703
舞曲	-11704
210	-11705
福克斯	-11706
第二大	-11707
人口普查指定地区	-11708
江湖	-11709
背部	-11710
获准	-11711
齐国	-11712
可能指	-11713
的家庭	-11714
这使得	-11715
david	-11716
▁干	-11717
已故	-11718
德文	-11719
所作	-11720
赶到	-11721
那不	-11722
十字军	-11723
三号	-11724
黑洞	-11725
但也有	-11726
ek	-11727
py	-11728
▁q	-11729
告别	-11730
年发行	-11731
仍为	-11732
机型	-11733
首脑	-11734
交界处	-11735
创立于	-11736
密苏里	-11737
最后在	-11738
的战斗	-11739
东至	-11740
右派	-11741
奈良	-11742
情的	-11743
普雷	-11744
守卫	-11745
男友	-11746
监测	-11747
门将	-11748
▁这项	-11749
一样的	-11750
于日本	-11751
向西北	-11752
年之间	-11753
球队的	-11754
精神病	-11755
听说	-11756
层面	-11757
明帝	-11758
固定的	-11759
控制了	-11760
冬天	-11761
新秀	-11762
献给	-11763
船上	-11764
被评为	-11765
都会区	-11766
凶手	-11767
四方	-11768
底盘	-11769
必需	-11770
既有	-11771
楼的	-11772
餐饮	-11773
can	-11774
安大略	-11775
等方面	-11776
缩写为	-11777
▁次	-11778
有过	-11779
村的	-11780
续约	-11781
羽联	-11782
页面	-11783
126	-11784
lam	-11785
等问题	-11786
转变为	-11787
临近	-11788
代之	-11789
列克	-11790
外籍	-11791
安息	-11792
度量	-11793
提取	-11794
陈述	-11795
gar	-11796
小时后	-11797
年冬季	-11798
延长至	-11799
放弃了	-11800
骑士团	-11801
▁香	-11802
三维	-11803
卡西	-11804
石刻	-11805
▁21	-11806
发源自	-11807
必须在	-11808
日期间	-11809
mk	-11810
俄军	-11811
声母	-11812
外语	-11813
巴利	-11814
罢免	-11815
通报	-11816
750	-11817
▁洪武	-11818
号班机	-11819
都是在	-11820
艺术学院	-11821
中级	-11822
人造	-11823
城邦	-11824
振兴	-11825
摔角	-11826
毒性	-11827
答案	-11828
职权	-11829
齐亚	-11830
bor	-11831
▁弘治	-11832
平方呎	-11833
第二百	-11834
技术学院	-11835
kg	-11836
中南	-11837
尽快	-11838
当场	-11839
汽油	-11840
隐居	-11841
取消了	-11842
杭州市	-11843
电影中	-11844
的重要性	-11845
ations	-11846
ni	-11847
▁庆	-11848
科目	-11849
花岗	-11850
新干线	-11851
金像奖	-11852
年中华民国	-11853
"|	-11854
会于	-11855
作了	-11856
神像	-11857
视察	-11858
12,	-11859
成为中国	-11860
政治部主任	-11861
下属的一座城市	-11862
中方	-11863
击出	-11864
别名	-11865
叛军	-11866
台铁	-11867
正值	-11868
猎物	-11869
轻易	-11870
雷克	-11871
▁实际上	-11872
基础设施	-11873
年代开始	-11874
▁2020	-11875
▁故	-11876
俗名	-11877
内存	-11878
弹道	-11879
文斯	-11880
称帝	-11881
路面	-11882
166	-11883
一至五	-11884
许可证	-11885
副秘书长	-11886
英国伦敦	-11887
▁共	-11888
▁董	-11889
一一	-11890
建构	-11891
sky	-11892
▁唐朝	-11893
▁有一	-11894
和政治	-11895
音乐的	-11896
▁他认为	-11897
万立方米	-11898
玻利维亚	-11899
▁同年五月	-11900
音乐录影带	-11901
之变	-11902
伯里	-11903
道中	-11904
马士	-11905
不办理	-11906
多媒体	-11907
时表示	-11908
5,000	-11909
批全国重点文物保护单位	-11910
健身	-11911
抵御	-11912
让她	-11913
剩下的	-11914
▁加拿大	-11915
世界遗产	-11916
专属	-11917
之心	-11918
松江	-11919
混双	-11920
物流	-11921
痕迹	-11922
秋季	-11923
编纂	-11924
裁决	-11925
cal	-11926
▁人们	-11927
的系统	-11928
降格为	-11929
▁lim	-11930
君士坦丁堡	-11931
担任全国人大代表	-11932
下台	-11933
执照	-11934
掌控	-11935
斯达	-11936
站和	-11937
终年	-11938
改编成	-11939
第四次	-11940
追溯至	-11941
亮度	-11942
其次	-11943
多半	-11944
损毁	-11945
纸币	-11946
▁pl	-11947
大约有	-11948
现有的	-11949
▁university	-11950
万馀	-11951
弹头	-11952
行性	-11953
有助于	-11954
tainment	-11955
▁真	-11956
也因	-11957
代尔	-11958
伴随	-11959
台视	-11960
孙权	-11961
科特	-11962
联手	-11963
颅骨	-11964
下一个	-11965
古罗马	-11966
遭到了	-11967
爱因斯坦	-11968
住了	-11969
民营	-11970
男爵	-11971
蔷薇	-11972
外国人	-11973
总编辑	-11974
位于中华人民共和国	-11975
▁→	-11976
六四	-11977
河水	-11978
sol	-11979
三部曲	-11980
节目的	-11981
每年平均降雨量	-11982
_8	-11983
▁孟	-11984
一提	-11985
伯克	-11986
储备	-11987
是第	-11988
汕头	-11989
法轮	-11990
硝酸	-11991
重创	-11992
市场的	-11993
座的一	-11994
投资者	-11995
拉丁文	-11996
不敌赛会	-11997
位于美国	-11998
东经	-11999
外形	-12000
离去	-12001
ipt	-12002
▁正德	-12003
▁该校	-12004
莱茵兰	-12005
oricon	-12006
救护	-12007
日元	-12008
海的	-12009
wan	-12010
▁对此	-12011
万年前	-12012
切尔尼	-12013
按察使	-12014
也对	-12015
打出	-12016
桥樑	-12017
界线	-12018
衰变	-12019
军队的	-12020
台北县	-12021
氧化物	-12022
被广泛	-12023
itch	-12024
的一个车站	-12025
个镇	-12026
参加过	-12027
布莱恩	-12028
经营的	-12029
皇子	-12030
设法	-12031
rol	-12032
供应商	-12033
威尔逊	-12034
机构的	-12035
综合性	-12036
拉脱维亚	-12037
刻意	-12038
总队	-12039
户外	-12040
母语	-12041
短篇	-12042
腾讯	-12043
550	-12044
top	-12045
布鲁克	-12046
之声	-12047
千年	-12048
ull	-12049
▁这场	-12050
发电机	-12051
最小的	-12052
架飞机	-12053
结束时	-12054
安门	-12055
的李	-12056
端点	-12057
聪明	-12058
隋朝	-12059
之后在	-12060
文学奖	-12061
新疆维吾尔	-12062
▁'	-12063
亚瑟	-12064
底层	-12065
90%	-12066
国家和	-12067
是一项	-12068
底层水域	-12069
行政区域	-12070
▁殿试登进士	-12071
▁京	-12072
唱歌	-12073
平息	-12074
底栖	-12075
的红	-12076
美人	-12077
霹雳	-12078
▁中共	-12079
▁列车	-12080
动力学	-12081
有两种	-12082
爱丁堡	-12083
的评价	-12084
亿元人民币	-12085
个县	-12086
出产	-12087
加冕	-12088
国营	-12089
婆罗	-12090
是非	-12091
确切	-12092
离散	-12093
阮福	-12094
年建成	-12095
洛伐克	-12096
的首府	-12097
被用于	-12098
的可能性	-12099
aa	-12100
多以	-12101
天才	-12102
派对	-12103
的服务	-12104
亲属	-12105
偏北	-12106
标注	-12107
竟然	-12108
饱和	-12109
斯塔夫	-12110
族自治县	-12111
委员会副主任	-12112
使徒	-12113
电铁	-12114
福斯	-12115
耗资	-12116
评分	-12117
曾经是	-12118
ella	-12119
▁1916	-12120
bu	-12121
以示	-12122
偏南	-12123
北大	-12124
推断	-12125
支出	-12126
极度	-12127
万欧元	-12128
年国际	-12129
理论上	-12130
的对象	-12131
的称号	-12132
▁act	-12133
所辖的一个村	-12134
不管	-12135
密歇	-12136
林的	-12137
比克	-12138
田中	-12139
瞬间	-12140
舰长	-12141
葬在	-12142
皇太后	-12143
dj	-12144
▁坎	-12145
为王	-12146
干旱	-12147
沙皇	-12148
王星	-12149
节省	-12150
就已	-12151
披露	-12152
章程	-12153
▁生于	-12154
密歇根	-12155
得票率	-12156
无论是	-12157
旅客列车	-12158
短期大学	-12159
▁牛	-12160
保健	-12161
只需	-12162
合计	-12163
蜿蜒	-12164
▁马克	-12165
捷克斯	-12166
规定的	-12167
党组书记	-12168
原属	-12169
开往	-12170
灯塔	-12171
目前已	-12172
科殿试	-12173
▁葛	-12174
与西	-12175
卡车	-12176
售卖	-12177
派兵	-12178
环状	-12179
邮票	-12180
小提琴	-12181
禾本科	-12182
经济学家	-12183
足球锦标赛	-12184
广为	-12185
作画	-12186
册封	-12187
尺度	-12188
底质	-12189
日时	-12190
部和	-12191
ily	-12192
oll	-12193
乌兹别	-12194
了一次	-12195
电视网	-12196
美国陆军	-12197
bn	-12198
法属	-12199
迪尔	-12200
镇的	-12201
陆上	-12202
自己在	-12203
国立台湾大学	-12204
栖息在底中层水域	-12205
僧侣	-12206
全食	-12207
哥拉	-12208
政法	-12209
林下	-12210
退伍	-12211
off	-12212
地球上	-12213
百分之	-12214
需要的	-12215
▁day	-12216
▁班	-12217
均由	-12218
教皇	-12219
有大	-12220
白宫	-12221
三角洲	-12222
以纪念	-12223
后成为	-12224
旅游业	-12225
交响乐团	-12226
距离首府	-12227
朝鲜民主主义人民共和国	-12228
▁先	-12229
敌方	-12230
街区	-12231
订单	-12232
ita	-12233
主要在	-12234
卡斯特	-12235
有一条	-12236
开始进行	-12237
三等	-12238
王府	-12239
ora	-12240
创立了	-12241
卡洛斯	-12242
的主力	-12243
规模的	-12244
orge	-12245
充当	-12246
光线	-12247
机上	-12248
构建	-12249
牌照	-12250
花了	-12251
雅图	-12252
tra	-12253
年大选	-12254
担任过	-12255
berg	-12256
职业足球	-12257
ey	-12258
住所	-12259
准则	-12260
告终	-12261
太保	-12262
年夏	-12263
赏识	-12264
因此被	-12265
年之前	-12266
这个词	-12267
政治协商会议	-12268
开了	-12269
怪兽	-12270
抛弃	-12271
指引	-12272
明清	-12273
紫色	-12274
gdp	-12275
不一定	-12276
石家庄	-12277
许多人	-12278
▁马来西亚	-12279
一枚	-12280
丰臣	-12281
勇敢	-12282
无意	-12283
编成	-12284
若望	-12285
转动	-12286
长者	-12287
▁该属	-12288
向他	-12289
突变	-12290
莎拉	-12291
见的	-12292
骚乱	-12293
121	-12294
塞克斯	-12295
巴布亚	-12296
日发布	-12297
珊瑚礁	-12298
二十九年	-12299
五位	-12300
会对	-12301
女生	-12302
溶解	-12303
灵活	-12304
朱元璋	-12305
第三个	-12306
张国	-12307
更在	-12308
自成	-12309
鱼目	-12310
▁越南	-12311
万港元	-12312
海军的	-12313
维生素	-12314
肯尼迪	-12315
哈尔科夫	-12316
刑法	-12317
报刊	-12318
效能	-12319
日月	-12320
比特	-12321
率的	-12322
big	-12323
与英国	-12324
人民党	-12325
劳伦斯	-12326
名司铎	-12327
显示出	-12328
不远	-12329
世家	-12330
仅为	-12331
优点	-12332
会使	-12333
帮忙	-12334
扰动	-12335
旁的	-12336
补选	-12337
10%	-12338
大教堂	-12339
高加索	-12340
八大	-12341
拳击	-12342
连胜	-12343
阿萨	-12344
但他们	-12345
犹太教	-12346
第一座	-12347
这就是	-12348
都是由	-12349
拉丁美洲	-12350
友人	-12351
戴维	-12352
新庄	-12353
阴阳	-12354
124	-12355
三个月	-12356
拥有的	-12357
了这	-12358
新宿	-12359
远远	-12360
众议员	-12361
reet	-12362
电视广播	-12363
联合国教科文	-12364
属下的一个植物种	-12365
与小	-12366
加油	-12367
华中	-12368
复旦	-12369
孤儿	-12370
尽量	-12371
斯拉	-12372
林根	-12373
腾堡	-12374
震惊	-12375
同位素	-12376
教育家	-12377
的运动	-12378
而无法	-12379
七世	-12380
区段	-12381
半年	-12382
座椅	-12383
手指	-12384
格局	-12385
现名	-12386
缓解	-12387
代表性	-12388
国内外	-12389
clude	-12390
台北市政府	-12391
▁games	-12392
df	-12393
上杉	-12394
割让	-12395
建交	-12396
的发	-12397
▁教区	-12398
东西向	-12399
公安局	-12400
决定在	-12401
坐落于	-12402
准决赛以	-12403
土司	-12404
奥托	-12405
提起	-12406
救出	-12407
日渐	-12408
清洗	-12409
结业	-12410
胡安	-12411
落入	-12412
钟楼	-12413
首次在	-12414
世界冠军	-12415
工程学院	-12416
,1999	-12417
ky	-12418
▁通	-12419
业主	-12420
冷战	-12421
单词	-12422
可梦	-12423
各方	-12424
女双	-12425
小心	-12426
平反	-12427
椭圆	-12428
永康	-12429
澄清	-12430
风俗	-12431
倾向于	-12432
将军衔	-12433
第三代	-12434
▁mon	-12435
世界纪录	-12436
淡水流域	-12437
▁生	-12438
丝绸	-12439
之神	-12440
也都	-12441
充足	-12442
公理	-12443
国人	-12444
声调	-12445
有趣	-12446
此种	-12447
牛斯	-12448
维特	-12449
西山	-12450
请愿	-12451
麦隆	-12452
的路线	-12453
运载火箭	-12454
海军陆战队	-12455
fi	-12456
▁设	-12457
克力	-12458
十个	-12459
寒冷	-12460
左岸	-12461
攻破	-12462
石勒	-12463
音速	-12464
住宅区	-12465
能够在	-12466
乌鲁木齐	-12467
hu	-12468
捕获	-12469
武功	-12470
电厂	-12471
缺席	-12472
西湖	-12473
▁26	-12474
的艺术	-12475
▁惠	-12476
字形	-12477
疏散	-12478
椭圆形	-12479
武汉市	-12480
的商业	-12481
只有一个	-12482
短篇小说	-12483
脊椎动物	-12484
回报	-12485
国庆	-12486
媒介	-12487
札幌	-12488
索瓦	-12489
远程	-12490
日平均	-12491
是目前	-12492
不停	-12493
墙壁	-12494
并从	-12495
物语	-12496
营地	-12497
釜山	-12498
高祖	-12499
737	-12500
sam	-12501
▁乔治	-12502
临时政府	-12503
巴塞罗那	-12504
不便	-12505
大赏	-12506
学中	-12507
格斗	-12508
跟踪	-12509
175	-12510
▁共有	-12511
教科书	-12512
的想法	-12513
为辐鳍鱼纲鲤	-12514
▁重	-12515
两栖	-12516
入场	-12517
地层	-12518
管弦	-12519
风波	-12520
▁依据	-12521
则表示	-12522
剧场版	-12523
的独立	-12524
press	-12525
北至	-12526
违背	-12527
归类为	-12528
一小	-12529
举例	-12530
同期	-12531
塔尼	-12532
折叠	-12533
梅克	-12534
线是	-12535
躲避	-12536
▁当年	-12537
运动会的	-12538
gp	-12539
会堂	-12540
多条	-12541
山水	-12542
bit	-12543
▁天津	-12544
事件后	-12545
函数的	-12546
第十四	-12547
者之一	-12548
塞特	-12549
宗的	-12550
格莱	-12551
组别	-12552
终端	-12553
辖下的	-12554
道格拉斯	-12555
▁尚	-12556
东晋	-12557
城中	-12558
"、"	-12559
机场的	-12560
马拉松	-12561
▁瑞	-12562
优良	-12563
低温	-12564
森的	-12565
王公	-12566
病患	-12567
科索	-12568
金正	-12569
rag	-12570
卡罗来	-12571
太阳能	-12572
才开始	-12573
争执	-12574
南美	-12575
地主	-12576
坐在	-12577
审计	-12578
并用	-12579
深远	-12580
白云	-12581
曾一度	-12582
有不同	-12583
交涉	-12584
介面	-12585
幸存	-12586
疑似	-12587
饥荒	-12588
伴随着	-12589
日成立	-12590
英国人	-12591
国民大会	-12592
当地居民	-12593
成员之一	-12594
nd	-12595
下层	-12596
仍旧	-12597
促成	-12598
保禄	-12599
无罪	-12600
流派	-12601
阐述	-12602
▁em	-12603
云林县	-12604
欧洲的	-12605
警察局	-12606
▁姚	-12607
威特	-12608
还能	-12609
会出现	-12610
科学与	-12611
这张专辑	-12612
行政中心为	-12613
第十一届全国政协委员	-12614
之歌	-12615
侦查	-12616
宫崎	-12617
把它	-12618
罗伊	-12619
部队的	-12620
▁entertainment	-12621
mt	-12622
不相	-12623
嘉定	-12624
坠毁	-12625
奥德	-12626
宫中	-12627
尔克	-12628
座的	-12629
沃伦	-12630
津贴	-12631
副总理	-12632
是非常	-12633
角色的	-12634
▁在日本	-12635
最古老的	-12636
香港大学	-12637
▁尽管如此	-12638
上与	-12639
亚的	-12640
伟大	-12641
加达	-12642
棉花	-12643
西域	-12644
做出了	-12645
制成的	-12646
的大量	-12647
的状况	-12648
ci	-12649
共振	-12650
养子	-12651
售出	-12652
常住	-12653
成份	-12654
斯堡	-12655
游玩	-12656
cap	-12657
大坂府	-12658
知识分子	-12659
一本	-12660
三天	-12661
也要	-12662
听众	-12663
和对	-12664
塑造	-12665
愿望	-12666
抚养	-12667
模范	-12668
港台	-12669
特律	-12670
▁另有	-12671
通过的	-12672
安东尼奥	-12673
阿塞拜疆	-12674
,1997	-12675
▁1915	-12676
lu	-12677
亚伯	-12678
功臣	-12679
护士	-12680
_13	-12681
▁从此	-12682
媒体的	-12683
▁新加坡	-12684
意识形态	-12685
▁1905	-12686
座的一颗恒星	-12687
一大	-12688
三峡	-12689
伴奏	-12690
季的	-12691
抢劫	-12692
揭发	-12693
活塞	-12694
gin	-12695
▁有时	-12696
个月的	-12697
公布了	-12698
所取代	-12699
第一期	-12700
职业篮球运动员	-12701
">	-12702
加来	-12703
嘉兴	-12704
在场	-12705
寺的	-12706
托克	-12707
提示	-12708
日对	-12709
藩主	-12710
都很	-12711
马哈	-12712
》,《	-12713
两人的	-12714
8000	-12715
对外开放	-12716
」「	-12717
写下	-12718
市立	-12719
海尔	-12720
涂装	-12721
650	-12722
」,「	-12723
的人员	-12724
的比例	-12725
阿仙奴	-12726
二十二年	-12727
william	-12728
无缘	-12729
朝日	-12730
爱荷	-12731
统筹	-12732
邻居	-12733
金陵	-12734
高潮	-12735
ble	-12736
必要的	-12737
费尔德	-12738
,1990	-12739
神圣罗马帝国	-12740
亚尔	-12741
京城	-12742
决战	-12743
并获	-12744
晋国	-12745
源头	-12746
杯冠军	-12747
歌剧院	-12748
1896	-12749
▁park	-12750
ru	-12751
一队	-12752
两天	-12753
镇江	-12754
等地的	-12755
而导致	-12756
新成立的	-12757
主委	-12758
凡尔	-12759
士官	-12760
奉行	-12761
字的	-12762
所述	-12763
月由	-12764
梅花	-12765
满族	-12766
表述	-12767
路与	-12768
降至	-12769
185	-12770
格丽特	-12771
则可	-12772
别于	-12773
头发	-12774
带的	-12775
氏族	-12776
▁事后	-12777
他开始	-12778
▁was	-12779
二十六年	-12780
有一定的	-12781
这部电影	-12782
▁十	-12783
不设	-12784
事项	-12785
则称	-12786
幼稚	-12787
用法	-12788
也因为	-12789
地球的	-12790
实现了	-12791
当中的	-12792
教育学院	-12793
是中华民国	-12794
书面	-12795
二八	-12796
护航	-12797
等国	-12798
▁贝尔	-12799
有以下	-12800
母亲是	-12801
▁eng	-12802
达成协议	-12803
▁紫	-12804
不起	-12805
假说	-12806
马赫	-12807
皇太子	-12808
类动物	-12809
1899	-12810
范围包括	-12811
nh	-12812
一举	-12813
前面	-12814
北道	-12815
右岸	-12816
启德	-12817
枪击	-12818
阻挡	-12819
鼓手	-12820
ior	-12821
kar	-12822
年代初期	-12823
是南极洲的海	-12824
▁湖	-12825
勃艮	-12826
所示	-12827
气流	-12828
汇入	-12829
失败后	-12830
生存于	-12831
研讨会	-12832
坑壁	-12833
拥护	-12834
消散	-12835
襄阳	-12836
西欧	-12837
大约是	-12838
沃尔夫	-12839
观察到	-12840
邻近的	-12841
报社	-12842
断裂	-12843
有利	-12844
盖尔	-12845
80%	-12846
▁</	-12847
▁[[	-12848
可能在	-12849
宇航员	-12850
下达	-12851
安人	-12852
tom	-12853
的日子	-12854
蒙古国	-12855
冠军联赛	-12856
波长	-12857
蜗牛	-12858
cat	-12859
委任为	-12860
的列车	-12861
自动化	-12862
族自治州	-12863
▁1903	-12864
▁绿	-12865
中超	-12866
屋邨	-12867
肖像	-12868
豪斯	-12869
院的	-12870
ado	-12871
优秀的	-12872
建筑群	-12873
▁net	-12874
文化中心	-12875
军事委员会	-12876
是乌克兰的城镇	-12877
判定	-12878
劝说	-12879
货车	-12880
▁永乐	-12881
史以来	-12882
弗雷德	-12883
超过了	-12884
首单曲	-12885
也于	-12886
傍晚	-12887
发性	-12888
发酵	-12889
喀什	-12890
巡视	-12891
弱的	-12892
洋行	-12893
王刘	-12894
立宪	-12895
144	-12896
出身的	-12897
包括在	-12898
是唯一	-12899
签署了	-12900
之弟	-12901
其所	-12902
始发	-12903
守门	-12904
时事	-12905
流行的	-12906
留学生	-12907
ford	-12908
公孙	-12909
官吏	-12910
当今	-12911
科举	-12912
人口约	-12913
线上的	-12914
牛津大学	-12915
厄瓜	-12916
命题	-12917
巴顿	-12918
机能	-12919
137	-12920
但最后	-12921
反应堆	-12922
地铁站	-12923
宝可梦	-12924
日进行	-12925
的战争	-12926
▁fran	-12927
克洛	-12928
去除	-12929
捍卫	-12930
苏拉	-12931
众多的	-12932
增加到	-12933
的宗教	-12934
的成功	-12935
比利牛斯	-12936
湖南卫视	-12937
马达加斯加	-12938
修女	-12939
克服	-12940
取胜	-12941
变体	-12942
听从	-12943
督察	-12944
vin	-12945
▁以及	-12946
一年后	-12947
民建联	-12948
的空间	-12949
篮球队	-12950
买下	-12951
取名	-12952
工事	-12953
教廷	-12954
终极	-12955
胜负	-12956
一个种	-12957
被授予	-12958
足球赛	-12959
中位数为	-12960
弗莱	-12961
白天	-12962
贞观	-12963
马可	-12964
应该是	-12965
的一属	-12966
的一支	-12967
超新星	-12968
▁历史上	-12969
剑桥大学	-12970
位于中国广东省	-12971
土库	-12972
感动	-12973
登辉	-12974
的遗	-12975
ben	-12976
▁当中	-12977
年代起	-12978
的小说	-12979
聚合物	-12980
有轨电车	-12981
3、	-12982
之位	-12983
优胜	-12984
名胜	-12985
塑胶	-12986
宣扬	-12987
当事	-12988
无数	-12989
次郎	-12990
泽民	-12991
魔鬼	-12992
同时在	-12993
特色的	-12994
表面的	-12995
偏东	-12996
特有	-12997
继母	-12998
▁100	-12999
▁第二次	-13000
自然科学	-13001
位处	-13002
吞并	-13003
带走	-13004
法则	-13005
渡过	-13006
滤波	-13007
濒危	-13008
ery	-13009
osa	-13010
▁自由	-13011
蒙古族	-13012
人道	-13013
变迁	-13014
女皇	-13015
残留	-13016
美式	-13017
预先	-13018
key	-13019
rat	-13020
的创作	-13021
研究会	-13022
组成了	-13023
羽毛球运动员	-13024
制裁	-13025
基准	-13026
增压	-13027
成像	-13028
看守	-13029
章节	-13030
趁机	-13031
两部分	-13032
拿破崙	-13033
文化和	-13034
并于同年	-13035
include	-13036
曾孙	-13037
西至	-13038
印度的	-13039
是一些	-13040
有一名	-13041
奥斯卡最佳	-13042
亦即	-13043
山庄	-13044
广岛	-13045
李克	-13046
▁今天	-13047
▁最早	-13048
半自动	-13049
年年底	-13050
能力的	-13051
詹姆士	-13052
ution	-13053
新疆维吾尔自治区	-13054
售价	-13055
挂牌	-13056
科普	-13057
里德	-13058
只剩下	-13059
机务段	-13060
特别的	-13061
天台	-13062
牙买	-13063
瑟琳	-13064
生子	-13065
驻军	-13066
▁同治	-13067
与他的	-13068
为纪念	-13069
向东北	-13070
州议会	-13071
西日本	-13072
中国古代	-13073
▁圆	-13074
切换	-13075
噪音	-13076
教士	-13077
暗中	-13078
领主	-13079
gam	-13080
不稳定	-13081
奠定了	-13082
开始时	-13083
java	-13084
购物中心	-13085
erson	-13086
下有	-13087
产权	-13088
修读	-13089
因在	-13090
图斯	-13091
塔的	-13092
降为	-13093
pat	-13094
是欧洲	-13095
更容易	-13096
的命令	-13097
主要用于	-13098
孟加拉国	-13099
▁主要分布于	-13100
张录音室专辑	-13101
2/	-13102
不好	-13103
平时	-13104
模组	-13105
氟化	-13106
边防	-13107
阿德	-13108
很好的	-13109
的管理	-13110
环境保护	-13111
▁陶	-13112
上限	-13113
家园	-13114
机体	-13115
而这	-13116
路由	-13117
年去世	-13118
当成	-13119
投靠	-13120
碳酸	-13121
该处	-13122
bas	-13123
▁公元	-13124
、、、	-13125
年创立	-13126
本哈根	-13127
辛普森	-13128
▁off	-13129
_9	-13130
五名	-13131
双人	-13132
开会	-13133
校内	-13134
波德	-13135
王氏	-13136
短的	-13137
站为	-13138
视角	-13139
长久	-13140
馆长	-13141
ear	-13142
丹尼士	-13143
奖得主	-13144
1880	-13145
▁毕业后	-13146
工业大学	-13147
两艘	-13148
六甲	-13149
北非	-13150
春季	-13151
比分	-13152
观的	-13153
会造成	-13154
不堪	-13155
妥协	-13156
帝王	-13157
抢救	-13158
首轮	-13159
ump	-13160
▁||	-13161
总教练	-13162
作业系统	-13163
叔父	-13164
喷发	-13165
巨型	-13166
扳机	-13167
▁风暴	-13168
也不会	-13169
曾参与	-13170
证明了	-13171
明尼苏达	-13172
3:	-13173
zo	-13174
三项	-13175
丽鱼	-13176
党魁	-13177
公厘	-13178
及第	-13179
巴林	-13180
方位	-13181
无所	-13182
海啸	-13183
马的	-13184
165	-13185
即位后	-13186
的教育	-13187
的风险	-13188
哥本哈根	-13189
年出生于	-13190
同情	-13191
启蒙	-13192
常侍	-13193
条文	-13194
来台	-13195
说道	-13196
锦赛	-13197
中担任	-13198
回国后	-13199
回忆录	-13200
地马拉	-13201
年在位	-13202
挑战赛	-13203
斯巴达	-13204
▁历	-13205
内侧	-13206
划为	-13207
厨房	-13208
打印	-13209
服用	-13210
水师	-13211
流星	-13212
相望	-13213
营销	-13214
设的	-13215
国内的	-13216
淘汰赛	-13217
玛利亚	-13218
该组织	-13219
▁chan	-13220
桥镇	-13221
流失	-13222
童年	-13223
老汇	-13224
迎战	-13225
八达通	-13226
性质的	-13227
网站上	-13228
上班	-13229
不肯	-13230
南南	-13231
新罗	-13232
当地人	-13233
的原则	-13234
▁头	-13235
与王	-13236
中西	-13237
外表	-13238
词语	-13239
辛格	-13240
作出了	-13241
的东西	-13242
集团公司	-13243
牵引电动机	-13244
ns	-13245
▁异	-13246
器材	-13247
失效	-13248
汉书	-13249
游说	-13250
腹足	-13251
车票	-13252
锅炉	-13253
魅力	-13254
制造业	-13255
打破了	-13256
观测到	-13257
通常在	-13258
▁汪	-13259
三段	-13260
凯撒	-13261
到场	-13262
有点	-13263
机翼	-13264
枪托	-13265
的本	-13266
米特	-13267
东正教	-13268
没有被	-13269
有不同的	-13270
县的一个人口普查指定地区	-13271
▁international	-13272
升班	-13273
单人	-13274
宝贝	-13275
我是	-13276
触发	-13277
转让	-13278
露天	-13279
▁40	-13280
交响曲	-13281
交通局	-13282
对他的	-13283
志愿军	-13284
第十八	-13285
富兰克林	-13286
台湾总督府	-13287
▁薛	-13288
一款	-13289
与陈	-13290
中型	-13291
中外	-13292
化和	-13293
少于	-13294
开出	-13295
开拍	-13296
用语	-13297
精度	-13298
▁代表	-13299
单行本	-13300
可以让	-13301
第一家	-13302
曼彻斯特	-13303
,2019	-13304
▁菲	-13305
公使	-13306
军民	-13307
北朝	-13308
摩天	-13309
文库	-13310
日前	-13311
横向	-13312
滥用	-13313
线在	-13314
龙山	-13315
的一款	-13316
的象征	-13317
神学院	-13318
上市公司	-13319
▁星	-13320
一下	-13321
不分	-13322
不顾	-13323
塔利	-13324
拉里	-13325
效忠	-13326
派员	-13327
测定	-13328
海豚	-13329
百馀	-13330
门票	-13331
177	-13332
res	-13333
▁来自	-13334
产品的	-13335
功能的	-13336
的风格	-13337
电影公司	-13338
修理	-13339
准许	-13340
叶子	-13341
官僚	-13342
通风	-13343
黑白	-13344
html	-13345
研究人员	-13346
现在效力于	-13347
仅存	-13348
出击	-13349
动荡	-13350
四次	-13351
少林	-13352
战功	-13353
是前	-13354
特曼	-13355
贯通	-13356
支持的	-13357
教育局	-13358
的最后	-13359
形成一个	-13360
控股有限公司	-13361
▁几	-13362
对决	-13363
征讨	-13364
是要	-13365
汉文	-13366
渴望	-13367
16,	-13368
▁没有	-13369
和国际	-13370
的同名	-13371
附加赛	-13372
▁mat	-13373
twitter	-13374
▁〈	-13375
三分	-13376
之作	-13377
法制	-13378
甲午	-13379
获选	-13380
衙门	-13381
边区	-13382
158	-13383
人民的	-13384
降水量	-13385
7000	-13386
inst	-13387
一并	-13388
山本	-13389
才被	-13390
生死	-13391
的那	-13392
老鼠	-13393
ret	-13394
人民军	-13395
和香港	-13396
必须要	-13397
的一半	-13398
皮埃尔	-13399
下水	-13400
个村	-13401
保有	-13402
天国	-13403
木儿	-13404
柔道	-13405
棕色	-13406
猜测	-13407
耶鲁	-13408
读音	-13409
鞑靼	-13410
持续到	-13411
的部队	-13412
▁克里斯	-13413
平均气温	-13414
绝大部分	-13415
捷克斯洛伐克	-13416
中区	-13417
为正	-13418
基部	-13419
收看	-13420
部族	-13421
马恩	-13422
ama	-13423
名学生	-13424
的岛屿	-13425
认定为	-13426
两边	-13427
之王	-13428
反叛	-13429
干达	-13430
▁pa	-13431
了很多	-13432
和一些	-13433
巴比伦	-13434
的一级	-13435
1889	-13436
可以得到	-13437
大学校长	-13438
这个名字	-13439
社会科学院	-13440
为辐鳍鱼纲鲈形目隆头	-13441
不像	-13442
产于	-13443
兴奋	-13444
军营	-13445
劳斯	-13446
在台	-13447
接力	-13448
数以	-13449
日出	-13450
石碑	-13451
公布的	-13452
萨尔瓦	-13453
type	-13454
可以追溯到	-13455
婚后	-13456
现行	-13457
罗尔	-13458
降水	-13459
陵墓	-13460
颇为	-13461
▁双方	-13462
基米尔	-13463
并通过	-13464
底特律	-13465
残疾人	-13466
▁bro	-13467
那不勒斯	-13468
联合国教科文组织	-13469
▁雪	-13470
事先	-13471
内核	-13472
才有	-13473
该年	-13474
1860	-13475
▁其下辖	-13476
sg	-13477
佛像	-13478
叙事	-13479
哈密	-13480
在被	-13481
奏曲	-13482
港的	-13483
露出	-13484
主义和	-13485
▁pol	-13486
有限责任	-13487
东吴	-13488
主线	-13489
乌兰	-13490
仙女	-13491
司空	-13492
唐纳	-13493
招标	-13494
校址	-13495
河上	-13496
urs	-13497
文尼亚	-13498
▁西班牙	-13499
▁分	-13500
三菱	-13501
仆射	-13502
手动	-13503
日及	-13504
热烈	-13505
里士	-13506
225	-13507
了大量	-13508
布鲁斯	-13509
恢复了	-13510
有名的	-13511
1897	-13512
fm	-13513
上奏	-13514
作法	-13515
剪辑	-13516
库斯	-13517
时光	-13518
申报	-13519
英冠	-13520
阳明	-13521
15,	-13522
▁该剧	-13523
勃艮第	-13524
是使用	-13525
▁左	-13526
两场	-13527
年级	-13528
救济	-13529
方济	-13530
日为	-13531
mad	-13532
pop	-13533
▁咸丰	-13534
两年后	-13535
司司长	-13536
市辖区	-13537
师师长	-13538
1400	-13539
为辐鳍鱼纲鲈形目隆头鱼亚目	-13540
三座	-13541
停泊	-13542
奇异	-13543
开支	-13544
很小	-13545
驳回	-13546
20%	-13547
urt	-13548
▁lo	-13549
系教授	-13550
阿卜杜	-13551
资产阶级	-13552
与南	-13553
城乡	-13554
安纳	-13555
投身	-13556
百强	-13557
莫斯	-13558
负于	-13559
轮胎	-13560
▁80	-13561
主演的	-13562
女性的	-13563
自由的	-13564
县的一个市镇	-13565
科的其中一个种	-13566
一律	-13567
人质	-13568
以一	-13569
兴盛	-13570
厌恶	-13571
口的	-13572
迹象	-13573
tor	-13574
▁九龙	-13575
▁路	-13576
奥匈	-13577
由其	-13578
调用	-13579
配有	-13580
博物院	-13581
并认为	-13582
心脏病	-13583
闽南语	-13584
ross	-13585
列举	-13586
发光	-13587
喷泉	-13588
追加	-13589
公布为	-13590
区域的	-13591
年赛季	-13592
西部的	-13593
逝世后	-13594
市委书记	-13595
▁john	-13596
▁award	-13597
东德	-13598
保密	-13599
制订	-13600
卖给	-13601
叛变	-13602
士气	-13603
归于	-13604
文人	-13605
星团	-13606
麻省	-13607
▁htt	-13608
新几内亚	-13609
叔叔	-13610
器和	-13611
所杀	-13612
数年	-13613
施政	-13614
权限	-13615
流感	-13616
管治	-13617
陀罗	-13618
由日本	-13619
音乐人	-13620
game	-13621
love	-13622
pp	-13623
但它	-13624
停播	-13625
光碟	-13626
受命	-13627
和圣	-13628
宾馆	-13629
小队	-13630
就以	-13631
战乱	-13632
抓住	-13633
有名	-13634
燃油	-13635
租赁	-13636
缓冲	-13637
老年	-13638
近海	-13639
阿基	-13640
、12	-13641
和经济	-13642
定名为	-13643
缘关系	-13644
自身的	-13645
已经成为	-13646
日常生活	-13647
ju	-13648
▁银	-13649
字样	-13650
对峙	-13651
尼察	-13652
斩首	-13653
标语	-13654
访谈	-13655
位置是	-13656
很高的	-13657
▁川	-13658
出国	-13659
千代	-13660
和尚	-13661
未婚	-13662
爬行	-13663
相差	-13664
给定	-13665
自传	-13666
马特	-13667
▁li	-13668
十字架	-13669
宜兰县	-13670
布里斯	-13671
次会议	-13672
波利斯	-13673
长度为	-13674
放入	-13675
联同	-13676
车祸	-13677
鲁迅	-13678
圣诞节	-13679
有时候	-13680
细胞的	-13681
open	-13682
日在美国	-13683
上学	-13684
东尼	-13685
便在	-13686
公认	-13687
实数	-13688
宪章	-13689
无机	-13690
月亮	-13691
流的	-13692
浪费	-13693
满分	-13694
致死	-13695
蕨科	-13696
链接	-13697
max	-13698
二十厅	-13699
亚运会	-13700
诺维奇	-13701
一向	-13702
拉拉	-13703
烟草	-13704
瓦兹	-13705
落选	-13706
133	-13707
mit	-13708
一带的	-13709
工程院	-13710
活动中	-13711
年出版的	-13712
gy	-13713
德温	-13714
杆菌	-13715
病例	-13716
▁二战	-13717
哥尔摩	-13718
奥尔良	-13719
因为他们	-13720
社会主义共和国	-13721
一女	-13722
关西	-13723
凤山	-13724
塔特	-13725
实录	-13726
嵌入	-13727
枪机	-13728
渔民	-13729
烟台	-13730
米尼	-13731
_10	-13732
med	-13733
尔斯克	-13734
信讬	-13735
傀儡	-13736
兼职	-13737
右手	-13738
德在	-13739
残酷	-13740
瓦夫	-13741
祭司	-13742
语族	-13743
214	-13744
开始对	-13745
游戏机	-13746
irst	-13747
万里	-13748
普斯	-13749
残馀	-13750
现身	-13751
茶叶	-13752
▁dr	-13753
史上最	-13754
讲述了	-13755
厚度	-13756
地说	-13757
布列	-13758
开普	-13759
昆士	-13760
骨头	-13761
▁警方	-13762
、18	-13763
不规则	-13764
反映了	-13765
大会上	-13766
ball	-13767
战国时代	-13768
哥伦比亚大学	-13769
夫区负责管辖	-13770
他从	-13771
休閒	-13772
到访	-13773
千里	-13774
有其	-13775
本国	-13776
议案	-13777
阴道	-13778
顶端	-13779
iew	-13780
nat	-13781
平台上	-13782
新技术	-13783
源自于	-13784
的人数	-13785
年有教友	-13786
提供服务	-13787
▁亚历山大	-13788
robert	-13789
下行	-13790
人格	-13791
伯明	-13792
元的	-13793
和李	-13794
商船	-13795
大脑	-13796
巨蛋	-13797
承办	-13798
激战	-13799
琉璃	-13800
精通	-13801
轮流	-13802
▁彼得	-13803
在韩国	-13804
百老汇	-13805
三分之一	-13806
可以用来	-13807
第十二届全国人民代表大会	-13808
sr	-13809
▁回	-13810
九个	-13811
勒姆	-13812
搜查	-13813
祖师	-13814
神奇	-13815
街的	-13816
mont	-13817
今河南省	-13818
其他地区	-13819
ritic	-13820
▁迈	-13821
他就	-13822
入伍	-13823
商讨	-13824
复原	-13825
年曾	-13826
效益	-13827
罹患	-13828
金字	-13829
高棉	-13830
了一项	-13831
其名称	-13832
库尔德	-13833
签订了	-13834
所产生的	-13835
irect	-13836
▁义	-13837
各州	-13838
材质	-13839
榜首	-13840
波的	-13841
现址	-13842
:45	-13843
cor	-13844
卫星坑	-13845
在同一	-13846
年出任	-13847
翻译成	-13848
运动场	-13849
错误的	-13850
座的一个	-13851
▁个	-13852
▁超	-13853
人及	-13854
但她	-13855
华视	-13856
天花	-13857
太太	-13858
存放	-13859
宪兵	-13860
无可	-13861
格利	-13862
煽动	-13863
种的	-13864
▁明治	-13865
▁曾经	-13866
分组赛	-13867
第二任	-13868
红色的	-13869
占总人口	-13870
马萨诸塞	-13871
▁且	-13872
世子	-13873
兵库	-13874
往后	-13875
用水	-13876
着陆	-13877
究竟	-13878
麻烦	-13879
cpu	-13880
▁事件	-13881
摩托车	-13882
他的父亲	-13883
不适	-13884
东山	-13885
低音	-13886
值的	-13887
后任	-13888
沦陷	-13889
球的	-13890
纵贯	-13891
韦伯	-13892
只有在	-13893
资格赛	-13894
,1996	-13895
刘邦	-13896
千户	-13897
广阔	-13898
永安	-13899
解剖	-13900
▁du	-13901
不足以	-13902
和法国	-13903
大满贯	-13904
教育的	-13905
ange	-13906
raph	-13907
><	-13908
凯尔	-13909
四季	-13910
国产	-13911
声援	-13912
小田	-13913
部将	-13914
▁大卫	-13915
不包括	-13916
于是在	-13917
有时会	-13918
亚特兰大	-13919
nt	-13920
埃斯	-13921
天鹅	-13922
投奔	-13923
揭幕	-13924
搞笑	-13925
温州	-13926
股价	-13927
舒适	-13928
▁有关	-13929
、11	-13930
东部的	-13931
摩泽尔	-13932
undam	-13933
一国	-13934
不出	-13935
制药	-13936
增多	-13937
杂交	-13938
片头	-13939
街庄	-13940
诺克	-13941
138	-13942
ney	-13943
却没有	-13944
所罗门	-13945
的地理	-13946
▁del	-13947
▁镇	-13948
三间	-13949
不必	-13950
将由	-13951
短缺	-13952
矮星	-13953
票数	-13954
约合	-13955
酿酒	-13956
在伦敦	-13957
鲈亚目	-13958
▁相较于	-13959
属的鱼类	-13960
估算	-13961
凯莉	-13962
出血	-13963
勇气	-13964
卡片	-13965
市和	-13966
承袭	-13967
捷尔	-13968
禁令	-13969
跳舞	-13970
fox	-13971
的原始	-13972
需要在	-13973
空中照片绘入地图	-13974
及大	-13975
大怒	-13976
惨重	-13977
甚么	-13978
136	-13979
152	-13980
再一次	-13981
小时候	-13982
西西里	-13983
设置了	-13984
michael	-13985
分治	-13986
希德	-13987
武警	-13988
派驻	-13989
热情	-13990
重心	-13991
ada	-13992
mot	-13993
创办了	-13994
bill	-13995
但实际上	-13996
』。	-13997
乘降	-13998
免于	-13999
化身	-14000
占有	-14001
州际	-14002
平章	-14003
波动	-14004
劳动党	-14005
的限制	-14006
而没有	-14007
其他国家	-14008
加来海峡	-14009
中全	-14010
优质	-14011
卢瓦	-14012
尾鳍	-14013
屡次	-14014
手上	-14015
硬体	-14016
续作	-14017
论证	-14018
迁都	-14019
门户	-14020
▁及后	-14021
▁至此	-14022
造船厂	-14023
会所	-14024
加大	-14025
所说	-14026
芭蕾	-14027
麦当	-14028
ety	-14029
代牧区	-14030
包括有	-14031
同盟会	-14032
正式宣布	-14033
百科全书	-14034
ection	-14035
反驳	-14036
同行	-14037
奥兰	-14038
实的	-14039
布林	-14040
引致	-14041
葫芦	-14042
龙门	-14043
▁50	-14044
区所属	-14045
将成为	-14046
cv	-14047
伦特	-14048
伪造	-14049
员的	-14050
将它	-14051
担忧	-14052
散骑	-14053
罗汉	-14054
额为	-14055
一连串	-14056
以避免	-14057
台湾人	-14058
执导的	-14059
俄亥俄州	-14060
下滑	-14061
安南	-14062
接见	-14063
洲际	-14064
游记	-14065
纵向	-14066
菲亚	-14067
跨国	-14068
跳跃	-14069
可通过	-14070
意义的	-14071
的长子	-14072
青年团	-14073
1870	-14074
是位于日本	-14075
▁临	-14076
后转	-14077
土星	-14078
帕特	-14079
手册	-14080
植被	-14081
独家	-14082
素的	-14083
顶尖	-14084
二十八	-14085
在一些	-14086
铁路线	-14087
中国铁路	-14088
动量	-14089
卡纳	-14090
又是	-14091
哈迈	-14092
时曾	-14093
极力	-14094
神宗	-14095
荷马	-14096
进度	-14097
元素的	-14098
凯尔特	-14099
半决赛	-14100
语言学	-14101
ific	-14102
inal	-14103
几乎没有	-14104
▁1910	-14105
ee	-14106
可被	-14107
家和	-14108
山下	-14109
指派	-14110
提早	-14111
讚赏	-14112
静冈	-14113
首场	-14114
301	-14115
dan	-14116
war	-14117
外国语	-14118
大致以	-14119
市场上	-14120
很可能	-14121
星期六	-14122
符腾堡	-14123
该道路	-14124
所致	-14125
政坛	-14126
睡眠	-14127
缩减	-14128
阿曼	-14129
atp	-14130
尽可能	-14131
年落成	-14132
英文名	-14133
表示为	-14134
被命名为	-14135
ensis	-14136
▁朗	-14137
交替	-14138
伯尔	-14139
山南	-14140
引爆	-14141
渠道	-14142
稻田	-14143
巴洛克	-14144
cast	-14145
gory	-14146
▁连	-14147
内心	-14148
小项	-14149
康复	-14150
河镇	-14151
自立	-14152
154	-14153
▁司马	-14154
与香港	-14155
中发现	-14156
重大的	-14157
科学研究	-14158
野生动物	-14159
duction	-14160
东非	-14161
凯特	-14162
出面	-14163
特快	-14164
贝利	-14165
13,	-14166
▁22	-14167
▁全国	-14168
司令官	-14169
期间的	-14170
现代的	-14171
布鲁克林	-14172
▁文化大革命	-14173
忽视	-14174
怎样	-14175
普选	-14176
矿产	-14177
胞胎	-14178
鱼的	-14179
▁保罗	-14180
今日的	-14181
以至于	-14182
大都会	-14183
▁当时的	-14184
时设置的	-14185
达科他州	-14186
最高点海拔高度	-14187
大国	-14188
提拔	-14189
日向	-14190
遣使	-14191
军政府	-14192
所以在	-14193
显示器	-14194
omas	-14195
的面积为	-14196
▁赖	-14197
侵入	-14198
南阳	-14199
同胞	-14200
在职	-14201
帝汶	-14202
按钮	-14203
水区	-14204
牛肉	-14205
玉环	-14206
营利	-14207
近亲	-14208
高兴	-14209
一年的	-14210
运动中	-14211
part	-14212
个行政村	-14213
天主教徒	-14214
1,500	-14215
阿姆斯特丹	-14216
一篇	-14217
介质	-14218
倒数	-14219
渡轮	-14220
火药	-14221
署长	-14222
跳水	-14223
送至	-14224
148	-14225
是越南	-14226
称其为	-14227
声誉	-14228
年均	-14229
库容	-14230
站前	-14231
随意	-14232
销售量	-14233
▁本列表	-14234
▁该公司	-14235
,1995	-14236
▁列	-14237
▁官	-14238
后半	-14239
姑娘	-14240
实时	-14241
将士	-14242
慢性	-14243
积累	-14244
而行	-14245
雇佣	-14246
205	-14247
▁县名	-14248
不符合	-14249
文化部	-14250
db	-14251
侧面	-14252
值为	-14253
后便	-14254
家督	-14255
排水	-14256
春节	-14257
月和	-14258
米拉	-14259
步兵师	-14260
空间的	-14261
▁该组织	-14262
三司	-14263
压倒	-14264
宫内	-14265
深的	-14266
舍人	-14267
路士	-14268
达尼	-14269
预赛	-14270
餐馆	-14271
mel	-14272
周围的	-14273
ista	-14274
历史悠久	-14275
克特	-14276
减低	-14277
外型	-14278
环流	-14279
知州	-14280
突围	-14281
英皇	-14282
闯入	-14283
17,	-14284
反对党	-14285
并设有	-14286
unes	-14287
▁然而在	-14288
▁顾	-14289
中都	-14290
修士	-14291
导向	-14292
少卿	-14293
州区	-14294
提亚	-14295
次长	-14296
滋病	-14297
词典	-14298
安全的	-14299
定义的	-14300
牙买加	-14301
1894	-14302
ville	-14303
gt	-14304
乙烯	-14305
旅长	-14306
晋身	-14307
牛奶	-14308
荣耀	-14309
340	-14310
到美国	-14311
新闻台	-14312
等职务	-14313
足协杯	-14314
布鲁塞尔	-14315
进一步的	-14316
俄罗斯联邦	-14317
新娘	-14318
纪委	-14319
总主教	-14320
的主角	-14321
under	-14322
▁区	-14323
也让	-14324
于其	-14325
停战	-14326
全权	-14327
兰科	-14328
周六	-14329
榜上	-14330
狭义	-14331
相接	-14332
而他	-14333
自卫	-14334
血压	-14335
什维克	-14336
分钟内	-14337
各样的	-14338
太空船	-14339
常栖息在	-14340
▁中国大陆	-14341
acritic	-14342
▁该市镇总面积平方公里	-14343
上尉	-14344
以内	-14345
信件	-14346
期为	-14347
欧亚	-14348
比安	-14349
自幼	-14350
sen	-14351
▁某些	-14352
作品有	-14353
发射器	-14354
法轮功	-14355
特有的	-14356
吉尔吉斯	-14357
电视频道	-14358
主修	-14359
八一	-14360
大中	-14361
底下	-14362
称讚	-14363
行经	-14364
www	-14365
年英国	-14366
核武器	-14367
起来的	-14368
化学式为	-14369
▁techn	-14370
▁早	-14371
力士	-14372
巴巴	-14373
开关	-14374
开口	-14375
最强	-14376
河中	-14377
纬度	-14378
行军	-14379
都由	-14380
钢筋	-14381
18,	-14382
▁面对	-14383
曾进入	-14384
的能量	-14385
蒋经国	-14386
▁boy	-14387
伊利诺伊	-14388
的主题曲	-14389
年区议会选举	-14390
▁已	-14391
交配	-14392
公信	-14393
支柱	-14394
文集	-14395
畜牧	-14396
目睹	-14397
营救	-14398
高斯	-14399
差不多	-14400
改称为	-14401
资料库	-14402
▁第一次	-14403
世纪中叶	-14404
mw	-14405
偏向	-14406
加剧	-14407
圣人	-14408
赛后	-14409
ura	-14410
坐落在	-14411
的小型	-14412
第三届	-14413
颁奖礼	-14414
漫画作品	-14415
▁中国人民解放军	-14416
▁°	-14417
刚好	-14418
和多	-14419
手的	-14420
拥立	-14421
糖尿	-14422
考生	-14423
雅克	-14424
驾崩	-14425
lor	-14426
▁亨利	-14427
的产品	-14428
采用的	-14429
商业银行	-14430
两台	-14431
丰田	-14432
切割	-14433
南山	-14434
向下	-14435
坟墓	-14436
民居	-14437
神明	-14438
诊所	-14439
黎世	-14440
▁她是	-14441
alex	-14442
▁tour	-14443
卡塔	-14444
授课	-14445
试剂	-14446
喀麦隆	-14447
常见于	-14448
成都市	-14449
设计了	-14450
ated	-14451
分拆	-14452
城隍	-14453
处置	-14454
大专	-14455
应急	-14456
机密	-14457
社的	-14458
莉莎	-14459
解读	-14460
败于	-14461
香山	-14462
高桥	-14463
156	-14464
协会的	-14465
国防军	-14466
收录在	-14467
数量的	-14468
新竹县	-14469
每年的	-14470
ates	-14471
大学学习	-14472
客运专线	-14473
空军基地	-14474
▁傅	-14475
三省	-14476
上课	-14477
东征	-14478
二个	-14479
卡洛	-14480
启示	-14481
商议	-14482
坚守	-14483
尊敬	-14484
红白	-14485
美尔	-14486
美联	-14487
遗憾	-14488
年台湾	-14489
的方向	-14490
竞技场	-14491
个居民点	-14492
三郎	-14493
交所	-14494
伊达	-14495
勇者	-14496
南县	-14497
吉思	-14498
处以	-14499
施加	-14500
配偶	-14501
基因组	-14502
年改为	-14503
提高了	-14504
!!	-14505
▁女	-14506
▁程	-14507
传授	-14508
并发	-14509
曾以	-14510
视作	-14511
谋反	-14512
领军	-14513
_14	-14514
中提到	-14515
以后的	-14516
年毕业	-14517
至今仍	-14518
转移至	-14519
▁公元前	-14520
召回	-14521
周五	-14522
围墙	-14523
平日	-14524
指称	-14525
斐济	-14526
认真	-14527
预选	-14528
中扮演	-14529
嘉义县	-14530
在一次	-14531
微生物	-14532
目前的	-14533
英联邦	-14534
个人专辑	-14535
大韩民国	-14536
格拉斯哥	-14537
州所辖的一个村	-14538
▁飞	-14539
上疏	-14540
为妻	-14541
乙酸	-14542
做到	-14543
农田	-14544
击溃	-14545
原定	-14546
奇怪	-14547
德萨	-14548
童话	-14549
通商	-14550
人员的	-14551
奥委会	-14552
屏东县	-14553
托尔金	-14554
探险家	-14555
副司令员	-14556
当中包括	-14557
鲷科的其中一种	-14558
世祖	-14559
取了	-14560
多有	-14561
孢子	-14562
廉价	-14563
是全	-14564
晤士	-14565
汉中	-14566
混音	-14567
百分	-14568
花序	-14569
贿赂	-14570
雨量	-14571
_11	-14572
▁fe	-14573
▁小说	-14574
二十五	-14575
大型的	-14576
学研究	-14577
的颜色	-14578
only	-14579
省的一个	-14580
,1993	-14581
▁在此期间	-14582
▁出	-14583
博客	-14584
境外	-14585
拉赫	-14586
日因	-14587
私下	-14588
说他	-14589
osh	-14590
巴尔干	-14591
并不能	-14592
郡太守	-14593
1300	-14594
▁但是在	-14595
世界排名	-14596
普林斯顿	-14597
众议院议员	-14598
▁数	-14599
与张	-14600
午夜	-14601
基的	-14602
激活	-14603
特权	-14604
长征	-14605
陵县	-14606
之类的	-14607
延伸到	-14608
建立于	-14609
球队在	-14610
最主要的	-14611
宾夕法尼亚州	-14612
但该	-14613
客人	-14614
时至	-14615
表扬	-14616
isa	-14617
佛罗伦	-14618
胜利后	-14619
北爱尔兰	-14620
达赖喇嘛	-14621
▁japan	-14622
有限责任公司	-14623
群岛的一部分	-14624
会和	-14625
拉汉	-14626
樱花	-14627
武侠	-14628
瓦尼	-14629
甲烷	-14630
米德	-14631
sun	-14632
具体的	-14633
号线的	-14634
第二天	-14635
都督府	-14636
,1994	-14637
▁其下辖有	-14638
▁compan	-14639
偏食	-14640
和海	-14641
回去	-14642
夸克	-14643
,	-14644
▁	-14645
的	-14646
。	-14647
1	-14648
0	-14649
年	-14650
2	-14651
、	-14652
在	-14653
一	-14654
为	-14655
9	-14656
中	-14657
是	-14658
国	-14659
人	-14660
a	-14661
于	-14662
e	-14663
大	-14664
有	-14665
3	-14666
和	-14667
5	-14668
i	-14669
8	-14670
o	-14671
以	-14672
r	-14673
4	-14674
月	-14675
n	-14676
日	-14677
6	-14678
后	-14679
7	-14680
了	-14681
学	-14682
t	-14683
s	-14684
时	-14685
个	-14686
会	-14687
地	-14688
成	-14689
上	-14690
公	-14691
不	-14692
l	-14693
出	-14694
行	-14695
他	-14696
部	-14697
斯	-14698
与	-14699
区	-14700
之	-14701
c	-14702
名	-14703
发	-14704
其	-14705
主	-14706
作	-14707
生	-14708
尔	-14709
分	-14710
方	-14711
m	-14712
到	-14713
用	-14714
下	-14715
西	-14716
第	-14717
:	-14718
》	-14719
《	-14720
而	-14721
家	-14722
位	-14723
及	-14724
军	-14725
由	-14726
d	-14727
h	-14728
里	-14729
并	-14730
被	-14731
民	-14732
本	-14733
法	-14734
南	-14735
市	-14736
·	-14737
这	-14738
长	-14739
来	-14740
同	-14741
u	-14742
可	-14743
多	-14744
政	-14745
对	-14746
子	-14747
自	-14748
动	-14749
任	-14750
开	-14751
特	-14752
文	-14753
北	-14754
高	-14755
「	-14756
」	-14757
加	-14758
德	-14759
新	-14760
员	-14761
东	-14762
最	-14763
海	-14764
台	-14765
克	-14766
亚	-14767
代	-14768
前	-14769
也	-14770
利	-14771
平	-14772
等	-14773
所	-14774
p	-14775
面	-14776
三	-14777
度	-14778
电	-14779
因	-14780
美	-14781
建	-14782
经	-14783
得	-14784
此	-14785
道	-14786
现	-14787
物	-14788
进	-14789
“	-14790
过	-14791
要	-14792
机	-14793
间	-14794
内	-14795
b	-14796
事	-14797
g	-14798
至	-14799
教	-14800
山	-14801
立	-14802
路	-14803
车	-14804
当	-14805
拉	-14806
小	-14807
入	-14808
口	-14809
将	-14810
体	-14811
战	-14812
能	-14813
世	-14814
二	-14815
理	-14816
工	-14817
该	-14818
合	-14819
州	-14820
表	-14821
外	-14822
定	-14823
马	-14824
期	-14825
天	-14826
赛	-14827
业	-14828
制	-14829
化	-14830
但	-14831
科	-14832
十	-14833
球	-14834
种	-14835
次	-14836
使	-14837
全	-14838
;	-14839
布	-14840
通	-14841
场	-14842
称	-14843
性	-14844
队	-14845
线	-14846
者	-14847
f	-14848
共	-14849
总	-14850
设	-14851
县	-14852
式	-14853
数	-14854
重	-14855
系	-14856
罗	-14857
都	-14858
两	-14859
安	-14860
力	-14861
士	-14862
联	-14863
"	-14864
站	-14865
院	-14866
比	-14867
原	-14868
基	-14869
相	-14870
城	-14871
达	-14872
王	-14873
运	-14874
明	-14875
省	-14876
米	-14877
属	-14878
目	-14879
司	-14880
水	-14881
英	-14882
治	-14883
正	-14884
金	-14885
尼	-14886
华	-14887
格	-14888
号	-14889
府	-14890
k	-14891
统	-14892
关	-14893
组	-14894
约	-14895
兰	-14896
选	-14897
们	-14898
镇	-14899
或	-14900
四	-14901
列	-14902
如	-14903
计	-14904
港	-14905
元	-14906
影	-14907
y	-14908
起	-14909
巴	-14910
从	-14911
语	-14912
产	-14913
首	-14914
女	-14915
提	-14916
常	-14917
星	-14918
阿	-14919
改	-14920
演	-14921
林	-14922
v	-14923
议	-14924
心	-14925
量	-14926
向	-14927
然	-14928
接	-14929
乐	-14930
就	-14931
始	-14932
务	-14933
实	-14934
无	-14935
书	-14936
界	-14937
w	-14938
参	-14939
级	-14940
意	-14941
曾	-14942
则	-14943
义	-14944
委	-14945
广	-14946
管	-14947
受	-14948
手	-14949
单	-14950
程	-14951
指	-14952
视	-14953
说	-14954
交	-14955
卡	-14956
色	-14957
团	-14958
河	-14959
保	-14960
形	-14961
包	-14962
门	-14963
维	-14964
结	-14965
湾	-14966
型	-14967
音	-14968
已	-14969
着	-14970
流	-14971
香	-14972
处	-14973
直	-14974
党	-14975
传	-14976
些	-14977
获	-14978
类	-14979
集	-14980
史	-14981
万	-14982
太	-14983
点	-14984
夫	-14985
应	-14986
认	-14987
导	-14988
变	-14989
校	-14990
五	-14991
身	-14992
品	-14993
字	-14994
空	-14995
领	-14996
回	-14997
更	-14998
社	-14999
岛	-15000
示	-15001
积	-15002
铁	-15003
江	-15004
展	-15005
还	-15006
朝	-15007
古	-15008
持	-15009
师	-15010
张	-15011
图	-15012
各	-15013
奥	-15014
官	-15015
反	-15016
带	-15017
洲	-15018
专	-15019
别	-15020
举	-15021
据	-15022
命	-15023
只	-15024
纪	-15025
游	-15026
资	-15027
风	-15028
取	-15029
京	-15030
报	-15031
活	-15032
造	-15033
普	-15034
标	-15035
光	-15036
击	-15037
信	-15038
支	-15039
术	-15040
局	-15041
少	-15042
历	-15043
曲	-15044
族	-15045
近	-15046
剧	-15047
没	-15048
石	-15049
纳	-15050
神	-15051
节	-15052
清	-15053
非	-15054
情	-15055
解	-15056
转	-15057
际	-15058
每	-15059
研	-15060
论	-15061
苏	-15062
它	-15063
又	-15064
记	-15065
件	-15066
波	-15067
权	-15068
条	-15069
龙	-15070
决	-15071
即	-15072
片	-15073
放	-15074
村	-15075
角	-15076
她	-15077
气	-15078
/	-15079
商	-15080
连	-15081
版	-15082
头	-15083
伊	-15084
武	-15085
密	-15086
乡	-15087
辖	-15088
括	-15089
复	-15090
先	-15091
收	-15092
座	-15093
周	-15094
职	-15095
知	-15096
未	-15097
往	-15098
李	-15099
去	-15100
根	-15101
创	-15102
器	-15103
白	-15104
离	-15105
强	-15106
歌	-15107
福	-15108
再	-15109
果	-15110
办	-15111
初	-15112
陆	-15113
究	-15114
派	-15115
六	-15116
且	-15117
足	-15118
打	-15119
调	-15120
画	-15121
兵	-15122
引	-15123
圣	-15124
完	-15125
居	-15126
亦	-15127
今	-15128
汉	-15129
域	-15130
季	-15131
许	-15132
观	-15133
装	-15134
帝	-15135
威	-15136
播	-15137
塔	-15138
阳	-15139
网	-15140
亲	-15141
题	-15142
除	-15143
编	-15144
随	-15145
z	-15146
宗	-15147
质	-15148
争	-15149
段	-15150
续	-15151
奖	-15152
服	-15153
令	-15154
构	-15155
给	-15156
育	-15157
较	-15158
花	-15159
协	-15160
x	-15161
言	-15162
很	-15163
爱	-15164
八	-15165
园	-15166
土	-15167
查	-15168
问	-15169
担	-15170
见	-15171
戏	-15172
修	-15173
功	-15174
速	-15175
置	-15176
萨	-15177
营	-15178
规	-15179
宣	-15180
黄	-15181
死	-15182
另	-15183
客	-15184
希	-15185
推	-15186
存	-15187
终	-15188
项	-15189
%	-15190
欧	-15191
超	-15192
好	-15193
我	-15194
率	-15195
划	-15196
馆	-15197
录	-15198
投	-15199
雷	-15200
供	-15201
洛	-15202
护	-15203
样	-15204
哈	-15205
具	-15206
源	-15207
吉	-15208
卫	-15209
博	-15210
求	-15211
准	-15212
班	-15213
瓦	-15214
案	-15215
九	-15216
父	-15217
青	-15218
街	-15219
环	-15220
男	-15221
印	-15222
伦	-15223
母	-15224
边	-15225
兴	-15226
例	-15227
济	-15228
负	-15229
伯	-15230
勒	-15231
湖	-15232
田	-15233
己	-15234
j	-15235
责	-15236
故	-15237
助	-15238
陈	-15239
众	-15240
致	-15241
儿	-15242
火	-15243
均	-15244
沙	-15245
航	-15246
攻	-15247
那	-15248
鱼	-15249
备	-15250
落	-15251
百	-15252
诺	-15253
份	-15254
莱	-15255
试	-15256
皇	-15257
副	-15258
整	-15259
技	-15260
艺	-15261
早	-15262
增	-15263
热	-15264
极	-15265
模	-15266
鲁	-15267
志	-15268
容	-15269
半	-15270
围	-15271
红	-15272
群	-15273
飞	-15274
告	-15275
七	-15276
层	-15277
继	-15278
登	-15279
双	-15280
失	-15281
评	-15282
越	-15283
境	-15284
堂	-15285
易	-15286
川	-15287
写	-15288
独	-15289
室	-15290
食	-15291
升	-15292
深	-15293
塞	-15294
排	-15295
黑	-15296
需	-15297
声	-15298
证	-15299
限	-15300
氏	-15301
医	-15302
央	-15303
席	-15304
射	-15305
筑	-15306
织	-15307
象	-15308
像	-15309
费	-15310
老	-15311
何	-15312
响	-15313
真	-15314
千	-15315
采	-15316
甲	-15317
才	-15318
杀	-15319
仍	-15320
盟	-15321
托	-15322
施	-15323
让	-15324
警	-15325
森	-15326
便	-15327
奇	-15328
步	-15329
木	-15330
考	-15331
防	-15332
感	-15333
想	-15334
配	-15335
舰	-15336
楼	-15337
洋	-15338
牙	-15339
岁	-15340
届	-15341
住	-15342
顿	-15343
低	-15344
止	-15345
桥	-15346
哥	-15347
留	-15348
姆	-15349
—	-15350
效	-15351
贝	-15352
病	-15353
刘	-15354
乌	-15355
律	-15356
几	-15357
农	-15358
范	-15359
泰	-15360
曼	-15361
辑	-15362
埃	-15363
底	-15364
佛	-15365
把	-15366
恩	-15367
蒙	-15368
冠	-15369
料	-15370
察	-15371
唱	-15372
降	-15373
仅	-15374
批	-15375
状	-15376
银	-15377
移	-15378
迪	-15379
话	-15380
俄	-15381
库	-15382
云	-15383
胜	-15384
看	-15385
景	-15386
票	-15387
测	-15388
干	-15389
康	-15390
息	-15391
素	-15392
宁	-15393
败	-15394
革	-15395
消	-15396
控	-15397
_	-15398
承	-15399
索	-15400
显	-15401
授	-15402
温	-15403
算	-15404
祖	-15405
词	-15406
念	-15407
典	-15408
弹	-15409
韩	-15410
远	-15411
确	-15412
载	-15413
习	-15414
藏	-15415
户	-15416
思	-15417
做	-15418
友	-15419
守	-15420
馀	-15421
满	-15422
态	-15423
瑞	-15424
拔	-15425
房	-15426
精	-15427
望	-15428
预	-15429
依	-15430
宫	-15431
督	-15432
附	-15433
述	-15434
夏	-15435
章	-15436
征	-15437
注	-15438
照	-15439
叶	-15440
请	-15441
价	-15442
抗	-15443
执	-15444
毛	-15445
停	-15446
退	-15447
牌	-15448
压	-15449
草	-15450
澳	-15451
却	-15452
简	-15453
左	-15454
封	-15455
验	-15456
虽	-15457
丹	-15458
永	-15459
富	-15460
堡	-15461
丁	-15462
坦	-15463
船	-15464
值	-15465
候	-15466
丽	-15467
般	-15468
快	-15469
势	-15470
破	-15471
侧	-15472
拿	-15473
斗	-15474
邦	-15475
隆	-15476
宝	-15477
唐	-15478
梅	-15479
莫	-15480
细	-15481
监	-15482
郡	-15483
含	-15484
难	-15485
厂	-15486
突	-15487
庄	-15488
庆	-15489
似	-15490
断	-15491
闻	-15492
识	-15493
况	-15494
植	-15495
旅	-15496
必	-15497
皮	-15498
寺	-15499
蒂	-15500
礼	-15501
读	-15502
嘉	-15503
尚	-15504
走	-15505
拥	-15506
绝	-15507
延	-15508
朗	-15509
毕	-15510
久	-15511
岸	-15512
厅	-15513
右	-15514
店	-15515
切	-15516
架	-15517
麦	-15518
临	-15519
核	-15520
春	-15521
换	-15522
轮	-15523
旧	-15524
售	-15525
优	-15526
杰	-15527
野	-15528
归	-15529
亡	-15530
弟	-15531
严	-15532
枪	-15533
判	-15534
艾	-15535
占	-15536
佳	-15537
雄	-15538
松	-15539
油	-15540
弗	-15541
杨	-15542
伤	-15543
异	-15544
灵	-15545
遭	-15546
遗	-15547
练	-15548
端	-15549
策	-15550
吴	-15551
短	-15552
码	-15553
股	-15554
孙	-15555
耶	-15556
逐	-15557
轻	-15558
序	-15559
赫	-15560
晚	-15561
送	-15562
帕	-15563
旗	-15564
顺	-15565
役	-15566
菲	-15567
须	-15568
乘	-15569
若	-15570
摩	-15571
距	-15572
暴	-15573
籍	-15574
酒	-15575
树	-15576
雅	-15577
销	-15578
束	-15579
}	-15580
微	-15581
玛	-15582
{	-15583
杂	-15584
什	-15585
末	-15586
宋	-15587
摄	-15588
输	-15589
泽	-15590
秀	-15591
频	-15592
阵	-15593
亿	-15594
兼	-15595
冲	-15596
署	-15597
!	-15598
卢	-15599
良	-15600
药	-15601
胡	-15602
诗	-15603
译	-15604
驻	-15605
款	-15606
阶	-15607
庭	-15608
荣	-15609
沃	-15610
饰	-15611
启	-15612
齐	-15613
血	-15614
略	-15615
善	-15616
盖	-15617
劳	-15618
散	-15619
尾	-15620
贵	-15621
尽	-15622
婚	-15623
免	-15624
峰	-15625
拍	-15626
予	-15627
津	-15628
甚	-15629
丰	-15630
顶	-15631
差	-15632
纽	-15633
迁	-15634
喜	-15635
减	-15636
板	-15637
臣	-15638
杜	-15639
假	-15640
兹	-15641
晋	-15642
鲜	-15643
追	-15644
购	-15645
尺	-15646
财	-15647
朱	-15648
害	-15649
谷	-15650
签	-15651
烈	-15652
杯	-15653
养	-15654
玉	-15655
爆	-15656
宾	-15657
训	-15658
黎	-15659
背	-15660
互	-15661
舞	-15662
凯	-15663
救	-15664
罪	-15665
著	-15666
仁	-15667
释	-15668
媒	-15669
企	-15670
沿	-15671
钟	-15672
盛	-15673
险	-15674
夺	-15675
轨	-15676
讯	-15677
韦	-15678
廷	-15679
酸	-15680
审	-15681
渐	-15682
检	-15683
援	-15684
透	-15685
货	-15686
牛	-15687
秘	-15688
屋	-15689
补	-15690
映	-15691
圆	-15692
够	-15693
昌	-15694
址	-15695
介	-15696
谢	-15697
仪	-15698
软	-15699
溪	-15700
币	-15701
荷	-15702
访	-15703
君	-15704
乔	-15705
庙	-15706
智	-15707
讲	-15708
挥	-15709
扩	-15710
坡	-15711
材	-15712
梁	-15713
借	-15714
按	-15715
>	-15716
敦	-15717
适	-15718
郑	-15719
徒	-15720
拜	-15721
童	-15722
敌	-15723
辆	-15724
皆	-15725
混	-15726
益	-15727
郎	-15728
玩	-15729
巡	-15730
禁	-15731
<	-15732
颗	-15733
隶	-15734
翰	-15735
讨	-15736
锦	-15737
径	-15738
巨	-15739
探	-15740
蓝	-15741
某	-15742
夜	-15743
冰	-15744
霍	-15745
诸	-15746
穆	-15747
途	-15748
宽	-15749
午	-15750
额	-15751
描	-15752
跟	-15753
旋	-15754
觉	-15755
献	-15756
撤	-15757
替	-15758
羽	-15759
刻	-15760
帮	-15761
你	-15762
眼	-15763
竞	-15764
遇	-15765
培	-15766
刺	-15767
符	-15768
赵	-15769
宇	-15770
刊	-15771
吸	-15772
佩	-15773
聚	-15774
乱	-15775
炮	-15776
休	-15777
爵	-15778
找	-15779
欢	-15780
私	-15781
殿	-15782
袭	-15783
逃	-15784
充	-15785
固	-15786
脑	-15787
返	-15788
犯	-15789
丝	-15790
奉	-15791
漫	-15792
毒	-15793
邻	-15794
召	-15795
否	-15796
捕	-15797
q	-15798
唯	-15799
废	-15800
雨	-15801
骨	-15802
洪	-15803
耳	-15804
幕	-15805
戈	-15806
络	-15807
激	-15808
茨	-15809
疗	-15810
佔	-15811
刑	-15812
靠	-15813
岩	-15814
魔	-15815
择	-15816
震	-15817
操	-15818
钱	-15819
么	-15820
穿	-15821
缺	-15822
坐	-15823
'	-15824
乎	-15825
怀	-15826
露	-15827
诉	-15828
雪	-15829
|	-15830
娜	-15831
御	-15832
绿	-15833
忠	-15834
竹	-15835
宪	-15836
盘	-15837
恒	-15838
骑	-15839
坑	-15840
胞	-15841
赤	-15842
灭	-15843
肯	-15844
尤	-15845
兄	-15846
申	-15847
听	-15848
课	-15849
翻	-15850
抵	-15851
待	-15852
订	-15853
妻	-15854
迫	-15855
镜	-15856
损	-15857
呼	-15858
顾	-15859
坚	-15860
浙	-15861
徐	-15862
姓	-15863
栖	-15864
汇	-15865
贡	-15866
刚	-15867
愿	-15868
毁	-15869
侵	-15870
谈	-15871
柏	-15872
桑	-15873
谋	-15874
篇	-15875
陵	-15876
秋	-15877
=	-15878
孩	-15879
纲	-15880
炸	-15881
脉	-15882
汽	-15883
辛	-15884
绩	-15885
董	-15886
惠	-15887
恶	-15888
横	-15889
融	-15890
戴	-15891
潮	-15892
泉	-15893
鳍	-15894
舍	-15895
鸟	-15896
芬	-15897
默	-15898
买	-15899
努	-15900
疑	-15901
甘	-15902
孔	-15903
避	-15904
泛	-15905
卷	-15906
绍	-15907
魏	-15908
础	-15909
健	-15910
急	-15911
缩	-15912
脱	-15913
腊	-15914
偏	-15915
奏	-15916
莉	-15917
墓	-15918
翼	-15919
榜	-15920
针	-15921
呈	-15922
概	-15923
误	-15924
套	-15925
宜	-15926
衣	-15927
肉	-15928
块	-15929
殖	-15930
危	-15931
佐	-15932
隔	-15933
坏	-15934
紧	-15935
裁	-15936
毫	-15937
墨	-15938
涉	-15939
叫	-15940
染	-15941
扎	-15942
迎	-15943
赖	-15944
扬	-15945
寻	-15946
冷	-15947
阻	-15948
井	-15949
贸	-15950
捷	-15951
虎	-15952
圈	-15953
付	-15954
渡	-15955
缘	-15956
哲	-15957
阴	-15958
珠	-15959
迷	-15960
弃	-15961
秦	-15962
廉	-15963
亮	-15964
析	-15965
恐	-15966
锡	-15967
辅	-15968
卖	-15969
招	-15970
氧	-15971
凤	-15972
池	-15973
琴	-15974
剑	-15975
虫	-15976
函	-15977
彩	-15978
赞	-15979
侯	-15980
仙	-15981
葡	-15982
症	-15983
享	-15984
匹	-15985
错	-15986
赢	-15987
味	-15988
伍	-15989
]	-15990
绕	-15991
洞	-15992
寿	-15993
截	-15994
滨	-15995
麻	-15996
绘	-15997
暗	-15998
梦	-15999
尊	-16000
[	-16001
瑟	-16002
妹	-16003
钢	-16004
颁	-16005
俗	-16006
豪	-16007
俱	-16008
硬	-16009
脚	-16010
综	-16011
倒	-16012
驱	-16013
町	-16014
妇	-16015
奈	-16016
崇	-16017
犹	-16018
誉	-16019
笔	-16020
租	-16021
矿	-16022
绪	-16023
繁	-16024
静	-16025
冈	-16026
冬	-16027
估	-16028
昂	-16029
阁	-16030
铜	-16031
档	-16032
稳	-16033
逝	-16034
闭	-16035
逊	-16036
徽	-16037
液	-16038
暂	-16039
辞	-16040
墙	-16041
楚	-16042
柱	-16043
掌	-16044
乙	-16045
曹	-16046
蛋	-16047
辐	-16048
+	-16049
潜	-16050
册	-16051
拒	-16052
昭	-16053
纸	-16054
浦	-16055
跨	-16056
辽	-16057
邀	-16058
郭	-16059
吕	-16060
幼	-16061
伐	-16062
裂	-16063
盐	-16064
乃	-16065
振	-16066
齿	-16067
岭	-16068
?	-16069
拟	-16070
陷	-16071
粉	-16072
蔡	-16073
恢	-16074
莎	-16075
鼓	-16076
触	-16077
弱	-16078
浪	-16079
裔	-16080
患	-16081
零	-16082
赏	-16083
陶	-16084
轴	-16085
滑	-16086
萄	-16087
菌	-16088
灾	-16089
淡	-16090
偶	-16091
障	-16092
困	-16093
伟	-16094
旁	-16095
剂	-16096
驶	-16097
菜	-16098
藤	-16099
览	-16100
彼	-16101
颜	-16102
埔	-16103
沈	-16104
牧	-16105
税	-16106
搭	-16107
纯	-16108
涅	-16109
狱	-16110
柯	-16111
祭	-16112
宿	-16113
疆	-16114
丘	-16115
勇	-16116
蒋	-16117
邮	-16118
伴	-16119
壁	-16120
促	-16121
残	-16122
昆	-16123
迹	-16124
厦	-16125
允	-16126
龄	-16127
隐	-16128
亨	-16129
仔	-16130
句	-16131
敏	-16132
汤	-16133
答	-16134
桃	-16135
灯	-16136
熙	-16137
茶	-16138
衡	-16139
遍	-16140
珍	-16141
糖	-16142
殊	-16143
键	-16144
恋	-16145
汗	-16146
拆	-16147
幅	-16148
烧	-16149
燃	-16150
孟	-16151
宅	-16152
侍	-16153
迈	-16154
幸	-16155
棒	-16156
虚	-16157
葬	-16158
娱	-16159
械	-16160
紫	-16161
沉	-16162
邓	-16163
餐	-16164
坛	-16165
艘	-16166
折	-16167
厚	-16168
塘	-16169
跑	-16170
赴	-16171
莲	-16172
篮	-16173
贤	-16174
奴	-16175
挑	-16176
敬	-16177
孝	-16178
筹	-16179
幻	-16180
碑	-16181
锋	-16182
叙	-16183
磁	-16184
灰	-16185
陕	-16186
慈	-16187
沟	-16188
祥	-16189
遣	-16190
纬	-16191
储	-16192
姐	-16193
纵	-16194
晶	-16195
疾	-16196
虑	-16197
棋	-16198
倍	-16199
辉	-16200
违	-16201
叛	-16202
慢	-16203
萧	-16204
谱	-16205
箭	-16206
峡	-16207
撞	-16208
葛	-16209
柴	-16210
冯	-16211
苦	-16212
跳	-16213
驾	-16214
贾	-16215
妮	-16216
〉	-16217
熟	-16218
〈	-16219
『	-16220
』	-16221
艇	-16222
尖	-16223
遂	-16224
朋	-16225
坂	-16226
伏	-16227
衔	-16228
仰	-16229
匈	-16230
枚	-16231
仓	-16232
柳	-16233
烟	-16234
螺	-16235
凡	-16236
刀	-16237
燕	-16238
伸	-16239
贯	-16240
纹	-16241
撒	-16242
桂	-16243
瓜	-16244
猎	-16245
潘	-16246
缓	-16247
°	-16248
彭	-16249
谓	-16250
忆	-16251
贺	-16252
雕	-16253
迅	-16254
勤	-16255
慕	-16256
吃	-16257
兽	-16258
详	-16259
粒	-16260
鬼	-16261
琳	-16262
涯	-16263
靖	-16264
累	-16265
趣	-16266
罕	-16267
掉	-16268
番	-16269
挂	-16270
鹿	-16271
猪	-16272
诚	-16273
屿	-16274
熊	-16275
屯	-16276
梯	-16277
泊	-16278
脂	-16279
赠	-16280
硕	-16281
牠	-16282
咸	-16283
胶	-16284
旺	-16285
饮	-16286
抚	-16287
肃	-16288
怪	-16289
秒	-16290
倾	-16291
蛇	-16292
晨	-16293
芳	-16294
屏	-16295
凭	-16296
詹	-16297
惊	-16298
纷	-16299
禄	-16300
擎	-16301
芝	-16302
羊	-16303
仲	-16304
页	-16305
痛	-16306
杉	-16307
壳	-16308
拓	-16309
乳	-16310
玄	-16311
锁	-16312
插	-16313
缅	-16314
凌	-16315
浮	-16316
俊	-16317
隧	-16318
炎	-16319
卓	-16320
泥	-16321
坎	-16322
诞	-16323
喀	-16324
腹	-16325
鼠	-16326
慧	-16327
圳	-16328
励	-16329
杭	-16330
～	-16331
弘	-16332
猫	-16333
旦	-16334
袁	-16335
厄	-16336
晓	-16337
崎	-16338
岳	-16339
搜	-16340
轰	-16341
跃	-16342
罚	-16343
甸	-16344
豆	-16345
塑	-16346
乏	-16347
藩	-16348
玻	-16349
戒	-16350
撰	-16351
畔	-16352
宏	-16353
笑	-16354
鸡	-16355
洗	-16356
卿	-16357
扰	-16358
彻	-16359
盗	-16360
牵	-16361
泳	-16362
祝	-16363
苗	-16364
溶	-16365
丧	-16366
斑	-16367
崔	-16368
乾	-16369
赐	-16370
狮	-16371
坊	-16372
亭	-16373
é	-16374
寄	-16375
胁	-16376
宙	-16377
阅	-16378
袖	-16379
叔	-16380
循	-16381
尉	-16382
舒	-16383
巧	-16384
扮	-16385
妃	-16386
阮	-16387
僧	-16388
郊	-16389
焦	-16390
贞	-16391
询	-16392
粤	-16393
悬	-16394
茂	-16395
仿	-16396
箱	-16397
耀	-16398
污	-16399
霸	-16400
疏	-16401
弥	-16402
衰	-16403
侦	-16404
枢	-16405
捐	-16406
既	-16407
岗	-16408
契	-16409
砲	-16410
壮	-16411
盾	-16412
床	-16413
吨	-16414
摇	-16415
措	-16416
鲤	-16417
碳	-16418
勃	-16419
彰	-16420
逢	-16421
陨	-16422
鸿	-16423
串	-16424
枝	-16425
氢	-16426
浓	-16427
浩	-16428
剩	-16429
厘	-16430
喷	-16431
夷	-16432
翁	-16433
钦	-16434
湿	-16435
歧	-16436
滚	-16437
滩	-16438
拳	-16439
填	-16440
裕	-16441
搬	-16442
递	-16443
券	-16444
荒	-16445
鲍	-16446
卜	-16447
浅	-16448
飓	-16449
窗	-16450
欲	-16451
帅	-16452
丈	-16453
傅	-16454
衍	-16455
饭	-16456
贴	-16457
润	-16458
割	-16459
怒	-16460
灌	-16461
疫	-16462
粮	-16463
邨	-16464
旨	-16465
淮	-16466
侠	-16467
踪	-16468
碍	-16469
笼	-16470
寨	-16471
肥	-16472
抽	-16473
洁	-16474
渔	-16475
垒	-16476
尸	-16477
庞	-16478
赶	-16479
欣	-16480
链	-16481
蝶	-16482
惯	-16483
珊	-16484
膜	-16485
悉	-16486
冒	-16487
斜	-16488
辩	-16489
胎	-16490
鹰	-16491
垂	-16492
孤	-16493
聘	-16494
壤	-16495
耗	-16496
贫	-16497
粹	-16498
迟	-16499
吾	-16500
狄	-16501
湘	-16502
尝	-16503
柔	-16504
腾	-16505
狂	-16506
稿	-16507
握	-16508
儒	-16509
坪	-16510
廊	-16511
揭	-16512
煤	-16513
陀	-16514
栽	-16515
彦	-16516
逆	-16517
闽	-16518
粗	-16519
杆	-16520
婆	-16521
妈	-16522
俘	-16523
貌	-16524
&	-16525
抢	-16526
铺	-16527
狗	-16528
朴	-16529
娘	-16530
琉	-16531
净	-16532
璃	-16533
恰	-16534
潭	-16535
翌	-16536
翠	-16537
堪	-16538
阔	-16539
挪	-16540
魂	-16541
丛	-16542
辰	-16543
寒	-16544
罢	-16545
龟	-16546
稍	-16547
丙	-16548
扶	-16549
堆	-16550
薄	-16551
赋	-16552
禅	-16553
坝	-16554
遵	-16555
癌	-16556
丑	-16557
吐	-16558
勋	-16559
刷	-16560
忍	-16561
诏	-16562
淘	-16563
鼻	-16564
矩	-16565
偷	-16566
铭	-16567
碎	-16568
涵	-16569
逻	-16570
荐	-16571
脏	-16572
伪	-16573
怖	-16574
苑	-16575
栏	-16576
姚	-16577
矶	-16578
鸣	-16579
卒	-16580
硫	-16581
颇	-16582
寸	-16583
押	-16584
汪	-16585
叠	-16586
弦	-16587
嫌	-16588
添	-16589
祀	-16590
劝	-16591
逮	-16592
胸	-16593
扫	-16594
屠	-16595
姬	-16596
惟	-16597
吏	-16598
奔	-16599
姻	-16600
泡	-16601
歇	-16602
蒸	-16603
诊	-16604
携	-16605
蛛	-16606
讷	-16607
酶	-16608
兆	-16609
夕	-16610
仇	-16611
雀	-16612
琼	-16613
─	-16614
芒	-16615
叉	-16616
逼	-16617
奎	-16618
卑	-16619
狼	-16620
趋	-16621
涂	-16622
脊	-16623
磨	-16624
韵	-16625
腐	-16626
隋	-16627
醒	-16628
偿	-16629
卵	-16630
勳	-16631
猛	-16632
拼	-16633
嗣	-16634
娃	-16635
菊	-16636
嫁	-16637
厢	-16638
屈	-16639
劫	-16640
稣	-16641
薛	-16642
敢	-16643
鹤	-16644
斤	-16645
犬	-16646
掘	-16647
悲	-16648
摆	-16649
肖	-16650
凝	-16651
氯	-16652
忙	-16653
闪	-16654
债	-16655
伽	-16656
醇	-16657
肌	-16658
矛	-16659
凉	-16660
嘴	-16661
碟	-16662
抑	-16663
棘	-16664
铸	-16665
姊	-16666
奶	-16667
侨	-16668
・	-16669
妙	-16670
栋	-16671
旬	-16672
汰	-16673
忽	-16674
株	-16675
砖	-16676
鼎	-16677
稻	-16678
袋	-16679
礁	-16680
炉	-16681
迦	-16682
舱	-16683
雍	-16684
碧	-16685
→	-16686
抱	-16687
麟	-16688
鲶	-16689
贩	-16690
怕	-16691
扁	-16692
祠	-16693
拖	-16694
穷	-16695
寓	-16696
曰	-16697
砂	-16698
狭	-16699
幽	-16700
翔	-16701
尹	-16702
谭	-16703
吹	-16704
铃	-16705
姜	-16706
’	-16707
惨	-16708
蹈	-16709
绳	-16710
剪	-16711
汀	-16712
竟	-16713
夹	-16714
圭	-16715
虹	-16716
盆	-16717
邑	-16718
崩	-16719
讚	-16720
孕	-16721
宰	-16722
甫	-16723
斐	-16724
丸	-16725
倡	-16726
鄂	-16727
巫	-16728
鉴	-16729
邪	-16730
闸	-16731
抓	-16732
讬	-16733
恭	-16734
埋	-16735
沪	-16736
胆	-16737
毅	-16738
苹	-16739
辨	-16740
锺	-16741
斋	-16742
纤	-16743
豫	-16744
寮	-16745
驳	-16746
雌	-16747
渊	-16748
鳞	-16749
魁	-16750
襄	-16751
咖	-16752
伙	-16753
廖	-16754
汝	-16755
蓬	-16756
钻	-16757
囊	-16758
荆	-16759
×	-16760
雾	-16761
弯	-16762
珀	-16763
丞	-16764
蕨	-16765
募	-16766
催	-16767
氨	-16768
鲈	-16769
蟹	-16770
斩	-16771
吞	-16772
郁	-16773
拨	-16774
蜂	-16775
巢	-16776
滕	-16777
茅	-16778
茵	-16779
扣	-16780
~	-16781
脸	-16782
挖	-16783
腔	-16784
披	-16785
吧	-16786
涌	-16787
腺	-16788
陪	-16789
暖	-16790
肠	-16791
擅	-16792
奋	-16793
谦	-16794
苯	-16795
劲	-16796
聪	-16797
拘	-16798
舌	-16799
瓶	-16800
铎	-16801
蜜	-16802
吻	-16803
耕	-16804
崖	-16805
棉	-16806
喇	-16807
鸭	-16808
暨	-16809
荡	-16810
蕾	-16811
溯	-16812
酷	-16813
栗	-16814
忘	-16815
耐	-16816
漠	-16817
舟	-16818
削	-16819
邱	-16820
仕	-16821
噶	-16822
札	-16823
薪	-16824
帽	-16825
愈	-16826
薇	-16827
卸	-16828
毗	-16829
帐	-16830
诱	-16831
渠	-16832
颈	-16833
啡	-16834
姑	-16835
遥	-16836
鲸	-16837
稀	-16838
婴	-16839
碱	-16840
顷	-16841
矮	-16842
昇	-16843
亥	-16844
巷	-16845
溃	-16846
蜀	-16847
谊	-16848
胺	-16849
蒲	-16850
掠	-16851
扑	-16852
摧	-16853
贼	-16854
拱	-16855
斥	-16856
踏	-16857
锐	-16858
‘	-16859
忧	-16860
愤	-16861
宠	-16862
淑	-16863
穴	-16864
烯	-16865
筒	-16866
爷	-16867
梨	-16868
鑑	-16869
邵	-16870
畅	-16871
肺	-16872
哪	-16873
尿	-16874
椎	-16875
琪	-16876
宴	-16877
谁	-16878
炼	-16879
葵	-16880
冕	-16881
藻	-16882
雇	-16883
庶	-16884
凶	-16885
睡	-16886
惜	-16887
宛	-16888
掩	-16889
轩	-16890
亩	-16891
梵	-16892
漏	-16893
菩	-16894
瘤	-16895
鹅	-16896
框	-16897
翅	-16898
帆	-16899
桓	-16900
磷	-16901
玲	-16902
饼	-16903
澄	-16904
鹏	-16905
肤	-16906
甜	-16907
吁	-16908
唇	-16909
碰	-16910
绵	-16911
誓	-16912
仑	-16913
卧	-16914
豹	-16915
仆	-16916
怡	-16917
禾	-16918
弓	-16919
慎	-16920
奠	-16921
堤	-16922
绥	-16923
贪	-16924
ー	-16925
伞	-16926
夸	-16927
榄	-16928
腿	-16929
挡	-16930
棕	-16931
芦	-16932
瓷	-16933
绑	-16934
褐	-16935
樱	-16936
逸	-16937
奸	-16938
侣	-16939
颠	-16940
爪	-16941
冀	-16942
桌	-16943
蹟	-16944
悠	-16945
骚	-16946
弄	-16947
肿	-16948
删	-16949
蝠	-16950
鸦	-16951
臂	-16952
谐	-16953
姿	-16954
贷	-16955
‧	-16956
桐	-16957
柬	-16958
肝	-16959
呎	-16960
娶	-16961
惧	-16962
慰	-16963
霞	-16964
腓	-16965
纠	-16966
肢	-16967
缴	-16968
*	-16969
颖	-16970
柄	-16971
辈	-16972
牲	-16973
抄	-16974
抛	-16975
骗	-16976
盈	-16977
赌	-16978
恨	-16979
窄	-16980
の	-16981
祯	-16982
践	-16983
庚	-16984
囚	-16985
哀	-16986
蚀	-16987
辟	-16988
庇	-16989
厝	-16990
肩	-16991
腰	-16992
烷	-16993
坟	-16994
浸	-16995
殷	-16996
颂	-16997
赔	-16998
沼	-16999
忌	-17000
茎	-17001
涛	-17002
汶	-17003
扭	-17004
祈	-17005
吊	-17006
滋	-17007
劣	-17008
а	-17009
朵	-17010
滤	-17011
讼	-17012
逾	-17013
搞	-17014
遮	-17015
妖	-17016
饶	-17017
猜	-17018
裸	-17019
炭	-17020
坠	-17021
怎	-17022
秩	-17023
荃	-17024
谣	-17025
厥	-17026
涡	-17027
缝	-17028
蓄	-17029
祸	-17030
槽	-17031
尘	-17032
爬	-17033
祐	-17034
跌	-17035
镑	-17036
悦	-17037
凰	-17038
挺	-17039
芭	-17040
扇	-17041
椅	-17042
瑜	-17043
舆	-17044
夥	-17045
芙	-17046
兔	-17047
坞	-17048
α	-17049
埠	-17050
C	-17051
о	-17052
ン	-17053
庸	-17054
猴	-17055
虾	-17056
寇	-17057
尧	-17058
讽	-17059
屡	-17060
氟	-17061
惩	-17062
虏	-17063
肇	-17064
趁	-17065
戌	-17066
焚	-17067
嵌	-17068
柜	-17069
鳄	-17070
纺	-17071
晴	-17072
嫩	-17073
酮	-17074
崙	-17075
贬	-17076
瑚	-17077
肾	-17078
锅	-17079
歉	-17080
昔	-17081
窝	-17082
橡	-17083
厉	-17084
禧	-17085
佑	-17086
跋	-17087
唤	-17088
眉	-17089
眠	-17090
欠	-17091
喻	-17092
剥	-17093
娅	-17094
$	-17095
勘	-17096
挤	-17097
坤	-17098
擦	-17099
蕃	-17100
茄	-17101
谘	-17102
捉	-17103
骏	-17104
履	-17105
滥	-17106
泪	-17107
萝	-17108
浆	-17109
攀	-17110
昏	-17111
蜥	-17112
#	-17113
爸	-17114
咏	-17115
冻	-17116
怨	-17117
浏	-17118
鞋	-17119
厌	-17120
悟	-17121
胀	-17122
踢	-17123
旱	-17124
铝	-17125
厨	-17126
戊	-17127
醉	-17128
炳	-17129
漂	-17130
帖	-17131
橄	-17132
钓	-17133
喝	-17134
澎	-17135
竣	-17136
撑	-17137
苍	-17138
塌	-17139
氮	-17140
烂	-17141
歼	-17142
丢	-17143
疯	-17144
鲷	-17145
躲	-17146
旭	-17147
榴	-17148
璋	-17149
缔	-17150
凸	-17151
淳	-17152
裴	-17153
赣	-17154
畜	-17155
盒	-17156
臀	-17157
穗	-17158
覆	-17159
锥	-17160
谨	-17161
匪	-17162
椒	-17163
缸	-17164
钩	-17165
盲	-17166
熔	-17167
狐	-17168
垦	-17169
糕	-17170
睛	-17171
僚	-17172
冢	-17173
荫	-17174
妥	-17175
哺	-17176
镶	-17177
酯	-17178
嘛	-17179
罩	-17180
匠	-17181
漆	-17182
窑	-17183
摔	-17184
霖	-17185
斌	-17186
阀	-17187
棚	-17188
匣	-17189
牺	-17190
巩	-17191
钠	-17192
痕	-17193
徙	-17194
阜	-17195
и	-17196
咒	-17197
涨	-17198
喉	-17199
谴	-17200
酿	-17201
虐	-17202
辱	-17203
贿	-17204
煌	-17205
戚	-17206
黛	-17207
岐	-17208
梭	-17209
饱	-17210
铅	-17211
鞍	-17212
秉	-17213
聂	-17214
矢	-17215
虞	-17216
勾	-17217
饥	-17218
蛮	-17219
糊	-17220
佣	-17221
菱	-17222
蛙	-17223
欺	-17224
麓	-17225
瑶	-17226
瞄	-17227
哭	-17228
枫	-17229
浴	-17230
萤	-17231
畴	-17232
笃	-17233
庐	-17234
漳	-17235
酋	-17236
い	-17237
辣	-17238
畏	-17239
拦	-17240
闹	-17241
堵	-17242
闯	-17243
á	-17244
庵	-17245
驰	-17246
捲	-17247
瑙	-17248
谍	-17249
淀	-17250
牟	-17251
祷	-17252
拯	-17253
阎	-17254
钧	-17255
棠	-17256
垣	-17257
幢	-17258
朔	-17259
笛	-17260
乞	-17261
彗	-17262
绅	-17263
蝙	-17264
悼	-17265
椭	-17266
韶	-17267
廿	-17268
凹	-17269
吗	-17270
楠	-17271
瓣	-17272
棍	-17273
閒	-17274
饲	-17275
鲨	-17276
彬	-17277
胃	-17278
帜	-17279
烦	-17280
氛	-17281
膨	-17282
硝	-17283
颌	-17284
濒	-17285
焰	-17286
弧	-17287
滴	-17288
噪	-17289
粘	-17290
壬	-17291
吓	-17292
赦	-17293
惑	-17294
浑	-17295
橙	-17296
沧	-17297
骤	-17298
牢	-17299
翡	-17300
咀	-17301
樑	-17302
冶	-17303
剿	-17304
寡	-17305
缀	-17306
蛤	-17307
瑰	-17308
湛	-17309
掷	-17310
骂	-17311
燥	-17312
磅	-17313
寅	-17314
黏	-17315
杏	-17316
窃	-17317
谕	-17318
懂	-17319
缆	-17320
禹	-17321
肆	-17322
垃	-17323
谥	-17324
н	-17325
酱	-17326
е	-17327
匿	-17328
汕	-17329
玫	-17330
劾	-17331
孜	-17332
槟	-17333
迄	-17334
橘	-17335
酰	-17336
β	-17337
淹	-17338
窦	-17339
邸	-17340
摘	-17341
梓	-17342
闲	-17343
陇	-17344
隙	-17345
鹃	-17346
圾	-17347
沦	-17348
窟	-17349
簧	-17350
汁	-17351
滞	-17352
阐	-17353
艰	-17354
稽	-17355
泌	-17356
渗	-17357
喊	-17358
钥	-17359
峻	-17360
滇	-17361
闵	-17362
】	-17363
【	-17364
煮	-17365
侄	-17366
濑	-17367
с	-17368
ん	-17369
锣	-17370
纂	-17371
戎	-17372
冥	-17373
畿	-17374
绰	-17375
酵	-17376
蚁	-17377
鞭	-17378
筋	-17379
勉	-17380
妓	-17381
孚	-17382
浊	-17383
绒	-17384
诈	-17385
蔽	-17386
奕	-17387
邹	-17388
焕	-17389
懿	-17390
雁	-17391
芽	-17392
р	-17393
纱	-17394
瀑	-17395
泄	-17396
仗	-17397
啤	-17398
鳗	-17399
缠	-17400
剌	-17401
酬	-17402
′	-17403
沛	-17404
宦	-17405
曝	-17406
竖	-17407
諡	-17408
颅	-17409
萍	-17410
狩	-17411
艳	-17412
妆	-17413
傲	-17414
う	-17415
绣	-17416
芯	-17417
嫡	-17418
碘	-17419
寂	-17420
谜	-17421
呢	-17422
乒	-17423
俞	-17424
墅	-17425
籤	-17426
挝	-17427
倪	-17428
墩	-17429
淋	-17430
殉	-17431
臭	-17432
僱	-17433
裹	-17434
荔	-17435
敖	-17436
诵	-17437
诛	-17438
榆	-17439
岑	-17440
缪	-17441
伺	-17442
锯	-17443
癸	-17444
ü	-17445
萌	-17446
耿	-17447
垄	-17448
稚	-17449
吋	-17450
蓉	-17451
彝	-17452
缉	-17453
桶	-17454
樟	-17455
啦	-17456
钙	-17457
墟	-17458
衷	-17459
咬	-17460
琦	-17461
烤	-17462
谏	-17463
聊	-17464
牡	-17465
嫔	-17466
婉	-17467
哇	-17468
竭	-17469
堕	-17470
犁	-17471
茹	-17472
弼	-17473
※	-17474
魅	-17475
敷	-17476
暑	-17477
嵩	-17478
彪	-17479
趾	-17480
裤	-17481
豚	-17482
蹄	-17483
罐	-17484
咨	-17485
爽	-17486
肪	-17487
蜡	-17488
悔	-17489
砍	-17490
蔚	-17491
砌	-17492
晰	-17493
舜	-17494
拾	-17495
藓	-17496
袜	-17497
粟	-17498
芜	-17499
淫	-17500
赚	-17501
愚	-17502
禽	-17503
锤	-17504
亏	-17505
樊	-17506
擒	-17507
骸	-17508
茜	-17509
诠	-17510
龚	-17511
挽	-17512
衙	-17513
愉	-17514
账	-17515
し	-17516
啸	-17517
弊	-17518
赎	-17519
叹	-17520
垫	-17521
壶	-17522
扳	-17523
轿	-17524
鳉	-17525
蕴	-17526
т	-17527
钾	-17528
ス	-17529
羌	-17530
薯	-17531
驼	-17532
舖	-17533
狸	-17534
澜	-17535
檀	-17536
蔓	-17537
匡	-17538
碗	-17539
舅	-17540
狙	-17541
•	-17542
晖	-17543
莞	-17544
绎	-17545
嘎	-17546
廓	-17547
硅	-17548
孢	-17549
厕	-17550
褒	-17551
í	-17552
剖	-17553
皖	-17554
擢	-17555
敲	-17556
イ	-17557
摊	-17558
鹦	-17559
罹	-17560
杖	-17561
膀	-17562
钞	-17563
哩	-17564
鳃	-17565
蜘	-17566
壹	-17567
泼	-17568
乓	-17569
飘	-17570
娥	-17571
毓	-17572
祁	-17573
炒	-17574
渤	-17575
瞬	-17576
钮	-17577
ā	-17578
苔	-17579
倭	-17580
淆	-17581
饿	-17582
棱	-17583
霉	-17584
蔬	-17585
驹	-17586
к	-17587
蕉	-17588
毙	-17589
胚	-17590
ö	-17591
釜	-17592
迭	-17593
兑	-17594
匀	-17595
岱	-17596
暹	-17597
俯	-17598
邯	-17599
卦	-17600
郝	-17601
ó	-17602
骆	-17603
猩	-17604
渭	-17605
娄	-17606
甄	-17607
霜	-17608
鲉	-17609
祇	-17610
舶	-17611
盔	-17612
崛	-17613
烹	-17614
凑	-17615
猿	-17616
抬	-17617
沫	-17618
た	-17619
钉	-17620
в	-17621
疲	-17622
睿	-17623
谅	-17624
醛	-17625
梗	-17626
挫	-17627
脆	-17628
哨	-17629
檐	-17630
梧	-17631
犀	-17632
渝	-17633
沁	-17634
胤	-17635
榕	-17636
ル	-17637
楷	-17638
沂	-17639
抹	-17640
矣	-17641
刹	-17642
膛	-17643
晤	-17644
か	-17645
匾	-17646
妾	-17647
莽	-17648
雯	-17649
眷	-17650
驿	-17651
巾	-17652
栅	-17653
傍	-17654
汐	-17655
蝴	-17656
黔	-17657
宵	-17658
惹	-17659
肚	-17660
л	-17661
峙	-17662
疼	-17663
邢	-17664
婷	-17665
凿	-17666
搁	-17667
莺	-17668
溥	-17669
髓	-17670
汾	-17671
蝉	-17672
莹	-17673
è	-17674
灿	-17675
蕊	-17676
铀	-17677
谟	-17678
琅	-17679
耻	-17680
膝	-17681
溉	-17682
裙	-17683
桦	-17684
垩	-17685
媛	-17686
泗	-17687
湧	-17688
苷	-17689
雏	-17690
谎	-17691
蒿	-17692
袍	-17693
堀	-17694
潟	-17695
渴	-17696
簿	-17697
笠	-17698
と	-17699
祺	-17700
倖	-17701
棺	-17702
磡	-17703
顽	-17704
讳	-17705
ラ	-17706
冤	-17707
敕	-17708
勿	-17709
喙	-17710
辜	-17711
卤	-17712
卯	-17713
敛	-17714
睦	-17715
俩	-17716
泾	-17717
涩	-17718
溢	-17719
耆	-17720
桨	-17721
洼	-17722
羞	-17723
堰	-17724
洽	-17725
膏	-17726
郸	-17727
葱	-17728
瘦	-17729
奢	-17730
肋	-17731
慌	-17732
虔	-17733
闢	-17734
紮	-17735
镍	-17736
菁	-17737
烃	-17738
羟	-17739
佥	-17740
渣	-17741
俭	-17742
鳕	-17743
岚	-17744
晏	-17745
侬	-17746
摸	-17747
吟	-17748
婿	-17749
ア	-17750
羚	-17751
殴	-17752
绸	-17753
晃	-17754
馈	-17755
谬	-17756
峨	-17757
璧	-17758
匙	-17759
鹉	-17760
您	-17761
侏	-17762
啊	-17763
糟	-17764
幌	-17765
泵	-17766
骄	-17767
寝	-17768
钝	-17769
枣	-17770
枯	-17771
缮	-17772
丕	-17773
磺	-17774
诬	-17775
嘲	-17776
戟	-17777
苻	-17778
焊	-17779
骼	-17780
馨	-17781
闰	-17782
揽	-17783
ä	-17784
艮	-17785
芮	-17786
埼	-17787
刃	-17788
蜗	-17789
衫	-17790
μ	-17791
芹	-17792
酉	-17793
竺	-17794
蚌	-17795
岔	-17796
捞	-17797
琛	-17798
噬	-17799
塾	-17800
ト	-17801
岬	-17802
氰	-17803
掀	-17804
衬	-17805
リ	-17806
锂	-17807
淞	-17808
磐	-17809
倚	-17810
鸠	-17811
麒	-17812
蔷	-17813
兀	-17814
棵	-17815
に	-17816
胖	-17817
萼	-17818
慾	-17819
锌	-17820
皓	-17821
瑾	-17822
菇	-17823
哉	-17824
恼	-17825
搏	-17826
梳	-17827
僵	-17828
腕	-17829
瀛	-17830
抒	-17831
枕	-17832
懋	-17833
抨	-17834
忒	-17835
斧	-17836
咪	-17837
な	-17838
暱	-17839
靶	-17840
瑛	-17841
穹	-17842
秃	-17843
り	-17844
娇	-17845
ا	-17846
瞻	-17847
颚	-17848
鲀	-17849
锈	-17850
戍	-17851
兜	-17852
捧	-17853
溴	-17854
癒	-17855
荀	-17856
菸	-17857
浚	-17858
睹	-17859
撕	-17860
栈	-17861
〔	-17862
稜	-17863
〕	-17864
雳	-17865
兖	-17866
芸	-17867
桩	-17868
溜	-17869
ク	-17870
洩	-17871
诃	-17872
鸽	-17873
憾	-17874
棣	-17875
嘱	-17876
嗜	-17877
祂	-17878
蝇	-17879
帛	-17880
曜	-17881
舷	-17882
煽	-17883
蚕	-17884
る	-17885
汞	-17886
衞	-17887
缚	-17888
觅	-17889
茱	-17890
苞	-17891
蔗	-17892
篡	-17893
霄	-17894
洒	-17895
焉	-17896
鑫	-17897
镰	-17898
怜	-17899
渥	-17900
捍	-17901
翟	-17902
霹	-17903
胰	-17904
陡	-17905
韧	-17906
蛾	-17907
蜒	-17908
鰕	-17909
д	-17910
峭	-17911
祚	-17912
蜿	-17913
恪	-17914
灶	-17915
蟾	-17916
祕	-17917
炬	-17918
き	-17919
鍊	-17920
妄	-17921
煞	-17922
敞	-17923
〜	-17924
慨	-17925
萃	-17926
ま	-17927
稠	-17928
霆	-17929
逗	-17930
锻	-17931
绞	-17932
熹	-17933
淇	-17934
−	-17935
糙	-17936
恺	-17937
沽	-17938
瘟	-17939
乍	-17940
昊	-17941
芥	-17942
曙	-17943
□	-17944
烛	-17945
偕	-17946
钊	-17947
隍	-17948
阙	-17949
崑	-17950
麾	-17951
黜	-17952
巳	-17953
肽	-17954
昼	-17955
皂	-17956
篷	-17957
镖	-17958
玺	-17959
м	-17960
孵	-17961
粪	-17962
蚤	-17963
莓	-17964
鞑	-17965
砾	-17966
筛	-17967
栓	-17968
躯	-17969
吡	-17970
俾	-17971
笨	-17972
泻	-17973
颐	-17974
沸	-17975
辗	-17976
箕	-17977
矽	-17978
硼	-17979
薰	-17980
γ	-17981
邺	-17982
は	-17983
妨	-17984
咤	-17985
饷	-17986
屑	-17987
溺	-17988
皋	-17989
禺	-17990
羁	-17991
さ	-17992
譬	-17993
く	-17994
椰	-17995
曦	-17996
玮	-17997
膳	-17998
鳅	-17999
潼	-18000
酚	-18001
傀	-18002
埤	-18003
晕	-18004
挠	-18005
瘾	-18006
赁	-18007
镁	-18008
泣	-18009
酪	-18010
斡	-18011
纶	-18012
俸	-18013
楞	-18014
恕	-18015
靼	-18016
隅	-18017
刮	-18018
龛	-18019
娟	-18020
鹭	-18021
陞	-18022
\	-18023
妍	-18024
晒	-18025
贱	-18026
暮	-18027
疹	-18028
铉	-18029
吵	-18030
豁	-18031
莆	-18032
ッ	-18033
咽	-18034
苣	-18035
侮	-18036
彤	-18037
绮	-18038
臧	-18039
葫	-18040
蚊	-18041
儡	-18042
堇	-18043
盎	-18044
裘	-18045
鎌	-18046
阱	-18047
赂	-18048
桢	-18049
驯	-18050
靴	-18051
こ	-18052
炫	-18053
衢	-18054
诅	-18055
佬	-18056
钜	-18057
沥	-18058
π	-18059
が	-18060
埗	-18061
庾	-18062
舵	-18063
峪	-18064
萱	-18065
砸	-18066
镀	-18067
陛	-18068
钵	-18069
δ	-18070
み	-18071
氦	-18072
泸	-18073
挟	-18074
鲑	-18075
坜	-18076
瞒	-18077
湄	-18078
磊	-18079
沐	-18080
绶	-18081
柠	-18082
扔	-18083
瘫	-18084
绫	-18085
鞘	-18086
倩	-18087
汴	-18088
て	-18089
帘	-18090
у	-18091
タ	-18092
幡	-18093
柑	-18094
滙	-18095
呆	-18096
@	-18097
ら	-18098
诰	-18099
σ	-18100
奚	-18101
拢	-18102
炀	-18103
煎	-18104
韬	-18105
夭	-18106
炯	-18107
伶	-18108
晟	-18109
戮	-18110
羲	-18111
腥	-18112
钛	-18113
濠	-18114
靡	-18115
巅	-18116
毯	-18117
沮	-18118
榈	-18119
卉	-18120
拷	-18121
矫	-18122
臼	-18123
萎	-18124
λ	-18125
咎	-18126
挣	-18127
醋	-18128
醚	-18129
蓟	-18130
カ	-18131
ジ	-18132
蒜	-18133
陋	-18134
п	-18135
琵	-18136
瞩	-18137
苟	-18138
お	-18139
淄	-18140
鸾	-18141
シ	-18142
垮	-18143
闷	-18144
恤	-18145
稷	-18146
陌	-18147
槛	-18148
巖	-18149
扯	-18150
崁	-18151
淤	-18152
鸥	-18153
寰	-18154
涧	-18155
翘	-18156
苇	-18157
幂	-18158
槐	-18159
佚	-18160
隘	-18161
笙	-18162
燮	-18163
←	-18164
懒	-18165
証	-18166
讶	-18167
ç	-18168
檬	-18169
憩	-18170
霰	-18171
芋	-18172
叱	-18173
蔑	-18174
诡	-18175
沾	-18176
笋	-18177
鼬	-18178
竿	-18179
篆	-18180
娴	-18181
悚	-18182
琶	-18183
肛	-18184
铠	-18185
弈	-18186
蒐	-18187
绛	-18188
冉	-18189
铬	-18190
珂	-18191
鹫	-18192
壕	-18193
旷	-18194
ち	-18195
姨	-18196
岂	-18197
朽	-18198
臻	-18199
帧	-18200
悍	-18201
皱	-18202
ロ	-18203
殡	-18204
跪	-18205
锚	-18206
揆	-18207
毘	-18208
釉	-18209
苛	-18210
颍	-18211
聆	-18212
莒	-18213
漕	-18214
痪	-18215
剃	-18216
嘻	-18217
あ	-18218
胥	-18219
孺	-18220
荧	-18221
骇	-18222
琰	-18223
蕙	-18224
甥	-18225
睐	-18226
坍	-18227
杞	-18228
桅	-18229
汲	-18230
○	-18231
鄞	-18232
馏	-18233
渲	-18234
ε	-18235
愁	-18236
谒	-18237
甬	-18238
翊	-18239
拐	-18240
掳	-18241
昱	-18242
瞿	-18243
ل	-18244
昙	-18245
饪	-18246
â	-18247
哆	-18248
糯	-18249
耦	-18250
悄	-18251
谤	-18252
踩	-18253
埕	-18254
诫	-18255
啶	-18256
骁	-18257
炽	-18258
贮	-18259
悖	-18260
衮	-18261
跆	-18262
捆	-18263
妒	-18264
崭	-18265
撃	-18266
辕	-18267
簇	-18268
绯	-18269
陂	-18270
ω	-18271
マ	-18272
隼	-18273
昧	-18274
蛱	-18275
钰	-18276
珪	-18277
傻	-18278
峇	-18279
濮	-18280
盼	-18281
挚	-18282
苓	-18283
铵	-18284
攸	-18285
芷	-18286
皈	-18287
烘	-18288
铨	-18289
泷	-18290
茉	-18291
褚	-18292
疟	-18293
硒	-18294
圻	-18295
腻	-18296
媚	-18297
〇	-18298
じ	-18299
桧	-18300
侃	-18301
掣	-18302
灼	-18303
濬	-18304
僖	-18305
撼	-18306
魄	-18307
ú	-18308
殆	-18309
琐	-18310
ド	-18311
镐	-18312
驸	-18313
椿	-18314
褶	-18315
傣	-18316
銮	-18317
瀚	-18318
毋	-18319
砷	-18320
レ	-18321
躁	-18322
谚	-18323
雉	-18324
恳	-18325
侈	-18326
赈	-18327
绢	-18328
歪	-18329
蜴	-18330
г	-18331
卅	-18332
侗	-18333
跤	-18334
倦	-18335
葆	-18336
铲	-18337
±	-18338
ο	-18339
叡	-18340
薹	-18341
聋	-18342
脾	-18343
畸	-18344
圩	-18345
楔	-18346
趟	-18347
遏	-18348
峯	-18349
鲽	-18350
婢	-18351
筠	-18352
を	-18353
贻	-18354
ρ	-18355
й	-18356
唸	-18357
沅	-18358
媳	-18359
桔	-18360
鳌	-18361
炜	-18362
潞	-18363
弩	-18364
呕	-18365
禀	-18366
羧	-18367
鳚	-18368
刁	-18369
焘	-18370
瓯	-18371
喃	-18372
胱	-18373
勐	-18374
飙	-18375
圃	-18376
樵	-18377
荚	-18378
莘	-18379
靳	-18380
杠	-18381
辍	-18382
辙	-18383
捣	-18384
馅	-18385
锰	-18386
琮	-18387
菅	-18388
б	-18389
フ	-18390
澈	-18391
肴	-18392
颊	-18393
驴	-18394
も	-18395
甦	-18396
瞳	-18397
颤	-18398
à	-18399
τ	-18400
つ	-18401
匆	-18402
躺	-18403
窜	-18404
柿	-18405
迥	-18406
耸	-18407
拂	-18408
愧	-18409
遴	-18410
哑	-18411
裳	-18412
乂	-18413
拌	-18414
襟	-18415
狠	-18416
丫	-18417
搅	-18418
晦	-18419
潍	-18420
ν	-18421
鹊	-18422
だ	-18423
夔	-18424
籽	-18425
浒	-18426
耍	-18427
で	-18428
碉	-18429
熵	-18430
诽	-18431
す	-18432
轭	-18433
洮	-18434
琥	-18435
膺	-18436
栉	-18437
喘	-18438
ə	-18439
ミ	-18440
濂	-18441
秽	-18442
粥	-18443
昨	-18444
觐	-18445
猷	-18446
洙	-18447
邝	-18448
冗	-18449
蚜	-18450
蠢	-18451
槃	-18452
я	-18453
窥	-18454
姪	-18455
宸	-18456
瑕	-18457
羰	-18458
豔	-18459
吠	-18460
弋	-18461
疮	-18462
捡	-18463
妳	-18464
渎	-18465
铂	-18466
ô	-18467
枋	-18468
浜	-18469
斛	-18470
逵	-18471
仄	-18472
僻	-18473
嫉	-18474
ς	-18475
オ	-18476
忻	-18477
曳	-18478
茛	-18479
蠕	-18480
衅	-18481
钴	-18482
翎	-18483
薑	-18484
吼	-18485
潢	-18486
莪	-18487
闾	-18488
咳	-18489
遁	-18490
酥	-18491
浇	-18492
瓒	-18493
痴	-18494
れ	-18495
殭	-18496
蚂	-18497
掖	-18498
昶	-18499
朕	-18500
邕	-18501
奘	-18502
惕	-18503
岷	-18504
螂	-18505
癫	-18506
诀	-18507
虢	-18508
や	-18509
エ	-18510
熄	-18511
ι	-18512
藔	-18513
骠	-18514
氹	-18515
っ	-18516
栾	-18517
孀	-18518
筝	-18519
蟒	-18520
‰	-18521
琏	-18522
阡	-18523
俨	-18524
迺	-18525
茫	-18526
昕	-18527
逍	-18528
醣	-18529
扈	-18530
溧	-18531
剔	-18532
谛	-18533
コ	-18534
煜	-18535
貂	-18536
轼	-18537
唑	-18538
弑	-18539
钨	-18540
盏	-18541
湳	-18542
螯	-18543
拙	-18544
榔	-18545
栎	-18546
缕	-18547
鳎	-18548
偃	-18549
烽	-18550
畑	-18551
絮	-18552
鸢	-18553
眺	-18554
妊	-18555
巍	-18556
忏	-18557
☆	-18558
渚	-18559
灏	-18560
钏	-18561
キ	-18562
戛	-18563
璜	-18564
跻	-18565
婺	-18566
捏	-18567
涟	-18568
鲱	-18569
φ	-18570
砚	-18571
孛	-18572
荥	-18573
伎	-18574
叭	-18575
坳	-18576
篱	-18577
贲	-18578
涤	-18579
擂	-18580
颓	-18581
囱	-18582
檗	-18583
荟	-18584
璐	-18585
暇	-18586
嶋	-18587
瑄	-18588
佟	-18589
叮	-18590
鮨	-18591
ī	-18592
ブ	-18593
慷	-18594
巽	-18595
樽	-18596
谯	-18597
滦	-18598
肘	-18599
薨	-18600
迂	-18601
š	-18602
扼	-18603
沱	-18604
篠	-18605
憎	-18606
歙	-18607
滔	-18608
炔	-18609
蛟	-18610
尬	-18611
涿	-18612
け	-18613
倘	-18614
荼	-18615
グ	-18616
髅	-18617
宕	-18618
蓼	-18619
旻	-18620
馥	-18621
ن	-18622
チ	-18623
鞠	-18624
峦	-18625
鹘	-18626
掺	-18627
脖	-18628
镛	-18629
璇	-18630
挨	-18631
氓	-18632
丐	-18633
鸮	-18634
璟	-18635
皿	-18636
艋	-18637
讹	-18638
黯	-18639
哗	-18640
檎	-18641
餵	-18642
骥	-18643
炙	-18644
珲	-18645
舺	-18646
ر	-18647
钳	-18648
郢	-18649
沌	-18650
胪	-18651
鲫	-18652
蚬	-18653
佃	-18654
惰	-18655
旌	-18656
嫂	-18657
匝	-18658
璞	-18659
鄙	-18660
镕	-18661
劭	-18662
匮	-18663
唔	-18664
ナ	-18665
阇	-18666
麝	-18667
蝽	-18668
鄱	-18669
尻	-18670
浔	-18671
颉	-18672
骅	-18673
叻	-18674
昵	-18675
牒	-18676
眶	-18677
纥	-18678
з	-18679
わ	-18680
奄	-18681
妲	-18682
骷	-18683
亘	-18684
啄	-18685
缎	-18686
撇	-18687
涪	-18688
骧	-18689
歳	-18690
秤	-18691
蘑	-18692
诣	-18693
デ	-18694
玟	-18695
痒	-18696
瞰	-18697
呀	-18698
诲	-18699
ы	-18700
サ	-18701
ч	-18702
κ	-18703
ム	-18704
尴	-18705
嗅	-18706
崧	-18707
懈	-18708
凋	-18709
鳖	-18710
嚣	-18711
怠	-18712
劈	-18713
呐	-18714
槿	-18715
碁	-18716
亵	-18717
蠍	-18718
婕	-18719
祉	-18720
阗	-18721
酗	-18722
掸	-18723
汛	-18724
熏	-18725
磋	-18726
祜	-18727
岖	-18728
睾	-18729
讥	-18730
ي	-18731
淦	-18732
咲	-18733
ь	-18734
ウ	-18735
抖	-18736
拇	-18737
パ	-18738
卞	-18739
榨	-18740
睢	-18741
稼	-18742
缙	-18743
ñ	-18744
η	-18745
槓	-18746
ャ	-18747
螈	-18748
醮	-18749
钗	-18750
饵	-18751
亢	-18752
潇	-18753
睽	-18754
鱇	-18755
ひ	-18756
ょ	-18757
テ	-18758
滁	-18759
烨	-18760
麴	-18761
え	-18762
铿	-18763
罂	-18764
鮟	-18765
哮	-18766
珉	-18767
よ	-18768
覃	-18769
鼩	-18770
唆	-18771
屎	-18772
冼	-18773
赃	-18774
å	-18775
岘	-18776
铯	-18777
靓	-18778
嬉	-18779
ê	-18780
ë	-18781
乖	-18782
嗓	-18783
撮	-18784
査	-18785
葺	-18786
θ	-18787
羯	-18788
咐	-18789
枭	-18790
笈	-18791
魮	-18792
鵰	-18793
彷	-18794
熬	-18795
蝎	-18796
洵	-18797
秧	-18798
ィ	-18799
凳	-18800
墘	-18801
惶	-18802
م	-18803
プ	-18804
橇	-18805
澧	-18806
痫	-18807
粲	-18808
佗	-18809
绊	-18810
酌	-18811
鹛	-18812
迳	-18813
遐	-18814
柚	-18815
堺	-18816
槌	-18817
澡	-18818
鸫	-18819
佘	-18820
摹	-18821
羹	-18822
蝨	-18823
槭	-18824
燧	-18825
蜱	-18826
ō	-18827
徘	-18828
烁	-18829
聿	-18830
^	-18831
ø	-18832
咕	-18833
娠	-18834
嬴	-18835
腋	-18836
艏	-18837
髻	-18838
愍	-18839
堑	-18840
喆	-18841
蝗	-18842
谔	-18843
淖	-18844
鸯	-18845
柩	-18846
ʁ	-18847
ハ	-18848
寥	-18849
浣	-18850
鬣	-18851
徊	-18852
歹	-18853
犍	-18854
鲿	-18855
ュ	-18856
珑	-18857
纾	-18858
踝	-18859
瓮	-18860
醯	-18861
锑	-18862
讫	-18863
鸳	-18864
ß	-18865
ニ	-18866
渍	-18867
癖	-18868
漱	-18869
甯	-18870
荻	-18871
躬	-18872
バ	-18873
窖	-18874
轶	-18875
鲆	-18876
碌	-18877
贰	-18878
喂	-18879
忱	-18880
梢	-18881
碇	-18882
铳	-18883
泓	-18884
洱	-18885
灸	-18886
筱	-18887
羨	-18888
茧	-18889
娼	-18890
脐	-18891
缢	-18892
鳢	-18893
钡	-18894
湍	-18895
钍	-18896
ろ	-18897
亳	-18898
叩	-18899
赓	-18900
郴	-18901
俏	-18902
琨	-18903
甩	-18904
窒	-18905
垅	-18906
怯	-18907
氙	-18908
蟠	-18909
俑	-18910
崴	-18911
桁	-18912
筲	-18913
寞	-18914
龈	-18915
叟	-18916
娩	-18917
胄	-18918
呜	-18919
恬	-18920
缇	-18921
锭	-18922
悯	-18923
蔻	-18924
邬	-18925
●	-18926
捻	-18927
苳	-18928
兮	-18929
窘	-18930
脩	-18931
ダ	-18932
肄	-18933
č	-18934
晔	-18935
晷	-18936
玖	-18937
蓓	-18938
蜕	-18939
弛	-18940
疵	-18941
钺	-18942
و	-18943
せ	-18944
惇	-18945
慑	-18946
漩	-18947
痊	-18948
轧	-18949
闇	-18950
鞅	-18951
耽	-18952
蒴	-18953
蕈	-18954
骰	-18955
呤	-18956
珞	-18957
镳	-18958
鼐	-18959
ガ	-18960
掏	-18961
煦	-18962
脇	-18963
谪	-18964
ɛ	-18965
ビ	-18966
屁	-18967
盂	-18968
嚼	-18969
宥	-18970
杵	-18971
毡	-18972
拣	-18973
姥	-18974
炱	-18975
疣	-18976
狡	-18977
罔	-18978
歆	-18979
脷	-18980
俳	-18981
挛	-18982
碾	-18983
筏	-18984
僭	-18985
妤	-18986
燊	-18987
驭	-18988
箔	-18989
胫	-18990
锄	-18991
泮	-18992
岙	-18993
檄	-18994
溅	-18995
铮	-18996
め	-18997
メ	-18998
畠	-18999
凛	-19000
枉	-19001
踞	-19002
雒	-19003
扒	-19004
箴	-19005
赉	-19006
锟	-19007
堃	-19008
珈	-19009
ェ	-19010
氾	-19011
獭	-19012
隽	-19013
恃	-19014
烫	-19015
逅	-19016
邂	-19017
钼	-19018
骊	-19019
瞎	-19020
簷	-19021
邳	-19022
鲛	-19023
攘	-19024
猕	-19025
腱	-19026
荠	-19027
辫	-19028
霓	-19029
婪	-19030
珮	-19031
矗	-19032
铢	-19033
驮	-19034
孽	-19035
藜	-19036
鹬	-19037
ب	-19038
榛	-19039
唾	-19040
抉	-19041
畲	-19042
镭	-19043
筵	-19044
楣	-19045
沔	-19046
蕲	-19047
娑	-19048
祗	-19049
鮠	-19050
悫	-19051
楹	-19052
疡	-19053
绚	-19054
缨	-19055
佼	-19056
荨	-19057
戳	-19058
璘	-19059
絃	-19060
榉	-19061
挞	-19062
粱	-19063
蜻	-19064
霑	-19065
佤	-19066
脓	-19067
鹳	-19068
澍	-19069
糸	-19070
螨	-19071
辄	-19072
酝	-19073
阉	-19074
嘌	-19075
姗	-19076
疤	-19077
鹟	-19078
镉	-19079
闺	-19080
揉	-19081
茸	-19082
钹	-19083
骈	-19084
峒	-19085
拮	-19086
焙	-19087
荪	-19088
诹	-19089
ū	-19090
蚓	-19091
嘧	-19092
蜓	-19093
俚	-19094
恽	-19095
溼	-19096
岌	-19097
榻	-19098
锢	-19099
漾	-19100
琢	-19101
钒	-19102
钚	-19103
ゅ	-19104
嗽	-19105
噩	-19106
琬	-19107
饺	-19108
侷	-19109
疱	-19110
肱	-19111
醃	-19112
阆	-19113
⋯	-19114
咙	-19115
炖	-19116
罄	-19117
紊	-19118
黍	-19119
橱	-19120
豌	-19121
栃	-19122
蛎	-19123
モ	-19124
烙	-19125
谳	-19126
赘	-19127
铍	-19128
鼹	-19129
ã	-19130
寛	-19131
猝	-19132
痉	-19133
遽	-19134
⁄	-19135
ど	-19136
咯	-19137
庑	-19138
彧	-19139
이	-19140
匕	-19141
媲	-19142
戡	-19143
瑭	-19144
粽	-19145
蛹	-19146
靛	-19147
鲹	-19148
ш	-19149
啮	-19150
徕	-19151
菀	-19152
鲲	-19153
弁	-19154
虱	-19155
佰	-19156
栩	-19157
腈	-19158
勺	-19159
呵	-19160
戦	-19161
鮡	-19162
鲗	-19163
»	-19164
脍	-19165
谿	-19166
锷	-19167
嬷	-19168
瓘	-19169
鳟	-19170
ē	-19171
榭	-19172
疚	-19173
鱿	-19174
俐	-19175
滘	-19176
垢	-19177
帚	-19178
洄	-19179
漓	-19180
矾	-19181
鳝	-19182
爹	-19183
猬	-19184
腭	-19185
菠	-19186
≤	-19187
彿	-19188
懦	-19189
杲	-19190
蛭	-19191
鄢	-19192
鲡	-19193
杓	-19194
醴	-19195
昴	-19196
涝	-19197
稔	-19198
芎	-19199
诟	-19200
ł	-19201
氐	-19202
莅	-19203
蜈	-19204
疽	-19205
蠡	-19206
郧	-19207
鄚	-19208
î	-19209
吩	-19210
噜	-19211
弔	-19212
汹	-19213
纭	-19214
蹲	-19215
艉	-19216
铰	-19217
鬃	-19218
庠	-19219
恂	-19220
殇	-19221
獾	-19222
舫	-19223
隗	-19224
鸵	-19225
啼	-19226
酐	-19227
醍	-19228
ı	-19229
囉	-19230
鹈	-19231
勖	-19232
嬅	-19233
徳	-19234
栢	-19235
蚣	-19236
«	-19237
ć	-19238
哔	-19239
珥	-19240
痰	-19241
膦	-19242
峤	-19243
揣	-19244
珅	-19245
痺	-19246
羣	-19247
υ	-19248
ц	-19249
喧	-19250
昀	-19251
蛊	-19252
х	-19253
厮	-19254
悌	-19255
暧	-19256
淅	-19257
瑠	-19258
迩	-19259
凄	-19260
喵	-19261
孪	-19262
硖	-19263
纣	-19264
赡	-19265
そ	-19266
祢	-19267
筷	-19268
醐	-19269
颔	-19270
骞	-19271
帷	-19272
烬	-19273
诘	-19274
颢	-19275
俟	-19276
敍	-19277
甕	-19278
羔	-19279
袒	-19280
ズ	-19281
垭	-19282
嫖	-19283
踊	-19284
逞	-19285
阈	-19286
骡	-19287
柘	-19288
珩	-19289
瑁	-19290
繇	-19291
菏	-19292
铣	-19293
ゃ	-19294
惮	-19295
鲳	-19296
歎	-19297
琊	-19298
绽	-19299
æ	-19300
漪	-19301
犊	-19302
盯	-19303
褫	-19304
辻	-19305
ζ	-19306
鲂	-19307
ゆ	-19308
殁	-19309
皎	-19310
铋	-19311
镧	-19312
د	-19313
夯	-19314
瓢	-19315
缵	-19316
觊	-19317
轸	-19318
痘	-19319
癡	-19320
眩	-19321
萩	-19322
螳	-19323
锆	-19324
鲭	-19325
俪	-19326
湟	-19327
蜍	-19328
镠	-19329
摒	-19330
邛	-19331
鯙	-19332
―	-19333
糜	-19334
苋	-19335
郓	-19336
镌	-19337
ノ	-19338
佯	-19339
奭	-19340
掾	-19341
涣	-19342
羡	-19343
萸	-19344
咱	-19345
沭	-19346
箫	-19347
鲟	-19348
蝰	-19349
邾	-19350
儁	-19351
邃	-19352
鱲	-19353
憬	-19354
霾	-19355
髦	-19356
铊	-19357
阑	-19358
靺	-19359
晁	-19360
砦	-19361
啉	-19362
嫣	-19363
焯	-19364
瑯	-19365
笺	-19366
谗	-19367
遶	-19368
ŋ	-19369
祎	-19370
阖	-19371
嵇	-19372
玑	-19373
惫	-19374
戸	-19375
簪	-19376
钯	-19377
涕	-19378
茴	-19379
蝮	-19380
螃	-19381
廍	-19382
甾	-19383
睫	-19384
鞨	-19385
拚	-19386
郦	-19387
铐	-19388
闫	-19389
顼	-19390
ㄧ	-19391
撷	-19392
璿	-19393
褪	-19394
邈	-19395
顗	-19396
★	-19397
涸	-19398
诩	-19399
剷	-19400
娣	-19401
殓	-19402
炊	-19403
睁	-19404
荞	-19405
赟	-19406
馒	-19407
憧	-19408
湮	-19409
س	-19410
厩	-19411
谌	-19412
蹦	-19413
­	-19414
ョ	-19415
㑩	-19416
鲻	-19417
匐	-19418
嵊	-19419
邠	-19420
锗	-19421
耘	-19422
蔺	-19423
蠔	-19424
驷	-19425
扛	-19426
箍	-19427
匍	-19428
奂	-19429
澂	-19430
郯	-19431
锕	-19432
霁	-19433
亟	-19434
偈	-19435
砺	-19436
裨	-19437
颙	-19438
嘘	-19439
斟	-19440
辎	-19441
钇	-19442
đ	-19443
ご	-19444
ふ	-19445
ツ	-19446
乩	-19447
觎	-19448
诒	-19449
瘠	-19450
绷	-19451
萘	-19452
辇	-19453
侥	-19454
勅	-19455
攒	-19456
柝	-19457
様	-19458
闿	-19459
韭	-19460
鲇	-19461
胭	-19462
隈	-19463
牍	-19464
珏	-19465
嫦	-19466
専	-19467
嵯	-19468
縻	-19469
诋	-19470
郗	-19471
ば	-19472
栱	-19473
猥	-19474
郤	-19475
锵	-19476
闳	-19477
饬	-19478
珣	-19479
ś	-19480
孰	-19481
浬	-19482
玳	-19483
県	-19484
恙	-19485
咄	-19486
瑗	-19487
癣	-19488
砥	-19489
碲	-19490
笏	-19491
幔	-19492
晞	-19493
璠	-19494
苌	-19495
茗	-19496
藕	-19497
ɔ	-19498
镓	-19499
渺	-19500
澹	-19501
蒯	-19502
蟑	-19503
轲	-19504
า	-19505
儋	-19506
忿	-19507
涞	-19508
稗	-19509
锜	-19510
桀	-19511
э	-19512
ع	-19513
恿	-19514
榘	-19515
煲	-19516
璨	-19517
趴	-19518
嘶	-19519
廪	-19520
獠	-19521
痹	-19522
ワ	-19523
娲	-19524
怂	-19525
爨	-19526
蔼	-19527
鵙	-19528
ず	-19529
痢	-19530
盱	-19531
ж	-19532
拗	-19533
汜	-19534
鄯	-19535
呛	-19536
壑	-19537
屹	-19538
帑	-19539
槻	-19540
猖	-19541
璀	-19542
鳐	-19543
刍	-19544
玠	-19545
珙	-19546
腌	-19547
込	-19548
ा	-19549
囤	-19550
榷	-19551
讧	-19552
逛	-19553
セ	-19554
漯	-19555
薙	-19556
咆	-19557
枷	-19558
琇	-19559
糠	-19560
菈	-19561
्	-19562
棻	-19563
陉	-19564
ร	-19565
ほ	-19566
䌽	-19567
刈	-19568
揪	-19569
綦	-19570
肮	-19571
珐	-19572
睪	-19573
蛰	-19574
颞	-19575
嚐	-19576
煇	-19577
燬	-19578
碛	-19579
ァ	-19580
ケ	-19581
忤	-19582
涓	-19583
绀	-19584
绾	-19585
铌	-19586
ぶ	-19587
楯	-19588
钿	-19589
陲	-19590
ی	-19591
む	-19592
暐	-19593
ね	-19594
俺	-19595
橹	-19596
菟	-19597
郃	-19598
垛	-19599
岫	-19600
憨	-19601
锶	-19602
呋	-19603
毎	-19604
瀬	-19605
笹	-19606
ˈ	-19607
嵋	-19608
梶	-19609
蝾	-19610
唁	-19611
圜	-19612
碓	-19613
翩	-19614
耒	-19615
薮	-19616
ş	-19617
尕	-19618
旃	-19619
瑀	-19620
砵	-19621
鎗	-19622
铟	-19623
ί	-19624
ボ	-19625
倻	-19626
墉	-19627
燎	-19628
讣	-19629
镒	-19630
阂	-19631
齧	-19632
妞	-19633
峠	-19634
挹	-19635
疃	-19636
鹗	-19637
殃	-19638
湃	-19639
濡	-19640
煊	-19641
缤	-19642
ž	-19643
猾	-19644
芩	-19645
谑	-19646
谙	-19647
铼	-19648
鹑	-19649
ぐ	-19650
嘿	-19651
虬	-19652
蝌	-19653
踵	-19654
י	-19655
哄	-19656
惭	-19657
歴	-19658
氘	-19659
蒨	-19660
贽	-19661
麋	-19662
俣	-19663
椽	-19664
祟	-19665
菓	-19666
χ	-19667
暠	-19668
楫	-19669
胧	-19670
蚪	-19671
铷	-19672
锉	-19673
鲔	-19674
侑	-19675
愫	-19676
蚶	-19677
赭	-19678
阯	-19679
雹	-19680
嗪	-19681
蹂	-19682
ˋ	-19683
∈	-19684
徭	-19685
旸	-19686
镂	-19687
ð	-19688
塭	-19689
椁	-19690
楸	-19691
氩	-19692
焜	-19693
陟	-19694
眙	-19695
碣	-19696
秆	-19697
窍	-19698
荖	-19699
谧	-19700
谶	-19701
朐	-19702
桡	-19703
砀	-19704
腮	-19705
诙	-19706
䜣	-19707
剽	-19708
勗	-19709
氡	-19710
氪	-19711
瘀	-19712
睇	-19713
苴	-19714
藨	-19715
蹇	-19716
炅	-19717
獐	-19718
脲	-19719
醌	-19720
ă	-19721
恣	-19722
歩	-19723
痞	-19724
і	-19725
ت	-19726
侪	-19727
喹	-19728
坯	-19729
嶷	-19730
捩	-19731
猗	-19732
苎	-19733
豺	-19734
钤	-19735
鼱	-19736
ネ	-19737
槎	-19738
滂	-19739
藐	-19740
蜚	-19741
鹕	-19742
་	-19743
坵	-19744
彊	-19745
嘅	-19746
旼	-19747
氚	-19748
沣	-19749
犛	-19750
豊	-19751
黒	-19752
ザ	-19753
哌	-19754
寔	-19755
惺	-19756
纫	-19757
躏	-19758
凪	-19759
弭	-19760
瞪	-19761
芗	-19762
铆	-19763
锴	-19764
坨	-19765
揖	-19766
昉	-19767
翦	-19768
铱	-19769
龢	-19770
ˊ	-19771
耙	-19772
́	-19773
卍	-19774
啬	-19775
嗡	-19776
墀	-19777
爰	-19778
竑	-19779
ф	-19780
ぎ	-19781
僮	-19782
姫	-19783
孖	-19784
朦	-19785
橐	-19786
玷	-19787
羿	-19788
脯	-19789
芍	-19790
葶	-19791
袄	-19792
敎	-19793
畈	-19794
纮	-19795
觞	-19796
蹼	-19797
翱	-19798
髯	-19799
ά	-19800
र	-19801
僳	-19802
愔	-19803
獗	-19804
砜	-19805
俶	-19806
恍	-19807
汨	-19808
魟	-19809
び	-19810
ゴ	-19811
傈	-19812
塬	-19813
晗	-19814
菖	-19815
輋	-19816
ポ	-19817
崂	-19818
椴	-19819
鹞	-19820
宓	-19821
曷	-19822
篙	-19823
綝	-19824
肼	-19825
蚵	-19826
蹊	-19827
迤	-19828
阚	-19829
®	-19830
勣	-19831
惋	-19832
筊	-19833
缄	-19834
膑	-19835
蟆	-19836
辂	-19837
ه	-19838
ゲ	-19839
恸	-19840
扉	-19841
泞	-19842
臆	-19843
≥	-19844
嘟	-19845
夙	-19846
潦	-19847
蚺	-19848
蜷	-19849
霭	-19850
惣	-19851
暄	-19852
笞	-19853
関	-19854
鳀	-19855
睑	-19856
裟	-19857
锝	-19858
闩	-19859
拴	-19860
蚯	-19861
蝓	-19862
袈	-19863
铈	-19864
颛	-19865
鳔	-19866
戾	-19867
杷	-19868
牯	-19869
粿	-19870
蛞	-19871
蟀	-19872
诂	-19873
郜	-19874
鄜	-19875
鹄	-19876
ό	-19877
坷	-19878
擘	-19879
淝	-19880
玘	-19881
驒	-19882
吝	-19883
哼	-19884
窿	-19885
蜑	-19886
蹴	-19887
搓	-19888
讪	-19889
骐	-19890
喱	-19891
噻	-19892
峥	-19893
桉	-19894
稹	-19895
芪	-19896
ʃ	-19897
∞	-19898
倬	-19899
汎	-19900
莿	-19901
萜	-19902
跷	-19903
嵙	-19904
柃	-19905
蒾	-19906
藁	-19907
跖	-19908
辊	-19909
钽	-19910
霏	-19911
¥	-19912
ï	-19913
ピ	-19914
僊	-19915
璩	-19916
傕	-19917
芾	-19918
蜃	-19919
袱	-19920
跗	-19921
妫	-19922
崽	-19923
梆	-19924
灞	-19925
瑷	-19926
缬	-19927
嚎	-19928
禛	-19929
缜	-19930
膊	-19931
蟋	-19932
锹	-19933
埭	-19934
蚩	-19935
韫	-19936
飒	-19937
ו	-19938
げ	-19939
崮	-19940
枇	-19941
涎	-19942
砧	-19943
鞮	-19944
ソ	-19945
伉	-19946
沢	-19947
洺	-19948
碚	-19949
豉	-19950
飨	-19951
ح	-19952
佞	-19953
冑	-19954
搔	-19955
淼	-19956
琚	-19957
箬	-19958
蛄	-19959
酣	-19960
喔	-19961
敝	-19962
楂	-19963
溟	-19964
玥	-19965
籁	-19966
刽	-19967
怛	-19968
苄	-19969
趸	-19970
鮈	-19971
孃	-19972
泠	-19973
狒	-19974
箇	-19975
褂	-19976
ψ	-19977
傉	-19978
垓	-19979
楝	-19980
沓	-19981
綑	-19982
리	-19983
へ	-19984
刎	-19985
垠	-19986
巻	-19987
愕	-19988
泫	-19989
淌	-19990
眞	-19991
舂	-19992
轫	-19993
魇	-19994
ý	-19995
น	-19996
ベ	-19997
晾	-19998
毬	-19999
篝	-20000
簋	-20001
躄	-20002
酆	-20003
铕	-20004
铛	-20005
ː	-20006
囓	-20007
姒	-20008
婶	-20009
罡	-20010
袂	-20011
謇	-20012
ò	-20013
ヒ	-20014
佺	-20015
埴	-20016
揄	-20017
樋	-20018
祛	-20019
秣	-20020
貘	-20021
û	-20022
廨	-20023
訇	-20024
冏	-20025
樫	-20026
洹	-20027
濯	-20028
腑	-20029
菝	-20030
`	-20031
†	-20032
ホ	-20033
刨	-20034
啃	-20035
繙	-20036
葭	-20037
镯	-20038
ì	-20039
◎	-20040
沆	-20041
発	-20042
筐	-20043
菴	-20044
蜢	-20045
袤	-20046
蹶	-20047
ギ	-20048
哒	-20049
囍	-20050
拽	-20051
粑	-20052
蘸	-20053
丶	-20054
冇	-20055
澶	-20056
疙	-20057
穰	-20058
蓣	-20059
鲎	-20060
瘩	-20061
蹠	-20062
郅	-20063
镝	-20064
啾	-20065
牦	-20066
瓌	-20067
荳	-20068
辘	-20069
ヤ	-20070
媾	-20071
懊	-20072
杼	-20073
钕	-20074
樾	-20075
眨	-20076
蛀	-20077
髹	-20078
ة	-20079
อ	-20080
咫	-20081
啜	-20082
坌	-20083
増	-20084
氖	-20085
滢	-20086
缭	-20087
苾	-20088
钐	-20089
飚	-20090
鹀	-20091
ù	-20092
柞	-20093
爻	-20094
疍	-20095
眈	-20096
芈	-20097
荩	-20098
锔	-20099
鲣	-20100
鲮	-20101
麂	-20102
ξ	-20103
ペ	-20104
唧	-20105
揶	-20106
昺	-20107
獴	-20108
铧	-20109
嵘	-20110
狈	-20111
畹	-20112
瘴	-20113
礽	-20114
舔	-20115
阏	-20116
勲	-20117
哦	-20118
峄	-20119
廸	-20120
馑	-20121
鯓	-20122
鸲	-20123
ม	-20124
劵	-20125
圹	-20126
帼	-20127
怿	-20128
柽	-20129
槲	-20130
犒	-20131
璁	-20132
疝	-20133
钸	-20134
隷	-20135
다	-20136
寐	-20137
枞	-20138
焗	-20139
蓁	-20140
誊	-20141
邰	-20142
郫	-20143
霈	-20144
馗	-20145
伫	-20146
円	-20147
冴	-20148
婵	-20149
拭	-20150
淬	-20151
蔵	-20152
褥	-20153
鮄	-20154
鸬	-20155
ง	-20156
榎	-20157
矜	-20158
簸	-20159
脣	-20160
蛳	-20161
诤	-20162
遹	-20163
ъ	-20164
ش	-20165
亶	-20166
傚	-20167
吲	-20168
葜	-20169
镗	-20170
ń	-20171
ก	-20172
譁	-20173
谩	-20174
跛	-20175
ざ	-20176
勰	-20177
姉	-20178
姝	-20179
岀	-20180
棂	-20181
滏	-20182
瞧	-20183
茁	-20184
菰	-20185
藿	-20186
蛸	-20187
铤	-20188
闼	-20189
髋	-20190
鬬	-20191
咁	-20192
哚	-20193
喋	-20194
塱	-20195
洸	-20196
穂	-20197
隰	-20198
鹚	-20199
鼯	-20200
ư	-20201
ف	-20202
ق	-20203
ḥ	-20204
唢	-20205
嗝	-20206
捶	-20207
枱	-20208
楽	-20209
犷	-20210
磕	-20211
糅	-20212
㹴	-20213
徇	-20214
掐	-20215
燿	-20216
葩	-20217
蔴	-20218
鎏	-20219
̇	-20220
ㄨ	-20221
佢	-20222
佶	-20223
兢	-20224
咩	-20225
囿	-20226
壅	-20227
椋	-20228
榫	-20229
燻	-20230
箐	-20231
膈	-20232
蓑	-20233
闱	-20234
呗	-20235
咭	-20236
搪	-20237
泚	-20238
磘	-20239
荤	-20240
莳	-20241
鏖	-20242
锇	-20243
鵟	-20244
ю	-20245
ั	-20246
仡	-20247
圪	-20248
悸	-20249
牴	-20250
皙	-20251
皝	-20252
莴	-20253
ك	-20254
เ	-20255
惘	-20256
撬	-20257
棨	-20258
翳	-20259
蘅	-20260
蛏	-20261
褓	-20262
지	-20263
ˇ	-20264
া	-20265
↔	-20266
劢	-20267
喫	-20268
噗	-20269
坻	-20270
沩	-20271
砻	-20272
苕	-20273
萦	-20274
邽	-20275
饯	-20276
鹋	-20277
아	-20278
ج	-20279
嘢	-20280
晩	-20281
枸	-20282
熠	-20283
窈	-20284
苜	-20285
蛆	-20286
酢	-20287
M	-20288
ز	-20289
ぼ	-20290
伕	-20291
倣	-20292
囧	-20293
毌	-20294
泯	-20295
犸	-20296
痲	-20297
钋	-20298
镫	-20299
ヴ	-20300
哙	-20301
孳	-20302
嵴	-20303
扪	-20304
溱	-20305
焓	-20306
磬	-20307
郷	-20308
T	-20309
べ	-20310
侂	-20311
塩	-20312
嵬	-20313
嶂	-20314
巯	-20315
狨	-20316
蜊	-20317
蠹	-20318
颧	-20319
鹌	-20320
ɑ	-20321
̃	-20322
乜	-20323
拈	-20324
瓠	-20325
疸	-20326
蔘	-20327
鲢	-20328
■	-20329
埸	-20330
殒	-20331
绂	-20332
舘	-20333
苈	-20334
谄	-20335
逖	-20336
鸸	-20337
ย	-20338
‖	-20339
△	-20340
汊	-20341
舯	-20342
莼	-20343
蹬	-20344
ि	-20345
凫	-20346
噱	-20347
恵	-20348
榊	-20349
溆	-20350
磾	-20351
胯	-20352
葳	-20353
赜	-20354
邙	-20355
镱	-20356
ר	-20357
崃	-20358
梿	-20359
疋	-20360
阕	-20361
骘	-20362
犰	-20363
箓	-20364
芊	-20365
蓿	-20366
虻	-20367
趺	-20368
钌	-20369
骋	-20370
佾	-20371
毂	-20372
苫	-20373
茔	-20374
萁	-20375
黻	-20376
ě	-20377
䲗	-20378
仞	-20379
婧	-20380
弢	-20381
徨	-20382
狳	-20383
瑱	-20384
簕	-20385
罟	-20386
薏	-20387
蠵	-20388
鄄	-20389
铑	-20390
濶	-20391
牂	-20392
痣	-20393
祆	-20394
缰	-20395
胛	-20396
김	-20397
사	-20398
実	-20399
炤	-20400
玹	-20401
癞	-20402
窰	-20403
蓖	-20404
酊	-20405
隣	-20406
鸪	-20407
伝	-20408
倜	-20409
捺	-20410
睬	-20411
菘	-20412
赝	-20413
郇	-20414
龑	-20415
þ	-20416
ㄚ	-20417
咝	-20418
壆	-20419
尙	-20420
烩	-20421
瓩	-20422
绌	-20423
郾	-20424
锫	-20425
阊	-20426
驩	-20427
麸	-20428
하	-20429
͡	-20430
ա	-20431
ה	-20432
仝	-20433
倔	-20434
唛	-20435
嗲	-20436
搐	-20437
栒	-20438
燄	-20439
缈	-20440
胳	-20441
酞	-20442
雎	-20443
駄	-20444
鬓	-20445
鱚	-20446
έ	-20447
≠	-20448
ユ	-20449
効	-20450
湫	-20451
甑	-20452
笆	-20453
荽	-20454
螫	-20455
髑	-20456
鬨	-20457
가	-20458
א	-20459
々	-20460
捅	-20461
攫	-20462
枥	-20463
槙	-20464
沄	-20465
渑	-20466
炘	-20467
蕤	-20468
蛉	-20469
饕	-20470
鹧	-20471
麿	-20472
의	-20473
俦	-20474
呦	-20475
啲	-20476
圉	-20477
抡	-20478
拧	-20479
溲	-20480
秭	-20481
笳	-20482
舛	-20483
谀	-20484
钫	-20485
鰧	-20486
鹩	-20487
기	-20488
ɪ	-20489
怙	-20490
湜	-20491
砹	-20492
颏	-20493
鬲	-20494
黟	-20495
œ	-20496
ή	-20497
்	-20498
ว	-20499
ิ	-20500
㓥	-20501
仃	-20502
嗨	-20503
垌	-20504
戬	-20505
掰	-20506
砭	-20507
羸	-20508
芫	-20509
黝	-20510
त	-20511
噌	-20512
柊	-20513
桤	-20514
榖	-20515
痔	-20516
稙	-20517
褔	-20518
鉄	-20519
鋂	-20520
锾	-20521
나	-20522
म	-20523
ṣ	-20524
稃	-20525
翕	-20526
荏	-20527
蒽	-20528
阋	-20529
馔	-20530
鲬	-20531
鹎	-20532
한	-20533
ʔ	-20534
卬	-20535
吮	-20536
喰	-20537
圮	-20538
濉	-20539
炆	-20540
焱	-20541
祏	-20542
笕	-20543
逋	-20544
郏	-20545
鋆	-20546
铪	-20547
鸱	-20548
鹂	-20549
ğ	-20550
ל	-20551
่	-20552
卹	-20553
嘈	-20554
扦	-20555
抟	-20556
煚	-20557
玆	-20558
磴	-20559
肟	-20560
舢	-20561
莨	-20562
蚋	-20563
讴	-20564
辺	-20565
鄣	-20566
骜	-20567
대	-20568
俎	-20569
儆	-20570
呱	-20571
屌	-20572
拏	-20573
掴	-20574
溏	-20575
砰	-20576
绡	-20577
豨	-20578
豳	-20579
锽	-20580
黼	-20581
¬	-20582
ř	-20583
ё	-20584
∶	-20585
呸	-20586
娓	-20587
绦	-20588
缟	-20589
耜	-20590
舎	-20591
芨	-20592
螭	-20593
訚	-20594
鄠	-20595
钪	-20596
雩	-20597
颎	-20598
鳊	-20599
ύ	-20600
啥	-20601
嫚	-20602
嶝	-20603
廕	-20604
撩	-20605
珺	-20606
硐	-20607
芃	-20608
頫	-20609
鬻	-20610
鸨	-20611
ى	-20612
▲	-20613
哏	-20614
嚏	-20615
団	-20616
姣	-20617
涮	-20618
讦	-20619
谲	-20620
鱀	-20621
鲵	-20622
鸻	-20623
어	-20624
न	-20625
剡	-20626
咗	-20627
塽	-20628
幪	-20629
怅	-20630
懵	-20631
淠	-20632
瀞	-20633
盥	-20634
篾	-20635
裱	-20636
鞣	-20637
정	-20638
ṇ	-20639
≈	-20640
啰	-20641
嗟	-20642
嘏	-20643
孑	-20644
対	-20645
尪	-20646
踹	-20647
馁	-20648
ǎ	-20649
ส	-20650
偲	-20651
埂	-20652
屐	-20653
恫	-20654
柒	-20655
煖	-20656
琯	-20657
瘿	-20658
睺	-20659
粧	-20660
胝	-20661
荛	-20662
跸	-20663
铄	-20664
骢	-20665
鬟	-20666
ą	-20667
俵	-20668
劻	-20669
哋	-20670
嵗	-20671
戋	-20672
渌	-20673
湣	-20674
焖	-20675
罘	-20676
諲	-20677
鬘	-20678
주	-20679
क	-20680
ṭ	-20681
匏	-20682
杳	-20683
珽	-20684
窕	-20685
诧	-20686
铽	-20687
餮	-20688
仟	-20689
呻	-20690
埒	-20691
廆	-20692
濞	-20693
祔	-20694
縁	-20695
纨	-20696
翀	-20697
頼	-20698
성	-20699
坭	-20700
堉	-20701
宍	-20702
崆	-20703
嶙	-20704
擧	-20705
榧	-20706
潺	-20707
烺	-20708
狛	-20709
玕	-20710
瑊	-20711
缯	-20712
耨	-20713
逹	-20714
鲃	-20715
라	-20716
ɕ	-20717
ა	-20718
ㄇ	-20719
剁	-20720
屉	-20721
忡	-20722
栻	-20723
炕	-20724
熨	-20725
璎	-20726
畬	-20727
碶	-20728
総	-20729
胍	-20730
菽	-20731
蠊	-20732
詧	-20733
迢	-20734
骝	-20735
啪	-20736
圏	-20737
墬	-20738
浃	-20739
浈	-20740
禑	-20741
臾	-20742
芡	-20743
飏	-20744
동	-20745
щ	-20746
啖	-20747
璈	-20748
疥	-20749
痤	-20750
硏	-20751
窠	-20752
絵	-20753
鉏	-20754
镞	-20755
雑	-20756
颕	-20757
饴	-20758
髭	-20759
خ	-20760
呷	-20761
揹	-20762
搀	-20763
橿	-20764
浯	-20765
滉	-20766
禩	-20767
粕	-20768
缗	-20769
翥	-20770
腩	-20771
荸	-20772
衽	-20773
逯	-20774
鉲	-20775
鋐	-20776
魣	-20777
♭	-20778
傥	-20779
叁	-20780
憍	-20781
戕	-20782
昰	-20783
枹	-20784
栀	-20785
濊	-20786
臬	-20787
郛	-20788
미	-20789
ゼ	-20790
䇲	-20791
埚	-20792
晸	-20793
檩	-20794
煨	-20795
蓆	-20796
袴	-20797
豢	-20798
饨	-20799
도	-20800
서	-20801
מ	-20802
寳	-20803
悝	-20804
戆	-20805
昪	-20806
炁	-20807
狎	-20808
箸	-20809
莠	-20810
诜	-20811
鑛	-20812
일	-20813
ש	-20814
♪	-20815
⟩	-20816
䌷	-20817
哎	-20818
唬	-20819
巂	-20820
斫	-20821
楙	-20822
汭	-20823
淯	-20824
燏	-20825
狍	-20826
瘙	-20827
箝	-20828
粳	-20829
罴	-20830
舾	-20831
茌	-20832
觑	-20833
豕	-20834
迸	-20835
钆	-20836
钣	-20837
馄	-20838
黠	-20839
ط	-20840
َ	-20841
प	-20842
ต	-20843
俅	-20844
唭	-20845
垻	-20846
斓	-20847
昐	-20848
樨	-20849
満	-20850
猁	-20851
猞	-20852
瑈	-20853
碴	-20854
笪	-20855
箧	-20856
钷	-20857
镥	-20858
해	-20859
ʻ	-20860
स	-20861
ท	-20862
ạ	-20863
⟨	-20864
丼	-20865
嬛	-20866
崐	-20867
惚	-20868
槊	-20869
畯	-20870
祧	-20871
稲	-20872
蛔	-20873
裆	-20874
铡	-20875
髂	-20876
§	-20877
ぬ	-20878
伋	-20879
咚	-20880
埙	-20881
帙	-20882
捒	-20883
浐	-20884
瘁	-20885
蒺	-20886
觋	-20887
遑	-20888
闘	-20889
颀	-20890
스	-20891
ב	-20892
ת	-20893
ล	-20894
≡	-20895
哟	-20896
峋	-20897
摭	-20898
梣	-20899
椤	-20900
浍	-20901
舐	-20902
赊	-20903
赳	-20904
遒	-20905
髡	-20906
수	-20907
원	-20908
้	-20909
ぞ	-20910
ォ	-20911
凊	-20912
咔	-20913
嘹	-20914
孱	-20915
泺	-20916
渟	-20917
滹	-20918
玎	-20919
玢	-20920
眸	-20921
祓	-20922
裾	-20923
鑀	-20924
镬	-20925
鮗	-20926
ი	-20927
∧	-20928
♯	-20929
卟	-20930
庥	-20931
戢	-20932
痍	-20933
瞋	-20934
缑	-20935
腴	-20936
谠	-20937
邗	-20938
郞	-20939
镨	-20940
霎	-20941
驺	-20942
ę	-20943
พ	-20944
啧	-20945
圀	-20946
枳	-20947
樗	-20948
泱	-20949
痈	-20950
赀	-20951
铙	-20952
镤	-20953
駅	-20954
髙	-20955
ี	-20956
ุ	-20957
ヘ	-20958
嚷	-20959
圯	-20960
峁	-20961
嶲	-20962
愎	-20963
桫	-20964
欉	-20965
淸	-20966
獒	-20967
瞥	-20968
糍	-20969
繖	-20970
胂	-20971
蚱	-20972
襞	-20973
襦	-20974
赍	-20975
赧	-20976
郿	-20977
阄	-20978
隠	-20979
鲧	-20980
에	-20981
䴉	-20982
仵	-20983
傩	-20984
嗯	-20985
嬗	-20986
澪	-20987
稞	-20988
镈	-20989
馍	-20990
髪	-20991
鱥	-20992
鹱	-20993
์	-20994
〞	-20995
亓	-20996
吱	-20997
咋	-20998
嚟	-20999
[...]
