<pad>	0
<unk>	0
[CLS]	0
[SEP]	0
[MASK]	0
(	0
)	0
”	0
-	0
.	0
–	0
£	0
€	0
20	-0
19	-1
201	-2
200	-3
一个	-4
▁19	-5
中国	-6
10	-7
▁在	-8
人口	-9
an	-10
18	-11
美国	-12
er	-13
位于	-14
12	-15
▁201	-16
公里	-17
in	-18
00	-19
or	-20
大学	-21
on	-22
可以	-23
11	-24
公司	-25
日本	-26
地区	-27
政府	-28
平方	-29
使用	-30
的一个	-31
成为	-32
香港	-33
开始	-34
ar	-35
国家	-36
15	-37
台湾	-38
的一	-39
第一	-40
以及	-41
▁200	-42
其中	-43
en	-44
进行	-45
la	-46
平方公里	-47
▁这	-48
包括	-49
面积	-50
主要	-51
世界	-52
16	-53
人民	-54
st	-55
17	-56
没有	-57
他们	-58
部分	-59
研究	-60
是一	-61
al	-62
199	-63
委员	-64
认为	-65
由于	-66
14	-67
获得	-68
30	-69
at	-70
▁该	-71
第二	-72
其他	-73
▁c	-74
之后	-75
因为	-76
▁他	-77
因此	-78
代表	-79
国际	-80
电影	-81
13	-82
▁t	-83
工作	-84
运动	-85
▁s	-86
当时	-87
ic	-88
政治	-89
中华	-90
同时	-91
le	-92
系统	-93
电视	-94
中心	-95
作为	-96
自己	-97
re	-98
之一	-99
中的	-100
▁m	-101
英国	-102
担任	-103
发展	-104
可能	-105
学院	-106
成立	-107
时间	-108
25	-109
不同	-110
属于	-111
」,	-112
▁此	-113
he	-114
称为	-115
设计	-116
ro	-117
中央	-118
通过	-119
for	-120
▁《	-121
发现	-122
198	-123
法国	-124
游戏	-125
社会	-126
行政	-127
it	-128
铁路	-129
表示	-130
50	-131
音乐	-132
mu	-133
他的	-134
建筑	-135
共和	-136
is	-137
委员会	-138
文化	-139
▁p	-140
负责	-141
组织	-142
年的	-143
根据	-144
历史	-145
出现	-146
21	-147
」。	-148
世纪	-149
年代	-150
参加	-151
am	-152
车站	-153
▁b	-154
学校	-155
24	-156
主义	-157
后来	-158
期间	-159
经济	-160
上的	-161
管理	-162
▁199	-163
单位	-164
所有	-165
市镇	-166
影响	-167
正式	-168
最后	-169
提供	-170
▁d	-171
发生	-172
共和国	-173
23	-174
也是	-175
城市	-176
利亚	-177
北京	-178
作品	-179
》,	-180
已经	-181
许多	-182
时期	-183
之间	-184
德国	-185
活动	-186
大的	-187
一些	-188
28	-189
、《	-190
mula	-191
▁但	-192
ac	-193
formula	-194
▁而	-195
全国	-196
教育	-197
es	-198
el	-199
,200	-200
问题	-201
26	-202
下辖	-203
人的	-204
尼亚	-205
这个	-206
目前	-207
27	-208
以下	-209
比赛	-210
足球	-211
进入	-212
服务	-213
un	-214
第三	-215
197	-216
民国	-217
上海	-218
成员	-219
名为	-220
as	-221
两个	-222
22	-223
40	-224
工程	-225
行星	-226
重要	-227
60	-228
最终	-229
ol	-230
战争	-231
这些	-232
生活	-233
密度	-234
节目	-235
il	-236
为了	-237
ch	-238
海拔	-239
关系	-240
人物	-241
方面	-242
发行	-243
联合	-244
分布	-245
000	-246
支持	-247
罗斯	-248
决定	-249
29	-250
到了	-251
学生	-252
制作	-253
ion	-254
▁198	-255
举行	-256
是在	-257
并且	-258
技术	-259
参与	-260
分别	-261
加入	-262
et	-263
高度	-264
▁h	-265
虽然	-266
》、《	-267
学家	-268
zh	-269
事件	-270
系列	-271
需要	-272
同年	-273
冠军	-274
▁由于	-275
大陆	-276
印度	-277
计划	-278
专辑	-279
地方	-280
▁其	-281
欧洲	-282
▁g	-283
建立	-284
一般	-285
人口密度	-286
的人	-287
保护	-288
学名	-289
会议	-290
拥有	-291
最高	-292
北部	-293
100	-294
▁o	-295
宣布	-296
▁大	-297
南部	-298
例如	-299
194	-300
组成	-301
▁本	-302
完成	-303
成功	-304
独立	-305
us	-306
是一个	-307
31	-308
国民	-309
▁w	-310
自由	-311
小行星	-312
要求	-313
主教	-314
斯特	-315
方式	-316
联赛	-317
▁f	-318
受到	-319
om	-320
有一	-321
位于该	-322
人民共和国	-323
存在	-324
通常	-325
就是	-326
对于	-327
所以	-328
毕业	-329
总统	-330
艺术	-331
列车	-332
开发	-333
球队	-334
▁a	-335
集团	-336
了一	-337
总面积	-338
出版	-339
管辖	-340
产生	-341
当地	-342
的大	-343
生产	-344
来自	-345
ur	-346
二十	-347
ing	-348
196	-349
ed	-350
情况	-351
and	-352
特别	-353
▁194	-354
另外	-355
的是	-356
id	-357
然而	-358
提出	-359
》。	-360
前往	-361
中华人民共和国	-362
不过	-363
形成	-364
采用	-365
195	-366
时代	-367
用于	-368
1,	-369
中共	-370
35	-371
2010	-372
选举	-373
民主	-374
生于	-375
▁18	-376
合作	-377
的一个市镇	-378
现在	-379
航空	-380
得到	-381
具有	-382
导致	-383
控制	-384
变化	-385
时的	-386
▁n	-387
ra	-388
植物	-389
70	-390
罗马	-391
机场	-392
结束	-393
▁l	-394
语言	-395
主席	-396
联盟	-397
俄罗斯	-398
造成	-399
除了	-400
只有	-401
女性	-402
一种	-403
西亚	-404
无法	-405
革命	-406
海军	-407
科学	-408
80	-409
动物	-410
2011	-411
海拔高度	-412
取得	-413
名的	-414
ig	-415
交通	-416
有限	-417
ent	-418
西班	-419
来的	-420
:“	-421
西班牙	-422
接受	-423
继续	-424
超过	-425
人员	-426
年人口	-427
新闻	-428
▁根据	-429
但是	-430
任何	-431
父亲	-432
韩国	-433
一直	-434
经过	-435
故事	-436
角色	-437
传统	-438
领导	-439
中华民国	-440
ow	-441
歌曲	-442
台北	-443
首次	-444
相关	-445
自己的	-446
如果	-447
项目	-448
增加	-449
帝国	-450
并在	-451
▁它	-452
大利	-453
位于该国	-454
部队	-455
机构	-456
都是	-457
结果	-458
附近	-459
工业	-460
结构	-461
十二	-462
37	-463
▁当	-464
▁阿	-465
▁"	-466
非常	-467
平均	-468
军事	-469
之前	-470
2019	-471
标准	-472
公园	-473
共产	-474
38	-475
36	-476
ad	-477
▁195	-478
个人	-479
ut	-480
内的	-481
也有	-482
建于	-483
中国大陆	-484
是由	-485
并不	-486
os	-487
中学	-488
行动	-489
发表	-490
公路	-491
还有	-492
版本	-493
设有	-494
居民	-495
分布于	-496
过程	-497
我们	-498
im	-499
自治	-500
现代	-501
这一	-502
90	-503
34	-504
小说	-505
苏联	-506
内容	-507
重新	-508
格兰	-509
改为	-510
分为	-511
有关	-512
演员	-513
热带	-514
▁197	-515
iv	-516
出的	-517
区域	-518
街道	-519
▁the	-520
地的	-521
电子	-522
民族	-523
年至	-524
反对	-525
直接	-526
甚至	-527
新的	-528
▁此外	-529
将军	-530
方法	-531
▁of	-532
纪念	-533
处理	-534
书记	-535
负责管辖	-536
▁k	-537
这种	-538
大量	-539
为主	-540
后的	-541
范围	-542
39	-543
教授	-544
军队	-545
朝鲜	-546
进士	-547
另一	-548
调查	-549
完全	-550
总人口	-551
共有	-552
▁有	-553
学习	-554
最佳	-555
名称	-556
建设	-557
距离	-558
必须	-559
东北	-560
2012	-561
一起	-562
:「	-563
亚洲	-564
美元	-565
协会	-566
第四	-567
环境	-568
生物	-569
位置	-570
区的	-571
主任	-572
克斯	-573
于是	-574
br	-575
战斗	-576
2,	-577
法院	-578
od	-579
太阳	-580
广东	-581
媒体	-582
45	-583
市场	-584
银行	-585
ot	-586
理论	-587
性的	-588
举办	-589
随着	-590
多数	-591
议会	-592
安全	-593
包含	-594
企业	-595
共同	-596
ia	-597
发布	-598
反应	-599
选择	-600
文学	-601
下的	-602
创作	-603
形式	-604
显示	-605
年间	-606
ir	-607
直到	-608
利用	-609
不能	-610
设立	-611
▁然而	-612
han	-613
省的一个市镇	-614
行为	-615
48	-616
▁196	-617
指挥	-618
政治人物	-619
制造	-620
联邦	-621
太平	-622
▁马	-623
数据	-624
体育	-625
执行	-626
2009	-627
自然	-628
决赛	-629
有限公司	-630
赛事	-631
小时	-632
三年	-633
基本	-634
2013	-635
解放	-636
攻击	-637
西部	-638
2016	-639
实际	-640
▁」	-641
曾经	-642
随后	-643
的地	-644
动画	-645
能够	-646
相当	-647
公开	-648
2014	-649
人类	-650
能力	-651
意大利	-652
下辖的一个	-653
日在	-654
关于	-655
计算	-656
他在	-657
女子	-658
议员	-659
33	-660
类似	-661
em	-662
——	-663
再次	-664
部长	-665
2015	-666
基础	-667
功能	-668
阿尔	-669
很多	-670
蒙古	-671
职业	-672
不是	-673
是一种	-674
共产党	-675
希望	-676
▁同年	-677
克兰	-678
使得	-679
机车	-680
法律	-681
文物	-682
大会	-683
达到	-684
32	-685
十一	-686
,《	-687
尔斯	-688
▁v	-689
表现	-690
定的	-691
ec	-692
▁其中	-693
拉斯	-694
广州	-695
不同的	-696
推出	-697
运动员	-698
一次	-699
路线	-700
空间	-701
时候	-702
主持	-703
ap	-704
离开	-705
团体	-706
三个	-707
巴士	-708
单曲	-709
作用	-710
国王	-711
um	-712
广播	-713
▁2013	-714
山东	-715
政策	-716
商业	-717
2000	-718
浙江	-719
2008	-720
op	-721
演出	-722
拍摄	-723
纪录	-724
▁st	-725
统治	-726
官方	-727
而且	-728
▁in	-729
专业	-730
,“	-731
约翰	-732
东京	-733
各种	-734
▁她	-735
▁从	-736
医院	-737
方向	-738
英文	-739
▁2016	-740
ag	-741
▁李	-742
并于	-743
▁新	-744
级行政	-745
资料	-746
,000	-747
仍然	-748
产品	-749
一样	-750
唯一	-751
实验	-752
东南	-753
乡镇	-754
等地	-755
斯坦	-756
ation	-757
▁虽然	-758
基督	-759
是法国	-760
严重	-761
之间的	-762
儿子	-763
人口为	-764
加拿	-765
▁另外	-766
的主	-767
ip	-768
相同	-769
全球	-770
模式	-771
任务	-772
▁2014	-773
早期	-774
博物	-775
第一次	-776
宗教	-777
逐渐	-778
下辖以下	-779
规模	-780
西北	-781
四川	-782
或者	-783
群岛	-784
2017	-785
飞机	-786
▁2012	-787
▁2015	-788
年在	-789
男性	-790
纽约	-791
2001	-792
」、	-793
西南	-794
以来	-795
被称为	-796
的特	-797
最大	-798
城镇	-799
▁j	-800
75	-801
天主教	-802
▁2010	-803
原因	-804
部份	-805
青年	-806
简称	-807
2007	-808
乌克兰	-809
细胞	-810
是中国	-811
▁总面积	-812
最初	-813
当选	-814
道路	-815
歌手	-816
号线	-817
希腊	-818
是下辖的一个	-819
连接	-820
击败	-821
▁曾	-822
演唱	-823
播出	-824
等人	-825
公共	-826
不久	-827
南京	-828
高速	-829
每平方公里	-830
他们的	-831
报告	-832
190	-833
▁2017	-834
家庭	-835
指出	-836
英语	-837
博士	-838
事务	-839
越南	-840
全部	-841
%,	-842
合并	-843
网络	-844
▁e	-845
2006	-846
人士	-847
应用	-848
去世	-849
导演	-850
加拿大	-851
下辖以下地区	-852
清朝	-853
65	-854
发动	-855
属的	-856
▁自	-857
▁与	-858
轨道	-859
定义	-860
2018	-861
▁,	-862
明朝	-863
ul	-864
栖息	-865
投资	-866
则是	-867
母亲	-868
司令	-869
▁2018	-870
训练	-871
地球	-872
持续	-873
广场	-874
物理	-875
者的	-876
透过	-877
不会	-878
▁2008	-879
公布	-880
它们	-881
▁2011	-882
阿拉	-883
东部	-884
年后	-885
球员	-886
死亡	-887
描述	-888
博物馆	-889
的新	-890
这样	-891
▁小行星	-892
下的一个	-893
天津	-894
男子	-895
制度	-896
整个	-897
分钟	-898
级行政单位	-899
规定	-900
列表	-901
风格	-902
开放	-903
中文	-904
目标	-905
乡镇级行政单位	-906
尽管	-907
%。	-908
记载	-909
漫画	-910
▁王	-911
名字	-912
化学	-913
比较	-914
多的	-915
先后	-916
马来	-917
办公	-918
伦敦	-919
▁现	-920
出生	-921
四年	-922
千米	-923
葡萄	-924
里斯	-925
47	-926
th	-927
科技	-928
的第	-929
大战	-930
设置	-931
美洲	-932
▁一	-933
年度	-934
速度	-935
是下辖的一个乡镇级行政单位	-936
电视台	-937
处于	-938
外交	-939
公尺	-940
出身	-941
▁后	-942
2005	-943
赛季	-944
人口密度每平方公里	-945
▁3	-946
最早	-947
连续	-948
46	-949
经常	-950
改革	-951
学者	-952
土地	-953
年起	-954
爆发	-955
河南	-956
帮助	-957
的主要	-958
▁后来	-959
恢复	-960
两人	-961
杂志	-962
55	-963
不少	-964
玩家	-965
福建	-966
然后	-967
ist	-968
是位于	-969
经营	-970
▁圣	-971
立法	-972
▁2	-973
改变	-974
澳门	-975
av	-976
作家	-977
▁西	-978
引起	-979
同样	-980
」、「	-981
乐部	-982
▁为	-983
图示	-984
命名	-985
国的	-986
ce	-987
战役	-988
陆军	-989
年时的	-990
俱乐部	-991
大部分	-992
▁该市镇	-993
著名	-994
最大的	-995
成绩	-996
网站	-997
将其	-998
家族	-999
以上	-1000
▁目前	-1001
ay	-1002
地下	-1003
te	-1004
▁中国	-1005
▁由	-1006
ie	-1007
贸易	-1008
每年	-1009
她的	-1010
飞行	-1011
人口变化	-1012
▁4	-1013
▁是	-1014
太平洋	-1015
赢得	-1016
ak	-1017
▁这些	-1018
人口变化图示	-1019
元年	-1020
当中	-1021
ter	-1022
分子	-1023
教堂	-1024
有的	-1025
og	-1026
加上	-1027
部门	-1028
物种	-1029
▁r	-1030
还是	-1031
500	-1032
斯科	-1033
的一部分	-1034
信息	-1035
表演	-1036
锦标	-1037
汽车	-1038
身份	-1039
这是	-1040
规划	-1041
取代	-1042
长的	-1043
月台	-1044
居住	-1045
业务	-1046
oc	-1047
比亚	-1048
建议	-1049
▁南	-1050
图书	-1051
中部	-1052
出生于	-1053
多次	-1054
▁因此	-1055
会的	-1056
第二次	-1057
型的	-1058
第五	-1059
教区	-1060
▁2009	-1061
尔德	-1062
人们	-1063
警察	-1064
3,	-1065
阶段	-1066
协助	-1067
▁当时	-1068
武器	-1069
建造	-1070
64	-1071
▁于	-1072
ab	-1073
95	-1074
三十	-1075
,19	-1076
▁不过	-1077
皇帝	-1078
领域	-1079
条件	-1080
体的	-1081
回到	-1082
遭到	-1083
年时的人口为	-1084
至今	-1085
分析	-1086
设施	-1087
左右	-1088
解放军	-1089
以后	-1090
▁formula	-1091
荷兰	-1092
之外	-1093
面的	-1094
设备	-1095
加坡	-1096
原本	-1097
天文	-1098
奥运	-1099
贝尔	-1100
学位	-1101
几乎	-1102
运输	-1103
状态	-1104
重要的	-1105
▁张	-1106
▁据	-1107
▁8	-1108
可以指	-1109
出任	-1110
地铁	-1111
相对	-1112
可达	-1113
▁1	-1114
江苏	-1115
自动	-1116
过去	-1117
出了	-1118
ub	-1119
的一种	-1120
一名	-1121
ers	-1122
内部	-1123
唱片	-1124
属下的一个	-1125
会在	-1126
英格兰	-1127
地区的	-1128
98	-1129
社区	-1130
五年	-1131
统一	-1132
大约	-1133
任命	-1134
▁5	-1135
兄弟	-1136
批评	-1137
超级	-1138
万人	-1139
68	-1140
是指	-1141
作战	-1142
sp	-1143
官员	-1144
又称	-1145
ov	-1146
流行	-1147
广泛	-1148
兴建	-1149
湖南	-1150
排名	-1151
the	-1152
继承	-1153
毫米	-1154
▁2007	-1155
多个	-1156
计画	-1157
乐团	-1158
星期	-1159
数量	-1160
条约	-1161
在此	-1162
普查	-1163
流域	-1164
运行	-1165
频道	-1166
发射	-1167
南极	-1168
▁之后	-1169
2004	-1170
公分	-1171
电视剧	-1172
国内	-1173
拒绝	-1174
科的	-1175
第十	-1176
二年	-1177
▁卡	-1178
伊斯	-1179
▁re	-1180
主角	-1181
线路	-1182
▁同时	-1183
巴西	-1184
生长	-1185
▁高	-1186
组合	-1187
始建于	-1188
概念	-1189
影片	-1190
农业	-1191
bo	-1192
波兰	-1193
境内	-1194
佛教	-1195
十分	-1196
▁陈	-1197
展开	-1198
云南	-1199
保持	-1200
宣传	-1201
不断	-1202
▁7	-1203
准备	-1204
好的	-1205
州市	-1206
▁6	-1207
函数	-1208
进攻	-1209
44	-1210
▁<	-1211
99	-1212
所在	-1213
用来	-1214
电脑	-1215
解决	-1216
每个	-1217
ind	-1218
舰队	-1219
国民党	-1220
评论	-1221
娱乐	-1222
▁但是	-1223
的情况	-1224
减少	-1225
▁2006	-1226
记者	-1227
被认为	-1228
记录	-1229
车辆	-1230
风暴	-1231
和平	-1232
的前	-1233
国立	-1234
锦标赛	-1235
实现	-1236
一步	-1237
山脉	-1238
空军	-1239
ard	-1240
首都	-1241
基地	-1242
▁2019	-1243
精神	-1244
儿童	-1245
日军	-1246
平台	-1247
力量	-1248
▁10	-1249
并没有	-1250
子的	-1251
资源	-1252
长期	-1253
hk	-1254
日至	-1255
董事	-1256
78	-1257
线的	-1258
机会	-1259
巴黎	-1260
程序	-1261
▁这个	-1262
了一个	-1263
限制	-1264
普通	-1265
、“	-1266
奥斯	-1267
饰演	-1268
破坏	-1269
ii	-1270
元素	-1271
维尔	-1272
初期	-1273
基于	-1274
交易	-1275
新加坡	-1276
76	-1277
文物保护	-1278
▁东	-1279
只是	-1280
运动会	-1281
都有	-1282
及其	-1283
资格	-1284
祖父	-1285
羽毛	-1286
思想	-1287
双方	-1288
或是	-1289
一位	-1290
女儿	-1291
统计	-1292
个月	-1293
日起	-1294
是美国	-1295
恒星	-1296
威廉	-1297
基金	-1298
视为	-1299
,「	-1300
无线	-1301
小学	-1302
ge	-1303
49	-1304
综合	-1305
区负责管辖	-1306
协议	-1307
公元	-1308
58	-1309
力的	-1310
▁!	-1311
非洲	-1312
因而	-1313
用的	-1314
委会	-1315
犹太	-1316
它的	-1317
文物保护单位	-1318
塞尔	-1319
一年	-1320
▁他们	-1321
▁and	-1322
tw	-1323
乔治	-1324
国务	-1325
▁三	-1326
▁中	-1327
▁9	-1328
▁北	-1329
高级	-1330
又名	-1331
第一个	-1332
all	-1333
300	-1334
年开始	-1335
机关	-1336
化的	-1337
sa	-1338
西省	-1339
教会	-1340
国会	-1341
,2009	-1342
年被	-1343
用户	-1344
▁以	-1345
半岛	-1346
殖民	-1347
参赛	-1348
成的	-1349
年轻	-1350
同意	-1351
应该	-1352
程度	-1353
up	-1354
斯基	-1355
获得了	-1356
的影响	-1357
,2001	-1358
移动	-1359
平方千米	-1360
少年	-1361
都会	-1362
总部	-1363
分类	-1364
观众	-1365
不可	-1366
▁“	-1367
著名的	-1368
接近	-1369
的时候	-1370
如下	-1371
ud	-1372
治疗	-1373
拉克	-1374
是否	-1375
金属	-1376
维持	-1377
但在	-1378
产业	-1379
王朝	-1380
夏季	-1381
不明	-1382
方案	-1383
se	-1384
解释	-1385
自治区	-1386
ik	-1387
二世	-1388
实施	-1389
总理	-1390
中国人民	-1391
▁至	-1392
知道	-1393
曾在	-1394
▁刘	-1395
2003	-1396
常见	-1397
的小	-1398
▁布	-1399
ne	-1400
大型	-1401
art	-1402
是乌克兰	-1403
一带	-1404
毕业于	-1405
澳大	-1406
投入	-1407
▁「	-1408
秘书	-1409
起来	-1410
ph	-1411
大楼	-1412
使用的	-1413
奥林	-1414
里的	-1415
来说	-1416
六年	-1417
文件	-1418
图书馆	-1419
改编	-1420
色的	-1421
价值	-1422
质量	-1423
旅游	-1424
变成	-1425
56	-1426
目的	-1427
市的	-1428
▁巴	-1429
人在	-1430
物质	-1431
交流	-1432
▁安	-1433
集中	-1434
研究所	-1435
马来西亚	-1436
快速	-1437
确定	-1438
县人	-1439
qu	-1440
到达	-1441
返回	-1442
斯的	-1443
支援	-1444
尚未	-1445
结合	-1446
="	-1447
妻子	-1448
从事	-1449
ba	-1450
,199	-1451
销售	-1452
有效	-1453
氧化	-1454
光绪	-1455
▁。	-1456
▁天	-1457
进一步	-1458
体长	-1459
海岸	-1460
证明	-1461
邀请	-1462
96	-1463
sh	-1464
ill	-1465
维亚	-1466
州的	-1467
▁金	-1468
投票	-1469
播放	-1470
鳍鱼	-1471
是乌克兰的	-1472
批准	-1473
讨论	-1474
现象	-1475
不再	-1476
if	-1477
澳大利亚	-1478
电台	-1479
85	-1480
ss	-1481
海域	-1482
42	-1483
皇家	-1484
葡萄牙	-1485
公主	-1486
保留	-1487
遗址	-1488
正在	-1489
小组	-1490
高等	-1491
其后	-1492
胜利	-1493
下午	-1494
德里	-1495
报道	-1496
体系	-1497
各地	-1498
地位	-1499
大臣	-1500
河北	-1501
▁美国	-1502
来源	-1503
ok	-1504
na	-1505
公民	-1506
一世	-1507
标为	-1508
ine	-1509
创立	-1510
议院	-1511
▁2005	-1512
创办	-1513
两种	-1514
辐鳍鱼	-1515
材料	-1516
只能	-1517
承认	-1518
辐鳍鱼纲	-1519
米的	-1520
东西	-1521
▁de	-1522
▁黄	-1523
临时	-1524
重建	-1525
▁为了	-1526
的一座	-1527
▁前	-1528
针对	-1529
村落	-1530
课程	-1531
方的	-1532
类型	-1533
操作	-1534
少数	-1535
未能	-1536
停止	-1537
属下的一个种	-1538
是以	-1539
中国共产党	-1540
威尔	-1541
广告	-1542
宪法	-1543
编号	-1544
直至	-1545
第六	-1546
前的	-1547
在美国	-1548
生涯	-1549
奥林匹	-1550
总督	-1551
77	-1552
核心	-1553
▁因为	-1554
▁12	-1555
水域	-1556
如此	-1557
为一	-1558
▁香港	-1559
高的	-1560
重庆	-1561
2002	-1562
结婚	-1563
程式	-1564
铁道	-1565
选手	-1566
ang	-1567
收录	-1568
的意	-1569
王国	-1570
上映	-1571
und	-1572
hans	-1573
选区	-1574
队的	-1575
访问	-1576
客运	-1577
进行了	-1578
尤其	-1579
效力	-1580
再度	-1581
羽毛球	-1582
重点	-1583
为辐鳍鱼纲	-1584
允许	-1585
现时	-1586
测试	-1587
主题	-1588
引擎	-1589
十八	-1590
明显	-1591
▁小	-1592
事业	-1593
▁该市镇总面积	-1594
主演	-1595
西藏	-1596
日的	-1597
亦有	-1598
中山	-1599
机械	-1600
收入	-1601
试图	-1602
未来	-1603
数学	-1604
命令	-1605
世界大战	-1606
▁ch	-1607
地震	-1608
校长	-1609
朋友	-1610
说法	-1611
是日本	-1612
人工	-1613
民众	-1614
冲突	-1615
伯特	-1616
",	-1617
大多数	-1618
的研究	-1619
97	-1620
过程中	-1621
成立于	-1622
外的	-1623
注意	-1624
逝世	-1625
提高	-1626
字母	-1627
▁190	-1628
失去	-1629
的首	-1630
德语	-1631
调整	-1632
4,	-1633
高中	-1634
路易	-1635
66	-1636
就读	-1637
ct	-1638
表达	-1639
电力	-1640
生命	-1641
是一位	-1642
也在	-1643
:00	-1644
▁奥	-1645
建成	-1646
考虑	-1647
文章	-1648
台中	-1649
市长	-1650
成为了	-1651
奥林匹克	-1652
《》	-1653
ice	-1654
▁拉	-1655
国防	-1656
卫星	-1657
取消	-1658
57	-1659
43	-1660
失败	-1661
市区	-1662
争议	-1663
股份	-1664
▁例如	-1665
▁如果	-1666
的方式	-1667
数字	-1668
体长可达	-1669
隧道	-1670
南北	-1671
▁他在	-1672
九龙	-1673
澳洲	-1674
人数	-1675
武装	-1676
地利	-1677
高雄	-1678
行政区	-1679
yo	-1680
合物	-1681
联合国	-1682
看到	-1683
;}	-1684
有时	-1685
不得	-1686
曾任	-1687
移民	-1688
翻译	-1689
十年	-1690
等等	-1691
▁罗	-1692
某些	-1693
伊斯兰	-1694
着作	-1695
列为	-1696
▁克	-1697
ma	-1698
政权	-1699
大道	-1700
医学	-1701
历史上	-1702
86	-1703
瑞典	-1704
阿拉伯	-1705
名单	-1706
观察	-1707
的原	-1708
将会	-1709
有着	-1710
信号	-1711
稳定	-1712
▁和	-1713
运营	-1714
国务院	-1715
学术	-1716
ht	-1717
文字	-1718
申请	-1719
41	-1720
one	-1721
四个	-1722
▁的	-1723
事实	-1724
是一颗	-1725
同一	-1726
球场	-1727
得以	-1728
米尔	-1729
▁17	-1730
1990	-1731
加利	-1732
基督教	-1733
ber	-1734
的第一	-1735
避免	-1736
一度	-1737
栖息在	-1738
普遍	-1739
引发	-1740
湖北	-1741
一同	-1742
可能是	-1743
尼斯	-1744
动力	-1745
发售	-1746
▁全	-1747
战后	-1748
网路	-1749
有些	-1750
人民政府	-1751
相似	-1752
对手	-1753
创造	-1754
ant	-1755
欢迎	-1756
其中男性	-1757
也会	-1758
消息	-1759
市民	-1760
古代	-1761
墨西	-1762
政党	-1763
人口普查	-1764
等为	-1765
特殊	-1766
▁尽管	-1767
▁原	-1768
67	-1769
工厂	-1770
知名	-1771
科的其中	-1772
财政	-1773
▁2004	-1774
1980	-1775
▁除了	-1776
夺得	-1777
▁他的	-1778
哈尔	-1779
容易	-1780
马克	-1781
▁伊	-1782
森林	-1783
西方	-1784
知识	-1785
编辑	-1786
也被	-1787
姆斯	-1788
气象	-1789
软件	-1790
什么	-1791
▁因	-1792
出来	-1793
尔兰	-1794
其它	-1795
1999	-1796
de	-1797
出口	-1798
本身	-1799
是一名	-1800
简单	-1801
从而	-1802
台北市	-1803
夫卡	-1804
召开	-1805
尔的	-1806
士兵	-1807
酒店	-1808
乘客	-1809
中共中央	-1810
西洋	-1811
给予	-1812
台南	-1813
并非	-1814
瑞士	-1815
关注	-1816
不足	-1817
当时的	-1818
七年	-1819
斯克	-1820
菲律	-1821
乾隆	-1822
孩子	-1823
而是	-1824
菲律宾	-1825
民间	-1826
蛋白	-1827
现场	-1828
职务	-1829
并未	-1830
之下	-1831
身体	-1832
军的	-1833
隶属于	-1834
人大	-1835
表面	-1836
▁上	-1837
墨西哥	-1838
办公室	-1839
金融	-1840
的海	-1841
▁长	-1842
▁此后	-1843
经历	-1844
提名	-1845
59	-1846
400	-1847
之中	-1848
皇后	-1849
奥地利	-1850
传说	-1851
旅客	-1852
小的	-1853
安排	-1854
喜欢	-1855
89	-1856
放弃	-1857
面积为	-1858
提升	-1859
教练	-1860
87	-1861
台风	-1862
实行	-1863
代码	-1864
实际上	-1865
迅速	-1866
月至	-1867
水平	-1868
教学	-1869
模型	-1870
警方	-1871
公司的	-1872
51	-1873
150	-1874
安装	-1875
年底	-1876
禁止	-1877
亚历	-1878
io	-1879
背景	-1880
大使	-1881
资讯	-1882
69	-1883
挑战	-1884
复杂	-1885
ver	-1886
信仰	-1887
教师	-1888
袭击	-1889
主张	-1890
亿元	-1891
时任	-1892
估计	-1893
权力	-1894
装置	-1895
竞争	-1896
尼亚州	-1897
年由	-1898
爱尔兰	-1899
发电	-1900
约为	-1901
匈牙	-1902
ows	-1903
届全国	-1904
发起	-1905
埃及	-1906
▁11	-1907
也可以	-1908
九年	-1909
特的	-1910
年美国	-1911
最后一	-1912
仪式	-1913
规则	-1914
强烈	-1915
匈牙利	-1916
安徽	-1917
都市	-1918
一定	-1919
先生	-1920
深圳	-1921
万元	-1922
色列	-1923
发出	-1924
英雄	-1925
按照	-1926
62	-1927
卡尔	-1928
里亚	-1929
外国	-1930
发现了	-1931
专门	-1932
来到	-1933
球会	-1934
哲学	-1935
52	-1936
评价	-1937
在这	-1938
1998	-1939
是乌克兰的村落	-1940
率领	-1941
的地方	-1942
的高	-1943
ell	-1944
品牌	-1945
红色	-1946
广西	-1947
54	-1948
53	-1949
工具	-1950
法兰	-1951
心理	-1952
ive	-1953
学会	-1954
能量	-1955
坦克	-1956
ian	-1957
基因	-1958
吸引	-1959
比利	-1960
完整	-1961
自行	-1962
▁同	-1963
第七	-1964
十字	-1965
积极	-1966
▁以下	-1967
飓风	-1968
英尺	-1969
民主党	-1970
高速公路	-1971
抵达	-1972
▁2003	-1973
才能	-1974
势力	-1975
营运	-1976
卫生	-1977
太子	-1978
另一个	-1979
有所	-1980
权利	-1981
面对	-1982
淡水	-1983
▁zh	-1984
不满	-1985
拉丁	-1986
▁对	-1987
至少	-1988
▁这种	-1989
▁台湾	-1990
ack	-1991
构成	-1992
作曲	-1993
而被	-1994
尚书	-1995
有一个	-1996
效果	-1997
授予	-1998
报导	-1999
命名为	-2000
彼得	-2001
贡献	-2002
东方	-2003
作者	-2004
▁to	-2005
购买	-2006
装甲	-2007
武汉	-2008
▁16	-2009
1997	-2010
感到	-2011
人和	-2012
出现在	-2013
演唱会	-2014
联系	-2015
性质	-2016
威胁	-2017
ib	-2018
co	-2019
的历史	-2020
▁明	-2021
特征	-2022
如何	-2023
ta	-2024
经验	-2025
十六	-2026
制的	-2027
标志	-2028
戏剧	-2029
司马	-2030
土耳	-2031
团队	-2032
长度	-2033
79	-2034
瓦尔	-2035
师范	-2036
之子	-2037
中间	-2038
牠们	-2039
土耳其	-2040
的重要	-2041
斯塔	-2042
候选	-2043
宇宙	-2044
县的	-2045
72	-2046
美术	-2047
首府	-2048
采取	-2049
以前	-2050
多年	-2051
平方米	-2052
多种	-2053
观测	-2054
舞台	-2055
入侵	-2056
接触	-2057
更加	-2058
维奇	-2059
专家	-2060
院长	-2061
河畔	-2062
绝对	-2063
世界杯	-2064
中国人民解放军	-2065
▁随着	-2066
indows	-2067
科的其中一种	-2068
增长	-2069
领袖	-2070
的山	-2071
为止	-2072
est	-2073
气旋	-2074
泰国	-2075
▁ro	-2076
结束后	-2077
介绍	-2078
状况	-2079
地点	-2080
更名为	-2081
北京市	-2082
全长	-2083
美军	-2084
正常	-2085
亚历山	-2086
抗日	-2087
水库	-2088
88	-2089
在中国	-2090
:"	-2091
的三	-2092
被认为是	-2093
埃尔	-2094
传播	-2095
推动	-2096
,198	-2097
定为	-2098
白色	-2099
万美元	-2100
父母	-2101
▁海	-2102
撤销	-2103
缺乏	-2104
内阁	-2105
61	-2106
有人	-2107
年时	-2108
很快	-2109
拉夫	-2110
更多	-2111
bs	-2112
十三	-2113
公众	-2114
医疗	-2115
配合	-2116
硕士	-2117
周边	-2118
岁的	-2119
边界	-2120
而言	-2121
▁第	-2122
较为	-2123
压力	-2124
健康	-2125
中国大陆的	-2126
广东省	-2127
温度	-2128
几个	-2129
需求	-2130
太空	-2131
对象	-2132
理事	-2133
华人	-2134
岁时	-2135
工人	-2136
因素	-2137
启用	-2138
▁日本	-2139
,18	-2140
▁科	-2141
律师	-2142
比如	-2143
收购	-2144
▁2000	-2145
顾问	-2146
中有	-2147
晚上	-2148
后期	-2149
oh	-2150
住宅	-2151
的作品	-2152
加盟	-2153
动作	-2154
亚目	-2155
com	-2156
观点	-2157
意义	-2158
气候	-2159
的发展	-2160
委书记	-2161
经理	-2162
一条	-2163
▁二	-2164
萨克	-2165
▁两	-2166
星等为	-2167
而在	-2168
花园	-2169
▁主要	-2170
苏格兰	-2171
找到	-2172
源于	-2173
参加了	-2174
登陆	-2175
其馀	-2176
92	-2177
机器	-2178
形目	-2179
下来	-2180
63	-2181
即使	-2182
生的	-2183
知县	-2184
说明	-2185
ity	-2186
71	-2187
驾驶	-2188
降低	-2189
▁林	-2190
机的	-2191
那些	-2192
照片	-2193
man	-2194
全面	-2195
大奖	-2196
真正	-2197
神经	-2198
队伍	-2199
所有的	-2200
柏林	-2201
装备	-2202
代表大会	-2203
tr	-2204
ex	-2205
疾病	-2206
河流	-2207
入口	-2208
南方	-2209
改善	-2210
和其他	-2211
乐队	-2212
混合	-2213
1970	-2214
出席	-2215
的国家	-2216
年前	-2217
球季	-2218
测量	-2219
社会主义	-2220
相信	-2221
加利福	-2222
延伸	-2223
▁2002	-2224
74	-2225
原子	-2226
是香港	-2227
乡试	-2228
首先	-2229
日报	-2230
的问题	-2231
lo	-2232
参谋	-2233
出道	-2234
▁杨	-2235
布鲁	-2236
意识	-2237
损失	-2238
贵族	-2239
夫人	-2240
达成	-2241
▁除	-2242
农村	-2243
年龄	-2244
局长	-2245
历任	-2246
的外	-2247
当局	-2248
江西	-2249
十五	-2250
劳动	-2251
部落	-2252
张专辑	-2253
三角	-2254
经典	-2255
强调	-2256
印尼	-2257
截至	-2258
▁清	-2259
军区	-2260
举行的	-2261
修改	-2262
明朝政治人物	-2263
旗下	-2264
哥伦	-2265
出战	-2266
并将	-2267
变得	-2268
地理	-2269
秘密	-2270
表明	-2271
比例	-2272
镇下辖以下地区	-2273
尔特	-2274
死后	-2275
请求	-2276
象征	-2277
食物	-2278
受伤	-2279
而该	-2280
奖项	-2281
▁白	-2282
办理	-2283
▁唐	-2284
ong	-2285
玛丽	-2286
通车	-2287
地图	-2288
最多	-2289
▁正	-2290
以色列	-2291
大致	-2292
保罗	-2293
▁对于	-2294
▁下	-2295
大区	-2296
种族	-2297
uc	-2298
县的一个	-2299
了解	-2300
领土	-2301
73	-2302
不仅	-2303
代理	-2304
终于	-2305
被迫	-2306
法案	-2307
▁如	-2308
系统的	-2309
部的	-2310
声明	-2311
比赛中	-2312
占领	-2313
扮演	-2314
83	-2315
少女	-2316
1996	-2317
并入	-2318
摄影	-2319
大厦	-2320
错误	-2321
新疆	-2322
火箭	-2323
1000	-2324
驱逐	-2325
年初	-2326
涉及	-2327
办事	-2328
ich	-2329
||	-2330
同盟	-2331
▁x	-2332
加州	-2333
带来	-2334
执导	-2335
扩大	-2336
go	-2337
就会	-2338
家的	-2339
lay	-2340
电话	-2341
起义	-2342
▁分布于	-2343
形象	-2344
责任	-2345
司法	-2346
运作	-2347
康熙	-2348
84	-2349
的时间	-2350
华盛	-2351
君主	-2352
打击	-2353
政府的	-2354
名义	-2355
带领	-2356
符合	-2357
试验	-2358
并以	-2359
93	-2360
改造	-2361
鱼类	-2362
▁随后	-2363
1994	-2364
94	-2365
天体	-2366
抗议	-2367
是德国	-2368
华盛顿	-2369
国家的	-2370
相比	-2371
82	-2372
指导	-2373
战略	-2374
突然	-2375
示威	-2376
亨利	-2377
so	-2378
空中	-2379
的工作	-2380
那里	-2381
的故事	-2382
科学院	-2383
一座	-2384
习性	-2385
布拉	-2386
确认	-2387
岛屿	-2388
大多	-2389
爆炸	-2390
剧情	-2391
计算机	-2392
▁2001	-2393
▁嘉	-2394
丹麦	-2395
加强	-2396
海峡	-2397
篮球	-2398
可能会	-2399
▁for	-2400
一家	-2401
以外	-2402
pe	-2403
火山	-2404
展示	-2405
投降	-2406
海外	-2407
签署	-2408
得知	-2409
在日本	-2410
▁维	-2411
▁la	-2412
作出	-2413
提到	-2414
兼任	-2415
组成的	-2416
马尔	-2417
后者	-2418
丰富	-2419
1995	-2420
空气	-2421
证据	-2422
选为	-2423
事故	-2424
间的	-2425
颜色	-2426
81	-2427
海洋	-2428
创建	-2429
山西	-2430
差异	-2431
众多	-2432
位于中国	-2433
的情况下	-2434
对外	-2435
会员	-2436
阶级	-2437
萨斯	-2438
陆续	-2439
ps	-2440
是因为	-2441
麦克	-2442
在于	-2443
次年	-2444
艺人	-2445
杀死	-2446
源自	-2447
深度	-2448
食品	-2449
称作	-2450
价格	-2451
此时	-2452
西南部	-2453
犯罪	-2454
ff	-2455
大学的	-2456
天皇	-2457
地面	-2458
时期的	-2459
ate	-2460
兴趣	-2461
资金	-2462
tv	-2463
大桥	-2464
栽培	-2465
600	-2466
毕业后	-2467
这次	-2468
南极洲	-2469
依然	-2470
围绕	-2471
州的一个市镇	-2472
▁若	-2473
政协	-2474
声音	-2475
两次	-2476
化石	-2477
真实	-2478
也就是	-2479
一段	-2480
ry	-2481
促进	-2482
史上	-2483
ug	-2484
当年	-2485
恐怖	-2486
亿美元	-2487
▁al	-2488
end	-2489
▁20	-2490
年夏季	-2491
亲王	-2492
东北部	-2493
、、	-2494
对抗	-2495
山东省	-2496
转的	-2497
在香港	-2498
莫斯科	-2499
入选	-2500
▁最后	-2501
西北部	-2502
建制	-2503
黄金	-2504
荣誉	-2505
用作	-2506
世界上	-2507
列入	-2508
也不	-2509
固定	-2510
对应	-2511
180	-2512
声称	-2513
在大	-2514
退休	-2515
退出	-2516
保存	-2517
▁格	-2518
cd	-2519
轰炸	-2520
月初	-2521
ho	-2522
安德	-2523
芬兰	-2524
国民政府	-2525
身为	-2526
缅甸	-2527
步兵	-2528
随即	-2529
任职	-2530
▁其后	-2531
而成	-2532
ast	-2533
明治	-2534
北方	-2535
参考	-2536
转移	-2537
八年	-2538
生活习性	-2539
毛泽	-2540
5,	-2541
文献	-2542
周围	-2543
量的	-2544
之战	-2545
的设计	-2546
城区	-2547
骑士	-2548
可以在	-2549
走向	-2550
通道	-2551
病毒	-2552
票房	-2553
上市	-2554
▁斯	-2555
年到	-2556
往往	-2557
ign	-2558
符号	-2559
十四	-2560
近年	-2561
青岛	-2562
▁车站	-2563
成本	-2564
黑色	-2565
亦是	-2566
设于	-2567
山区	-2568
sc	-2569
91	-2570
种子	-2571
论文	-2572
▁co	-2573
上海市	-2574
▁每	-2575
马拉	-2576
药物	-2577
认识	-2578
附近的	-2579
▁元	-2580
生活习性不明	-2581
式的	-2582
今天	-2583
依据	-2584
下降	-2585
队长	-2586
周年	-2587
私人	-2588
ix	-2589
监督	-2590
毛泽东	-2591
寻找	-2592
int	-2593
免费	-2594
朝廷	-2595
合约	-2596
释放	-2597
▁pro	-2598
军团	-2599
会长	-2600
120	-2601
的事	-2602
布尔	-2603
那么	-2604
关闭	-2605
开通	-2606
书院	-2607
资产	-2608
开设	-2609
编剧	-2610
医生	-2611
不到	-2612
陕西	-2613
签订	-2614
相互	-2615
▁德	-2616
意见	-2617
农民	-2618
难以	-2619
成了	-2620
cn	-2621
▁th	-2622
▁现在	-2623
ly	-2624
检查	-2625
强度	-2626
整体	-2627
预计	-2628
贵州	-2629
挪威	-2630
原名	-2631
满足	-2632
的两	-2633
mar	-2634
▁15	-2635
为中国	-2636
的城镇	-2637
尝试	-2638
通讯	-2639
的后	-2640
在其	-2641
注册	-2642
▁第二	-2643
平原	-2644
逮捕	-2645
be	-2646
情报	-2647
亚历山大	-2648
所谓	-2649
加拉	-2650
转向	-2651
重大	-2652
800	-2653
转换	-2654
更为	-2655
的中	-2656
浙江省	-2657
1992	-2658
与其	-2659
案件	-2660
妇女	-2661
伊朗	-2662
优秀	-2663
在该	-2664
码头	-2665
特别是	-2666
的关系	-2667
江苏省	-2668
▁古	-2669
最近	-2670
主要是	-2671
领导人	-2672
合成	-2673
候选人	-2674
立即	-2675
1993	-2676
萨尔	-2677
:30	-2678
率为	-2679
▁吴	-2680
克里	-2681
格为	-2682
哥伦比亚	-2683
退役	-2684
生长于	-2685
其实	-2686
例子	-2687
发明	-2688
刺史	-2689
东南部	-2690
▁多	-2691
耶稣	-2692
困难	-2693
州府	-2694
卡斯	-2695
以北	-2696
运用	-2697
上下	-2698
佛罗	-2699
大西洋	-2700
所属	-2701
▁第一	-2702
实验室	-2703
▁哈	-2704
消费	-2705
留下	-2706
ran	-2707
学士	-2708
努力	-2709
ace	-2710
引入	-2711
▁le	-2712
法官	-2713
四川省	-2714
三世	-2715
与其他	-2716
派遣	-2717
接着	-2718
第二次世界大战	-2719
▁普	-2720
危机	-2721
防御	-2722
1991	-2723
上有	-2724
参选	-2725
杰克	-2726
进步	-2727
优势	-2728
场的	-2729
气压	-2730
御史	-2731
第八	-2732
出演	-2733
配音	-2734
这样的	-2735
考试	-2736
则为	-2737
行的	-2738
展览	-2739
指定	-2740
主要的	-2741
▁周	-2742
城堡	-2743
长江	-2744
日治	-2745
分配	-2746
典礼	-2747
手机	-2748
排行	-2749
改名为	-2750
▁1949	-2751
奥林匹克运动会	-2752
▁苏	-2753
语的	-2754
家人	-2755
▁1999	-2756
回应	-2757
对此	-2758
将领	-2759
方言	-2760
▁波	-2761
产生的	-2762
解散	-2763
党的	-2764
▁汉	-2765
下令	-2766
分别为	-2767
石油	-2768
▁民国	-2769
感染	-2770
ort	-2771
复兴	-2772
▁可	-2773
周期	-2774
国际机场	-2775
告诉	-2776
同性	-2777
6,	-2778
成都	-2779
自杀	-2780
月球	-2781
特拉	-2782
1900	-2783
▁hd	-2784
冬季	-2785
大规模	-2786
甘肃	-2787
分布在	-2788
升级	-2789
一致	-2790
巡回	-2791
上午	-2792
ke	-2793
意为	-2794
辽宁	-2795
坚持	-2796
回归	-2797
而不	-2798
以为	-2799
ue	-2800
给了	-2801
分别是	-2802
的电影	-2803
小型	-2804
1960	-2805
cl	-2806
保守	-2807
以南	-2808
柴油	-2809
供应	-2810
西兰	-2811
▁到	-2812
记忆	-2813
组建	-2814
资本	-2815
windows	-2816
十九	-2817
出版社	-2818
▁其他	-2819
德尔	-2820
举人	-2821
交换	-2822
自身	-2823
▁一般	-2824
尼西亚	-2825
长官	-2826
▁艾	-2827
▁作为	-2828
利益	-2829
玻璃	-2830
情况下	-2831
per	-2832
最为	-2833
ri	-2834
内战	-2835
吉林	-2836
▁1998	-2837
enter	-2838
特色	-2839
上阵	-2840
办事处	-2841
国军	-2842
带有	-2843
数的	-2844
义大利	-2845
穆斯	-2846
亲自	-2847
号的	-2848
讲述	-2849
已被	-2850
son	-2851
生态	-2852
德华	-2853
西安	-2854
大师	-2855
的女	-2856
已有	-2857
保险	-2858
弟弟	-2859
基金会	-2860
员工	-2861
编码	-2862
洛杉	-2863
各个	-2864
适合	-2865
斯顿	-2866
扩展	-2867
法的	-2868
副主任	-2869
房屋	-2870
we	-2871
her	-2872
▁com	-2873
二人	-2874
ect	-2875
呈现	-2876
传媒	-2877
洛杉矶	-2878
▁埃	-2879
尼克	-2880
方便	-2881
厘米	-2882
是南极洲	-2883
关键	-2884
推广	-2885
bc	-2886
剧本	-2887
公元前	-2888
▁ar	-2889
证实	-2890
me	-2891
年美国人口普查	-2892
地质	-2893
丈夫	-2894
原住	-2895
阻止	-2896
化合物	-2897
设定	-2898
俄国	-2899
分裂	-2900
平面	-2901
ga	-2902
克拉	-2903
ft	-2904
达尔	-2905
这里	-2906
大众	-2907
公爵	-2908
佔领	-2909
▁朱	-2910
绿色	-2911
更新	-2912
任命为	-2913
升为	-2914
▁永	-2915
喜剧	-2916
演奏	-2917
公安	-2918
百万	-2919
加利福尼亚州	-2920
一切	-2921
克莱	-2922
助理	-2923
步枪	-2924
修建	-2925
各自	-2926
婚姻	-2927
措施	-2928
工程师	-2929
级联赛	-2930
▁1990	-2931
属的植物	-2932
接替	-2933
本土	-2934
被视为	-2935
▁游戏	-2936
的话	-2937
陨石	-2938
海道	-2939
管理局	-2940
特里	-2941
德拉	-2942
现实	-2943
五月	-2944
家中	-2945
副主席	-2946
的音乐	-2947
分离	-2948
主办	-2949
的成员	-2950
突破	-2951
引种	-2952
殖民地	-2953
只要	-2954
留在	-2955
大幅	-2956
▁光绪	-2957
互相	-2958
中国的	-2959
座标为	-2960
点的	-2961
特定	-2962
上述	-2963
文明	-2964
用途	-2965
常见的	-2966
危险	-2967
大小	-2968
学的	-2969
类的	-2970
奥运会	-2971
原始	-2972
离子	-2973
延长	-2974
ep	-2975
军官	-2976
此后	-2977
在一	-2978
星系	-2979
是一座	-2980
1989	-2981
派出	-2982
等级	-2983
集合	-2984
科学家	-2985
年和	-2986
研发	-2987
而非	-2988
打算	-2989
ire	-2990
遗产	-2991
洛克	-2992
邻近	-2993
ord	-2994
波斯	-2995
旅行	-2996
建立了	-2997
输入	-2998
建筑物	-2999
中期	-3000
大赛	-3001
性能	-3002
制定	-3003
剧院	-3004
由人工	-3005
原则	-3006
接收	-3007
修正	-3008
内蒙古	-3009
col	-3010
态度	-3011
爵士	-3012
董事长	-3013
罗马尼亚	-3014
服役	-3015
ont	-3016
ure	-3017
改制	-3018
武帝	-3019
录音	-3020
直径	-3021
淘汰	-3022
转的小行星	-3023
中被	-3024
令人	-3025
▁一些	-3026
▁亚	-3027
增强	-3028
▁is	-3029
西班牙语	-3030
卡拉	-3031
最低	-3032
1945	-3033
德的	-3034
器的	-3035
桃园	-3036
是为	-3037
发动机	-3038
引种栽培	-3039
隶属	-3040
成长	-3041
日期	-3042
校园	-3043
各国	-3044
▁米	-3045
利斯	-3046
相关的	-3047
我的	-3048
▁最终	-3049
由人工引种栽培	-3050
得名	-3051
▁1997	-3052
他是	-3053
立方	-3054
蒙特	-3055
靠近	-3056
得到了	-3057
天文台	-3058
射击	-3059
登上	-3060
生成	-3061
镇区	-3062
很大	-3063
7,	-3064
一级	-3065
王子	-3066
明确	-3067
质疑	-3068
龙江	-3069
对方	-3070
的水	-3071
▁弗	-3072
校区	-3073
▁y	-3074
纳粹	-3075
ha	-3076
含有	-3077
金牌	-3078
暴力	-3079
▁不	-3080
环形	-3081
生存	-3082
州刺史	-3083
具体	-3084
偶像	-3085
软体	-3086
市中心	-3087
是一部	-3088
▁而在	-3089
战士	-3090
争取	-3091
形态	-3092
指示	-3093
成立的	-3094
提供了	-3095
直隶	-3096
▁万	-3097
接任	-3098
ore	-3099
会有	-3100
ust	-3101
市政府	-3102
老师	-3103
商品	-3104
销量	-3105
谈判	-3106
穆斯林	-3107
条例	-3108
之为	-3109
是台湾	-3110
文艺	-3111
,197	-3112
位于该省	-3113
1950	-3114
国家队	-3115
均为	-3116
包围	-3117
杭州	-3118
早年	-3119
边境	-3120
尤其是	-3121
▁col	-3122
古典	-3123
本地	-3124
活跃	-3125
ess	-3126
1988	-3127
维护	-3128
撞击	-3129
大坂	-3130
南非	-3131
叙利亚	-3132
的儿子	-3133
nba	-3134
站台	-3135
▁这是	-3136
反映	-3137
循环	-3138
▁宋	-3139
hr	-3140
ty	-3141
一词	-3142
货币	-3143
另一方面	-3144
启动	-3145
杀害	-3146
长达	-3147
进士出身	-3148
度的	-3149
月的	-3150
神话	-3151
秘书长	-3152
骑兵	-3153
曾于	-3154
波罗	-3155
路口	-3156
net	-3157
足球运动员	-3158
舞蹈	-3159
港口	-3160
无论	-3161
学科	-3162
的一些	-3163
日于	-3164
▁这一	-3165
理想	-3166
受欢迎	-3167
授权	-3168
培养	-3169
废除	-3170
意志	-3171
▁四	-3172
他与	-3173
地带	-3174
的同	-3175
根廷	-3176
科夫	-3177
称呼	-3178
消失	-3179
的支持	-3180
可见	-3181
位于该国西部	-3182
尼尔	-3183
詹姆斯	-3184
巴尔	-3185
今日	-3186
分支	-3187
监察	-3188
频率	-3189
缩写	-3190
十二年	-3191
在台湾	-3192
并与	-3193
▁一个	-3194
开展	-3195
爱情	-3196
▁1950	-3197
则在	-3198
会上	-3199
克尔	-3200
天下	-3201
电气	-3202
是俄罗斯	-3203
保障	-3204
颁奖	-3205
意思	-3206
出现了	-3207
高达	-3208
辖区	-3209
▁石	-3210
天然	-3211
干部	-3212
首个	-3213
食用	-3214
里达	-3215
紧急	-3216
目前尚未	-3217
完工	-3218
理解	-3219
ight	-3220
▁14	-3221
北美	-3222
天堂	-3223
生长于海拔	-3224
五个	-3225
现今	-3226
辐射	-3227
派的	-3228
米的地区	-3229
奥尔	-3230
风险	-3231
pa	-3232
定居	-3233
的方法	-3234
而不是	-3235
档案	-3236
比利时	-3237
本人	-3238
游泳	-3239
亚军	-3240
160	-3241
支流	-3242
ass	-3243
效应	-3244
昭和	-3245
他被	-3246
副书记	-3247
列出	-3248
▁/	-3249
拆除	-3250
▁中华人民共和国	-3251
首播	-3252
冰川	-3253
主持人	-3254
一职	-3255
游行	-3256
人民币	-3257
两国	-3258
十七	-3259
吉尔	-3260
理工	-3261
长沙	-3262
克罗	-3263
剧场	-3264
即位	-3265
来越	-3266
并由	-3267
宁波	-3268
上升	-3269
出售	-3270
ond	-3271
停车	-3272
相同的	-3273
患者	-3274
阳市	-3275
撰写	-3276
不敌	-3277
▁1980	-3278
两年	-3279
吸收	-3280
导弹	-3281
执政	-3282
推进	-3283
的第二	-3284
ux	-3285
lin	-3286
▁萨	-3287
▁截至	-3288
正确	-3289
方程	-3290
形状	-3291
mo	-3292
出发	-3293
▁be	-3294
采访	-3295
日后	-3296
▁1996	-3297
布莱	-3298
日正式	-3299
以上的	-3300
陆地	-3301
铁路车站	-3302
跟随	-3303
明星	-3304
部电影	-3305
▁沙	-3306
1949	-3307
越来越	-3308
马里	-3309
机制	-3310
防止	-3311
无人	-3312
抵抗	-3313
在一起	-3314
克的	-3315
写作	-3316
意外	-3317
jr	-3318
▁不久	-3319
ens	-3320
克里斯	-3321
教宗	-3322
方面的	-3323
都在	-3324
目前尚未由人工引种栽培	-3325
多人	-3326
西斯	-3327
雷斯	-3328
人民代表大会	-3329
摇滚	-3330
颁发	-3331
"。	-3332
多利亚	-3333
书籍	-3334
探险	-3335
主场	-3336
,195	-3337
足球俱乐部	-3338
每天	-3339
必要	-3340
怀疑	-3341
乡下辖以下地区	-3342
职位	-3343
足球队	-3344
为其	-3345
决议	-3346
河南省	-3347
对其	-3348
层水域	-3349
的长	-3350
代表团	-3351
部部长	-3352
视频	-3353
斯拉夫	-3354
汉族	-3355
act	-3356
检察	-3357
经由	-3358
手段	-3359
_1	-3360
法语	-3361
苹果	-3362
装饰	-3363
性别	-3364
两位	-3365
宣称	-3366
签约	-3367
收藏	-3368
是西班牙	-3369
iz	-3370
持有	-3371
联合会	-3372
▁相	-3373
大夫	-3374
的情	-3375
另有	-3376
金山	-3377
沿海	-3378
两者	-3379
总裁	-3380
货运	-3381
收视	-3382
能源	-3383
德军	-3384
700	-3385
博士学位	-3386
黑龙江	-3387
联络	-3388
股份有限公司	-3389
货物	-3390
鼓励	-3391
两名	-3392
人权	-3393
监狱	-3394
是意大利	-3395
其中包括	-3396
▁sp	-3397
足够	-3398
其中一	-3399
下了	-3400
▁许多	-3401
为人	-3402
规范	-3403
是个	-3404
05	-3405
传教	-3406
站的	-3407
审查	-3408
现任	-3409
重视	-3410
未知	-3411
▁1945	-3412
hant	-3413
公交	-3414
les	-3415
剧集	-3416
马斯	-3417
而该地的	-3418
的名字	-3419
内地	-3420
障碍	-3421
原住民	-3422
黄色	-3423
电车	-3424
法庭	-3425
平衡	-3426
主义者	-3427
▁水	-3428
设计的	-3429
模拟	-3430
加入了	-3431
ith	-3432
1985	-3433
保证	-3434
敌人	-3435
dv	-3436
到的	-3437
事实上	-3438
升任	-3439
▁1994	-3440
新竹	-3441
1986	-3442
年时的人口为人	-3443
单元	-3444
党员	-3445
牵引	-3446
会被	-3447
山县	-3448
收集	-3449
大选	-3450
称号	-3451
陷入	-3452
竞选	-3453
阿根廷	-3454
常务	-3455
司令部	-3456
▁1993	-3457
发行的	-3458
身分	-3459
圆形	-3460
犹太人	-3461
商场	-3462
考古	-3463
节度	-3464
两侧	-3465
出场	-3466
▁1995	-3467
边缘	-3468
成就	-3469
相当于	-3470
本科	-3471
欧盟	-3472
脂鲤	-3473
▁un	-3474
量子	-3475
1987	-3476
唐朝	-3477
主力	-3478
期的	-3479
▁加	-3480
意味	-3481
苏丹	-3482
的原因	-3483
中式	-3484
to	-3485
严格	-3486
代的	-3487
变为	-3488
天后	-3489
mm	-3490
卫视	-3491
当天	-3492
蓝色	-3493
影像	-3494
▁贝	-3495
美国的	-3496
艺术家	-3497
推荐	-3498
圣经	-3499
审判	-3500
是位于美国	-3501
将在	-3502
首相	-3503
报纸	-3504
通用	-3505
已于	-3506
顺利	-3507
▁1992	-3508
以东	-3509
▁位于	-3510
诗人	-3511
▁年	-3512
觉得	-3513
倾向	-3514
常委	-3515
独立的	-3516
爱德华	-3517
港元	-3518
路段	-3519
连任	-3520
仅有	-3521
做为	-3522
古老	-3523
第九	-3524
发生在	-3525
场比赛	-3526
大量的	-3527
附属	-3528
的部分	-3529
热带风暴	-3530
无线电视	-3531
当地的	-3532
警告	-3533
但由于	-3534
有许多	-3535
▁成	-3536
通信	-3537
ck	-3538
▁莫	-3539
开幕	-3540
公斤	-3541
,2010	-3542
常常	-3543
制作的	-3544
巨大	-3545
形容	-3546
9,	-3547
约有	-3548
ies	-3549
城的	-3550
联网	-3551
坐标为	-3552
英里	-3553
▁乌	-3554
南美洲	-3555
正面	-3556
▁五	-3557
国道	-3558
输出	-3559
sm	-3560
使用者	-3561
积分	-3562
此外	-3563
警报	-3564
▁i	-3565
画家	-3566
1984	-3567
群众	-3568
格拉	-3569
战队	-3570
日开始	-3571
改进	-3572
斗争	-3573
效力于	-3574
书中	-3575
客户	-3576
研究院	-3577
商人	-3578
传统的	-3579
罗德	-3580
协调	-3581
行政院	-3582
▁黑	-3583
辞职	-3584
的角色	-3585
▁赵	-3586
▁郑	-3587
升格为	-3588
改称	-3589
同时也	-3590
▁0	-3591
波尔	-3592
举办的	-3593
并无	-3594
提及	-3595
省的	-3596
财产	-3597
下一	-3598
有机	-3599
修复	-3600
维斯	-3601
民进	-3602
8,	-3603
落成	-3604
两岸	-3605
更多的	-3606
热带气旋	-3607
主义的	-3608
美国人	-3609
环形山	-3610
特兰	-3611
打破	-3612
的总	-3613
区内	-3614
发言	-3615
时报	-3616
过的	-3617
委员会委员	-3618
从此	-3619
▁红	-3620
假设	-3621
▁胡	-3622
逻辑	-3623
享年	-3624
支付	-3625
餐厅	-3626
的位置	-3627
种植	-3628
的一条	-3629
经济学	-3630
▁塔	-3631
重量	-3632
中最	-3633
▁山	-3634
▁梅	-3635
汉语	-3636
▁u	-3637
中国国民党	-3638
本站	-3639
馀人	-3640
沃尔	-3641
的形式	-3642
▁帕	-3643
发挥	-3644
以西	-3645
之处	-3646
ment	-3647
上了	-3648
感觉	-3649
确保	-3650
凌晨	-3651
位的	-3652
东京都	-3653
岛上	-3654
证券	-3655
充满	-3656
侍郎	-3657
放在	-3658
ick	-3659
]]	-3660
架构	-3661
违反	-3662
▁史	-3663
但他	-3664
商店	-3665
安东	-3666
控股	-3667
气体	-3668
还在	-3669
英军	-3670
封为	-3671
首席	-3672
ame	-3673
都被	-3674
行业	-3675
,196	-3676
250	-3677
河北省	-3678
人为	-3679
歌词	-3680
理由	-3681
区议会	-3682
福建省	-3683
通知	-3684
十一年	-3685
ina	-3686
她在	-3687
评估	-3688
汉字	-3689
西侧	-3690
本线	-3691
使其	-3692
作业	-3693
沿岸	-3694
邮政	-3695
不要	-3696
教育部	-3697
110	-3698
路易斯	-3699
游客	-3700
▁1991	-3701
地在	-3702
满洲	-3703
上帝	-3704
阳县	-3705
▁13	-3706
日下午	-3707
魔法	-3708
的基础	-3709
▁z	-3710
五十	-3711
收费	-3712
[[	-3713
污染	-3714
》、	-3715
时段	-3716
年获	-3717
创始	-3718
图像	-3719
暂时	-3720
角度	-3721
大街	-3722
,3	-3723
太后	-3724
也没有	-3725
粒子	-3726
会议员	-3727
成立了	-3728
很少	-3729
▁直到	-3730
数位	-3731
所在地	-3732
庆祝	-3733
格尔	-3734
省道	-3735
扩张	-3736
辅助	-3737
起初	-3738
领地	-3739
的政治	-3740
区间	-3741
合法	-3742
回忆	-3743
引进	-3744
首位	-3745
院士	-3746
▁英国	-3747
近代	-3748
港铁	-3749
了许多	-3750
pro	-3751
道光	-3752
天气	-3753
脱离	-3754
加哥	-3755
以此	-3756
▁最	-3757
中将	-3758
连载	-3759
低气压	-3760
手术	-3761
燃料	-3762
前后	-3763
带着	-3764
芝加哥	-3765
早上	-3766
处的	-3767
一场	-3768
立场	-3769
佛罗里达	-3770
▁经过	-3771
做出	-3772
在内的	-3773
则有	-3774
单独	-3775
晋级	-3776
三人	-3777
▁1988	-3778
咖啡	-3779
女王	-3780
▁比	-3781
登记	-3782
现在的	-3783
场所	-3784
第十一	-3785
红军	-3786
加尔	-3787
摧毁	-3788
演化	-3789
登场	-3790
▁sh	-3791
dr	-3792
龙的	-3793
时代的	-3794
策略	-3795
ide	-3796
官至	-3797
未有	-3798
湖泊	-3799
第一位	-3800
hel	-3801
研究生	-3802
区别	-3803
手枪	-3804
称之为	-3805
使用了	-3806
症状	-3807
足协	-3808
想要	-3809
层的	-3810
查理	-3811
06	-3812
▁福	-3813
改建	-3814
京都	-3815
回国	-3816
名进士	-3817
▁文	-3818
分成	-3819
1982	-3820
01	-3821
多项	-3822
她们	-3823
▁阿尔	-3824
▁华	-3825
克林	-3826
维多利亚	-3827
战斗机	-3828
大卫	-3829
格勒	-3830
卡罗	-3831
南海	-3832
终点	-3833
式月台	-3834
指控	-3835
东亚	-3836
似乎	-3837
言论	-3838
途中	-3839
物种的	-3840
米至	-3841
的城市	-3842
▁到了	-3843
江户	-3844
流传	-3845
巡洋	-3846
线上	-3847
▁此时	-3848
死于	-3849
原来	-3850
一系列	-3851
即将	-3852
观光	-3853
巨大的	-3854
已知	-3855
星的	-3856
十月	-3857
主权	-3858
江南	-3859
米亚	-3860
通往	-3861
日本的	-3862
ark	-3863
战场	-3864
多尔	-3865
是从	-3866
交界	-3867
基斯坦	-3868
每日	-3869
级别	-3870
闻名	-3871
诺夫	-3872
成立后	-3873
动车	-3874
战车	-3875
四十	-3876
该国	-3877
州负责管辖	-3878
加以	-3879
在北京	-3880
km	-3881
体育场	-3882
车厢	-3883
的数据	-3884
切尔	-3885
印刷	-3886
遭遇	-3887
冒险	-3888
ial	-3889
▁on	-3890
民进党	-3891
最早的	-3892
▁an	-3893
陨石坑	-3894
铁路局	-3895
样的	-3896
序列	-3897
秘鲁	-3898
子女	-3899
面临	-3900
湖南省	-3901
,5	-3902
pl	-3903
的不	-3904
▁特	-3905
预算	-3906
1983	-3907
ah	-3908
总会	-3909
并被	-3910
东侧	-3911
月起	-3912
游击	-3913
制片	-3914
习惯	-3915
制作人	-3916
是不	-3917
费用	-3918
原先	-3919
海拔高度为	-3920
整合	-3921
预测	-3922
就在	-3923
海上	-3924
撤退	-3925
sk	-3926
转会	-3927
节度使	-3928
来自于	-3929
的日	-3930
工会	-3931
信徒	-3932
单一	-3933
中正	-3934
直播	-3935
镜头	-3936
ory	-3937
09	-3938
他为	-3939
培训	-3940
大家	-3941
ung	-3942
创新	-3943
的最	-3944
三国	-3945
棒球	-3946
yle	-3947
先进	-3948
交给	-3949
次于	-3950
身上	-3951
▁卢	-3952
,2011	-3953
市政	-3954
河的	-3955
大革命	-3956
约瑟	-3957
▁于是	-3958
cr	-3959
▁孙	-3960
构造	-3961
末期	-3962
东南亚	-3963
短暂	-3964
赞助	-3965
琉球	-3966
的结果	-3967
屠杀	-3968
代替	-3969
交汇	-3970
根本	-3971
唯一的	-3972
▁|	-3973
▁bo	-3974
内有	-3975
年与	-3976
援助	-3977
依照	-3978
▁博	-3979
▁面积	-3980
愿意	-3981
组织的	-3982
道德	-3983
聚集	-3984
详细	-3985
希特	-3986
复盖	-3987
钢琴	-3988
融合	-3989
改名	-3990
平均海拔高度为	-3991
资助	-3992
值得	-3993
最高的	-3994
任教	-3995
行驶	-3996
ier	-3997
的反	-3998
借由	-3999
而该地的平均海拔高度为	-4000
选出	-4001
会试	-4002
河道	-4003
认证	-4004
阿里	-4005
play	-4006
早在	-4007
目的是	-4008
巡洋舰	-4009
主动	-4010
首歌	-4011
▁1989	-4012
租界	-4013
,1	-4014
开办	-4015
▁yo	-4016
布朗	-4017
清朝政治人物	-4018
的神	-4019
互联网	-4020
相应	-4021
病逝	-4022
车队	-4023
部尚书	-4024
07	-4025
场景	-4026
替代	-4027
月在	-4028
配置	-4029
ogle	-4030
▁龙	-4031
海南	-4032
迁至	-4033
伊斯兰教	-4034
山西省	-4035
席位	-4036
利的	-4037
为台湾	-4038
任期	-4039
巴拉	-4040
▁平	-4041
▁法	-4042
后被	-4043
用以	-4044
翌年	-4045
画面	-4046
斯卡	-4047
奴隶	-4048
扩建	-4049
发音	-4050
现时由	-4051
ev	-4052
岛的	-4053
嘉义	-4054
月底	-4055
征服	-4056
网球	-4057
许可	-4058
竞赛	-4059
,2	-4060
ca	-4061
呼吁	-4062
成熟	-4063
特区	-4064
驱动	-4065
塔尔	-4066
寻求	-4067
布里	-4068
提议	-4069
战术	-4070
学系	-4071
处长	-4072
室内	-4073
城县	-4074
gro	-4075
以便	-4076
08	-4077
为大	-4078
伊拉克	-4079
判决	-4080
奥斯卡	-4081
掌握	-4082
遭受	-4083
视觉	-4084
▁县	-4085
沈阳	-4086
▁瓦	-4087
彻底	-4088
船只	-4089
是为了	-4090
体制	-4091
致力	-4092
公里的	-4093
地产	-4094
超越	-4095
加利亚	-4096
建筑师	-4097
希尔	-4098
镇压	-4099
分之一	-4100
是印度	-4101
士顿	-4102
视星等为	-4103
自我	-4104
型号	-4105
担心	-4106
的电	-4107
ary	-4108
抗日战争	-4109
ms	-4110
美丽	-4111
,,	-4112
公会	-4113
干线	-4114
捷运	-4115
叛乱	-4116
1979	-4117
xt	-4118
追溯	-4119
▁谢	-4120
攻打	-4121
130	-4122
南极条约	-4123
的绝对	-4124
排列	-4125
莱茵	-4126
配备	-4127
▁在此	-4128
矛盾	-4129
mv	-4130
eng	-4131
算法	-4132
卫队	-4133
俗称	-4134
男女	-4135
意味着	-4136
也可	-4137
二级	-4138
住在	-4139
收到	-4140
来往	-4141
西里	-4142
新界	-4143
航班	-4144
日由	-4145
区和	-4146
探测	-4147
公顷	-4148
▁1985	-4149
非法	-4150
指数	-4151
救援	-4152
自称	-4153
▁韦	-4154
的父亲	-4155
三种	-4156
透露	-4157
更是	-4158
▁所以	-4159
提出了	-4160
福德	-4161
年世界	-4162
pr	-4163
岩石	-4164
适应	-4165
准决赛	-4166
设计师	-4167
企图	-4168
都督	-4169
也曾	-4170
南极条约体系	-4171
的对	-4172
span	-4173
在中	-4174
「」	-4175
的地区	-4176
可前往	-4177
,4	-4178
▁主	-4179
吉他	-4180
公开赛	-4181
总站	-4182
▁徐	-4183
bd	-4184
赤纬	-4185
占地	-4186
▁雷	-4187
land	-4188
南极条约体系管理	-4189
办法	-4190
众议院	-4191
四大	-4192
彰化	-4193
发现的	-4194
清华	-4195
停靠	-4196
进行的	-4197
色彩	-4198
北海道	-4199
像是	-4200
的山峰	-4201
委任	-4202
▁这颗	-4203
场地	-4204
▁建	-4205
赤经	-4206
商务	-4207
保加利亚	-4208
ohn	-4209
特尔	-4210
che	-4211
天的	-4212
逢星期	-4213
由此	-4214
领事	-4215
线性	-4216
分区	-4217
▁ne	-4218
日语	-4219
定期	-4220
任中共	-4221
春秋	-4222
永久	-4223
出来的	-4224
▁乾隆	-4225
族群	-4226
▁武	-4227
而来	-4228
几何	-4229
日上午	-4230
合唱	-4231
地形	-4232
潜艇	-4233
长子	-4234
委副书记	-4235
绘画	-4236
弗里	-4237
居民点	-4238
▁它们	-4239
工艺	-4240
青少年	-4241
仍有	-4242
遇到	-4243
写的	-4244
青海	-4245
微软	-4246
▁他是	-4247
04	-4248
日发行	-4249
gr	-4250
三大	-4251
等的	-4252
将于	-4253
种类	-4254
实力	-4255
iss	-4256
▁总	-4257
济南	-4258
智慧	-4259
共计	-4260
出现的	-4261
现时由南极条约体系管理	-4262
赫尔	-4263
为基础	-4264
逐步	-4265
道的	-4266
周刊	-4267
增加了	-4268
年以	-4269
同性恋	-4270
斯托	-4271
为新	-4272
粤语	-4273
▁=	-4274
相继	-4275
军人	-4276
的特有	-4277
are	-4278
边的	-4279
年任	-4280
修道	-4281
清楚	-4282
等于	-4283
修订	-4284
这项	-4285
哈尔滨	-4286
下列	-4287
也因此	-4288
延续	-4289
士尼	-4290
河流域	-4291
口径	-4292
名人	-4293
航天	-4294
战国	-4295
认同	-4296
人称	-4297
斯洛	-4298
更换	-4299
长安	-4300
影视	-4301
望远	-4302
食性	-4303
的内容	-4304
的学生	-4305
米兰	-4306
叫做	-4307
主管	-4308
的座标为	-4309
入球	-4310
全世界	-4311
ai	-4312
巴基斯坦	-4313
1946	-4314
保安	-4315
劳工	-4316
,2007	-4317
▁1986	-4318
省负责管辖	-4319
定理	-4320
消防	-4321
塞尔维亚	-4322
参谋长	-4323
迪士尼	-4324
一人	-4325
▁现时	-4326
电力机车	-4327
年他	-4328
联军	-4329
1978	-4330
翰林	-4331
一百	-4332
理查	-4333
矩阵	-4334
ern	-4335
ube	-4336
胜出	-4337
ton	-4338
▁皮	-4339
前进	-4340
参与了	-4341
全国人大	-4342
伯爵	-4343
分校	-4344
sao	-4345
,8	-4346
的国际	-4347
▁1983	-4348
成人	-4349
早期的	-4350
摩尔	-4351
夫妇	-4352
恐龙	-4353
效率	-4354
推出的	-4355
物体	-4356
ach	-4357
总经理	-4358
为此	-4359
台币	-4360
综艺	-4361
施工	-4362
旋转	-4363
区分	-4364
被捕	-4365
较大	-4366
演艺	-4367
三甲	-4368
代码为	-4369
双打	-4370
1981	-4371
成年	-4372
名词	-4373
世纪初	-4374
陕西省	-4375
坐落	-4376
2020	-4377
▁1984	-4378
裁判	-4379
登进士	-4380
就有	-4381
位于银	-4382
成果	-4383
普鲁	-4384
营业	-4385
协定	-4386
的行为	-4387
译为	-4388
新建	-4389
说是	-4390
国家公园	-4391
的地位	-4392
百姓	-4393
录影	-4394
参议院	-4395
的美国	-4396
少将	-4397
张单曲	-4398
马丁	-4399
gc	-4400
埔寨	-4401
妹妹	-4402
议题	-4403
录制	-4404
巴马	-4405
二战	-4406
队员	-4407
好评	-4408
▁八	-4409
▁并	-4410
bl	-4411
了他	-4412
座堂	-4413
当代	-4414
于此	-4415
标本	-4416
格式	-4417
望远镜	-4418
阅读	-4419
女演员	-4420
死刑	-4421
柬埔寨	-4422
改制为	-4423
足球联赛	-4424
▁1982	-4425
了他的	-4426
火车站	-4427
加速	-4428
降雨	-4429
史密	-4430
的概念	-4431
城墙	-4432
的生活	-4433
激烈	-4434
图案	-4435
指令	-4436
now	-4437
▁索	-4438
认可	-4439
ld	-4440
相连	-4441
密切	-4442
服装	-4443
集体	-4444
首度	-4445
北平	-4446
电动	-4447
依赖	-4448
地上	-4449
设在	-4450
银纬	-4451
cod	-4452
奥斯曼	-4453
▁con	-4454
▁吉	-4455
安徽省	-4456
罗伯特	-4457
为每	-4458
哥哥	-4459
ational	-4460
力学	-4461
对称	-4462
工作室	-4463
多名	-4464
▁电影	-4465
指挥官	-4466
演讲	-4467
合同	-4468
世纪的	-4469
坐标为赤经	-4470
罗马帝国	-4471
my	-4472
位于银经	-4473
1930	-4474
洛斯	-4475
理念	-4476
北市	-4477
想法	-4478
具备	-4479
尼奥	-4480
▁1987	-4481
,6	-4482
开始在	-4483
03	-4484
心脏	-4485
的分	-4486
让他	-4487
不详	-4488
加入中国共产党	-4489
不得不	-4490
出入口	-4491
刺激	-4492
az	-4493
山市	-4494
立法会	-4495
▁我	-4496
造成的	-4497
▁杜	-4498
拉尔	-4499
在他	-4500
论坛	-4501
▁莱	-4502
下属	-4503
行走	-4504
▁1946	-4505
的意思	-4506
纳入	-4507
慕尼	-4508
▁无	-4509
总监	-4510
包括了	-4511
的所有	-4512
科尔	-4513
的上	-4514
女主角	-4515
航线	-4516
较低	-4517
▁有些	-4518
团结	-4519
推行	-4520
▁双	-4521
成分	-4522
ork	-4523
巴斯	-4524
02	-4525
▁曾祖	-4526
就可以	-4527
福利	-4528
他们在	-4529
▁ra	-4530
国语	-4531
po	-4532
从未	-4533
厦门	-4534
年中	-4535
航空公司	-4536
其为	-4537
洛夫	-4538
▁1960	-4539
低于	-4540
太阳公	-4541
萨斯州	-4542
大气	-4543
▁现任	-4544
▁1970	-4545
,7	-4546
猪笼	-4547
号为	-4548
dvd	-4549
no	-4550
纳德	-4551
喜爱	-4552
女孩	-4553
家乡	-4554
观看	-4555
,2005	-4556
狮子	-4557
产生了	-4558
任天堂	-4559
1948	-4560
、2	-4561
pc	-4562
但因	-4563
▁te	-4564
平民	-4565
交易所	-4566
▁利	-4567
慈善	-4568
罗夫	-4569
为首	-4570
局的	-4571
一部	-4572
▁当地	-4573
猪笼草	-4574
1920	-4575
专用	-4576
前身	-4577
好友	-4578
医学院	-4579
深入	-4580
搜索	-4581
私立	-4582
化为	-4583
3000	-4584
的中国	-4585
题材	-4586
灭绝	-4587
物品	-4588
▁sch	-4589
十大	-4590
▁he	-4591
提出的	-4592
向量	-4593
慕尼黑	-4594
版的	-4595
顺序	-4596
省级	-4597
1940	-4598
乌斯	-4599
蛋白质	-4600
编组	-4601
重复	-4602
进口	-4603
议席	-4604
两条	-4605
尔顿	-4606
电视节目	-4607
伤害	-4608
兵团	-4609
德斯	-4610
高原	-4611
完成了	-4612
▁通常	-4613
仍在	-4614
数为	-4615
纷纷	-4616
▁塞	-4617
处理器	-4618
旧址	-4619
排行榜	-4620
补充	-4621
选秀	-4622
里克	-4623
▁这颗小行星	-4624
评为	-4625
泰勒	-4626
仅次于	-4627
中书	-4628
范围内	-4629
日常	-4630
同时也是	-4631
类似的	-4632
1975	-4633
消灭	-4634
事后	-4635
混乱	-4636
的歌曲	-4637
任内	-4638
聚落	-4639
大公	-4640
战争中	-4641
歌唱	-4642
承诺	-4643
尼古	-4644
模特	-4645
发生了	-4646
▁&	-4647
围绕太阳公	-4648
au	-4649
的绝对星等为	-4650
同学	-4651
鸟类	-4652
基隆	-4653
在英国	-4654
此同时	-4655
是一颗围绕太阳公	-4656
,9	-4657
推翻	-4658
▁这颗小行星的绝对星等为	-4659
▁1978	-4660
是一颗围绕太阳公转的小行星	-4661
次日	-4662
湖北省	-4663
送到	-4664
作曲家	-4665
火车	-4666
其中一个	-4667
下载	-4668
太守	-4669
欧元	-4670
炸弹	-4671
之际	-4672
事务所	-4673
检测	-4674
▁被	-4675
乐器	-4676
七月	-4677
飞弹	-4678
▁内	-4679
1941	-4680
原为	-4681
ock	-4682
及其他	-4683
弗朗	-4684
展现	-4685
▁托	-4686
建国	-4687
传奇	-4688
▁父亲	-4689
所辖	-4690
无限	-4691
最高点	-4692
公告	-4693
生产的	-4694
数十	-4695
精灵	-4696
hy	-4697
游戏的	-4698
在一个	-4699
子弹	-4700
司职	-4701
维修	-4702
age	-4703
此天体	-4704
共有人口	-4705
维埃	-4706
之后的	-4707
洛阳	-4708
着有	-4709
方程式	-4710
是英国	-4711
志愿	-4712
▁中华民国	-4713
主导	-4714
▁开	-4715
福州	-4716
凤凰	-4717
北侧	-4718
福音	-4719
发达	-4720
圣母	-4721
格雷	-4722
描绘	-4723
看见	-4724
old	-4725
强的	-4726
赛中	-4727
智能	-4728
▁最初	-4729
后于	-4730
引用	-4731
安娜	-4732
格里	-4733
ile	-4734
驱逐舰	-4735
纤维	-4736
101	-4737
并不是	-4738
主流	-4739
遗传	-4740
途经	-4741
极为	-4742
▁通过	-4743
四世	-4744
练习	-4745
向南	-4746
工商	-4747
捷克	-4748
1947	-4749
发生的	-4750
位于该国北部	-4751
该市	-4752
cp	-4753
沙田	-4754
流量	-4755
王位	-4756
ove	-4757
颁布	-4758
每周	-4759
雷达	-4760
▁ex	-4761
冲击	-4762
衍生	-4763
获胜	-4764
奖金	-4765
外观	-4766
istat	-4767
垂直	-4768
天使	-4769
政变	-4770
即可	-4771
兵力	-4772
ish	-4773
元帅	-4774
都不	-4775
▁1979	-4776
曾被	-4777
弗雷	-4778
环球	-4779
use	-4780
地中	-4781
拉德	-4782
共产主义	-4783
物的	-4784
职棒	-4785
▁嘉靖	-4786
左翼	-4787
▁凯	-4788
准确	-4789
争夺	-4790
始于	-4791
开工	-4792
行人	-4793
孟加拉	-4794
太原	-4795
军委	-4796
留学	-4797
天文学家	-4798
军在	-4799
刑事	-4800
天府	-4801
现有	-4802
▁库	-4803
此之外	-4804
幻想	-4805
网上	-4806
客车	-4807
布斯	-4808
苏州	-4809
中华人民共和国政治人物	-4810
取得了	-4811
形成的	-4812
携带	-4813
{}	-4814
粮食	-4815
高架	-4816
物理学	-4817
黑暗	-4818
格鲁	-4819
级的	-4820
不变	-4821
观音	-4822
的名称	-4823
气温	-4824
▁1937	-4825
经纪	-4826
东海	-4827
批判	-4828
所需	-4829
竞技	-4830
加斯	-4831
采用了	-4832
电路	-4833
萨拉	-4834
凭借	-4835
▁me	-4836
外围	-4837
在新	-4838
奖最佳	-4839
互动	-4840
国旗	-4841
政务	-4842
1972	-4843
强制	-4844
赛的	-4845
中原	-4846
相邻	-4847
1976	-4848
严重的	-4849
法兰克	-4850
人才	-4851
南侧	-4852
山的	-4853
穿着	-4854
相反	-4855
全体	-4856
da	-4857
▁霍	-4858
现存	-4859
▁国际	-4860
▁叶	-4861
注入	-4862
分之	-4863
协商	-4864
打败	-4865
同名	-4866
流动	-4867
菩萨	-4868
主打	-4869
连结	-4870
股东	-4871
乔治亚	-4872
转为	-4873
▁1958	-4874
年香港	-4875
观赏	-4876
直升	-4877
宣告	-4878
探索	-4879
这场	-4880
纳斯	-4881
之地	-4882
dna	-4883
特性	-4884
的有	-4885
追求	-4886
诉讼	-4887
四月	-4888
火星	-4889
是有	-4890
分解	-4891
运算	-4892
最多的	-4893
包含了	-4894
诞生	-4895
彼此	-4896
并且在	-4897
师范大学	-4898
迷你	-4899
祖先	-4900
是一个位于	-4901
届全国人民代表大会	-4902
功率	-4903
县城	-4904
形的	-4905
▁as	-4906
第一届	-4907
发展的	-4908
传输	-4909
台湾的	-4910
重返	-4911
台中市	-4912
做法	-4913
容纳	-4914
向北	-4915
加工	-4916
▁第三	-4917
形成了	-4918
数百	-4919
是中华人民共和国	-4920
可在	-4921
之上	-4922
初年	-4923
承担	-4924
▁洪	-4925
始终	-4926
一部分	-4927
ime	-4928
的世界	-4929
ite	-4930
现为	-4931
1973	-4932
生活在	-4933
1944	-4934
大批	-4935
夺取	-4936
继任	-4937
布雷	-4938
反而	-4939
后来的	-4940
天津市	-4941
▁又	-4942
1974	-4943
立法委员	-4944
很大的	-4945
菲利	-4946
▁日	-4947
突出	-4948
肯定	-4949
▁该市镇年时的人口为人	-4950
ica	-4951
定位	-4952
里面	-4953
美国海军	-4954
涵盖	-4955
大连	-4956
back	-4957
电池	-4958
▁1948	-4959
赛车	-4960
_2	-4961
li	-4962
德意志	-4963
ames	-4964
拿下	-4965
▁so	-4966
ara	-4967
读书	-4968
的能力	-4969
的代表	-4970
非建制	-4971
团长	-4972
开启	-4973
印象	-4974
描写	-4975
时间为	-4976
夏威	-4977
格林	-4978
涉嫌	-4979
首尔	-4980
政治家	-4981
的主题	-4982
则由	-4983
伤亡	-4984
的轨道	-4985
突厥	-4986
领先	-4987
园区	-4988
其他的	-4989
仅仅	-4990
安县	-4991
外交部	-4992
选举中	-4993
机枪	-4994
实践	-4995
当选为	-4996
年毕业于	-4997
屯门	-4998
出版的	-4999
终止	-5000
附加	-5001
识别	-5002
幕府	-5003
金刚	-5004
名举人	-5005
飞行员	-5006
年夏季奥林匹克运动会	-5007
印第	-5008
此事	-5009
中心的	-5010
ple	-5011
1958	-5012
读者	-5013
有可能	-5014
枢纽	-5015
此次	-5016
的机会	-5017
移居	-5018
政治部	-5019
写道	-5020
等职	-5021
鲁斯	-5022
大字	-5023
筹备	-5024
尸体	-5025
三次	-5026
居住在	-5027
渐渐	-5028
爱国	-5029
google	-5030
年成立	-5031
弹药	-5032
▁at	-5033
勒斯	-5034
标记	-5035
迁移	-5036
预备	-5037
的头	-5038
下半	-5039
弟子	-5040
为由	-5041
讨伐	-5042
标题	-5043
运河	-5044
部署	-5045
勋章	-5046
之名	-5047
财务	-5048
诺贝尔	-5049
变换	-5050
」;	-5051
剧中	-5052
管制	-5053
防守	-5054
查尔斯	-5055
伊利	-5056
灭亡	-5057
战胜	-5058
▁am	-5059
压缩	-5060
乡村	-5061
英镑	-5062
原理	-5063
富汗	-5064
存在的	-5065
fl	-5066
法兰西	-5067
夏威夷	-5068
平等	-5069
出自	-5070
面向	-5071
年期间	-5072
回答	-5073
珊瑚	-5074
年春	-5075
的说法	-5076
、3	-5077
上游	-5078
判断	-5079
▁天主教	-5080
▁另一方面	-5081
该校	-5082
回合	-5083
▁达	-5084
该公司	-5085
▁所有	-5086
负责人	-5087
地亚	-5088
见于	-5089
成功的	-5090
行政区划	-5091
的女儿	-5092
祭祀	-5093
雅典	-5094
入境	-5095
沟通	-5096
当作	-5097
印第安	-5098
同步	-5099
cc	-5100
队友	-5101
但却	-5102
事情	-5103
手中	-5104
权的	-5105
技巧	-5106
巡抚	-5107
永远	-5108
首歌曲	-5109
产物	-5110
六月	-5111
品质	-5112
罕默	-5113
宣言	-5114
赢得了	-5115
小姐	-5116
纪录片	-5117
运动的	-5118
九月	-5119
类型的	-5120
第十二	-5121
任意	-5122
▁该物种的	-5123
▁何	-5124
▁光	-5125
知府	-5126
认为是	-5127
守护	-5128
迫使	-5129
东区	-5130
拉多	-5131
示威者	-5132
慕容	-5133
院校	-5134
抑制	-5135
穿过	-5136
体育馆	-5137
维克	-5138
不知	-5139
公式	-5140
反抗	-5141
高于	-5142
该地	-5143
▁id	-5144
巴赫	-5145
神秘	-5146
多为	-5147
群体	-5148
修道院	-5149
滨海	-5150
领导的	-5151
经费	-5152
较高	-5153
印度尼西亚	-5154
或称	-5155
和他的	-5156
单打	-5157
lat	-5158
农场	-5159
日被	-5160
的成绩	-5161
加勒	-5162
叙述	-5163
传递	-5164
是大	-5165
医师	-5166
都可以	-5167
非建制地区	-5168
房间	-5169
iel	-5170
马克思	-5171
昆明	-5172
添加	-5173
▁1981	-5174
也纳	-5175
抗战	-5176
及后	-5177
橄榄	-5178
感情	-5179
▁梁	-5180
清代	-5181
之时	-5182
局局长	-5183
有两个	-5184
的日本	-5185
受害	-5186
性格	-5187
没有任何	-5188
有了	-5189
▁但在	-5190
年获得	-5191
品种	-5192
认定	-5193
车道	-5194
第一百	-5195
购物	-5196
期刊	-5197
菲尔德	-5198
德克	-5199
ium	-5200
人次	-5201
女神	-5202
性和	-5203
是最	-5204
1942	-5205
▁style	-5206
本地区	-5207
葡萄牙语	-5208
正义	-5209
▁牠们	-5210
美尼亚	-5211
,2006	-5212
▁次年	-5213
栖息在底	-5214
参数	-5215
这段	-5216
司机	-5217
止于	-5218
饮食	-5219
清真	-5220
重组	-5221
ts	-5222
出土	-5223
过于	-5224
变种	-5225
剧团	-5226
姓氏	-5227
职员	-5228
南昌	-5229
皮肤	-5230
前来	-5231
云南省	-5232
在内	-5233
至于	-5234
向东	-5235
古巴	-5236
虚拟	-5237
曾是	-5238
有两	-5239
穿越	-5240
内亚	-5241
约瑟夫	-5242
月开始	-5243
,10	-5244
高雄市	-5245
制成	-5246
基本上	-5247
第一次世界大战	-5248
北京大学	-5249
▁se	-5250
考察	-5251
有线	-5252
强大的	-5253
系列的	-5254
▁or	-5255
问题的	-5256
荣获	-5257
它是	-5258
界的	-5259
不但	-5260
接管	-5261
广州市	-5262
穆罕默	-5263
▁1947	-5264
六个	-5265
和人口	-5266
改良	-5267
ground	-5268
本书	-5269
介石	-5270
支线	-5271
日举行	-5272
公社	-5273
iii	-5274
宿舍	-5275
打开	-5276
副部长	-5277
发现了此天体	-5278
名誉	-5279
曹操	-5280
ax	-5281
人民法院	-5282
较少	-5283
以往	-5284
一支	-5285
文化大革命	-5286
划归	-5287
环保	-5288
又在	-5289
高校	-5290
轨道交通	-5291
一天	-5292
得分	-5293
年于	-5294
重的	-5295
1968	-5296
教徒	-5297
随机	-5298
ve	-5299
宜兰	-5300
数目	-5301
入围	-5302
点是	-5303
原创	-5304
大同	-5305
法令	-5306
全线	-5307
纳尔	-5308
情绪	-5309
du	-5310
共和党	-5311
均有	-5312
指责	-5313
工作的	-5314
▁1920	-5315
大部份	-5316
盟军	-5317
时刻	-5318
每次	-5319
佛罗里达州	-5320
三月	-5321
地名	-5322
1977	-5323
1971	-5324
▁欧	-5325
即是	-5326
离婚	-5327
县长	-5328
网友	-5329
交响	-5330
强化	-5331
hd	-5332
▁1955	-5333
%;	-5334
河口	-5335
▁麦	-5336
地域	-5337
季后	-5338
牧师	-5339
巴勒	-5340
雍正	-5341
的多	-5342
数码	-5343
本来	-5344
照顾	-5345
开始了	-5346
集会	-5347
1964	-5348
,"	-5349
原有	-5350
流经	-5351
被杀	-5352
立方米	-5353
研制	-5354
为一个	-5355
异常	-5356
识字	-5357
▁至于	-5358
了一些	-5359
担当	-5360
的一位	-5361
轰炸机	-5362
蒋介石	-5363
旨在	-5364
燃烧	-5365
的光	-5366
为热带	-5367
等待	-5368
诗歌	-5369
pre	-5370
硕士学位	-5371
毗邻	-5372
900	-5373
模式产	-5374
1966	-5375
个国家	-5376
受到了	-5377
储存	-5378
fo	-5379
山脉的一部分	-5380
其顿	-5381
机动	-5382
▁学校	-5383
ence	-5384
人生	-5385
裔美国人	-5386
jo	-5387
年以来	-5388
大帝	-5389
是对	-5390
▁法国	-5391
容量	-5392
的开	-5393
致力于	-5394
研究中心	-5395
男孩	-5396
覆盖	-5397
川县	-5398
在上海	-5399
海水	-5400
本名	-5401
阿富汗	-5402
风景	-5403
,2012	-5404
罗马天主教	-5405
之内	-5406
▁基	-5407
圣诞	-5408
发掘	-5409
▁顺	-5410
上诉	-5411
繁殖	-5412
面体	-5413
受损	-5414
ase	-5415
▁另	-5416
短期	-5417
1956	-5418
station	-5419
book	-5420
的大型	-5421
基督徒	-5422
二次	-5423
可以通过	-5424
金曲	-5425
mer	-5426
ical	-5427
总教区	-5428
专利	-5429
殿试	-5430
向西	-5431
▁爱	-5432
旗下的	-5433
充分	-5434
ml	-5435
大奖赛	-5436
的游戏	-5437
社团	-5438
德川	-5439
细菌	-5440
ann	-5441
ivers	-5442
▁1956	-5443
召集	-5444
国有	-5445
21、	-5446
良好	-5447
▁1941	-5448
center	-5449
yn	-5450
条目	-5451
当日	-5452
供奉	-5453
台南市	-5454
长约	-5455
起源	-5456
丽莎	-5457
造型	-5458
鱼雷	-5459
1967	-5460
1943	-5461
往来	-5462
ley	-5463
他还	-5464
沿用	-5465
波士顿	-5466
眼睛	-5467
书写	-5468
旧金山	-5469
直辖	-5470
进而	-5471
杰出	-5472
获奖	-5473
简单的	-5474
族的	-5475
年代初	-5476
地处	-5477
专科	-5478
增设	-5479
长春	-5480
就读于	-5481
整理	-5482
在西	-5483
提供的	-5484
就任	-5485
难民	-5486
公务	-5487
政协委员	-5488
提前	-5489
班次	-5490
丁目	-5491
pt	-5492
参观	-5493
德罗	-5494
便是	-5495
农历	-5496
流浪	-5497
尼泊	-5498
长大	-5499
最重要的	-5500
他也	-5501
他人	-5502
率军	-5503
首任	-5504
首领	-5505
拿破	-5506
下方	-5507
格拉斯	-5508
最高法院	-5509
粉丝	-5510
1965	-5511
否认	-5512
比尔	-5513
选民	-5514
ds	-5515
电影节	-5516
▁费	-5517
兰州	-5518
上面	-5519
iki	-5520
解除	-5521
平定	-5522
迪亚	-5523
▁国家	-5524
十三年	-5525
个体	-5526
钢铁	-5527
精确	-5528
百科	-5529
以外的	-5530
子公司	-5531
史密斯	-5532
那州	-5533
▁郭	-5534
car	-5535
物资	-5536
适用于	-5537
划分	-5538
各类	-5539
战中	-5540
年才	-5541
导师	-5542
观念	-5543
提交	-5544
灵魂	-5545
yout	-5546
牺牲	-5547
被发现	-5548
背鳍	-5549
rom	-5550
停车场	-5551
▁1952	-5552
若干	-5553
信任	-5554
1969	-5555
年来	-5556
战败	-5557
昆虫	-5558
二月	-5559
姊妹	-5560
一至	-5561
三位	-5562
山地	-5563
推测	-5564
、1	-5565
前锋	-5566
对阵	-5567
即为	-5568
数个	-5569
维也纳	-5570
布兰	-5571
伐利亚	-5572
尺寸	-5573
独特的	-5574
改装	-5575
田径	-5576
结论	-5577
希特勒	-5578
歧义	-5579
140	-5580
吾尔	-5581
公寓	-5582
村民	-5583
多夫	-5584
下来的	-5585
事变	-5586
恩来	-5587
▁该地的	-5588
▁佩	-5589
螺旋	-5590
业馀	-5591
主事	-5592
竣工	-5593
股权	-5594
一共	-5595
大队	-5596
数值	-5597
硬币	-5598
黑人	-5599
立法院	-5600
以及中国大陆的	-5601
党组	-5602
香港的	-5603
新台币	-5604
年成为	-5605
发表了	-5606
作的	-5607
对话	-5608
上将	-5609
广播电台	-5610
智利	-5611
曾为	-5612
国防部	-5613
判处	-5614
选中	-5615
列宁	-5616
能在	-5617
通行	-5618
▁清朝	-5619
历史学家	-5620
之意	-5621
面积和人口	-5622
ob	-5623
第三次	-5624
水深	-5625
主教练	-5626
af	-5627
电信	-5628
上方	-5629
天文学	-5630
的道路	-5631
义务	-5632
名叫	-5633
途径	-5634
立陶	-5635
八月	-5636
和大	-5637
开发的	-5638
▁1938	-5639
▁1954	-5640
▁该物种的模式产	-5641
人认为	-5642
如同	-5643
晚期	-5644
日晚	-5645
编写	-5646
书法	-5647
搭载	-5648
端的	-5649
con	-5650
版本的	-5651
ath	-5652
皆未知	-5653
东路	-5654
的特有植物	-5655
术语	-5656
sil	-5657
面积和人口皆未知	-5658
▁该地的面积和人口皆未知	-5659
直升机	-5660
保卫	-5661
指的是	-5662
,17	-5663
▁约翰	-5664
主体	-5665
主教座堂	-5666
白人	-5667
近年来	-5668
山坡	-5669
饭店	-5670
球迷	-5671
专区	-5672
大联盟	-5673
微博	-5674
民政	-5675
车手	-5676
▁这次	-5677
合理	-5678
▁将	-5679
万历	-5680
同志	-5681
教科	-5682
王室	-5683
▁关于	-5684
ae	-5685
过渡	-5686
▁分布在	-5687
接壤	-5688
晶体	-5689
▁里	-5690
后方	-5691
着的	-5692
aw	-5693
codice	-5694
景点	-5695
雕塑	-5696
水量	-5697
跑道	-5698
他和	-5699
战舰	-5700
的马	-5701
身亡	-5702
体积	-5703
陨坑	-5704
命名的	-5705
获取	-5706
评审	-5707
cm	-5708
模仿	-5709
韦尔	-5710
的经济	-5711
▁康	-5712
的四	-5713
集的	-5714
这也是	-5715
社群	-5716
地中海	-5717
见到	-5718
防空	-5719
伯格	-5720
最有	-5721
科会试	-5722
正是	-5723
产量	-5724
革命军	-5725
穆罕默德	-5726
都没有	-5727
村庄	-5728
理学	-5729
▁神	-5730
词汇	-5731
予以	-5732
在北	-5733
真正的	-5734
外界	-5735
电流	-5736
银河	-5737
原来的	-5738
次列车	-5739
流亡	-5740
的一次	-5741
依靠	-5742
因其	-5743
堂区	-5744
交流道	-5745
谋杀	-5746
浏览	-5747
台湾省	-5748
颁奖典礼	-5749
cy	-5750
夏天	-5751
秩序	-5752
苏维埃	-5753
国共	-5754
人所	-5755
立陶宛	-5756
类似于	-5757
编制	-5758
被任命为	-5759
的阿	-5760
▁曾任	-5761
面上	-5762
创始人	-5763
amp	-5764
片的	-5765
紧张	-5766
实体	-5767
呼吸	-5768
县知县	-5769
换乘	-5770
的手	-5771
行政长官	-5772
;"	-5773
国家足球队	-5774
起了	-5775
复活	-5776
在位	-5777
发生于	-5778
出于	-5779
起点	-5780
内政	-5781
▁使用	-5782
职业生涯	-5783
mac	-5784
为期	-5785
拉特	-5786
月中	-5787
大将军	-5788
普及	-5789
离心	-5790
▁江	-5791
格斯	-5792
之女	-5793
新增	-5794
道教	-5795
居委会	-5796
某种	-5797
位于该国中部	-5798
参见	-5799
各大	-5800
网页	-5801
常委会	-5802
并有	-5803
限于	-5804
下游	-5805
总共	-5806
失踪	-5807
1939	-5808
完整的	-5809
栖息深度	-5810
▁太	-5811
侦察	-5812
,12	-5813
夜间	-5814
平安	-5815
研究员	-5816
清真寺	-5817
库尔	-5818
哺乳	-5819
▁鲁	-5820
免疫	-5821
以其	-5822
▁泰	-5823
休息	-5824
鲈形目	-5825
封闭	-5826
暂停	-5827
的第一个	-5828
112	-5829
后在	-5830
▁go	-5831
司令员	-5832
起诉	-5833
1957	-5834
的前身	-5835
各项	-5836
复制	-5837
ool	-5838
命运	-5839
1500	-5840
千人	-5841
那个	-5842
确实	-5843
重庆市	-5844
1/	-5845
uk	-5846
州长	-5847
福特	-5848
多元	-5849
优先	-5850
就被	-5851
流域面积	-5852
文帝	-5853
年人口普查	-5854
▁1940	-5855
崇祯	-5856
诊断	-5857
这两个	-5858
台东	-5859
来看	-5860
温泉	-5861
▁战后	-5862
▁初	-5863
地址	-5864
▁毛	-5865
新人	-5866
青春	-5867
1937	-5868
可以用	-5869
语音	-5870
母舰	-5871
总局	-5872
▁1930	-5873
5000	-5874
人与	-5875
于同年	-5876
代数	-5877
华北	-5878
就像	-5879
归类	-5880
台风警报	-5881
高层	-5882
▁故事	-5883
相机	-5884
突击	-5885
定律	-5886
得票	-5887
沙漠	-5888
蒸汽	-5889
是巴西	-5890
富士	-5891
▁康熙	-5892
伦多	-5893
人体	-5894
讯息	-5895
乐园	-5896
取自	-5897
vi	-5898
red	-5899
每一	-5900
的一个县	-5901
公署	-5902
但不	-5903
ale	-5904
亚美尼亚	-5905
中断	-5906
交叉	-5907
动工	-5908
明的	-5909
细节	-5910
还要	-5911
1959	-5912
环绕	-5913
缓慢	-5914
世纪末	-5915
擅长	-5916
转乘	-5917
有三	-5918
策划	-5919
尼泊尔	-5920
维吾尔	-5921
屏东	-5922
图形	-5923
监制	-5924
超级联赛	-5925
正月	-5926
ans	-5927
温带	-5928
号种子	-5929
族自治	-5930
即时	-5931
align	-5932
通常是	-5933
▁蒙	-5934
否则	-5935
存在于	-5936
条款	-5937
水利	-5938
男主角	-5939
攻势	-5940
但仍	-5941
护照	-5942
无线电	-5943
友谊	-5944
侵略	-5945
连续剧	-5946
头部	-5947
英超	-5948
马其顿	-5949
褐色	-5950
日凌晨	-5951
》《	-5952
▁本站	-5953
沿着	-5954
ction	-5955
溶液	-5956
主题曲	-5957
后卫	-5958
的中心	-5959
▁花	-5960
普鲁士	-5961
路径	-5962
的圣	-5963
虚构	-5964
继位	-5965
杀人	-5966
次数	-5967
爱好	-5968
交战	-5969
新城	-5970
累积	-5971
巴尼亚	-5972
▁约	-5973
则以	-5974
美的	-5975
贝克	-5976
亚科	-5977
十四年	-5978
纪念碑	-5979
1963	-5980
巴伐利亚	-5981
情节	-5982
它们的	-5983
公约	-5984
土壤	-5985
海底	-5986
十二月	-5987
幸福	-5988
桥梁	-5989
寺院	-5990
ster	-5991
考入	-5992
投手	-5993
织田	-5994
工党	-5995
时常	-5996
决策	-5997
克斯坦	-5998
国外	-5999
▁该地	-6000
军舰	-6001
剩馀	-6002
科罗	-6003
皆为	-6004
阵亡	-6005
大使馆	-6006
复合	-6007
族人	-6008
减弱	-6009
集团军	-6010
动车组	-6011
英国的	-6012
社交	-6013
谴责	-6014
曲线	-6015
的建筑	-6016
公立	-6017
较大的	-6018
日治时期	-6019
影响力	-6020
之乱	-6021
得主	-6022
搭配	-6023
机组	-6024
维基	-6025
年世界杯	-6026
辞去	-6027
辽宁省	-6028
立刻	-6029
1952	-6030
周末	-6031
是一家	-6032
消歧义	-6033
毫无	-6034
的内	-6035
太郎	-6036
电视动画	-6037
防卫	-6038
景观	-6039
密码	-6040
曲目	-6041
在当时	-6042
耶夫	-6043
一号	-6044
十五年	-6045
统治者	-6046
尔夫	-6047
属的动物	-6048
新北市	-6049
伍德	-6050
▁德国	-6051
某个	-6052
met	-6053
每小时	-6054
▁it	-6055
存储	-6056
十八年	-6057
参议员	-6058
草案	-6059
之前的	-6060
年欧洲	-6061
,2008	-6062
誉为	-6063
原型	-6064
科幻	-6065
各地的	-6066
face	-6067
▁美	-6068
伦斯	-6069
常规	-6070
兴起	-6071
放射	-6072
▁本届	-6073
会社	-6074
第二个	-6075
background	-6076
带来的	-6077
1962	-6078
orld	-6079
分享	-6080
总司令	-6081
甲级联赛	-6082
的身份	-6083
境内的	-6084
唱片公司	-6085
ys	-6086
神社	-6087
▁1975	-6088
年为	-6089
▁诺	-6090
前线	-6091
将他	-6092
美术馆	-6093
响应	-6094
的活动	-6095
位于该国南部	-6096
真的	-6097
打造	-6098
随之	-6099
own	-6100
也能	-6101
的社会	-6102
播出的	-6103
神圣	-6104
大埔	-6105
如今	-6106
波音	-6107
ste	-6108
▁ser	-6109
会计	-6110
民籍	-6111
为辐鳍鱼纲鲈形目	-6112
歧视	-6113
克利	-6114
进军	-6115
不多	-6116
客家	-6117
节奏	-6118
▁除此之外	-6119
作词	-6120
又被	-6121
尊重	-6122
马力	-6123
平行	-6124
时速	-6125
出生在	-6126
john	-6127
的全	-6128
福尔	-6129
闽南	-6130
听到	-6131
因应	-6132
片段	-6133
美国国家	-6134
重点文物保护单位	-6135
和新	-6136
,2013	-6137
声优	-6138
不受	-6139
歇尔	-6140
典型的	-6141
一路	-6142
改组	-6143
荃湾	-6144
财经	-6145
封锁	-6146
fc	-6147
伐克	-6148
哈拉	-6149
迁往	-6150
文的	-6151
的特征	-6152
改编自	-6153
理事会	-6154
波特	-6155
确立	-6156
孙中山	-6157
热带低气压	-6158
并为	-6159
江西省	-6160
mic	-6161
史蒂	-6162
▁夏	-6163
color	-6164
一项	-6165
临床	-6166
梦想	-6167
的一个区	-6168
tt	-6169
的金	-6170
真人	-6171
支持者	-6172
乘坐	-6173
此地	-6174
模特儿	-6175
嘉宾	-6176
哈利	-6177
股票	-6178
机器人	-6179
的第三	-6180
▁总人口	-6181
翰林院	-6182
一开始	-6183
科进士	-6184
贝格	-6185
▁沃	-6186
动态	-6187
很难	-6188
寄生	-6189
min	-6190
太宗	-6191
二甲	-6192
系的	-6193
诸多	-6194
转变	-6195
柴油机车	-6196
婚礼	-6197
差距	-6198
亦为	-6199
信奉	-6200
蝙蝠	-6201
车的	-6202
队在	-6203
▁inter	-6204
丁堡	-6205
▁1966	-6206
罕见	-6207
草原	-6208
篇小说	-6209
校舍	-6210
调节	-6211
▁1939	-6212
▁、	-6213
text	-6214
的热	-6215
路军	-6216
高峰	-6217
里奥	-6218
攻入	-6219
黄河	-6220
厂商	-6221
体验	-6222
的西	-6223
录影带	-6224
集结	-6225
喇嘛	-6226
ash	-6227
▁与此同时	-6228
五世	-6229
更改	-6230
车型	-6231
绍兴	-6232
大林	-6233
屋顶	-6234
政治局	-6235
1961	-6236
射入	-6237
会议上	-6238
星际	-6239
清水	-6240
还包括	-6241
电压	-6242
看法	-6243
布罗	-6244
法学	-6245
▁首	-6246
神父	-6247
多样	-6248
博览	-6249
直属	-6250
悬挂	-6251
道夫	-6252
周恩来	-6253
为食	-6254
他对	-6255
月份	-6256
▁mar	-6257
gb	-6258
明显的	-6259
类别	-6260
省道台	-6261
位于该国西南部	-6262
街道下辖以下地区	-6263
场合	-6264
后续	-6265
血液	-6266
时间的	-6267
1955	-6268
者为	-6269
每一个	-6270
辩论	-6271
ins	-6272
活动的	-6273
上一	-6274
可能性	-6275
fr	-6276
托尔	-6277
已在	-6278
站房	-6279
崇拜	-6280
bert	-6281
庄村	-6282
营养	-6283
封面	-6284
的比赛	-6285
1954	-6286
戈尔	-6287
降雨量	-6288
版权	-6289
师长	-6290
盆地	-6291
和美国	-6292
放置	-6293
立委	-6294
巴塞	-6295
转任	-6296
校友	-6297
亮相	-6298
过度	-6299
光学	-6300
极大	-6301
playstation	-6302
享有	-6303
这座	-6304
广义	-6305
委员会的	-6306
对他	-6307
空调	-6308
传教士	-6309
youtube	-6310
牙齿	-6311
高丽	-6312
;0	-6313
站位于	-6314
但其	-6315
百年	-6316
威尼斯	-6317
所谓的	-6318
年加入	-6319
半径	-6320
人文	-6321
、4	-6322
▁1953	-6323
先前	-6324
的最高	-6325
▁istat	-6326
iam	-6327
应当	-6328
政委	-6329
_3	-6330
北洋	-6331
南下	-6332
卡特	-6333
一生	-6334
政使	-6335
法尔	-6336
播映	-6337
自此	-6338
大于	-6339
▁我们	-6340
补给	-6341
总部位于	-6342
弗兰	-6343
亦可	-6344
终身	-6345
选拔	-6346
预定	-6347
强大	-6348
零售	-6349
一份	-6350
▁秦	-6351
染色	-6352
建立的	-6353
▁洛	-6354
uper	-6355
大学生	-6356
的作用	-6357
县的一个非建制地区	-6358
三级	-6359
大大	-6360
年有	-6361
又有	-6362
因此在	-6363
框架	-6364
联合台风警报	-6365
婴儿	-6366
大正	-6367
高山	-6368
爱的	-6369
情形	-6370
中以	-6371
线和	-6372
头衔	-6373
▁青	-6374
失去了	-6375
委员会主席	-6376
字符	-6377
可靠	-6378
军方	-6379
开业	-6380
遗迹	-6381
教导	-6382
方形	-6383
联合台风警报中心	-6384
yst	-6385
1936	-6386
普林	-6387
工作人员	-6388
的同时	-6389
科研	-6390
知名的	-6391
▁也	-6392
gen	-6393
仪器	-6394
月任	-6395
▁1944	-6396
冲绳	-6397
翡翠	-6398
质的	-6399
ome	-6400
推出了	-6401
连同	-6402
领队	-6403
▁时	-6404
ult	-6405
干扰	-6406
南斯拉夫	-6407
规格	-6408
动员	-6409
几内亚	-6410
莱斯	-6411
定义为	-6412
年球季	-6413
▁man	-6414
!」	-6415
ode	-6416
撞击坑	-6417
世界的	-6418
争论	-6419
▁coun	-6420
马达	-6421
政府在	-6422
自主	-6423
高地	-6424
宰相	-6425
制造商	-6426
物理学家	-6427
技能	-6428
刊登	-6429
签证	-6430
▁蔡	-6431
死去	-6432
特定的	-6433
之称	-6434
总是	-6435
▁br	-6436
的过程	-6437
生效	-6438
网民	-6439
使他	-6440
明代	-6441
年亚洲	-6442
太祖	-6443
ree	-6444
权威	-6445
航空母舰	-6446
位在	-6447
ict	-6448
漫画家	-6449
进球	-6450
古老的	-6451
▁六	-6452
型机车	-6453
、6	-6454
牛津	-6455
5%	-6456
国籍	-6457
的存在	-6458
体现	-6459
泽尔	-6460
逃亡	-6461
igh	-6462
乡道	-6463
纺织	-6464
ise	-6465
在这里	-6466
是南极洲的	-6467
肉食性	-6468
动词	-6469
拜占	-6470
帝国的	-6471
▁九	-6472
大军	-6473
并成为	-6474
累计	-6475
十一月	-6476
▁1927	-6477
▁[	-6478
学堂	-6479
讯号	-6480
指标	-6481
期望	-6482
▁1942	-6483
中所	-6484
给他	-6485
徒刑	-6486
1938	-6487
正规	-6488
元朗	-6489
▁1951	-6490
火力	-6491
远东	-6492
告知	-6493
于香港	-6494
box	-6495
党籍	-6496
一半	-6497
少数民族	-6498
的表现	-6499
中场	-6500
的一座城市	-6501
出兵	-6502
谘询	-6503
垃圾	-6504
行车	-6505
布局	-6506
在他的	-6507
专线	-6508
关东	-6509
他于	-6510
纳州	-6511
野生	-6512
创意	-6513
▁we	-6514
▁他还	-6515
良好的	-6516
▁1959	-6517
的功能	-6518
丹尼	-6519
那样	-6520
元朝	-6521
浓度	-6522
第十三	-6523
男人	-6524
▁ngc	-6525
▁尼	-6526
national	-6527
、「	-6528
说服	-6529
mon	-6530
生长在	-6531
▁colspan	-6532
百货	-6533
趋势	-6534
器官	-6535
是一颗恒星	-6536
澎湖	-6537
斯蒂	-6538
车体	-6539
击败了	-6540
1953	-6541
do	-6542
的双	-6543
来源于	-6544
▁魏	-6545
两座	-6546
甲组	-6547
因子	-6548
105	-6549
世代	-6550
繁忙	-6551
北美洲	-6552
并获得	-6553
频繁	-6554
俘虏	-6555
▁他于	-6556
更大的	-6557
纽西兰	-6558
两大	-6559
次子	-6560
认知	-6561
ios	-6562
茨基	-6563
▁该物种的模式产地在	-6564
拯救	-6565
跨越	-6566
病人	-6567
不可能	-6568
枪管	-6569
▁毕业于	-6570
▁韩	-6571
表现出	-6572
黑龙江省	-6573
爆发后	-6574
为日本	-6575
拉萨	-6576
的母亲	-6577
▁经	-6578
代号	-6579
哈佛	-6580
进程	-6581
▁本鱼	-6582
华语	-6583
县政府	-6584
一千	-6585
市内	-6586
故障	-6587
,2014	-6588
灵感	-6589
赛马	-6590
亚热带	-6591
尼古拉	-6592
▁1973	-6593
时会	-6594
而得名	-6595
的要求	-6596
主唱	-6597
萨克森	-6598
▁施	-6599
伊尔	-6600
独自	-6601
高铁	-6602
占据	-6603
提琴	-6604
洪水	-6605
合并为	-6606
又译	-6607
2。	-6608
分开	-6609
清华大学	-6610
威尔斯	-6611
海关	-6612
调任	-6613
中东	-6614
350	-6615
上半	-6616
北魏	-6617
帕尔	-6618
王后	-6619
▁ho	-6620
赔偿	-6621
愤怒	-6622
十六年	-6623
上任	-6624
做了	-6625
的老	-6626
可分为	-6627
众人	-6628
诸侯	-6629
吉林省	-6630
沿线	-6631
片中	-6632
诺斯	-6633
重修	-6634
东日本	-6635
发电厂	-6636
这部	-6637
系统中	-6638
▁1965	-6639
▁各	-6640
▁吕	-6641
二十年	-6642
mp	-6643
名列	-6644
回来	-6645
文化的	-6646
广播公司	-6647
人是	-6648
剑桥	-6649
只在	-6650
电磁	-6651
社长	-6652
权益	-6653
女性为	-6654
是一款	-6655
的消息	-6656
▁许	-6657
最后的	-6658
物浦	-6659
稳定的	-6660
年轻的	-6661
观塘	-6662
电子游戏	-6663
▁1968	-6664
为名	-6665
ance	-6666
元音	-6667
心的	-6668
这类	-6669
或其他	-6670
生物学	-6671
,16	-6672
在前	-6673
年中国	-6674
与大	-6675
体重	-6676
影展	-6677
关联	-6678
隔离	-6679
花费	-6680
消费者	-6681
▁1943	-6682
回复	-6683
寺庙	-6684
的家	-6685
inter	-6686
共识	-6687
反射	-6688
批复	-6689
路德	-6690
的使用	-6691
奖章	-6692
族自治区	-6693
葬于	-6694
西区	-6695
ner	-6696
写成	-6697
撤离	-6698
▁tr	-6699
所得	-6700
差别	-6701
阵容	-6702
的土地	-6703
ger	-6704
的标准	-6705
一只	-6706
亚利	-6707
火灾	-6708
赋予	-6709
fa	-6710
典型	-6711
时间内	-6712
▁1936	-6713
农村居民点	-6714
之路	-6715
▁纳	-6716
截止	-6717
先锋	-6718
纽约市	-6719
建筑面积	-6720
回家	-6721
年秋	-6722
1935	-6723
光谱	-6724
开播	-6725
空袭	-6726
</	-6727
你们	-6728
安置	-6729
悠久	-6730
贷款	-6731
更有	-6732
梅尔	-6733
歌剧	-6734
日益	-6735
起源于	-6736
▁sc	-6737
发布了	-6738
甘肃省	-6739
全国重点文物保护单位	-6740
浪漫	-6741
现已	-6742
▁1977	-6743
极端	-6744
深刻	-6745
还原	-6746
弗拉	-6747
法师	-6748
公车	-6749
一角	-6750
铜牌	-6751
入了	-6752
则会	-6753
售票	-6754
曾有	-6755
城际	-6756
▁cl	-6757
社会的	-6758
再加上	-6759
降落	-6760
在那里	-6761
▁1972	-6762
▁1976	-6763
月刊	-6764
旗帜	-6765
不如	-6766
在本	-6767
党委	-6768
石头	-6769
肌肉	-6770
过世	-6771
办公厅	-6772
sn	-6773
也称	-6774
蒂利亚	-6775
作物	-6776
传佛教	-6777
学院的	-6778
▁外	-6779
终结	-6780
谢尔	-6781
排名第	-6782
的天	-6783
近似	-6784
初步	-6785
赛会	-6786
风速	-6787
年担任	-6788
建有	-6789
就能	-6790
宫殿	-6791
繁荣	-6792
专员	-6793
用了	-6794
促使	-6795
▁而且	-6796
据点	-6797
国际赛	-6798
就已经	-6799
山顶	-6800
多伦多	-6801
现代化	-6802
警员	-6803
远征	-6804
毁灭	-6805
特点	-6806
ower	-6807
att	-6808
新西兰	-6809
▁结果	-6810
的大部分	-6811
瑞拉	-6812
马德里	-6813
:,	-6814
侵犯	-6815
▁1935	-6816
图尔	-6817
118	-6818
依旧	-6819
华东	-6820
▁ap	-6821
印度洋	-6822
引起了	-6823
的传统	-6824
mb	-6825
祖籍	-6826
城门	-6827
书店	-6828
普罗	-6829
总督府	-6830
意图	-6831
团的	-6832
日文	-6833
时被	-6834
姐妹	-6835
新区	-6836
su	-6837
干涉	-6838
延安	-6839
时空	-6840
也成为	-6841
名称为	-6842
自行车	-6843
,0	-6844
原因是	-6845
次的	-6846
变更	-6847
局部	-6848
▁1957	-6849
▁1964	-6850
移植	-6851
处决	-6852
在欧洲	-6853
起飞	-6854
发行了	-6855
则被	-6856
人死亡	-6857
特别行政区	-6858
新一	-6859
去世后	-6860
2》	-6861
只好	-6862
一书	-6863
财富	-6864
身高	-6865
有人口	-6866
完善	-6867
战列	-6868
预告	-6869
咸丰	-6870
的技术	-6871
过了	-6872
编曲	-6873
瞄准	-6874
射线	-6875
花莲	-6876
▁1928	-6877
道歉	-6878
面前	-6879
大理	-6880
省长	-6881
使者	-6882
这时	-6883
个别	-6884
导致了	-6885
有很多	-6886
业者	-6887
影评	-6888
打进	-6889
催化	-6890
故此	-6891
ata	-6892
逃离	-6893
▁ac	-6894
适当	-6895
银牌	-6896
间接	-6897
阿尔巴尼亚	-6898
庙宇	-6899
汤姆	-6900
制品	-6901
公平	-6902
南路	-6903
ars	-6904
冷却	-6905
巴布	-6906
法规	-6907
silver	-6908
列颠	-6909
▁或	-6910
常用	-6911
分散	-6912
提案	-6913
▁1931	-6914
火炮	-6915
接受了	-6916
选票	-6917
与中国	-6918
率先	-6919
斯里	-6920
等站	-6921
:《	-6922
排除	-6923
友好	-6924
的不同	-6925
,2015	-6926
座位	-6927
时尚	-6928
省份	-6929
菲利普	-6930
利安	-6931
为香港	-6932
和一个	-6933
、5	-6934
卑斯	-6935
额外	-6936
古希腊	-6937
董事会	-6938
一张	-6939
石器	-6940
游戏中	-6941
后又	-6942
刚果	-6943
流通	-6944
5"	-6945
▁中央	-6946
学校的	-6947
评论家	-6948
一旦	-6949
阳光	-6950
综艺节目	-6951
字体	-6952
县级	-6953
普拉	-6954
数学家	-6955
▁杰	-6956
▁小行星列表	-6957
口号	-6958
▁然后	-6959
九州	-6960
一所	-6961
传动	-6962
托马斯	-6963
法定	-6964
要塞	-6965
设置的	-6966
哈德	-6967
恐惧	-6968
巴勒斯坦	-6969
金斯	-6970
为该	-6971
相近	-6972
气象局	-6973
▁1933	-6974
加勒比	-6975
索尼	-6976
男演员	-6977
手法	-6978
▁世界	-6979
发言人	-6980
1951	-6981
街头	-6982
限定	-6983
北伐	-6984
角逐	-6985
曾担任	-6986
▁上海	-6987
其子	-6988
武术	-6989
水的	-6990
最好的	-6991
范畴	-6992
▁老	-6993
四人	-6994
org	-6995
年末	-6996
宫廷	-6997
▁gro	-6998
▁1961	-6999
的东	-7000
西元	-7001
年代为	-7002
不及	-7003
不在	-7004
的心	-7005
耶律	-7006
不佳	-7007
野战	-7008
在南	-7009
的目标	-7010
天桥	-7011
编入	-7012
▁母	-7013
让人	-7014
1933	-7015
▁戴	-7016
▁北京	-7017
一点	-7018
快乐	-7019
末年	-7020
蒂安	-7021
dc	-7022
遗体	-7023
拜占庭	-7024
▁温	-7025
配角	-7026
预期	-7027
que	-7028
:1	-7029
会以	-7030
英寸	-7031
独特	-7032
塔基	-7033
往返	-7034
民党	-7035
雕像	-7036
全国人大代表	-7037
诸如	-7038
德勒	-7039
反对派	-7040
讽刺	-7041
发的	-7042
原有的	-7043
城市的	-7044
三名	-7045
季节	-7046
强迫	-7047
主编	-7048
不同于	-7049
个性	-7050
哈里	-7051
型态	-7052
癌症	-7053
岁人口	-7054
发送	-7055
年因	-7056
血管	-7057
运会	-7058
舆论	-7059
第一部	-7060
物业	-7061
足以	-7062
撒冷	-7063
克雷	-7064
利于	-7065
国民革命军	-7066
化工	-7067
思考	-7068
约克	-7069
小平	-7070
元首	-7071
中世纪	-7072
电影的	-7073
交汇处	-7074
主人	-7075
创作的	-7076
耶路	-7077
1,000	-7078
车身	-7079
悉尼	-7080
心理学	-7081
▁单	-7082
ka	-7083
恶化	-7084
战机	-7085
东汉	-7086
▁万历	-7087
通过了	-7088
探讨	-7089
总书记	-7090
为他	-7091
▁you	-7092
共享	-7093
法人	-7094
广泛的	-7095
ward	-7096
▁乔	-7097
西路	-7098
▁松	-7099
体型	-7100
商标	-7101
识字率	-7102
▁今	-7103
有一些	-7104
图片	-7105
最终在	-7106
服务器	-7107
电气化	-7108
▁1969	-7109
示范	-7110
边形	-7111
攻占	-7112
▁它是	-7113
定了	-7114
无关	-7115
礼拜	-7116
中等	-7117
▁受	-7118
放送	-7119
月后	-7120
极限	-7121
▁1971	-7122
北面	-7123
门的	-7124
──	-7125
丘陵	-7126
分组	-7127
学员	-7128
常被	-7129
部分的	-7130
▁ed	-7131
威尔士	-7132
全书	-7133
交付	-7134
国中	-7135
河谷	-7136
为主题	-7137
迫害	-7138
莱坞	-7139
淡水鱼	-7140
参演	-7141
苗栗	-7142
曼联	-7143
密的	-7144
航行	-7145
斯图	-7146
奖励	-7147
长轴	-7148
fe	-7149
ya	-7150
女人	-7151
名录	-7152
借此	-7153
干燥	-7154
资深	-7155
▁1962	-7156
他认为	-7157
便利	-7158
ics	-7159
首批	-7160
丧失	-7161
圣殿	-7162
耶路撒冷	-7163
支部	-7164
但是在	-7165
电梯	-7166
创下	-7167
简化	-7168
第三甲	-7169
="5"	-7170
提倡	-7171
熟悉	-7172
事件的	-7173
中环	-7174
习俗	-7175
语中	-7176
gre	-7177
科技大学	-7178
阿尔卑斯	-7179
▁1932	-7180
执法	-7181
郎中	-7182
宁夏	-7183
实业	-7184
树林	-7185
真菌	-7186
复杂的	-7187
▁new	-7188
型电力机车	-7189
隐藏	-7190
为主要	-7191
被选为	-7192
阴谋	-7193
并止于	-7194
soft	-7195
站在	-7196
▁赫	-7197
皇室	-7198
美国总统	-7199
击退	-7200
膨胀	-7201
职责	-7202
较多	-7203
这两	-7204
,11	-7205
年总人口	-7206
▁就	-7207
删除	-7208
布置	-7209
晋升	-7210
委内	-7211
出局	-7212
为主的	-7213
城内	-7214
olog	-7215
州立	-7216
缩短	-7217
▁由此	-7218
一间	-7219
山口	-7220
造船	-7221
伯利亚	-7222
兰卡	-7223
朝鲜半岛	-7224
td	-7225
ystem	-7226
吉斯	-7227
日记	-7228
中央电视台	-7229
学士学位	-7230
万张	-7231
历代	-7232
怀孕	-7233
南面	-7234
改由	-7235
ls	-7236
活性	-7237
的美	-7238
罢工	-7239
坐标	-7240
合金	-7241
州人	-7242
gu	-7243
创办人	-7244
十七年	-7245
▁近	-7246
费尔	-7247
亚当	-7248
的人口	-7249
1912	-7250
▁1974	-7251
敏感	-7252
线路口	-7253
恩斯	-7254
普尔	-7255
楼梯	-7256
已经被	-7257
委内瑞拉	-7258
替换	-7259
前者	-7260
乌拉	-7261
榴弹	-7262
程度上	-7263
战事	-7264
迪斯	-7265
小行星带	-7266
预防	-7267
不需要	-7268
的基本	-7269
万吨	-7270
变形	-7271
珍珠	-7272
可以是	-7273
几年	-7274
语法	-7275
邮件	-7276
变量	-7277
路上	-7278
她与	-7279
年代的	-7280
北区	-7281
sch	-7282
密西	-7283
检验	-7284
治所在	-7285
过后	-7286
优惠	-7287
改任	-7288
武力	-7289
居于	-7290
上校	-7291
配乐	-7292
头的	-7293
_4	-7294
证书	-7295
磷酸	-7296
240	-7297
为中心	-7298
夫卡是乌克兰的村落	-7299
清军	-7300
的国	-7301
▁田	-7302
文本	-7303
其在	-7304
显著	-7305
海盗	-7306
液体	-7307
▁mo	-7308
支撑	-7309
治理	-7310
节日	-7311
未来的	-7312
包装	-7313
各省	-7314
有多	-7315
的机	-7316
围棋	-7317
天王	-7318
武昌	-7319
耶尔	-7320
▁富	-7321
吉亚	-7322
工作者	-7323
丰富的	-7324
又称为	-7325
pm	-7326
人都	-7327
利物浦	-7328
str	-7329
▁:	-7330
专注	-7331
,2002	-7332
了对	-7333
寿命	-7334
▁pr	-7335
▁萧	-7336
官职	-7337
捐赠	-7338
时装	-7339
也开始	-7340
克劳	-7341
北极	-7342
一直到	-7343
—6	-7344
▁现代	-7345
陆战队	-7346
客机	-7347
该片	-7348
▁穆	-7349
有关的	-7350
录音室	-7351
战争的	-7352
肿瘤	-7353
国立台湾	-7354
▁希	-7355
传送	-7356
走廊	-7357
德国的	-7358
届全国政协委员	-7359
发育	-7360
泰尔	-7361
巴拿	-7362
常数	-7363
阵营	-7364
联赛冠军	-7365
意思是	-7366
局势	-7367
体操	-7368
亚利桑	-7369
的信	-7370
的定义	-7371
委讬	-7372
水中	-7373
的重	-7374
编译	-7375
菲尔	-7376
加热	-7377
日本人	-7378
转型	-7379
半长轴	-7380
海姆	-7381
女歌手	-7382
▁mus	-7383
就业	-7384
施行	-7385
全台	-7386
年正式	-7387
罪名	-7388
全数	-7389
送往	-7390
ram	-7391
伟大的	-7392
1934	-7393
内斯	-7394
▁明朝	-7395
国家级	-7396
实质	-7397
改用	-7398
烈士	-7399
其中男	-7400
追溯到	-7401
啤酒	-7402
衣服	-7403
▁1963	-7404
反击	-7405
消耗	-7406
▁它的	-7407
哲学家	-7408
介入	-7409
▁1967	-7410
暴动	-7411
一时	-7412
湖广	-7413
前身为	-7414
开发区	-7415
▁with	-7416
▁饰	-7417
不愿	-7418
har	-7419
丽莎白	-7420
足球甲级联赛	-7421
下去	-7422
并向	-7423
混凝	-7424
的正	-7425
才会	-7426
胡同	-7427
探险队	-7428
可以被	-7429
年代末	-7430
华侨	-7431
本部	-7432
较小	-7433
这位	-7434
总长	-7435
战死	-7436
氯化	-7437
透明	-7438
大力	-7439
被告	-7440
面包	-7441
pan	-7442
转投	-7443
消除	-7444
je	-7445
继承人	-7446
和阿	-7447
▁1934	-7448
大败	-7449
云林	-7450
传入	-7451
搭档	-7452
1928	-7453
导体	-7454
二百	-7455
奖牌	-7456
兄长	-7457
莲花	-7458
位于该国东部	-7459
南宋	-7460
情感	-7461
其中有	-7462
标示	-7463
new	-7464
也将	-7465
人被	-7466
无锡	-7467
一日	-7468
公子	-7469
生素	-7470
气象厅	-7471
铁路的	-7472
行政中心	-7473
复仇	-7474
步行	-7475
不列颠	-7476
二氧化	-7477
同一个	-7478
用在	-7479
追击	-7480
收复	-7481
参赛者	-7482
不论	-7483
五百	-7484
▁在这	-7485
类型为	-7486
询问	-7487
雕刻	-7488
▁每个	-7489
应对	-7490
灾难	-7491
脊椎	-7492
成为一个	-7493
软条	-7494
的事情	-7495
暗杀	-7496
普森	-7497
金门	-7498
事宜	-7499
血统	-7500
运送	-7501
调查局	-7502
监视	-7503
西门	-7504
但没有	-7505
▁那	-7506
小于	-7507
集中在	-7508
并称	-7509
港澳	-7510
雅各	-7511
进展	-7512
迈克尔	-7513
的区域	-7514
姐姐	-7515
王的	-7516
鱼亚目	-7517
玫瑰	-7518
104	-7519
▁car	-7520
恋爱	-7521
购入	-7522
混凝土	-7523
是韩国	-7524
首张	-7525
ere	-7526
分别在	-7527
北路	-7528
的其他	-7529
专案	-7530
ike	-7531
香港政府	-7532
▁部分	-7533
位于该国西北部	-7534
的非	-7535
新生	-7536
部曲	-7537
ink	-7538
▁曹	-7539
勳章	-7540
县的一个城镇	-7541
集团有限公司	-7542
交往	-7543
龙科	-7544
其中的	-7545
金像	-7546
房子	-7547
组长	-7548
季后赛	-7549
ana	-7550
编号为	-7551
1918	-7552
和社会	-7553
▁孔	-7554
▁旧	-7555
本作	-7556
本质	-7557
株式	-7558
唐代	-7559
享受	-7560
人气	-7561
家庄	-7562
在今	-7563
同为	-7564
理工学院	-7565
夥伴	-7566
是他	-7567
桂林	-7568
激进	-7569
▁包括	-7570
与美国	-7571
的军事	-7572
士坦	-7573
1932	-7574
供电	-7575
目录	-7576
了两	-7577
战时	-7578
170	-7579
公投	-7580
拼音	-7581
议长	-7582
副总统	-7583
战役中	-7584
验证	-7585
▁按	-7586
最具	-7587
电机	-7588
第一名	-7589
与他	-7590
剩下	-7591
答应	-7592
里程	-7593
驻地	-7594
株式会社	-7595
其中男性为	-7596
事物	-7597
台的	-7598
都要	-7599
区议会选举	-7600
医药	-7601
奥古	-7602
损害	-7603
纵队	-7604
这么	-7605
嘉靖	-7606
诸葛	-7607
臀鳍	-7608
级行政区	-7609
数千	-7610
在第	-7611
展出	-7612
所长	-7613
▁wh	-7614
则于	-7615
脂肪	-7616
进驻	-7617
造成了	-7618
乐坛	-7619
位居	-7620
全美	-7621
森堡	-7622
▁pre	-7623
乔治亚州	-7624
引力	-7625
该党	-7626
进入了	-7627
时间逢星期	-7628
旋律	-7629
ala	-7630
一方	-7631
基辅	-7632
fer	-7633
和中国	-7634
日公布	-7635
音乐会	-7636
汉堡	-7637
区是	-7638
维拉	-7639
瑞克	-7640
北宋	-7641
历经	-7642
右翼	-7643
围攻	-7644
的生	-7645
row	-7646
决心	-7647
年代中期	-7648
彗星	-7649
站厅	-7650
icon	-7651
及利亚	-7652
▁邓	-7653
节点	-7654
横滨	-7655
形势	-7656
林中	-7657
灰色	-7658
色情	-7659
1。	-7660
树木	-7661
最小	-7662
还会	-7663
linux	-7664
巴特	-7665
1914	-7666
遵守	-7667
▁早年	-7668
之父	-7669
玩具	-7670
给出	-7671
拓跋	-7672
和西	-7673
金额	-7674
1931	-7675
干事	-7676
斯在	-7677
期徒刑	-7678
俄亥	-7679
升降	-7680
新华	-7681
明尼	-7682
含量	-7683
▁fo	-7684
▁专辑	-7685
并开始	-7686
俄亥俄	-7687
日发售	-7688
罗门	-7689
的速度	-7690
ank	-7691
;0—6	-7692
app	-7693
一边	-7694
重播	-7695
vel	-7696
制动	-7697
较高的	-7698
搭乘	-7699
真相	-7700
转播	-7701
光明	-7702
吏部	-7703
少量	-7704
瓦拉	-7705
结局	-7706
不良	-7707
原料	-7708
ille	-7709
▁勒	-7710
阵线	-7711
1919	-7712
bar	-7713
▁他也	-7714
转而	-7715
局面	-7716
阿姆	-7717
航海	-7718
rad	-7719
看起来	-7720
1929	-7721
击中	-7722
1927	-7723
▁school	-7724
▁方	-7725
拍摄的	-7726
▁国	-7727
护卫	-7728
法军	-7729
▁1929	-7730
口岸	-7731
莱昂	-7732
马路	-7733
▁one	-7734
该地区	-7735
君士坦	-7736
斯大林	-7737
是被	-7738
置于	-7739
而死	-7740
出现于	-7741
总计	-7742
之一的	-7743
洛伊	-7744
中央军委	-7745
出身于	-7746
岁以下	-7747
列斯	-7748
《》,	-7749
hone	-7750
怎么	-7751
asa	-7752
理事长	-7753
▁七	-7754
影业	-7755
暴露	-7756
我们的	-7757
最著名的	-7758
后世	-7759
玛丽亚	-7760
面积约为	-7761
▁直至	-7762
晚间	-7763
续集	-7764
足总	-7765
最后一次	-7766
▁迪	-7767
rit	-7768
达到了	-7769
出赛	-7770
蒙德	-7771
郊区	-7772
保护区	-7773
可以使用	-7774
处死	-7775
该庄	-7776
发表的	-7777
中华民国政府	-7778
分布于南美洲	-7779
阿拉斯	-7780
大学教授	-7781
信长	-7782
决于	-7783
传承	-7784
外部	-7785
水上	-7786
陆地面积为	-7787
为何	-7788
亦会	-7789
史料	-7790
的一所	-7791
之初	-7792
今属	-7793
小孩	-7794
新兴	-7795
其父	-7796
青铜	-7797
湾仔	-7798
哥华	-7799
负担	-7800
高宗	-7801
第一批	-7802
▁windows	-7803
应用于	-7804
短片	-7805
出版了	-7806
元件	-7807
水域面积为	-7808
无效	-7809
4000	-7810
原址	-7811
一群	-7812
南区	-7813
有一种	-7814
告示	-7815
巨人	-7816
发布的	-7817
另一种	-7818
属肉食性	-7819
深受	-7820
绘入	-7821
夫斯基	-7822
和华	-7823
orn	-7824
主要为	-7825
收视率	-7826
科罗拉多	-7827
▁曾祖父	-7828
开封	-7829
勇士	-7830
奖的	-7831
磁场	-7832
enn	-7833
后不久	-7834
项目的	-7835
引导	-7836
涡轮	-7837
金钟	-7838
发展出	-7839
▁大多数	-7840
三百	-7841
体内	-7842
多位	-7843
枢机	-7844
决赛以	-7845
世界各地	-7846
职工	-7847
战争期间	-7848
1"	-7849
世凯	-7850
▁欧洲	-7851
部副部长	-7852
他将	-7853
行李	-7854
万平方米	-7855
完美	-7856
完颜	-7857
都能	-7858
南投	-7859
中的一个	-7860
但也	-7861
恶魔	-7862
公演	-7863
操纵	-7864
故意	-7865
迄今	-7866
站是	-7867
▁根据美国	-7868
杜鹃	-7869
领衔	-7870
tain	-7871
说的	-7872
公益	-7873
开创	-7874
,2004	-7875
并对	-7876
是将	-7877
的结构	-7878
出境	-7879
弹劾	-7880
108	-7881
总体	-7882
人类的	-7883
海湾	-7884
移交	-7885
▁台	-7886
河内	-7887
▁常	-7888
亦在	-7889
国公	-7890
教友	-7891
接下来	-7892
苏里	-7893
▁by	-7894
形式的	-7895
出资	-7896
德兰	-7897
会将	-7898
后勤	-7899
好莱坞	-7900
焦点	-7901
日发现	-7902
的计划	-7903
大厅	-7904
巴达	-7905
去了	-7906
号码	-7907
后裔	-7908
足联	-7909
▁他曾	-7910
设立的	-7911
▁该小行星	-7912
执教	-7913
▁更	-7914
二层	-7915
毕业生	-7916
绕太阳	-7917
1911	-7918
by	-7919
客串	-7920
hz	-7921
扬州	-7922
方针	-7923
akb	-7924
横跨	-7925
潜在	-7926
郑州	-7927
有意	-7928
部下	-7929
河道全长	-7930
斯和	-7931
125	-7932
夫妻	-7933
摩托	-7934
语言的	-7935
离心率为	-7936
不等	-7937
废止	-7938
▁道光	-7939
ler	-7940
绝大多数	-7941
可用	-7942
显得	-7943
家属	-7944
年上映	-7945
出租	-7946
铃木	-7947
▁这样	-7948
▁事实上	-7949
主要由	-7950
委常委	-7951
温和	-7952
巴克	-7953
神学	-7954
ald	-7955
保育	-7956
预言	-7957
的军队	-7958
mat	-7959
//	-7960
此一	-7961
gn	-7962
六十	-7963
干预	-7964
袁世凯	-7965
mi	-7966
司铎	-7967
▁ua	-7968
当晚	-7969
战区	-7970
立体	-7971
1913	-7972
交由	-7973
绘入地图	-7974
意识到	-7975
精英	-7976
一等	-7977
则认为	-7978
半长轴为	-7979
分割	-7980
facebook	-7981
霍尔	-7982
鱼科的其中一种	-7983
半球	-7984
宝石	-7985
派人	-7986
泽西	-7987
船员	-7988
连串	-7989
urn	-7990
以及在	-7991
夺冠	-7992
山镇	-7993
长老	-7994
作品的	-7995
而已	-7996
天空	-7997
老板	-7998
ser	-7999
京师	-8000
奉命	-8001
旁边	-8002
▁在美国	-8003
哈特	-8004
▁接着	-8005
橡胶	-8006
最后一个	-8007
ude	-8008
军长	-8009
来了	-8010
民主主义	-8011
加泰	-8012
风力	-8013
wo	-8014
七个	-8015
入学	-8016
刊物	-8017
月被	-8018
说话	-8019
后来被	-8020
oci	-8021
▁她在	-8022
方向的	-8023
属的一种	-8024
秀吉	-8025
首映	-8026
pet	-8027
port	-8028
张家	-8029
达赖	-8030
系数	-8031
扩充	-8032
南端	-8033
公司在	-8034
畅销	-8035
阶层	-8036
的行动	-8037
延迟	-8038
可供	-8039
国小	-8040
弘治	-8041
登堡	-8042
法学院	-8043
解析	-8044
ris	-8045
dp	-8046
合肥	-8047
案例	-8048
绕太阳运	-8049
▁该小行星于	-8050
聘请	-8051
总决赛	-8052
的轨道半长轴为	-8053
总值	-8054
监管	-8055
样本	-8056
彻斯特	-8057
si	-8058
武士	-8059
尚有	-8060
是一颗绕太阳运	-8061
是一颗绕太阳运转的小行星	-8062
们的	-8063
更高	-8064
整数	-8065
生育	-8066
取决于	-8067
蒋中正	-8068
基尔	-8069
诺尔	-8070
服务的	-8071
泰因	-8072
老挝	-8073
搬到	-8074
的比	-8075
绘制	-8076
文化遗产	-8077
流放	-8078
▁香港时间逢星期	-8079
后才	-8080
老人	-8081
中饰演	-8082
颗恒星	-8083
之用	-8084
卡斯蒂利亚	-8085
五大	-8086
代表队	-8087
▁崔	-8088
一层	-8089
瀑布	-8090
舰艇	-8091
普通话	-8092
流行音乐	-8093
落后	-8094
青山	-8095
而闻名	-8096
是该	-8097
ose	-8098
▁※	-8099
苏军	-8100
防护	-8101
纪念馆	-8102
的比赛中	-8103
着手	-8104
uth	-8105
转入	-8106
痛苦	-8107
特殊的	-8108
语和	-8109
分数	-8110
按察	-8111
rist	-8112
的妻子	-8113
冰岛	-8114
▁印度	-8115
匈奴	-8116
对比	-8117
度假	-8118
▁广	-8119
支球队	-8120
的两个	-8121
▁隋	-8122
利尼	-8123
▁1925	-8124
治安	-8125
街道办事处	-8126
▁伯	-8127
主机	-8128
司徒	-8129
驻守	-8130
欣赏	-8131
▁玩家	-8132
领事馆	-8133
后因	-8134
▁英	-8135
中立	-8136
租借	-8137
相对于	-8138
收录了	-8139
排球	-8140
日内	-8141
基础上	-8142
所属的	-8143
年左右	-8144
roid	-8145
,2016	-8146
内蒙古自治区	-8147
精选	-8148
uch	-8149
小行星带小行星	-8150
主播	-8151
映射	-8152
地区代表	-8153
企业家	-8154
人力	-8155
六世	-8156
解体	-8157
洛特	-8158
硫酸	-8159
下旬	-8160
位于该国东北部	-8161
候补	-8162
创业	-8163
为主小行星带小行星	-8164
收回	-8165
而成的	-8166
特种	-8167
江县	-8168
itt	-8169
助于	-8170
安妮	-8171
日和	-8172
高清	-8173
不一	-8174
妈妈	-8175
用地	-8176
▁1926	-8177
公国	-8178
巴哈	-8179
上层	-8180
曾与	-8181
ited	-8182
大将	-8183
摄政	-8184
人对	-8185
帕拉	-8186
远离	-8187
射手	-8188
挖掘	-8189
海滩	-8190
童军	-8191
一方面	-8192
回收	-8193
翡翠台	-8194
贵州省	-8195
会谈	-8196
清廷	-8197
释出	-8198
,15	-8199
▁另一	-8200
日晚上	-8201
▁兰	-8202
为邻	-8203
赤道	-8204
宋朝	-8205
管道	-8206
ene	-8207
举行了	-8208
助攻	-8209
板块	-8210
编程	-8211
arch	-8212
micro	-8213
▁冯	-8214
艾伦	-8215
当然	-8216
隔年	-8217
文革	-8218
▁图	-8219
仍是	-8220
三角形	-8221
这首歌	-8222
各界	-8223
地狱	-8224
不幸	-8225
行使	-8226
文中	-8227
钓鱼	-8228
代表作	-8229
以及其他	-8230
高等教育	-8231
及时	-8232
氏的	-8233
法拉	-8234
与日本	-8235
巴嫩	-8236
缺陷	-8237
▁木	-8238
和小	-8239
起兵	-8240
一对	-8241
混淆	-8242
的下	-8243
103	-8244
式为	-8245
种种	-8246
关系的	-8247
指挥部	-8248
早已	-8249
沼泽	-8250
中国科学院	-8251
党内	-8252
加里	-8253
edia	-8254
生前	-8255
ron	-8256
钻石	-8257
节目中	-8258
远的	-8259
阿拉巴马	-8260
战的	-8261
本届	-8262
是一所	-8263
可是	-8264
官兵	-8265
暗示	-8266
学金	-8267
▁桑	-8268
的一家	-8269
不敢	-8270
微分	-8271
102	-8272
南部的	-8273
巩固	-8274
防线	-8275
山谷	-8276
翌日	-8277
黎巴嫩	-8278
低地	-8279
例外	-8280
开行	-8281
报复	-8282
前夕	-8283
被指	-8284
多年的	-8285
比赛的	-8286
▁沈	-8287
之事	-8288
由美国	-8289
关节	-8290
▁ii	-8291
公共交通	-8292
illiam	-8293
各有	-8294
聚会	-8295
蜘蛛	-8296
追踪	-8297
攻陷	-8298
德利	-8299
杀手	-8300
属性	-8301
▁des	-8302
死者	-8303
的自	-8304
警务	-8305
运载	-8306
沙尼亚	-8307
ng	-8308
直流	-8309
、7	-8310
付费	-8311
led	-8312
修正案	-8313
的基础上	-8314
间谍	-8315
延伸至	-8316
▁城	-8317
它在	-8318
▁潘	-8319
一事	-8320
而有	-8321
▁还有	-8322
篮球运动员	-8323
nowiki	-8324
_5	-8325
狙击	-8326
神的	-8327
见面	-8328
北上	-8329
落实	-8330
亚斯	-8331
佩尔	-8332
1922	-8333
诺伊	-8334
重伤	-8335
在当地	-8336
他又	-8337
速率	-8338
县市	-8339
中途	-8340
巡逻	-8341
户部	-8342
守备	-8343
足球会	-8344
了该	-8345
日与	-8346
sd	-8347
的亲	-8348
大门	-8349
ham	-8350
巴拿马	-8351
废弃	-8352
草地	-8353
应用程序	-8354
否决	-8355
星球	-8356
诺曼	-8357
360	-8358
ave	-8359
温哥华	-8360
▁只	-8361
进化	-8362
106	-8363
被列为	-8364
克罗地亚	-8365
厅长	-8366
推理	-8367
违法	-8368
年首次	-8369
国土	-8370
与之	-8371
先驱	-8372
得出	-8373
进修	-8374
1924	-8375
▁world	-8376
不用	-8377
▁宣	-8378
停留	-8379
完结	-8380
北部的	-8381
work	-8382
也可能	-8383
安达	-8384
皆有	-8385
阿布	-8386
▁1924	-8387
宾夕	-8388
霍夫	-8389
和中	-8390
政治委员	-8391
人口密度为每	-8392
最少	-8393
歌舞	-8394
▁丹	-8395
的官方	-8396
者和	-8397
操作系统	-8398
▁齐	-8399
站至	-8400
理查德	-8401
人群	-8402
时为	-8403
生活的	-8404
▁丁	-8405
年号	-8406
较于	-8407
带到	-8408
2,000	-8409
岭南	-8410
信用	-8411
垄断	-8412
转移到	-8413
人事	-8414
组的	-8415
▁宝	-8416
宗室	-8417
▁按照	-8418
军用	-8419
制造的	-8420
▁景	-8421
倾斜	-8422
厚的	-8423
朝阳	-8424
交通部	-8425
法国的	-8426
总管	-8427
ual	-8428
乒乓	-8429
耳曼	-8430
面积约	-8431
▁范	-8432
负面	-8433
▁同样	-8434
了一种	-8435
岛式月台	-8436
位列	-8437
很有	-8438
重力	-8439
腐败	-8440
1910	-8441
落败	-8442
身边	-8443
杰克逊	-8444
自由党	-8445
西比	-8446
1917	-8447
生意	-8448
壁画	-8449
巨星	-8450
▁担任	-8451
黎明	-8452
仓库	-8453
阵地	-8454
上是	-8455
埃德	-8456
天地	-8457
数次	-8458
监禁	-8459
伊丽莎白	-8460
未经	-8461
部件	-8462
入狱	-8463
先发	-8464
分歧	-8465
紧密	-8466
莫尔	-8467
▁但由于	-8468
动物的	-8469
班机	-8470
所使用的	-8471
会面	-8472
、"	-8473
公务员	-8474
ream	-8475
从小	-8476
▁河	-8477
作品中	-8478
的大小	-8479
的名	-8480
伙伴	-8481
启发	-8482
奇幻	-8483
的女性	-8484
的资料	-8485
几种	-8486
的名义	-8487
反复	-8488
更名	-8489
是瑞士	-8490
命中	-8491
sw	-8492
▁阮	-8493
的无	-8494
日宣布	-8495
代谢	-8496
为美国	-8497
顶点	-8498
▁比如	-8499
数据库	-8500
1200	-8501
的环境	-8502
高压	-8503
离开了	-8504
日以	-8505
而后	-8506
司长	-8507
纳粹德国	-8508
偶尔	-8509
115	-8510
巡回演唱会	-8511
▁也有	-8512
▁+	-8513
220	-8514
内陆	-8515
门外	-8516
在与	-8517
卢瓦尔	-8518
肯塔基	-8519
丞相	-8520
溪流	-8521
以致	-8522
外线	-8523
招募	-8524
顶部	-8525
正统	-8526
马逊	-8527
小镇	-8528
故居	-8529
卫冕	-8530
厄尔	-8531
最新	-8532
西岸	-8533
ject	-8534
栖息在底层水域	-8535
东岸	-8536
古蹟	-8537
对立	-8538
工资	-8539
沙特	-8540
▁pl	-8541
轨电车	-8542
高等学校	-8543
债务	-8544
的数量	-8545
上空	-8546
亦被	-8547
此举	-8548
讲师	-8549
mus	-8550
▁all	-8551
扩散	-8552
草科	-8553
ement	-8554
中央委员会	-8555
西藏自治区	-8556
前方	-8557
金钱	-8558
但因为	-8559
科学技术	-8560
参赛资格	-8561
惯例	-8562
为三	-8563
巡演	-8564
▁韩国	-8565
ition	-8566
拉姆	-8567
更大	-8568
领域的	-8569
江户时代	-8570
人民解放军	-8571
发放	-8572
定于	-8573
家长	-8574
活佛	-8575
戏院	-8576
环节	-8577
给事	-8578
▁本作	-8579
不知道	-8580
可能的	-8581
哈顿	-8582
害怕	-8583
古屋	-8584
一片	-8585
白俄罗斯	-8586
一套	-8587
见证	-8588
里奇	-8589
1,0	-8590
资本主义	-8591
威斯	-8592
显着	-8593
体字	-8594
1925	-8595
炮兵	-8596
罗斯福	-8597
冲锋	-8598
本片	-8599
爵位	-8600
受害者	-8601
贫困	-8602
par	-8603
的现象	-8604
破产	-8605
vis	-8606
还没有	-8607
平方英里	-8608
tp	-8609
减轻	-8610
残疾	-8611
最初的	-8612
的意见	-8613
国会议员	-8614
嫁给	-8615
风云	-8616
专栏	-8617
八个	-8618
千万	-8619
固体	-8620
月到	-8621
高级中学	-8622
是一条	-8623
1905	-8624
琼斯	-8625
碰撞	-8626
ius	-8627
崩溃	-8628
在这个	-8629
宾夕法	-8630
illa	-8631
绑架	-8632
有效的	-8633
俄语	-8634
追随	-8635
eric	-8636
至此	-8637
奥斯曼帝国	-8638
世宗	-8639
太极	-8640
一般的	-8641
摩斯	-8642
福冈	-8643
107	-8644
显然	-8645
▁整个	-8646
别墅	-8647
的过程中	-8648
▁陆	-8649
当初	-8650
慢慢	-8651
曝光	-8652
晋升为	-8653
的河流	-8654
line	-8655
副使	-8656
贝拉	-8657
的一项	-8658
假名	-8659
年及	-8660
部位	-8661
风格的	-8662
巴士路线	-8663
mr	-8664
也称为	-8665
的决定	-8666
的理论	-8667
军政	-8668
阿肯	-8669
民族主义	-8670
杀了	-8671
立为	-8672
汗国	-8673
激素	-8674
描述了	-8675
开除	-8676
iversity	-8677
后代	-8678
支队	-8679
此前	-8680
为热带淡水鱼	-8681
电荷	-8682
▁成立于	-8683
总统选举	-8684
▁en	-8685
人均	-8686
▁该片	-8687
在东	-8688
垒打	-8689
平县	-8690
战斗中	-8691
全程	-8692
▁贾	-8693
是用	-8694
音乐家	-8695
会合	-8696
肯尼	-8697
的权利	-8698
是其	-8699
理工大学	-8700
内外	-8701
放映	-8702
的一部	-8703
迁徙	-8704
▁再	-8705
记者会	-8706
千瓦	-8707
惩罚	-8708
句话	-8709
国共内战	-8710
就职	-8711
邓小平	-8712
恶劣	-8713
攻克	-8714
性行为	-8715
二十世纪	-8716
▁love	-8717
考虑到	-8718
仍未	-8719
黄埔	-8720
的建议	-8721
特鲁	-8722
的可	-8723
布政使	-8724
,2017	-8725
▁戈	-8726
想到	-8727
变成了	-8728
号召	-8729
培育	-8730
投入服务	-8731
县负责管辖	-8732
的单	-8733
还可以	-8734
排序	-8735
民兵	-8736
马上	-8737
赛事中	-8738
堡垒	-8739
东站	-8740
初级	-8741
民航	-8742
way	-8743
▁朝鲜	-8744
将军澳	-8745
关心	-8746
当前	-8747
费城	-8748
utc	-8749
作客	-8750
曼哈顿	-8751
却被	-8752
塔克	-8753
战绩	-8754
▁两人	-8755
的语言	-8756
舞台剧	-8757
件事	-8758
工部	-8759
万名	-8760
纽约州	-8761
年美国人口普查的数据	-8762
将近	-8763
长时间	-8764
亚种	-8765
全新	-8766
索尔	-8767
羽球	-8768
庄园	-8769
的和	-8770
let	-8771
只有一	-8772
候车	-8773
各级	-8774
天然气	-8775
人口密度为每平方千米	-8776
3。	-8777
父子	-8778
里昂	-8779
马利	-8780
的变化	-8781
出去	-8782
民用	-8783
主要有	-8784
抽象	-8785
灌木	-8786
莱尔	-8787
孔子	-8788
边为	-8789
礼仪	-8790
▁ma	-8791
八十	-8792
获得第	-8793
star	-8794
含义	-8795
氨基	-8796
强烈的	-8797
姓名	-8798
疯狂	-8799
1909	-8800
甲板	-8801
▁过去	-8802
已成为	-8803
1921	-8804
纳西	-8805
现金	-8806
存的	-8807
损坏	-8808
清晰	-8809
讲话	-8810
设立了	-8811
腓特	-8812
却是	-8813
:""	-8814
▁祖父	-8815
向前	-8816
神庙	-8817
不合	-8818
铜锣	-8819
将来	-8820
此类	-8821
氨酸	-8822
足球超级联赛	-8823
▁当地共有人口	-8824
王国的	-8825
而水域面积为	-8826
万人次	-8827
当中陆地面积为	-8828
而人口密度为每平方千米	-8829
港岛	-8830
组件	-8831
这条	-8832
镇守	-8833
dd	-8834
民意	-8835
阻碍	-8836
后来在	-8837
组成部分	-8838
一说	-8839
学历	-8840
的最大	-8841
文艺复兴	-8842
服饰	-8843
通常会	-8844
捐款	-8845
遇难	-8846
史称	-8847
改成	-8848
年出版	-8849
中也	-8850
旗舰	-8851
动的	-8852
四周	-8853
新教	-8854
》;	-8855
湿地	-8856
罪行	-8857
新型	-8858
直线	-8859
这也	-8860
ild	-8861
待遇	-8862
||0	-8863
的一员	-8864
▁及	-8865
出品	-8866
号和	-8867
亦称	-8868
号在	-8869
标准的	-8870
▁1912	-8871
一架	-8872
小巴	-8873
接到	-8874
接口	-8875
完毕	-8876
佔地	-8877
实用	-8878
他以	-8879
多少	-8880
彩虹	-8881
深圳市	-8882
乌尔	-8883
写了	-8884
学派	-8885
伦堡	-8886
全年	-8887
结识	-8888
幼儿	-8889
灵顿	-8890
独裁	-8891
中和	-8892
右侧	-8893
徐州	-8894
卸任	-8895
吉祥	-8896
生日	-8897
拿破仑	-8898
致命	-8899
员外	-8900
新村	-8901
键盘	-8902
年统计	-8903
贩售	-8904
腓特烈	-8905
莱特	-8906
外交官	-8907
▁辛	-8908
宇文	-8909
并把	-8910
莉亚	-8911
保守党	-8912
奖学金	-8913
赞成	-8914
不利	-8915
千叶	-8916
珠海	-8917
行程	-8918
旅客铁道	-8919
夫州	-8920
职能	-8921
二等	-8922
上演	-8923
打入	-8924
▁system	-8925
每月	-8926
决赛中	-8927
的乡	-8928
过来	-8929
政府军	-8930
江市	-8931
前去	-8932
通勤	-8933
的一场	-8934
▁stud	-8935
地表	-8936
步骤	-8937
发现于	-8938
月中旬	-8939
的一部份	-8940
等同	-8941
划入	-8942
敌军	-8943
和南	-8944
木材	-8945
▁玛	-8946
的状态	-8947
中国国家	-8948
迎接	-8949
1926	-8950
日本气象厅	-8951
▁影片	-8952
结束了	-8953
家康	-8954
取代了	-8955
斯科特	-8956
以至	-8957
备受	-8958
灾害	-8959
年仅	-8960
真理	-8961
hi	-8962
用品	-8963
bi	-8964
台大	-8965
塞拜	-8966
果实	-8967
创造了	-8968
获得的	-8969
拘捕	-8970
1908	-8971
分局	-8972
崛起	-8973
改设	-8974
莱德	-8975
▁1919	-8976
感谢	-8977
▁可以	-8978
lass	-8979
纪律	-8980
450	-8981
ero	-8982
的控制	-8983
的香港	-8984
优异	-8985
幕后	-8986
的任务	-8987
航站	-8988
酒吧	-8989
多家	-8990
水扁	-8991
晚年	-8992
▁公司	-8993
加利福尼亚	-8994
煤矿	-8995
蝴蝶	-8996
avid	-8997
出家	-8998
托勒	-8999
龙类	-9000
青海省	-9001
斯里兰卡	-9002
迁到	-9003
宽度	-9004
安定	-9005
难度	-9006
不大	-9007
可汗	-9008
对付	-9009
旺角	-9010
,2000	-9011
mc	-9012
做的	-9013
热门	-9014
空降	-9015
bur	-9016
翻唱	-9017
亚洲电视	-9018
地方政府	-9019
一周	-9020
但被	-9021
才是	-9022
藤原	-9023
房地产	-9024
足够的	-9025
▁蓝	-9026
合共	-9027
战俘	-9028
109	-9029
ico	-9030
中队	-9031
铁道部	-9032
▁live	-9033
研究的	-9034
贩卖	-9035
由英国	-9036
出色	-9037
利润	-9038
奥利	-9039
▁威廉	-9040
装有	-9041
通称	-9042
▁着有	-9043
▁隆	-9044
窗口	-9045
古建筑	-9046
第二轮	-9047
中层水域	-9048
审理	-9049
舰只	-9050
年轻人	-9051
王朝的	-9052
接待	-9053
ven	-9054
汉人	-9055
人口的	-9056
应用程式	-9057
支配	-9058
注重	-9059
有一座	-9060
位于该国中	-9061
介于	-9062
补助	-9063
为界	-9064
满意	-9065
路站	-9066
1923	-9067
两层	-9068
结盟	-9069
英属	-9070
郡王	-9071
亿港元	-9072
华南	-9073
直通	-9074
总统府	-9075
吉士	-9076
▁这时	-9077
第二季	-9078
fran	-9079
德堡	-9080
1907	-9081
ze	-9082
击落	-9083
概率	-9084
unt	-9085
的版本	-9086
经纪公司	-9087
星云	-9088
五代	-9089
就此	-9090
移除	-9091
air	-9092
保定	-9093
季军	-9094
鸦片	-9095
散文	-9096
ade	-9097
▁赛	-9098
、8	-9099
企划	-9100
加密	-9101
陈列	-9102
党校	-9103
土木	-9104
三千	-9105
小时的	-9106
他曾	-9107
水泥	-9108
着称	-9109
酋长	-9110
ino	-9111
接驳	-9112
anc	-9113
▁节目	-9114
他说	-9115
要在	-9116
bbc	-9117
也被称为	-9118
单纯	-9119
剧组	-9120
郡的	-9121
技术的	-9122
华州	-9123
▁qu	-9124
根据地	-9125
ings	-9126
华纳	-9127
牛顿	-9128
那时	-9129
阿肯色	-9130
富有	-9131
280	-9132
▁本片	-9133
区议员	-9134
char	-9135
ake	-9136
10,	-9137
ien	-9138
条件下	-9139
大名	-9140
接手	-9141
之所以	-9142
控制的	-9143
期工程	-9144
增至	-9145
警备	-9146
采纳	-9147
预警	-9148
玻利	-9149
车厂	-9150
和其	-9151
深夜	-9152
克拉克	-9153
浏览器	-9154
▁彭	-9155
裁定	-9156
▁sm	-9157
发生后	-9158
将此	-9159
西伯利亚	-9160
有一定	-9161
作为一个	-9162
一组	-9163
助手	-9164
状的	-9165
标志着	-9166
爱沙尼亚	-9167
pg	-9168
前任	-9169
富豪	-9170
工农	-9171
演说	-9172
甲基	-9173
红旗	-9174
ane	-9175
格罗	-9176
语系	-9177
分泌	-9178
应付	-9179
滑雪	-9180
188	-9181
专科学校	-9182
位于日本	-9183
他州	-9184
开国	-9185
迁入	-9186
合资	-9187
处罚	-9188
孙子	-9189
飞船	-9190
▁1922	-9191
宦官	-9192
拓扑	-9193
年完成	-9194
人大常委会	-9195
创刊	-9196
一面	-9197
三层	-9198
是于	-9199
web	-9200
1%	-9201
只会	-9202
邮政编码	-9203
刑部	-9204
务段	-9205
南华	-9206
硬件	-9207
古城	-9208
疫苗	-9209
被誉为	-9210
部作品	-9211
丧生	-9212
考量	-9213
采购	-9214
板桥	-9215
是当时	-9216
故乡	-9217
宁县	-9218
艺名	-9219
电动机	-9220
位于台湾	-9221
平成	-9222
斯特拉	-9223
广大	-9224
沉积	-9225
的声音	-9226
埃塞	-9227
山上	-9228
文书	-9229
改编为	-9230
不太	-9231
在线	-9232
总兵	-9233
顾客	-9234
年之后	-9235
伺服	-9236
年从	-9237
西站	-9238
注意到	-9239
ko	-9240
泉州	-9241
笔名	-9242
连锁	-9243
名古屋	-9244
亚利桑那州	-9245
方面军	-9246
月下旬	-9247
边疆	-9248
白金	-9249
吸血	-9250
的特殊	-9251
rich	-9252
饮料	-9253
民主派	-9254
被称作	-9255
攻下	-9256
琳娜	-9257
契约	-9258
渔业	-9259
但最终	-9260
侦探	-9261
电站	-9262
翻新	-9263
该站	-9264
是匈牙利	-9265
县治	-9266
格达	-9267
生殖	-9268
超人	-9269
下议院	-9270
合作的	-9271
▁第二次世界大战	-9272
地势	-9273
诸塞	-9274
在法国	-9275
▁在中国	-9276
告示牌	-9277
党委书记	-9278
邪恶	-9279
jav	-9280
为什么	-9281
日耳曼	-9282
▁钱	-9283
中午	-9284
教室	-9285
传记	-9286
实习	-9287
清晨	-9288
帮助下	-9289
者在	-9290
▁早期	-9291
▁月	-9292
ott	-9293
韩民国	-9294
影响了	-9295
ll	-9296
▁反	-9297
与新	-9298
溶于	-9299
za	-9300
豪华	-9301
东风	-9302
蝙蝠侠	-9303
利奥	-9304
鲶形目	-9305
▁中华人民共和国成立后	-9306
大略	-9307
搜寻	-9308
很高	-9309
伴侣	-9310
的音	-9311
跟着	-9312
▁ge	-9313
各式	-9314
忽略	-9315
演习	-9316
一个人	-9317
德里克	-9318
单曲榜	-9319
是属于	-9320
摩洛	-9321
铸造	-9322
决定将	-9323
水准	-9324
过往	-9325
适用	-9326
▁25	-9327
栖息于	-9328
份子	-9329
贯穿	-9330
嘉庆	-9331
总结	-9332
早于	-9333
的纪录	-9334
致使	-9335
诠释	-9336
▁假	-9337
演变	-9338
哥特	-9339
撤回	-9340
理会	-9341
背面	-9342
财团	-9343
亦于	-9344
承受	-9345
断层	-9346
▁gr	-9347
,2018	-9348
英九	-9349
封建	-9350
间隔	-9351
希伯	-9352
开始于	-9353
▁此次	-9354
职人员	-9355
北约	-9356
的情形	-9357
是奥地利	-9358
出入	-9359
逃到	-9360
▁即使	-9361
高温	-9362
ray	-9363
第二大	-9364
研讨	-9365
va	-9366
冰原	-9367
别人	-9368
所知	-9369
128	-9370
▁my	-9371
罗尼亚	-9372
尼日	-9373
tvb	-9374
相对论	-9375
修筑	-9376
的组织	-9377
办学	-9378
中国政府	-9379
▁曼	-9380
位元	-9381
阿拉巴马州	-9382
句丽	-9383
武田	-9384
盛行	-9385
公里处	-9386
!》	-9387
型柴油机车	-9388
伊万	-9389
制服	-9390
正教	-9391
段时间	-9392
逃往	-9393
高速铁路	-9394
时有	-9395
▁注	-9396
女士	-9397
笔记	-9398
▁这里	-9399
的二	-9400
常用的	-9401
able	-9402
东面	-9403
的力量	-9404
给事中	-9405
▁人	-9406
夺回	-9407
感受	-9408
机身	-9409
降级	-9410
马尼	-9411
博览会	-9412
土著	-9413
左侧	-9414
最快	-9415
象棋	-9416
、21	-9417
相互作用	-9418
为辐鳍鱼纲鲶形目	-9419
全民	-9420
前作	-9421
1906	-9422
德州	-9423
接下来的	-9424
谈话	-9425
的态度	-9426
▁music	-9427
贪污	-9428
金马	-9429
▁历任	-9430
前期	-9431
洪武	-9432
却在	-9433
230	-9434
多年来	-9435
线索	-9436
完成后	-9437
曾经在	-9438
球衣	-9439
辩护	-9440
的观点	-9441
vo	-9442
▁柳	-9443
位素	-9444
渤海	-9445
保留了	-9446
加索	-9447
收获	-9448
被判	-9449
遇上	-9450
的规定	-9451
陈水扁	-9452
年参加	-9453
一体	-9454
uro	-9455
习近	-9456
320	-9457
阿尔及利亚	-9458
位于该国东南部	-9459
怀特	-9460
1、	-9461
刚刚	-9462
的事件	-9463
首府设于	-9464
林业	-9465
阿克	-9466
▁可是	-9467
正式的	-9468
游击队	-9469
▁1923	-9470
及香港	-9471
cord	-9472
四军	-9473
堪萨斯州	-9474
包裹	-9475
传统上	-9476
▁抗日战争	-9477
屋苑	-9478
的人士	-9479
开发者	-9480
,2003	-9481
▁会	-9482
深水	-9483
列车的	-9484
篮板	-9485
留守	-9486
辽东	-9487
乒乓球	-9488
极大的	-9489
讲座	-9490
中子	-9491
第一任	-9492
▁1918	-9493
▁属	-9494
贵的	-9495
全市	-9496
奥多	-9497
接纳	-9498
车次	-9499
战列舰	-9500
的历史年代为	-9501
气氛	-9502
较小的	-9503
五人	-9504
证券交易所	-9505
水晶	-9506
检察官	-9507
末端	-9508
不够	-9509
公正	-9510
乃至	-9511
学部	-9512
楚国	-9513
烧毁	-9514
135	-9515
葡萄酒	-9516
处分	-9517
宇航	-9518
据说	-9519
掌管	-9520
手下	-9521
一线	-9522
光的	-9523
▁晋	-9524
是与	-9525
而出	-9526
要素	-9527
便会	-9528
▁研究	-9529
1904	-9530
三条	-9531
有四	-9532
ute	-9533
的相关	-9534
排放	-9535
▁期间	-9536
▁雅	-9537
庇护	-9538
德甲	-9539
长城	-9540
转向架	-9541
桃园市	-9542
是新	-9543
的统治	-9544
物件	-9545
腹部	-9546
是一个位于美国	-9547
1903	-9548
依次	-9549
师团	-9550
高尔夫	-9551
低压	-9552
吐蕃	-9553
永乐	-9554
在外	-9555
党派	-9556
新星	-9557
,20	-9558
流入	-9559
羽毛球锦标赛	-9560
习近平	-9561
变动	-9562
多斯	-9563
混血	-9564
不同的是	-9565
是南极洲的山峰	-9566
侵蚀	-9567
合适	-9568
的核心	-9569
知名度	-9570
其间	-9571
峡谷	-9572
流程	-9573
马萨	-9574
▁苏联	-9575
在国际	-9576
的政策	-9577
▁短	-9578
佩斯	-9579
北站	-9580
饲养	-9581
▁卡尔	-9582
orth	-9583
经济发展	-9584
安打	-9585
容许	-9586
岛县	-9587
约束	-9588
处处长	-9589
克鲁	-9590
民主进步	-9591
是罗马尼亚	-9592
卡通	-9593
未被	-9594
牡丹	-9595
努尔	-9596
经历了	-9597
▁are	-9598
大火	-9599
该市有人口	-9600
为第	-9601
人心	-9602
水道	-9603
水面	-9604
的球员	-9605
藏传佛教	-9606
不应	-9607
子孙	-9608
://	-9609
利比亚	-9610
动机	-9611
掩护	-9612
放大	-9613
检讨	-9614
的权力	-9615
依法	-9616
华裔	-9617
得奖	-9618
都城	-9619
量产	-9620
首届	-9621
式建筑	-9622
很容易	-9623
关卡	-9624
因病	-9625
一辆	-9626
的地下	-9627
▁cor	-9628
▁po	-9629
庶吉士	-9630
师范学校	-9631
最终幻想	-9632
吉隆	-9633
噶尔	-9634
联邦政府	-9635
中日	-9636
大堂	-9637
摩根	-9638
的南	-9639
译本	-9640
集成	-9641
关押	-9642
缩小	-9643
投入使用	-9644
▁柯	-9645
中亚	-9646
哈萨	-9647
补偿	-9648
代价	-9649
乌鲁	-9650
欧阳	-9651
译名	-9652
道具	-9653
七十	-9654
后备	-9655
者是	-9656
的个人	-9657
西贡	-9658
划分为	-9659
法兰克福	-9660
南北朝	-9661
并担任	-9662
▁1917	-9663
圣保罗	-9664
墓地	-9665
攻佔	-9666
年进入	-9667
自愿	-9668
三十年	-9669
山站	-9670
政事	-9671
的铁路	-9672
魔术	-9673
全垒打	-9674
收录于	-9675
继承了	-9676
ini	-9677
生下	-9678
等人的	-9679
一段时间	-9680
音乐学院	-9681
削弱	-9682
县道	-9683
▁翌年	-9684
官方网站	-9685
开拓	-9686
弹匣	-9687
产阶级	-9688
▁以下为	-9689
alk	-9690
▁per	-9691
交通大学	-9692
之久	-9693
航站楼	-9694
一批	-9695
年第	-9696
护理	-9697
过多	-9698
的副	-9699
_6	-9700
南站	-9701
民生	-9702
▁歌曲	-9703
,14	-9704
直辖市	-9705
三星	-9706
会馆	-9707
卓越	-9708
监控	-9709
食用鱼	-9710
底部	-9711
枢密	-9712
重叠	-9713
雄性	-9714
将被	-9715
损伤	-9716
失业	-9717
外围赛	-9718
一个月	-9719
吉尼亚	-9720
屏幕	-9721
巴比	-9722
改变了	-9723
染色体	-9724
云南等地	-9725
怪物	-9726
订购	-9727
▁俄罗斯	-9728
ari	-9729
宗旨	-9730
萨摩	-9731
▁很多	-9732
半导体	-9733
日早上	-9734
爱好者	-9735
史记	-9736
西汉	-9737
制片人	-9738
▁奇	-9739
咨询	-9740
快车	-9741
lack	-9742
wh	-9743
对该	-9744
模糊	-9745
硬棘	-9746
避难	-9747
年以后	-9748
▁分布于中国大陆的	-9749
一代	-9750
学说	-9751
联会	-9752
百合	-9753
了一场	-9754
大概	-9755
▁成化	-9756
联盟的	-9757
记忆体	-9758
更好的	-9759
国家安全	-9760
▁等	-9761
将该	-9762
斯德	-9763
特罗	-9764
狭窄	-9765
总面积为	-9766
大和	-9767
年份	-9768
必然	-9769
得到的	-9770
弯曲	-9771
▁热	-9772
艾尔	-9773
西克	-9774
外星	-9775
对待	-9776
武将	-9777
亚太	-9778
州和	-9779
在中国大陆	-9780
初始	-9781
基亚	-9782
以来的	-9783
会见	-9784
传达	-9785
260	-9786
带来了	-9787
第一代	-9788
德克萨斯州	-9789
登录	-9790
结尾	-9791
首周	-9792
插入	-9793
原作	-9794
社会党	-9795
足球协会	-9796
两项	-9797
审议	-9798
纠纷	-9799
蔬菜	-9800
天水	-9801
起草	-9802
一直在	-9803
▁应	-9804
征召	-9805
对战	-9806
▁值得	-9807
副院长	-9808
采集	-9809
▁group	-9810
剥夺	-9811
努斯	-9812
妈祖	-9813
将之	-9814
花科	-9815
被人	-9816
2:	-9817
教义	-9818
的字	-9819
祈祷	-9820
android	-9821
意指	-9822
的演出	-9823
也就是说	-9824
高等法院	-9825
游乐	-9826
监察御史	-9827
两地	-9828
后面	-9829
困扰	-9830
▁下午	-9831
南京市	-9832
父亲的	-9833
分辨	-9834
委托	-9835
学界	-9836
统帅	-9837
相应的	-9838
简称为	-9839
总数	-9840
书的	-9841
辅导	-9842
广西壮	-9843
和高	-9844
平坦	-9845
门下	-9846
年当选	-9847
额外的	-9848
维新	-9849
在上	-9850
中文大学	-9851
到来	-9852
同事	-9853
彼得堡	-9854
危害	-9855
配音员	-9856
清理	-9857
票价	-9858
的北	-9859
从来	-9860
患有	-9861
逃走	-9862
就开始	-9863
巴登	-9864
的风	-9865
科长	-9866
遵循	-9867
彩色	-9868
▁早在	-9869
主要以	-9870
委员会主任	-9871
为四	-9872
送给	-9873
▁bl	-9874
一台	-9875
假日	-9876
和谐	-9877
ena	-9878
省政府	-9879
水系	-9880
流体	-9881
军中	-9882
狩猎	-9883
人受伤	-9884
〉、	-9885
的石	-9886
但后来	-9887
住房	-9888
感应	-9889
界面	-9890
ife	-9891
纽约时报	-9892
欧美	-9893
运转	-9894
缺少	-9895
美金	-9896
▁同日	-9897
社会科学	-9898
双向	-9899
太阳系	-9900
或者是	-9901
借用	-9902
副都	-9903
nhk	-9904
中毒	-9905
条纹	-9906
魁北	-9907
全力	-9908
兵器	-9909
酸盐	-9910
的平均	-9911
共青	-9912
时在	-9913
中央政府	-9914
卫斯	-9915
纳米	-9916
mun	-9917
的特性	-9918
和他	-9919
质子	-9920
于台湾	-9921
安东尼	-9922
属下的一个变种	-9923
全日	-9924
也就	-9925
层次	-9926
极其	-9927
阿斯	-9928
一直是	-9929
初中	-9930
总署	-9931
林肯	-9932
贫穷	-9933
受体	-9934
成员国	-9935
牧区	-9936
眼镜	-9937
绰号	-9938
罗宾	-9939
▁23	-9940
会导致	-9941
并表示	-9942
iver	-9943
▁1921	-9944
▁任	-9945
拉的	-9946
格丽	-9947
登山	-9948
之间的关系	-9949
的五	-9950
行列	-9951
探测器	-9952
扫描	-9953
▁政府	-9954
军校	-9955
、10	-9956
野战军	-9957
一颗	-9958
与李	-9959
▁im	-9960
""	-9961
圣地	-9962
收益	-9963
已经在	-9964
天府乡试	-9965
宣誓	-9966
征收	-9967
战线	-9968
▁用	-9969
▁顺治	-9970
佔据	-9971
下设	-9972
假期	-9973
公所	-9974
加的	-9975
行省	-9976
出色的	-9977
哈佛大学	-9978
多瓦	-9979
拓展	-9980
人之	-9981
派往	-9982
特斯	-9983
刺杀	-9984
可由	-9985
干道	-9986
全身	-9987
理性	-9988
碎片	-9989
历时	-9990
料理	-9991
特雷	-9992
▁os	-9993
有不少	-9994
的文章	-9995
1600	-9996
▁盖	-9997
灌溉	-9998
的制作	-9999
所辖的一个	-10000
兵部	-10001
音节	-10002
的法律	-10003
县和	-10004
存活	-10005
二十四	-10006
中兴	-10007
一定的	-10008
分别于	-10009
▁蒋	-10010
正确的	-10011
但这	-10012
尾巴	-10013
招生	-10014
匈牙利语	-10015
上获得	-10016
世纪中	-10017
▁以下是	-10018
从中	-10019
旅馆	-10020
药品	-10021
左派	-10022
金星	-10023
第一季	-10024
仅在	-10025
契丹	-10026
年又	-10027
原本的	-10028
深海	-10029
拨款	-10030
群岛的	-10031
期待	-10032
看作	-10033
对应的	-10034
3%	-10035
也为	-10036
矿物	-10037
阿肯色州	-10038
滑冰	-10039
博尔	-10040
中国人	-10041
处在	-10042
学业	-10043
最好	-10044
性鱼类	-10045
正式成立	-10046
和解	-10047
的意义	-10048
的车站	-10049
纯粹	-10050
轻轨	-10051
都以	-10052
学园	-10053
总额	-10054
不久后	-10055
目的地	-10056
基层	-10057
酒精	-10058
位于南	-10059
华德	-10060
参军	-10061
嫌疑	-10062
月间	-10063
清治	-10064
所在的	-10065
中止	-10066
都尉	-10067
1915	-10068
▁扎	-10069
使馆	-10070
头角	-10071
普里	-10072
的冠军	-10073
是世界上	-10074
分店	-10075
克里米亚	-10076
▁1909	-10077
兰德	-10078
楼高	-10079
汉口	-10080
路的	-10081
▁大学	-10082
为首的	-10083
▁公	-10084
演绎	-10085
程度的	-10086
家族的	-10087
戴维斯	-10088
的弟弟	-10089
上场	-10090
下诏	-10091
乐曲	-10092
强奸	-10093
里约	-10094
广西壮族自治区	-10095
外来	-10096
规律	-10097
小说家	-10098
的记载	-10099
生母	-10100
科三甲	-10101
尔本	-10102
美食	-10103
音乐剧	-10104
内务	-10105
再生	-10106
撤出	-10107
操控	-10108
汉朝	-10109
113	-10110
复出	-10111
师从	-10112
校方	-10113
潜水	-10114
爪哇	-10115
是来自	-10116
失望	-10117
九巴	-10118
皮尔	-10119
▁km	-10120
不见	-10121
水果	-10122
uss	-10123
副局长	-10124
▁市	-10125
顺位	-10126
▁嘉庆	-10127
▁每年	-10128
▁马来	-10129
其他人	-10130
你的	-10131
沉没	-10132
话题	-10133
顶级	-10134
▁no	-10135
最长	-10136
▁这座	-10137
系列赛	-10138
▁enter	-10139
存在着	-10140
先行	-10141
摩洛哥	-10142
了在	-10143
传染	-10144
斯克州	-10145
布伦	-10146
最长的	-10147
沙咀	-10148
缘故	-10149
背后	-10150
而人口密度为每平方千米人	-10151
摆脱	-10152
super	-10153
▁土	-10154
分的	-10155
福克	-10156
记述	-10157
迷你专辑	-10158
多达	-10159
家里	-10160
ert	-10161
铜锣湾	-10162
光禄	-10163
换取	-10164
每秒	-10165
而来的	-10166
▁尤	-10167
▁该党	-10168
车人次	-10169
▁辖	-10170
和在	-10171
替补	-10172
盟友	-10173
找到了	-10174
日上映	-10175
一万	-10176
严厉	-10177
利尔	-10178
戏曲	-10179
▁1914	-10180
手持	-10181
案的	-10182
融入	-10183
不被	-10184
日到	-10185
船舶	-10186
八路军	-10187
1902	-10188
▁非	-10189
南越	-10190
密集	-10191
真空	-10192
区的一个	-10193
ny	-10194
世的	-10195
栖息地	-10196
结构的	-10197
人间	-10198
▁do	-10199
▁在他	-10200
分类法	-10201
般的	-10202
▁并且	-10203
传出	-10204
年内	-10205
专题	-10206
西太平洋	-10207
gl	-10208
ael	-10209
▁lo	-10210
发源于	-10211
的居民	-10212
南韩	-10213
白垩	-10214
庞大的	-10215
柴油机	-10216
代言	-10217
的英国	-10218
弹性	-10219
录取	-10220
只得	-10221
清洁	-10222
分部	-10223
园林	-10224
的一名	-10225
塑料	-10226
家村	-10227
拿到	-10228
时所	-10229
重型	-10230
卫斯理	-10231
强行	-10232
▁part	-10233
评选	-10234
eth	-10235
师生	-10236
▁只有	-10237
▁ass	-10238
此处	-10239
加泰罗尼亚	-10240
ky	-10241
不了	-10242
实在	-10243
中使用	-10244
中文版	-10245
化学家	-10246
拦截	-10247
生理	-10248
群的	-10249
铁线	-10250
las	-10251
人口密度为	-10252
半部	-10253
大规模的	-10254
同进士出身	-10255
cs	-10256
则是在	-10257
信义	-10258
庞大	-10259
录得	-10260
构想	-10261
进出	-10262
分会	-10263
国子	-10264
等价	-10265
译作	-10266
个人的	-10267
魁北克	-10268
的一系列	-10269
全省	-10270
于美国	-10271
有线电视	-10272
亦曾	-10273
营造	-10274
雌性	-10275
中学校	-10276
第一轮	-10277
注意的是	-10278
动物园	-10279
▁分布在中国大陆的	-10280
山城	-10281
演技	-10282
省委	-10283
罗杰	-10284
111	-10285
▁ph	-10286
公墓	-10287
之星	-10288
本次	-10289
聚居	-10290
学生的	-10291
1916	-10292
评级	-10293
114	-10294
por	-10295
张学	-10296
ki	-10297
同日	-10298
家臣	-10299
万美元的	-10300
bb	-10301
停办	-10302
拒绝了	-10303
集中营	-10304
▁玉	-10305
注射	-10306
万英镑	-10307
军阀	-10308
达斯	-10309
引发了	-10310
视野	-10311
宗座	-10312
开采	-10313
合唱团	-10314
▁他们的	-10315
偏西	-10316
隆头	-10317
▁两个	-10318
星光	-10319
温暖	-10320
年日本	-10321
▁1913	-10322
4%	-10323
抵制	-10324
海战	-10325
省会	-10326
签下	-10327
编修	-10328
上书	-10329
二号	-10330
兼容	-10331
商会	-10332
转到	-10333
昔日	-10334
西德	-10335
6000	-10336
iso	-10337
部分地区	-10338
大地震	-10339
两度	-10340
了自己的	-10341
同治	-10342
增援	-10343
子和	-10344
普利	-10345
电源	-10346
行本	-10347
所组成	-10348
▁另一个	-10349
度过	-10350
格的	-10351
辅音	-10352
世纪时	-10353
和约	-10354
论述	-10355
元璋	-10356
岛峰	-10357
布什	-10358
指南	-10359
脉冲	-10360
西尔	-10361
位于香港	-10362
挑选	-10363
亚马逊	-10364
填海	-10365
幽默	-10366
山峰	-10367
推举	-10368
不错	-10369
矿业	-10370
除非	-10371
零件	-10372
的距离	-10373
党部	-10374
炮台	-10375
117	-10376
最高点为	-10377
一块	-10378
终点站	-10379
受欢迎的	-10380
龙属	-10381
本剧	-10382
在全国	-10383
xbox	-10384
贡士	-10385
人马	-10386
南开	-10387
塔拉	-10388
港区	-10389
,13	-10390
飓风中心	-10391
成名	-10392
员外郎	-10393
太多	-10394
把他	-10395
▁pe	-10396
庄为邻	-10397
归属	-10398
双重	-10399
▁30	-10400
事件中	-10401
买卖	-10402
116	-10403
邯郸	-10404
▁24	-10405
1:	-10406
过去的	-10407
ital	-10408
是位于美国加利福尼亚州	-10409
正好	-10410
亚特兰	-10411
因斯坦	-10412
年将	-10413
罗曼	-10414
故宫	-10415
电报	-10416
月加入中国共产党	-10417
名额	-10418
▁本剧	-10419
了其	-10420
大屠杀	-10421
的特色	-10422
_7	-10423
是中	-10424
沿途	-10425
蒂斯	-10426
▁第四	-10427
生活于	-10428
▁丰	-10429
清末	-10430
萤幕	-10431
利沃	-10432
央视	-10433
签名	-10434
▁1901	-10435
朗德	-10436
▁该陨坑	-10437
大部分的	-10438
中位	-10439
吉他手	-10440
加州大学	-10441
microsoft	-10442
▁即	-10443
供给	-10444
相传	-10445
迁居	-10446
马英九	-10447
在海	-10448
托夫	-10449
希望能	-10450
吉隆坡	-10451
四强	-10452
不存在	-10453
电讯	-10454
礼部	-10455
的范围	-10456
竞争对手	-10457
pi	-10458
』,	-10459
接连	-10460
也与	-10461
南至	-10462
拆卸	-10463
国家杯	-10464
在德国	-10465
年推出	-10466
第二代	-10467
历史建筑	-10468
录音室专辑	-10469
世俗	-10470
▁自从	-10471
是根据	-10472
统领	-10473
1901	-10474
没能	-10475
着重	-10476
全新的	-10477
另一位	-10478
归还	-10479
▁近年	-10480
祖母	-10481
ugh	-10482
sy	-10483
没收	-10484
个月后	-10485
是西班牙卡斯蒂利亚	-10486
比起	-10487
病的	-10488
仍然是	-10489
广播电视	-10490
▁关	-10491
亮的	-10492
纳的	-10493
表彰	-10494
▁她的	-10495
珍妮	-10496
的需求	-10497
了一系列	-10498
由来	-10499
枪械	-10500
自己是	-10501
▁查	-10502
北韩	-10503
建造的	-10504
猎人	-10505
冰原岛峰	-10506
颗粒	-10507
多项式	-10508
希伯来	-10509
▁要	-10510
外科	-10511
他成为	-10512
法尔茨	-10513
▁1911	-10514
▁铁	-10515
客场	-10516
橄榄球	-10517
皇家海军	-10518
分发	-10519
礼物	-10520
雷诺	-10521
主教为	-10522
虐待	-10523
批复同意	-10524
日食	-10525
上以	-10526
京剧	-10527
生产总值	-10528
dy	-10529
年电影	-10530
占地面积	-10531
生物学家	-10532
山路	-10533
▁art	-10534
失利	-10535
奉天	-10536
背叛	-10537
在全球	-10538
大法官	-10539
上台	-10540
侦测	-10541
四位	-10542
大为	-10543
对流	-10544
ova	-10545
▁colle	-10546
6%	-10547
马场	-10548
投诉	-10549
番茄	-10550
▁崇祯	-10551
构成的	-10552
2%	-10553
墓葬	-10554
无需	-10555
率兵	-10556
380	-10557
兹别	-10558
哈根	-10559
守军	-10560
加勒比海	-10561
祖国	-10562
月参加	-10563
▁蒂	-10564
洋基	-10565
▁如今	-10566
▁百	-10567
先后在	-10568
民事	-10569
满贯	-10570
煤炭	-10571
为人知	-10572
欢乐	-10573
历史的	-10574
大兴	-10575
▁up	-10576
可用于	-10577
的特点	-10578
后人	-10579
彰化县	-10580
五千	-10581
商学院	-10582
转化为	-10583
的台湾	-10584
▁道	-10585
某一	-10586
走了	-10587
教会的	-10588
向上	-10589
较早	-10590
▁澳门	-10591
带动	-10592
吸引了	-10593
▁air	-10594
威力	-10595
纪元	-10596
是通过	-10597
的领导	-10598
詹姆	-10599
双层	-10600
巴里	-10601
年所	-10602
inc	-10603
▁比赛	-10604
拉丁语	-10605
切断	-10606
容器	-10607
无力	-10608
chn	-10609
铁路公司	-10610
地主	-10611
▁county	-10612
交互	-10613
藏书	-10614
鹦鹉	-10615
人口有	-10616
伯恩	-10617
毛利	-10618
举办了	-10619
的节目	-10620
还有一	-10621
▁play	-10622
希腊语	-10623
日间	-10624
的车	-10625
而成为	-10626
创建于	-10627
安德烈	-10628
加快	-10629
足利	-10630
▁子	-10631
▁袁	-10632
参政	-10633
曼谷	-10634
1800	-10635
登基	-10636
顺治	-10637
《》。	-10638
塞拜疆	-10639
带回	-10640
河东	-10641
fin	-10642
山村	-10643
普顿	-10644
炮塔	-10645
一道	-10646
住户	-10647
155	-10648
的文化	-10649
内尔	-10650
在校	-10651
拍卖	-10652
共用	-10653
分队	-10654
122	-10655
卢森堡	-10656
的效果	-10657
事发	-10658
不动	-10659
和第	-10660
景区	-10661
王朱	-10662
马来亚	-10663
是法国上	-10664
波罗的海	-10665
宠物	-10666
sur	-10667
吉尼亚州	-10668
印地	-10669
木星	-10670
派系	-10671
疗法	-10672
自从	-10673
刘备	-10674
台语	-10675
加装	-10676
草本	-10677
研究室	-10678
▁起初	-10679
之人	-10680
段的	-10681
普法尔茨	-10682
哈萨克	-10683
▁that	-10684
民主共和国	-10685
十馀	-10686
大区的	-10687
团员	-10688
揭露	-10689
第二届	-10690
香港电影	-10691
东莞	-10692
在场	-10693
▁原本	-10694
密西西比	-10695
率部	-10696
是由于	-10697
红十字	-10698
di	-10699
四名	-10700
客量	-10701
称赞	-10702
同知	-10703
师的	-10704
后再	-10705
投影	-10706
引起的	-10707
参战	-10708
警卫	-10709
喷射	-10710
计划的	-10711
原声	-10712
拜仁	-10713
航运	-10714
mg	-10715
不想	-10716
很好	-10717
长途	-10718
三十四年	-10719
二十三年	-10720
突袭	-10721
南洋	-10722
算是	-10723
编为	-10724
处女	-10725
波利	-10726
轻松	-10727
已经有	-10728
高句丽	-10729
影响的	-10730
石器时代	-10731
全境	-10732
音乐节	-10733
氧气	-10734
珠江	-10735
尖沙咀	-10736
的生产	-10737
青岛市	-10738
电器	-10739
攻读	-10740
认为这	-10741
了这个	-10742
尼的	-10743
约在	-10744
委员长	-10745
感兴趣	-10746
form	-10747
乘车	-10748
可以从	-10749
阿拉伯语	-10750
、9	-10751
迈阿	-10752
为中	-10753
入读	-10754
参照	-10755
长崎	-10756
将其升格为	-10757
参与者	-10758
7%	-10759
蔡英文	-10760
学和	-10761
自治市	-10762
报名	-10763
无穷	-10764
和英国	-10765
来进行	-10766
哈萨克斯坦	-10767
岛式	-10768
足总杯	-10769
情人	-10770
玄宗	-10771
▁为此	-10772
德里希	-10773
满洲国	-10774
压制	-10775
建的	-10776
线与	-10777
达科	-10778
伺服器	-10779
忍者	-10780
招收	-10781
▁mod	-10782
万年	-10783
务局	-10784
塔斯	-10785
民俗	-10786
赛道	-10787
号月台	-10788
总公司	-10789
在地	-10790
▁汤	-10791
帆船	-10792
看来	-10793
西蒙	-10794
完成的	-10795
的自由	-10796
▁mag	-10797
歌迷	-10798
国铁	-10799
配套	-10800
▁现今	-10801
陶瓷	-10802
为例	-10803
衰落	-10804
又以	-10805
飞往	-10806
▁据说	-10807
以下的	-10808
观赏鱼	-10809
北海	-10810
总冠军	-10811
民主主义人民共和国	-10812
画作	-10813
侍中	-10814
rna	-10815
▁基于	-10816
更高的	-10817
曾多次	-10818
修行	-10819
养殖	-10820
照明	-10821
骨骼	-10822
可作为	-10823
大学士	-10824
激光	-10825
遇见	-10826
闪电	-10827
泰山	-10828
到底	-10829
拘留	-10830
更好	-10831
北端	-10832
射程	-10833
女友	-10834
墨尔本	-10835
丽的	-10836
释迦	-10837
海口	-10838
四种	-10839
内政部	-10840
散布	-10841
的黑	-10842
铸币	-10843
中获得	-10844
ele	-10845
▁马尔	-10846
和马	-10847
骚扰	-10848
2500	-10849
心灵	-10850
晚会	-10851
片尾	-10852
约旦	-10853
分隔	-10854
户籍	-10855
籍贯	-10856
魔戒	-10857
div	-10858
放射性	-10859
光复	-10860
皮卡	-10861
诉求	-10862
的人类	-10863
北欧	-10864
富裕	-10865
让他们	-10866
省级文物保护单位	-10867
转化	-10868
的精神	-10869
发表声明	-10870
▁下辖以下地区	-10871
清除	-10872
的爱	-10873
的安全	-10874
领衔主演	-10875
伦理	-10876
河川	-10877
了一份	-10878
初次	-10879
老虎	-10880
era	-10881
是中国的特有植物	-10882
光年	-10883
了一座	-10884
圣公会	-10885
直达	-10886
由中国	-10887
年幼	-10888
年夏天	-10889
控制器	-10890
的目的	-10891
耶和华	-10892
革命党	-10893
宋代	-10894
葬礼	-10895
丹尼尔	-10896
稍后	-10897
活跃于	-10898
fs	-10899
客观	-10900
赛冠军	-10901
潮州	-10902
腓力	-10903
mod	-10904
的白	-10905
▁bar	-10906
周年纪念	-10907
分布于非洲	-10908
样式	-10909
潮湿	-10910
东印度	-10911
因为在	-10912
轻型	-10913
▁在中国大陆	-10914
为中国的特有植物	-10915
传闻	-10916
的形象	-10917
ja	-10918
▁幼	-10919
军籍	-10920
山是	-10921
暴雨	-10922
查询	-10923
艺员	-10924
▁par	-10925
itter	-10926
wa	-10927
有功	-10928
270	-10929
副教授	-10930
斯洛伐克	-10931
迪克	-10932
甚至是	-10933
稳定性	-10934
外交关系	-10935
几次	-10936
安市	-10937
榜单	-10938
学者认为	-10939
在天	-10940
洞穴	-10941
南朝	-10942
该剧	-10943
工业区	-10944
善于	-10945
年纪	-10946
拜访	-10947
除外	-10948
也以	-10949
▁阿拉	-10950
这一点	-10951
两家	-10952
摩擦	-10953
和国家	-10954
行政村	-10955
误差	-10956
下的一个属	-10957
卒于	-10958
舞曲	-10959
逆转	-10960
表决	-10961
日本帝国	-10962
阿姆斯特	-10963
中路	-10964
世袭	-10965
像素	-10966
合称	-10967
大王	-10968
新鲜	-10969
而该地	-10970
空中照片	-10971
▁佐	-10972
分行	-10973
李氏	-10974
摄影师	-10975
教科文	-10976
刻有	-10977
发展成	-10978
合一	-10979
改建为	-10980
over	-10981
▁not	-10982
格鲁吉亚	-10983
沙滩	-10984
茨克	-10985
提醒	-10986
工学院	-10987
的公司	-10988
▁黎	-10989
填词	-10990
礼堂	-10991
win	-10992
xx	-10993
名将	-10994
119	-10995
植物种	-10996
预留	-10997
▁鲍	-10998
指向	-10999
暹罗	-11000
分手	-11001
/10	-11002
系主任	-11003
业界	-11004
月时	-11005
首长	-11006
50%	-11007
西面	-11008
也许	-11009
味道	-11010
考证	-11011
俄比亚	-11012
sl	-11013
平均降雨量	-11014
正选	-11015
淮南	-11016
罗那	-11017
逃脱	-11018
2、	-11019
修斯	-11020
官话	-11021
有权	-11022
看台	-11023
随时	-11024
宣布将	-11025
8%	-11026
之家	-11027
科隆	-11028
▁在这个	-11029
仁宗	-11030
可惜	-11031
掉了	-11032
星座	-11033
中央委员	-11034
晶片	-11035
大都	-11036
夫的	-11037
▁首先	-11038
优化	-11039
平壤	-11040
月号	-11041
正当	-11042
皇宫	-11043
科维奇	-11044
1898	-11045
▁车	-11046
一班	-11047
动脉	-11048
大学和	-11049
的例子	-11050
与同	-11051
火焰	-11052
苏达	-11053
拉格	-11054
维希	-11055
330	-11056
化妆	-11057
尔加	-11058
日子	-11059
电阻	-11060
斯基区	-11061
▁兴	-11062
文凭	-11063
最高点为海拔高度	-11064
军衔	-11065
日内瓦	-11066
▁gir	-11067
特别是在	-11068
的古	-11069
轻微	-11070
学生会	-11071
元老	-11072
衰退	-11073
▁下辖	-11074
财政部	-11075
日圆	-11076
转运	-11077
并将其	-11078
脱维亚	-11079
苏联的	-11080
改革开放	-11081
而该地最高点为海拔高度	-11082
否定	-11083
的花	-11084
玻利维亚	-11085
上传	-11086
尼基	-11087
捕捉	-11088
十九年	-11089
可以将	-11090
和日本	-11091
▁tra	-11092
推迟	-11093
民建	-11094
移至	-11095
过滤	-11096
托勒密	-11097
▁云	-11098
▁所	-11099
写信	-11100
单车	-11101
模块	-11102
税收	-11103
了中国	-11104
后来成为	-11105
字子	-11106
激发	-11107
主打歌	-11108
的出现	-11109
下面	-11110
履行	-11111
ism	-11112
日启用	-11113
的好	-11114
驻华	-11115
副会长	-11116
之役	-11117
多于	-11118
并列	-11119
莱恩	-11120
阳郡	-11121
随后的	-11122
1890	-11123
▁can	-11124
的一个铁路车站	-11125
使命	-11126
中视	-11127
莉丝	-11128
之旅	-11129
思维	-11130
政司	-11131
▁埃尔	-11132
史蒂芬	-11133
和的	-11134
大胜	-11135
潮流	-11136
联队	-11137
pol	-11138
▁县治	-11139
法西斯	-11140
卜杜	-11141
想像	-11142
val	-11143
以前的	-11144
人选	-11145
和水	-11146
悲剧	-11147
在世界	-11148
再转	-11149
的旧	-11150
简易	-11151
伦西亚	-11152
管理委员会	-11153
科斯	-11154
的开发	-11155
北纬	-11156
市级	-11157
筹建	-11158
don	-11159
对中国	-11160
ater	-11161
xy	-11162
冬天	-11163
isc	-11164
共青团	-11165
消化	-11166
▁截止	-11167
史诗	-11168
海滨	-11169
状元	-11170
目击	-11171
▁浙江	-11172
被列入	-11173
来表示	-11174
全港	-11175
四处	-11176
集资	-11177
▁us	-11178
的反应	-11179
相遇	-11180
高出	-11181
贝斯	-11182
地下铁	-11183
演出的	-11184
港府	-11185
夫兰	-11186
遍布	-11187
aut	-11188
客户端	-11189
公布时间为	-11190
检察院	-11191
流域为	-11192
国安	-11193
马鞍	-11194
ref	-11195
因为它	-11196
▁馀	-11197
一艘	-11198
的的	-11199
连线	-11200
▁建筑	-11201
罪犯	-11202
的球队	-11203
巴德	-11204
约定	-11205
父亲是	-11206
二十一年	-11207
也很	-11208
玉米	-11209
看出	-11210
被俘	-11211
月正式	-11212
使之	-11213
加斯加	-11214
哺乳动物	-11215
录像	-11216
甲壳	-11217
是世界	-11218
侧式月台	-11219
:'	-11220
ef	-11221
▁保	-11222
炮弹	-11223
的书	-11224
越过	-11225
可做为	-11226
▁近年来	-11227
变速	-11228
红磡	-11229
孤立	-11230
约翰逊	-11231
▁恩	-11232
场面	-11233
就要	-11234
山乡	-11235
纸币	-11236
ons	-11237
有机会	-11238
率领的	-11239
师范学院	-11240
3,000	-11241
ti	-11242
有个	-11243
saint	-11244
囚禁	-11245
国歌	-11246
影集	-11247
歼灭	-11248
逼近	-11249
专注于	-11250
波多	-11251
压迫	-11252
▁中华	-11253
安装在	-11254
羽毛球国际赛	-11255
一中	-11256
一郎	-11257
不易	-11258
写为	-11259
逃跑	-11260
中出现	-11261
〉,	-11262
陪同	-11263
麦可	-11264
汇报	-11265
ors	-11266
▁sa	-11267
的报告	-11268
等海域	-11269
立法会议员	-11270
ichael	-11271
亚视	-11272
庆典	-11273
服从	-11274
站名	-11275
域名	-11276
季风	-11277
最先	-11278
门口	-11279
协同	-11280
或许	-11281
旅程	-11282
巴士总站	-11283
马克思主义	-11284
两部	-11285
石灰	-11286
耕地	-11287
齿轮	-11288
129	-11289
奠基	-11290
布拉格	-11291
被广泛	-11292
专属	-11293
坚决	-11294
ibm	-11295
便宜	-11296
岛和	-11297
127	-11298
科罗拉多州	-11299
反派	-11300
有助于	-11301
乙级联赛	-11302
4。	-11303
▁甘	-11304
之孙	-11305
寻常	-11306
忠诚	-11307
迪南	-11308
可能指	-11309
选择了	-11310
收取	-11311
荆州	-11312
,1998	-11313
▁university	-11314
一首	-11315
动漫	-11316
她是	-11317
帕克	-11318
镶嵌	-11319
ral	-11320
最终以	-11321
的价格	-11322
ield	-11323
找出	-11324
斑点	-11325
被毁	-11326
阿勒	-11327
因为他	-11328
中南	-11329
船长	-11330
安德鲁	-11331
文档	-11332
选项	-11333
▁雍正	-11334
清政府	-11335
反攻	-11336
ric	-11337
▁from	-11338
▁q	-11339
的王	-11340
mag	-11341
日推出	-11342
号称	-11343
丽丝	-11344
志明	-11345
渗透	-11346
▁最近	-11347
今天的	-11348
兰克林	-11349
的一切	-11350
殿试登进士	-11351
子弟	-11352
明白	-11353
爸爸	-11354
特务	-11355
所需的	-11356
八达	-11357
多处	-11358
开枪	-11359
瓦解	-11360
召唤	-11361
暴风	-11362
螺科	-11363
vol	-11364
▁gre	-11365
标识	-11366
oss	-11367
第二名	-11368
三号	-11369
灌丛	-11370
猛烈	-11371
该区	-11372
可容纳	-11373
失误	-11374
组装	-11375
太阳的	-11376
海岸线	-11377
上线	-11378
会与	-11379
后为	-11380
埼玉	-11381
敌对	-11382
神户	-11383
驻扎	-11384
同样的	-11385
大城市	-11386
白垩纪	-11387
的一段	-11388
▁半	-11389
特在	-11390
秦国	-11391
进了	-11392
三部曲	-11393
▁大部分	-11394
罗伯	-11395
基本法	-11396
年以前	-11397
儒家	-11398
发出的	-11399
市政厅	-11400
很快就	-11401
▁真	-11402
全军	-11403
毒品	-11404
二十四年	-11405
修缮	-11406
副市长	-11407
▁;	-11408
外借	-11409
抗争	-11410
复数	-11411
毒性	-11412
贵妃	-11413
内部的	-11414
度为	-11415
离职	-11416
米勒	-11417
日本政府	-11418
收缩	-11419
而与	-11420
一处	-11421
制备	-11422
多部	-11423
延至	-11424
指的	-11425
提起	-11426
整修	-11427
南宁	-11428
诗集	-11429
123	-11430
岛上的	-11431
mark	-11432
州立大学	-11433
gi	-11434
二千	-11435
水县	-11436
密苏里	-11437
高加索	-11438
▁乐	-11439
两端	-11440
化物	-11441
得多	-11442
经国	-11443
阮福	-11444
计划在	-11445
iphone	-11446
北岸	-11447
回族	-11448
水源	-11449
背部	-11450
▁进士出身	-11451
倒塌	-11452
摄氏	-11453
研究者	-11454
交会	-11455
异性	-11456
林斯	-11457
霹雳	-11458
许可证	-11459
四方	-11460
浦东	-11461
败给	-11462
▁gu	-11463
有一条	-11464
迈阿密	-11465
年度最佳	-11466
信心	-11467
叛军	-11468
神奈	-11469
米高	-11470
缺点	-11471
▁细	-11472
▁锡	-11473
不当	-11474
招待	-11475
蒂亚	-11476
遇到了	-11477
有所不同	-11478
由香港	-11479
1895	-11480
北条	-11481
参议	-11482
ubl	-11483
民主进步党	-11484
立面	-11485
其实是	-11486
全家	-11487
始祖	-11488
马匹	-11489
145	-11490
ology	-11491
不含	-11492
姿态	-11493
死了	-11494
首部	-11495
当年的	-11496
向西北	-11497
apan	-11498
献给	-11499
破裂	-11500
文学奖	-11501
三重	-11502
答案	-11503
▁jo	-11504
副校长	-11505
是基于	-11506
委员会副主任	-11507
〉、〈	-11508
的地点	-11509
解决方案	-11510
中央人民政府	-11511
他所	-11512
私有	-11513
军队的	-11514
卡罗莱	-11515
▁赤	-11516
均匀	-11517
站点	-11518
小时内	-11519
卡西	-11520
松山	-11521
乌拉圭	-11522
会产生	-11523
是俄罗斯联邦	-11524
东欧	-11525
最终于	-11526
dj	-11527
ww	-11528
影评人	-11529
加拿大的	-11530
年代后期	-11531
路易斯安	-11532
教材	-11533
有期徒刑	-11534
南道	-11535
打出	-11536
指定地区	-11537
疼痛	-11538
几天	-11539
编纂	-11540
被用于	-11541
水手	-11542
国家和	-11543
会战	-11544
监测	-11545
里尼	-11546
加特	-11547
集团的	-11548
ek	-11549
帽子	-11550
成功地	-11551
仍为	-11552
▁el	-11553
代之	-11554
以免	-11555
僧人	-11556
罚款	-11557
▁di	-11558
力和	-11559
德雷	-11560
ces	-11561
▁tran	-11562
华沙	-11563
赛事于	-11564
木齐	-11565
电铁	-11566
wan	-11567
支那	-11568
落在	-11569
相似的	-11570
赶到	-11571
邮票	-11572
与前	-11573
新任	-11574
法轮	-11575
结晶	-11576
轻易	-11577
里希	-11578
▁对此	-11579
篇文章	-11580
出动	-11581
击沉	-11582
囚犯	-11583
圆柱	-11584
场馆	-11585
是自	-11586
特朗	-11587
现役	-11588
而其	-11589
路面	-11590
吸血鬼	-11591
年发行	-11592
的人们	-11593
圣彼得堡	-11594
不安	-11595
一至五	-11596
二氧化碳	-11597
外籍	-11598
166	-11599
仙奴	-11600
便于	-11601
偶然	-11602
▁21	-11603
有三个	-11604
幸运	-11605
弹簧	-11606
科大学	-11607
必须在	-11608
追溯至	-11609
开辟	-11610
联手	-11611
ution	-11612
他担任	-11613
▁干	-11614
举动	-11615
属下	-11616
11,	-11617
pp	-11618
三维	-11619
向外	-11620
▁自此	-11621
升至	-11622
在对	-11623
楼宇	-11624
平方呎	-11625
这使得	-11626
▁出生于	-11627
英国伦敦	-11628
之声	-11629
归国	-11630
获准	-11631
输送	-11632
cal	-11633
ines	-11634
路斯	-11635
亥革命	-11636
控制了	-11637
第二位	-11638
的可能性	-11639
湿润	-11640
让她	-11641
750	-11642
关税	-11643
普雷	-11644
陈述	-11645
回到了	-11646
天子	-11647
小时后	-11648
的地面	-11649
建立一个	-11650
人口普查指定地区	-11651
▁佛	-11652
▁依	-11653
并要求	-11654
旅游业	-11655
职权	-11656
固定的	-11657
取景	-11658
喀尔	-11659
四国	-11660
抨击	-11661
松江	-11662
的红	-11663
can	-11664
sol	-11665
于日本	-11666
改以	-11667
首脑	-11668
十万	-11669
量为	-11670
lam	-11671
▁fr	-11672
肯塔基州	-11673
摔角	-11674
210	-11675
▁威	-11676
报章	-11677
与台湾	-11678
和文化	-11679
缩写为	-11680
俗名	-11681
裁决	-11682
尼克斯	-11683
副秘书长	-11684
所作	-11685
▁tv	-11686
多半	-11687
既有	-11688
门将	-11689
▁越南	-11690
藏族	-11691
齐国	-11692
骑士团	-11693
朝鲜民主主义人民共和国	-11694
菊科	-11695
古罗马	-11696
▁地	-11697
年之间	-11698
米特里	-11699
影响力的	-11700
++	-11701
大洋	-11702
取消了	-11703
府知府	-11704
的攻击	-11705
角色扮演	-11706
▁董	-11707
几位	-11708
受邀	-11709
的首府	-11710
等方面	-11711
地方法院	-11712
战争爆发	-11713
之变	-11714
只需	-11715
社会学	-11716
奈良	-11717
安抚	-11718
当场	-11719
站内	-11720
市场的	-11721
的人物	-11722
▁次	-11723
sky	-11724
倡导	-11725
协和	-11726
鲶科的其中一种	-11727
9%	-11728
生在	-11729
126	-11730
▁该校	-11731
科特	-11732
的家庭	-11733
牌照	-11734
行性	-11735
最后在	-11736
世界遗产	-11737
美奖	-11738
为代表	-11739
▁was	-11740
界线	-11741
空难	-11742
安门	-11743
有过	-11744
男双	-11745
总编辑	-11746
有超过	-11747
的乡份	-11748
伴随	-11749
之后在	-11750
▁庆	-11751
弹道	-11752
▁进入	-11753
莱茵兰	-11754
东至	-11755
中级	-11756
使徒	-11757
节省	-11758
短期大学	-11759
oricon	-11760
是罗马尼亚的乡份	-11761
▁实际上	-11762
0,	-11763
振兴	-11764
储备	-11765
度量	-11766
必需	-11767
提督	-11768
母语	-11769
进制	-11770
按察使	-11771
福克斯	-11772
了这	-11773
内存	-11774
早晨	-11775
续约	-11776
音乐的	-11777
会于	-11778
珠宝	-11779
通报	-11780
出使	-11781
齐亚	-11782
都是在	-11783
业主	-11784
桥樑	-11785
▁唐朝	-11786
日渐	-11787
发电机	-11788
担任全国人大代表	-11789
守卫	-11790
汽油	-11791
分公司	-11792
管理的	-11793
教派	-11794
皇子	-11795
科目	-11796
里尔	-11797
隐居	-11798
节目的	-11799
行进	-11800
十字军	-11801
david	-11802
马士	-11803
▁del	-11804
"|	-11805
男友	-11806
一样的	-11807
年冬季	-11808
▁香	-11809
北大	-11810
底栖	-11811
台北县	-11812
itch	-11813
▁gen	-11814
艺术学院	-11815
丑闻	-11816
但未	-11817
唱歌	-11818
溶剂	-11819
获颁	-11820
乌兹别	-11821
不起	-11822
语文	-11823
多媒体	-11824
就已	-11825
罢免	-11826
ora	-11827
升降机	-11828
和政治	-11829
自己在	-11830
政治部主任	-11831
底层	-11832
提取	-11833
正值	-11834
追赠	-11835
电影中	-11836
新疆维吾尔	-11837
曾经是	-11838
等问题	-11839
经济学家	-11840
安提	-11841
已故	-11842
江湖	-11843
餐饮	-11844
▁这项	-11845
听说	-11846
▁洪武	-11847
时表示	-11848
乡是罗马尼亚的乡份	-11849
密歇	-11850
疏散	-11851
称帝	-11852
钟楼	-11853
领导小组	-11854
特和	-11855
目标是	-11856
巴利	-11857
蔷薇	-11858
一一	-11859
困境	-11860
机型	-11861
剩下的	-11862
日期间	-11863
干旱	-11864
是第	-11865
花岗	-11866
马赛	-11867
得贡士	-11868
协商会议	-11869
底盘	-11870
▁弘治	-11871
拉丁文	-11872
py	-11873
婆罗	-11874
的李	-11875
年建成	-11876
八强	-11877
密歇根	-11878
告别	-11879
牛斯	-11880
物流	-11881
视察	-11882
的称号	-11883
埃塞俄比亚	-11884
▁共	-11885
倡议	-11886
别名	-11887
台铁	-11888
执照	-11889
民营	-11890
杭州市	-11891
转变为	-11892
金像奖	-11893
天才	-11894
12,	-11895
年代开始	-11896
▁殿试登进士	-11897
塞拉	-11898
124	-11899
▁这场	-11900
动力学	-11901
外国人	-11902
小提琴	-11903
阿波罗	-11904
布达	-11905
理论上	-11906
精神病	-11907
▁day	-11908
东经	-11909
聚合	-11910
道中	-11911
bre	-11912
君士坦丁堡	-11913
终年	-11914
设法	-11915
的评价	-11916
禾本科	-11917
▁人们	-11918
交界处	-11919
kg	-11920
bn	-11921
京城	-11922
夜晚	-11923
原属	-11924
合计	-11925
无意	-11926
相隔	-11927
bal	-11928
安大略	-11929
延长至	-11930
的一个车站	-11931
▁record	-11932
fi	-11933
女生	-11934
抵御	-11935
行销	-11936
角的	-11937
布莱恩	-11938
皇太后	-11939
标注	-11940
金华	-11941
:15	-11942
off	-11943
以纪念	-11944
开了	-11945
端点	-11946
▁act	-11947
男爵	-11948
栖息在底中层水域	-11949
日元	-11950
的对象	-11951
一提	-11952
凶手	-11953
神像	-11954
所辖的一个村	-11955
▁孟	-11956
哥斯	-11957
ita	-11958
的独立	-11959
准则	-11960
土司	-11961
比特	-11962
top	-11963
切尔尼	-11964
地球上	-11965
亚尔	-11966
梅克	-11967
瞬间	-11968
临近	-11969
也因	-11970
加冕	-11971
补选	-11972
投资者	-11973
▁他认为	-11974
下属的一座城市	-11975
作了	-11976
分出	-11977
海的	-11978
人民党	-11979
▁2020	-11980
音乐录影带	-11981
导航	-11982
基础设施	-11983
比克	-11984
创作了	-11985
年大选	-11986
洛伐克	-11987
美国政府	-11988
列克	-11989
石刻	-11990
那不	-11991
第三名	-11992
电视广播	-11993
_8	-11994
▁坎	-11995
上杉	-11996
河水	-11997
▁加拿大	-11998
太保	-11999
镇的	-12000
都是由	-12001
击出	-12002
帮忙	-12003
隋朝	-12004
电影院	-12005
为辐鳍鱼纲鲤	-12006
交涉	-12007
雅图	-12008
oll	-12009
不办理	-12010
石勒	-12011
西域	-12012
都很	-12013
球队的	-12014
王府	-12015
规定的	-12016
光线	-12017
并用	-12018
ily	-12019
的服务	-12020
英国人	-12021
▁故	-12022
华中	-12023
期限	-12024
灵活	-12025
长者	-12026
了一次	-12027
捷克斯	-12028
改编成	-12029
结束时	-12030
年夏	-12031
穆尔	-12032
衰变	-12033
右派	-12034
损毁	-12035
短篇	-12036
缓解	-12037
创立于	-12038
布鲁克	-12039
个镇	-12040
也对	-12041
各方	-12042
日月	-12043
秋季	-12044
创立了	-12045
现有的	-12046
痕迹	-12047
维基百科	-12048
僧侣	-12049
层面	-12050
青衣	-12051
ony	-12052
▁班	-12053
户外	-12054
描述为	-12055
伯里	-12056
救护	-12057
金正	-12058
麦隆	-12059
▁列车	-12060
但也有	-12061
倾向于	-12062
海军的	-12063
距离首府	-12064
灯塔	-12065
田中	-12066
重创	-12067
成员的	-12068
是一项	-12069
底层水域	-12070
札幌	-12071
王星	-12072
121	-12073
香港大学	-12074
▁同年五月	-12075
mk	-12076
厕所	-12077
外形	-12078
明清	-12079
供应商	-12080
抛弃	-12081
退伍	-12082
▁'	-12083
会对	-12084
健身	-12085
城邦	-12086
突变	-12087
村的	-12088
▁et	-12089
需要的	-12090
职业足球	-12091
三等	-12092
台视	-12093
披露	-12094
新秀	-12095
聪明	-12096
页面	-12097
住宅区	-12098
留下的	-12099
位于中华人民共和国	-12100
之心	-12101
人造	-12102
侦查	-12103
pen	-12104
角色的	-12105
下台	-12106
字的	-12107
开往	-12108
怪兽	-12109
目前已	-12110
不敌赛会	-12111
效能	-12112
西山	-12113
架飞机	-12114
william	-12115
丰臣	-12116
偏北	-12117
ations	-12118
批全国重点文物保护单位	-12119
175	-12120
uck	-12121
▁1916	-12122
坐在	-12123
猎物	-12124
船上	-12125
拥有的	-12126
现名	-12127
蜿蜒	-12128
参加过	-12129
号班机	-12130
亲属	-12131
无罪	-12132
混双	-12133
离去	-12134
必要的	-12135
放弃了	-12136
ni	-12137
章程	-12138
颅骨	-12139
第二百	-12140
第四次	-12141
被评为	-12142
orge	-12143
常务委员会	-12144
声母	-12145
羽联	-12146
三角洲	-12147
无论是	-12148
的系统	-12149
发源自	-12150
威尔逊	-12151
拉丁美洲	-12152
旅客列车	-12153
其次	-12154
外语	-12155
安息	-12156
溶解	-12157
离散	-12158
见的	-12159
日发布	-12160
族自治县	-12161
刻意	-12162
告终	-12163
瓦斯	-12164
同位素	-12165
当今	-12166
掌控	-12167
比斯	-12168
音速	-12169
▁中共	-12170
座椅	-12171
拳击	-12172
腾讯	-12173
▁em	-12174
德文	-12175
推断	-12176
氏族	-12177
线是	-12178
编成	-12179
阴阳	-12180
可能有	-12181
朱元璋	-12182
的人员	-12183
孙权	-12184
经营的	-12185
历史上的	-12186
也都	-12187
亚瑟	-12188
▁该属	-12189
部队的	-12190
广为	-12191
年中华民国	-12192
哥拉	-12193
巡航	-12194
宫崎	-12195
组别	-12196
▁ad	-12197
加油	-12198
底质	-12199
bor	-12200
都会区	-12201
技术学院	-12202
十个	-12203
尽快	-12204
机上	-12205
一枚	-12206
总队	-12207
率的	-12208
下一个	-12209
▁牛	-12210
违背	-12211
机构的	-12212
的重要性	-12213
七世	-12214
六四	-12215
沙皇	-12216
迪尔	-12217
石家庄	-12218
二十九年	-12219
▁紫	-12220
并从	-12221
」「	-12222
出产	-12223
亮度	-12224
充当	-12225
把它	-12226
汕头	-12227
座的一	-12228
座的	-12229
▁生于	-12230
爱因斯坦	-12231
平息	-12232
腾堡	-12233
巴布亚	-12234
位于美国	-12235
,1999	-12236
会使	-12237
big	-12238
▁乔治	-12239
会出现	-12240
是目前	-12241
有一定的	-12242
▁葛	-12243
千年	-12244
国营	-12245
宗的	-12246
小心	-12247
构建	-12248
西欧	-12249
tainment	-12250
万馀	-12251
站和	-12252
黑洞	-12253
澄清	-12254
词语	-12255
饱和	-12256
主要在	-12257
公布了	-12258
欧洲的	-12259
▁生	-12260
管弦	-12261
藩主	-12262
风俗	-12263
地球的	-12264
珊瑚礁	-12265
保健	-12266
捕获	-12267
代表性	-12268
作业系统	-12269
与小	-12270
举例	-12271
争执	-12272
巴塞罗那	-12273
克力	-12274
法属	-12275
世家	-12276
亿元人民币	-12277
卡罗来	-12278
坐落于	-12279
才开始	-12280
住了	-12281
偏南	-12282
区段	-12283
字形	-12284
震惊	-12285
有两种	-12286
情的	-12287
政法	-12288
福斯	-12289
▁mac	-12290
类动物	-12291
交响乐团	-12292
aa	-12293
勇敢	-12294
确切	-12295
评分	-12296
部和	-12297
高祖	-12298
ull	-12299
党组书记	-12300
明帝	-12301
流行的	-12302
城中	-12303
神圣罗马帝国	-12304
均由	-12305
拉脱维亚	-12306
淡水流域	-12307
df	-12308
售出	-12309
声调	-12310
流派	-12311
领主	-12312
不设	-12313
电厂	-12314
而这	-12315
后成为	-12316
国立台湾大学	-12317
林的	-12318
不一定	-12319
berg	-12320
万立方米	-12321
一小	-12322
云林县	-12323
观察到	-12324
大地	-12325
▁安德	-12326
▁正德	-12327
的主力	-12328
俄军	-12329
赏识	-12330
教科书	-12331
台北市政府	-12332
事项	-12333
教育家	-12334
▁通	-12335
冷战	-12336
感动	-12337
落入	-12338
住所	-12339
向他	-12340
维特	-12341
新干线	-12342
5,000	-12343
第十一届全国政协委员	-12344
多条	-12345
每年平均降雨量	-12346
属下的一个植物种	-12347
卡斯特	-12348
最小的	-12349
扰动	-12350
终极	-12351
蒙古国	-12352
是非	-12353
做出了	-12354
武汉市	-12355
的发	-12356
10%	-12357
gdp	-12358
因此被	-12359
太阳能	-12360
综合性	-12361
足球锦标赛	-12362
不管	-12363
弹头	-12364
▁1915	-12365
场上	-12366
永康	-12367
▁eng	-12368
比利牛斯	-12369
格局	-12370
▁马克	-12371
万欧元	-12372
氧化物	-12373
▁尚	-12374
断裂	-12375
▁有一	-12376
联合国教科文	-12377
凡尔	-12378
有趣	-12379
林下	-12380
骚乱	-12381
mt	-12382
售卖	-12383
成份	-12384
临时政府	-12385
行政区域	-12386
塑造	-12387
▁另有	-12388
▁贝尔	-12389
劳伦斯	-12390
肯尼迪	-12391
降格为	-12392
乌鲁木齐	-12393
多以	-12394
▁→	-12395
武功	-12396
▁共有	-12397
众议员	-12398
得票率	-12399
遭到了	-12400
代尔	-12401
支出	-12402
马哈	-12403
ipt	-12404
曾一度	-12405
百分之	-12406
经常被	-12407
▁瑞	-12408
万年前	-12409
press	-12410
媒介	-12411
缺席	-12412
是唯一	-12413
▁先	-12414
仍旧	-12415
有大	-12416
极度	-12417
陆上	-12418
550	-12419
▁cont	-12420
沙尔	-12421
硝酸	-12422
中方	-12423
介面	-12424
折叠	-12425
的比例	-12426
养子	-12427
新宿	-12428
病患	-12429
葬在	-12430
只有一个	-12431
下层	-12432
椭圆	-12433
高潮	-12434
三个月	-12435
回报	-12436
寒冷	-12437
决定在	-12438
ford	-12439
五位	-12440
胡安	-12441
若望	-12442
镇江	-12443
▁lim	-12444
准决赛以	-12445
▁姚	-12446
源头	-12447
自成	-12448
▁事后	-12449
万港元	-12450
伴随着	-12451
则可	-12452
教皇	-12453
阐述	-12454
大约有	-12455
册封	-12456
季的	-12457
环状	-12458
白宫	-12459
等国	-12460
请愿	-12461
剧场版	-12462
bu	-12463
奥托	-12464
攻破	-12465
森的	-12466
gin	-12467
个县	-12468
作画	-12469
复旦	-12470
林根	-12471
耗资	-12472
订单	-12473
斯塔夫	-12474
道格拉斯	-12475
卡车	-12476
四次	-12477
楼的	-12478
能够在	-12479
为王	-12480
戴维	-12481
疑似	-12482
长久	-12483
gar	-12484
」,「	-12485
世界纪录	-12486
半年	-12487
护士	-12488
沃伦	-12489
首次在	-12490
安东尼奥	-12491
位于中国广东省	-12492
博物院	-12493
的战争	-12494
东晋	-12495
亚伯	-12496
南美	-12497
建构	-12498
▁在日本	-12499
▁惠	-12500
伴奏	-12501
大教堂	-12502
维生素	-12503
派对	-12504
物语	-12505
竟然	-12506
的唯一	-12507
clude	-12508
pu	-12509
同期	-12510
向的	-12511
坑壁	-12512
椭圆形	-12513
这就是	-12514
短篇小说	-12515
次郎	-12516
洋行	-12517
▁毕业后	-12518
渡过	-12519
阻挡	-12520
人口约	-12521
北至	-12522
跟踪	-12523
、18	-12524
尽量	-12525
指引	-12526
远程	-12527
hu	-12528
▁京	-12529
也要	-12530
并获	-12531
当事	-12532
当成	-12533
派兵	-12534
金陵	-12535
科殿试	-12536
不远	-12537
前面	-12538
日时	-12539
科索	-12540
国内外	-12541
上与	-12542
充足	-12543
模范	-12544
世界冠军	-12545
成为中国	-12546
之神	-12547
罗伊	-12548
的战斗	-12549
sam	-12550
而无法	-12551
丝绸	-12552
带走	-12553
终端	-12554
大约是	-12555
委任为	-12556
归类为	-12557
割让	-12558
邻居	-12559
阿萨	-12560
▁从此	-12561
第一座	-12562
▁mon	-12563
运载火箭	-12564
▁重	-12565
更在	-12566
当中的	-12567
政治协商会议	-12568
▁自由	-12569
卡洛斯	-12570
年之前	-12571
爱丁堡	-12572
国民大会	-12573
两天	-12574
蜗牛	-12575
》,《	-12576
众多的	-12577
所取代	-12578
知识分子	-12579
职业篮球运动员	-12580
会堂	-12581
新罗	-12582
还能	-12583
▁西班牙	-12584
救出	-12585
共振	-12586
年国际	-12587
显示出	-12588
年代初期	-12589
建交	-12590
报刊	-12591
格斗	-12592
清洗	-12593
鼓手	-12594
公安局	-12595
的东西	-12596
审计	-12597
无缘	-12598
朝日	-12599
90%	-12600
osa	-12601
马拉松	-12602
仅为	-12603
女双	-12604
统筹	-12605
电视网	-12606
可梦	-12607
豪斯	-12608
许多人	-12609
马赫	-12610
650	-12611
函数的	-12612
副总理	-12613
的创作	-12614
的命令	-12615
▁尽管如此	-12616
军事委员会	-12617
行政中心为	-12618
所述	-12619
津贴	-12620
法则	-12621
▁依据	-12622
月由	-12623
王公	-12624
对外开放	-12625
马达加斯加	-12626
三天	-12627
以示	-12628
公理	-12629
嘉定	-12630
抢劫	-12631
bit	-12632
▁有时	-12633
牛津大学	-12634
旁的	-12635
晋国	-12636
rol	-12637
机场的	-12638
▁十	-12639
伟大	-12640
街区	-12641
他开始	-12642
日成立	-12643
辖下的	-12644
达成协议	-12645
满族	-12646
一个种	-12647
但他们	-12648
日进行	-12649
是非常	-12650
的运动	-12651
族自治州	-12652
入场	-12653
哥尔	-12654
尺度	-12655
愿望	-12656
弗雷德	-12657
篮球队	-12658
塔尼	-12659
安人	-12660
的遗	-12661
看守	-12662
年去世	-12663
irst	-12664
最古老的	-12665
▁设	-12666
刑法	-12667
服用	-12668
则表示	-12669
实现了	-12670
皇太子	-12671
优点	-12672
"、"	-12673
可能在	-12674
将军衔	-12675
第三个	-12676
手指	-12677
花了	-12678
▁天津	-12679
哈尔科夫	-12680
脊椎动物	-12681
▁fran	-12682
新疆维吾尔自治区	-12683
切换	-12684
奏曲	-12685
不停	-12686
张国	-12687
设的	-12688
杯冠军	-12689
地层	-12690
女皇	-12691
▁</	-12692
与英国	-12693
西湖	-12694
失败后	-12695
,1997	-12696
索瓦	-12697
137	-12698
也不会	-12699
自然科学	-12700
不便	-12701
优良	-12702
加来	-12703
奥德	-12704
威特	-12705
拥护	-12706
肖像	-12707
转动	-12708
鱼目	-12709
一年后	-12710
孤儿	-12711
伯克	-12712
器和	-12713
我是	-12714
媒体的	-12715
担任过	-12716
日平均	-12717
lu	-12718
友人	-12719
提示	-12720
两人的	-12721
盖尔	-12722
发性	-12723
ado	-12724
海军陆战队	-12725
抚养	-12726
二十二年	-12727
曾孙	-12728
活塞	-12729
童年	-12730
保禄	-12731
风波	-12732
ben	-12733
rag	-12734
▁以及	-12735
成员之一	-12736
新成立的	-12737
中超	-12738
无数	-12739
枪击	-12740
reet	-12741
▁湖	-12742
克服	-12743
山下	-12744
警察局	-12745
文斯	-12746
宇航员	-12747
台湾总督府	-12748
屋邨	-12749
气流	-12750
ior	-12751
当地居民	-12752
二八	-12753
哥本	-12754
特律	-12755
科普	-12756
暗中	-12757
贞观	-12758
▁最早	-12759
▁风暴	-12760
印度的	-12761
也于	-12762
左岸	-12763
幼稚	-12764
▁来自	-12765
的一支	-12766
买下	-12767
的状况	-12768
通过的	-12769
工程学院	-12770
促成	-12771
市立	-12772
▁26	-12773
督察	-12774
孟加拉国	-12775
▁park	-12776
▁主要分布于	-12777
揭发	-12778
饥荒	-12779
80%	-12780
和国际	-12781
三峡	-12782
墙壁	-12783
连胜	-12784
▁教区	-12785
开始进行	-12786
▁头	-12787
升班	-12788
的那	-12789
菲亚	-12790
mit	-12791
母亲是	-12792
可以追溯到	-12793
▁entertainment	-12794
六甲	-12795
厄瓜	-12796
启德	-12797
噪音	-12798
坠毁	-12799
也因为	-12800
躲避	-12801
东正教	-12802
ns	-12803
拿破崙	-12804
▁新加坡	-12805
书面	-12806
北非	-12807
泽民	-12808
舰长	-12809
路由	-12810
民建联	-12811
主委	-12812
和对	-12813
等地的	-12814
这部电影	-12815
五名	-12816
图斯	-12817
宫中	-12818
比分	-12819
塞克斯	-12820
美国陆军	-12821
,1990	-12822
亦即	-12823
优胜	-12824
取名	-12825
寺的	-12826
有利	-12827
消散	-12828
用法	-12829
结业	-12830
苏拉	-12831
▁当年	-12832
向东北	-12833
更容易	-12834
而导致	-12835
8000	-12836
意识形态	-12837
事件后	-12838
特色的	-12839
犹太教	-12840
教廷	-12841
表述	-12842
ama	-12843
的空间	-12844
▁1905	-12845
棉花	-12846
西至	-12847
边防	-12848
建筑群	-12849
▁chan	-12850
2/	-12851
其所	-12852
敌方	-12853
游玩	-12854
紫色	-12855
哥本哈根	-12856
▁绿	-12857
日对	-12858
龙山	-12859
有一名	-12860
的艺术	-12861
来台	-12862
釜山	-12863
学研究	-12864
玛利亚	-12865
的成功	-12866
功臣	-12867
大赏	-12868
立宪	-12869
趁机	-12870
有以下	-12871
座的一颗恒星	-12872
不顾	-12873
平反	-12874
线上的	-12875
明尼苏达	-12876
范围包括	-12877
erson	-12878
布里斯	-12879
的风格	-12880
足球赛	-12881
低温	-12882
在高	-12883
护航	-12884
章节	-12885
格丽特	-12886
两栖	-12887
邻近的	-12888
有不同的	-12889
八大	-12890
▁星	-12891
售价	-12892
学中	-12893
▁马来西亚	-12894
▁圆	-12895
一举	-12896
广岛	-12897
第三代	-12898
▁off	-12899
士官	-12900
弗莱	-12901
远远	-12902
ble	-12903
即位后	-12904
增加到	-12905
基准	-12906
是一些	-12907
的部队	-12908
一本	-12909
产权	-12910
森特	-12911
站为	-12912
同时在	-12913
的商业	-12914
研讨会	-12915
当中包括	-12916
国庆	-12917
没有被	-12918
听众	-12919
嘉兴	-12920
碳酸	-12921
说道	-12922
之歌	-12923
日前	-12924
特有	-12925
锅炉	-12926
144	-12927
▁1903	-12928
公孙	-12929
弱的	-12930
的大量	-12931
的风险	-12932
冠军联赛	-12933
奥斯卡最佳	-12934
水师	-12935
爱荷	-12936
▁100	-12937
nh	-12938
zo	-12939
别于	-12940
家园	-12941
抢救	-12942
营地	-12943
res	-12944
的想法	-12945
者之一	-12946
决战	-12947
▁今天	-12948
1896	-12949
二十六年	-12950
运动会的	-12951
守门	-12952
幸存	-12953
第十八	-12954
证明了	-12955
有限责任	-12956
是南极洲的海	-12957
之位	-12958
单词	-12959
才被	-12960
教士	-12961
涂装	-12962
降为	-12963
驻军	-12964
蒙古族	-12965
闽南语	-12966
不相	-12967
官僚	-12968
ci	-12969
始发	-12970
托克	-12971
海尔	-12972
737	-12973
▁40	-12974
有不同	-12975
制成的	-12976
大学校长	-12977
阿塞拜疆	-12978
sg	-12979
▁汪	-12980
捍卫	-12981
机体	-12982
的宗教	-12983
』。	-12984
是西	-12985
美人	-12986
锦赛	-12987
key	-12988
不稳定	-12989
的管理	-12990
费尔德	-12991
土库	-12992
春季	-12993
此种	-12994
汉文	-12995
颇为	-12996
首轮	-12997
上限	-12998
▁公元	-12999
李克	-13000
教育局	-13001
科学与	-13002
▁超	-13003
之弟	-13004
模组	-13005
里德	-13006
个月的	-13007
ey	-13008
一款	-13009
▁当中	-13010
阿仙奴	-13011
头发	-13012
名胜	-13013
优秀的	-13014
这个名字	-13015
到场	-13016
及第	-13017
货车	-13018
gy	-13019
全食	-13020
启蒙	-13021
登辉	-13022
圣诞节	-13023
签署了	-13024
写下	-13025
塑胶	-13026
妥协	-13027
报社	-13028
▁第二次	-13029
一队	-13030
氟化	-13031
波长	-13032
反应堆	-13033
第一家	-13034
▁international	-13035
喀什	-13036
必须要	-13037
超过了	-13038
▁陶	-13039
判定	-13040
汇入	-13041
同情	-13042
荷马	-13043
_13	-13044
两部分	-13045
作出了	-13046
特别的	-13047
詹姆士	-13048
修读	-13049
宣扬	-13050
常侍	-13051
史以来	-13052
首单曲	-13053
环境保护	-13054
巨型	-13055
是要	-13056
预先	-13057
主要用于	-13058
产于	-13059
加达	-13060
南南	-13061
所示	-13062
ery	-13063
三项	-13064
党魁	-13065
有其	-13066
机翼	-13067
宝可梦	-13068
布鲁斯	-13069
的一属	-13070
数以	-13071
与他的	-13072
大坂府	-13073
命题	-13074
法制	-13075
港台	-13076
王刘	-13077
1897	-13078
type	-13079
▁历	-13080
内侧	-13081
右手	-13082
白云	-13083
读音	-13084
制造业	-13085
动量	-13086
深远	-13087
路与	-13088
inst	-13089
增压	-13090
河上	-13091
▁永乐	-13092
只剩下	-13093
地马拉	-13094
_9	-13095
新庄	-13096
残留	-13097
流星	-13098
▁dr	-13099
恢复了	-13100
襄阳	-13101
年年底	-13102
有时会	-13103
的路线	-13104
教育学院	-13105
桥镇	-13106
生子	-13107
年出生于	-13108
▁games	-13109
atp	-13110
和香港	-13111
萨尔瓦	-13112
保密	-13113
数年	-13114
格莱	-13115
莎拉	-13116
ump	-13117
这张专辑	-13118
一大	-13119
北道	-13120
交响曲	-13121
留学生	-13122
不堪	-13123
投身	-13124
和尚	-13125
国人	-13126
瑟琳	-13127
追加	-13128
降水	-13129
去除	-13130
降至	-13131
工事	-13132
摩天	-13133
梅花	-13134
露出	-13135
pop	-13136
不包括	-13137
国内的	-13138
牙买	-13139
魅力	-13140
打破了	-13141
支持的	-13142
上班	-13143
年在位	-13144
被授予	-13145
一并	-13146
三段	-13147
成像	-13148
滤波	-13149
▁咸丰	-13150
现在效力于	-13151
剪辑	-13152
北朝	-13153
租赁	-13154
文化中心	-13155
人道	-13156
官吏	-13157
单行本	-13158
3、	-13159
棕色	-13160
百强	-13161
自动化	-13162
该组织	-13163
▁分	-13164
三分	-13165
勃艮	-13166
人民的	-13167
变体	-13168
后便	-13169
天鹅	-13170
实数	-13171
斯堡	-13172
老鼠	-13173
生存于	-13174
县的一个人口普查指定地区	-13175
濒危	-13176
错误的	-13177
音乐人	-13178
是中华民国	-13179
凯尔	-13180
相望	-13181
起的	-13182
事先	-13183
傍晚	-13184
兴奋	-13185
门票	-13186
曾参与	-13187
亚的	-13188
动荡	-13189
渔民	-13190
美式	-13191
规模的	-13192
▁历史上	-13193
剑桥大学	-13194
羽毛球运动员	-13195
劝说	-13196
打印	-13197
腹足	-13198
的最后	-13199
聚合物	-13200
鞑靼	-13201
很好的	-13202
的列车	-13203
ions	-13204
▁克里斯	-13205
发酵	-13206
右岸	-13207
师师长	-13208
应该是	-13209
ated	-13210
吞并	-13211
库斯	-13212
老汇	-13213
出身的	-13214
残馀	-13215
特曼	-13216
▁fe	-13217
include	-13218
不分	-13219
各州	-13220
机能	-13221
校内	-13222
波德	-13223
▁[[	-13224
对他的	-13225
捷克斯洛伐克	-13226
军营	-13227
劳斯	-13228
带的	-13229
方济	-13230
科举	-13231
缓冲	-13232
魔鬼	-13233
cpu	-13234
kar	-13235
第十四	-13236
假说	-13237
因在	-13238
165	-13239
集团公司	-13240
▁award	-13241
的本	-13242
中国古代	-13243
仅存	-13244
偏东	-13245
器材	-13246
派员	-13247
猜测	-13248
视角	-13249
车票	-13250
ret	-13251
当地人	-13252
文尼亚	-13253
和一些	-13254
1899	-13255
科的其中一个种	-13256
汉书	-13257
边区	-13258
摩托车	-13259
的产品	-13260
的原则	-13261
双人	-13262
就以	-13263
线在	-13264
▁net	-13265
中型	-13266
修理	-13267
大脑	-13268
认定为	-13269
奉行	-13270
宝贝	-13271
条文	-13272
街的	-13273
院的	-13274
麻省	-13275
二十厅	-13276
较短	-13277
▁该剧	-13278
机务段	-13279
淘汰赛	-13280
的一半	-13281
附加赛	-13282
1880	-13283
塞特	-13284
日为	-13285
转让	-13286
cap	-13287
▁同治	-13288
中位数为	-13289
已经成为	-13290
ru	-13291
加大	-13292
继母	-13293
表面的	-13294
▁异	-13295
▁菲	-13296
下达	-13297
卡片	-13298
安纳	-13299
对决	-13300
开支	-13301
迎战	-13302
年代起	-13303
的同名	-13304
的限制	-13305
组成了	-13306
▁〈	-13307
十字架	-13308
并通过	-13309
皮埃尔	-13310
绝大部分	-13311
修女	-13312
嵌入	-13313
现址	-13314
所罗门	-13315
平均气温	-13316
▁左	-13317
中西	-13318
残酷	-13319
日在美国	-13320
制裁	-13321
山水	-13322
时事	-13323
位处	-13324
vin	-13325
▁80	-13326
的教育	-13327
与西	-13328
取胜	-13329
了大量	-13330
反映了	-13331
开始时	-13332
西部的	-13333
接力	-13334
用水	-13335
露天	-13336
回国后	-13337
用语	-13338
耶鲁	-13339
配有	-13340
在一些	-13341
并于同年	-13342
一期	-13343
常住	-13344
两年后	-13345
波利斯	-13346
控股有限公司	-13347
叔父	-13348
丹尼士	-13349
但它	-13350
迹象	-13351
但最后	-13352
的小说	-13353
中区	-13354
中外	-13355
公厘	-13356
司司长	-13357
名学生	-13358
挑战赛	-13359
克洛	-13360
放入	-13361
有名	-13362
▁银	-13363
两场	-13364
公使	-13365
手动	-13366
效益	-13367
海啸	-13368
马恩	-13369
tom	-13370
有轨电车	-13371
杆菌	-13372
辛格	-13373
pat	-13374
活动中	-13375
是乌克兰的城镇	-13376
城乡	-13377
有点	-13378
王氏	-13379
ange	-13380
上市公司	-13381
反叛	-13382
罗尔	-13383
基米尔	-13384
奥尔良	-13385
联合国教科文组织	-13386
出击	-13387
在台	-13388
归于	-13389
投靠	-13390
与陈	-13391
和圣	-13392
塔的	-13393
名司铎	-13394
年创立	-13395
java	-13396
精度	-13397
该处	-13398
med	-13399
会造成	-13400
仙女	-13401
列举	-13402
失效	-13403
巴林	-13404
和经济	-13405
星期六	-13406
残疾人	-13407
免于	-13408
厨房	-13409
精通	-13410
生活中	-13411
之作	-13412
估算	-13413
平时	-13414
测定	-13415
研究人员	-13416
喷发	-13417
驳回	-13418
牵引电动机	-13419
仆射	-13420
叶子	-13421
管治	-13422
歌剧院	-13423
工业大学	-13424
尔斯克	-13425
1860	-13426
▁pol	-13427
字样	-13428
马可	-13429
区域的	-13430
辛普森	-13431
新几内亚	-13432
到访	-13433
自传	-13434
▁||	-13435
、、、	-13436
劳动党	-13437
这个词	-13438
少于	-13439
年出任	-13440
卡洛	-13441
半自动	-13442
是欧洲	-13443
兴盛	-13444
▁pa	-13445
教育的	-13446
▁薛	-13447
哈密	-13448
两艘	-13449
则称	-13450
实录	-13451
的湖泊	-13452
▁甲	-13453
州际	-13454
瓦兹	-13455
访谈	-13456
陀罗	-13457
twitter	-13458
保有	-13459
唐纳	-13460
年级	-13461
普斯	-13462
着陆	-13463
进度	-13464
185	-13465
星团	-13466
环流	-13467
交通局	-13468
而没有	-13469
fm	-13470
出国	-13471
时光	-13472
133	-13473
志愿军	-13474
斯巴达	-13475
game	-13476
光碟	-13477
划为	-13478
山庄	-13479
才有	-13480
心脏病	-13481
的日子	-13482
研究会	-13483
下水	-13484
贯通	-13485
富兰克林	-13486
电影公司	-13487
不好	-13488
关西	-13489
帝王	-13490
提早	-13491
股价	-13492
工程院	-13493
源自于	-13494
上奏	-13495
与阿	-13496
伦特	-13497
变迁	-13498
石碑	-13499
通常在	-13500
巡视	-13501
该年	-13502
轮胎	-13503
麻烦	-13504
之王	-13505
开会	-13506
续作	-13507
鲁迅	-13508
降水量	-13509
▁回	-13510
主线	-13511
值为	-13512
单人	-13513
太太	-13514
宾馆	-13515
德温	-13516
米特	-13517
为纪念	-13518
ball	-13519
▁其下辖	-13520
ville	-13521
▁几	-13522
以内	-13523
却没有	-13524
raph	-13525
湖南卫视	-13526
sr	-13527
搜查	-13528
游说	-13529
购物中心	-13530
落选	-13531
158	-13532
回忆录	-13533
ates	-13534
不肯	-13535
河镇	-13536
丽鱼	-13537
渡轮	-13538
燃油	-13539
iew	-13540
undam	-13541
制订	-13542
外表	-13543
奇异	-13544
日向	-13545
横向	-13546
观的	-13547
调用	-13548
里士	-13549
bas	-13550
▁没有	-13551
俄亥俄州	-13552
下有	-13553
车祸	-13554
巴洛克	-13555
开始对	-13556
能力的	-13557
座的一个	-13558
,2019	-13559
三座	-13560
东尼	-13561
停战	-13562
凯撒	-13563
天台	-13564
效忠	-13565
游戏机	-13566
地铁站	-13567
底特律	-13568
的子	-13569
年赛季	-13570
由日本	-13571
长度为	-13572
▁路	-13573
天国	-13574
是无	-13575
小时候	-13576
巴比伦	-13577
东山	-13578
乌兰	-13579
作法	-13580
票数	-13581
链接	-13582
的方向	-13583
ella	-13584
个村	-13585
叛变	-13586
听从	-13587
婚后	-13588
战功	-13589
流失	-13590
瓦夫	-13591
祭司	-13592
138	-13593
沃尔夫	-13594
诺维奇	-13595
便在	-13596
基部	-13597
文库	-13598
马特	-13599
公认	-13600
大专	-13601
宪章	-13602
神奇	-13603
urs	-13604
尽可能	-13605
人格	-13606
托斯	-13607
触发	-13608
▁且	-13609
鲈亚目	-13610
佛像	-13611
化和	-13612
大国	-13613
少林	-13614
山本	-13615
收看	-13616
方位	-13617
木儿	-13618
未婚	-13619
给定	-13620
缩减	-13621
阿德	-13622
由其	-13623
154	-13624
▁彼得	-13625
是使用	-13626
元的	-13627
刘邦	-13628
召回	-13629
担忧	-13630
滥用	-13631
urt	-13632
一律	-13633
扭曲	-13634
权限	-13635
甚么	-13636
营销	-13637
馆长	-13638
▁du	-13639
不足以	-13640
ross	-13641
两边	-13642
_10	-13643
nat	-13644
哥尔摩	-13645
并认为	-13646
发光	-13647
波的	-13648
相差	-13649
tra	-13650
逝世后	-13651
bill	-13652
军民	-13653
榜首	-13654
浪费	-13655
现身	-13656
系教授	-13657
1889	-13658
ific	-13659
与王	-13660
日及	-13661
百馀	-13662
▁及后	-13663
库尔德	-13664
年区议会选举	-13665
▁义	-13666
尼察	-13667
港的	-13668
烟草	-13669
通风	-13670
▁中国人民解放军	-13671
▁雪	-13672
巴顿	-13673
mad	-13674
▁li	-13675
奠定了	-13676
▁迈	-13677
侵入	-13678
中担任	-13679
将成为	-13680
持续到	-13681
▁川	-13682
商船	-13683
韦伯	-13684
位置是	-13685
▁htt	-13686
不像	-13687
停泊	-13688
塔利	-13689
存放	-13690
干达	-13691
胜负	-13692
的颜色	-13693
网站上	-13694
丰田	-13695
原定	-13696
申报	-13697
▁双方	-13698
的一级	-13699
讲述了	-13700
unes	-13701
三菱	-13702
语族	-13703
近海	-13704
▁警方	-13705
公布的	-13706
微生物	-13707
法轮功	-13708
7000	-13709
因为他们	-13710
nt	-13711
和李	-13712
小队	-13713
米拉	-13714
史上最	-13715
张录音室专辑	-13716
东吴	-13717
先知	-13718
蕨科	-13719
英文名	-13720
▁该市镇总面积平方公里	-13721
▁顾	-13722
布列	-13723
会所	-13724
承袭	-13725
昆士	-13726
的保护	-13727
阿卜杜	-13728
摩泽尔	-13729
神学院	-13730
其他国家	-13731
形成一个	-13732
人及	-13733
门户	-13734
陵墓	-13735
黑白	-13736
在韩国	-13737
百老汇	-13738
▁朗	-13739
卢瓦	-13740
所杀	-13741
214	-13742
▁司马	-13743
和法国	-13744
ator	-13745
拉拉	-13746
材质	-13747
柔道	-13748
温州	-13749
游记	-13750
tor	-13751
▁事件	-13752
在伦敦	-13753
奖得主	-13754
的思想	-13755
为正	-13756
南阳	-13757
叔叔	-13758
白天	-13759
纪委	-13760
酿酒	-13761
▁野	-13762
叙事	-13763
宪兵	-13764
获选	-13765
20%	-13766
225	-13767
一连串	-13768
公布为	-13769
分组赛	-13770
市场上	-13771
▁mat	-13772
▁°	-13773
低音	-13774
的岛屿	-13775
的象征	-13776
西日本	-13777
按钮	-13778
可以用来	-13779
那不勒斯	-13780
地说	-13781
挂牌	-13782
里夫	-13783
新技术	-13784
屡次	-13785
手册	-13786
的地理	-13787
可以得到	-13788
社会科学院	-13789
为辐鳍鱼纲鲈形目隆头	-13790
农田	-13791
受命	-13792
病例	-13793
究竟	-13794
▁有关	-13795
卫星坑	-13796
千代	-13797
年曾	-13798
拥立	-13799
定名为	-13800
该道路	-13801
起来的	-13802
中国铁路	-13803
曼彻斯特	-13804
美联	-13805
舒适	-13806
议案	-13807
跳舞	-13808
人民军	-13809
三分之一	-13810
但实际上	-13811
永安	-13812
现行	-13813
▁九龙	-13814
需要在	-13815
战国时代	-13816
兼职	-13817
奥兰	-13818
奥匈	-13819
洲际	-13820
▁至此	-13821
奥委会	-13822
观测到	-13823
▁相较于	-13824
莫斯	-13825
功能的	-13826
的面积为	-13827
">	-13828
介质	-13829
抓住	-13830
植被	-13831
煽动	-13832
部将	-13833
颁奖礼	-13834
html	-13835
伊利诺伊	-13836
社会主义共和国	-13837
下滑	-13838
无所	-13839
可以让	-13840
刚好	-13841
开出	-13842
承办	-13843
▁john	-13844
华视	-13845
枪托	-13846
而他	-13847
部族	-13848
的一款	-13849
istr	-13850
under	-13851
指派	-13852
联同	-13853
行军	-13854
max	-13855
作品有	-13856
性质的	-13857
化身	-13858
同行	-13859
素的	-13860
轮流	-13861
达尼	-13862
▁inc	-13863
▁亚历山大	-13864
卖给	-13865
太常	-13866
引致	-13867
顶尖	-13868
177	-13869
ros	-13870
文化和	-13871
自身的	-13872
,1996	-13873
三省	-13874
准许	-13875
开普	-13876
日出	-13877
流感	-13878
纵贯	-13879
勃艮第	-13880
设计了	-13881
所产生的	-13882
▁连	-13883
值的	-13884
厌恶	-13885
提拔	-13886
有名的	-13887
埃斯	-13888
施政	-13889
校址	-13890
▁代表	-13891
新闻台	-13892
曾进入	-13893
1400	-13894
为辐鳍鱼纲鲈形目隆头鱼亚目	-13895
匹配	-13896
声援	-13897
标语	-13898
产品的	-13899
州议会	-13900
入伍	-13901
多有	-13902
巴巴	-13903
揭幕	-13904
硬体	-13905
市辖区	-13906
天主教徒	-13907
科学研究	-13908
三日	-13909
倒数	-13910
所说	-13911
主义和	-13912
大会上	-13913
▁火	-13914
负于	-13915
亚运会	-13916
的原始	-13917
属的鱼类	-13918
伯明	-13919
但她	-13920
近亲	-13921
遣使	-13922
有限责任公司	-13923
三间	-13924
四季	-13925
年均	-13926
波动	-13927
贝利	-13928
创办了	-13929
县境内	-13930
西西里	-13931
提供服务	-13932
千里	-13933
商议	-13934
将由	-13935
基因组	-13936
设置了	-13937
土星	-13938
帝汶	-13939
152	-13940
总教练	-13941
duction	-13942
ju	-13943
增多	-13944
声誉	-13945
渴望	-13946
罹患	-13947
自幼	-13948
、12	-13949
不规则	-13950
只有在	-13951
女性的	-13952
布鲁塞尔	-13953
ee	-13954
千户	-13955
琉璃	-13956
级数	-13957
英冠	-13958
金字	-13959
高桥	-13960
常栖息在	-13961
▁出	-13962
三司	-13963
制药	-13964
勇气	-13965
尾鳍	-13966
拉里	-13967
死的	-13968
凯尔特	-13969
一女	-13970
休閒	-13971
内心	-13972
今日的	-13973
细胞的	-13974
其他地区	-13975
下行	-13976
不出	-13977
散骑	-13978
激战	-13979
老年	-13980
遗憾	-13981
▁全国	-13982
翻译成	-13983
空军基地	-13984
复原	-13985
杂交	-13986
预选	-13987
首场	-13988
市委书记	-13989
被命名为	-13990
3:	-13991
博客	-13992
开关	-13993
斐济	-13994
沦陷	-13995
雅克	-13996
robert	-13997
不适	-13998
主的	-13999
侧面	-14000
天花	-14001
往后	-14002
衙门	-14003
cat	-14004
lor	-14005
上疏	-14006
东德	-14007
市和	-14008
时曾	-14009
海豚	-14010
矮星	-14011
重心	-14012
胜利后	-14013
运动中	-14014
▁临	-14015
应急	-14016
惨重	-14017
期为	-14018
灰蝶	-14019
ear	-14020
军节度使	-14021
商业银行	-14022
▁列	-14023
伯尔	-14024
文人	-14025
球的	-14026
约合	-14027
雇佣	-14028
二十五	-14029
执导的	-14030
次会议	-14031
万里	-14032
人质	-14033
热情	-14034
同盟会	-14035
跨国	-14036
15,	-14037
红色的	-14038
▁当时的	-14039
亚特兰大	-14040
勒姆	-14041
安南	-14042
ada	-14043
▁大卫	-14044
现代的	-14045
▁本列表	-14046
喷泉	-14047
米尼	-14048
解剖	-14049
gam	-14050
大碟	-14051
怎样	-14052
救济	-14053
二十八	-14054
一下	-14055
征讨	-14056
性地	-14057
牛奶	-14058
▁明治	-14059
反对党	-14060
平台上	-14061
夸克	-14062
搞笑	-14063
340	-14064
与香港	-14065
很可能	-14066
有时候	-14067
足协杯	-14068
ensis	-14069
周六	-14070
额为	-14071
资格赛	-14072
青年团	-14073
宫内	-14074
开口	-14075
血压	-14076
以避免	-14077
吉尔吉斯	-14078
片头	-14079
主演的	-14080
签订了	-14081
探险家	-14082
信讬	-14083
哈迈	-14084
混音	-14085
在同一	-14086
常见于	-14087
▁lin	-14088
是位于日本	-14089
战乱	-14090
社的	-14091
一带的	-14092
一年的	-14093
骨头	-14094
hen	-14095
的信息	-14096
年出版的	-14097
空中照片绘入地图	-14098
克特	-14099
厚度	-14100
大成	-14101
本国	-14102
其名称	-14103
的元素	-14104
运动场	-14105
love	-14106
大学学习	-14107
▁镇	-14108
伪造	-14109
帕特	-14110
格利	-14111
于是在	-14112
军政府	-14113
超新星	-14114
出面	-14115
偏向	-14116
分治	-14117
闯入	-14118
大致以	-14119
差不多	-14120
视作	-14121
高斯	-14122
▁她是	-14123
、11	-14124
东部的	-14125
姑娘	-14126
水区	-14127
爬行	-14128
资产阶级	-14129
停播	-14130
个行政村	-14131
马萨诸塞	-14132
平章	-14133
广阔	-14134
手的	-14135
英皇	-14136
迁都	-14137
为前	-14138
信中	-14139
切割	-14140
对峙	-14141
少卿	-14142
极力	-14143
流的	-14144
芭蕾	-14145
销售量	-14146
omas	-14147
最高点海拔高度	-14148
手上	-14149
斩首	-14150
枪机	-14151
送至	-14152
第三届	-14153
▁该组织	-14154
县的一个市镇	-14155
宪政	-14156
武侠	-14157
认真	-14158
16,	-14159
祖师	-14160
136	-14161
将它	-14162
所致	-14163
胞胎	-14164
路士	-14165
▁中国大陆	-14166
中全	-14167
希德	-14168
稻田	-14169
301	-14170
短缺	-14171
再一次	-14172
建造了	-14173
很高的	-14174
1300	-14175
加来海峡	-14176
进一步的	-14177
▁1910	-14178
内核	-14179
南山	-14180
阳明	-14181
沙群岛	-14182
野生动物	-14183
为妻	-14184
乙酸	-14185
傀儡	-14186
热烈	-14187
今河南省	-14188
历史悠久	-14189
省的一个	-14190
与张	-14191
小田	-14192
晋身	-14193
种的	-14194
荣耀	-14195
▁22	-14196
了一项	-14197
台湾人	-14198
号线的	-14199
谋反	-14200
处以	-14201
投奔	-14202
掠夺	-14203
神宗	-14204
随意	-14205
ney	-14206
war	-14207
的人数	-14208
▁文化大革命	-14209
后半	-14210
巨蛋	-14211
顶端	-14212
▁曾经	-14213
得名于	-14214
九个	-14215
力士	-14216
取了	-14217
商讨	-14218
满分	-14219
王家	-14220
148	-14221
168	-14222
大都会	-14223
正式宣布	-14224
ritic	-14225
州所辖的一个村	-14226
罗汉	-14227
通商	-14228
马的	-14229
每年的	-14230
诸葛亮	-14231
三郎	-14232
八一	-14233
司空	-14234
是前	-14235
独家	-14236
mot	-14237
▁50	-14238
包括在	-14239
两台	-14240
招标	-14241
玉环	-14242
营利	-14243
上学	-14244
兵库	-14245
卡纳	-14246
禁令	-14247
球队在	-14248
符腾堡	-14249
一球	-14250
家督	-14251
半决赛	-14252
喀麦隆	-14253
终于在	-14254
外交部长	-14255
一篇	-14256
个乡	-14257
阴道	-14258
dan	-14259
是他的	-14260
的小型	-14261
1,500	-14262
很小	-14263
熊猫	-14264
鉴于	-14265
延伸到	-14266
缘关系	-14267
fox	-14268
牙买加	-14269
欧亚	-14270
街庄	-14271
年改为	-14272
杀死了	-14273
1870	-14274
接见	-14275
守门员	-14276
mont	-14277
michael	-14278
上课	-14279
不必	-14280
凯特	-14281
士气	-14282
稀少	-14283
高兴	-14284
大韩民国	-14285
和多	-14286
宣战	-14287
邦联	-14288
司令官	-14289
▁cent	-14290
占有	-14291
后任	-14292
康复	-14293
春节	-14294
月亮	-14295
高棉	-14296
所以在	-14297
的质量	-14298
个人专辑	-14299
和海	-14300
回去	-14301
开拍	-14302
民居	-14303
大型的	-14304
时设置的	-14305
百科全书	-14306
▁tour	-14307
他就	-14308
城隍	-14309
德萨	-14310
自卫	-14311
龙门	-14312
八达通	-14313
ection	-14314
东非	-14315
二个	-14316
分拆	-14317
营救	-14318
包括有	-14319
第二任	-14320
▁然而在	-14321
凤山	-14322
凯莉	-14323
尊敬	-14324
河中	-14325
特权	-14326
▁二战	-14327
制定的	-14328
指挥使	-14329
▁但是在	-14330
▁第一次	-14331
年有教友	-14332
世子	-14333
卡塔	-14334
建立于	-14335
新竹县	-14336
第一期	-14337
▁早	-14338
慢性	-14339
ety	-14340
公信	-14341
大怒	-14342
赛后	-14343
阿基	-14344
▁保罗	-14345
最主要的	-14346
▁high	-14347
行经	-14348
跳水	-14349
面具	-14350
156	-14351
各样的	-14352
定义的	-14353
一件	-14354
信件	-14355
底下	-14356
静冈	-14357
州区	-14358
样子	-14359
近期	-14360
文化部	-14361
ular	-14362
中都	-14363
乔木	-14364
派驻	-14365
▁该公司	-14366
▁官	-14367
他从	-14368
忽视	-14369
童话	-14370
致敬	-14371
嘉义县	-14372
是越南	-14373
▁har	-14374
▁女	-14375
交配	-14376
国大	-14377
指称	-14378
深的	-14379
金币	-14380
205	-14381
分钟内	-14382
▁还	-14383
乙烯	-14384
勇者	-14385
布林	-14386
论证	-14387
ano	-14388
收录在	-14389
铁路线	-14390
县的城市	-14391
启示	-14392
在职	-14393
德在	-14394
旅长	-14395
餐馆	-14396
漫画作品	-14397
目睹	-14398
索伦	-14399
塞纳	-14400
妖怪	-14401
荔枝	-14402
东西向	-14403
也无法	-14404
以至于	-14405
耶稣会	-14406
paul	-14407
▁公元前	-14408
出血	-14409
基的	-14410
融资	-14411
mel	-14412
称其为	-14413
重大的	-14414
排水	-14415
相接	-14416
糖尿	-14417
跳跃	-14418
大约为	-14419
年英国	-14420
的长子	-14421
实的	-14422
德比	-14423
汉中	-14424
等职务	-14425
造船厂	-14426
尼日利亚	-14427
借助	-14428
大中	-14429
普选	-14430
达拉	-14431
www	-14432
表示为	-14433
北爱尔兰	-14434
▁傅	-14435
▁区	-14436
▁赖	-14437
一向	-14438
交所	-14439
抑郁	-14440
钢筋	-14441
only	-14442
人民日报	-14443
塔特	-14444
太尉	-14445
治所	-14446
热爱	-14447
周围的	-14448
宜兰县	-14449
个居民点	-14450
击溃	-14451
加剧	-14452
机密	-14453
狭义	-14454
影响到	-14455
显微	-14456
榜上	-14457
知州	-14458
制作了	-14459
巴拉圭	-14460
核武器	-14461
的能量	-14462
世纪中叶	-14463
动画电影	-14464
交替	-14465
殴打	-14466
站前	-14467
可通过	-14468
天水围	-14469
提高了	-14470
几乎没有	-14471
第十二届全国人民代表大会	-14472
精彩	-14473
配偶	-14474
被用来	-14475
▁sec	-14476
斯洛文尼亚	-14477
主修	-14478
南岸	-14479
叶片	-14480
落的	-14481
特有的	-14482
inal	-14483
占总人口	-14484
产地	-14485
周五	-14486
法例	-14487
病情	-14488
制作公司	-14489
!!	-14490
捷尔	-14491
区所属	-14492
part	-14493
化学式为	-14494
irect	-14495
的国际赛事	-14496
cu	-14497
db	-14498
最强	-14499
说他	-14500
第十六	-14501
图曼	-14502
油画	-14503
渠道	-14504
外国语	-14505
市议会	-14506
▁程	-14507
举重	-14508
削减	-14509
教员	-14510
而行	-14511
败于	-14512
年落成	-14513
至今仍	-14514
还有一个	-14515
▁已	-14516
署长	-14517
转往	-14518
▁某些	-14519
意义的	-14520
诺克	-14521
der	-14522
他的父亲	-14523
一国	-14524
平日	-14525
并发	-14526
年台湾	-14527
扳机	-14528
显示器	-14529
蒋经国	-14530
上尉	-14531
收容	-14532
试剂	-14533
如下表	-14534
▁city	-14535
家用	-14536
库克	-14537
政坛	-14538
月面	-14539
特许	-14540
考生	-14541
逃出	-14542
新娘	-14543
茶叶	-14544
黎世	-14545
以后的	-14546
全国代表大会	-14547
乘降	-14548
小项	-14549
也让	-14550
坚守	-14551
旧称	-14552
鱼的	-14553
▁boy	-14554
▁其下辖有	-14555
廉价	-14556
引爆	-14557
百分	-14558
14,	-14559
isa	-14560
▁」。	-14561
郡太守	-14562
live	-14563
格拉斯哥	-14564
世祖	-14565
激活	-14566
数量的	-14567
围墙	-14568
梅斯	-14569
睡眠	-14570
▁罗马	-14571
,1994	-14572
▁time	-14573
南县	-14574
反驳	-14575
处置	-14576
开火	-14577
施加	-14578
邮报	-14579
期间的	-14580
原文	-14581
同胞	-14582
士林	-14583
提亚	-14584
不符合	-14585
竞技场	-14586
▁飞	-14587
无机	-14588
环礁	-14589
先进的	-14590
自由的	-14591
资料库	-14592
采用的	-14593
在被	-14594
1894	-14595
,1995	-14596
▁向	-14597
二段	-14598
债券	-14599
异构	-14600
突围	-14601
发射器	-14602
晤士	-14603
put	-14604
语言学	-14605
电视频道	-14606
库容	-14607
讚赏	-14608
都由	-14609
改称为	-14610
的作者	-14611
中华人民共和国政府	-14612
绿化	-14613
ura	-14614
国防军	-14615
达科他州	-14616
自立	-14617
佛罗伦	-14618
二十五年	-14619
james	-14620
了很多	-14621
什维克	-14622
安哥拉	-14623
开头	-14624
特快	-14625
说出	-14626
屏东县	-14627
的中央	-14628
的关键	-14629
▁只列出	-14630
国防部长	-14631
但有	-14632
支柱	-14633
聘为	-14634
莉莎	-14635
代牧区	-14636
哥伦比亚大学	-14637
修士	-14638
纬度	-14639
舍人	-14640
辉煌	-14641
客运专线	-14642
优质	-14643
罗姆	-14644
,	-14645
▁	-14646
的	-14647
。	-14648
1	-14649
0	-14650
年	-14651
2	-14652
、	-14653
在	-14654
一	-14655
为	-14656
9	-14657
中	-14658
是	-14659
国	-14660
人	-14661
a	-14662
于	-14663
e	-14664
大	-14665
有	-14666
3	-14667
和	-14668
5	-14669
i	-14670
8	-14671
o	-14672
以	-14673
r	-14674
4	-14675
月	-14676
n	-14677
日	-14678
6	-14679
后	-14680
7	-14681
了	-14682
学	-14683
t	-14684
s	-14685
时	-14686
个	-14687
会	-14688
地	-14689
成	-14690
上	-14691
公	-14692
不	-14693
l	-14694
出	-14695
行	-14696
他	-14697
部	-14698
斯	-14699
与	-14700
区	-14701
之	-14702
c	-14703
名	-14704
发	-14705
其	-14706
主	-14707
作	-14708
生	-14709
尔	-14710
分	-14711
方	-14712
m	-14713
到	-14714
用	-14715
下	-14716
西	-14717
:	-14718
第	-14719
》	-14720
《	-14721
而	-14722
家	-14723
位	-14724
及	-14725
军	-14726
由	-14727
d	-14728
h	-14729
里	-14730
并	-14731
民	-14732
被	-14733
法	-14734
本	-14735
南	-14736
市	-14737
·	-14738
长	-14739
这	-14740
来	-14741
同	-14742
u	-14743
多	-14744
可	-14745
政	-14746
对	-14747
子	-14748
自	-14749
动	-14750
任	-14751
开	-14752
特	-14753
文	-14754
北	-14755
高	-14756
「	-14757
」	-14758
加	-14759
德	-14760
员	-14761
新	-14762
东	-14763
最	-14764
海	-14765
台	-14766
克	-14767
亚	-14768
前	-14769
也	-14770
利	-14771
平	-14772
代	-14773
等	-14774
所	-14775
p	-14776
面	-14777
三	-14778
度	-14779
电	-14780
因	-14781
美	-14782
建	-14783
经	-14784
此	-14785
得	-14786
道	-14787
现	-14788
进	-14789
物	-14790
“	-14791
过	-14792
要	-14793
机	-14794
间	-14795
内	-14796
b	-14797
g	-14798
事	-14799
至	-14800
教	-14801
山	-14802
立	-14803
路	-14804
当	-14805
车	-14806
拉	-14807
小	-14808
入	-14809
口	-14810
将	-14811
战	-14812
体	-14813
能	-14814
世	-14815
二	-14816
理	-14817
工	-14818
该	-14819
州	-14820
合	-14821
表	-14822
外	-14823
定	-14824
马	-14825
期	-14826
天	-14827
赛	-14828
制	-14829
业	-14830
但	-14831
化	-14832
球	-14833
十	-14834
科	-14835
次	-14836
种	-14837
使	-14838
全	-14839
;	-14840
布	-14841
场	-14842
通	-14843
称	-14844
性	-14845
队	-14846
者	-14847
f	-14848
共	-14849
线	-14850
总	-14851
设	-14852
县	-14853
式	-14854
数	-14855
重	-14856
系	-14857
都	-14858
罗	-14859
两	-14860
安	-14861
力	-14862
士	-14863
联	-14864
"	-14865
站	-14866
院	-14867
比	-14868
基	-14869
原	-14870
相	-14871
城	-14872
王	-14873
达	-14874
运	-14875
明	-14876
省	-14877
米	-14878
属	-14879
目	-14880
司	-14881
英	-14882
水	-14883
正	-14884
治	-14885
金	-14886
尼	-14887
华	-14888
格	-14889
号	-14890
统	-14891
府	-14892
k	-14893
关	-14894
组	-14895
兰	-14896
约	-14897
选	-14898
们	-14899
镇	-14900
四	-14901
或	-14902
列	-14903
如	-14904
计	-14905
元	-14906
港	-14907
起	-14908
y	-14909
巴	-14910
影	-14911
从	-14912
语	-14913
产	-14914
首	-14915
女	-14916
提	-14917
常	-14918
星	-14919
阿	-14920
改	-14921
演	-14922
林	-14923
v	-14924
议	-14925
量	-14926
心	-14927
向	-14928
然	-14929
乐	-14930
接	-14931
就	-14932
始	-14933
务	-14934
实	-14935
无	-14936
书	-14937
w	-14938
界	-14939
参	-14940
级	-14941
意	-14942
则	-14943
义	-14944
曾	-14945
委	-14946
广	-14947
管	-14948
手	-14949
受	-14950
单	-14951
程	-14952
指	-14953
说	-14954
卡	-14955
交	-14956
视	-14957
河	-14958
保	-14959
色	-14960
团	-14961
包	-14962
形	-14963
门	-14964
维	-14965
结	-14966
音	-14967
湾	-14968
已	-14969
型	-14970
着	-14971
处	-14972
香	-14973
流	-14974
党	-14975
传	-14976
直	-14977
些	-14978
获	-14979
类	-14980
集	-14981
史	-14982
太	-14983
万	-14984
认	-14985
点	-14986
应	-14987
导	-14988
夫	-14989
变	-14990
校	-14991
五	-14992
品	-14993
身	-14994
字	-14995
空	-14996
领	-14997
示	-14998
回	-14999
社	-15000
更	-15001
岛	-15002
积	-15003
铁	-15004
展	-15005
朝	-15006
江	-15007
还	-15008
古	-15009
持	-15010
师	-15011
张	-15012
图	-15013
各	-15014
奥	-15015
官	-15016
反	-15017
带	-15018
洲	-15019
专	-15020
别	-15021
举	-15022
据	-15023
只	-15024
命	-15025
纪	-15026
游	-15027
资	-15028
风	-15029
取	-15030
京	-15031
活	-15032
报	-15033
造	-15034
普	-15035
击	-15036
标	-15037
光	-15038
信	-15039
支	-15040
局	-15041
术	-15042
少	-15043
历	-15044
族	-15045
曲	-15046
没	-15047
近	-15048
非	-15049
纳	-15050
石	-15051
节	-15052
神	-15053
解	-15054
剧	-15055
清	-15056
情	-15057
际	-15058
转	-15059
研	-15060
每	-15061
论	-15062
苏	-15063
它	-15064
又	-15065
记	-15066
权	-15067
件	-15068
波	-15069
条	-15070
决	-15071
龙	-15072
村	-15073
即	-15074
放	-15075
片	-15076
角	-15077
她	-15078
气	-15079
伊	-15080
商	-15081
版	-15082
头	-15083
/	-15084
连	-15085
武	-15086
密	-15087
乡	-15088
辖	-15089
括	-15090
未	-15091
知	-15092
职	-15093
收	-15094
周	-15095
座	-15096
复	-15097
先	-15098
李	-15099
往	-15100
去	-15101
根	-15102
器	-15103
创	-15104
离	-15105
白	-15106
强	-15107
歌	-15108
福	-15109
果	-15110
再	-15111
办	-15112
初	-15113
究	-15114
陆	-15115
六	-15116
且	-15117
足	-15118
派	-15119
打	-15120
调	-15121
画	-15122
引	-15123
兵	-15124
圣	-15125
完	-15126
今	-15127
亦	-15128
居	-15129
汉	-15130
域	-15131
观	-15132
帝	-15133
许	-15134
季	-15135
装	-15136
播	-15137
阳	-15138
威	-15139
网	-15140
塔	-15141
亲	-15142
z	-15143
除	-15144
题	-15145
编	-15146
宗	-15147
争	-15148
随	-15149
质	-15150
续	-15151
段	-15152
奖	-15153
服	-15154
令	-15155
育	-15156
给	-15157
构	-15158
协	-15159
较	-15160
花	-15161
言	-15162
x	-15163
爱	-15164
很	-15165
园	-15166
八	-15167
查	-15168
土	-15169
担	-15170
速	-15171
见	-15172
戏	-15173
修	-15174
问	-15175
萨	-15176
功	-15177
置	-15178
宣	-15179
规	-15180
营	-15181
另	-15182
黄	-15183
希	-15184
死	-15185
推	-15186
客	-15187
存	-15188
终	-15189
项	-15190
好	-15191
欧	-15192
超	-15193
率	-15194
%	-15195
划	-15196
投	-15197
馆	-15198
录	-15199
雷	-15200
我	-15201
哈	-15202
洛	-15203
供	-15204
护	-15205
样	-15206
吉	-15207
具	-15208
源	-15209
卫	-15210
博	-15211
准	-15212
求	-15213
班	-15214
瓦	-15215
父	-15216
九	-15217
案	-15218
青	-15219
街	-15220
男	-15221
伦	-15222
印	-15223
环	-15224
母	-15225
边	-15226
例	-15227
兴	-15228
济	-15229
负	-15230
伯	-15231
田	-15232
己	-15233
勒	-15234
j	-15235
责	-15236
湖	-15237
陈	-15238
故	-15239
众	-15240
助	-15241
均	-15242
儿	-15243
火	-15244
致	-15245
备	-15246
攻	-15247
那	-15248
鱼	-15249
沙	-15250
航	-15251
落	-15252
百	-15253
诺	-15254
份	-15255
艺	-15256
莱	-15257
皇	-15258
试	-15259
技	-15260
整	-15261
副	-15262
早	-15263
极	-15264
增	-15265
鲁	-15266
志	-15267
容	-15268
热	-15269
模	-15270
半	-15271
群	-15272
围	-15273
红	-15274
层	-15275
飞	-15276
告	-15277
七	-15278
继	-15279
越	-15280
失	-15281
登	-15282
双	-15283
评	-15284
堂	-15285
境	-15286
易	-15287
川	-15288
写	-15289
独	-15290
室	-15291
深	-15292
食	-15293
升	-15294
塞	-15295
排	-15296
需	-15297
黑	-15298
证	-15299
声	-15300
限	-15301
央	-15302
氏	-15303
医	-15304
筑	-15305
射	-15306
织	-15307
席	-15308
像	-15309
费	-15310
老	-15311
象	-15312
何	-15313
响	-15314
采	-15315
千	-15316
甲	-15317
真	-15318
才	-15319
托	-15320
盟	-15321
仍	-15322
杀	-15323
让	-15324
施	-15325
森	-15326
便	-15327
步	-15328
奇	-15329
警	-15330
木	-15331
考	-15332
防	-15333
想	-15334
配	-15335
舰	-15336
感	-15337
牙	-15338
洋	-15339
楼	-15340
岁	-15341
顿	-15342
届	-15343
哥	-15344
低	-15345
止	-15346
住	-15347
桥	-15348
留	-15349
姆	-15350
贝	-15351
效	-15352
—	-15353
律	-15354
病	-15355
农	-15356
刘	-15357
乌	-15358
范	-15359
几	-15360
泰	-15361
曼	-15362
佛	-15363
底	-15364
辑	-15365
恩	-15366
把	-15367
埃	-15368
察	-15369
料	-15370
冠	-15371
蒙	-15372
银	-15373
批	-15374
降	-15375
唱	-15376
仅	-15377
状	-15378
移	-15379
迪	-15380
库	-15381
话	-15382
俄	-15383
票	-15384
云	-15385
景	-15386
胜	-15387
看	-15388
素	-15389
测	-15390
宁	-15391
息	-15392
康	-15393
干	-15394
革	-15395
败	-15396
消	-15397
承	-15398
控	-15399
显	-15400
祖	-15401
索	-15402
授	-15403
_	-15404
算	-15405
温	-15406
念	-15407
典	-15408
词	-15409
弹	-15410
韩	-15411
习	-15412
远	-15413
载	-15414
藏	-15415
思	-15416
确	-15417
户	-15418
友	-15419
做	-15420
守	-15421
馀	-15422
满	-15423
瑞	-15424
态	-15425
拔	-15426
精	-15427
房	-15428
预	-15429
督	-15430
附	-15431
宫	-15432
依	-15433
望	-15434
叶	-15435
照	-15436
述	-15437
注	-15438
请	-15439
夏	-15440
价	-15441
征	-15442
章	-15443
执	-15444
抗	-15445
毛	-15446
停	-15447
退	-15448
牌	-15449
压	-15450
草	-15451
澳	-15452
简	-15453
虽	-15454
却	-15455
丹	-15456
永	-15457
左	-15458
富	-15459
封	-15460
丁	-15461
堡	-15462
验	-15463
坦	-15464
值	-15465
快	-15466
候	-15467
船	-15468
斗	-15469
势	-15470
侧	-15471
丽	-15472
拿	-15473
破	-15474
般	-15475
邦	-15476
宝	-15477
唐	-15478
莫	-15479
梅	-15480
隆	-15481
监	-15482
难	-15483
含	-15484
突	-15485
细	-15486
庄	-15487
庆	-15488
厂	-15489
断	-15490
郡	-15491
识	-15492
似	-15493
况	-15494
闻	-15495
寺	-15496
皮	-15497
植	-15498
旅	-15499
必	-15500
礼	-15501
蒂	-15502
读	-15503
嘉	-15504
尚	-15505
走	-15506
拥	-15507
朗	-15508
延	-15509
毕	-15510
绝	-15511
久	-15512
店	-15513
切	-15514
岸	-15515
右	-15516
厅	-15517
麦	-15518
架	-15519
杰	-15520
售	-15521
换	-15522
轮	-15523
临	-15524
旧	-15525
野	-15526
核	-15527
春	-15528
亡	-15529
弟	-15530
归	-15531
判	-15532
严	-15533
优	-15534
枪	-15535
弗	-15536
松	-15537
艾	-15538
占	-15539
佳	-15540
杨	-15541
油	-15542
雄	-15543
伤	-15544
遗	-15545
异	-15546
遭	-15547
端	-15548
灵	-15549
短	-15550
吴	-15551
股	-15552
码	-15553
练	-15554
孙	-15555
策	-15556
耶	-15557
逐	-15558
轻	-15559
役	-15560
序	-15561
赫	-15562
送	-15563
帕	-15564
旗	-15565
晚	-15566
顺	-15567
菲	-15568
须	-15569
摩	-15570
籍	-15571
若	-15572
距	-15573
暴	-15574
销	-15575
酒	-15576
乘	-15577
树	-15578
}	-15579
{	-15580
束	-15581
雅	-15582
宋	-15583
什	-15584
玛	-15585
微	-15586
末	-15587
杂	-15588
摄	-15589
输	-15590
阵	-15591
泽	-15592
秀	-15593
署	-15594
冲	-15595
卢	-15596
亿	-15597
兼	-15598
频	-15599
!	-15600
译	-15601
荣	-15602
款	-15603
胡	-15604
驻	-15605
阶	-15606
诗	-15607
良	-15608
药	-15609
庭	-15610
沃	-15611
齐	-15612
启	-15613
饰	-15614
血	-15615
善	-15616
略	-15617
劳	-15618
散	-15619
盖	-15620
津	-15621
贵	-15622
免	-15623
婚	-15624
尾	-15625
甚	-15626
丰	-15627
尽	-15628
峰	-15629
拍	-15630
予	-15631
纽	-15632
差	-15633
顶	-15634
迁	-15635
减	-15636
喜	-15637
板	-15638
鲜	-15639
假	-15640
晋	-15641
臣	-15642
杜	-15643
尺	-15644
兹	-15645
追	-15646
朱	-15647
购	-15648
财	-15649
谷	-15650
签	-15651
害	-15652
杯	-15653
烈	-15654
养	-15655
玉	-15656
背	-15657
宾	-15658
仁	-15659
爆	-15660
黎	-15661
训	-15662
罪	-15663
企	-15664
媒	-15665
舞	-15666
释	-15667
著	-15668
凯	-15669
险	-15670
互	-15671
沿	-15672
钟	-15673
盛	-15674
救	-15675
韦	-15676
夺	-15677
廷	-15678
渐	-15679
检	-15680
讯	-15681
轨	-15682
援	-15683
酸	-15684
货	-15685
审	-15686
透	-15687
秘	-15688
牛	-15689
映	-15690
屋	-15691
补	-15692
谢	-15693
昌	-15694
址	-15695
圆	-15696
币	-15697
够	-15698
介	-15699
软	-15700
访	-15701
乔	-15702
荷	-15703
君	-15704
仪	-15705
讲	-15706
扩	-15707
溪	-15708
庙	-15709
智	-15710
坡	-15711
挥	-15712
梁	-15713
材	-15714
借	-15715
按	-15716
郑	-15717
徒	-15718
适	-15719
敦	-15720
皆	-15721
童	-15722
>	-15723
益	-15724
郎	-15725
拜	-15726
辆	-15727
巡	-15728
敌	-15729
玩	-15730
混	-15731
禁	-15732
隶	-15733
颗	-15734
径	-15735
讨	-15736
蓝	-15737
巨	-15738
翰	-15739
锦	-15740
<	-15741
探	-15742
某	-15743
诸	-15744
途	-15745
夜	-15746
穆	-15747
宽	-15748
霍	-15749
觉	-15750
午	-15751
冰	-15752
额	-15753
跟	-15754
献	-15755
描	-15756
替	-15757
撤	-15758
羽	-15759
旋	-15760
刻	-15761
帮	-15762
你	-15763
赵	-15764
吸	-15765
竞	-15766
遇	-15767
刺	-15768
眼	-15769
培	-15770
刊	-15771
符	-15772
乱	-15773
找	-15774
宇	-15775
佩	-15776
殿	-15777
聚	-15778
欢	-15779
爵	-15780
私	-15781
休	-15782
充	-15783
袭	-15784
炮	-15785
逃	-15786
奉	-15787
漫	-15788
返	-15789
犯	-15790
固	-15791
毒	-15792
脑	-15793
否	-15794
耳	-15795
q	-15796
幕	-15797
唯	-15798
丝	-15799
络	-15800
雨	-15801
邻	-15802
召	-15803
捕	-15804
洪	-15805
戈	-15806
疗	-15807
骨	-15808
激	-15809
岩	-15810
废	-15811
魔	-15812
佔	-15813
茨	-15814
刑	-15815
择	-15816
靠	-15817
钱	-15818
操	-15819
怀	-15820
穿	-15821
缺	-15822
雪	-15823
宪	-15824
震	-15825
竹	-15826
露	-15827
'	-15828
忠	-15829
么	-15830
诉	-15831
坐	-15832
乎	-15833
绿	-15834
御	-15835
娜	-15836
恒	-15837
|	-15838
盘	-15839
坑	-15840
灭	-15841
翻	-15842
胞	-15843
尤	-15844
申	-15845
订	-15846
课	-15847
顾	-15848
骑	-15849
肯	-15850
赤	-15851
兄	-15852
待	-15853
抵	-15854
妻	-15855
迫	-15856
损	-15857
听	-15858
镜	-15859
坚	-15860
徐	-15861
贡	-15862
栖	-15863
浙	-15864
姓	-15865
呼	-15866
汇	-15867
刚	-15868
侵	-15869
愿	-15870
毁	-15871
谈	-15872
柏	-15873
桑	-15874
谋	-15875
陵	-15876
孩	-15877
惠	-15878
纲	-15879
秋	-15880
=	-15881
炸	-15882
脉	-15883
汽	-15884
篇	-15885
恶	-15886
辛	-15887
鳍	-15888
董	-15889
绩	-15890
横	-15891
潮	-15892
融	-15893
鸟	-15894
戴	-15895
买	-15896
舍	-15897
疑	-15898
努	-15899
芬	-15900
泉	-15901
孔	-15902
泛	-15903
绍	-15904
急	-15905
默	-15906
甘	-15907
魏	-15908
健	-15909
避	-15910
脱	-15911
卷	-15912
础	-15913
奏	-15914
缩	-15915
腊	-15916
偏	-15917
莉	-15918
榜	-15919
误	-15920
佐	-15921
墓	-15922
危	-15923
衣	-15924
套	-15925
概	-15926
呈	-15927
翼	-15928
针	-15929
坏	-15930
块	-15931
紧	-15932
隔	-15933
裁	-15934
宜	-15935
殖	-15936
肉	-15937
毫	-15938
墨	-15939
涉	-15940
寻	-15941
扎	-15942
扬	-15943
迎	-15944
染	-15945
井	-15946
赖	-15947
叫	-15948
阻	-15949
渡	-15950
虎	-15951
捷	-15952
付	-15953
冷	-15954
迷	-15955
锡	-15956
秦	-15957
贸	-15958
珠	-15959
哲	-15960
圈	-15961
缘	-15962
廉	-15963
析	-15964
弃	-15965
阴	-15966
辅	-15967
亮	-15968
卖	-15969
池	-15970
恐	-15971
招	-15972
氧	-15973
剑	-15974
彩	-15975
侯	-15976
赞	-15977
匹	-15978
虫	-15979
葡	-15980
伍	-15981
仙	-15982
症	-15983
函	-15984
琴	-15985
凤	-15986
享	-15987
味	-15988
赢	-15989
绕	-15990
寿	-15991
洞	-15992
错	-15993
钢	-15994
截	-15995
梦	-15996
]	-15997
妹	-15998
俱	-15999
颁	-16000
滨	-16001
麻	-16002
尊	-16003
暗	-16004
绘	-16005
[	-16006
瑟	-16007
俗	-16008
豪	-16009
硬	-16010
综	-16011
脚	-16012
倒	-16013
誉	-16014
崇	-16015
笔	-16016
町	-16017
驱	-16018
租	-16019
犹	-16020
矿	-16021
徽	-16022
妇	-16023
奈	-16024
铜	-16025
冬	-16026
稳	-16027
繁	-16028
逊	-16029
液	-16030
静	-16031
绪	-16032
冈	-16033
昂	-16034
阁	-16035
逝	-16036
闭	-16037
估	-16038
楚	-16039
暂	-16040
档	-16041
乙	-16042
墙	-16043
辞	-16044
辐	-16045
曹	-16046
邀	-16047
昭	-16048
+	-16049
蛋	-16050
潜	-16051
柱	-16052
掌	-16053
吕	-16054
浦	-16055
跨	-16056
册	-16057
拒	-16058
辽	-16059
郭	-16060
伐	-16061
振	-16062
纸	-16063
幼	-16064
盐	-16065
鼓	-16066
乃	-16067
岭	-16068
裂	-16069
拟	-16070
恢	-16071
裔	-16072
莎	-16073
零	-16074
?	-16075
蔡	-16076
萄	-16077
弱	-16078
轴	-16079
触	-16080
齿	-16081
赏	-16082
滑	-16083
患	-16084
陶	-16085
粉	-16086
菌	-16087
陷	-16088
淡	-16089
浪	-16090
困	-16091
障	-16092
灾	-16093
伟	-16094
览	-16095
剂	-16096
旁	-16097
偶	-16098
藤	-16099
菜	-16100
驶	-16101
彼	-16102
沈	-16103
颜	-16104
牧	-16105
埔	-16106
宿	-16107
税	-16108
丘	-16109
纯	-16110
邮	-16111
残	-16112
涅	-16113
蒋	-16114
狱	-16115
伴	-16116
柯	-16117
搭	-16118
祭	-16119
勇	-16120
促	-16121
疆	-16122
壁	-16123
昆	-16124
允	-16125
迹	-16126
灯	-16127
厦	-16128
龄	-16129
隐	-16130
敏	-16131
亨	-16132
桃	-16133
答	-16134
汤	-16135
熙	-16136
汗	-16137
仔	-16138
键	-16139
恋	-16140
遍	-16141
殊	-16142
衡	-16143
糖	-16144
句	-16145
拆	-16146
宅	-16147
珍	-16148
燃	-16149
烧	-16150
茶	-16151
幅	-16152
迈	-16153
孟	-16154
棒	-16155
葬	-16156
幸	-16157
虚	-16158
侍	-16159
折	-16160
邓	-16161
娱	-16162
沉	-16163
紫	-16164
跑	-16165
坛	-16166
莲	-16167
赴	-16168
灰	-16169
奴	-16170
幻	-16171
械	-16172
塘	-16173
厚	-16174
孝	-16175
餐	-16176
篮	-16177
贤	-16178
敬	-16179
艘	-16180
祥	-16181
叙	-16182
碑	-16183
挑	-16184
筹	-16185
磁	-16186
沟	-16187
锋	-16188
储	-16189
慈	-16190
陕	-16191
遣	-16192
纬	-16193
晶	-16194
纵	-16195
虑	-16196
萧	-16197
姐	-16198
辉	-16199
倍	-16200
箭	-16201
疾	-16202
叛	-16203
违	-16204
谱	-16205
葛	-16206
棋	-16207
贾	-16208
柴	-16209
撞	-16210
慢	-16211
冯	-16212
峡	-16213
熟	-16214
驾	-16215
妮	-16216
苦	-16217
尖	-16218
〉	-16219
枚	-16220
〈	-16221
柳	-16222
』	-16223
艇	-16224
『	-16225
凡	-16226
仰	-16227
跳	-16228
仓	-16229
坂	-16230
遂	-16231
螺	-16232
伸	-16233
伏	-16234
匈	-16235
衔	-16236
朋	-16237
烟	-16238
纹	-16239
燕	-16240
刀	-16241
瓜	-16242
撒	-16243
°	-16244
桂	-16245
彭	-16246
缓	-16247
雕	-16248
贯	-16249
潘	-16250
忆	-16251
贺	-16252
猎	-16253
迅	-16254
慕	-16255
谓	-16256
勤	-16257
兽	-16258
吃	-16259
琳	-16260
靖	-16261
详	-16262
涯	-16263
累	-16264
趣	-16265
粒	-16266
鬼	-16267
番	-16268
罕	-16269
熊	-16270
鹿	-16271
猪	-16272
脂	-16273
泊	-16274
旺	-16275
诚	-16276
掉	-16277
梯	-16278
芳	-16279
挂	-16280
胶	-16281
屯	-16282
咸	-16283
屿	-16284
赠	-16285
饮	-16286
牠	-16287
硕	-16288
晨	-16289
肃	-16290
詹	-16291
秒	-16292
纷	-16293
惊	-16294
蛇	-16295
倾	-16296
禄	-16297
怪	-16298
屏	-16299
页	-16300
抚	-16301
芝	-16302
擎	-16303
凭	-16304
拓	-16305
杉	-16306
羊	-16307
仲	-16308
浮	-16309
乳	-16310
痛	-16311
凌	-16312
俊	-16313
隧	-16314
壳	-16315
锁	-16316
缅	-16317
玄	-16318
炎	-16319
诞	-16320
卓	-16321
坎	-16322
插	-16323
鼠	-16324
弘	-16325
慧	-16326
泥	-16327
腹	-16328
猫	-16329
晓	-16330
岳	-16331
杭	-16332
～	-16333
厄	-16334
圳	-16335
励	-16336
喀	-16337
崎	-16338
搜	-16339
豆	-16340
轰	-16341
旦	-16342
塑	-16343
藩	-16344
袁	-16345
甸	-16346
卿	-16347
乏	-16348
罚	-16349
跃	-16350
戒	-16351
畔	-16352
撰	-16353
宏	-16354
鸡	-16355
笑	-16356
玻	-16357
苗	-16358
扰	-16359
盗	-16360
斑	-16361
赐	-16362
彻	-16363
洗	-16364
丧	-16365
祝	-16366
狮	-16367
寄	-16368
牵	-16369
亭	-16370
泳	-16371
溶	-16372
阮	-16373
坊	-16374
阅	-16375
崔	-16376
袖	-16377
宙	-16378
乾	-16379
胁	-16380
尉	-16381
贞	-16382
é	-16383
循	-16384
妃	-16385
焦	-16386
舒	-16387
询	-16388
巧	-16389
叔	-16390
扮	-16391
茂	-16392
郊	-16393
耀	-16394
僧	-16395
仿	-16396
吨	-16397
悬	-16398
既	-16399
箱	-16400
枢	-16401
衰	-16402
疏	-16403
粤	-16404
霸	-16405
污	-16406
捐	-16407
鲤	-16408
串	-16409
彰	-16410
侦	-16411
弥	-16412
岗	-16413
盾	-16414
逢	-16415
壮	-16416
契	-16417
碳	-16418
勃	-16419
砲	-16420
摇	-16421
措	-16422
陨	-16423
剩	-16424
浩	-16425
床	-16426
氢	-16427
枝	-16428
浓	-16429
喷	-16430
厘	-16431
翁	-16432
滚	-16433
券	-16434
歧	-16435
鸿	-16436
搬	-16437
钦	-16438
湿	-16439
递	-16440
填	-16441
夷	-16442
拳	-16443
荒	-16444
裕	-16445
滩	-16446
帅	-16447
卜	-16448
飓	-16449
浅	-16450
鲍	-16451
傅	-16452
渔	-16453
贴	-16454
欲	-16455
丈	-16456
饭	-16457
润	-16458
窗	-16459
衍	-16460
邨	-16461
割	-16462
怒	-16463
笼	-16464
淮	-16465
粮	-16466
碍	-16467
旨	-16468
尸	-16469
寨	-16470
蝶	-16471
疫	-16472
灌	-16473
侠	-16474
肥	-16475
庞	-16476
垒	-16477
惯	-16478
抽	-16479
踪	-16480
欣	-16481
赶	-16482
洁	-16483
链	-16484
鹰	-16485
珊	-16486
冒	-16487
膜	-16488
狂	-16489
胎	-16490
辩	-16491
尝	-16492
斜	-16493
聘	-16494
悉	-16495
垂	-16496
狄	-16497
稿	-16498
迟	-16499
煤	-16500
贫	-16501
吾	-16502
儒	-16503
腾	-16504
粹	-16505
陀	-16506
孤	-16507
妈	-16508
廊	-16509
湘	-16510
握	-16511
栽	-16512
壤	-16513
闽	-16514
杆	-16515
彦	-16516
耗	-16517
柔	-16518
坪	-16519
粗	-16520
抢	-16521
&	-16522
揭	-16523
逆	-16524
娘	-16525
翠	-16526
貌	-16527
铺	-16528
净	-16529
朴	-16530
琉	-16531
俘	-16532
婆	-16533
堪	-16534
狗	-16535
潭	-16536
恰	-16537
寒	-16538
挪	-16539
翌	-16540
罢	-16541
魂	-16542
璃	-16543
薄	-16544
阔	-16545
辰	-16546
忍	-16547
龟	-16548
禅	-16549
丛	-16550
癌	-16551
扶	-16552
吐	-16553
赋	-16554
丙	-16555
稍	-16556
铭	-16557
遵	-16558
坝	-16559
堆	-16560
勋	-16561
刷	-16562
伪	-16563
脏	-16564
矩	-16565
逻	-16566
碎	-16567
淘	-16568
苑	-16569
诏	-16570
荐	-16571
鼻	-16572
矶	-16573
涵	-16574
颇	-16575
丑	-16576
汪	-16577
怖	-16578
姚	-16579
叠	-16580
鸣	-16581
添	-16582
偷	-16583
栏	-16584
押	-16585
胸	-16586
寸	-16587
惟	-16588
硫	-16589
弦	-16590
逮	-16591
嫌	-16592
祀	-16593
姬	-16594
劝	-16595
扫	-16596
兆	-16597
卒	-16598
歇	-16599
吏	-16600
屠	-16601
姻	-16602
讷	-16603
狼	-16604
蛛	-16605
奔	-16606
雀	-16607
夕	-16608
奎	-16609
诊	-16610
携	-16611
脊	-16612
芒	-16613
琼	-16614
趋	-16615
泡	-16616
酶	-16617
仇	-16618
醒	-16619
蒸	-16620
卑	-16621
嗣	-16622
叉	-16623
逼	-16624
─	-16625
腐	-16626
磨	-16627
偿	-16628
菊	-16629
卵	-16630
韵	-16631
猛	-16632
劫	-16633
涂	-16634
隋	-16635
勳	-16636
厢	-16637
稣	-16638
屈	-16639
拼	-16640
薛	-16641
娃	-16642
嫁	-16643
凝	-16644
斤	-16645
犬	-16646
债	-16647
掘	-16648
肖	-16649
敢	-16650
鹤	-16651
摆	-16652
闪	-16653
嘴	-16654
悲	-16655
醇	-16656
忙	-16657
矛	-16658
伽	-16659
氯	-16660
奶	-16661
棘	-16662
铸	-16663
凉	-16664
抑	-16665
碟	-16666
侨	-16667
曰	-16668
迦	-16669
礁	-16670
姊	-16671
妙	-16672
・	-16673
肌	-16674
忽	-16675
栋	-16676
汰	-16677
祠	-16678
贩	-16679
株	-16680
舱	-16681
雍	-16682
砖	-16683
旬	-16684
鼎	-16685
扁	-16686
翔	-16687
碧	-16688
袋	-16689
吹	-16690
穷	-16691
麟	-16692
鲶	-16693
怕	-16694
抱	-16695
炉	-16696
狭	-16697
稻	-16698
甫	-16699
’	-16700
拖	-16701
姜	-16702
巫	-16703
谭	-16704
砂	-16705
铃	-16706
尹	-16707
幽	-16708
宰	-16709
夹	-16710
绳	-16711
斐	-16712
蹈	-16713
汀	-16714
孕	-16715
寓	-16716
惨	-16717
抓	-16718
剪	-16719
丸	-16720
崩	-16721
圭	-16722
恭	-16723
盆	-16724
锺	-16725
鉴	-16726
鳞	-16727
虹	-16728
沪	-16729
竟	-16730
纤	-16731
毅	-16732
邪	-16733
讚	-16734
鄂	-16735
胆	-16736
闸	-16737
→	-16738
邑	-16739
丞	-16740
寮	-16741
豫	-16742
埋	-16743
讬	-16744
倡	-16745
斋	-16746
苹	-16747
弯	-16748
辨	-16749
驳	-16750
~	-16751
鲈	-16752
廖	-16753
钻	-16754
汝	-16755
蕨	-16756
魁	-16757
渊	-16758
蓬	-16759
囊	-16760
伙	-16761
雌	-16762
珀	-16763
雾	-16764
茅	-16765
蜂	-16766
滕	-16767
襄	-16768
巢	-16769
扣	-16770
荆	-16771
郁	-16772
咖	-16773
募	-16774
拨	-16775
斩	-16776
×	-16777
催	-16778
腺	-16779
茵	-16780
氨	-16781
吧	-16782
腔	-16783
吞	-16784
脸	-16785
蟹	-16786
陪	-16787
披	-16788
挖	-16789
奋	-16790
谦	-16791
暖	-16792
耕	-16793
溯	-16794
涌	-16795
肠	-16796
苯	-16797
酷	-16798
荡	-16799
劲	-16800
擅	-16801
鸭	-16802
聪	-16803
削	-16804
棉	-16805
蜜	-16806
拘	-16807
暨	-16808
吻	-16809
耐	-16810
瓶	-16811
崖	-16812
忘	-16813
蕾	-16814
铎	-16815
舟	-16816
漠	-16817
舌	-16818
愈	-16819
仕	-16820
噶	-16821
毗	-16822
卸	-16823
邱	-16824
札	-16825
帽	-16826
蒲	-16827
栗	-16828
帐	-16829
亥	-16830
斥	-16831
喇	-16832
薇	-16833
颈	-16834
渠	-16835
拱	-16836
巷	-16837
摧	-16838
掠	-16839
谊	-16840
遥	-16841
诱	-16842
姑	-16843
薪	-16844
碱	-16845
蜀	-16846
溃	-16847
昇	-16848
婴	-16849
矮	-16850
忧	-16851
淑	-16852
鲸	-16853
稀	-16854
胺	-16855
‘	-16856
扑	-16857
啡	-16858
顷	-16859
锐	-16860
踏	-16861
邵	-16862
炼	-16863
宠	-16864
筒	-16865
肺	-16866
贼	-16867
琪	-16868
愤	-16869
鑑	-16870
冕	-16871
烯	-16872
轩	-16873
穴	-16874
椎	-16875
庶	-16876
爷	-16877
藻	-16878
葵	-16879
甜	-16880
澄	-16881
哪	-16882
畅	-16883
梨	-16884
菩	-16885
桓	-16886
雇	-16887
亩	-16888
帆	-16889
宛	-16890
睡	-16891
漏	-16892
尿	-16893
掩	-16894
磷	-16895
惜	-16896
谁	-16897
宴	-16898
碰	-16899
玲	-16900
豹	-16901
凶	-16902
卧	-16903
吁	-16904
堤	-16905
怡	-16906
梵	-16907
榄	-16908
鹅	-16909
ー	-16910
绵	-16911
夸	-16912
誓	-16913
逸	-16914
弓	-16915
翅	-16916
慎	-16917
饼	-16918
褐	-16919
瓷	-16920
冀	-16921
腿	-16922
鹏	-16923
框	-16924
挡	-16925
瘤	-16926
棕	-16927
禾	-16928
肤	-16929
桌	-16930
贪	-16931
奸	-16932
仑	-16933
绑	-16934
樱	-16935
仆	-16936
奠	-16937
蹟	-16938
侣	-16939
唇	-16940
绥	-16941
伞	-16942
悠	-16943
姿	-16944
颠	-16945
桐	-16946
弄	-16947
芦	-16948
删	-16949
爪	-16950
骚	-16951
慰	-16952
臂	-16953
娶	-16954
柬	-16955
柄	-16956
贷	-16957
骗	-16958
肿	-16959
颖	-16960
霞	-16961
鸦	-16962
肢	-16963
谐	-16964
惧	-16965
牲	-16966
抛	-16967
抄	-16968
呎	-16969
恨	-16970
盈	-16971
纠	-16972
蝠	-16973
‧	-16974
祯	-16975
辈	-16976
涛	-16977
厝	-16978
肝	-16979
窄	-16980
缴	-16981
腰	-16982
颂	-16983
践	-16984
赌	-16985
烷	-16986
庚	-16987
腓	-16988
а	-16989
劣	-16990
扭	-16991
庇	-16992
肩	-16993
讼	-16994
祈	-16995
茎	-16996
哀	-16997
囚	-16998
蚀	-16999
汶	-17000
*	-17001
坟	-17002
殷	-17003
沼	-17004
辟	-17005
逾	-17006
吊	-17007
朵	-17008
猜	-17009
妖	-17010
饶	-17011
赔	-17012
滋	-17013
秩	-17014
浸	-17015
涡	-17016
炭	-17017
遮	-17018
の	-17019
厥	-17020
滤	-17021
忌	-17022
裸	-17023
谣	-17024
槽	-17025
镑	-17026
怎	-17027
搞	-17028
悦	-17029
瑜	-17030
坠	-17031
兔	-17032
坞	-17033
尘	-17034
跌	-17035
缝	-17036
肇	-17037
α	-17038
屡	-17039
ン	-17040
寇	-17041
爬	-17042
椅	-17043
荃	-17044
C	-17045
蓄	-17046
扇	-17047
嫩	-17048
埠	-17049
夥	-17050
祸	-17051
祐	-17052
凰	-17053
о	-17054
舆	-17055
尧	-17056
芙	-17057
芭	-17058
焚	-17059
鳄	-17060
氟	-17061
戌	-17062
挺	-17063
嵌	-17064
橡	-17065
窝	-17066
趁	-17067
虾	-17068
纺	-17069
虏	-17070
庸	-17071
惩	-17072
崙	-17073
眉	-17074
跋	-17075
猴	-17076
肾	-17077
禧	-17078
骏	-17079
讽	-17080
歉	-17081
贬	-17082
瑚	-17083
昔	-17084
擦	-17085
欠	-17086
酮	-17087
$	-17088
厉	-17089
柜	-17090
晴	-17091
茄	-17092
锅	-17093
浏	-17094
佑	-17095
鞋	-17096
蕃	-17097
剥	-17098
唤	-17099
眠	-17100
坤	-17101
萝	-17102
蜥	-17103
喻	-17104
谘	-17105
挤	-17106
旱	-17107
捉	-17108
勘	-17109
浆	-17110
踢	-17111
昏	-17112
泪	-17113
#	-17114
攀	-17115
履	-17116
娅	-17117
悟	-17118
铝	-17119
厌	-17120
冻	-17121
咏	-17122
漂	-17123
怨	-17124
苍	-17125
戊	-17126
胀	-17127
爸	-17128
橄	-17129
喝	-17130
钓	-17131
炳	-17132
狐	-17133
鲷	-17134
塌	-17135
醉	-17136
烂	-17137
滥	-17138
疯	-17139
丢	-17140
撑	-17141
赣	-17142
澎	-17143
躲	-17144
竣	-17145
旭	-17146
璋	-17147
厨	-17148
钩	-17149
臀	-17150
氮	-17151
缸	-17152
帖	-17153
歼	-17154
淳	-17155
睛	-17156
僚	-17157
裴	-17158
谨	-17159
荫	-17160
и	-17161
妥	-17162
锥	-17163
哺	-17164
辱	-17165
盲	-17166
熔	-17167
穗	-17168
糕	-17169
盒	-17170
匠	-17171
牺	-17172
冢	-17173
匪	-17174
镶	-17175
椒	-17176
棚	-17177
窑	-17178
垦	-17179
钠	-17180
凸	-17181
痕	-17182
畜	-17183
缔	-17184
斌	-17185
榴	-17186
罩	-17187
霖	-17188
涨	-17189
覆	-17190
巩	-17191
摔	-17192
匣	-17193
勾	-17194
咒	-17195
酿	-17196
徙	-17197
矢	-17198
秉	-17199
欺	-17200
漆	-17201
鞍	-17202
阀	-17203
饱	-17204
煌	-17205
阜	-17206
铅	-17207
贿	-17208
聂	-17209
酯	-17210
戚	-17211
岐	-17212
梭	-17213
麓	-17214
黛	-17215
喉	-17216
虞	-17217
糊	-17218
谴	-17219
虐	-17220
菱	-17221
蛙	-17222
い	-17223
嘛	-17224
饥	-17225
佣	-17226
哭	-17227
蛮	-17228
萤	-17229
瑶	-17230
畴	-17231
枫	-17232
畏	-17233
庐	-17234
牟	-17235
笃	-17236
漳	-17237
瞄	-17238
闹	-17239
瑙	-17240
浴	-17241
祷	-17242
拦	-17243
堵	-17244
酋	-17245
拯	-17246
á	-17247
淀	-17248
阎	-17249
闯	-17250
捲	-17251
辣	-17252
庵	-17253
帜	-17254
垣	-17255
钧	-17256
谍	-17257
驰	-17258
廿	-17259
悼	-17260
朔	-17261
笛	-17262
幢	-17263
绅	-17264
吗	-17265
彬	-17266
棠	-17267
韶	-17268
鲨	-17269
凹	-17270
椭	-17271
烦	-17272
橙	-17273
噪	-17274
翡	-17275
弧	-17276
彗	-17277
棍	-17278
蝙	-17279
乞	-17280
咀	-17281
楠	-17282
吓	-17283
氛	-17284
閒	-17285
瓣	-17286
壬	-17287
焰	-17288
赦	-17289
惑	-17290
滴	-17291
胃	-17292
硝	-17293
浑	-17294
蛤	-17295
磅	-17296
骤	-17297
湛	-17298
酱	-17299
颌	-17300
缀	-17301
膨	-17302
寅	-17303
瑰	-17304
濒	-17305
е	-17306
н	-17307
粘	-17308
饲	-17309
燥	-17310
牢	-17311
窃	-17312
冶	-17313
垃	-17314
黏	-17315
摘	-17316
樑	-17317
玫	-17318
禹	-17319
杏	-17320
掷	-17321
汁	-17322
剿	-17323
谕	-17324
沧	-17325
肆	-17326
骂	-17327
谥	-17328
槟	-17329
窟	-17330
劾	-17331
匿	-17332
缆	-17333
圾	-17334
淹	-17335
孜	-17336
邸	-17337
阐	-17338
纂	-17339
懂	-17340
陇	-17341
沦	-17342
艰	-17343
迄	-17344
诈	-17345
β	-17346
泌	-17347
闲	-17348
戎	-17349
畿	-17350
寡	-17351
鹃	-17352
濑	-17353
钥	-17354
芽	-17355
喊	-17356
′	-17357
滞	-17358
橘	-17359
闵	-17360
梓	-17361
冥	-17362
窦	-17363
汕	-17364
懿	-17365
ん	-17366
酰	-17367
奕	-17368
с	-17369
酬	-17370
簧	-17371
沛	-17372
侄	-17373
煮	-17374
孚	-17375
绰	-17376
稽	-17377
妆	-17378
渗	-17379
р	-17380
蔽	-17381
隙	-17382
邹	-17383
绒	-17384
锣	-17385
筋	-17386
浊	-17387
滇	-17388
勉	-17389
纱	-17390
绣	-17391
宦	-17392
寂	-17393
雁	-17394
峻	-17395
缠	-17396
鞭	-17397
谜	-17398
泄	-17399
酵	-17400
瀑	-17401
焕	-17402
啤	-17403
芯	-17404
鳗	-17405
諡	-17406
倪	-17407
剌	-17408
蚁	-17409
俞	-17410
仗	-17411
嫡	-17412
竖	-17413
ü	-17414
萍	-17415
敖	-17416
艳	-17417
【	-17418
】	-17419
曝	-17420
妓	-17421
墩	-17422
籤	-17423
癸	-17424
狩	-17425
伺	-17426
荔	-17427
殉	-17428
萌	-17429
颅	-17430
呢	-17431
乒	-17432
挝	-17433
诛	-17434
僱	-17435
岑	-17436
垄	-17437
榆	-17438
う	-17439
傲	-17440
墅	-17441
拾	-17442
锯	-17443
墟	-17444
烤	-17445
桶	-17446
淋	-17447
啦	-17448
碘	-17449
稚	-17450
茹	-17451
彝	-17452
缪	-17453
诵	-17454
臭	-17455
裹	-17456
缉	-17457
耿	-17458
彪	-17459
吋	-17460
咨	-17461
蓉	-17462
婉	-17463
钙	-17464
暑	-17465
蕴	-17466
哇	-17467
悔	-17468
犁	-17469
堕	-17470
狸	-17471
聊	-17472
衷	-17473
谏	-17474
赚	-17475
鳉	-17476
魅	-17477
竭	-17478
琦	-17479
舜	-17480
挽	-17481
账	-17482
肪	-17483
蹄	-17484
愚	-17485
樟	-17486
砍	-17487
粟	-17488
袜	-17489
骸	-17490
※	-17491
芜	-17492
羌	-17493
爽	-17494
т	-17495
牡	-17496
锤	-17497
淫	-17498
敷	-17499
诠	-17500
嵩	-17501
藓	-17502
蔚	-17503
趾	-17504
砌	-17505
咬	-17506
舖	-17507
亏	-17508
裤	-17509
弼	-17510
龚	-17511
皖	-17512
豚	-17513
轿	-17514
晰	-17515
罐	-17516
碗	-17517
绎	-17518
蔓	-17519
垫	-17520
舅	-17521
弊	-17522
硅	-17523
茜	-17524
晖	-17525
ス	-17526
壶	-17527
擒	-17528
嫔	-17529
匡	-17530
啸	-17531
禽	-17532
莞	-17533
衙	-17534
敲	-17535
薯	-17536
愉	-17537
澜	-17538
蜡	-17539
し	-17540
檀	-17541
廓	-17542
叹	-17543
樊	-17544
钞	-17545
イ	-17546
狙	-17547
•	-17548
í	-17549
膀	-17550
剖	-17551
毓	-17552
娥	-17553
罹	-17554
赎	-17555
哩	-17556
倭	-17557
霉	-17558
嘎	-17559
擢	-17560
扳	-17561
苔	-17562
淆	-17563
炒	-17564
钾	-17565
瞬	-17566
渤	-17567
ö	-17568
蜘	-17569
驼	-17570
褒	-17571
摊	-17572
飘	-17573
泼	-17574
钮	-17575
毙	-17576
孢	-17577
釜	-17578
ā	-17579
蔬	-17580
祇	-17581
杖	-17582
乓	-17583
匀	-17584
驹	-17585
厕	-17586
鲉	-17587
鳃	-17588
鹦	-17589
郝	-17590
壹	-17591
饿	-17592
钉	-17593
棱	-17594
в	-17595
兑	-17596
暹	-17597
胚	-17598
蕉	-17599
甄	-17600
渭	-17601
烹	-17602
俯	-17603
迭	-17604
岱	-17605
睿	-17606
祁	-17607
沁	-17608
к	-17609
邯	-17610
哨	-17611
崛	-17612
霜	-17613
猩	-17614
骆	-17615
抬	-17616
娄	-17617
檐	-17618
猿	-17619
脆	-17620
凑	-17621
ル	-17622
谅	-17623
梧	-17624
沫	-17625
胤	-17626
盔	-17627
ó	-17628
渝	-17629
か	-17630
榕	-17631
疲	-17632
卦	-17633
犀	-17634
挫	-17635
凿	-17636
刹	-17637
灿	-17638
邢	-17639
舶	-17640
巾	-17641
蝴	-17642
裙	-17643
沂	-17644
膝	-17645
た	-17646
宵	-17647
楷	-17648
莹	-17649
莽	-17650
莺	-17651
眷	-17652
晤	-17653
抹	-17654
妾	-17655
矣	-17656
梗	-17657
惹	-17658
疼	-17659
袍	-17660
汐	-17661
黔	-17662
驿	-17663
醛	-17664
蝉	-17665
苷	-17666
髓	-17667
膛	-17668
雯	-17669
搁	-17670
婷	-17671
倖	-17672
媛	-17673
蕊	-17674
è	-17675
桦	-17676
匾	-17677
雏	-17678
潟	-17679
傍	-17680
肚	-17681
铀	-17682
泗	-17683
溥	-17684
谟	-17685
簿	-17686
栅	-17687
笠	-17688
л	-17689
谎	-17690
峙	-17691
膏	-17692
喙	-17693
祺	-17694
蒿	-17695
湧	-17696
勿	-17697
琅	-17698
涩	-17699
卯	-17700
堀	-17701
ラ	-17702
棺	-17703
渴	-17704
汾	-17705
葱	-17706
耻	-17707
辜	-17708
睦	-17709
卤	-17710
磡	-17711
垩	-17712
敕	-17713
俩	-17714
溉	-17715
讳	-17716
桨	-17717
鳕	-17718
奢	-17719
溢	-17720
泾	-17721
渣	-17722
と	-17723
冤	-17724
肋	-17725
顽	-17726
闢	-17727
婿	-17728
您	-17729
敛	-17730
羞	-17731
耆	-17732
岚	-17733
洽	-17734
虔	-17735
璧	-17736
幌	-17737
俭	-17738
堰	-17739
峨	-17740
晃	-17741
殴	-17742
镍	-17743
洼	-17744
郸	-17745
侬	-17746
菁	-17747
羟	-17748
寝	-17749
瘦	-17750
绸	-17751
蜗	-17752
塾	-17753
缮	-17754
吟	-17755
μ	-17756
ア	-17757
啊	-17758
蚌	-17759
紮	-17760
佥	-17761
馨	-17762
摸	-17763
枯	-17764
ä	-17765
馈	-17766
慌	-17767
焊	-17768
晏	-17769
磺	-17770
烃	-17771
羚	-17772
闰	-17773
侏	-17774
揽	-17775
匙	-17776
嘲	-17777
埼	-17778
诬	-17779
谬	-17780
鹉	-17781
枣	-17782
胖	-17783
戟	-17784
苻	-17785
骄	-17786
泵	-17787
酉	-17788
掀	-17789
糟	-17790
钝	-17791
刃	-17792
ト	-17793
捞	-17794
麒	-17795
恼	-17796
丕	-17797
骼	-17798
リ	-17799
艮	-17800
竺	-17801
岔	-17802
芹	-17803
蔷	-17804
锂	-17805
僵	-17806
衬	-17807
衫	-17808
菸	-17809
锌	-17810
慾	-17811
氰	-17812
琛	-17813
岬	-17814
倚	-17815
棵	-17816
噬	-17817
梳	-17818
な	-17819
懋	-17820
兀	-17821
抒	-17822
瑾	-17823
鸠	-17824
雳	-17825
皓	-17826
萼	-17827
斧	-17828
菇	-17829
淞	-17830
磐	-17831
芮	-17832
腕	-17833
蝇	-17834
秃	-17835
枕	-17836
搏	-17837
咪	-17838
锈	-17839
忒	-17840
暱	-17841
に	-17842
娇	-17843
哉	-17844
鸽	-17845
憾	-17846
霹	-17847
瀛	-17848
穹	-17849
兖	-17850
撕	-17851
稜	-17852
ク	-17853
瞻	-17854
瑛	-17855
睹	-17856
舷	-17857
〔	-17858
戍	-17859
棣	-17860
芸	-17861
〕	-17862
兜	-17863
诃	-17864
祂	-17865
汞	-17866
り	-17867
靶	-17868
桩	-17869
浚	-17870
溜	-17871
鰕	-17872
嘱	-17873
溴	-17874
茱	-17875
捧	-17876
焉	-17877
抨	-17878
癒	-17879
衞	-17880
荀	-17881
洩	-17882
煽	-17883
蔗	-17884
洒	-17885
д	-17886
颚	-17887
苞	-17888
篡	-17889
蚕	-17890
缚	-17891
鑫	-17892
胰	-17893
嗜	-17894
蟾	-17895
霆	-17896
蛾	-17897
炬	-17898
祕	-17899
觅	-17900
鲀	-17901
捍	-17902
栈	-17903
ا	-17904
蜒	-17905
阙	-17906
曜	-17907
陡	-17908
韧	-17909
萃	-17910
恪	-17911
帛	-17912
熹	-17913
蜿	-17914
逗	-17915
る	-17916
糙	-17917
霄	-17918
玺	-17919
−	-17920
渥	-17921
隍	-17922
〜	-17923
灶	-17924
き	-17925
怜	-17926
稠	-17927
м	-17928
ま	-17929
孵	-17930
恺	-17931
沸	-17932
镰	-17933
祚	-17934
鍊	-17935
煞	-17936
锻	-17937
翟	-17938
俾	-17939
敞	-17940
瘟	-17941
黜	-17942
妄	-17943
砾	-17944
栓	-17945
昼	-17946
慨	-17947
莓	-17948
峭	-17949
偕	-17950
皂	-17951
绞	-17952
芥	-17953
崑	-17954
巳	-17955
淇	-17956
沽	-17957
妨	-17958
粪	-17959
篷	-17960
曙	-17961
鞑	-17962
钊	-17963
筛	-17964
烛	-17965
昊	-17966
箕	-17967
矽	-17968
咤	-17969
薰	-17970
颐	-17971
埤	-17972
晕	-17973
赁	-17974
躯	-17975
麾	-17976
酚	-17977
蚤	-17978
镖	-17979
く	-17980
屑	-17981
俸	-17982
侮	-17983
硼	-17984
羁	-17985
溺	-17986
γ	-17987
恕	-17988
玮	-17989
潼	-17990
刮	-17991
邺	-17992
辗	-17993
肽	-17994
镁	-17995
泻	-17996
笨	-17997
靼	-17998
さ	-17999
乍	-18000
ッ	-18001
皋	-18002
饷	-18003
娟	-18004
斡	-18005
蚊	-18006
膳	-18007
苣	-18008
咽	-18009
盎	-18010
桢	-18011
禺	-18012
鳅	-18013
鹭	-18014
曦	-18015
泣	-18016
龛	-18017
吡	-18018
妍	-18019
堇	-18020
莆	-18021
隅	-18022
挠	-18023
は	-18024
楞	-18025
臧	-18026
晒	-18027
椰	-18028
靴	-18029
π	-18030
舵	-18031
彤	-18032
酪	-18033
□	-18034
豁	-18035
譬	-18036
贱	-18037
沥	-18038
沐	-18039
陞	-18040
挟	-18041
帘	-18042
瘫	-18043
у	-18044
纶	-18045
泸	-18046
傀	-18047
瘾	-18048
砸	-18049
驯	-18050
钜	-18051
裘	-18052
铉	-18053
暮	-18054
诅	-18055
陛	-18056
吵	-18057
埗	-18058
绮	-18059
鲑	-18060
衢	-18061
滙	-18062
氦	-18063
炫	-18064
阱	-18065
δ	-18066
こ	-18067
疹	-18068
苟	-18069
赂	-18070
柠	-18071
坜	-18072
诰	-18073
σ	-18074
鎌	-18075
儡	-18076
瞒	-18077
蓟	-18078
扔	-18079
が	-18080
佬	-18081
鞘	-18082
倩	-18083
韬	-18084
煎	-18085
夭	-18086
\	-18087
幡	-18088
萱	-18089
庾	-18090
绶	-18091
峪	-18092
镀	-18093
沮	-18094
シ	-18095
戮	-18096
汴	-18097
腥	-18098
み	-18099
呆	-18100
榈	-18101
葫	-18102
λ	-18103
拢	-18104
挣	-18105
毯	-18106
巅	-18107
淄	-18108
伶	-18109
п	-18110
ら	-18111
炯	-18112
隘	-18113
靡	-18114
@	-18115
磊	-18116
绫	-18117
羲	-18118
柑	-18119
奚	-18120
濠	-18121
醚	-18122
槛	-18123
芋	-18124
槐	-18125
琵	-18126
湄	-18127
嘻	-18128
钛	-18129
鼬	-18130
叱	-18131
瞩	-18132
钵	-18133
翘	-18134
お	-18135
晟	-18136
炀	-18137
巖	-18138
扯	-18139
姨	-18140
タ	-18141
萎	-18142
檬	-18143
旷	-18144
讶	-18145
て	-18146
鄞	-18147
矫	-18148
陌	-18149
琶	-18150
鸾	-18151
燮	-18152
崁	-18153
咎	-18154
陋	-18155
淤	-18156
カ	-18157
冉	-18158
垮	-18159
鸥	-18160
娴	-18161
醋	-18162
胥	-18163
跪	-18164
幂	-18165
笋	-18166
拷	-18167
鹫	-18168
証	-18169
â	-18170
恤	-18171
翊	-18172
锚	-18173
ç	-18174
壕	-18175
蒜	-18176
掳	-18177
痪	-18178
耦	-18179
沾	-18180
肛	-18181
蒐	-18182
ジ	-18183
稷	-18184
铠	-18185
桅	-18186
苇	-18187
ロ	-18188
悍	-18189
佚	-18190
毘	-18191
寰	-18192
あ	-18193
朽	-18194
殡	-18195
弈	-18196
憩	-18197
苛	-18198
瞿	-18199
卉	-18200
诫	-18201
拐	-18202
皱	-18203
笙	-18204
渲	-18205
篆	-18206
绛	-18207
蔑	-18208
钰	-18209
漕	-18210
珂	-18211
蕙	-18212
聆	-18213
诡	-18214
釉	-18215
峇	-18216
竿	-18217
揆	-18218
涧	-18219
悚	-18220
濮	-18221
莒	-18222
剃	-18223
懒	-18224
臼	-18225
侃	-18226
悄	-18227
汲	-18228
埕	-18229
啶	-18230
岂	-18231
铬	-18232
○	-18233
谤	-18234
颍	-18235
悖	-18236
闷	-18237
ち	-18238
荧	-18239
昙	-18240
糯	-18241
霰	-18242
孺	-18243
炽	-18244
骇	-18245
坍	-18246
昧	-18247
ε	-18248
饪	-18249
睐	-18250
驸	-18251
崭	-18252
帧	-18253
甥	-18254
苓	-18255
媚	-18256
簇	-18257
琰	-18258
臻	-18259
隼	-18260
衮	-18261
贮	-18262
杞	-18263
愁	-18264
掣	-18265
泷	-18266
盼	-18267
甬	-18268
骁	-18269
ο	-18270
ω	-18271
哆	-18272
芷	-18273
マ	-18274
铨	-18275
馏	-18276
捆	-18277
跆	-18278
褚	-18279
陂	-18280
疟	-18281
谒	-18282
蛱	-18283
昱	-18284
踩	-18285
毋	-18286
珪	-18287
攸	-18288
ド	-18289
傻	-18290
桧	-18291
聋	-18292
砷	-18293
镐	-18294
←	-18295
辕	-18296
г	-18297
僖	-18298
谚	-18299
琐	-18300
侗	-18301
撃	-18302
灼	-18303
烘	-18304
殆	-18305
鲽	-18306
じ	-18307
歪	-18308
硒	-18309
铵	-18310
妒	-18311
撼	-18312
皈	-18313
趟	-18314
葆	-18315
銮	-18316
挚	-18317
躁	-18318
遏	-18319
圻	-18320
傣	-18321
腻	-18322
侈	-18323
赈	-18324
椿	-18325
樵	-18326
畸	-18327
濬	-18328
绯	-18329
羧	-18330
茉	-18331
蜴	-18332
鳌	-18333
贻	-18334
ل	-18335
〇	-18336
レ	-18337
薹	-18338
ú	-18339
跤	-18340
褶	-18341
楔	-18342
瓯	-18343
±	-18344
雉	-18345
恳	-18346
筠	-18347
唸	-18348
铲	-18349
绢	-18350
锰	-18351
叡	-18352
瀚	-18353
卅	-18354
驴	-18355
魄	-18356
峯	-18357
潞	-18358
靳	-18359
瞳	-18360
倦	-18361
鳚	-18362
沅	-18363
媳	-18364
弩	-18365
脾	-18366
辍	-18367
ν	-18368
颊	-18369
ρ	-18370
à	-18371
浒	-18372
炜	-18373
匆	-18374
馅	-18375
勐	-18376
碉	-18377
桔	-18378
拌	-18379
捣	-18380
焘	-18381
圩	-18382
遴	-18383
栉	-18384
飙	-18385
圃	-18386
喃	-18387
耍	-18388
つ	-18389
呕	-18390
禀	-18391
潍	-18392
胱	-18393
τ	-18394
甦	-18395
肴	-18396
搅	-18397
喘	-18398
刁	-18399
愧	-18400
莘	-18401
杠	-18402
琮	-18403
迥	-18404
б	-18405
拂	-18406
澈	-18407
鹊	-18408
婢	-18409
も	-18410
窥	-18411
洮	-18412
躺	-18413
濂	-18414
颤	-18415
窜	-18416
哑	-18417
を	-18418
フ	-18419
铂	-18420
蚜	-18421
裳	-18422
姪	-18423
膺	-18424
й	-18425
琥	-18426
觐	-18427
诽	-18428
鳎	-18429
蚂	-18430
宸	-18431
菅	-18432
襟	-18433
槃	-18434
耸	-18435
浜	-18436
ô	-18437
轭	-18438
渎	-18439
朕	-18440
籽	-18441
荚	-18442
ミ	-18443
昨	-18444
辙	-18445
丫	-18446
遁	-18447
狠	-18448
蟒	-18449
邝	-18450
翎	-18451
邕	-18452
瑕	-18453
夔	-18454
猷	-18455
柿	-18456
潢	-18457
だ	-18458
乂	-18459
浇	-18460
蠕	-18461
蠢	-18462
洙	-18463
粥	-18464
冗	-18465
衅	-18466
吠	-18467
熵	-18468
晦	-18469
痴	-18470
で	-18471
枋	-18472
嫉	-18473
秽	-18474
れ	-18475
殭	-18476
筝	-18477
捡	-18478
ς	-18479
吼	-18480
妳	-18481
扈	-18482
钴	-18483
キ	-18484
僻	-18485
畑	-18486
豔	-18487
掖	-18488
骠	-18489
‰	-18490
エ	-18491
莪	-18492
溧	-18493
オ	-18494
弋	-18495
忻	-18496
逵	-18497
や	-18498
闾	-18499
俨	-18500
茛	-18501
ə	-18502
я	-18503
曳	-18504
疮	-18505
ι	-18506
螂	-18507
貂	-18508
忏	-18509
昕	-18510
瓒	-18511
奘	-18512
藔	-18513
唑	-18514
す	-18515
氹	-18516
阡	-18517
栎	-18518
惕	-18519
酥	-18520
岷	-18521
薑	-18522
斛	-18523
诀	-18524
榔	-18525
钏	-18526
絮	-18527
薨	-18528
羰	-18529
涤	-18530
孀	-18531
昶	-18532
谛	-18533
コ	-18534
拙	-18535
妊	-18536
☆	-18537
鲱	-18538
跻	-18539
剔	-18540
虢	-18541
蛟	-18542
逍	-18543
鮨	-18544
癫	-18545
捏	-18546
咳	-18547
弑	-18548
涿	-18549
醣	-18550
鹘	-18551
φ	-18552
っ	-18553
熄	-18554
渚	-18555
嶋	-18556
轼	-18557
巍	-18558
戛	-18559
偃	-18560
鸢	-18561
璜	-18562
佟	-18563
眺	-18564
栾	-18565
沌	-18566
樽	-18567
鸮	-18568
慷	-18569
叭	-18570
暇	-18571
宕	-18572
滦	-18573
佃	-18574
瑄	-18575
匝	-18576
巽	-18577
š	-18578
盏	-18579
孛	-18580
迺	-18581
囱	-18582
奄	-18583
扼	-18584
烽	-18585
颓	-18586
灏	-18587
璐	-18588
肘	-18589
螯	-18590
伎	-18591
叮	-18592
镛	-18593
阇	-18594
グ	-18595
煜	-18596
钨	-18597
砚	-18598
琏	-18599
ブ	-18600
郢	-18601
篱	-18602
荟	-18603
檗	-18604
坳	-18605
迂	-18606
歙	-18607
哗	-18608
贲	-18609
鄙	-18610
叻	-18611
馥	-18612
璇	-18613
蓼	-18614
髅	-18615
荥	-18616
尬	-18617
餵	-18618
讹	-18619
篠	-18620
缕	-18621
檎	-18622
沱	-18623
湳	-18624
黯	-18625
脖	-18626
掺	-18627
妲	-18628
氓	-18629
皿	-18630
诣	-18631
憎	-18632
颉	-18633
κ	-18634
炙	-18635
牒	-18636
璟	-18637
鞠	-18638
チ	-18639
涟	-18640
滔	-18641
仄	-18642
谯	-18643
ī	-18644
旻	-18645
惰	-18646
茫	-18647
擂	-18648
胪	-18649
咲	-18650
サ	-18651
昵	-18652
珲	-18653
麝	-18654
け	-18655
亵	-18656
峦	-18657
倘	-18658
婺	-18659
眶	-18660
鄱	-18661
骅	-18662
璞	-18663
骥	-18664
炔	-18665
匮	-18666
镕	-18667
丐	-18668
钳	-18669
榨	-18670
瞰	-18671
ナ	-18672
懈	-18673
ы	-18674
ن	-18675
荼	-18676
涪	-18677
骷	-18678
尻	-18679
浔	-18680
碁	-18681
抖	-18682
艋	-18683
挨	-18684
蝗	-18685
劈	-18686
缎	-18687
舺	-18688
呀	-18689
啄	-18690
怠	-18691
磋	-18692
θ	-18693
嗅	-18694
拇	-18695
テ	-18696
歳	-18697
掸	-18698
祉	-18699
ч	-18700
尴	-18701
麴	-18702
ウ	-18703
槓	-18704
蘑	-18705
婕	-18706
稼	-18707
玟	-18708
ム	-18709
潇	-18710
缙	-18711
呐	-18712
哮	-18713
旌	-18714
嫂	-18715
唔	-18716
^	-18717
ر	-18718
纥	-18719
卞	-18720
ь	-18721
汛	-18722
劭	-18723
岖	-18724
з	-18725
酗	-18726
鲫	-18727
咐	-18728
秤	-18729
デ	-18730
パ	-18731
撇	-18732
屎	-18733
蠍	-18734
诲	-18735
亘	-18736
ャ	-18737
酌	-18738
骧	-18739
饵	-18740
鳖	-18741
よ	-18742
わ	-18743
崧	-18744
淦	-18745
乖	-18746
祜	-18747
亢	-18748
熏	-18749
嚣	-18750
铿	-18751
罂	-18752
艏	-18753
ひ	-18754
绊	-18755
ょ	-18756
蝽	-18757
覃	-18758
佗	-18759
槿	-18760
赃	-18761
凋	-18762
嬉	-18763
å	-18764
ê	-18765
ñ	-18766
柚	-18767
蚬	-18768
睢	-18769
珉	-18770
唆	-18771
睾	-18772
プ	-18773
螈	-18774
醮	-18775
贰	-18776
睽	-18777
讥	-18778
葺	-18779
躬	-18780
枭	-18781
鱇	-18782
ィ	-18783
嗓	-18784
岘	-18785
佘	-18786
咕	-18787
ë	-18788
犍	-18789
鵰	-18790
嬴	-18791
蝨	-18792
η	-18793
笈	-18794
冼	-18795
癖	-18796
娠	-18797
魮	-18798
彷	-18799
泓	-18800
迳	-18801
え	-18802
蝎	-18803
痒	-18804
滁	-18805
鬣	-18806
鮟	-18807
谔	-18808
靓	-18809
ニ	-18810
阗	-18811
锑	-18812
髻	-18813
ø	-18814
纾	-18815
バ	-18816
粲	-18817
査	-18818
钗	-18819
●	-18820
瓮	-18821
痫	-18822
遐	-18823
羯	-18824
ハ	-18825
碌	-18826
ي	-18827
铯	-18828
鹛	-18829
堑	-18830
蜱	-18831
喆	-18832
烨	-18833
凳	-18834
恬	-18835
澡	-18836
惶	-18837
鸫	-18838
羹	-18839
耽	-18840
聿	-18841
徘	-18842
熬	-18843
ʁ	-18844
堺	-18845
橇	-18846
墘	-18847
槭	-18848
柩	-18849
徊	-18850
甩	-18851
兮	-18852
槌	-18853
浣	-18854
脩	-18855
鲆	-18856
泮	-18857
歹	-18858
蕈	-18859
摹	-18860
醯	-18861
寥	-18862
鳢	-18863
踝	-18864
轶	-18865
湍	-18866
漩	-18867
ß	-18868
燧	-18869
亳	-18870
灸	-18871
秧	-18872
筱	-18873
玖	-18874
愍	-18875
烁	-18876
忱	-18877
淖	-18878
苳	-18879
م	-18880
渍	-18881
叩	-18882
腋	-18883
窖	-18884
梢	-18885
鲿	-18886
龈	-18887
ガ	-18888
缢	-18889
蒴	-18890
窘	-18891
锭	-18892
澧	-18893
俏	-18894
怯	-18895
捻	-18896
讫	-18897
羨	-18898
赓	-18899
洵	-18900
ō	-18901
惇	-18902
漱	-18903
窒	-18904
郴	-18905
蟠	-18906
ろ	-18907
鸯	-18908
撮	-18909
荻	-18910
铳	-18911
喂	-18912
娩	-18913
疵	-18914
筲	-18915
崴	-18916
弛	-18917
垅	-18918
寞	-18919
骰	-18920
č	-18921
ダ	-18922
悯	-18923
杵	-18924
氙	-18925
珮	-18926
脐	-18927
藜	-18928
镳	-18929
ュ	-18930
屁	-18931
簷	-18932
琨	-18933
甯	-18934
洱	-18935
僭	-18936
珑	-18937
桁	-18938
鼩	-18939
唾	-18940
钍	-18941
妤	-18942
胄	-18943
呤	-18944
碇	-18945
蓓	-18946
蜕	-18947
蔻	-18948
鼐	-18949
狡	-18950
痊	-18951
碾	-18952
肄	-18953
メ	-18954
呜	-18955
晷	-18956
轧	-18957
凛	-18958
脇	-18959
筵	-18960
钼	-18961
鸳	-18962
ビ	-18963
锄	-18964
و	-18965
戳	-18966
俑	-18967
邬	-18968
茧	-18969
慑	-18970
溅	-18971
せ	-18972
晔	-18973
畠	-18974
脷	-18975
攘	-18976
堃	-18977
宥	-18978
拣	-18979
胫	-18980
邳	-18981
娼	-18982
歆	-18983
缇	-18984
踞	-18985
ɛ	-18986
榉	-18987
毡	-18988
盂	-18989
娑	-18990
阉	-18991
钺	-18992
箴	-18993
姥	-18994
掏	-18995
闇	-18996
挛	-18997
琢	-18998
鞅	-18999
嚼	-19000
猕	-19001
揉	-19002
楹	-19003
烫	-19004
驭	-19005
楣	-19006
⁄	-19007
叟	-19008
燊	-19009
铮	-19010
诹	-19011
絃	-19012
筏	-19013
挞	-19014
谪	-19015
疣	-19016
煦	-19017
闺	-19018
橱	-19019
绚	-19020
孽	-19021
矗	-19022
骊	-19023
枉	-19024
榛	-19025
璘	-19026
俳	-19027
珈	-19028
荠	-19029
辄	-19030
恃	-19031
蜻	-19032
钡	-19033
罔	-19034
扒	-19035
荨	-19036
逅	-19037
鲛	-19038
疡	-19039
琬	-19040
蜓	-19041
邂	-19042
氾	-19043
猝	-19044
隽	-19045
嘌	-19046
驮	-19047
婪	-19048
腱	-19049
悫	-19050
铢	-19051
鲹	-19052
箔	-19053
鱿	-19054
炱	-19055
め	-19056
珞	-19057
粽	-19058
瞎	-19059
铍	-19060
镭	-19061
缨	-19062
锟	-19063
辫	-19064
蝰	-19065
澍	-19066
酝	-19067
嘧	-19068
茸	-19069
蕲	-19070
ェ	-19071
榻	-19072
獭	-19073
钚	-19074
霑	-19075
雒	-19076
彧	-19077
荪	-19078
霓	-19079
咙	-19080
阆	-19081
蚓	-19082
榭	-19083
侷	-19084
肱	-19085
檄	-19086
畲	-19087
嬷	-19088
岙	-19089
抉	-19090
爹	-19091
莅	-19092
谿	-19093
鹟	-19094
岌	-19095
ē	-19096
ゅ	-19097
佼	-19098
拮	-19099
钹	-19100
糸	-19101
菠	-19102
勖	-19103
祗	-19104
镉	-19105
鹬	-19106
ū	-19107
俐	-19108
啮	-19109
鹳	-19110
腈	-19111
锢	-19112
庑	-19113
赉	-19114
粱	-19115
懦	-19116
脓	-19117
»	-19118
罄	-19119
虱	-19120
鮠	-19121
焙	-19122
纣	-19123
溼	-19124
噜	-19125
沔	-19126
谳	-19127
モ	-19128
螨	-19129
姗	-19130
栃	-19131
ã	-19132
佤	-19133
铰	-19134
匕	-19135
滘	-19136
夯	-19137
戡	-19138
腭	-19139
赘	-19140
х	-19141
弔	-19142
醍	-19143
ب	-19144
烙	-19145
杲	-19146
吩	-19147
硖	-19148
菀	-19149
帚	-19150
诟	-19151
骈	-19152
锷	-19153
矾	-19154
鹈	-19155
⋯	-19156
恽	-19157
蛹	-19158
獾	-19159
蛎	-19160
豌	-19161
郧	-19162
鲗	-19163
嬅	-19164
栩	-19165
迩	-19166
喧	-19167
殇	-19168
艉	-19169
疽	-19170
佰	-19171
俚	-19172
哔	-19173
蹲	-19174
弁	-19175
洄	-19176
羣	-19177
蠡	-19178
噩	-19179
暧	-19180
醃	-19181
醴	-19182
钒	-19183
瑠	-19184
寛	-19185
芎	-19186
氐	-19187
啼	-19188
鮡	-19189
勺	-19190
紊	-19191
骞	-19192
媲	-19193
漾	-19194
疚	-19195
î	-19196
炖	-19197
醐	-19198
ズ	-19199
垢	-19200
瑭	-19201
疤	-19202
蛭	-19203
觊	-19204
黍	-19205
鲲	-19206
痉	-19207
鳝	-19208
脍	-19209
颢	-19210
蜈	-19211
鄢	-19212
遽	-19213
犊	-19214
羔	-19215
膦	-19216
蛊	-19217
疱	-19218
ł	-19219
烬	-19220
铋	-19221
鳟	-19222
鬃	-19223
鱲	-19224
峒	-19225
彿	-19226
悌	-19227
饺	-19228
儁	-19229
嫖	-19230
酐	-19231
蚣	-19232
眩	-19233
æ	-19234
厮	-19235
瑁	-19236
轸	-19237
嗽	-19238
钯	-19239
呵	-19240
纭	-19241
«	-19242
徕	-19243
戦	-19244
瓘	-19245
糜	-19246
螳	-19247
徳	-19248
恂	-19249
涝	-19250
ど	-19251
漓	-19252
褫	-19253
鄚	-19254
ゆ	-19255
琊	-19256
镧	-19257
ć	-19258
佯	-19259
惮	-19260
杓	-19261
靛	-19262
鲂	-19263
苋	-19264
鲡	-19265
咯	-19266
萩	-19267
ц	-19268
甕	-19269
俪	-19270
孪	-19271
袒	-19272
栢	-19273
昀	-19274
ı	-19275
峤	-19276
柘	-19277
诘	-19278
υ	-19279
憬	-19280
玑	-19281
颔	-19282
庠	-19283
猬	-19284
皎	-19285
珩	-19286
繇	-19287
昴	-19288
揣	-19289
稔	-19290
绽	-19291
诩	-19292
殁	-19293
舫	-19294
邛	-19295
이	-19296
俟	-19297
骡	-19298
ノ	-19299
谗	-19300
鯙	-19301
鲳	-19302
痺	-19303
茴	-19304
ш	-19305
≤	-19306
漪	-19307
珥	-19308
―	-19309
祢	-19310
鼹	-19311
甾	-19312
帷	-19313
汹	-19314
凄	-19315
蜍	-19316
鸵	-19317
螃	-19318
ŋ	-19319
殓	-19320
ゃ	-19321
湟	-19322
筷	-19323
敍	-19324
沭	-19325
辻	-19326
蝮	-19327
娣	-19328
菏	-19329
戸	-19330
湮	-19331
赟	-19332
铣	-19333
颙	-19334
囉	-19335
歎	-19336
谌	-19337
掾	-19338
焯	-19339
赡	-19340
痘	-19341
缵	-19342
铊	-19343
ζ	-19344
瑯	-19345
蔺	-19346
驷	-19347
遶	-19348
镠	-19349
そ	-19350
觎	-19351
韭	-19352
羡	-19353
锆	-19354
隗	-19355
睫	-19356
د	-19357
ツ	-19358
咄	-19359
廍	-19360
祎	-19361
淅	-19362
癡	-19363
镌	-19364
阈	-19365
箫	-19366
嫦	-19367
痰	-19368
隈	-19369
郦	-19370
笺	-19371
蠔	-19372
逞	-19373
ご	-19374
嵊	-19375
萸	-19376
ば	-19377
瓢	-19378
喵	-19379
㑩	-19380
珅	-19381
匐	-19382
癣	-19383
斟	-19384
拚	-19385
摒	-19386
耘	-19387
顗	-19388
垭	-19389
睁	-19390
憧	-19391
裨	-19392
顼	-19393
闫	-19394
诋	-19395
晁	-19396
ㄧ	-19397
惫	-19398
邾	-19399
厩	-19400
靺	-19401
郤	-19402
嵇	-19403
★	-19404
璿	-19405
趴	-19406
盯	-19407
簪	-19408
踊	-19409
ョ	-19410
邃	-19411
阖	-19412
阑	-19413
郓	-19414
鞨	-19415
邠	-19416
涸	-19417
様	-19418
鲭	-19419
锗	-19420
扛	-19421
啉	-19422
邈	-19423
闳	-19424
辇	-19425
ワ	-19426
勅	-19427
涣	-19428
馒	-19429
亟	-19430
渺	-19431
砦	-19432
剷	-19433
廪	-19434
霁	-19435
绷	-19436
鲻	-19437
س	-19438
诒	-19439
栱	-19440
瑗	-19441
荞	-19442
霾	-19443
奭	-19444
幔	-19445
垛	-19446
鲇	-19447
侥	-19448
撷	-19449
柝	-19450
糠	-19451
嘘	-19452
ɔ	-19453
锕	-19454
鲟	-19455
嫣	-19456
嵯	-19457
涕	-19458
瘠	-19459
縻	-19460
屹	-19461
偈	-19462
咱	-19463
囤	-19464
奂	-19465
蒯	-19466
饬	-19467
猖	-19468
澹	-19469
蹦	-19470
攒	-19471
胭	-19472
忿	-19473
ふ	-19474
郯	-19475
猥	-19476
闿	-19477
匍	-19478
辎	-19479
髦	-19480
玳	-19481
ず	-19482
褪	-19483
桀	-19484
乩	-19485
榷	-19486
炊	-19487
砥	-19488
锵	-19489
砺	-19490
箍	-19491
萘	-19492
­	-19493
孰	-19494
牍	-19495
碲	-19496
玠	-19497
県	-19498
ś	-19499
晞	-19500
琇	-19501
澂	-19502
盱	-19503
笏	-19504
刍	-19505
ほ	-19506
郗	-19507
帑	-19508
梶	-19509
璠	-19510
锜	-19511
怂	-19512
恿	-19513
肮	-19514
钇	-19515
専	-19516
棻	-19517
綦	-19518
痢	-19519
铷	-19520
浬	-19521
珙	-19522
妞	-19523
璨	-19524
đ	-19525
锶	-19526
า	-19527
哄	-19528
拗	-19529
ж	-19530
稗	-19531
轲	-19532
ा	-19533
珣	-19534
茗	-19535
铐	-19536
獠	-19537
腌	-19538
苌	-19539
䌽	-19540
榘	-19541
儋	-19542
犛	-19543
恙	-19544
珏	-19545
暐	-19546
鄯	-19547
्	-19548
蒨	-19549
娲	-19550
砵	-19551
谙	-19552
豺	-19553
鵙	-19554
瀬	-19555
腮	-19556
诙	-19557
尕	-19558
璀	-19559
蛰	-19560
岫	-19561
燬	-19562
痹	-19563
逛	-19564
セ	-19565
俺	-19566
漯	-19567
翩	-19568
蔼	-19569
込	-19570
镓	-19571
菈	-19572
藕	-19573
枷	-19574
涓	-19575
壑	-19576
煲	-19577
缤	-19578
谑	-19579
郃	-19580
齧	-19581
唁	-19582
槻	-19583
毎	-19584
薙	-19585
ぶ	-19586
嚐	-19587
む	-19588
汜	-19589
苴	-19590
鳐	-19591
э	-19592
湃	-19593
濡	-19594
ی	-19595
煊	-19596
碓	-19597
麋	-19598
刈	-19599
墉	-19600
惭	-19601
ˈ	-19602
呛	-19603
涞	-19604
谶	-19605
忤	-19606
爨	-19607
窍	-19608
铆	-19609
ケ	-19610
塭	-19611
猾	-19612
讧	-19613
蝾	-19614
谧	-19615
歴	-19616
疃	-19617
陟	-19618
耒	-19619
踵	-19620
鹑	-19621
呋	-19622
憨	-19623
陲	-19624
ァ	-19625
笹	-19626
菟	-19627
咆	-19628
圜	-19629
敎	-19630
颞	-19631
秆	-19632
肼	-19633
铌	-19634
陉	-19635
鹕	-19636
ع	-19637
ร	-19638
蝌	-19639
镒	-19640
绾	-19641
蟑	-19642
嵋	-19643
楫	-19644
珐	-19645
铟	-19646
霏	-19647
燎	-19648
眙	-19649
砀	-19650
瑀	-19651
ð	-19652
ί	-19653
́	-19654
蚪	-19655
鎗	-19656
阂	-19657
喱	-19658
揪	-19659
蝓	-19660
镂	-19661
楯	-19662
蛞	-19663
ね	-19664
愫	-19665
桡	-19666
薮	-19667
讣	-19668
鹗	-19669
橐	-19670
胧	-19671
坯	-19672
氘	-19673
氪	-19674
钤	-19675
鲔	-19676
猗	-19677
豊	-19678
焜	-19679
雹	-19680
嶷	-19681
徭	-19682
恣	-19683
∈	-19684
蜚	-19685
赭	-19686
ž	-19687
旸	-19688
歩	-19689
ネ	-19690
蹇	-19691
ت	-19692
姫	-19693
煇	-19694
锉	-19695
ボ	-19696
耙	-19697
荖	-19698
χ	-19699
䜣	-19700
嘶	-19701
ぐ	-19702
芩	-19703
ˋ	-19704
啬	-19705
睇	-19706
剽	-19707
喹	-19708
碛	-19709
苎	-19710
藐	-19711
阯	-19712
ă	-19713
俶	-19714
®	-19715
ş	-19716
་	-19717
峠	-19718
坵	-19719
瞪	-19720
绀	-19721
朐	-19722
滂	-19723
龢	-19724
侑	-19725
俣	-19726
殃	-19727
嗪	-19728
翱	-19729
橹	-19730
菓	-19731
醌	-19732
挹	-19733
彊	-19734
桉	-19735
獗	-19736
菖	-19737
昉	-19738
睪	-19739
铱	-19740
勗	-19741
旃	-19742
贽	-19743
锴	-19744
粿	-19745
蹼	-19746
哌	-19747
睑	-19748
虬	-19749
黒	-19750
碣	-19751
纮	-19752
膑	-19753
汨	-19754
炅	-19755
痞	-19756
蹂	-19757
铼	-19758
翦	-19759
莿	-19760
蟆	-19761
崂	-19762
揖	-19763
蚵	-19764
宓	-19765
旼	-19766
獐	-19767
篙	-19768
脯	-19769
ザ	-19770
倻	-19771
孖	-19772
椽	-19773
瘀	-19774
脲	-19775
י	-19776
潦	-19777
纫	-19778
坨	-19779
捩	-19780
祟	-19781
ه	-19782
坷	-19783
氩	-19784
砜	-19785
恸	-19786
竑	-19787
ά	-19788
觞	-19789
ポ	-19790
楸	-19791
骐	-19792
曷	-19793
朦	-19794
綝	-19795
蚩	-19796
鳔	-19797
僳	-19798
蚺	-19799
魟	-19800
鹄	-19801
侪	-19802
沣	-19803
藨	-19804
嘟	-19805
躏	-19806
钿	-19807
卍	-19808
玷	-19809
颛	-19810
ゲ	-19811
婶	-19812
ф	-19813
吝	-19814
羿	-19815
蜷	-19816
辊	-19817
鳀	-19818
埭	-19819
槎	-19820
र	-19821
∞	-19822
暄	-19823
霭	-19824
嘅	-19825
晗	-19826
暠	-19827
≥	-19828
僮	-19829
恍	-19830
氡	-19831
傈	-19832
哼	-19833
噻	-19834
碚	-19835
铈	-19836
椁	-19837
芗	-19838
ゴ	-19839
稹	-19840
鹞	-19841
凪	-19842
褂	-19843
诂	-19844
跖	-19845
钽	-19846
弭	-19847
缜	-19848
惺	-19849
袄	-19850
輋	-19851
ぎ	-19852
冑	-19853
泞	-19854
і	-19855
惋	-19856
梆	-19857
闩	-19858
扉	-19859
葶	-19860
墀	-19861
拴	-19862
萜	-19863
蚶	-19864
ό	-19865
嘿	-19866
淝	-19867
芍	-19868
伉	-19869
窿	-19870
跷	-19871
夙	-19872
氚	-19873
筊	-19874
蚯	-19875
蹊	-19876
辘	-19877
ソ	-19878
佞	-19879
爰	-19880
箬	-19881
髯	-19882
洺	-19883
缄	-19884
芪	-19885
ˊ	-19886
畈	-19887
ギ	-19888
杷	-19889
笞	-19890
阚	-19891
ψ	-19892
び	-19893
狒	-19894
蹠	-19895
郜	-19896
ピ	-19897
寔	-19898
怛	-19899
灞	-19900
関	-19901
擘	-19902
楝	-19903
ò	-19904
傕	-19905
汎	-19906
锹	-19907
驒	-19908
¥	-19909
愔	-19910
玘	-19911
苄	-19912
蜑	-19913
崽	-19914
锝	-19915
妫	-19916
戾	-19917
穰	-19918
菴	-19919
蜃	-19920
豉	-19921
辂	-19922
ו	-19923
臆	-19924
禛	-19925
铕	-19926
勣	-19927
玥	-19928
瑷	-19929
膊	-19930
簋	-19931
酆	-19932
溟	-19933
芾	-19934
跗	-19935
ː	-19936
垠	-19937
椴	-19938
訇	-19939
沢	-19940
搓	-19941
迤	-19942
鄜	-19943
嚎	-19944
枇	-19945
柃	-19946
樋	-19947
牯	-19948
砧	-19949
û	-19950
ヤ	-19951
晾	-19952
舂	-19953
리	-19954
塬	-19955
蒾	-19956
袂	-19957
魇	-19958
囓	-19959
惣	-19960
蹴	-19961
韫	-19962
裟	-19963
镯	-19964
ベ	-19965
倬	-19966
巻	-19967
璩	-19968
箇	-19969
籁	-19970
蛄	-19971
愕	-19972
揄	-19973
涎	-19974
沆	-19975
藁	-19976
†	-19977
躄	-19978
麂	-19979
眞	-19980
袈	-19981
讪	-19982
ï	-19983
ξ	-19984
へ	-19985
啜	-19986
帼	-19987
搔	-19988
嵙	-19989
น	-19990
拭	-19991
袱	-19992
鞮	-19993
鲮	-19994
刽	-19995
孃	-19996
琚	-19997
蓁	-19998
趸	-19999
飨	-20000
泫	-20001
淼	-20002
疝	-20003
袤	-20004
嗡	-20005
崮	-20006
げ	-20007
ヒ	-20008
垓	-20009
拽	-20010
洹	-20011
`	-20012
綑	-20013
蘸	-20014
埴	-20015
増	-20016
飒	-20017
鮈	-20018
蟀	-20019
謇	-20020
廨	-20021
濯	-20022
秣	-20023
楂	-20024
槲	-20025
岀	-20026
毬	-20027
缬	-20028
铛	-20029
ح	-20030
祛	-20031
筐	-20032
吲	-20033
喔	-20034
矜	-20035
譁	-20036
菝	-20037
ý	-20038
敝	-20039
晩	-20040
眈	-20041
ʃ	-20042
蹶	-20043
亶	-20044
瞧	-20045
蜢	-20046
刎	-20047
舔	-20048
鮄	-20049
僊	-20050
峥	-20051
轫	-20052
郅	-20053
寐	-20054
ホ	-20055
姒	-20056
沓	-20057
淌	-20058
蟋	-20059
鲎	-20060
鸬	-20061
ю	-20062
佶	-20063
傉	-20064
焗	-20065
蛸	-20066
樫	-20067
瓌	-20068
荳	-20069
蔵	-20070
哚	-20071
揶	-20072
泠	-20073
篝	-20074
遹	-20075
咫	-20076
葭	-20077
哒	-20078
腑	-20079
冏	-20080
杼	-20081
貘	-20082
钐	-20083
铧	-20084
ì	-20085
礽	-20086
罡	-20087
褓	-20088
镝	-20089
馗	-20090
佺	-20091
嗝	-20092
氖	-20093
滢	-20094
鹚	-20095
ù	-20096
徇	-20097
邽	-20098
鼱	-20099
ḥ	-20100
ペ	-20101
刨	-20102
眨	-20103
隰	-20104
鎏	-20105
芈	-20106
鬬	-20107
哦	-20108
棂	-20109
蓑	-20110
̇	-20111
ة	-20112
◎	-20113
圹	-20114
澶	-20115
萦	-20116
蓣	-20117
跛	-20118
冇	-20119
咁	-20120
狈	-20121
茁	-20122
邰	-20123
ń	-20124
嵘	-20125
榎	-20126
缭	-20127
昺	-20128
ざ	-20129
畹	-20130
磘	-20131
钸	-20132
劵	-20133
犒	-20134
瘴	-20135
苾	-20136
鯓	-20137
镗	-20138
峄	-20139
滏	-20140
疙	-20141
瘩	-20142
隷	-20143
鲣	-20144
発	-20145
髋	-20146
丶	-20147
兢	-20148
淬	-20149
溱	-20150
牦	-20151
葜	-20152
诤	-20153
箐	-20154
啃	-20155
犸	-20156
伫	-20157
傚	-20158
壅	-20159
枞	-20160
樾	-20161
簸	-20162
蔴	-20163
飚	-20164
璁	-20165
菰	-20166
喋	-20167
鏖	-20168
嵬	-20169
胛	-20170
蠹	-20171
钕	-20172
囍	-20173
泚	-20174
牴	-20175
荩	-20176
仡	-20177
疍	-20178
↔	-20179
嘢	-20180
汊	-20181
ق	-20182
佢	-20183
坌	-20184
獴	-20185
糅	-20186
铤	-20187
捶	-20188
柞	-20189
皝	-20190
箓	-20191
穂	-20192
繙	-20193
鸲	-20194
勲	-20195
皙	-20196
霈	-20197
咭	-20198
廸	-20199
怿	-20200
椋	-20201
犰	-20202
苜	-20203
鸪	-20204
ư	-20205
啾	-20206
囿	-20207
嵴	-20208
撬	-20209
爻	-20210
萁	-20211
蘅	-20212
髹	-20213
噗	-20214
誊	-20215
谩	-20216
唢	-20217
舯	-20218
莴	-20219
侂	-20220
搪	-20221
磕	-20222
粑	-20223
褥	-20224
阏	-20225
塱	-20226
蔘	-20227
藿	-20228
蛀	-20229
咩	-20230
喫	-20231
燻	-20232
狳	-20233
巯	-20234
毌	-20235
闼	-20236
ě	-20237
倣	-20238
郫	-20239
锇	-20240
ش	-20241
圪	-20242
婧	-20243
恵	-20244
蛳	-20245
酣	-20246
ก	-20247
อ	-20248
媾	-20249
鹌	-20250
M	-20251
ั	-20252
攫	-20253
磾	-20254
鲢	-20255
弢	-20256
懊	-20257
祆	-20258
黻	-20259
ج	-20260
เ	-20261
冴	-20262
唧	-20263
姝	-20264
疋	-20265
蓿	-20266
呗	-20267
榫	-20268
郷	-20269
锔	-20270
闱	-20271
‖	-20272
円	-20273
孳	-20274
掐	-20275
疸	-20276
脣	-20277
饯	-20278
T	-20279
ˇ	-20280
劢	-20281
坻	-20282
嶂	-20283
棨	-20284
楽	-20285
榊	-20286
磬	-20287
荤	-20288
仝	-20289
犷	-20290
ย	-20291
鹧	-20292
鹩	-20293
ف	-20294
ㄨ	-20295
勰	-20296
焓	-20297
窈	-20298
佾	-20299
殒	-20300
苫	-20301
镫	-20302
馑	-20303
鲬	-20304
枱	-20305
栒	-20306
膈	-20307
苕	-20308
葩	-20309
逖	-20310
지	-20311
泯	-20312
舘	-20313
钌	-20314
þ	-20315
婵	-20316
拈	-20317
砻	-20318
ה	-20319
ม	-20320
ヴ	-20321
熠	-20322
邙	-20323
铑	-20324
鵟	-20325
鹀	-20326
痲	-20327
ʔ	-20328
柽	-20329
抟	-20330
谄	-20331
다	-20332
아	-20333
枸	-20334
槙	-20335
狨	-20336
莳	-20337
鼯	-20338
伕	-20339
哙	-20340
̃	-20341
咝	-20342
囧	-20343
搐	-20344
缗	-20345
葳	-20346
鉄	-20347
έ	-20348
ъ	-20349
䲗	-20350
瓩	-20351
罟	-20352
翳	-20353
凫	-20354
洸	-20355
芊	-20356
ि	-20357
△	-20358
悸	-20359
隣	-20360
ง	-20361
仞	-20362
伝	-20363
倔	-20364
胳	-20365
菘	-20366
蛆	-20367
蛏	-20368
鱚	-20369
塩	-20370
羸	-20371
蹬	-20372
駄	-20373
骘	-20374
न	-20375
沩	-20376
蒽	-20377
㹴	-20378
瓠	-20379
钋	-20380
雎	-20381
牂	-20382
蜊	-20383
酢	-20384
া	-20385
屌	-20386
溲	-20387
べ	-20388
硐	-20389
锾	-20390
麸	-20391
缈	-20392
薏	-20393
讴	-20394
赜	-20395
倜	-20396
姉	-20397
绂	-20398
螫	-20399
颏	-20400
燿	-20401
舛	-20402
趺	-20403
铪	-20404
颧	-20405
사	-20406
ك	-20407
乜	-20408
仟	-20409
榖	-20410
蚋	-20411
髑	-20412
鹋	-20413
溆	-20414
甑	-20415
噱	-20416
惘	-20417
梿	-20418
焱	-20419
蠵	-20420
鄄	-20421
ぼ	-20422
桤	-20423
炘	-20424
玹	-20425
缰	-20426
黝	-20427
대	-20428
唛	-20429
瘿	-20430
嘈	-20431
崃	-20432
捅	-20433
稙	-20434
黟	-20435
ㄚ	-20436
睬	-20437
骋	-20438
김	-20439
毂	-20440
簕	-20441
赝	-20442
麿	-20443
俎	-20444
埸	-20445
胯	-20446
가	-20447
烩	-20448
瑱	-20449
阊	-20450
ר	-20451
湜	-20452
炕	-20453
鋂	-20454
馔	-20455
ɪ	-20456
ユ	-20457
戬	-20458
砭	-20459
苈	-20460
镱	-20461
ز	-20462
俦	-20463
呱	-20464
尙	-20465
怙	-20466
扦	-20467
ɑ	-20468
効	-20469
捺	-20470
痣	-20471
钫	-20472
ى	-20473
≠	-20474
稃	-20475
鞣	-20476
ή	-20477
実	-20478
扪	-20479
鬨	-20480
鸱	-20481
ğ	-20482
א	-20483
呦	-20484
酊	-20485
鸸	-20486
吮	-20487
尪	-20488
拧	-20489
绌	-20490
螭	-20491
鬓	-20492
抡	-20493
燄	-20494
驩	-20495
龑	-20496
ա	-20497
嗟	-20498
笆	-20499
胝	-20500
荽	-20501
虻	-20502
َ	-20503
啥	-20504
噌	-20505
掴	-20506
炤	-20507
砰	-20508
磴	-20509
鋆	-20510
卹	-20511
渑	-20512
琯	-20513
痔	-20514
祏	-20515
舎	-20516
鸻	-20517
ṣ	-20518
柊	-20519
湫	-20520
阕	-20521
鰧	-20522
म	-20523
呸	-20524
嫚	-20525
耜	-20526
鹂	-20527
黼	-20528
정	-20529
■	-20530
镞	-20531
颎	-20532
ą	-20533
卬	-20534
幪	-20535
玆	-20536
窰	-20537
荏	-20538
郇	-20539
¬	-20540
ิ	-20541
剁	-20542
郾	-20543
頫	-20544
鬻	-20545
拏	-20546
柒	-20547
濉	-20548
谀	-20549
鬲	-20550
œ	-20551
ל	-20552
㓥	-20553
濶	-20554
粧	-20555
啰	-20556
壆	-20557
徨	-20558
鱀	-20559
偲	-20560
喰	-20561
笕	-20562
锫	-20563
埂	-20564
钪	-20565
鲃	-20566
鸨	-20567
仃	-20568
垌	-20569
姣	-20570
榧	-20571
肟	-20572
ส	-20573
珽	-20574
莼	-20575
讦	-20576
逹	-20577
啲	-20578
嬛	-20579
蕤	-20580
하	-20581
한	-20582
ύ	-20583
剡	-20584
塽	-20585
芃	-20586
茔	-20587
郏	-20588
의	-20589
嗲	-20590
埒	-20591
ว	-20592
嘏	-20593
団	-20594
孑	-20595
缯	-20596
裱	-20597
逋	-20598
त	-20599
嗨	-20600
圮	-20601
嶝	-20602
廆	-20603
绦	-20604
舢	-20605
饕	-20606
͡	-20607
ṭ	-20608
圉	-20609
湣	-20610
瀞	-20611
罘	-20612
ř	-20613
堉	-20614
枥	-20615
珺	-20616
诧	-20617
豨	-20618
骜	-20619
鬟	-20620
儆	-20621
対	-20622
ɕ	-20623
∶	-20624
劻	-20625
擧	-20626
癞	-20627
翥	-20628
諲	-20629
嶙	-20630
昪	-20631
क	-20632
ṇ	-20633
芫	-20634
蛉	-20635
骢	-20636
魣	-20637
்	-20638
睺	-20639
跸	-20640
ㄇ	-20641
傩	-20642
哏	-20643
巂	-20644
秭	-20645
総	-20646
缑	-20647
莨	-20648
≈	-20649
咗	-20650
屐	-20651
戋	-20652
狛	-20653
詧	-20654
鄣	-20655
▲	-20656
溏	-20657
豳	-20658
어	-20659
嚏	-20660
阋	-20661
성	-20662
纨	-20663
雩	-20664
鬘	-20665
屉	-20666
沄	-20667
濞	-20668
砹	-20669
기	-20670
哋	-20671
墬	-20672
栻	-20673
畬	-20674
胍	-20675
谲	-20676
라	-20677
呻	-20678
廕	-20679
撩	-20680
浃	-20681
浯	-20682
炆	-20683
绡	-20684
♭	-20685
々	-20686
ォ	-20687
煚	-20688
窕	-20689
璎	-20690
碶	-20691
腩	-20692
褔	-20693
鄠	-20694
鮗	-20695
鯻	-20696
鲵	-20697
鹎	-20698
♪	-20699
叁	-20700
坭	-20701
涮	-20702
蓖	-20703
辺	-20704
铄	-20705
飏	-20706
樗	-20707
觋	-20708
訚	-20709
雑	-20710
呷	-20711
晸	-20712
郛	-20713
恫	-20714
煨	-20715
骝	-20716
나	-20717
ש	-20718
枳	-20719
渌	-20720
盥	-20721
鉲	-20722
铽	-20723
憍	-20724
篾	-20725
翀	-20726
鑛	-20727
ゼ	-20728
啪	-20729
宍	-20730
昐	-20731
滉	-20732
濊	-20733
璈	-20734
蓆	-20735
邗	-20736
猞	-20737
祔	-20738
箧	-20739
粕	-20740
豢	-20741
邡	-20742
颕	-20743
炁	-20744
荛	-20745
蹋	-20746
掰	-20747
浈	-20748
熨	-20749
猁	-20750
芡	-20751
鋐	-20752
頼	-20753
馁	-20754
鱥	-20755
娓	-20756
浍	-20757
迢	-20758
서	-20759
स	-20760
戕	-20761
ʻ	-20762
מ	-20763
戢	-20764
槊	-20765
缟	-20766
翕	-20767
耨	-20768
锽	-20769
镬	-20770
ё	-20771
匏	-20772
揹	-20773
搀	-20774
蒺	-20775
饨	-20776
주	-20777
づ	-20778
忡	-20779
惚	-20780
栀	-20781
痤	-20782
镨	-20783
馄	-20784
ǎ	-20785
ท	-20786
焖	-20787
谠	-20788
鉏	-20789
प	-20790
咚	-20791
哎	-20792
崆	-20793
昰	-20794
瑊	-20795
碴	-20796
臾	-20797
蠊	-20798
诜	-20799
赊	-20800
钷	-20801
俵	-20802
咧	-20803
楙	-20804
瘁	-20805
笳	-20806
縁	-20807
茌	-20808
踹	-20809
酞	-20810
峋	-20811
狎	-20812
瑈	-20813
舾	-20814
荸	-20815
莠	-20816
豸	-20817
驺	-20818
髂	-20819
鳊	-20820
槺	-20821
禩	-20822
腴	-20823
遒	-20824
่	-20825
浐	-20826
窠	-20827
赳	-20828
铥	-20829
饴	-20830
唬	-20831
煖	-20832
玕	-20833
臬	-20834
袴	-20835
裆	-20836
襁	-20837
镥	-20838
戆	-20839
斓	-20840
燹	-20841
菽	-20842
襦	-20843
동	-20844
일	-20845
≡	-20846
伋	-20847
傥	-20848
埙	-20849
孱	-20850
懵	-20851
泺	-20852
逄	-20853
圏	-20854
悝	-20855
淯	-20856
獒	-20857
蛔	-20858
逯	-20859
镣	-20860
원	-20861
щ	-20862
ת	-20863
椤	-20864
痈	-20865
硏	-20866
茯	-20867
ב	-20868
ล	-20869
嚟	-20870
妪	-20871
潺	-20872
箝	-20873
鑀	-20874
ṃ	-20875
ヨ	-20876
咔	-20877
噢	-20878
崐	-20879
帙	-20880
杳	-20881
淸	-20882
스	-20883
怅	-20884
狍	-20885
禑	-20886
笪	-20887
篓	-20888
钆	-20889
黠	-20890
ी	-20891
吱	-20892
枹	-20893
桠	-20894
橿	-20895
衽	-20896
郞	-20897
镤	-20898
餮	-20899
嚷	-20900
揍	-20901
篦	-20902
迸	-20903
§	-20904
卟	-20905
垻	-20906
峁	-20907
遑	-20908
巿	-20909
滹	-20910
瓛	-20911
磔	-20912
糍	-20913
颀	-20914
ạ	-20915
丼	-20916
妣	-20917
捒	-20918
痍	-20919
瞥	-20920
祧	-20921
箸	-20922
芨	-20923
郕	-20924
駅	-20925
髭	-20926
도	-20927
ơ	-20928
唭	-20929
埚	-20930
嵗	-20931
樨	-20932
赧	-20933
钣	-20934
鹱	-20935
고	-20936
ა	-20937
圀	-20938
毽	-20939
烜	-20940
畋	-20941
痨	-20942
蚱	-20943
鋹	-20944
ę	-20945
垸	-20946
庥	-20947
気	-20948
汧	-20949
豕	-20950
貉	-20951
赀	-20952
铖	-20953
黥	-20954
õ	-20955
ल	-20956
寳	-20957
渟	-20958
稲	-20959
خ	-20960
ط	-20961
啖	-20962
烺	-20963
에	-20964
嚈	-20965
淠	-20966
礴	-20967
笄	-20968
裒	-20969
馍	-20970
ี	-20971
ぬ	-20972
凊	-20973
卐	-20974
絵	-20975
罽	-20976
胂	-20977
胼	-20978
貊	-20979
郿	-20980
頵	-20981
髙	-20982
鲧	-20983
미	-20984
자	-20985
ต	-20986
ぞ	-20987
娆	-20988
檩	-20989
疥	-20990
痂	-20991
鏊	-20992
鱵	-20993
수	-20994
䓬	-20995
䴉	-20996
劄	-20997
祓	-20998
พ	-20999
[...]
