<pad>	0
<unk>	0
[CLS]	0
[SEP]	0
[MASK]	0
(	0
)	0
”	0
-	0
.	0
–	0
£	0
€	0
▁,	-0
▁的	-1
▁。	-2
▁1	-3
▁、	-4
▁年	-5
▁在	-6
▁2	-7
▁一	-8
▁是	-9
▁中	-10
▁为	-11
▁于	-12
▁人	-13
▁20	-14
▁和	-15
▁月	-16
▁19	-17
▁大	-18
▁了	-19
▁日	-20
▁有	-21
▁以	-22
▁不	-23
▁与	-24
▁他	-25
▁后	-26
▁之	-27
▁:	-28
▁》	-29
▁《	-30
▁其	-31
▁第	-32
▁上	-33
▁地	-34
▁被	-35
▁公	-36
▁·	-37
▁这	-38
▁时	-39
▁发	-40
▁3	-41
▁并	-42
▁201	-43
▁而	-44
▁由	-45
▁国	-46
▁成	-47
▁「	-48
▁」	-49
▁可	-50
▁主	-51
▁最	-52
▁也	-53
▁200	-54
▁对	-55
▁“	-56
▁出	-57
▁自	-58
▁一个	-59
▁4	-60
▁分	-61
▁学	-62
▁西	-63
▁等	-64
▁新	-65
▁开	-66
▁因	-67
▁5	-68
▁但	-69
▁;	-70
▁该	-71
▁所	-72
▁电	-73
▁下	-74
▁美	-75
▁同	-76
▁平	-77
▁及	-78
▁进	-79
▁高	-80
▁作	-81
▁中国	-82
▁当	-83
▁军	-84
▁总	-85
▁三	-86
▁南	-87
▁小	-88
▁6	-89
▁会	-90
▁"	-91
▁多	-92
▁台	-93
▁两	-94
▁北	-95
▁东	-96
▁s	-97
▁使	-98
▁生	-99
▁位	-100
▁到	-101
▁内	-102
▁7	-103
▁全	-104
▁建	-105
▁c	-106
▁政	-107
▁海	-108
▁至	-109
▁10	-110
▁a	-111
▁将	-112
▁8	-113
▁来	-114
▁文	-115
▁或	-116
▁前	-117
▁加	-118
▁法	-119
▁工	-120
▁都	-121
▁经	-122
▁重	-123
▁9	-124
▁相	-125
▁天	-126
▁此	-127
▁设	-128
▁英	-129
▁从	-130
▁阿	-131
▁t	-132
▁原	-133
▁通	-134
▁名	-135
er	-136
▁m	-137
▁提	-138
▁特	-139
▁教	-140
▁世	-141
▁方	-142
▁比	-143
▁美国	-144
00	-145
▁改	-146
▁行	-147
▁市	-148
▁就	-149
▁机	-150
▁人口	-151
in	-152
▁首	-153
▁正	-154
▁个	-155
▁战	-156
▁曾	-157
▁马	-158
▁12	-159
▁参	-160
▁18	-161
▁本	-162
▁b	-163
▁任	-164
▁现	-165
▁基	-166
▁二	-167
▁部	-168
▁包	-169
an	-170
or	-171
▁长	-172
▁联	-173
▁德	-174
▁无	-175
▁指	-176
▁199	-177
▁f	-178
on	-179
▁科	-180
▁香	-181
▁制	-182
▁已	-183
▁四	-184
▁十	-185
▁可以	-186
▁女	-187
▁王	-188
▁组	-189
▁表	-190
▁巴	-191
▁共	-192
▁更	-193
▁11	-194
▁运	-195
▁安	-196
▁日本	-197
▁如	-198
▁广	-199
▁山	-200
▁获	-201
▁称	-202
▁p	-203
▁单	-204
▁金	-205
▁系	-206
▁区	-207
▁事	-208
▁平方	-209
▁结	-210
▁第一	-211
▁外	-212
▁用	-213
▁使用	-214
▁还	-215
▁米	-216
▁城	-217
▁香港	-218
▁水	-219
▁h	-220
▁d	-221
▁民	-222
▁数	-223
▁各	-224
▁保	-225
▁专	-226
▁只	-227
▁代	-228
▁车	-229
▁亚	-230
▁布	-231
▁认	-232
▁每	-233
▁开始	-234
▁实	-235
▁又	-236
▁接	-237
▁约	-238
▁选	-239
▁得	-240
▁万	-241
▁以及	-242
▁地区	-243
▁她	-244
la	-245
▁其中	-246
▁反	-247
▁直	-248
▁/	-249
▁目	-250
en	-251
▁属	-252
▁没	-253
▁合	-254
▁号	-255
▁研	-256
▁站	-257
▁说	-258
▁太	-259
公里	-260
▁过	-261
▁县	-262
▁成为	-263
▁进行	-264
▁能	-265
▁它	-266
▁198	-267
▁平方公里	-268
▁包括	-269
▁传	-270
▁奥	-271
▁主要	-272
▁交	-273
▁面	-274
▁受	-275
▁李	-276
▁15	-277
ar	-278
▁卡	-279
▁斯	-280
▁国家	-281
▁r	-282
▁社	-283
▁回	-284
▁关	-285
▁n	-286
▁向	-287
▁g	-288
▁他们	-289
▁演	-290
▁五	-291
▁形	-292
▁起	-293
▁要	-294
▁明	-295
▁道	-296
▁影	-297
▁达	-298
▁领	-299
▁完	-300
▁即	-301
▁公司	-302
▁路	-303
▁拉	-304
▁研究	-305
▁支	-306
▁清	-307
▁历	-308
▁创	-309
▁张	-310
▁家	-311
▁世界	-312
▁亦	-313
▁变	-314
▁非	-315
▁体	-316
委员	-317
▁很	-318
▁罗	-319
▁苏	-320
▁转	-321
▁列	-322
▁管	-323
▁克	-324
▁16	-325
▁铁	-326
▁再	-327
▁河	-328
▁l	-329
▁游	-330
▁集	-331
▁另	-332
▁意	-333
▁随	-334
▁处	-335
▁伊	-336
▁第二	-337
▁17	-338
▁里	-339
▁认为	-340
▁则	-341
▁推	-342
▁古	-343
▁球	-344
▁i	-345
▁0	-346
▁周	-347
▁获得	-348
▁取	-349
▁其他	-350
▁因此	-351
▁动	-352
▁圣	-353
es	-354
▁线	-355
▁着	-356
▁维	-357
▁武	-358
▁流	-359
▁政府	-360
▁大学	-361
▁图	-362
▁元	-363
▁宣	-364
▁收	-365
▁我	-366
▁计	-367
▁194	-368
▁男	-369
▁未	-370
at	-371
▁音	-372
▁资	-373
▁引	-374
▁复	-375
▁风	-376
▁w	-377
▁连	-378
▁利	-379
▁197	-380
▁期	-381
▁因为	-382
▁决	-383
▁担	-384
▁波	-385
▁当时	-386
▁工作	-387
▁乡	-388
▁神	-389
▁位于	-390
▁打	-391
▁台湾	-392
▁普	-393
▁欧	-394
al	-395
▁投	-396
▁中华	-397
▁举	-398
▁官	-399
▁自己	-400
▁黄	-401
▁根	-402
▁14	-403
▁商	-404
▁超	-405
ic	-406
▁信	-407
▁较	-408
▁没有	-409
▁政治	-410
▁陈	-411
▁195	-412
▁电影	-413
▁13	-414
▁印	-415
▁白	-416
▁应	-417
▁副	-418
▁代表	-419
▁产	-420
▁歌	-421
▁许	-422
▁同时	-423
▁负	-424
▁活	-425
▁成立	-426
▁立	-427
▁国际	-428
▁解	-429
▁一种	-430
▁可能	-431
▁网	-432
▁e	-433
▁编	-434
▁报	-435
▁赛	-436
▁先	-437
▁手	-438
▁英国	-439
▁省	-440
▁标	-441
▁理	-442
▁之一	-443
▁196	-444
▁k	-445
▁增	-446
▁仍	-447
▁空	-448
▁节	-449
▁那	-450
▁情	-451
▁故	-452
▁青	-453
▁今	-454
▁爱	-455
▁o	-456
▁调	-457
▁运动	-458
▁入	-459
▁常	-460
▁观	-461
▁协	-462
▁服	-463
▁需	-464
▁强	-465
▁发展	-466
▁身	-467
▁担任	-468
▁希	-469
▁不同	-470
大学	-471
▁石	-472
▁中心	-473
▁足	-474
▁作为	-475
▁语	-476
▁职	-477
▁党	-478
▁—	-479
▁字	-480
▁博	-481
▁记	-482
▁通过	-483
▁福	-484
▁镇	-485
▁规	-486
▁江	-487
▁这个	-488
▁双	-489
▁行政	-490
▁物	-491
▁时间	-492
▁发现	-493
is	-494
▁电视	-495
▁让	-496
▁表示	-497
▁独	-498
▁死	-499
▁法国	-500
▁定	-501
▁修	-502
▁华	-503
▁设计	-504
▁采	-505
▁统	-506
▁尼	-507
▁委员	-508
▁光	-509
▁黑	-510
▁193	-511
▁刘	-512
▁问	-513
▁for	-514
▁造	-515
▁j	-516
▁居	-517
▁带	-518
▁这些	-519
▁30	-520
▁书	-521
▁格	-522
▁社会	-523
▁导	-524
▁面积	-525
▁去	-526
▁哈	-527
▁航	-528
▁除	-529
▁初	-530
▁环	-531
▁一些	-532
▁六	-533
▁种	-534
▁根据	-535
mu	-536
it	-537
▁_	-538
▁乌	-539
le	-540
▁历史	-541
▁21	-542
▁飞	-543
▁z	-544
▁公里	-545
▁深	-546
▁文化	-547
政府	-548
▁条	-549
▁林	-550
▁街	-551
▁几	-552
▁继	-553
▁参加	-554
▁早	-555
▁把	-556
▁知	-557
▁汉	-558
▁八	-559
▁所有	-560
▁医	-561
▁部分	-562
▁建筑	-563
he	-564
▁队	-565
▁年代	-566
▁负责	-567
▁次	-568
▁土	-569
▁星	-570
▁市镇	-571
▁类	-572
▁游戏	-573
▁团	-574
▁火	-575
▁提供	-576
▁系统	-577
▁皇	-578
▁单位	-579
▁正式	-580
▁出现	-581
▁派	-582
▁村	-583
▁音乐	-584
▁热	-585
▁威	-586
▁议	-587
▁具	-588
▁中央	-589
▁攻	-590
▁岁	-591
▁人民	-592
▁v	-593
人民	-594
▁组织	-595
▁北京	-596
▁整	-597
▁管理	-598
▁少	-599
▁然	-600
▁影响	-601
▁真	-602
▁2010	-603
▁之后	-604
▁经济	-605
▁湾	-606
▁韩	-607
▁25	-608
mula	-609
▁红	-610
▁司	-611
▁模	-612
▁老	-613
▁气	-614
▁formula	-615
▁朝	-616
▁2009	-617
▁角	-618
▁例	-619
▁发生	-620
▁俄	-621
▁九	-622
▁虽	-623
▁离	-624
▁警	-625
▁农	-626
▁作品	-627
▁铁路	-628
▁命	-629
▁州	-630
▁预	-631
▁排	-632
▁附	-633
▁版	-634
▁给	-635
▁性	-636
el	-637
▁沙	-638
▁史	-639
▁看	-640
▁吉	-641
▁父	-642
▁192	-643
ro	-644
▁湖	-645
▁目前	-646
▁存	-647
▁许多	-648
▁做	-649
▁下辖	-650
un	-651
▁型	-652
▁以下	-653
▁才	-654
▁全国	-655
▁问题	-656
▁评	-657
am	-658
▁登	-659
▁世纪	-660
▁2011	-661
▁便	-662
▁执	-663
▁第三	-664
▁却	-665
▁活动	-666
▁纪	-667
▁化	-668
▁简	-669
▁但是	-670
▁左	-671
▁上海	-672
▁城市	-673
▁剧	-674
▁已经	-675
▁失	-676
▁进入	-677
▁花	-678
▁半	-679
▁足球	-680
▁之间	-681
▁银	-682
▁近	-683
▁考	-684
▁越	-685
▁精	-686
▁艺	-687
▁服务	-688
st	-689
▁依	-690
000	-691
公司	-692
▁消	-693
部分	-694
▁期间	-695
▁停	-696
▁比赛	-697
▁鱼	-698
▁德国	-699
▁重要	-700
▁好	-701
▁技	-702
密度	-703
▁教育	-704
▁埃	-705
▁配	-706
▁校	-707
▁客	-708
▁百	-709
▁co	-710
▁海拔	-711
▁办	-712
▁时期	-713
▁2012	-714
▁乐	-715
▁七	-716
▁两个	-717
▁子	-718
▁22	-719
il	-720
▁视	-721
▁最终	-722
▁低	-723
▁写	-724
▁2013	-725
▁装	-726
▁拥	-727
▁成员	-728
et	-729
▁移	-730
▁支持	-731
▁2016	-732
▁放	-733
▁心	-734
ion	-735
▁旅	-736
面积	-737
▁并且	-738
▁人物	-739
▁塔	-740
▁澳	-741
▁学校	-742
▁龙	-743
▁生活	-744
▁一般	-745
▁24	-746
▁奖	-747
▁2014	-748
▁师	-749
▁加入	-750
▁杀	-751
ac	-752
▁感	-753
ur	-754
▁虽然	-755
▁发行	-756
▁唐	-757
▁2015	-758
▁2008	-759
▁同年	-760
▁委员会	-761
▁间	-762
▁萨	-763
▁显	-764
▁播	-765
▁zh	-766
▁防	-767
▁决定	-768
▁毕	-769
▁23	-770
▁需要	-771
▁辖	-772
▁控	-773
▁场	-774
▁杨	-775
▁岛	-776
▁夏	-777
▁191	-778
▁建立	-779
▁地方	-780
▁人口密度	-781
▁贝	-782
▁佛	-783
▁欧洲	-784
▁联合	-785
▁展	-786
▁权	-787
▁事件	-788
▁均	-789
▁印度	-790
▁分别	-791
▁由于	-792
▁兴	-793
▁2001	-794
▁学名	-795
us	-796
▁港	-797
▁the	-798
▁必	-799
▁吴	-800
▁蒙	-801
▁车站	-802
▁}	-803
▁艾	-804
▁专辑	-805
▁纳	-806
▁最高	-807
▁{	-808
▁工程	-809
▁食	-810
▁儿	-811
▁退	-812
和国	-813
▁宗	-814
▁遭	-815
行星	-816
▁声	-817
▁例如	-818
▁受到	-819
▁群	-820
▁最后	-821
▁得到	-822
▁云	-823
▁分布	-824
▁项	-825
▁冠	-826
▁温	-827
▁座	-828
▁升	-829
▁完成	-830
▁遗	-831
▁严	-832
▁优	-833
▁干	-834
▁2017	-835
as	-836
▁就是	-837
▁举行	-838
▁2007	-839
▁程	-840
▁拥有	-841
▁!	-842
▁批	-843
▁组成	-844
▁抗	-845
▁洛	-846
▁亲	-847
▁小行星	-848
▁永	-849
▁莫	-850
▁要求	-851
▁属于	-852
▁成功	-853
▁方式	-854
▁监	-855
▁通常	-856
▁极	-857
▁母	-858
▁泰	-859
▁兼	-860
▁仅	-861
▁范	-862
▁28	-863
▁郡	-864
▁计划	-865
▁2018	-866
▁陆	-867
▁证	-868
▁独立	-869
▁26	-870
▁2006	-871
▁自由	-872
re	-873
▁卫	-874
▁亿	-875
▁技术	-876
▁短	-877
▁学院	-878
尼亚	-879
学院	-880
▁甚	-881
▁尔	-882
▁突	-883
▁节目	-884
▁旧	-885
▁雷	-886
▁留	-887
▁瑞	-888
▁占	-889
ing	-890
▁存在	-891
▁瓦	-892
▁塞	-893
▁尚	-894
▁总面积	-895
▁最大	-896
▁另外	-897
▁所以	-898
大利	-899
▁确	-900
▁100	-901
▁st	-902
▁这种	-903
▁提出	-904
▁注	-905
▁封	-906
▁形成	-907
▁前往	-908
▁毕业	-909
▁然而	-910
▁战争	-911
▁总统	-912
▁27	-913
罗斯	-914
▁功	-915
▁二十	-916
▁植	-917
▁延	-918
▁弗	-919
▁方面	-920
▁胡	-921
▁出版	-922
▁当地	-923
▁往	-924
▁31	-925
▁具有	-926
▁只有	-927
▁称为	-928
▁学生	-929
▁朱	-930
▁中共	-931
▁们	-932
▁终	-933
▁降	-934
▁情况	-935
主义	-936
▁营	-937
▁采用	-938
▁不过	-939
ed	-940
▁一位	-941
▁驻	-942
▁2005	-943
▁核	-944
ol	-945
▁状	-946
▁效	-947
▁门	-948
▁细	-949
共和国	-950
民国	-951
▁追	-952
▁点	-953
▁莱	-954
▁艺术	-955
▁试	-956
ch	-957
▁甲	-958
▁千	-959
▁头	-960
▁边	-961
▁控制	-962
▁病	-963
▁特别	-964
▁合作	-965
▁临	-966
▁in	-967
▁集团	-968
▁系列	-969
▁变化	-970
▁女性	-971
▁生产	-972
高度	-973
革命	-974
▁拍	-975
▁国民	-976
▁沿	-977
▁海拔高度	-978
▁取得	-979
▁走	-980
▁签	-981
▁木	-982
ent	-983
▁此外	-984
▁结束	-985
▁x	-986
▁西班	-987
▁西班牙	-988
▁造成	-989
▁航空	-990
▁承	-991
▁29	-992
▁若	-993
▁诺	-994
▁一名	-995
▁有限	-996
▁舰	-997
▁一直	-998
▁该国	-999
▁帝	-1000
▁快	-1001
▁an	-1002
▁大陆	-1003
▁财	-1004
▁治	-1005
▁接受	-1006
▁且	-1007
ow	-1008
▁韩国	-1009
▁尽	-1010
▁任何	-1011
▁2000	-1012
▁嘉	-1013
▁主席	-1014
▁满	-1015
▁击	-1016
▁开发	-1017
▁扩	-1018
▁首次	-1019
▁联赛	-1020
▁托	-1021
▁爆	-1022
▁>	-1023
▁背	-1024
▁持	-1025
▁企	-1026
▁始	-1027
▁如果	-1028
▁角色	-1029
▁想	-1030
▁按	-1031
▁杜	-1032
▁梅	-1033
▁兰	-1034
▁局	-1035
▁康	-1036
▁民主	-1037
▁选举	-1038
▁郑	-1039
▁除了	-1040
▁准	-1041
▁超过	-1042
▁科学	-1043
▁杂	-1044
▁宋	-1045
▁机场	-1046
▁麦	-1047
▁著	-1048
▁著名	-1049
▁一座	-1050
▁者	-1051
▁领导	-1052
▁时代	-1053
id	-1054
▁毛	-1055
▁附近	-1056
▁增加	-1057
▁<	-1058
▁施	-1059
ig	-1060
▁远	-1061
▁故事	-1062
▁宣布	-1063
▁190	-1064
▁冲	-1065
▁见	-1066
▁植物	-1067
▁距	-1068
▁一次	-1069
▁力	-1070
▁微	-1071
▁据	-1072
▁令	-1073
▁请	-1074
▁u	-1075
▁减	-1076
▁京	-1077
▁皮	-1078
▁中华民国	-1079
▁住	-1080
▁还有	-1081
▁父亲	-1082
▁经过	-1083
▁混	-1084
▁俄罗斯	-1085
▁50	-1086
▁孙	-1087
▁纽	-1088
▁轻	-1089
▁像	-1090
▁祖	-1091
▁非常	-1092
▁口	-1093
▁传统	-1094
▁平均	-1095
▁导致	-1096
▁届	-1097
▁兵	-1098
▁北部	-1099
▁2019	-1100
▁不是	-1101
▁卢	-1102
▁归	-1103
▁逐	-1104
▁库	-1105
▁结果	-1106
▁草	-1107
▁参与	-1108
▁相关	-1109
▁命名	-1110
人民共和国	-1111
ad	-1112
▁密	-1113
▁列车	-1114
▁画	-1115
▁无法	-1116
▁帕	-1117
▁ch	-1118
▁富	-1119
▁乘	-1120
▁某	-1121
▁跟	-1122
▁曲	-1123
▁夫	-1124
▁皆	-1125
▁喜	-1126
▁语言	-1127
▁中华人民共和国	-1128
▁巨	-1129
▁大量	-1130
▁继续	-1131
▁质	-1132
▁南部	-1133
▁版本	-1134
▁2004	-1135
▁晚	-1136
▁of	-1137
▁新闻	-1138
▁业	-1139
▁义	-1140
▁撤	-1141
▁破	-1142
▁球队	-1143
os	-1144
▁启	-1145
▁y	-1146
▁船	-1147
▁之前	-1148
▁秘	-1149
▁巡	-1150
▁竞	-1151
▁我们	-1152
▁重新	-1153
▁摄	-1154
▁伯	-1155
▁产生	-1156
▁争	-1157
▁测	-1158
▁居民	-1159
▁透	-1160
▁摩	-1161
▁直接	-1162
▁发表	-1163
▁费	-1164
▁院	-1165
▁街道	-1166
▁乔	-1167
▁40	-1168
▁授	-1169
▁保护	-1170
▁甚至	-1171
▁阿尔	-1172
▁西北	-1173
▁读	-1174
▁宝	-1175
▁韦	-1176
▁赵	-1177
▁落	-1178
▁苏联	-1179
▁描	-1180
▁唯	-1181
▁顺	-1182
▁胜	-1183
▁'	-1184
▁歌曲	-1185
▁玩	-1186
▁推出	-1187
▁000	-1188
▁股	-1189
▁会议	-1190
▁过程	-1191
▁br	-1192
▁叶	-1193
▁结构	-1194
▁|	-1195
▁田	-1196
▁宫	-1197
▁索	-1198
▁完全	-1199
▁现在	-1200
ut	-1201
▁标准	-1202
▁现代	-1203
▁项目	-1204
▁耶	-1205
▁论	-1206
人口	-1207
▁内容	-1208
▁西南	-1209
▁霍	-1210
▁诸	-1211
▁军事	-1212
▁迁	-1213
▁一起	-1214
▁假	-1215
▁率	-1216
▁最佳	-1217
▁方法	-1218
▁查	-1219
▁晋	-1220
▁检	-1221
▁诗	-1222
▁交通	-1223
▁频	-1224
▁改为	-1225
▁出生	-1226
▁级	-1227
▁机构	-1228
▁劳	-1229
利亚	-1230
▁第四	-1231
▁季	-1232
▁这是	-1233
▁不能	-1234
▁思	-1235
om	-1236
▁中学	-1237
▁杰	-1238
▁第十	-1239
▁逃	-1240
▁积	-1241
格兰	-1242
▁蓝	-1243
iv	-1244
▁供	-1245
▁包含	-1246
▁奇	-1247
▁馀	-1248
▁媒	-1249
▁随后	-1250
▁联盟	-1251
▁共同	-1252
▁右	-1253
▁主义	-1254
▁帮	-1255
▁宽	-1256
▁必须	-1257
▁尤	-1258
▁松	-1259
▁围	-1260
ot	-1261
▁共有	-1262
▁话	-1263
▁征	-1264
▁徐	-1265
▁直到	-1266
▁酒	-1267
▁度	-1268
▁吸	-1269
▁2003	-1270
▁讲	-1271
▁互	-1272
▁=	-1273
▁调查	-1274
▁你	-1275
▁唱	-1276
▁迪	-1277
▁适	-1278
ir	-1279
▁词	-1280
▁形式	-1281
▁丰	-1282
▁而且	-1283
▁电子	-1284
▁荷	-1285
▁软	-1286
▁私	-1287
▁审	-1288
▁行动	-1289
▁佔	-1290
▁难	-1291
▁房	-1292
▁杯	-1293
▁总人口	-1294
▁民族	-1295
▁丹	-1296
▁随着	-1297
▁军队	-1298
▁探	-1299
▁枪	-1300
▁有限公司	-1301
ia	-1302
▁后来	-1303
▁穆	-1304
▁利用	-1305
▁浙	-1306
▁位置	-1307
▁战斗	-1308
▁设有	-1309
▁价	-1310
▁公园	-1311
50	-1312
▁废	-1313
▁菲	-1314
▁哥	-1315
▁射	-1316
▁借	-1317
▁负责管	-1318
▁建设	-1319
▁学习	-1320
▁赤	-1321
▁共和	-1322
▁容	-1323
▁动物	-1324
▁广东	-1325
▁东北	-1326
▁基本	-1327
▁意大利	-1328
▁谢	-1329
▁贵	-1330
im	-1331
▁显示	-1332
▁环境	-1333
▁压	-1334
▁设立	-1335
学家	-1336
▁差	-1337
20	-1338
▁太阳	-1339
▁女子	-1340
▁朝鲜	-1341
▁再次	-1342
▁舞	-1343
▁工业	-1344
▁热带	-1345
▁弹	-1346
▁旗	-1347
▁众	-1348
▁轨	-1349
▁抵	-1350
▁凯	-1351
ec	-1352
▁品	-1353
▁别	-1354
▁2002	-1355
▁绝	-1356
▁班	-1357
▁拿	-1358
▁实际	-1359
▁教授	-1360
▁主任	-1361
▁创作	-1362
▁安全	-1363
▁它们	-1364
▁很多	-1365
▁希望	-1366
▁使得	-1367
▁人员	-1368
▁相当	-1369
▁限	-1370
▁有关	-1371
▁致	-1372
▁伦	-1373
▁数据	-1374
▁攻击	-1375
▁播出	-1376
产党	-1377
▁法律	-1378
▁一部分	-1379
▁选择	-1380
▁构	-1381
▁赫	-1382
▁媒体	-1383
▁魔	-1384
▁以上	-1385
▁演出	-1386
▁自然	-1387
▁市场	-1388
▁执行	-1389
▁鲁	-1390
▁补	-1391
▁职业	-1392
▁企业	-1393
▁士	-1394
▁纪念	-1395
▁名称	-1396
▁聚	-1397
▁体育	-1398
▁异	-1399
▁式	-1400
▁货	-1401
▁穿	-1402
▁区域	-1403
▁基础	-1404
▁董	-1405
▁西部	-1406
▁沃	-1407
▁玛	-1408
▁主持	-1409
▁刺	-1410
▁举办	-1411
▁反应	-1412
▁羽	-1413
▁夺	-1414
▁距离	-1415
▁梁	-1416
▁速	-1417
▁部队	-1418
▁这样	-1419
斯特	-1420
▁听	-1421
▁送	-1422
▁范围	-1423
▁底	-1424
▁野	-1425
▁指挥	-1426
主教	-1427
▁演员	-1428
▁曼	-1429
▁简称	-1430
▁含	-1431
▁大多	-1432
▁帝国	-1433
克兰	-1434
▁浙江	-1435
▁暴	-1436
▁坐	-1437
▁庄	-1438
▁骑	-1439
▁理论	-1440
▁雅	-1441
▁能够	-1442
▁运动员	-1443
▁目的	-1444
▁楼	-1445
▁文物	-1446
▁al	-1447
▁锦	-1448
▁呈	-1449
▁冰	-1450
▁照	-1451
▁偏	-1452
▁太平	-1453
▁能力	-1454
▁敌	-1455
▁何	-1456
▁人类	-1457
▁阿拉	-1458
▁毫	-1459
▁巴士	-1460
▁功能	-1461
▁189	-1462
ag	-1463
▁唯一	-1464
▁各种	-1465
▁反对	-1466
▁血	-1467
▁栖	-1468
▁缺	-1469
▁英文	-1470
▁仍然	-1471
▁计算	-1472
▁男性	-1473
▁漫	-1474
▁年间	-1475
▁协会	-1476
▁片	-1477
▁寺	-1478
▁介	-1479
▁召	-1480
▁戏	-1481
ation	-1482
▁馆	-1483
▁大部分	-1484
um	-1485
▁春	-1486
▁一样	-1487
em	-1488
▁公开	-1489
▁员	-1490
▁录	-1491
▁加拿	-1492
▁官方	-1493
▁翻	-1494
▁单曲	-1495
▁加拿大	-1496
▁票	-1497
▁乡镇	-1498
▁革命	-1499
▁全球	-1500
▁救	-1501
▁阶	-1502
▁立法	-1503
▁桥	-1504
▁早期	-1505
▁处理	-1506
▁步	-1507
▁训	-1508
▁基督	-1509
▁第一次	-1510
▁告	-1511
▁生物	-1512
▁层	-1513
▁统治	-1514
▁轮	-1515
▁宗教	-1516
▁或者	-1517
▁顶	-1518
▁葡	-1519
▁]	-1520
▁四川	-1521
▁时候	-1522
▁实验	-1523
▁切	-1524
▁齐	-1525
▁方向	-1526
国家	-1527
▁专业	-1528
▁60	-1529
▁模式	-1530
▁坚	-1531
▁境	-1532
▁禁	-1533
▁找	-1534
▁圆	-1535
▁激	-1536
▁牛	-1537
▁[	-1538
▁亚洲	-1539
▁关于	-1540
od	-1541
▁应用	-1542
▁发布	-1543
▁广州	-1544
▁商业	-1545
▁习	-1546
▁原因	-1547
▁天主教	-1548
▁乌克兰	-1549
▁任务	-1550
▁最初	-1551
▁颁	-1552
▁销	-1553
▁绿	-1554
▁课	-1555
▁末	-1556
▁公共	-1557
▁兄	-1558
▁礼	-1559
▁概	-1560
▁宁	-1561
▁东南	-1562
▁洪	-1563
▁地球	-1564
▁严重	-1565
▁段	-1566
▁南京	-1567
▁指出	-1568
▁逐渐	-1569
▁全部	-1570
▁小时	-1571
▁十二	-1572
▁树	-1573
▁以来	-1574
▁景	-1575
▁山东	-1576
▁一条	-1577
▁这一	-1578
▁儿子	-1579
委员会	-1580
▁政策	-1581
▁横	-1582
▁纽约	-1583
▁越南	-1584
▁综	-1585
▁讨	-1586
▁空间	-1587
▁去世	-1588
▁三个	-1589
▁申	-1590
▁演唱	-1591
▁高速	-1592
▁恒	-1593
▁戴	-1594
▁清朝	-1595
▁不久	-1596
▁操	-1597
and	-1598
▁分为	-1599
▁曾经	-1600
▁紧	-1601
▁一部	-1602
▁灵	-1603
▁地下	-1604
▁资料	-1605
ay	-1606
▁固	-1607
▁府	-1608
▁进士	-1609
▁明朝	-1610
▁仪	-1611
▁道路	-1612
▁广播	-1613
▁城镇	-1614
▁1999	-1615
▁家庭	-1616
▁源	-1617
▁每年	-1618
▁药	-1619
▁冠军	-1620
▁大型	-1621
▁博物	-1622
▁当选	-1623
▁守	-1624
▁怀	-1625
▁决赛	-1626
▁当中	-1627
▁1990	-1628
ap	-1629
▁藏	-1630
▁招	-1631
▁团体	-1632
▁死亡	-1633
▁充	-1634
▁青年	-1635
▁博士	-1636
▁俱	-1637
▁甘	-1638
▁描述	-1639
▁表现	-1640
▁厅	-1641
▁森	-1642
▁35	-1643
▁人士	-1644
▁返	-1645
▁英语	-1646
▁han	-1647
▁恐	-1648
▁天津	-1649
▁栖息	-1650
▁乡镇级	-1651
▁购	-1652
▁轨道	-1653
▁天文	-1654
▁列表	-1655
▁佩	-1656
▁男子	-1657
▁钱	-1658
▁避	-1659
▁曹	-1660
▁土地	-1661
▁一年	-1662
▁犹	-1663
▁生于	-1664
▁海军	-1665
▁发动	-1666
▁相同	-1667
▁网络	-1668
▁三十	-1669
▁三年	-1670
▁?	-1671
系统	-1672
▁整个	-1673
▁投资	-1674
▁为了	-1675
▁赢	-1676
西亚	-1677
▁1998	-1678
▁符	-1679
▁贡	-1680
▁坦	-1681
▁报告	-1682
▁及其	-1683
▁行为	-1684
▁危	-1685
▁秦	-1686
▁汽	-1687
▁类似	-1688
▁达到	-1689
▁寻	-1690
▁智	-1691
▁名字	-1692
▁银行	-1693
▁号线	-1694
▁议会	-1695
▁离开	-1696
▁公路	-1697
▁玉	-1698
▁葡萄	-1699
▁色	-1700
▁两人	-1701
尔斯	-1702
▁记载	-1703
▁荣	-1704
▁议员	-1705
ter	-1706
▁美元	-1707
▁还是	-1708
▁最早	-1709
克斯	-1710
▁辐	-1711
▁伤	-1712
▁蔡	-1713
▁医院	-1714
▁墨	-1715
▁国王	-1716
▁不会	-1717
▁规定	-1718
▁la	-1719
▁出身	-1720
▁约翰	-1721
▁遭到	-1722
▁第五	-1723
▁80	-1724
▁32	-1725
▁郭	-1726
▁训练	-1727
▁恶	-1728
▁不少	-1729
▁免	-1730
▁de	-1731
▁恢	-1732
▁阻	-1733
▁and	-1734
▁年度	-1735
▁判	-1736
op	-1737
60	-1738
▁恩	-1739
▁丁	-1740
▁福建	-1741
▁飞机	-1742
▁截	-1743
▁用于	-1744
▁东部	-1745
▁引起	-1746
▁作用	-1747
▁回到	-1748
ul	-1749
▁奉	-1750
▁图示	-1751
▁架	-1752
▁玩家	-1753
▁主教	-1754
▁母亲	-1755
▁目标	-1756
▁民国	-1757
乐部	-1758
oc	-1759
▁台北	-1760
▁宇	-1761
▁蒙古	-1762
▁1997	-1763
▁并在	-1764
▁助	-1765
▁连接	-1766
▁君	-1767
▁妻	-1768
▁188	-1769
▁辽	-1770
▁河南	-1771
▁物理	-1772
▁改变	-1773
▁设置	-1774
▁阴	-1775
▁外交	-1776
▁宪	-1777
贸易	-1778
▁爆发	-1779
▁联邦	-1780
og	-1781
▁加上	-1782
▁拜	-1783
▁输	-1784
▁文学	-1785
▁帮助	-1786
▁00	-1787
10	-1788
▁硬	-1789
▁只是	-1790
▁阵	-1791
▁澳门	-1792
▁漫画	-1793
▁拒	-1794
▁杂志	-1795
▁公尺	-1796
▁休	-1797
ce	-1798
▁同样	-1799
▁路线	-1800
▁町	-1801
▁自治	-1802
▁顾	-1803
▁表演	-1804
▁取代	-1805
▁损	-1806
隶属	-1807
▁尾	-1808
▁元年	-1809
▁俱乐部	-1810
▁透过	-1811
▁现时	-1812
▁1980	-1813
▁身份	-1814
▁制度	-1815
▁教堂	-1816
▁稳	-1817
▁第二次	-1818
▁45	-1819
▁居住	-1820
▁钢	-1821
▁护	-1822
▁地位	-1823
▁建造	-1824
▁蒋	-1825
▁70	-1826
▁什	-1827
▁沈	-1828
▁呼	-1829
▁一定	-1830
▁案	-1831
▁动画	-1832
▁经常	-1833
▁人们	-1834
▁事务	-1835
▁广场	-1836
▁努	-1837
▁中部	-1838
▁辛	-1839
▁产品	-1840
▁社区	-1841
▁遇	-1842
▁赛事	-1843
30	-1844
▁小说	-1845
▁新加	-1846
▁眼	-1847
▁速度	-1848
▁魏	-1849
▁纪录	-1850
▁驱	-1851
▁新加坡	-1852
▁原本	-1853
▁跨	-1854
▁re	-1855
▁搭	-1856
▁函	-1857
▁暂	-1858
▁每个	-1859
▁来自	-1860
▁东京	-1861
▁典	-1862
▁始建	-1863
▁孔	-1864
▁+	-1865
▁家族	-1866
▁量	-1867
▁希腊	-1868
▁大约	-1869
▁有些	-1870
▁月台	-1871
▁连续	-1872
▁持续	-1873
▁中文	-1874
av	-1875
▁一颗	-1876
▁定义	-1877
▁脱	-1878
▁出任	-1879
19	-1880
▁科技	-1881
▁任命	-1882
▁风格	-1883
▁赛季	-1884
▁成绩	-1885
▁访	-1886
▁叫	-1887
▁90	-1888
▁荷兰	-1889
▁制作	-1890
▁哲	-1891
▁盖	-1892
ers	-1893
▁流行	-1894
▁赢得	-1895
▁厂	-1896
▁主题	-1897
▁勒	-1898
▁吕	-1899
▁巴西	-1900
▁可达	-1901
ie	-1902
▁十分	-1903
▁经营	-1904
地区	-1905
▁对于	-1906
▁球员	-1907
▁改革	-1908
▁几乎	-1909
▁信息	-1910
▁开放	-1911
▁繁	-1912
48	-1913
▁飞行	-1914
▁唱片	-1915
▁领域	-1916
▁歌手	-1917
▁邓	-1918
▁击败	-1919
▁关系	-1920
▁毫米	-1921
▁1996	-1922
▁肯	-1923
▁187	-1924
▁潜	-1925
▁零	-1926
▁超级	-1927
▁生长	-1928
▁划	-1929
▁作家	-1930
▁健	-1931
▁左右	-1932
▁先后	-1933
▁祭	-1934
▁图书	-1935
▁涉	-1936
▁淡	-1937
▁公分	-1938
▁境内	-1939
▁学者	-1940
▁奥运	-1941
▁ar	-1942
▁炮	-1943
▁斯特	-1944
40	-1945
共产党	-1946
▁伊斯	-1947
▁谈	-1948
▁属下	-1949
▁象	-1950
▁500	-1951
▁湖南	-1952
▁鸟	-1953
保护	-1954
ub	-1955
▁散	-1956
▁群岛	-1957
▁饰	-1958
▁内部	-1959
▁罗马	-1960
▁至今	-1961
▁一家	-1962
▁婚	-1963
▁彼	-1964
▁残	-1965
▁建议	-1966
▁1994	-1967
▁司令	-1968
▁细胞	-1969
▁星期	-1970
▁皇帝	-1971
▁南极	-1972
▁分钟	-1973
▁概念	-1974
▁然后	-1975
▁导演	-1976
▁娱	-1977
▁33	-1978
▁邻	-1979
▁保持	-1980
▁分析	-1981
▁挑	-1982
▁柏	-1983
学校	-1984
▁多次	-1985
▁或是	-1986
▁乙	-1987
▁兄弟	-1988
▁培	-1989
▁1995	-1990
▁墓	-1991
▁规划	-1992
▁英格兰	-1993
▁夜	-1994
▁冬	-1995
▁首都	-1996
▁机车	-1997
▁克里	-1998
▁部长	-1999
▁替	-2000
▁为主	-2001
▁江苏	-2002
▁油	-2003
▁警察	-2004
▁陕	-2005
ip	-2006
▁状态	-2007
▁官员	-2008
▁影片	-2009
▁拆	-2010
▁汽车	-2011
▁拒绝	-2012
▁隔	-2013
▁38	-2014
中央	-2015
▁广泛	-2016
▁桑	-2017
▁黎	-2018
▁室	-2019
▁太平洋	-2020
th	-2021
▁普通	-2022
▁地铁	-2023
▁网站	-2024
▁此时	-2025
▁侵	-2026
▁波兰	-2027
▁流域	-2028
▁娱乐	-2029
▁〉	-2030
▁战役	-2031
▁〈	-2032
▁冯	-2033
▁』	-2034
▁『	-2035
▁排名	-2036
▁实现	-2037
▁日至	-2038
▁同意	-2039
▁协助	-2040
▁条件	-2041
▁骨	-2042
▁数量	-2043
▁换	-2044
▁准备	-2045
▁董事	-2046
▁铜	-2047
▁记者	-2048
▁减少	-2049
▁邀	-2050
▁叙	-2051
▁基地	-2052
▁盛	-2053
▁初期	-2054
▁武器	-2055
▁冷	-2056
▁辅	-2057
▁精神	-2058
斯坦	-2059
▁设备	-2060
▁掌	-2061
▁36	-2062
▁享	-2063
▁相对	-2064
ard	-2065
▁机会	-2066
▁化学	-2067
▁羽毛	-2068
▁汇	-2069
▁1993	-2070
▁公元	-2071
▁云南	-2072
▁1992	-2073
▁匈	-2074
▁此后	-2075
▁组合	-2076
▁评论	-2077
▁乃	-2078
▁com	-2079
▁继承	-2080
放军	-2081
▁崇	-2082
▁罪	-2083
▁自动	-2084
▁萧	-2085
▁类型	-2086
普查	-2087
▁人口普查	-2088
▁竹	-2089
▁宣传	-2090
▁委	-2091
▁°	-2092
运动	-2093
▁设施	-2094
▁记录	-2095
ov	-2096
▁是否	-2097
▁不断	-2098
▁有人	-2099
▁因而	-2100
▁知名	-2101
▁昆	-2102
▁二年	-2103
▁针	-2104
▁国内	-2105
▁限制	-2106
▁殖	-2107
▁暗	-2108
▁邮	-2109
▁发射	-2110
▁th	-2111
▁柯	-2112
▁巴黎	-2113
▁刚	-2114
▁戈	-2115
▁进攻	-2116
▁岩	-2117
▁违	-2118
▁多个	-2119
▁中国人民	-2120
世界	-2121
▁tw	-2122
▁御	-2123
ak	-2124
ab	-2125
国际	-2126
▁户	-2127
▁未来	-2128
▁园	-2129
▁置	-2130
▁书记	-2131
千米	-2132
▁综合	-2133
▁缩	-2134
▁犯	-2135
▁37	-2136
▁促	-2137
▁鼓	-2138
▁又名	-2139
▁妻子	-2140
▁如下	-2141
▁似	-2142
中心	-2143
▁麻	-2144
▁租	-2145
▁un	-2146
▁运行	-2147
▁物种	-2148
▁平方千米	-2149
▁汤	-2150
▁非洲	-2151
▁族	-2152
▁佛教	-2153
▁双方	-2154
▁批评	-2155
ind	-2156
▁1991	-2157
▁谷	-2158
▁伦敦	-2159
▁殖民	-2160
▁赴	-2161
▁接近	-2162
▁贸易	-2163
▁柴	-2164
▁过去	-2165
▁盐	-2166
▁中国共产党	-2167
▁公布	-2168
▁将军	-2169
▁sh	-2170
▁错	-2171
▁运输	-2172
▁偶	-2173
▁和平	-2174
▁参赛	-2175
▁夏季	-2176
▁电视台	-2177
▁农业	-2178
▁元素	-2179
▁基金	-2180
▁良	-2181
▁集中	-2182
▁赞	-2183
▁犹太	-2184
▁1950	-2185
▁弟	-2186
▁34	-2187
▁庙	-2188
▁女儿	-2189
▁庆	-2190
▁志	-2191
▁隐	-2192
尔德	-2193
▁平台	-2194
委会	-2195
▁治疗	-2196
▁允	-2197
80	-2198
▁日起	-2199
▁同一	-2200
ct	-2201
▁电视剧	-2202
▁彭	-2203
▁力量	-2204
▁频道	-2205
▁解决	-2206
拉斯	-2207
▁名为	-2208
▁q	-2209
▁加利	-2210
▁投入	-2211
▁电脑	-2212
▁屋	-2213
▁隆	-2214
▁知道	-2215
▁186	-2216
▁隶属	-2217
▁尊	-2218
▁锦标	-2219
▁幼	-2220
▁途	-2221
▁高级	-2222
▁返回	-2223
▁第六	-2224
▁作战	-2225
▁王朝	-2226
▁紫	-2227
11	-2228
▁颜	-2229
▁山西	-2230
▁孟	-2231
est	-2232
▁译	-2233
▁坑	-2234
▁办公	-2235
▁分子	-2236
▁统计	-2237
▁tr	-2238
▁快速	-2239
▁威廉	-2240
▁刑	-2241
▁程度	-2242
▁1949	-2243
▁席	-2244
▁地面	-2245
▁1970	-2246
▁研究所	-2247
▁尚未	-2248
氧化	-2249
▁倒	-2250
▁求	-2251
▁值	-2252
▁有效	-2253
ud	-2254
▁一段	-2255
ik	-2256
▁学家	-2257
▁to	-2258
▁示	-2259
州市	-2260
▁辞	-2261
▁阳	-2262
▁秘书	-2263
▁材	-2264
▁确定	-2265
▁交易	-2266
▁雪	-2267
▁特殊	-2268
▁高等	-2269
▁思想	-2270
▁舰队	-2271
▁其它	-2272
▁奥林	-2273
▁乔治	-2274
▁而是	-2275
▁王国	-2276
代表	-2277
▁西方	-2278
▁捷	-2279
▁易	-2280
▁这里	-2281
▁虚	-2282
▁批准	-2283
▁sp	-2284
▁友	-2285
▁支援	-2286
▁牠	-2287
▁逝	-2288
▁协议	-2289
▁不再	-2290
▁资格	-2291
铁路	-2292
▁海域	-2293
▁葡萄牙	-2294
▁体长	-2295
▁播放	-2296
▁高中	-2297
▁保留	-2298
▁跳	-2299
▁旅游	-2300
▁下午	-2301
▁其后	-2302
ist	-2303
▁蛋	-2304
▁统一	-2305
▁患	-2306
▁只能	-2307
大会	-2308
12	-2309
▁函数	-2310
▁公民	-2311
▁正在	-2312
▁重建	-2313
▁侧	-2314
▁奥斯	-2315
▁实施	-2316
▁用户	-2317
▁分类	-2318
▁人工	-2319
▁计画	-2320
法院	-2321
▁释	-2322
▁le	-2323
▁比较	-2324
▁榜	-2325
▁直至	-2326
▁一带	-2327
▁移动	-2328
▁总理	-2329
书记	-2330
▁破坏	-2331
战争	-2332
ang	-2333
▁1988	-2334
▁澳大利	-2335
▁车辆	-2336
ine	-2337
▁文物保护	-2338
▁遗址	-2339
▁码	-2340
▁39	-2341
▁万人	-2342
▁地震	-2343
▁斗	-2344
▁遂	-2345
▁1989	-2346
▁hk	-2347
▁欢	-2348
▁詹	-2349
▁未能	-2350
▁孩	-2351
▁教会	-2352
▁恒星	-2353
▁各地	-2354
▁绘	-2355
▁辐鳍	-2356
▁势	-2357
▁光绪	-2358
▁on	-2359
▁停止	-2360
▁估	-2361
▁不明	-2362
▁村落	-2363
▁袭	-2364
▁羽毛球	-2365
▁兴建	-2366
▁大臣	-2367
▁te	-2368
▁急	-2369
▁稳定	-2370
▁买	-2371
▁潘	-2372
▁贾	-2373
▁创办	-2374
▁旗下	-2375
▁篮	-2376
▁西藏	-2377
ill	-2378
▁解释	-2379
▁图书馆	-2380
▁筹	-2381
▁看到	-2382
▁sa	-2383
▁交流	-2384
▁创立	-2385
▁业务	-2386
▁驾	-2387
▁300	-2388
▁水域	-2389
▁观众	-2390
▁hans	-2391
▁江西	-2392
▁1945	-2393
▁算	-2394
▁mar	-2395
▁国务	-2396
斯科	-2397
▁之外	-2398
▁改名	-2399
▁儿童	-2400
▁十一	-2401
▁上映	-2402
▁南北	-2403
▁国立	-2404
▁尤其	-2405
▁亨	-2406
▁应该	-2407
▁所在	-2408
▁核心	-2409
25	-2410
▁价值	-2411
▁国会	-2412
▁重庆	-2413
▁再度	-2414
▁讨论	-2415
▁佐	-2416
▁1960	-2417
罗马	-2418
▁河北	-2419
▁章	-2420
▁国民党	-2421
▁基督教	-2422
▁旁	-2423
▁一场	-2424
▁文件	-2425
▁编号	-2426
▁四年	-2427
▁特征	-2428
▁销售	-2429
▁col	-2430
▁缅	-2431
▁迈	-2432
美洲	-2433
▁临时	-2434
▁课程	-2435
▁燃	-2436
▁端	-2437
匹克	-2438
▁梦	-2439
▁高度	-2440
▁现象	-2441
▁迅	-2442
▁言	-2443
▁这次	-2444
朋友	-2445
▁卷	-2446
▁靠	-2447
▁东西	-2448
▁以前	-2449
▁～	-2450
▁皇家	-2451
▁教区	-2452
▁滑	-2453
▁迷	-2454
▁建成	-2455
▁沉	-2456
▁投票	-2457
▁pro	-2458
自治	-2459
▁顿	-2460
▁操作	-2461
if	-2462
▁候	-2463
▁逝世	-2464
▁部份	-2465
▁阶段	-2466
▁川	-2467
▁失去	-2468
▁扎	-2469
▁陕西	-2470
▁生命	-2471
▁提名	-2472
▁潮	-2473
▁重点	-2474
▁风暴	-2475
▁肉	-2476
▁is	-2477
▁运动会	-2478
▁公主	-2479
▁更名	-2480
▁板	-2481
▁搜	-2482
21	-2483
▁体系	-2484
▁袁	-2485
▁大会	-2486
▁困	-2487
▁主演	-2488
方面	-2489
▁陶	-2490
▁凤	-2491
▁改编	-2492
▁证明	-2493
▁来源	-2494
▁茶	-2495
▁堂	-2496
▁蒂	-2497
▁秋	-2498
▁引擎	-2499
▁豪	-2500
隧道	-2501
▁结婚	-2502
▁锦标赛	-2503
▁1985	-2504
▁取消	-2505
▁卖	-2506
70	-2507
▁粉	-2508
ess	-2509
▁55	-2510
▁表面	-2511
▁昭	-2512
▁两种	-2513
▁二世	-2514
▁高雄	-2515
▁联合国	-2516
▁本地	-2517
▁器	-2518
ob	-2519
▁矿	-2520
比亚	-2521
▁忠	-2522
▁程序	-2523
▁命令	-2524
ra	-2525
▁移民	-2526
▁方案	-2527
▁咸	-2528
▁某些	-2529
▁之中	-2530
▁等等	-2531
▁慈	-2532
▁一世	-2533
▁拍摄	-2534
▁不可	-2535
▁大战	-2536
▁瑞典	-2537
▁制造	-2538
▁果	-2539
▁部门	-2540
▁资源	-2541
▁数学	-2542
▁ne	-2543
▁载	-2544
大陆	-2545
▁断	-2546
▁剑	-2547
▁宾	-2548
▁纯	-2549
▁养	-2550
▁1986	-2551
▁结合	-2552
▁澳洲	-2553
▁大道	-2554
▁纵	-2555
▁奥林匹克	-2556
▁尖	-2557
▁客运	-2558
▁曾任	-2559
▁倾	-2560
▁前身	-2561
▁氏	-2562
▁迎	-2563
▁规模	-2564
▁当年	-2565
▁测试	-2566
▁跑	-2567
▁失败	-2568
▁考虑	-2569
▁一同	-2570
▁普遍	-2571
▁得以	-2572
▁南方	-2573
▁马来	-2574
▁五年	-2575
▁西亚	-2576
▁宪法	-2577
▁首府	-2578
系列	-2579
▁允许	-2580
▁不得	-2581
▁效力	-2582
bo	-2583
▁德语	-2584
▁宜	-2585
▁总部	-2586
▁着作	-2587
▁报道	-2588
▁脚	-2589
▁1987	-2590
15	-2591
▁股份	-2592
ba	-2593
▁作出	-2594
▁以外	-2595
▁旋	-2596
▁生涯	-2597
▁1984	-2598
▁崔	-2599
▁孩子	-2600
▁饮	-2601
▁有所	-2602
▁提高	-2603
▁é	-2604
▁模型	-2605
▁机械	-2606
▁湖北	-2607
▁本身	-2608
▁质量	-2609
▁吃	-2610
up	-2611
▁48	-2612
▁阮	-2613
▁融	-2614
▁档	-2615
na	-2616
▁出来	-2617
▁裁	-2618
▁善	-2619
▁侍	-2620
▁否	-2621
▁古代	-2622
▁溪	-2623
尔兰	-2624
▁翻译	-2625
▁警方	-2626
▁责	-2627
▁选手	-2628
▁牵	-2629
▁一系列	-2630
▁身体	-2631
▁观察	-2632
▁电力	-2633
▁策	-2634
公路	-2635
姆斯	-2636
▁线路	-2637
▁185	-2638
解放军	-2639
▁发售	-2640
ok	-2641
▁插	-2642
▁京都	-2643
▁收录	-2644
ows	-2645
▁展开	-2646
▁侯	-2647
▁叛	-2648
▁士兵	-2649
▁童	-2650
▁材料	-2651
▁46	-2652
▁调整	-2653
▁柳	-2654
▁仁	-2655
▁于是	-2656
▁机关	-2657
▁乘客	-2658
▁瑞士	-2659
▁姓	-2660
ell	-2661
▁玻	-2662
▁权力	-2663
乾隆	-2664
▁胜利	-2665
▁变成	-2666
▁找到	-2667
▁海岸	-2668
▁巨大	-2669
▁创造	-2670
▁选区	-2671
▁43	-2672
▁阿拉伯	-2673
▁现场	-2674
▁广告	-2675
▁发出	-2676
▁毒	-2677
▁将会	-2678
▁相似	-2679
▁多年	-2680
▁灭	-2681
ice	-2682
▁小学	-2683
▁起来	-2684
▁42	-2685
und	-2686
▁运营	-2687
▁仙	-2688
西哥	-2689
▁路易	-2690
▁年底	-2691
▁之下	-2692
▁铁道	-2693
▁祖父	-2694
▁视为	-2695
▁芬	-2696
▁凭	-2697
▁金融	-2698
▁第七	-2699
▁安徽	-2700
▁隧道	-2701
▁容易	-2702
▁另一	-2703
▁既	-2704
▁旅客	-2705
▁中国人民解放军	-2706
▁1982	-2707
维亚	-2708
▁金属	-2709
合物	-2710
▁作者	-2711
▁辆	-2712
▁桃	-2713
▁鲤	-2714
18	-2715
▁中山	-2716
16	-2717
▁杭	-2718
▁试图	-2719
▁尽管	-2720
▁提升	-2721
▁卡尔	-2722
▁明显	-2723
▁砲	-2724
▁避免	-2725
▁1983	-2726
▁四个	-2727
▁消息	-2728
▁75	-2729
▁am	-2730
▁文章	-2731
▁雄	-2732
▁少数	-2733
▁态	-2734
▁至少	-2735
▁惠	-2736
▁轰	-2737
▁恢复	-2738
▁迅速	-2739
▁简单	-2740
▁界	-2741
▁鱼纲	-2742
▁全长	-2743
▁虎	-2744
▁陨	-2745
▁申请	-2746
▁地点	-2747
▁as	-2748
▁渡	-2749
▁财政	-2750
▁职务	-2751
▁武装	-2752
▁很大	-2753
▁数字	-2754
▁以后	-2755
▁特定	-2756
▁东方	-2757
▁争议	-2758
▁雨	-2759
▁安排	-2760
▁%	-2761
▁文字	-2762
会议	-2763
牙利	-2764
▁珍	-2765
▁匈牙利	-2766
▁信号	-2767
▁引发	-2768
▁折	-2769
▁雕	-2770
▁几个	-2771
▁以色	-2772
▁学术	-2773
▁森林	-2774
▁如此	-2775
all	-2776
▁磁	-2777
▁深圳	-2778
▁ap	-2779
▁广西	-2780
▁法院	-2781
▁撞	-2782
▁按照	-2783
▁or	-2784
▁以色列	-2785
45	-2786
▁wind	-2787
ian	-2788
▁维持	-2789
▁常见	-2790
▁笔	-2791
▁挑战	-2792
▁说法	-2793
17	-2794
▁寄	-2795
▁自行	-2796
▁乾隆	-2797
▁爵	-2798
90	-2799
▁朋友	-2800
▁hd	-2801
▁意思	-2802
拉克	-2803
▁个人	-2804
▁访问	-2805
▁医学	-2806
▁47	-2807
▁迫	-2808
▁有时	-2809
▁大楼	-2810
▁65	-2811
13	-2812
▁禁止	-2813
▁召开	-2814
▁不足	-2815
▁注意	-2816
▁四十	-2817
▁惊	-2818
▁邀请	-2819
▁市民	-2820
▁螺	-2821
▁拉丁	-2822
▁棒	-2823
▁yo	-2824
▁实行	-2825
▁才能	-2826
▁关注	-2827
▁背景	-2828
▁并非	-2829
▁侦	-2830
▁题	-2831
▁知识	-2832
▁其馀	-2833
▁新疆	-2834
▁飓	-2835
▁构成	-2836
▁吸引	-2837
▁气象	-2838
▁洋	-2839
▁飓风	-2840
▁中共中央	-2841
▁慕	-2842
▁出口	-2843
▁强烈	-2844
▁指定	-2845
▁专门	-2846
▁酒店	-2847
▁管辖	-2848
▁工人	-2849
ive	-2850
▁亿元	-2851
▁针对	-2852
▁博物馆	-2853
▁搬	-2854
▁竞争	-2855
▁作曲	-2856
▁悬	-2857
▁舍	-2858
▁解放	-2859
▁一项	-2860
▁淡水	-2861
47	-2862
▁素	-2863
▁全面	-2864
▁主角	-2865
▁抗日	-2866
▁高速公路	-2867
▁用来	-2868
▁墨西哥	-2869
▁授予	-2870
io	-2871
▁陆军	-2872
▁中间	-2873
▁配合	-2874
▁幸	-2875
▁北方	-2876
▁律	-2877
▁完整	-2878
▁感到	-2879
▁邨	-2880
▁白色	-2881
▁外国	-2882
▁教学	-2883
▁并不	-2884
▁at	-2885
▁疾	-2886
▁能量	-2887
▁冲突	-2888
▁con	-2889
▁特色	-2890
35	-2891
▁缓	-2892
▁凌	-2893
▁发起	-2894
▁品牌	-2895
▁心理	-2896
▁国务院	-2897
▁1979	-2898
▁武汉	-2899
▁仔	-2900
ack	-2901
▁地理	-2902
▁十年	-2903
▁鲍	-2904
▁be	-2905
▁比利	-2906
▁估计	-2907
▁镜	-2908
▁葛	-2909
▁编辑	-2910
▁楚	-2911
▁发电	-2912
▁土耳	-2913
▁土耳其	-2914
▁经历	-2915
▁英尺	-2916
人员	-2917
▁创建	-2918
▁评价	-2919
▁大小	-2920
▁灰	-2921
▁市区	-2922
议院	-2923
▁150	-2924
▁十三	-2925
▁猪	-2926
▁抵达	-2927
▁静	-2928
▁人数	-2929
规模	-2930
▁捐	-2931
▁先生	-2932
ver	-2933
▁钟	-2934
22	-2935
▁卫星	-2936
▁硕	-2937
▁增长	-2938
▁丝	-2939
▁资讯	-2940
▁哲学	-2941
▁宇宙	-2942
▁报导	-2943
▁400	-2944
ue	-2945
▁固定	-2946
▁合并	-2947
伯特	-2948
▁入侵	-2949
▁事实	-2950
art	-2951
▁更加	-2952
▁1978	-2953
▁大使	-2954
▁续	-2955
▁妇	-2956
▁ma	-2957
▁一切	-2958
▁并未	-2959
▁windows	-2960
▁储	-2961
▁牧	-2962
▁49	-2963
▁皇后	-2964
▁带来	-2965
▁承认	-2966
议员	-2967
▁产业	-2968
▁喜欢	-2969
▁如何	-2970
▁浮	-2971
▁乐团	-2972
▁校长	-2973
▁泰国	-2974
▁英雄	-2975
▁扬	-2976
▁go	-2977
▁原子	-2978
▁幕	-2979
14	-2980
▁标志	-2981
▁电台	-2982
▁喷	-2983
▁给予	-2984
▁抽	-2985
▁陷	-2986
▁盘	-2987
▁启用	-2988
▁恋	-2989
▁物质	-2990
▁海外	-2991
▁原来	-2992
▁被迫	-2993
▁篮球	-2994
▁主张	-2995
▁缺乏	-2996
▁父母	-2997
igh	-2998
▁北京市	-2999
ant	-3000
▁袭击	-3001
ph	-3002
▁很快	-3003
▁撤销	-3004
▁两年	-3005
▁表达	-3006
▁势力	-3007
37	-3008
▁坎	-3009
▁牌	-3010
▁采取	-3011
▁网路	-3012
▁菲律	-3013
▁十六	-3014
▁180	-3015
世纪	-3016
▁一度	-3017
▁少年	-3018
▁en	-3019
▁殿	-3020
▁ii	-3021
▁比如	-3022
▁久	-3023
▁效果	-3024
▁44	-3025
▁基因	-3026
▁勇	-3027
▁彩	-3028
▁se	-3029
▁气旋	-3030
▁条约	-3031
产生	-3032
▁64	-3033
▁列为	-3034
▁推动	-3035
▁珠	-3036
▁周边	-3037
▁字母	-3038
▁望	-3039
▁剩	-3040
ert	-3041
▁总督	-3042
▁觉	-3043
▁信仰	-3044
▁店	-3045
▁住宅	-3046
电视	-3047
▁锡	-3048
▁撰	-3049
▁加盟	-3050
游戏	-3051
▁朗	-3052
▁晚上	-3053
▁餐	-3054
▁小型	-3055
▁领袖	-3056
▁仪式	-3057
▁专家	-3058
▁1981	-3059
▁提到	-3060
▁了解	-3061
▁大致	-3062
▁猎	-3063
23	-3064
ge	-3065
▁捕	-3066
▁法兰	-3067
▁拓	-3068
▁留下	-3069
▁代码	-3070
▁压力	-3071
▁事业	-3072
▁即使	-3073
▁夺得	-3074
▁多数	-3075
▁收入	-3076
▁本站	-3077
▁经验	-3078
▁邦	-3079
▁需求	-3080
ity	-3081
▁软件	-3082
▁真正	-3083
▁十八	-3084
▁那些	-3085
▁修改	-3086
▁份	-3087
▁庞	-3088
26	-3089
▁正常	-3090
▁装置	-3091
▁医疗	-3092
斯基	-3093
▁混合	-3094
▁规则	-3095
▁&	-3096
▁水平	-3097
▁海洋	-3098
▁疏	-3099
▁刊	-3100
▁仓	-3101
▁苏格兰	-3102
▁从事	-3103
▁额	-3104
▁首先	-3105
▁灌	-3106
▁意义	-3107
▁市长	-3108
▁埃及	-3109
▁宿	-3110
▁延伸	-3111
▁洞	-3112
▁出席	-3113
▁所属	-3114
24	-3115
尔特	-3116
▁时任	-3117
▁接触	-3118
▁太空	-3119
▁栽	-3120
▁1946	-3121
▁累	-3122
▁刻	-3123
▁沟	-3124
oh	-3125
▁58	-3126
▁观点	-3127
▁售	-3128
▁填	-3129
后来	-3130
sp	-3131
▁相信	-3132
▁绝对	-3133
28	-3134
▁重大	-3135
▁放弃	-3136
▁因素	-3137
▁截至	-3138
▁河流	-3139
▁坦克	-3140
▁秒	-3141
▁贡献	-3142
▁积极	-3143
▁枚	-3144
▁灯	-3145
27	-3146
▁小组	-3147
▁健康	-3148
▁原名	-3149
▁球季	-3150
▁秀	-3151
▁照片	-3152
▁屯	-3153
▁改造	-3154
▁1958	-3155
▁舒	-3156
ib	-3157
▁加利福	-3158
▁降低	-3159
▁方程	-3160
▁烟	-3161
▁威胁	-3162
▁备	-3163
▁厄	-3164
▁现任	-3165
▁权利	-3166
▁劳动	-3167
▁退出	-3168
▁糖	-3169
▁多种	-3170
▁印尼	-3171
▁食物	-3172
▁明治	-3173
▁序	-3174
▁一所	-3175
▁秘密	-3176
▁粗	-3177
▁揭	-3178
▁十字	-3179
ich	-3180
▁pr	-3181
▁改善	-3182
▁56	-3183
▁舞台	-3184
▁观测	-3185
▁第一个	-3186
▁一步	-3187
▁腹	-3188
▁fr	-3189
▁焦	-3190
▁部落	-3191
▁传播	-3192
▁农村	-3193
▁露	-3194
▁代理	-3195
▁寿	-3196
时间	-3197
▁收购	-3198
▁今日	-3199
▁团队	-3200
▁一支	-3201
▁挪	-3202
▁当局	-3203
▁装甲	-3204
▁亚历	-3205
▁十五	-3206
▁翌	-3207
动物	-3208
扮演	-3209
▁愿	-3210
▁琉	-3211
▁抢	-3212
▁上市	-3213
▁爱尔兰	-3214
▁蛋白	-3215
▁误	-3216
▁万元	-3217
▁彼得	-3218
▁机器	-3219
▁尚书	-3220
▁待	-3221
▁次年	-3222
36	-3223
te	-3224
▁驾驶	-3225
▁涉及	-3226
▁鲜	-3227
▁政权	-3228
西洋	-3229
▁屏	-3230
▁相比	-3231
▁绕	-3232
▁保存	-3233
▁天体	-3234
75	-3235
bs	-3236
▁地图	-3237
▁办理	-3238
▁成都	-3239
自治区	-3240
▁闽	-3241
▁浓	-3242
▁近年	-3243
▁厘	-3244
美国	-3245
▁什么	-3246
▁对象	-3247
▁震	-3248
▁布鲁	-3249
▁历任	-3250
▁渔	-3251
▁君主	-3252
▁温度	-3253
▁日军	-3254
▁1920	-3255
▁济	-3256
▁法案	-3257
▁默	-3258
▁颜色	-3259
38	-3260
▁伴	-3261
▁原始	-3262
▁俗	-3263
▁黑色	-3264
▁学位	-3265
▁介绍	-3266
▁鹿	-3267
▁硕士	-3268
29	-3269
▁院长	-3270
▁样	-3271
美元	-3272
▁表明	-3273
▁工厂	-3274
▁那里	-3275
▁威尔	-3276
▁订	-3277
▁ad	-3278
▁sc	-3279
▁公众	-3280
▁突然	-3281
▁溶	-3282
▁不仅	-3283
▁详	-3284
开始	-3285
▁一级	-3286
▁工具	-3287
▁内阁	-3288
▁督	-3289
▁贺	-3290
▁测量	-3291
▁赶	-3292
▁尼亚	-3293
▁营运	-3294
▁边界	-3295
▁症	-3296
▁烧	-3297
▁司法	-3298
▁状况	-3299
▁浅	-3300
▁贝尔	-3301
▁1930	-3302
学位	-3303
ong	-3304
▁安德	-3305
▁九龙	-3306
▁贵族	-3307
▁执导	-3308
▁大区	-3309
▁广东省	-3310
▁习性	-3311
▁伊朗	-3312
▁篇	-3313
联赛	-3314
▁人大	-3315
▁ex	-3316
▁展示	-3317
▁经典	-3318
▁1948	-3319
时期	-3320
▁得知	-3321
▁不满	-3322
▁建于	-3323
▁太子	-3324
▁登陆	-3325
工程	-3326
▁1940	-3327
▁奈	-3328
▁投降	-3329
联盟	-3330
▁受伤	-3331
▁安装	-3332
▁性质	-3333
▁比例	-3334
▁兼任	-3335
▁种族	-3336
lay	-3337
▁堡	-3338
▁西南部	-3339
▁购买	-3340
▁衰	-3341
▁衣	-3342
▁扩大	-3343
▁教师	-3344
▁水库	-3345
▁1975	-3346
▁戏剧	-3347
▁原则	-3348
▁援	-3349
▁bo	-3350
▁民众	-3351
▁亮	-3352
▁淘	-3353
▁二人	-3354
▁疾病	-3355
▁符合	-3356
▁五十	-3357
▁意见	-3358
▁第八	-3359
▁签署	-3360
▁曾祖	-3361
▁液	-3362
▁领土	-3363
▁深度	-3364
▁意识	-3365
▁ph	-3366
▁示威	-3367
▁西北部	-3368
▁私人	-3369
▁指导	-3370
▁错误	-3371
▁丧	-3372
▁乡试	-3373
▁占领	-3374
▁行星	-3375
▁马来西亚	-3376
▁稍	-3377
▁毁	-3378
▁整体	-3379
▁1937	-3380
▁南极洲	-3381
▁打击	-3382
▁红色	-3383
▁请求	-3384
▁变得	-3385
▁布拉	-3386
▁依然	-3387
▁程式	-3388
拉夫	-3389
▁合成	-3390
▁上午	-3391
▁芝	-3392
▁办事	-3393
▁理事	-3394
▁栽培	-3395
▁桂	-3396
▁孤	-3397
▁美术	-3398
▁年初	-3399
▁塞尔	-3400
▁须	-3401
▁120	-3402
▁莫斯科	-3403
▁空中	-3404
▁教练	-3405
▁倍	-3406
▁设定	-3407
▁共产党	-3408
▁逮	-3409
▁抗议	-3410
▁败	-3411
▁列入	-3412
▁熊	-3413
▁六年	-3414
▁1956	-3415
▁用作	-3416
▁答	-3417
▁形象	-3418
▁队伍	-3419
▁册	-3420
盛顿	-3421
ate	-3422
▁哥伦	-3423
▁署	-3424
▁计算机	-3425
ug	-3426
▁名单	-3427
▁盟	-3428
▁两次	-3429
▁澳大利亚	-3430
▁欢迎	-3431
▁三角	-3432
▁爆炸	-3433
▁步兵	-3434
▁建制	-3435
▁藤	-3436
▁上述	-3437
46	-3438
▁动力	-3439
▁摄影	-3440
▁1947	-3441
▁遵	-3442
▁战略	-3443
▁赖	-3444
▁传说	-3445
▁众多	-3446
▁奖项	-3447
▁火山	-3448
▁民间	-3449
▁缅甸	-3450
▁一百	-3451
▁年龄	-3452
▁都市	-3453
▁套	-3454
▁今天	-3455
▁识	-3456
没有	-3457
▁火箭	-3458
▁伏	-3459
▁洗	-3460
▁名义	-3461
▁滨	-3462
▁一份	-3463
▁河畔	-3464
▁76	-3465
▁退休	-3466
▁57	-3467
▁往往	-3468
▁哈尔	-3469
▁走向	-3470
▁食品	-3471
▁政党	-3472
▁火车	-3473
▁毛泽	-3474
▁由此	-3475
▁粤	-3476
▁利亚	-3477
▁闻	-3478
▁摇	-3479
▁制定	-3480
▁1000	-3481
▁1941	-3482
▁丘	-3483
▁路口	-3484
▁修建	-3485
▁差异	-3486
▁化石	-3487
39	-3488
▁番	-3489
uc	-3490
▁垂	-3491
▁装备	-3492
▁大西洋	-3493
▁学会	-3494
主角	-3495
▁派出	-3496
▁朝廷	-3497
▁上海市	-3498
ry	-3499
▁率领	-3500
▁证据	-3501
▁─	-3502
▁康熙	-3503
▁山脉	-3504
▁喀	-3505
▁1976	-3506
▁丰富	-3507
进士	-3508
▁强调	-3509
▁鱼类	-3510
▁菲律宾	-3511
▁炸	-3512
▁燕	-3513
▁运作	-3514
ey	-3515
▁下降	-3516
▁扶	-3517
▁源自	-3518
▁毛泽东	-3519
▁家中	-3520
bc	-3521
▁圈	-3522
▁夫人	-3523
▁任教	-3524
▁大规模	-3525
▁贫	-3526
▁生成	-3527
▁耳	-3528
▁空军	-3529
▁相互	-3530
▁半岛	-3531
▁青岛	-3532
▁墙	-3533
▁其实	-3534
▁赐	-3535
ort	-3536
▁冒	-3537
▁挪威	-3538
▁中国大陆	-3539
贝尔	-3540
▁卫生	-3541
▁而言	-3542
▁主力	-3543
▁菜	-3544
▁厚	-3545
▁纸	-3546
▁华人	-3547
▁确认	-3548
▁周围	-3549
▁知县	-3550
▁氧化	-3551
▁从而	-3552
▁粒	-3553
▁损失	-3554
▁随即	-3555
▁并于	-3556
▁饰演	-3557
▁1973	-3558
▁北海	-3559
▁俄国	-3560
学生	-3561
▁那么	-3562
▁动作	-3563
▁票房	-3564
▁穆斯	-3565
四年	-3566
34	-3567
85	-3568
▁麦克	-3569
▁认识	-3570
▁隋	-3571
▁殖民地	-3572
▁签订	-3573
▁维尔	-3574
▁1972	-3575
▁奴	-3576
▁试验	-3577
▁克里斯	-3578
▁僧	-3579
▁例子	-3580
▁而成	-3581
部队	-3582
▁大坂	-3583
▁参考	-3584
▁平方米	-3585
▁早年	-3586
▁丈	-3587
▁1966	-3588
▁逮捕	-3589
▁出战	-3590
▁立即	-3591
▁1955	-3592
▁退役	-3593
▁刺史	-3594
▁恐怖	-3595
95	-3596
列车	-3597
▁坐标	-3598
▁围绕	-3599
▁cn	-3600
▁基于	-3601
▁驱逐	-3602
▁劝	-3603
▁1952	-3604
▁持有	-3605
▁司马	-3606
▁最近	-3607
32	-3608
▁做出	-3609
▁骑士	-3610
技术	-3611
▁具体	-3612
▁神经	-3613
▁寻找	-3614
分之	-3615
科学	-3616
▁岛屿	-3617
▁孝	-3618
▁顾问	-3619
▁54	-3620
▁66	-3621
▁西安	-3622
▁满足	-3623
▁编剧	-3624
▁引入	-3625
▁灾	-3626
▁so	-3627
▁预计	-3628
▁汪	-3629
▁派遣	-3630
▁渐	-3631
▁则是	-3632
▁开通	-3633
86	-3634
▁乐队	-3635
▁优秀	-3636
▁星系	-3637
银行	-3638
▁卡斯	-3639
▁柏林	-3640
▁努力	-3641
▁丹麦	-3642
▁阅	-3643
▁亨利	-3644
▁原住	-3645
▁玛丽	-3646
▁颇	-3647
▁淮	-3648
▁克斯	-3649
▁配音	-3650
▁波斯	-3651
▁价格	-3652
ix	-3653
▁为止	-3654
▁剧情	-3655
▁贵州	-3656
▁声音	-3657
▁犯罪	-3658
▁方言	-3659
▁日期	-3660
ain	-3661
▁600	-3662
▁丽	-3663
ect	-3664
ord	-3665
▁同盟	-3666
▁加强	-3667
▁彰	-3668
▁消费	-3669
尝试	-3670
▁煤	-3671
▁牙	-3672
▁浙江省	-3673
▁排行	-3674
▁一致	-3675
▁唐朝	-3676
▁轰炸	-3677
▁薛	-3678
▁说明	-3679
▁气候	-3680
▁凡	-3681
▁国防	-3682
▁关闭	-3683
▁特有	-3684
▁农民	-3685
▁1974	-3686
▁下令	-3687
33	-3688
▁解散	-3689
ly	-3690
▁转换	-3691
▁领导人	-3692
▁开设	-3693
▁城堡	-3694
▁月球	-3695
▁辩	-3696
▁山东省	-3697
▁出演	-3698
▁佛罗	-3699
▁1977	-3700
▁本人	-3701
▁行政区	-3702
▁少女	-3703
组织	-3704
▁污	-3705
▁执政	-3706
▁85	-3707
▁1968	-3708
▁已有	-3709
▁依据	-3710
▁四川省	-3711
▁浪	-3712
▁运用	-3713
▁泉	-3714
▁玄	-3715
▁五月	-3716
▁各国	-3717
▁撒	-3718
▁谋	-3719
▁晶	-3720
▁ac	-3721
▁资金	-3722
▁略	-3723
▁参选	-3724
▁付	-3725
ens	-3726
▁有着	-3727
▁大厦	-3728
ft	-3729
▁1954	-3730
▁自身	-3731
▁该省	-3732
▁花园	-3733
▁罢	-3734
▁任职	-3735
▁两者	-3736
▁更新	-3737
▁姚	-3738
▁空气	-3739
尼斯	-3740
▁犹太人	-3741
▁年前	-3742
▁荒	-3743
▁地质	-3744
▁促进	-3745
▁绍	-3746
▁冬季	-3747
▁华盛顿	-3748
▁免费	-3749
▁湘	-3750
▁所谓	-3751
▁此次	-3752
▁蛇	-3753
▁95	-3754
▁纲	-3755
▁练	-3756
▁实验室	-3757
▁柴油	-3758
▁1938	-3759
96	-3760
▁种子	-3761
▁1964	-3762
▁奥运会	-3763
▁碳	-3764
▁保守	-3765
▁me	-3766
▁1965	-3767
维奇	-3768
▁棋	-3769
▁1939	-3770
▁石油	-3771
▁首歌	-3772
▁事故	-3773
▁发明	-3774
▁辽宁	-3775
▁上下	-3776
▁・	-3777
ast	-3778
▁互相	-3779
▁真实	-3780
▁转向	-3781
▁傅	-3782
▁怪	-3783
▁脉	-3784
▁1944	-3785
▁强度	-3786
▁荣誉	-3787
▁800	-3788
▁奏	-3789
▁1971	-3790
▁措	-3791
维尔	-3792
▁三世	-3793
▁大幅	-3794
▁原有	-3795
▁尸	-3796
▁达成	-3797
▁监督	-3798
▁吉林	-3799
▁出入	-3800
▁弘	-3801
▁医生	-3802
▁佳	-3803
▁组建	-3804
▁诉	-3805
▁粮	-3806
▁大桥	-3807
▁氢	-3808
▁以南	-3809
▁含有	-3810
▁南非	-3811
▁1959	-3812
▁坚持	-3813
ace	-3814
▁胶	-3815
▁鬼	-3816
电影	-3817
ign	-3818
▁通车	-3819
▁大利	-3820
交通	-3821
▁伍	-3822
▁弟弟	-3823
▁事情	-3824
▁乳	-3825
▁陆续	-3826
▁枢	-3827
▁通道	-3828
▁予	-3829
▁jr	-3830
▁房屋	-3831
▁讲述	-3832
42	-3833
▁以北	-3834
▁税	-3835
▁回应	-3836
▁克拉	-3837
▁加州	-3838
方米	-3839
▁扮演	-3840
87	-3841
▁公元前	-3842
▁最多	-3843
▁一天	-3844
▁起义	-3845
▁本土	-3846
▁杭州	-3847
杉矶	-3848
▁阻止	-3849
▁cd	-3850
▁艺人	-3851
▁案件	-3852
▁各个	-3853
▁患者	-3854
▁泛	-3855
▁标为	-3856
▁难以	-3857
▁1969	-3858
▁平原	-3859
一个	-3860
▁无线	-3861
▁药物	-3862
▁这场	-3863
▁记忆	-3864
▁优势	-3865
▁到达	-3866
▁泥	-3867
▁恰	-3868
▁鲶	-3869
▁参谋	-3870
▁1957	-3871
44	-3872
▁防御	-3873
▁契	-3874
联邦	-3875
▁进步	-3876
▁通讯	-3877
▁方便	-3878
▁球会	-3879
大战	-3880
▁卡拉	-3881
球队	-3882
▁现今	-3883
▁卓	-3884
▁熟	-3885
man	-3886
▁王子	-3887
▁公爵	-3888
▁同性	-3889
德国	-3890
31	-3891
▁各自	-3892
▁科学家	-3893
▁衍	-3894
▁关键	-3895
▁北美	-3896
▁接替	-3897
▁蒸	-3898
▁1942	-3899
▁杰克	-3900
▁诞	-3901
ah	-3902
▁中期	-3903
帝国	-3904
▁文献	-3905
▁成本	-3906
▁扩展	-3907
▁旅行	-3908
▁升格	-3909
▁狮	-3910
▁符号	-3911
▁研发	-3912
▁分配	-3913
98	-3914
▁起源	-3915
▁’	-3916
▁术	-3917
▁1967	-3918
▁诚	-3919
▁甘肃	-3920
▁首个	-3921
▁挂	-3922
▁胸	-3923
国民	-3924
一步	-3925
▁引种	-3926
▁厘米	-3927
▁耶稣	-3928
▁湿	-3929
▁丈夫	-3930
▁转移	-3931
德华	-3932
▁兽	-3933
▁助理	-3934
▁只要	-3935
▁芬兰	-3936
▁婚姻	-3937
▁天皇	-3938
▁循	-3939
▁自杀	-3940
▁伪	-3941
▁苗	-3942
▁大奖	-3943
▁正面	-3944
▁演奏	-3945
▁nba	-3946
▁岳	-3947
▁狭	-3948
▁1953	-3949
one	-3950
▁成长	-3951
▁这部	-3952
▁长期	-3953
▁鸡	-3954
▁江苏省	-3955
ff	-3956
▁gr	-3957
▁遇到	-3958
end	-3959
76	-3960
▁打算	-3961
▁令人	-3962
▁保罗	-3963
▁酸	-3964
▁周年	-3965
▁改制	-3966
▁携	-3967
▁感染	-3968
▁敌人	-3969
▁推广	-3970
▁病毒	-3971
99	-3972
▁大多数	-3973
▁触	-3974
▁人民政府	-3975
▁惟	-3976
▁苦	-3977
德里	-3978
▁一款	-3979
▁修正	-3980
▁码头	-3981
代表大会	-3982
▁接收	-3983
▁日治	-3984
▁集合	-3985
▁危机	-3986
▁cent	-3987
教育	-3988
▁列出	-3989
▁爵士	-3990
▁美洲	-3991
78	-3992
▁服役	-3993
▁1961	-3994
▁淘汰	-3995
▁生存	-3996
▁逼	-3997
▁it	-3998
▁周期	-3999
▁告诉	-4000
▁1935	-4001
▁偷	-4002
▁巴尔	-4003
▁41	-4004
▁利益	-4005
▁藩	-4006
▁柔	-4007
▁展览	-4008
▁莎	-4009
▁声称	-4010
▁平面	-4011
▁突破	-4012
▁生态	-4013
▁常用	-4014
▁轴	-4015
▁困难	-4016
▁电话	-4017
▁发动机	-4018
▁赠	-4019
▁登上	-4020
▁1962	-4021
▁得名	-4022
▁危险	-4023
▁对方	-4024
▁1963	-4025
里斯	-4026
▁办事处	-4027
▁we	-4028
▁讚	-4029
▁最低	-4030
▁1943	-4031
▁井	-4032
▁主持人	-4033
▁→	-4034
▁当天	-4035
▁拆除	-4036
▁闪	-4037
▁山峰	-4038
▁大众	-4039
▁羊	-4040
▁奥地	-4041
▁马克	-4042
▁1936	-4043
▁家人	-4044
▁美军	-4045
▁之子	-4046
委书记	-4047
▁慢	-4048
▁ed	-4049
▁原住民	-4050
ore	-4051
▁直径	-4052
▁实际上	-4053
▁金牌	-4054
▁拼	-4055
▁讬	-4056
▁窗	-4057
▁薄	-4058
▁抓	-4059
西兰	-4060
▁he	-4061
▁op	-4062
▁塑	-4063
▁奥地利	-4064
▁玻璃	-4065
▁形目	-4066
▁手机	-4067
▁68	-4068
92	-4069
▁候选	-4070
▁意外	-4071
▁环形	-4072
▁改称	-4073
▁检查	-4074
▁趋	-4075
▁狄	-4076
▁升级	-4077
▁接任	-4078
▁棒球	-4079
▁秘书长	-4080
▁良好	-4081
▁特性	-4082
▁妇女	-4083
▁两位	-4084
▁适合	-4085
▁51	-4086
▁办公室	-4087
▁穆斯林	-4088
▁废除	-4089
▁增强	-4090
▁二战	-4091
▁硫	-4092
▁尺	-4093
▁最为	-4094
▁指示	-4095
▁进一步	-4096
▁~	-4097
▁接着	-4098
▁天然	-4099
▁新竹	-4100
▁主场	-4101
▁1951	-4102
▁首席	-4103
▁九年	-4104
▁商人	-4105
▁两名	-4106
▁昂	-4107
▁壁	-4108
▁站台	-4109
▁陨石	-4110
▁嘉靖	-4111
▁另一方面	-4112
▁涅	-4113
▁偶像	-4114
▁160	-4115
部长	-4116
▁翰	-4117
▁考试	-4118
97	-4119
▁第九	-4120
ust	-4121
▁军团	-4122
▁詹姆斯	-4123
▁阿根	-4124
65	-4125
▁饭	-4126
▁球场	-4127
▁在位	-4128
乐团	-4129
ss	-4130
▁sm	-4131
▁鲈	-4132
▁通用	-4133
▁每天	-4134
▁年轻	-4135
ith	-4136
▁天文台	-4137
▁丙	-4138
▁反映	-4139
▁软体	-4140
▁叙利亚	-4141
▁七年	-4142
▁斑	-4143
▁以此	-4144
▁尝试	-4145
▁消失	-4146
▁行政院	-4147
▁分支	-4148
▁建筑物	-4149
qu	-4150
▁海峡	-4151
▁阿根廷	-4152
蒙古	-4153
▁闭	-4154
▁拟	-4155
▁欲	-4156
▁这时	-4157
ight	-4158
▁52	-4159
▁mo	-4160
▁管理局	-4161
▁即位	-4162
▁合法	-4163
半岛	-4164
▁分离	-4165
▁同名	-4166
▁摆	-4167
▁大家	-4168
▁资产	-4169
▁理解	-4170
▁收到	-4171
▁首播	-4172
▁回归	-4173
▁食用	-4174
▁津	-4175
▁理想	-4176
▁这项	-4177
▁鼻	-4178
▁又称	-4179
▁×	-4180
▁港口	-4181
▁瓜	-4182
▁定居	-4183
▁附属	-4184
▁完工	-4185
▁剧本	-4186
▁态度	-4187
▁商品	-4188
▁师范	-4189
▁内战	-4190
▁tv	-4191
作用	-4192
利斯	-4193
▁曰	-4194
▁池	-4195
41	-4196
▁蕨	-4197
ps	-4198
▁使用者	-4199
▁斜	-4200
▁裔	-4201
▁昭和	-4202
43	-4203
▁雌	-4204
▁ng	-4205
▁共和国	-4206
▁频率	-4207
▁岭	-4208
▁国家队	-4209
▁忽	-4210
▁上升	-4211
▁咖	-4212
▁刀	-4213
▁天下	-4214
▁黑龙	-4215
▁会员	-4216
▁赏	-4217
▁舞蹈	-4218
▁响	-4219
▁链	-4220
▁大卫	-4221
▁无论	-4222
▁支流	-4223
▁脑	-4224
▁拖	-4225
▁身上	-4226
▁wh	-4227
▁出售	-4228
▁催	-4229
49	-4230
▁公安	-4231
▁儒	-4232
▁阿里	-4233
▁狂	-4234
▁id	-4235
此之	-4236
▁幻	-4237
▁社会主义	-4238
▁分裂	-4239
▁独特	-4240
▁留在	-4241
▁第一位	-4242
▁明确	-4243
▁古典	-4244
▁染	-4245
▁情报	-4246
▁将领	-4247
iz	-4248
▁市中心	-4249
▁苹	-4250
▁纷	-4251
尼亚州	-4252
▁活跃	-4253
▁ro	-4254
▁两国	-4255
▁彻	-4256
▁将其	-4257
▁出场	-4258
▁剪	-4259
▁两侧	-4260
▁这两	-4261
▁贴	-4262
▁现实	-4263
▁合约	-4264
▁抑	-4265
▁八年	-4266
▁主办	-4267
▁游泳	-4268
▁1933	-4269
▁防止	-4270
▁并将	-4271
▁停车	-4272
▁拉斯	-4273
ies	-4274
▁十七	-4275
▁文明	-4276
▁沿海	-4277
▁喜剧	-4278
▁资本	-4279
▁一词	-4280
▁启动	-4281
▁大部	-4282
▁终于	-4283
ma	-4284
▁吸收	-4285
亚洲	-4286
斯克	-4287
▁意味	-4288
▁兹	-4289
▁落成	-4290
▁陪	-4291
ux	-4292
▁2020	-4293
▁长江	-4294
▁声明	-4295
▁面对	-4296
雷斯	-4297
▁杀害	-4298
▁扫	-4299
▁郎	-4300
▁开展	-4301
▁谭	-4302
▁1927	-4303
int	-4304
▁采访	-4305
ire	-4306
▁戒	-4307
▁悲	-4308
▁下列	-4309
▁抵抗	-4310
▁宁波	-4311
▁可见	-4312
▁战后	-4313
▁条例	-4314
▁释放	-4315
▁典型	-4316
▁盗	-4317
▁逆	-4318
ock	-4319
▁萨尔	-4320
▁擅	-4321
▁收藏	-4322
▁冰川	-4323
▁特点	-4324
▁踪	-4325
▁姜	-4326
▁入选	-4327
▁铺	-4328
▁粒子	-4329
▁疑	-4330
▁授权	-4331
▁中式	-4332
▁交换	-4333
93	-4334
▁幽	-4335
pe	-4336
▁廖	-4337
▁撞击	-4338
▁暴力	-4339
▁货币	-4340
▁职位	-4341
演员	-4342
▁1928	-4343
▁伟	-4344
▁边境	-4345
▁措施	-4346
▁海上	-4347
▁身分	-4348
▁称作	-4349
▁兴趣	-4350
城市	-4351
▁性能	-4352
▁cl	-4353
▁一首	-4354
▁校区	-4355
▁传媒	-4356
▁至于	-4357
▁振	-4358
▁越来	-4359
▁未知	-4360
▁海南	-4361
▁现有	-4362
▁强大	-4363
之间	-4364
▁77	-4365
▁88	-4366
▁洛杉矶	-4367
▁荆	-4368
▁改建	-4369
▁不到	-4370
▁吐	-4371
尔顿	-4372
▁弥	-4373
▁猫	-4374
▁机制	-4375
▁证实	-4376
▁并没有	-4377
▁黑龙江	-4378
▁对外	-4379
▁法语	-4380
▁96	-4381
▁上阵	-4382
▁销量	-4383
▁收集	-4384
▁签约	-4385
▁年时	-4386
▁陷入	-4387
ne	-4388
▁鄂	-4389
▁1931	-4390
sh	-4391
▁添	-4392
▁保险	-4393
▁哥伦比亚	-4394
▁文艺	-4395
▁联系	-4396
▁克莱	-4397
▁对此	-4398
▁讯	-4399
▁吨	-4400
▁铸	-4401
▁老师	-4402
▁竞选	-4403
▁爱情	-4404
▁亚州	-4405
▁河南省	-4406
ond	-4407
▁布莱	-4408
▁推进	-4409
▁艘	-4410
▁一间	-4411
▁律师	-4412
萨斯	-4413
阳市	-4414
▁量子	-4415
▁肖	-4416
▁包围	-4417
▁战士	-4418
▁成就	-4419
▁考古	-4420
▁公交	-4421
▁一职	-4422
▁加利福尼	-4423
▁雍	-4424
▁邻近	-4425
▁等级	-4426
▁赋	-4427
▁学士	-4428
▁该市	-4429
▁毗	-4430
▁涂	-4431
▁演化	-4432
▁出版社	-4433
▁学科	-4434
▁升任	-4435
▁献	-4436
▁汉族	-4437
▁靠近	-4438
▁寮	-4439
▁化合物	-4440
▁斩	-4441
▁痛	-4442
▁古老	-4443
▁姐	-4444
▁1932	-4445
▁大师	-4446
▁论文	-4447
▁锺	-4448
▁勋	-4449
▁sch	-4450
▁台北市	-4451
▁夹	-4452
▁形状	-4453
▁共产	-4454
▁绿色	-4455
▁car	-4456
▁不要	-4457
▁本届	-4458
▁十月	-4459
▁苹果	-4460
▁带领	-4461
▁第十一	-4462
▁所在地	-4463
▁cod	-4464
▁原先	-4465
▁纳粹	-4466
▁这颗	-4467
▁域	-4468
▁从此	-4469
▁影响力	-4470
障碍	-4471
▁bl	-4472
▁屈	-4473
▁影像	-4474
▁牵引	-4475
▁日报	-4476
▁严格	-4477
▁朴	-4478
▁常常	-4479
▁67	-4480
▁审查	-4481
▁‘	-4482
▁德里	-4483
▁谈判	-4484
▁认定	-4485
▁豆	-4486
▁十九	-4487
▁每日	-4488
▁诗人	-4489
▁警告	-4490
▁柱	-4491
▁中有	-4492
▁1934	-4493
▁报纸	-4494
▁转变	-4495
▁用途	-4496
▁逢	-4497
▁形容	-4498
▁首位	-4499
▁路段	-4500
▁布尔	-4501
▁play	-4502
▁直隶	-4503
▁苏丹	-4504
▁sy	-4505
▁弱	-4506
▁货物	-4507
▁仿	-4508
▁钻	-4509
▁dv	-4510
▁维护	-4511
▁妹	-4512
▁诏	-4513
▁监狱	-4514
▁收视	-4515
▁矛	-4516
▁蒙特	-4517
▁教育部	-4518
▁星等	-4519
▁近代	-4520
▁摧	-4521
▁延长	-4522
▁旺	-4523
▁五个	-4524
▁86	-4525
▁校园	-4526
▁怀疑	-4527
▁射击	-4528
ick	-4529
▁重量	-4530
建筑	-4531
▁披	-4532
▁装饰	-4533
▁推荐	-4534
音乐	-4535
▁姊	-4536
▁环形山	-4537
94	-4538
▁宣称	-4539
生物	-4540
▁内蒙古	-4541
▁质疑	-4542
▁碑	-4543
▁上帝	-4544
▁南美洲	-4545
▁探险	-4546
▁欧盟	-4547
经济	-4548
▁提及	-4549
▁保障	-4550
▁电气	-4551
▁hant	-4552
▁inter	-4553
▁适用	-4554
▁处于	-4555
▁居民点	-4556
▁单元	-4557
▁78	-4558
▁手段	-4559
ern	-4560
▁风险	-4561
▁圣经	-4562
▁gam	-4563
机车	-4564
▁自称	-4565
▁港元	-4566
▁责任	-4567
▁模拟	-4568
▁猛	-4569
ai	-4570
▁更是	-4571
▁敬	-4572
▁并以	-4573
▁厦	-4574
▁打破	-4575
▁角度	-4576
▁享年	-4577
▁爱德华	-4578
工业	-4579
▁亲自	-4580
逻辑	-4581
▁另有	-4582
▁培养	-4583
▁大赛	-4584
▁视频	-4585
▁53	-4586
▁贯	-4587
▁研究生	-4588
▁开幕	-4589
加拉	-4590
▁来到	-4591
unt	-4592
▁下来	-4593
▁支付	-4594
▁输入	-4595
▁脊	-4596
▁后者	-4597
▁峰	-4598
▁市政府	-4599
▁肌	-4600
▁两岸	-4601
▁决议	-4602
▁种类	-4603
▁艺术家	-4604
▁司令部	-4605
公园	-4606
▁ge	-4607
小时	-4608
▁姆	-4609
决赛	-4610
ber	-4611
▁干部	-4612
▁保证	-4613
▁以东	-4614
▁凌晨	-4615
▁象征	-4616
▁挖	-4617
▁正确	-4618
塞尔	-4619
▁未有	-4620
▁写作	-4621
▁档案	-4622
91	-4623
▁暂时	-4624
▁珊	-4625
▁平衡	-4626
▁cr	-4627
▁汗	-4628
▁肥	-4629
▁称呼	-4630
科学院	-4631
▁西班牙语	-4632
▁神话	-4633
▁称号	-4634
▁伊斯兰	-4635
56	-4636
▁哪	-4637
ial	-4638
气压	-4639
▁控股	-4640
▁联络	-4641
▁现为	-4642
▁客户	-4643
▁规范	-4644
▁骑兵	-4645
▁魔法	-4646
▁缩写	-4647
▁110	-4648
▁1929	-4649
▁浦	-4650
▁紧急	-4651
son	-4652
▁福州	-4653
▁军区	-4654
▁沿岸	-4655
▁分成	-4656
▁鼓励	-4657
▁河北省	-4658
计划	-4659
▁人权	-4660
国会	-4661
▁发言	-4662
▁最好	-4663
▁公斤	-4664
▁本作	-4665
▁昌	-4666
▁末期	-4667
▁地形	-4668
▁货运	-4669
▁早上	-4670
少年	-4671
▁巴基	-4672
▁北海道	-4673
▁邵	-4674
政协	-4675
▁吞	-4676
▁本线	-4677
▁无人	-4678
▁高雄市	-4679
▁波尔	-4680
▁领地	-4681
▁三国	-4682
▁翌年	-4683
▁以西	-4684
▁屠	-4685
▁棘	-4686
▁ht	-4687
▁任期	-4688
▁福建省	-4689
▁加速	-4690
▁齿	-4691
▁700	-4692
▁区的	-4693
▁假设	-4694
▁理由	-4695
▁岛上	-4696
▁该片	-4697
▁教宗	-4698
▁起初	-4699
▁创始	-4700
▁尼克	-4701
▁很少	-4702
▁par	-4703
▁院士	-4704
▁局长	-4705
▁掉	-4706
▁颗	-4707
▁敏	-4708
▁宏	-4709
▁像是	-4710
▁并入	-4711
▁mac	-4712
▁的关	-4713
▁候选人	-4714
ment	-4715
▁主体	-4716
▁呈现	-4717
▁高达	-4718
▁此事	-4719
▁巫	-4720
▁98	-4721
加哥	-4722
ii	-4723
▁嫁	-4724
▁颁奖	-4725
▁joh	-4726
▁丹尼	-4727
▁清代	-4728
▁倾向	-4729
▁埃尔	-4730
▁叔	-4731
▁展出	-4732
▁谁	-4733
▁暨	-4734
▁商场	-4735
▁卒	-4736
▁一点	-4737
▁该校	-4738
se	-4739
▁充满	-4740
▁争取	-4741
▁主流	-4742
▁边缘	-4743
▁颁发	-4744
▁改进	-4745
▁ー	-4746
▁el	-4747
▁东亚	-4748
▁地利	-4749
▁菩	-4750
▁气体	-4751
▁非法	-4752
▁新界	-4753
▁互联	-4754
▁此地	-4755
▁歧	-4756
▁下属	-4757
▁足够	-4758
ung	-4759
▁网球	-4760
▁人生	-4761
▁惨	-4762
▁冈	-4763
▁昇	-4764
▁一张	-4765
▁芝加哥	-4766
▁情形	-4767
▁伊拉克	-4768
▁剧集	-4769
▁第二十	-4770
▁回忆	-4771
▁纹	-4772
▁尹	-4773
▁亲王	-4774
▁剧场	-4775
▁一半	-4776
▁登场	-4777
▁拘	-4778
▁出发	-4779
▁本科	-4780
▁一人	-4781
▁通知	-4782
▁育	-4783
▁对应	-4784
62	-4785
▁佛罗里	-4786
文学	-4787
▁lin	-4788
▁1912	-4789
▁指控	-4790
▁遭受	-4791
▁贩	-4792
▁重视	-4793
▁满洲	-4794
▁自我	-4795
▁抱	-4796
▁似乎	-4797
▁必要	-4798
▁感觉	-4799
▁壮	-4800
▁埋	-4801
▁整合	-4802
▁法官	-4803
▁益	-4804
▁通往	-4805
▁终点	-4806
▁群众	-4807
▁man	-4808
▁遣	-4809
ure	-4810
▁突出	-4811
▁加以	-4812
▁咖啡	-4813
▁回国	-4814
▁发挥	-4815
▁蓝色	-4816
▁般	-4817
▁途中	-4818
▁监察	-4819
▁hr	-4820
▁想要	-4821
▁查理	-4822
▁摧毁	-4823
▁ak	-4824
▁创新	-4825
▁这座	-4826
▁席位	-4827
▁湖泊	-4828
▁扩张	-4829
ina	-4830
▁财产	-4831
▁龟	-4832
ier	-4833
▁my	-4834
▁南海	-4835
▁法庭	-4836
▁禅	-4837
民主	-4838
▁录音	-4839
▁违反	-4840
产品	-4841
ath	-4842
▁科尔	-4843
▁谱	-4844
▁审判	-4845
▁蹟	-4846
政治	-4847
▁专用	-4848
▁摇滚	-4849
▁被捕	-4850
▁交界	-4851
▁替代	-4852
▁梵	-4853
▁市政	-4854
▁抚	-4855
萨克	-4856
▁可是	-4857
▁已知	-4858
▁同日	-4859
▁战场	-4860
▁评估	-4861
▁总裁	-4862
▁us	-4863
▁战斗机	-4864
▁new	-4865
▁四月	-4866
▁青少年	-4867
▁缘	-4868
世界大战	-4869
▁书籍	-4870
▁节度	-4871
▁带有	-4872
▁勃	-4873
▁务	-4874
▁葬	-4875
▁秘鲁	-4876
▁通信	-4877
▁诊	-4878
▁公转	-4879
▁典礼	-4880
瓦尔	-4881
▁布朗	-4882
▁撤退	-4883
▁布里	-4884
▁乱	-4885
▁遭遇	-4886
▁路易斯	-4887
▁拨	-4888
▁72	-4889
68	-4890
米尔	-4891
▁接下	-4892
▁当代	-4893
▁代替	-4894
▁蒲	-4895
▁巴基斯坦	-4896
细胞	-4897
▁矩	-4898
▁辐射	-4899
▁信徒	-4900
▁融合	-4901
▁协调	-4902
伦敦	-4903
▁泽	-4904
▁天气	-4905
▁策略	-4906
▁四大	-4907
▁130	-4908
▁净	-4909
▁鸭	-4910
▁低气压	-4911
▁当日	-4912
▁序列	-4913
经理	-4914
▁最小	-4915
▁循环	-4916
▁碰	-4917
▁相反	-4918
▁史密	-4919
▁形态	-4920
▁格拉	-4921
▁女孩	-4922
▁瑟	-4923
▁车队	-4924
▁奥尔	-4925
▁输出	-4926
▁dvd	-4927
▁140	-4928
▁首相	-4929
▁依照	-4930
▁中将	-4931
ory	-4932
▁dr	-4933
▁女王	-4934
▁出道	-4935
▁单独	-4936
山大	-4937
▁画家	-4938
▁莲	-4939
▁三人	-4940
▁值得	-4941
▁转会	-4942
▁日常	-4943
▁收费	-4944
▁斯塔	-4945
▁忍	-4946
▁西侧	-4947
▁如今	-4948
yle	-4949
▁聚集	-4950
▁道德	-4951
▁狼	-4952
▁1925	-4953
▁邱	-4954
▁相应	-4955
▁顺利	-4956
▁柴油机	-4957
▁页	-4958
▁清华	-4959
▁御史	-4960
▁主管	-4961
▁预测	-4962
▁新建	-4963
▁逻辑	-4964
▁桃园	-4965
▁一套	-4966
▁病逝	-4967
▁氯	-4968
▁拳	-4969
▁敦	-4970
▁脂	-4971
▁1924	-4972
▁菊	-4973
▁罗斯	-4974
▁视星	-4975
阳县	-4976
▁特拉	-4977
▁币	-4978
▁湖南省	-4979
▁臣	-4980
▁复盖	-4981
▁狗	-4982
▁体育场	-4983
阶段	-4984
▁辅助	-4985
▁衡	-4986
▁稀	-4987
71	-4988
▁一共	-4989
▁子女	-4990
▁作业	-4991
▁wor	-4992
▁江南	-4993
▁引进	-4994
az	-4995
▁1919	-4996
十年	-4997
▁效应	-4998
▁联合会	-4999
xt	-5000
▁递	-5001
▁1918	-5002
▁供应	-5003
▁本片	-5004
▁琼	-5005
▁视星等	-5006
▁游行	-5007
▁脱离	-5008
▁认证	-5009
▁琉球	-5010
ogle	-5011
▁克罗	-5012
▁大选	-5013
▁烈	-5014
▁总会	-5015
▁放在	-5016
▁剂	-5017
▁卵	-5018
▁寒	-5019
▁之战	-5020
▁前后	-5021
▁地名	-5022
▁根本	-5023
▁恐龙	-5024
▁军官	-5025
▁征服	-5026
▁呎	-5027
▁抛	-5028
72	-5029
▁肺	-5030
▁现存	-5031
▁翁	-5032
▁东侧	-5033
洋舰	-5034
▁复杂	-5035
▁道光	-5036
88	-5037
▁在内	-5038
▁选出	-5039
▁编码	-5040
▁详细	-5041
cl	-5042
▁mv	-5043
▁千米	-5044
▁成人	-5045
动画	-5046
▁传教	-5047
▁总站	-5048
▁google	-5049
▁晋级	-5050
▁驱动	-5051
▁总教	-5052
▁致力	-5053
▁匹	-5054
▁‧	-5055
▁借由	-5056
▁俗称	-5057
▁掩	-5058
▁ho	-5059
▁籍	-5060
▁超越	-5061
▁贪	-5062
纪录	-5063
议会	-5064
▁ip	-5065
▁东南亚	-5066
机构	-5067
▁99	-5068
▁能源	-5069
▁以便	-5070
▁奴隶	-5071
▁商店	-5072
▁1926	-5073
▁区间	-5074
群岛	-5075
▁印刷	-5076
▁av	-5077
▁上面	-5078
▁全世界	-5079
73	-5080
▁队长	-5081
co	-5082
▁掌握	-5083
▁汉语	-5084
▁主打	-5085
▁询	-5086
▁自此	-5087
▁用以	-5088
▁柬	-5089
▁成年	-5090
▁吉他	-5091
▁安东	-5092
▁吹	-5093
▁郊	-5094
▁邪	-5095
▁河道	-5096
iss	-5097
▁删	-5098
▁性别	-5099
▁绳	-5100
人民代表大会	-5101
▁可用	-5102
▁意味着	-5103
▁琴	-5104
▁苏州	-5105
▁山西省	-5106
▁男女	-5107
马斯	-5108
▁国军	-5109
74	-5110
▁奠	-5111
▁涵	-5112
▁直播	-5113
▁250	-5114
▁指数	-5115
▁а	-5116
▁救援	-5117
▁电动	-5118
协会	-5119
▁透露	-5120
范围	-5121
▁极大	-5122
▁配置	-5123
▁三月	-5124
▁大部份	-5125
▁彰化	-5126
▁国道	-5127
▁发音	-5128
▁提议	-5129
▁书院	-5130
▁霸	-5131
▁170	-5132
▁原型	-5133
▁辞职	-5134
▁都督	-5135
ont	-5136
▁永久	-5137
▁互联网	-5138
▁1922	-5139
▁腓	-5140
▁mus	-5141
▁泡	-5142
▁大夫	-5143
举行	-5144
▁多利	-5145
▁蜀	-5146
▁希特	-5147
55	-5148
▁巴拉	-5149
▁赤纬	-5150
▁名人	-5151
▁种植	-5152
▁脸	-5153
▁攻打	-5154
▁如同	-5155
▁物体	-5156
▁八月	-5157
▁歌词	-5158
▁奥斯卡	-5159
▁同学	-5160
▁停靠	-5161
▁燃料	-5162
▁*	-5163
尔夫	-5164
▁支持者	-5165
▁反而	-5166
阶级	-5167
▁竞赛	-5168
▁该党	-5169
▁大将	-5170
▁叛乱	-5171
▁赤经	-5172
▁画面	-5173
▁推行	-5174
▁正是	-5175
艺术	-5176
▁实力	-5177
▁陨石坑	-5178
▁预算	-5179
▁邮政	-5180
77	-5181
▁明星	-5182
▁立场	-5183
▁1914	-5184
▁腐	-5185
小说	-5186
▁南极条	-5187
▁入口	-5188
▁游击	-5189
▁欣	-5190
66	-5191
▁七月	-5192
ide	-5193
▁行业	-5194
▁两条	-5195
▁划分	-5196
▁筑	-5197
▁青海	-5198
▁伽	-5199
▁对手	-5200
▁委任	-5201
▁全国人民代表大会	-5202
so	-5203
▁北面	-5204
83	-5205
▁center	-5206
▁登记	-5207
▁数位	-5208
ld	-5209
▁月底	-5210
▁衍生	-5211
▁工作室	-5212
▁资助	-5213
▁培训	-5214
中国	-5215
▁地带	-5216
▁59	-5217
▁构造	-5218
▁63	-5219
▁王位	-5220
业务	-5221
▁手术	-5222
53	-5223
▁纤	-5224
▁相连	-5225
▁航班	-5226
▁北市	-5227
▁人次	-5228
▁夸	-5229
▁钦	-5230
▁岩石	-5231
▁祝	-5232
▁南昌	-5233
▁排列	-5234
▁较大	-5235
▁逐步	-5236
▁罕	-5237
▁平民	-5238
▁仇	-5239
▁彻底	-5240
▁探测	-5241
▁游客	-5242
▁餐厅	-5243
▁入球	-5244
▁62	-5245
▁觉得	-5246
▁离子	-5247
▁女主角	-5248
ish	-5249
64	-5250
▁键	-5251
▁主权	-5252
▁长沙	-5253
79	-5254
时代	-5255
▁省级	-5256
▁连载	-5257
▁伸	-5258
▁诱	-5259
▁人才	-5260
武帝	-5261
mm	-5262
关系	-5263
▁中原	-5264
▁族群	-5265
▁症状	-5266
▁の	-5267
▁一生	-5268
▁奔	-5269
▁扩建	-5270
人民政府	-5271
▁经由	-5272
▁引用	-5273
▁赞助	-5274
▁担心	-5275
▁迪士	-5276
▁适应	-5277
▁国东	-5278
▁耐	-5279
▁迪士尼	-5280
1900	-5281
▁区别	-5282
▁格式	-5283
▁弗里	-5284
▁高架	-5285
▁纠	-5286
▁叫做	-5287
▁大气	-5288
▁大连	-5289
▁sao	-5290
▁污染	-5291
▁山地	-5292
▁旨	-5293
▁61	-5294
▁地上	-5295
▁有机	-5296
▁保安	-5297
▁寻求	-5298
▁工商	-5299
▁想法	-5300
▁日语	-5301
▁公开赛	-5302
▁哈尔滨	-5303
▁色彩	-5304
ube	-5305
89	-5306
▁ag	-5307
▁常务	-5308
▁占地	-5309
▁修道	-5310
▁导弹	-5311
▁讷	-5312
▁开办	-5313
▁来说	-5314
▁配备	-5315
▁john	-5316
aw	-5317
▁1913	-5318
▁江户	-5319
▁时会	-5320
▁企图	-5321
▁察	-5322
▁连任	-5323
节目	-5324
▁坐落	-5325
▁安徽省	-5326
▁巡洋舰	-5327
▁comp	-5328
成员	-5329
▁消防	-5330
▁官至	-5331
▁首度	-5332
▁北平	-5333
▁翰林	-5334
▁扭	-5335
▁嘴	-5336
▁外观	-5337
▁战术	-5338
▁中南	-5339
▁春秋	-5340
▁州府	-5341
▁不得不	-5342
▁手枪	-5343
▁赌	-5344
▁二次	-5345
▁积分	-5346
▁格雷	-5347
▁堆	-5348
▁神秘	-5349
▁产地	-5350
埔寨	-5351
▁ser	-5352
▁障碍	-5353
▁大公	-5354
▁祈	-5355
▁拿下	-5356
▁柬埔寨	-5357
▁弯	-5358
▁斗争	-5359
▁平等	-5360
▁部位	-5361
▁弗朗	-5362
▁棕	-5363
▁笑	-5364
▁评为	-5365
▁逾	-5366
▁诞生	-5367
▁捷克	-5368
▁理查	-5369
▁镜头	-5370
▁磨	-5371
▁银经	-5372
▁之上	-5373
▁成熟	-5374
▁α	-5375
▁割	-5376
▁砂	-5377
▁ン	-5378
▁伊利	-5379
▁最新	-5380
▁相继	-5381
▁银纬	-5382
▁沙田	-5383
▁陵	-5384
▁微软	-5385
▁习惯	-5386
▁大都	-5387
▁1917	-5388
▁呼吁	-5389
▁二月	-5390
▁镇压	-5391
ational	-5392
▁吏	-5393
▁合唱	-5394
ton	-5395
▁全线	-5396
▁磷	-5397
▁战队	-5398
▁1923	-5399
▁鸟类	-5400
▁斯托	-5401
▁交汇	-5402
▁先进	-5403
▁党员	-5404
▁成分	-5405
▁航空公司	-5406
▁妹妹	-5407
▁砖	-5408
▁剩下	-5409
▁大街	-5410
▁拱	-5411
▁时段	-5412
维斯	-5413
▁第一部	-5414
▁莱茵	-5415
▁削	-5416
▁哥哥	-5417
部门	-5418
▁波士	-5419
▁几何	-5420
▁任天	-5421
▁客家	-5422
▁修订	-5423
▁翼	-5424
▁作曲家	-5425
路线	-5426
▁ist	-5427
克尔	-5428
▁lov	-5429
▁航线	-5430
▁back	-5431
▁检察	-5432
▁碎	-5433
82	-5434
研究	-5435
▁切尔	-5436
▁经济学	-5437
击败	-5438
▁施工	-5439
▁冒险	-5440
67	-5441
▁少将	-5442
▁二级	-5443
▁襄	-5444
▁绑	-5445
▁codice	-5446
▁о	-5447
ala	-5448
▁聘	-5449
▁九月	-5450
▁单一	-5451
▁1921	-5452
▁指令	-5453
纪念	-5454
▁他人	-5455
▁全新	-5456
▁全国政协	-5457
▁堪	-5458
▁向量	-5459
▁援助	-5460
▁座位	-5461
▁任天堂	-5462
▁六月	-5463
ep	-5464
▁尼斯	-5465
ans	-5466
▁块	-5467
▁即将	-5468
▁火星	-5469
au	-5470
▁激烈	-5471
▁综艺	-5472
导致	-5473
▁款	-5474
▁蓬	-5475
▁演艺	-5476
▁德意	-5477
▁马尔	-5478
▁凶	-5479
▁政治家	-5480
▁外交部	-5481
▁影视	-5482
▁甜	-5483
▁十大	-5484
▁定理	-5485
▁世界杯	-5486
61	-5487
▁妈	-5488
司令	-5489
▁判决	-5490
▁降雨	-5491
age	-5492
▁慕尼	-5493
台湾	-5494
▁女人	-5495
58	-5496
▁手中	-5497
▁中正	-5498
歌手	-5499
▁格林	-5500
▁宰	-5501
▁扁	-5502
▁出入口	-5503
▁史密斯	-5504
▁杀死	-5505
▁猪笼	-5506
▁fo	-5507
▁债	-5508
▁奥斯曼	-5509
▁共计	-5510
▁一处	-5511
▁认同	-5512
▁主动	-5513
▁三甲	-5514
▁伯爵	-5515
▁台南	-5516
▁布雷	-5517
▁确保	-5518
▁慈善	-5519
▁场景	-5520
▁研究院	-5521
▁三种	-5522
▁美丽	-5523
ary	-5524
▁no	-5525
▁原理	-5526
▁底层	-5527
▁耗	-5528
▁1911	-5529
▁怎	-5530
▁晋升	-5531
▁3000	-5532
▁多尔	-5533
51	-5534
▁慕尼黑	-5535
52	-5536
管理	-5537
▁斯洛	-5538
▁行走	-5539
▁福利	-5540
▁营业	-5541
▁搜索	-5542
▁德意志	-5543
▁黑暗	-5544
▁排行榜	-5545
▁图案	-5546
▁新北	-5547
▁本名	-5548
▁歌唱	-5549
▁镇区	-5550
▁流传	-5551
▁net	-5552
▁山区	-5553
▁智慧	-5554
▁泰勒	-5555
▁style	-5556
▁俘	-5557
▁雇	-5558
▁密度	-5559
▁蛛	-5560
▁聚落	-5561
▁qu	-5562
▁比亚	-5563
▁国际赛	-5564
▁清楚	-5565
▁第十二	-5566
▁办法	-5567
▁剧院	-5568
▁私立	-5569
▁南面	-5570
▁租界	-5571
▁更为	-5572
▁大同	-5573
选为	-5574
▁更换	-5575
▁水深	-5576
分之一	-5577
▁猜	-5578
▁观光	-5579
▁基隆	-5580
▁推翻	-5581
▁em	-5582
▁有名	-5583
▁裂	-5584
▁旧址	-5585
▁军人	-5586
▁天使	-5587
▁运转	-5588
▁罚	-5589
▁ab	-5590
▁阅读	-5591
▁丛	-5592
ach	-5593
▁定期	-5594
▁标本	-5595
▁物品	-5596
▁猪笼草	-5597
▁不详	-5598
69	-5599
▁共产主义	-5600
▁踏	-5601
54	-5602
▁po	-5603
lar	-5604
▁厦门	-5605
▁行驶	-5606
▁趁	-5607
▁深入	-5608
▁新城	-5609
▁明代	-5610
▁读者	-5611
▁太守	-5612
▁国民政府	-5613
▁视觉	-5614
▁古巴	-5615
▁证券	-5616
▁好友	-5617
▁竟	-5618
▁普鲁	-5619
▁正月	-5620
▁加工	-5621
▁反抗	-5622
57	-5623
▁刺激	-5624
▁有意	-5625
▁裁判	-5626
▁$	-5627
▁金山	-5628
▁钢琴	-5629
round	-5630
▁依赖	-5631
▁汉字	-5632
▁廉	-5633
▁面临	-5634
▁消灭	-5635
▁dna	-5636
81	-5637
▁以往	-5638
分子	-5639
▁设计师	-5640
▁合同	-5641
▁崩	-5642
▁集体	-5643
▁陕西省	-5644
中学	-5645
▁理念	-5646
anc	-5647
▁即可	-5648
▁每次	-5649
▁同步	-5650
▁株	-5651
▁周刊	-5652
▁首任	-5653
不同	-5654
▁解除	-5655
▁常委	-5656
大楼	-5657
热带	-5658
▁sup	-5659
▁其父	-5660
▁便是	-5661
▁肯定	-5662
▁德拉	-5663
▁特区	-5664
▁矛盾	-5665
运动会	-5666
▁人民币	-5667
▁丞	-5668
▁圣母	-5669
▁喇	-5670
▁混乱	-5671
▁赫尔	-5672
▁建筑师	-5673
▁路上	-5674
▁矮	-5675
▁一篇	-5676
▁湖北省	-5677
▁机动	-5678
▁69	-5679
▁垂直	-5680
84	-5681
▁上方	-5682
▁战国	-5683
▁74	-5684
▁主导	-5685
产业	-5686
▁座堂	-5687
▁留学	-5688
▁met	-5689
▁方程式	-5690
▁全体	-5691
▁浏	-5692
▁模特	-5693
▁自治区	-5694
▁遗传	-5695
span	-5696
▁革	-5697
▁伤害	-5698
▁架构	-5699
▁歌剧	-5700
▁织	-5701
希腊	-5702
ile	-5703
▁大字	-5704
▁嘉义	-5705
▁延续	-5706
▁colspan	-5707
▁工会	-5708
▁元朝	-5709
二年	-5710
▁三次	-5711
▁一批	-5712
▁狮子	-5713
▁型号	-5714
▁费用	-5715
▁惯	-5716
▁sk	-5717
▁获胜	-5718
▁庆祝	-5719
▁天津市	-5720
▁巧	-5721
▁沈阳	-5722
▁选秀	-5723
▁编写	-5724
此之外	-5725
▁中世纪	-5726
▁除此之外	-5727
▁搞	-5728
▁虫	-5729
▁批判	-5730
▁晚期	-5731
▁味	-5732
▁绘画	-5733
▁劳工	-5734
▁服装	-5735
▁害	-5736
▁许可	-5737
▁弗雷	-5738
▁鳄	-5739
▁好评	-5740
▁并由	-5741
▁举人	-5742
▁istat	-5743
59	-5744
▁一群	-5745
ann	-5746
▁出色	-5747
▁1900	-5748
▁句	-5749
▁映	-5750
▁勳	-5751
▁札	-5752
▁不但	-5753
▁刑事	-5754
▁协定	-5755
▁描绘	-5756
▁达尔	-5757
▁认可	-5758
▁斯坦	-5759
▁巴勒	-5760
▁仅次	-5761
▁会长	-5762
▁做法	-5763
▁参数	-5764
▁密切	-5765
▁剥	-5766
▁建国	-5767
▁总监	-5768
63	-5769
▁东海	-5770
▁中西	-5771
▁示威者	-5772
▁盆	-5773
▁宣告	-5774
▁定位	-5775
▁注入	-5776
▁黑人	-5777
▁最长	-5778
▁塞尔维亚	-5779
卫队	-5780
▁总经理	-5781
▁直升	-5782
▁主人	-5783
▁公顷	-5784
▁尸体	-5785
▁弗拉	-5786
▁此前	-5787
▁耕	-5788
▁祖先	-5789
▁鉴	-5790
▁睡	-5791
▁纷纷	-5792
▁开工	-5793
▁新人	-5794
▁追求	-5795
▁扣	-5796
ank	-5797
▁赔	-5798
▁囚	-5799
▁重返	-5800
▁徒	-5801
表现	-5802
▁念	-5803
▁愤	-5804
▁检测	-5805
▁迷你	-5806
▁贞	-5807
▁探索	-5808
▁相邻	-5809
▁1909	-5810
▁迫使	-5811
▁负责人	-5812
▁卑	-5813
▁三位	-5814
▁左翼	-5815
▁肾	-5816
▁一书	-5817
▁演讲	-5818
▁芒	-5819
▁分校	-5820
▁穿着	-5821
▁下方	-5822
▁滚	-5823
▁具备	-5824
▁群体	-5825
▁兵力	-5826
▁初年	-5827
ite	-5828
ass	-5829
▁屡	-5830
▁lo	-5831
▁电力机车	-5832
植物	-5833
▁图像	-5834
▁多名	-5835
▁sil	-5836
▁该地	-5837
▁氧	-5838
▁万美元	-5839
▁参议院	-5840
▁德克	-5841
▁尼古	-5842
▁死刑	-5843
集团	-5844
ime	-5845
▁百万	-5846
▁民政	-5847
▁er	-5848
▁队员	-5849
▁情绪	-5850
比赛	-5851
▁十四	-5852
▁多项	-5853
▁夏威	-5854
▁治所	-5855
▁婴	-5856
▁庶	-5857
▁议题	-5858
▁幕府	-5859
▁注册	-5860
▁理工	-5861
▁彼此	-5862
▁乔治亚	-5863
因为	-5864
▁描写	-5865
▁附加	-5866
▁阿富	-5867
▁是因为	-5868
▁较为	-5869
▁km	-5870
斯顿	-5871
▁专区	-5872
▁商务	-5873
are	-5874
▁先前	-5875
▁任内	-5876
▁济南	-5877
▁移居	-5878
▁菲利	-5879
▁殷	-5880
▁祐	-5881
▁经理	-5882
▁ste	-5883
▁亚军	-5884
▁随机	-5885
▁魁	-5886
▁洛阳	-5887
▁县人	-5888
▁平行	-5889
▁下载	-5890
▁海水	-5891
▁yout	-5892
▁涡	-5893
▁稻	-5894
▁城区	-5895
▁进口	-5896
▁悉	-5897
▁这也	-5898
▁智利	-5899
▁pc	-5900
▁打败	-5901
▁外界	-5902
社会	-5903
▁本来	-5904
▁人大代表	-5905
▁白人	-5906
▁十二年	-5907
▁米兰	-5908
amp	-5909
iel	-5910
ta	-5911
▁73	-5912
▁环球	-5913
▁城墙	-5914
▁app	-5915
▁mic	-5916
▁帐	-5917
▁粮食	-5918
▁防守	-5919
▁樱	-5920
▁阿富汗	-5921
rom	-5922
▁前者	-5923
▁夏威夷	-5924
▁分解	-5925
▁印第	-5926
埃尔	-5927
▁舆	-5928
▁传奇	-5929
▁杰出	-5930
▁矩阵	-5931
之为	-5932
▁秩	-5933
▁顺序	-5934
▁得分	-5935
▁橡	-5936
▁体制	-5937
▁公式	-5938
ium	-5939
▁一大	-5940
▁论坛	-5941
▁心脏	-5942
▁im	-5943
▁菩萨	-5944
▁回答	-5945
▁卧	-5946
▁指挥官	-5947
▁祭祀	-5948
▁雅典	-5949
▁战车	-5950
▁女神	-5951
▁强制	-5952
▁印第安	-5953
▁娜	-5954
▁互动	-5955
▁网上	-5956
▁部署	-5957
▁事物	-5958
▁大埔	-5959
▁英军	-5960
▁天府	-5961
▁年任	-5962
威尔	-5963
格尔	-5964
▁per	-5965
▁上游	-5966
▁弟子	-5967
▁房间	-5968
区域	-5969
▁丢	-5970
▁加尔	-5971
▁大批	-5972
▁法兰克	-5973
land	-5974
▁爬	-5975
▁坠	-5976
▁六个	-5977
▁摩尔	-5978
▁妖	-5979
▁劫	-5980
医院	-5981
▁知府	-5982
▁卡特	-5983
▁医学院	-5984
▁添加	-5985
▁终止	-5986
▁公室	-5987
▁任意	-5988
▁福特	-5989
▁抗战	-5990
▁观赏	-5991
▁珊瑚	-5992
▁史蒂	-5993
▁仲	-5994
▁潜艇	-5995
▁橄	-5996
▁动车	-5997
uk	-5998
▁慕容	-5999
▁框	-6000
▁太原	-6001
▁精灵	-6002
▁面向	-6003
联合	-6004
▁对抗	-6005
▁科夫	-6006
▁北侧	-6007
▁抑制	-6008
▁预备	-6009
▁出自	-6010
▁不知	-6011
▁法令	-6012
▁吾	-6013
▁技巧	-6014
▁宠	-6015
▁携带	-6016
▁碧	-6017
▁双打	-6018
▁鲷	-6019
▁长度	-6020
▁议席	-6021
▁高校	-6022
▁第三次	-6023
▁穆罕	-6024
各地	-6025
▁首张	-6026
▁受害	-6027
▁百姓	-6028
▁臀	-6029
▁沪	-6030
▁集会	-6031
▁now	-6032
▁给出	-6033
▁一片	-6034
▁止	-6035
▁101	-6036
▁并与	-6037
民众	-6038
▁一千	-6039
▁one	-6040
▁战胜	-6041
▁行人	-6042
一年	-6043
▁财务	-6044
▁通行	-6045
▁洲	-6046
ction	-6047
▁提交	-6048
▁萨克	-6049
▁前进	-6050
▁言论	-6051
▁修道院	-6052
▁公告	-6053
▁苯	-6054
▁效率	-6055
▁转为	-6056
▁畅	-6057
▁小姐	-6058
▁基本上	-6059
▁德军	-6060
▁支线	-6061
▁购物	-6062
▁欧元	-6063
▁世界各地	-6064
▁躲	-6065
▁竞技	-6066
▁沼	-6067
▁有线	-6068
▁这段	-6069
▁发达	-6070
▁清真	-6071
▁题材	-6072
▁1910	-6073
▁坪	-6074
▁奶	-6075
▁算法	-6076
▁比尔	-6077
▁all	-6078
▁出土	-6079
食性	-6080
▁农场	-6081
▁三大	-6082
▁查尔斯	-6083
▁庭	-6084
▁一面	-6085
▁各类	-6086
▁屯门	-6087
▁穿越	-6088
▁流动	-6089
▁旋转	-6090
▁洛克	-6091
▁bar	-6092
▁穆罕默	-6093
▁姓氏	-6094
▁莉	-6095
▁71	-6096
▁勋章	-6097
恩来	-6098
▁勤	-6099
期间	-6100
▁山坡	-6101
▁и	-6102
▁造型	-6103
▁吻	-6104
▁总共	-6105
▁align	-6106
▁额外	-6107
▁掠	-6108
▁变种	-6109
▁短期	-6110
▁性格	-6111
▁驱逐舰	-6112
▁一层	-6113
▁次日	-6114
▁首领	-6115
▁吧	-6116
▁曹操	-6117
▁橄榄	-6118
▁经纪	-6119
▁安娜	-6120
▁爱国	-6121
▁南侧	-6122
▁哈利	-6123
城区	-6124
罗德	-6125
▁地中	-6126
大革命	-6127
▁文化大革命	-6128
▁接管	-6129
▁车厢	-6130
▁代表作	-6131
▁一旦	-6132
▁改良	-6133
▁叙述	-6134
▁希尔	-6135
▁平安	-6136
▁甲级	-6137
▁代表团	-6138
▁犬	-6139
▁pl	-6140
▁剧中	-6141
▁踢	-6142
▁编组	-6143
▁周恩来	-6144
▁愈	-6145
▁准确	-6146
▁库尔	-6147
▁裴	-6148
▁闸	-6149
▁铁路车	-6150
▁抗日战争	-6151
▁多元	-6152
▁步枪	-6153
▁一块	-6154
▁地中海	-6155
▁平定	-6156
▁当作	-6157
▁坡	-6158
▁皮肤	-6159
▁交易所	-6160
▁大队	-6161
▁感情	-6162
▁穆罕默德	-6163
▁工艺	-6164
▁里面	-6165
纳德	-6166
▁格里	-6167
▁哺	-6168
▁西元	-6169
▁东汉	-6170
▁滕	-6171
▁新增	-6172
▁金曲	-6173
▁传输	-6174
▁十二月	-6175
ground	-6176
▁笼	-6177
▁沿用	-6178
ck	-6179
▁骚	-6180
tv	-6181
▁读书	-6182
▁巡抚	-6183
▁遗产	-6184
▁极为	-6185
▁凉	-6186
▁#	-6187
▁正义	-6188
▁男人	-6189
▁82	-6190
▁后期	-6191
▁昆明	-6192
▁肝	-6193
▁闻名	-6194
▁冲击	-6195
▁bd	-6196
▁送到	-6197
▁更改	-6198
▁漂	-6199
▁吉尔	-6200
▁并无	-6201
▁电车	-6202
▁己	-6203
▁强化	-6204
▁至此	-6205
▁孟加拉	-6206
▁癌	-6207
▁一本	-6208
▁飞弹	-6209
ae	-6210
▁愿意	-6211
▁之际	-6212
▁茂	-6213
pr	-6214
▁大大	-6215
▁串	-6216
▁本鱼	-6217
▁主义者	-6218
▁交给	-6219
ts	-6220
▁凤凰	-6221
▁一方	-6222
▁大理	-6223
▁悠	-6224
继续	-6225
▁ngc	-6226
▁人文	-6227
▁sn	-6228
▁疫	-6229
▁每周	-6230
▁凝	-6231
▁真的	-6232
▁若干	-6233
选举	-6234
▁抄	-6235
会试	-6236
▁名叫	-6237
▁一号	-6238
▁中东	-6239
▁不变	-6240
▁皇太	-6241
▁途经	-6242
▁验	-6243
▁讨伐	-6244
▁王室	-6245
▁高丽	-6246
▁桌	-6247
▁波特	-6248
▁擅长	-6249
▁熔	-6250
▁北魏	-6251
▁沟通	-6252
▁吊	-6253
▁更好	-6254
▁现代化	-6255
军区	-6256
▁81	-6257
▁基督徒	-6258
▁子公司	-6259
▁旨在	-6260
亚目	-6261
▁二十年	-6262
会长	-6263
▁一组	-6264
ence	-6265
▁有利	-6266
▁竣	-6267
▁ps	-6268
▁卫视	-6269
▁裸	-6270
▁铃	-6271
▁遥	-6272
那州	-6273
▁充分	-6274
▁十一年	-6275
▁惩	-6276
▁时报	-6277
▁员工	-6278
▁召集	-6279
▁标记	-6280
▁氨	-6281
▁一架	-6282
▁上诉	-6283
▁前锋	-6284
▁禾	-6285
▁夏天	-6286
▁节度使	-6287
▁地域	-6288
▁高峰	-6289
▁首尔	-6290
▁供奉	-6291
▁仅仅	-6292
▁庞大	-6293
▁防空	-6294
▁奥林匹克运动会	-6295
▁维修	-6296
褐色	-6297
▁补充	-6298
▁领先	-6299
维埃	-6300
▁网友	-6301
泊尔	-6302
▁功率	-6303
▁海底	-6304
▁摔	-6305
ica	-6306
▁就读	-6307
ivers	-6308
▁继任	-6309
山脉	-6310
覆盖	-6311
per	-6312
ical	-6313
▁主唱	-6314
▁无限	-6315
▁pe	-6316
▁获奖	-6317
▁北宋	-6318
▁高地	-6319
▁蜂	-6320
小学	-6321
▁提前	-6322
old	-6323
▁do	-6324
生活	-6325
▁900	-6326
▁一路	-6327
▁渐渐	-6328
▁新西兰	-6329
▁实践	-6330
▁开启	-6331
▁撰写	-6332
▁1905	-6333
▁地址	-6334
▁标题	-6335
▁内地	-6336
▁亿美元	-6337
▁夺取	-6338
▁流浪	-6339
▁市委	-6340
▁班次	-6341
ance	-6342
▁攀	-6343
▁等待	-6344
▁那个	-6345
▁昔	-6346
▁雷达	-6347
▁87	-6348
▁灭亡	-6349
▁1915	-6350
▁同志	-6351
▁纳入	-6352
▁辉	-6353
▁1916	-6354
▁穿过	-6355
▁阿尔巴	-6356
▁纺	-6357
▁里斯	-6358
▁十三年	-6359
▁中书	-6360
▁毗邻	-6361
尼西亚	-6362
▁jo	-6363
iki	-6364
ley	-6365
▁筹备	-6366
▁下面	-6367
▁指责	-6368
▁es	-6369
▁一艘	-6370
▁因应	-6371
牺牲	-6372
▁新型	-6373
▁清水	-6374
▁村民	-6375
▁六十	-6376
结构	-6377
station	-6378
▁虚拟	-6379
▁拔	-6380
▁疯	-6381
▁承担	-6382
▁菌	-6383
▁涵盖	-6384
▁股权	-6385
▁os	-6386
▁就任	-6387
山市	-6388
▁实体	-6389
▁波音	-6390
▁background	-6391
▁背鳍	-6392
▁颈	-6393
▁两座	-6394
▁专利	-6395
▁多样	-6396
ere	-6397
▁高山	-6398
▁希特勒	-6399
▁第一名	-6400
▁其子	-6401
活动	-6402
▁瓦尔	-6403
▁炸弹	-6404
▁民进	-6405
▁客车	-6406
▁眼睛	-6407
▁北大	-6408
▁飞行员	-6409
▁缴	-6410
▁直辖	-6411
lat	-6412
▁轰炸机	-6413
▁竣工	-6414
▁will	-6415
▁体育馆	-6416
▁84	-6417
▁美国人	-6418
▁数个	-6419
▁1901	-6420
拉多	-6421
▁区分	-6422
▁博士学位	-6423
克林	-6424
▁印象	-6425
▁棉	-6426
▁梯	-6427
▁乌拉	-6428
▁多人	-6429
▁巴塞	-6430
▁产物	-6431
▁储存	-6432
▁阶级	-6433
▁澎	-6434
▁高层	-6435
▁统治者	-6436
▁颁布	-6437
▁79	-6438
▁考察	-6439
▁参谋长	-6440
▁内政	-6441
▁担当	-6442
▁噶	-6443
▁之名	-6444
▁地处	-6445
▁立陶	-6446
▁诗歌	-6447
▁米尔	-6448
▁参观	-6449
▁遍	-6450
▁该区	-6451
▁戊	-6452
▁精确	-6453
▁塘	-6454
▁い	-6455
▁谴	-6456
▁尺寸	-6457
▁诉讼	-6458
里亚	-6459
▁茅	-6460
▁鳞	-6461
▁宣言	-6462
▁夫妇	-6463
▁fre	-6464
▁为期	-6465
▁判断	-6466
吾尔	-6467
▁嫌	-6468
▁创下	-6469
ase	-6470
▁中央军	-6471
▁数目	-6472
▁gre	-6473
cc	-6474
▁球迷	-6475
▁芭	-6476
▁cor	-6477
▁识字	-6478
▁展现	-6479
▁姊妹	-6480
▁浸	-6481
伐克	-6482
斯塔	-6483
▁封面	-6484
▁推测	-6485
▁线性	-6486
▁变换	-6487
▁承诺	-6488
▁重组	-6489
▁队友	-6490
▁分区	-6491
▁弃	-6492
▁接壤	-6493
西斯	-6494
▁社团	-6495
▁爪	-6496
▁婆	-6497
▁流经	-6498
▁福音	-6499
▁重庆市	-6500
▁亚美	-6501
▁神社	-6502
▁这张	-6503
▁姬	-6504
▁本剧	-6505
▁83	-6506
▁原创	-6507
▁繁殖	-6508
▁喝	-6509
▁巴伐	-6510
▁布政	-6511
▁十一月	-6512
民族	-6513
▁滨海	-6514
▁唐代	-6515
▁欠	-6516
▁茨	-6517
▁风景	-6518
▁立法院	-6519
▁贬	-6520
▁起点	-6521
▁碱	-6522
▁嘉庆	-6523
▁雍正	-6524
▁斯科	-6525
▁社群	-6526
▁南宋	-6527
▁连结	-6528
▁进而	-6529
act	-6530
▁几年	-6531
own	-6532
设计	-6533
▁个体	-6534
▁期刊	-6535
▁欺	-6536
▁名誉	-6537
▁数码	-6538
▁立陶宛	-6539
▁依靠	-6540
▁南斯	-6541
▁设在	-6542
▁干线	-6543
▁人称	-6544
▁流亡	-6545
▁环保	-6546
▁坏	-6547
▁工程师	-6548
▁昆虫	-6549
▁蜥	-6550
▁模仿	-6551
▁观音	-6552
▁予以	-6553
▁日后	-6554
▁跑道	-6555
▁黄金	-6556
▁以至	-6557
▁学系	-6558
▁雕塑	-6559
▁厝	-6560
▁否则	-6561
▁电影节	-6562
▁道教	-6563
▁瞄	-6564
▁圣诞	-6565
▁打开	-6566
▁普及	-6567
萨斯州	-6568
▁解放军	-6569
▁绥	-6570
▁直属	-6571
歇尔	-6572
▁弓	-6573
▁乡村	-6574
▁浏览	-6575
▁离婚	-6576
▁疗	-6577
▁管制	-6578
▁北洋	-6579
▁司机	-6580
▁此处	-6581
▁北美洲	-6582
▁清真寺	-6583
▁情节	-6584
▁某种	-6585
▁七十	-6586
▁遮	-6587
▁鼠	-6588
▁停车场	-6589
▁以为	-6590
▁云南省	-6591
▁倡	-6592
资源	-6593
▁改装	-6594
▁自主	-6595
▁职员	-6596
山县	-6597
化学	-6598
▁新教	-6599
▁color	-6600
▁娶	-6601
▁氟	-6602
▁高原	-6603
▁芳	-6604
▁宜兰	-6605
▁享有	-6606
维持	-6607
▁在于	-6608
▁总长	-6609
▁或称	-6610
▁信任	-6611
▁病人	-6612
▁料	-6613
▁积为	-6614
▁哺乳	-6615
▁playstation	-6616
▁参见	-6617
▁团结	-6618
▁数百	-6619
▁神圣	-6620
▁love	-6621
▁保卫	-6622
▁焚	-6623
▁公寓	-6624
▁封为	-6625
▁手法	-6626
▁硬币	-6627
▁休息	-6628
▁股东	-6629
▁曲目	-6630
▁中断	-6631
▁称之为	-6632
▁螺旋	-6633
▁北京大学	-6634
▁捷运	-6635
▁fl	-6636
▁本次	-6637
无法	-6638
▁头部	-6639
▁那样	-6640
▁第十三	-6641
▁专科	-6642
▁月初	-6643
▁香港政府	-6644
▁nh	-6645
▁成果	-6646
▁法兰西	-6647
▁一边	-6648
▁波罗	-6649
▁划归	-6650
▁运算	-6651
▁四世	-6652
▁众议院	-6653
▁牺牲	-6654
▁司职	-6655
▁获取	-6656
▁索尼	-6657
▁为此	-6658
ool	-6659
▁居委会	-6660
▁口径	-6661
▁喜爱	-6662
▁cp	-6663
▁葵	-6664
▁国语	-6665
▁选民	-6666
▁传递	-6667
▁受损	-6668
▁场所	-6669
▁多伦	-6670
▁少量	-6671
▁1500	-6672
▁á	-6673
警报	-6674
▁佔领	-6675
▁97	-6676
▁浩	-6677
▁异常	-6678
▁中国科学院	-6679
莎白	-6680
▁侦察	-6681
三年	-6682
城县	-6683
▁葡萄牙语	-6684
▁难民	-6685
5%	-6686
▁捲	-6687
▁发掘	-6688
▁增设	-6689
▁经费	-6690
▁陨坑	-6691
物质	-6692
▁英里	-6693
▁预定	-6694
▁youtube	-6695
for	-6696
▁二百	-6697
▁各项	-6698
▁外部	-6699
▁燃烧	-6700
▁富士	-6701
▁庚	-6702
学者	-6703
程序	-6704
▁侠	-6705
▁5000	-6706
book	-6707
▁建有	-6708
▁党组	-6709
▁mod	-6710
▁寄生	-6711
▁德尔	-6712
▁整理	-6713
▁青春	-6714
▁得票	-6715
文化	-6716
▁圆形	-6717
▁粤语	-6718
▁新生	-6719
▁奎	-6720
▁亦可	-6721
▁演变	-6722
ys	-6723
▁品种	-6724
▁身为	-6725
▁科幻	-6726
▁免疫	-6727
▁不愿	-6728
▁宿舍	-6729
▁时刻	-6730
▁南斯拉夫	-6731
▁网页	-6732
▁you	-6733
▁英超	-6734
▁足协	-6735
▁布兰	-6736
▁威尼斯	-6737
▁一小	-6738
▁胜出	-6739
▁还要	-6740
▁次列车	-6741
▁斋	-6742
▁公立	-6743
▁某个	-6744
▁总体	-6745
▁冀	-6746
▁ep	-6747
▁体现	-6748
▁分享	-6749
▁回合	-6750
▁突击	-6751
▁92	-6752
▁可靠	-6753
▁细菌	-6754
▁十五年	-6755
iam	-6756
▁灵魂	-6757
▁gro	-6758
▁1903	-6759
▁钢铁	-6760
▁gen	-6761
▁人体	-6762
▁普鲁士	-6763
导演	-6764
▁格鲁	-6765
▁弗兰	-6766
▁谘	-6767
ome	-6768
▁text	-6769
▁取自	-6770
▁鱼科	-6771
▁加勒	-6772
▁尊重	-6773
▁途径	-6774
▁清华大学	-6775
▁蒸汽	-6776
▁迟	-6777
▁巩	-6778
▁乌斯	-6779
▁校舍	-6780
里兰	-6781
▁神父	-6782
▁坂	-6783
▁南下	-6784
▁土壤	-6785
▁完美	-6786
▁军舰	-6787
▁min	-6788
▁社交	-6789
▁考入	-6790
▁东区	-6791
▁伤亡	-6792
▁回家	-6793
▁比利时	-6794
▁寺院	-6795
▁地产	-6796
▁医师	-6797
▁可能性	-6798
▁首批	-6799
▁前线	-6800
▁澄	-6801
▁这类	-6802
▁各有	-6803
▁搭配	-6804
▁立刻	-6805
后期	-6806
▁国的	-6807
▁头衔	-6808
▁交叉	-6809
▁末年	-6810
▁压缩	-6811
▁侵略	-6812
▁亚美尼亚	-6813
▁国共	-6814
▁尼泊尔	-6815
ash	-6816
▁锁	-6817
▁航天	-6818
▁卸	-6819
▁科会试	-6820
▁美国海	-6821
▁弹药	-6822
▁韦尔	-6823
行动	-6824
▁光学	-6825
▁科罗	-6826
▁电路	-6827
▁百年	-6828
▁随之	-6829
▁风警报	-6830
▁哈里	-6831
▁投手	-6832
▁赛车	-6833
黄色	-6834
▁总教区	-6835
▁廿	-6836
▁纤维	-6837
▁件	-6838
▁pa	-6839
▁搭载	-6840
▁始终	-6841
▁祠	-6842
▁晚间	-6843
▁微博	-6844
▁公务	-6845
▁关联	-6846
▁放射	-6847
▁省委	-6848
▁阎	-6849
▁托马斯	-6850
▁政治部	-6851
▁预期	-6852
▁开业	-6853
▁突厥	-6854
▁谴责	-6855
▁苍	-6856
▁前来	-6857
▁消费者	-6858
▁韵	-6859
红色	-6860
▁领事	-6861
▁椭	-6862
▁幸福	-6863
▁午	-6864
▁普罗	-6865
▁ind	-6866
▁intern	-6867
▁数值	-6868
▁电池	-6869
use	-6870
▁勾	-6871
九龙	-6872
▁参议员	-6873
▁轨道交通	-6874
▁恭	-6875
▁亭	-6876
▁忘	-6877
▁草案	-6878
也纳	-6879
▁一类	-6880
gr	-6881
▁看法	-6882
▁水利	-6883
▁诺贝尔	-6884
▁sw	-6885
▁过度	-6886
▁其他人	-6887
▁涉嫌	-6888
▁大联盟	-6889
▁酶	-6890
▁rob	-6891
▁05	-6892
▁吏部	-6893
▁优先	-6894
les	-6895
▁移交	-6896
▁mon	-6897
▁新北市	-6898
▁径	-6899
▁十四年	-6900
▁过渡	-6901
▁沿着	-6902
▁观念	-6903
▁电流	-6904
▁陆地	-6905
▁不利	-6906
▁灭绝	-6907
▁剩馀	-6908
▁斯克	-6909
▁gu	-6910
▁减弱	-6911
▁变为	-6912
▁打造	-6913
▁小孩	-6914
▁现已	-6915
▁饮食	-6916
▁饥	-6917
▁呼吸	-6918
▁肩	-6919
▁乘坐	-6920
▁linux	-6921
▁识字率	-6922
▁劲	-6923
▁情感	-6924
▁翰林院	-6925
▁该剧	-6926
▁辽宁省	-6927
▁江西省	-6928
▁顺治	-6929
▁条款	-6930
▁铅	-6931
▁live	-6932
德尔	-6933
斯堡	-6934
▁mat	-6935
▁入境	-6936
▁加斯	-6937
▁野生	-6938
▁吗	-6939
▁华北	-6940
▁日文	-6941
▁县治	-6942
▁粉丝	-6943
▁元朗	-6944
▁腾	-6945
▁89	-6946
▁真人	-6947
▁本书	-6948
ga	-6949
达州	-6950
▁县级	-6951
▁芙	-6952
▁亚历山大	-6953
蝙蝠	-6954
▁翡	-6955
▁感受	-6956
▁院校	-6957
▁中以	-6958
▁信奉	-6959
▁国外	-6960
▁结论	-6961
▁永远	-6962
▁med	-6963
▁特里	-6964
▁镶	-6965
▁1906	-6966
▁虾	-6967
▁智能	-6968
▁容量	-6969
常见	-6970
▁1908	-6971
▁徽	-6972
▁饶	-6973
▁胞	-6974
▁校友	-6975
▁环绕	-6976
▁温泉	-6977
▁火车站	-6978
▁1907	-6979
辖区	-6980
▁诊断	-6981
▁男主角	-6982
▁国旗	-6983
▁立委	-6984
丁堡	-6985
▁山大	-6986
里克	-6987
▁区内	-6988
▁诸多	-6989
▁鹰	-6990
教授	-6991
▁三名	-6992
▁缓慢	-6993
ame	-6994
▁维也纳	-6995
▁降雨量	-6996
▁罗伯特	-6997
▁迦	-6998
▁决策	-6999
▁首歌曲	-7000
▁芦	-7001
▁当然	-7002
▁mag	-7003
▁看见	-7004
▁攻入	-7005
▁巴斯	-7006
▁长春	-7007
▁古希腊	-7008
▁一说	-7009
▁季后	-7010
▁责管	-7011
▁细节	-7012
▁壬	-7013
▁写成	-7014
▁辨	-7015
▁片段	-7016
▁ic	-7017
▁伟大	-7018
▁政务	-7019
▁国家级	-7020
▁党委	-7021
▁志愿	-7022
▁体积	-7023
▁攻势	-7024
持续	-7025
▁存储	-7026
六年	-7027
▁蝙蝠	-7028
▁琳	-7029
▁红军	-7030
▁夜间	-7031
▁沙漠	-7032
▁编制	-7033
▁履	-7034
▁相较	-7035
▁三级	-7036
▁争夺	-7037
▁侍郎	-7038
▁史上	-7039
▁福尔	-7040
▁鱼雷	-7041
▁工党	-7042
▁下半	-7043
▁改组	-7044
▁micro	-7045
▁兵团	-7046
▁染色	-7047
▁亮相	-7048
▁萤	-7049
▁放置	-7050
▁换乘	-7051
▁火力	-7052
▁身亡	-7053
战役	-7054
▁之处	-7055
▁豫	-7056
▁排除	-7057
▁最高法院	-7058
▁第十一届	-7059
▁修复	-7060
▁死后	-7061
▁射入	-7062
发展	-7063
▁血液	-7064
▁原为	-7065
▁民主党	-7066
▁桥梁	-7067
▁暂停	-7068
▁肿	-7069
▁图形	-7070
▁转化	-7071
▁学堂	-7072
▁天空	-7073
▁约瑟	-7074
▁贤	-7075
▁鲸	-7076
▁差距	-7077
▁辖区	-7078
▁纽约市	-7079
▁王后	-7080
▁之意	-7081
公会	-7082
▁洪水	-7083
ml	-7084
▁战舰	-7085
tr	-7086
▁初步	-7087
▁苏维埃	-7088
▁中场	-7089
▁框架	-7090
▁拯	-7091
▁确实	-7092
▁91	-7093
▁时速	-7094
▁原作	-7095
▁univers	-7096
▁巴特	-7097
▁播映	-7098
▁贷	-7099
▁世代	-7100
▁一角	-7101
▁普拉	-7102
▁360	-7103
▁其间	-7104
▁刊登	-7105
▁е	-7106
▁н	-7107
平方米	-7108
▁友谊	-7109
▁坟	-7110
▁肉食性	-7111
▁得出	-7112
▁凸	-7113
▁嗣	-7114
内亚	-7115
▁战败	-7116
▁金刚	-7117
▁当前	-7118
▁第二次世界大战	-7119
▁零售	-7120
▁第三十	-7121
pl	-7122
▁res	-7123
斯加	-7124
▁男孩	-7125
▁守护	-7126
▁越来越	-7127
▁不论	-7128
▁姑	-7129
tp	-7130
▁命运	-7131
▁生效	-7132
▁曾祖父	-7133
▁阿尔巴尼亚	-7134
▁观看	-7135
国民党	-7136
▁一代	-7137
▁阁	-7138
▁简化	-7139
运会	-7140
▁月份	-7141
▁村庄	-7142
▁上任	-7143
▁崇祯	-7144
▁电压	-7145
▁确立	-7146
▁法定	-7147
▁多伦多	-7148
▁昏	-7149
▁两大	-7150
▁汝	-7151
▁尼西	-7152
▁大帝	-7153
▁爱好	-7154
▁星际	-7155
▁酷	-7156
▁单打	-7157
▁壳	-7158
▁105	-7159
▁毫无	-7160
▁局部	-7161
▁彗	-7162
▁樑	-7163
▁仰	-7164
▁翡翠	-7165
▁弄	-7166
▁周末	-7167
▁起诉	-7168
ve	-7169
▁似的	-7170
▁斯拉夫	-7171
▁印度尼西亚	-7172
▁文革	-7173
▁田径	-7174
▁des	-7175
▁婚礼	-7176
▁限定	-7177
▁往来	-7178
▁with	-7179
▁上半	-7180
▁06	-7181
▁体验	-7182
▁厨	-7183
▁姿	-7184
物种	-7185
▁领队	-7186
▁cla	-7187
▁巴赫	-7188
▁电磁	-7189
▁遗迹	-7190
▁级别	-7191
▁第一批	-7192
ale	-7193
▁促使	-7194
▁93	-7195
▁1904	-7196
▁这位	-7197
▁宰相	-7198
▁军方	-7199
▁凹	-7200
▁黏	-7201
▁哈佛	-7202
▁扑	-7203
▁闯	-7204
▁回来	-7205
▁车体	-7206
▁押	-7207
▁封锁	-7208
▁职棒	-7209
▁死去	-7210
球员	-7211
▁拉萨	-7212
▁名列	-7213
km	-7214
▁宋朝	-7215
使用	-7216
▁埔	-7217
▁军衔	-7218
▁河口	-7219
▁片中	-7220
▁心率	-7221
▁silver	-7222
波罗	-7223
▁逃亡	-7224
▁二甲	-7225
▁密码	-7226
▁曲线	-7227
广播	-7228
▁萨拉	-7229
主任	-7230
▁by	-7231
收入	-7232
▁交响	-7233
▁日益	-7234
▁期望	-7235
▁阿姆	-7236
▁友好	-7237
▁民籍	-7238
▁行政区划	-7239
▁黄河	-7240
▁交战	-7241
▁代号	-7242
▁谥	-7243
▁北伐	-7244
▁鲨	-7245
▁导师	-7246
▁浓度	-7247
▁路德	-7248
▁告知	-7249
马尔	-7250
ict	-7251
▁定律	-7252
▁短篇	-7253
▁百科	-7254
马拉	-7255
ri	-7256
▁继位	-7257
▁募	-7258
▁垃	-7259
▁名词	-7260
▁股票	-7261
▁面前	-7262
▁阿布	-7263
▁人均	-7264
ise	-7265
▁入围	-7266
▁当晚	-7267
▁还原	-7268
▁适当	-7269
▁临床	-7270
▁饲	-7271
▁一员	-7272
▁澎湖	-7273
▁虚构	-7274
▁选人	-7275
ho	-7276
▁归类	-7277
ult	-7278
▁反射	-7279
▁站房	-7280
▁dav	-7281
ee	-7282
▁巴勒斯坦	-7283
▁一对	-7284
▁调任	-7285
▁年期	-7286
▁奋	-7287
▁科研	-7288
洛克	-7289
▁新兴	-7290
▁语音	-7291
ild	-7292
▁处长	-7293
▁进球	-7294
斯卡	-7295
▁跨越	-7296
ms	-7297
▁紧张	-7298
▁不幸	-7299
日报	-7300
之子	-7301
水量	-7302
▁繁忙	-7303
▁丑	-7304
▁漏	-7305
▁face	-7306
ara	-7307
▁垃圾	-7308
▁辩论	-7309
▁全美	-7310
tc	-7311
▁哀	-7312
▁中等	-7313
▁拯救	-7314
▁调节	-7315
▁迄	-7316
▁09	-7317
▁一等	-7318
马州	-7319
▁出兵	-7320
▁应当	-7321
me	-7322
▁歼	-7323
影响	-7324
▁一体	-7325
▁绍兴	-7326
▁新华	-7327
▁区划	-7328
▁大力	-7329
▁选为	-7330
▁枢纽	-7331
▁沿线	-7332
▁广义	-7333
▁日子	-7334
▁牧师	-7335
▁β	-7336
▁对阵	-7337
▁人群	-7338
▁勘	-7339
▁累积	-7340
▁洪武	-7341
▁兵部	-7342
▁照顾	-7343
▁悬挂	-7344
▁岛式	-7345
va	-7346
▁纪念碑	-7347
▁涌	-7348
▁铝	-7349
▁研制	-7350
▁谢尔	-7351
▁防部	-7352
▁岸	-7353
团体	-7354
理论	-7355
▁国有	-7356
▁崎	-7357
▁濒	-7358
洛斯	-7359
▁开播	-7360
▁教导	-7361
▁一期	-7362
▁不如	-7363
▁动车组	-7364
▁乐器	-7365
▁rec	-7366
enn	-7367
▁乞	-7368
▁截止	-7369
▁签证	-7370
▁world	-7371
▁一辆	-7372
▁成化	-7373
▁安东尼	-7374
遗产	-7375
▁ty	-7376
▁代表性	-7377
▁一道	-7378
▁兴起	-7379
▁迁移	-7380
山区	-7381
▁生理	-7382
▁郑州	-7383
▁年末	-7384
▁博览	-7385
▁广州市	-7386
▁肇	-7387
▁品质	-7388
▁十六年	-7389
▁永乐	-7390
▁super	-7391
▁婴儿	-7392
▁一台	-7393
▁车型	-7394
▁挺	-7395
eng	-7396
▁利物	-7397
▁重修	-7398
▁航行	-7399
▁高铁	-7400
鲁斯	-7401
▁认知	-7402
▁转乘	-7403
▁发言人	-7404
▁饱	-7405
▁廷	-7406
▁汀	-7407
▁椭圆	-7408
▁总是	-7409
▁塔尔	-7410
▁法学	-7411
▁延安	-7412
▁停留	-7413
▁全程	-7414
▁原料	-7415
饰演	-7416
▁star	-7417
▁指标	-7418
广场	-7419
林斯	-7420
▁iii	-7421
▁太郎	-7422
▁牛津	-7423
▁评审	-7424
▁而后	-7425
▁中央军委	-7426
▁创意	-7427
▁颠	-7428
▁晶体	-7429
▁老人	-7430
▁吉林省	-7431
▁星期一	-7432
民间	-7433
▁自从	-7434
▁加勒比	-7435
hel	-7436
▁印度洋	-7437
▁安置	-7438
▁一日	-7439
▁最后一	-7440
▁ん	-7441
▁聂	-7442
▁温带	-7443
▁с	-7444
▁消除	-7445
▁利物浦	-7446
▁珀	-7447
▁翅	-7448
ork	-7449
ose	-7450
▁便利	-7451
af	-7452
▁鑑	-7453
▁屋顶	-7454
▁94	-7455
▁补给	-7456
▁催化	-7457
▁时常	-7458
▁省政府	-7459
▁九州	-7460
▁har	-7461
▁规格	-7462
▁int	-7463
▁全年	-7464
▁施行	-7465
▁盆地	-7466
▁音乐会	-7467
▁理器	-7468
▁县长	-7469
▁终身	-7470
▁争论	-7471
▁批复	-7472
▁东路	-7473
▁浪漫	-7474
▁进程	-7475
▁分散	-7476
▁市内	-7477
▁转任	-7478
▁深刻	-7479
▁降落	-7480
▁阐	-7481
诺夫	-7482
▁鸿	-7483
▁园区	-7484
▁bro	-7485
▁华东	-7486
▁舱	-7487
西里	-7488
▁列宁	-7489
▁草原	-7490
▁类别	-7491
冠军	-7492
▁沙特	-7493
▁秩序	-7494
▁封闭	-7495
▁次子	-7496
▁生前	-7497
▁道歉	-7498
▁光谱	-7499
▁字符	-7500
▁元音	-7501
▁迫害	-7502
▁舌	-7503
urn	-7504
▁技能	-7505
▁亚当	-7506
▁gl	-7507
▁su	-7508
▁沃尔	-7509
▁р	-7510
mb	-7511
▁策划	-7512
▁之称	-7513
▁基金会	-7514
▁撤离	-7515
▁近似	-7516
▁霍尔	-7517
▁身高	-7518
▁巴克	-7519
▁工部	-7520
▁南市	-7521
▁排球	-7522
军事	-7523
同时	-7524
▁三部	-7525
▁网民	-7526
▁char	-7527
太平	-7528
电台	-7529
▁的话	-7530
▁营养	-7531
▁上将	-7532
▁占据	-7533
▁祖籍	-7534
▁肌肉	-7535
▁极端	-7536
球会	-7537
▁鸦	-7538
▁累计	-7539
▁薪	-7540
▁覆盖	-7541
▁ent	-7542
▁晚年	-7543
五年	-7544
▁判处	-7545
▁早已	-7546
▁罕见	-7547
纳斯	-7548
▁chr	-7549
约翰	-7550
ony	-7551
▁武昌	-7552
ower	-7553
▁下游	-7554
ade	-7555
▁一周	-7556
▁愤怒	-7557
▁粘	-7558
▁十八年	-7559
▁长安	-7560
▁练习	-7561
ins	-7562
地亚	-7563
▁液体	-7564
▁赛会	-7565
伦斯	-7566
▁暖	-7567
▁馀人	-7568
▁狱	-7569
▁议长	-7570
罗马尼亚	-7571
▁使者	-7572
▁维基	-7573
▁马克思	-7574
▁故障	-7575
▁腰	-7576
▁握	-7577
▁只好	-7578
▁服务器	-7579
▁删除	-7580
▁格勒	-7581
▁尼古拉	-7582
小组	-7583
▁一时	-7584
▁赣	-7585
▁原址	-7586
▁同治	-7587
▁率先	-7588
▁诸侯	-7589
泽尔	-7590
▁mm	-7591
电视台	-7592
新闻	-7593
▁亡	-7594
▁流通	-7595
▁01	-7596
▁公平	-7597
▁否认	-7598
▁美术馆	-7599
▁三百	-7600
▁正统	-7601
▁遗体	-7602
相同	-7603
▁相当于	-7604
▁滥	-7605
▁干扰	-7606
▁此举	-7607
▁music	-7608
▁前方	-7609
▁德川	-7610
▁贝克	-7611
工作	-7612
▁追溯	-7613
▁初中	-7614
▁车手	-7615
▁总计	-7616
▁庇	-7617
▁中途	-7618
▁政变	-7619
▁干涉	-7620
▁嵌	-7621
▁奖金	-7622
▁泉州	-7623
▁故此	-7624
▁相近	-7625
事业	-7626
▁是从	-7627
▁侨	-7628
▁女歌手	-7629
▁fe	-7630
▁菲利普	-7631
▁家乡	-7632
提琴	-7633
▁售票	-7634
▁并称	-7635
▁省份	-7636
▁提案	-7637
▁沦	-7638
▁山口	-7639
▁参赛者	-7640
布尔	-7641
▁排名第	-7642
人士	-7643
▁邹	-7644
▁旁边	-7645
机关	-7646
▁趋势	-7647
▁布政使	-7648
▁常规	-7649
▁数十	-7650
lex	-7651
▁此类	-7652
▁翌日	-7653
▁登进士	-7654
▁物资	-7655
▁仪器	-7656
▁联军	-7657
▁斯大	-7658
▁阿斯	-7659
▁风速	-7660
▁07	-7661
▁光明	-7662
▁建筑面积	-7663
▁不敢	-7664
▁嫁给	-7665
▁意图	-7666
▁纺织	-7667
政策	-7668
▁卡斯蒂	-7669
达尔	-7670
▁一件	-7671
▁手下	-7672
gb	-7673
yn	-7674
▁写道	-7675
▁动态	-7676
▁屠杀	-7677
常委会	-7678
▁天王	-7679
▁无锡	-7680
▁赔偿	-7681
▁第一代	-7682
▁角逐	-7683
▁东北部	-7684
▁死者	-7685
▁纪录片	-7686
▁城际	-7687
▁纽西兰	-7688
▁钓	-7689
▁全市	-7690
▁pet	-7691
▁各省	-7692
▁拦	-7693
▁黑龙江省	-7694
蒂安	-7695
der	-7696
▁事宜	-7697
▁分数	-7698
▁要塞	-7699
▁艰	-7700
▁所得	-7701
▁透明	-7702
▁众人	-7703
▁望远	-7704
八年	-7705
▁张家	-7706
▁节点	-7707
▁汤姆	-7708
▁被判	-7709
▁得主	-7710
▁县城	-7711
▁can	-7712
▁术语	-7713
▁斯大林	-7714
▁与其	-7715
▁五世	-7716
▁防卫	-7717
▁人力	-7718
▁count	-7719
▁蟹	-7720
▁节奏	-7721
▁诸如	-7722
▁忧	-7723
▁哈德	-7724
▁东南部	-7725
占庭	-7726
开发	-7727
▁拜占庭	-7728
▁客机	-7729
▁往返	-7730
▁电气化	-7731
▁富有	-7732
▁武力	-7733
▁寓	-7734
三个	-7735
▁荣获	-7736
▁义务	-7737
▁嫡	-7738
▁借此	-7739
▁编入	-7740
▁西路	-7741
▁air	-7742
▁连续剧	-7743
▁预告	-7744
▁ü	-7745
▁赋予	-7746
▁不用	-7747
▁体重	-7748
▁战列	-7749
▁諡	-7750
风格	-7751
▁mc	-7752
▁出局	-7753
▁大名	-7754
▁彗星	-7755
▁移至	-7756
▁帽	-7757
▁驶	-7758
▁频繁	-7759
▁妮	-7760
▁定性	-7761
▁首部	-7762
▁财富	-7763
▁分开	-7764
▁水中	-7765
▁二氧化	-7766
▁英文名	-7767
▁巴伐利亚	-7768
▁一个区	-7769
▁岗	-7770
▁并获	-7771
▁bla	-7772
▁【	-7773
▁业馀	-7774
▁】	-7775
▁akb	-7776
▁重要性	-7777
▁ms	-7778
▁合理	-7779
▁悉尼	-7780
▁癌症	-7781
▁350	-7782
▁08	-7783
▁雕像	-7784
责任	-7785
▁支队	-7786
▁神学	-7787
▁迁往	-7788
▁弦	-7789
▁季后赛	-7790
▁刚果	-7791
风暴	-7792
▁顶级	-7793
▁杆	-7794
▁她们	-7795
▁被告	-7796
▁her	-7797
▁人为	-7798
▁滇	-7799
▁路径	-7800
▁还会	-7801
▁郎中	-7802
▁school	-7803
运输	-7804
▁专员	-7805
企业	-7806
▁西汉	-7807
uth	-7808
▁主机	-7809
▁圣殿	-7810
▁科学院	-7811
▁繁荣	-7812
▁改任	-7813
▁瓶	-7814
▁四人	-7815
▁改用	-7816
▁铜牌	-7817
stem	-7818
▁本部	-7819
▁橙	-7820
▁籤	-7821
飞机	-7822
▁水上	-7823
▁攻占	-7824
▁本质	-7825
ward	-7826
字母	-7827
▁交付	-7828
▁台币	-7829
▁帕特	-7830
▁主编	-7831
▁皇室	-7832
▁曝	-7833
▁发送	-7834
▁宫殿	-7835
▁崇拜	-7836
▁权威	-7837
太平洋	-7838
▁苗栗	-7839
▁图片	-7840
▁毁灭	-7841
▁日举行	-7842
▁床	-7843
▁栏	-7844
▁宫廷	-7845
▁社长	-7846
▁尿	-7847
▁威尔斯	-7848
撒冷	-7849
▁ib	-7850
▁恶化	-7851
路撒冷	-7852
▁发电厂	-7853
▁思考	-7854
▁意为	-7855
▁机枪	-7856
机场	-7857
语言	-7858
olog	-7859
▁妃	-7860
▁活性	-7861
▁望远镜	-7862
▁1898	-7863
▁权益	-7864
▁渠	-7865
▁选拔	-7866
▁大奖赛	-7867
▁酿	-7868
▁气温	-7869
itt	-7870
▁接到	-7871
▁编曲	-7872
▁生日	-7873
▁公车	-7874
▁反击	-7875
▁数学家	-7876
▁干燥	-7877
空间	-7878
▁咸丰	-7879
▁介入	-7880
▁安妮	-7881
▁上校	-7882
▁石头	-7883
离子	-7884
▁该站	-7885
▁巴哈	-7886
▁连同	-7887
球场	-7888
▁依旧	-7889
▁放送	-7890
▁熟悉	-7891
▁う	-7892
▁继承人	-7893
膨胀	-7894
▁行车	-7895
▁徐州	-7896
▁1895	-7897
▁卜	-7898
▁炎	-7899
▁啤	-7900
计画	-7901
▁旗帜	-7902
▁隶属于	-7903
▁stud	-7904
▁改由	-7905
族自治	-7906
▁长子	-7907
▁妥	-7908
▁识别	-7909
▁嘉宾	-7910
▁电梯	-7911
▁外围	-7912
▁瞄准	-7913
▁虹	-7914
处理	-7915
▁族人	-7916
▁阿克	-7917
▁因子	-7918
▁创始人	-7919
▁步行	-7920
莱坞	-7921
▁运河	-7922
▁伞	-7923
▁语法	-7924
▁1902	-7925
福德	-7926
ana	-7927
▁尚有	-7928
▁德斯	-7929
▁南投	-7930
▁孔子	-7931
▁刑部	-7932
▁敏感	-7933
▁短暂	-7934
▁漳	-7935
媒体	-7936
▁廊	-7937
ata	-7938
▁集结	-7939
▁电信	-7940
▁标赛	-7941
▁港铁	-7942
▁完善	-7943
▁法人	-7944
▁立方	-7945
▁总数	-7946
▁历代	-7947
▁天后	-7948
▁代数	-7949
▁帕尔	-7950
▁处决	-7951
▁俞	-7952
▁十七年	-7953
▁人事	-7954
▁亚目	-7955
▁英寸	-7956
▁磅	-7957
▁卡塔	-7958
英国	-7959
▁实质	-7960
榴弹	-7961
▁享受	-7962
▁关东	-7963
▁世纪末	-7964
▁条目	-7965
▁负面	-7966
▁差别	-7967
▁束	-7968
反应	-7969
▁伊丽	-7970
▁公社	-7971
▁在场	-7972
▁天桥	-7973
▁托尔	-7974
▁独自	-7975
▁多位	-7976
▁扬州	-7977
▁显着	-7978
ics	-7979
▁流量	-7980
▁丸	-7981
▁靖	-7982
▁殉	-7983
▁尼夫	-7984
de	-7985
▁场地	-7986
▁重力	-7987
▁前期	-7988
▁巨人	-7989
▁财经	-7990
▁兔	-7991
▁含量	-7992
▁耶路撒冷	-7993
▁街头	-7994
▁南路	-7995
▁海湾	-7996
▁母舰	-7997
▁造船	-7998
▁第二季	-7999
▁北极	-8000
▁帕拉	-8001
▁逃离	-8002
box	-8003
▁事后	-8004
▁子弹	-8005
▁艾伦	-8006
▁半径	-8007
▁甘肃省	-8008
▁名录	-8009
▁乔治亚州	-8010
▁区负	-8011
▁老挝	-8012
▁呢	-8013
荃湾	-8014
▁取名	-8015
斯山	-8016
▁最具	-8017
▁大城市	-8018
▁web	-8019
▁up	-8020
▁基辅	-8021
▁鞍	-8022
▁火炮	-8023
▁西斯	-8024
▁探险队	-8025
▁屏东	-8026
▁提倡	-8027
▁阔	-8028
▁山顶	-8029
▁探讨	-8030
▁je	-8031
▁转型	-8032
▁拿破	-8033
▁罪名	-8034
金属	-8035
▁鹤	-8036
oth	-8037
▁编译	-8038
▁桓	-8039
ster	-8040
▁迈克尔	-8041
▁facebook	-8042
▁吋	-8043
▁癸	-8044
书院	-8045
▁一方面	-8046
▁主义的	-8047
▁上层	-8048
▁主教练	-8049
哈尔	-8050
▁清廷	-8051
▁足以	-8052
▁箭	-8053
▁歧视	-8054
ax	-8055
▁真菌	-8056
▁亚热带	-8057
▁讽	-8058
▁恐惧	-8059
▁景观	-8060
▁巴布	-8061
▁将来	-8062
英里	-8063
▁阴谋	-8064
▁化工	-8065
▁中队	-8066
▁先锋	-8067
▁达州	-8068
▁str	-8069
▁终结	-8070
米亚	-8071
▁优惠	-8072
▁巷	-8073
▁紧密	-8074
▁巴拿	-8075
▁地表	-8076
▁白俄	-8077
▁渗	-8078
▁城内	-8079
▁月刊	-8080
▁ua	-8081
▁并有	-8082
▁交通部	-8083
▁这么	-8084
▁预防	-8085
▁漫画家	-8086
ca	-8087
▁伺	-8088
国立	-8089
▁力学	-8090
ink	-8091
▁书法	-8092
▁日出	-8093
▁受害者	-8094
道夫	-8095
▁对称	-8096
▁奖章	-8097
▁胆	-8098
▁参演	-8099
▁混凝	-8100
▁相传	-8101
▁辑	-8102
▁灵感	-8103
▁相机	-8104
▁送往	-8105
▁奖励	-8106
▁蓄	-8107
▁位居	-8108
▁教士	-8109
▁三星	-8110
▁全数	-8111
▁哈特	-8112
▁首映	-8113
▁来源于	-8114
▁评论家	-8115
勒斯	-8116
▁域名	-8117
力学	-8118
▁ir	-8119
▁公约	-8120
▁叠	-8121
▁不佳	-8122
▁共享	-8123
▁武术	-8124
民党	-8125
▁万张	-8126
▁多少	-8127
▁无关	-8128
▁part	-8129
▁更大	-8130
▁斐	-8131
▁口号	-8132
▁各大	-8133
▁雾	-8134
▁郊区	-8135
▁新一	-8136
卡罗	-8137
小平	-8138
▁议院	-8139
▁胎	-8140
▁克劳	-8141
克斯坦	-8142
6%	-8143
▁混凝土	-8144
▁娘	-8145
▁选票	-8146
▁绵	-8147
▁贷款	-8148
▁硝	-8149
函数	-8150
▁山谷	-8151
▁元帅	-8152
▁法拉	-8153
▁脊椎	-8154
▁雅各	-8155
▁东面	-8156
▁丘陵	-8157
▁大厅	-8158
▁舆论	-8159
▁有助	-8160
▁火灾	-8161
▁nor	-8162
玫瑰	-8163
▁强迫	-8164
▁事实上	-8165
▁鳉	-8166
▁督府	-8167
▁104	-8168
▁雕刻	-8169
▁里程	-8170
▁阵亡	-8171
we	-8172
▁万吨	-8173
▁瀑	-8174
▁凭借	-8175
▁版权	-8176
▁体型	-8177
du	-8178
▁警员	-8179
▁小镇	-8180
▁快乐	-8181
▁深受	-8182
▁di	-8183
族自治区	-8184
▁饭店	-8185
▁箱	-8186
文帝	-8187
▁季节	-8188
▁竖	-8189
▁密西	-8190
▁支撑	-8191
▁dis	-8192
▁制片	-8193
▁开行	-8194
▁花莲	-8195
▁峡	-8196
▁北端	-8197
▁变形	-8198
▁桂林	-8199
4%	-8200
▁奥利	-8201
▁市立	-8202
▁重播	-8203
▁南端	-8204
▁并止	-8205
▁变量	-8206
▁姐姐	-8207
▁执法	-8208
▁改成	-8209
▁第一届	-8210
罗门	-8211
▁可行	-8212
▁治理	-8213
安县	-8214
马克	-8215
▁盲	-8216
▁聪	-8217
▁扰	-8218
▁作词	-8219
▁罗马尼亚	-8220
▁赛马	-8221
▁巢	-8222
▁蛋白质	-8223
▁啤酒	-8224
▁伙	-8225
▁其为	-8226
▁局面	-8227
▁焦点	-8228
▁中旬	-8229
▁臀鳍	-8230
局长	-8231
九年	-8232
▁史料	-8233
▁引力	-8234
▁驳	-8235
▁影展	-8236
3%	-8237
▁容纳	-8238
▁膜	-8239
▁科罗拉多	-8240
▁专注	-8241
▁当初	-8242
▁system	-8243
▁胡同	-8244
▁哲学家	-8245
▁交往	-8246
▁中市	-8247
▁总局	-8248
▁场合	-8249
▁迁至	-8250
▁前任	-8251
▁董事长	-8252
▁莱昂	-8253
学会	-8254
▁一行	-8255
▁乌尔	-8256
▁堕	-8257
▁暴动	-8258
▁珍珠	-8259
▁协商	-8260
▁字体	-8261
▁损害	-8262
▁色情	-8263
ha	-8264
▁怒	-8265
▁赚	-8266
▁体内	-8267
▁配乐	-8268
▁※	-8269
▁西伯	-8270
▁升降	-8271
▁西门	-8272
▁总书记	-8273
▁生意	-8274
▁聚会	-8275
▁鼎	-8276
▁专案	-8277
▁啦	-8278
▁af	-8279
▁拓跋	-8280
人大	-8281
▁中日	-8282
soft	-8283
▁山上	-8284
公开	-8285
▁文本	-8286
▁极限	-8287
▁产量	-8288
▁俄亥	-8289
▁第一任	-8290
师范	-8291
▁俄亥俄	-8292
▁厌	-8293
orn	-8294
▁一万	-8295
▁维克	-8296
▁行李	-8297
▁隐藏	-8298
▁收视率	-8299
▁二层	-8300
▁传入	-8301
▁宁夏	-8302
▁女演员	-8303
▁т	-8304
事务	-8305
▁搭乘	-8306
▁溶液	-8307
▁身边	-8308
▁衔	-8309
▁与此	-8310
▁青山	-8311
br	-8312
▁侄	-8313
▁大门	-8314
▁杜鹃	-8315
▁短片	-8316
▁卿	-8317
科技	-8318
▁前夕	-8319
▁港澳	-8320
▁che	-8321
▁航海	-8322
▁盾	-8323
ke	-8324
▁坊	-8325
▁台中	-8326
▁受欢	-8327
▁房子	-8328
lo	-8329
▁不良	-8330
▁南朝	-8331
▁pol	-8332
▁矢	-8333
▁监视	-8334
▁倪	-8335
生素	-8336
▁今属	-8337
▁出赛	-8338
特别	-8339
▁发源	-8340
▁器官	-8341
▁前面	-8342
▁战区	-8343
▁长轴	-8344
▁三千	-8345
▁桐	-8346
▁选中	-8347
ald	-8348
▁示范	-8349
▁ass	-8350
指挥	-8351
▁替换	-8352
1%	-8353
▁最强	-8354
▁妙	-8355
▁纵队	-8356
▁′	-8357
▁暴露	-8358
▁州立	-8359
▁草地	-8360
▁软条	-8361
▁消耗	-8362
▁伊丽莎白	-8363
▁检验	-8364
▁里昂	-8365
▁dc	-8366
7%	-8367
▁ev	-8368
▁通称	-8369
镇区	-8370
▁北上	-8371
▁诸葛	-8372
▁碘	-8373
▁胃	-8374
▁五代	-8375
ler	-8376
▁两部	-8377
▁冥	-8378
▁同期	-8379
▁晴	-8380
▁克拉克	-8381
普森	-8382
▁舖	-8383
▁丧失	-8384
▁第二代	-8385
▁告示	-8386
▁购入	-8387
▁青铜	-8388
铁路局	-8389
▁衣服	-8390
▁囊	-8391
▁蜜	-8392
▁108	-8393
▁宴	-8394
▁逊	-8395
▁大法	-8396
生产	-8397
▁君士	-8398
▁li	-8399
▁喇嘛	-8400
十年代	-8401
▁热门	-8402
▁高等教育	-8403
▁属性	-8404
学习	-8405
▁卢瓦尔	-8406
▁习俗	-8407
▁勇士	-8408
2%	-8409
发现	-8410
▁剧团	-8411
▁脂肪	-8412
▁砍	-8413
▁为首	-8414
▁灰色	-8415
▁城门	-8416
吉尔	-8417
▁公益	-8418
▁银牌	-8419
▁克利	-8420
▁原定	-8421
▁盈	-8422
▁赤道	-8423
▁sur	-8424
▁金额	-8425
▁清末	-8426
▁远征	-8427
▁公演	-8428
▁战事	-8429
▁湾的	-8430
▁特种	-8431
mer	-8432
▁加泰	-8433
▁而已	-8434
▁俄罗斯联邦	-8435
▁上空	-8436
▁古城	-8437
▁激进	-8438
▁姓名	-8439
安全	-8440
▁公投	-8441
▁直通	-8442
▁耶律	-8443
ike	-8444
▁迄今	-8445
御史	-8446
▁八十	-8447
▁咨	-8448
▁幅	-8449
▁梨	-8450
▁裕	-8451
▁金门	-8452
▁宦	-8453
be	-8454
▁花费	-8455
▁开封	-8456
▁遵守	-8457
▁团长	-8458
▁战机	-8459
毕业	-8460
▁中子	-8461
ual	-8462
▁接下来	-8463
▁一连	-8464
▁挤	-8465
森堡	-8466
▁节日	-8467
▁袁世	-8468
选择	-8469
▁遇上	-8470
▁牡	-8471
▁央	-8472
▁每月	-8473
▁翠	-8474
特兰	-8475
▁ra	-8476
▁东风	-8477
▁大马	-8478
▁职责	-8479
▁肯尼	-8480
▁一事	-8481
▁教友	-8482
▁行列	-8483
▁武士	-8484
中文	-8485
▁ス	-8486
ode	-8487
▁银河	-8488
▁教科	-8489
▁三角形	-8490
▁追击	-8491
▁4000	-8492
▁诛	-8493
▁就业	-8494
▁个性	-8495
▁兄长	-8496
市场	-8497
▁同月	-8498
▁实业	-8499
▁陀	-8500
▁政协	-8501
▁盟军	-8502
▁罗马帝国	-8503
▁广大	-8504
▁运送	-8505
▁操作系统	-8506
▁窦	-8507
▁只会	-8508
▁客串	-8509
▁君士坦	-8510
▁跌	-8511
▁哭	-8512
▁玩具	-8513
▁加热	-8514
▁摩托	-8515
▁龚	-8516
▁水面	-8517
▁两层	-8518
▁冰岛	-8519
▁创业	-8520
▁ss	-8521
▁进化	-8522
asa	-8523
▁高清	-8524
▁庐	-8525
▁范畴	-8526
▁顶部	-8527
▁西德	-8528
▁jav	-8529
▁违法	-8530
8%	-8531
dp	-8532
▁对话	-8533
▁陇	-8534
▁包装	-8535
▁阿尔及	-8536
▁次数	-8537
▁red	-8538
▁故意	-8539
兴建	-8540
▁保育	-8541
▁宋代	-8542
▁杉	-8543
耶夫	-8544
▁跟随	-8545
ls	-8546
多数	-8547
▁历经	-8548
▁亩	-8549
省委	-8550
ille	-8551
▁传送	-8552
▁鸣	-8553
▁影评	-8554
▁人气	-8555
▁开国	-8556
▁汉堡	-8557
▁邓小平	-8558
▁为名	-8559
▁垄	-8560
▁领衔	-8561
▁袁世凯	-8562
▁北岸	-8563
▁最少	-8564
▁基尔	-8565
▁走廊	-8566
▁第一季	-8567
▁部下	-8568
▁对立	-8569
▁之用	-8570
▁106	-8571
▁行使	-8572
▁五大	-8573
改革	-8574
▁交由	-8575
▁し	-8576
ude	-8577
▁讽刺	-8578
▁奉命	-8579
▁欧阳	-8580
▁西洋	-8581
▁不合	-8582
▁影业	-8583
▁纽约州	-8584
▁醒	-8585
▁案例	-8586
▁湖广	-8587
▁西面	-8588
▁一线	-8589
▁委内	-8590
▁空调	-8591
▁引导	-8592
▁而来	-8593
▁进出	-8594
▁首届	-8595
▁来往	-8596
▁空袭	-8597
▁评选	-8598
▁中午	-8599
开放	-8600
▁合肥	-8601
▁翡翠台	-8602
▁险	-8603
▁俄语	-8604
▁驻地	-8605
▁bbc	-8606
▁在校	-8607
▁イ	-8608
▁夷	-8609
▁海盗	-8610
政权	-8611
▁125	-8612
▁狙	-8613
的关	-8614
▁整数	-8615
▁进展	-8616
pt	-8617
▁04	-8618
▁射线	-8619
▁弘治	-8620
▁物理学	-8621
▁日记	-8622
▁时尚	-8623
▁high	-8624
▁猴	-8625
▁拉克	-8626
▁•	-8627
▁四周	-8628
▁密集	-8629
▁费尔	-8630
▁南站	-8631
▁维奇	-8632
▁车道	-8633
▁不及	-8634
da	-8635
oci	-8636
▁圣马	-8637
▁标示	-8638
▁í	-8639
多年	-8640
▁流放	-8641
▁jam	-8642
▁1890	-8643
▁穷	-8644
▁各级	-8645
▁gn	-8646
▁夫妻	-8647
▁大洋	-8648
▁西岸	-8649
▁黎明	-8650
▁刷	-8651
▁奖牌	-8652
▁ref	-8653
▁州长	-8654
▁观塘	-8655
▁阿拉斯加	-8656
▁公国	-8657
▁出租	-8658
▁星期日	-8659
▁被选为	-8660
▁多部	-8661
▁蒋介	-8662
▁解析	-8663
▁骗	-8664
▁移植	-8665
▁牟	-8666
ugh	-8667
▁罹	-8668
华人	-8669
▁外星	-8670
▁起飞	-8671
▁好莱坞	-8672
▁调查局	-8673
▁埃德	-8674
▁102	-8675
cr	-8676
▁复兴	-8677
▁显著	-8678
▁远东	-8679
▁度假	-8680
▁各界	-8681
roid	-8682
▁炉	-8683
电子	-8684
▁五百	-8685
▁氯化	-8686
ius	-8687
▁传动	-8688
▁02	-8689
▁助攻	-8690
▁中亚	-8691
▁租借	-8692
▁集团军	-8693
▁发育	-8694
att	-8695
icon	-8696
▁右翼	-8697
▁清军	-8698
科夫	-8699
▁硕士学位	-8700
▁加利福尼亚州	-8701
ane	-8702
▁收回	-8703
uch	-8704
▁结局	-8705
▁ver	-8706
规定	-8707
▁金钟	-8708
▁220	-8709
▁司徒	-8710
▁卡罗	-8711
▁马丁	-8712
国王	-8713
▁炼	-8714
▁教徒	-8715
▁横滨	-8716
▁执教	-8717
▁拿到	-8718
▁蒋介石	-8719
▁一开始	-8720
▁与此同时	-8721
▁分歧	-8722
▁阳光	-8723
▁钩	-8724
▁mark	-8725
▁昔日	-8726
▁牙齿	-8727
▁斯蒂	-8728
▁gir	-8729
▁音乐家	-8730
安装	-8731
▁战时	-8732
▁那时	-8733
▁内陆	-8734
▁重复	-8735
▁成员国	-8736
▁第二天	-8737
▁狩	-8738
▁旋律	-8739
▁多为	-8740
▁奥古	-8741
塔基	-8742
航空	-8743
▁判定	-8744
▁盛行	-8745
师范大学	-8746
ited	-8747
▁坝	-8748
▁礁	-8749
▁其顿	-8750
▁辞去	-8751
▁安定	-8752
▁萨斯	-8753
▁del	-8754
▁两地	-8755
▁约瑟夫	-8756
9%	-8757
▁伊万	-8758
▁inst	-8759
▁父子	-8760
▁103	-8761
乐队	-8762
▁二等	-8763
▁会计	-8764
▁概率	-8765
▁罪行	-8766
▁伊尔	-8767
▁扳	-8768
ood	-8769
▁ö	-8770
▁元件	-8771
▁废止	-8772
▁诠	-8773
▁怎么	-8774
▁挽	-8775
▁例外	-8776
▁资深	-8777
▁磁场	-8778
▁则为	-8779
▁三十年	-8780
▁取决	-8781
▁汶	-8782
▁德州	-8783
▁打入	-8784
▁真相	-8785
▁煮	-8786
▁数为	-8787
巴嫩	-8788
▁三层	-8789
中华	-8790
▁两天	-8791
▁理查德	-8792
▁奠定	-8793
▁转而	-8794
▁动工	-8795
▁1896	-8796
▁混淆	-8797
茨基	-8798
▁灾难	-8799
▁磷酸	-8800
▁魅	-8801
▁刊物	-8802
▁华语	-8803
▁护照	-8804
▁直线	-8805
▁索尔	-8806
▁顶点	-8807
洛夫	-8808
▁亚的	-8809
▁官兵	-8810
hz	-8811
▁玫瑰	-8812
▁转入	-8813
▁乒	-8814
▁所用	-8815
全国	-8816
▁仅有	-8817
▁起兵	-8818
▁缔	-8819
▁怀孕	-8820
▁暗示	-8821
▁ele	-8822
▁威斯	-8823
▁拉姆	-8824
▁按察	-8825
▁野战	-8826
▁黎巴嫩	-8827
▁支部	-8828
▁闵	-8829
▁决心	-8830
▁正德	-8831
▁畅销	-8832
▁预言	-8833
▁not	-8834
▁英国人	-8835
▁速率	-8836
建设	-8837
▁ā	-8838
蜘蛛	-8839
▁金星	-8840
▁1200	-8841
▁瀑布	-8842
▁伊斯兰教	-8843
▁意志	-8844
▁木星	-8845
▁常数	-8846
▁可惜	-8847
▁伯格	-8848
▁加密	-8849
▁实用	-8850
▁河谷	-8851
立方米	-8852
▁一枚	-8853
▁修正案	-8854
▁痛苦	-8855
▁星期六	-8856
吉亚	-8857
▁数据库	-8858
▁勳章	-8859
▁大堂	-8860
▁斯泰	-8861
▁电机	-8862
▁nowiki	-8863
▁录制	-8864
▁攻陷	-8865
▁涡轮	-8866
▁图尔	-8867
▁阿肯	-8868
▁巴拿马	-8869
▁超人	-8870
▁off	-8871
七年	-8872
▁显得	-8873
▁琼斯	-8874
▁罢工	-8875
纳州	-8876
沙尼亚	-8877
▁无线电	-8878
▁隋朝	-8879
▁缺陷	-8880
选区	-8881
▁命中	-8882
武器	-8883
▁摘	-8884
▁星球	-8885
▁蝶	-8886
▁鲉	-8887
质量	-8888
▁hy	-8889
▁血统	-8890
▁姐妹	-8891
▁沼泽	-8892
▁车身	-8893
▁谜	-8894
▁正规	-8895
汽车	-8896
▁闽南	-8897
ett	-8898
▁映射	-8899
▁准决赛	-8900
▁信用	-8901
▁过世	-8902
▁回收	-8903
▁狙击	-8904
通过	-8905
▁加里	-8906
侍郎	-8907
▁企业家	-8908
▁负担	-8909
▁精英	-8910
▁位列	-8911
▁侵犯	-8912
▁地狱	-8913
▁羽球	-8914
▁官职	-8915
▁william	-8916
▁六世	-8917
▁帆	-8918
▁海滩	-8919
▁隔离	-8920
▁高压	-8921
▁下旬	-8922
▁转播	-8923
▁中小	-8924
▁铭	-8925
▁摄政	-8926
ien	-8927
▁书写	-8928
▁巩固	-8929
▁宗室	-8930
▁攻下	-8931
▁格兰	-8932
大桥	-8933
导体	-8934
▁固体	-8935
▁驻守	-8936
▁役	-8937
▁弧	-8938
▁初级	-8939
▁这条	-8940
dr	-8941
▁乃至	-8942
▁出资	-8943
▁microsoft	-8944
▁恋爱	-8945
▁腿	-8946
▁解体	-8947
ement	-8948
▁局势	-8949
▁挖掘	-8950
▁目录	-8951
作家	-8952
自动	-8953
▁商标	-8954
▁1897	-8955
方案	-8956
▁蜘蛛	-8957
▁大学生	-8958
▁郝	-8959
▁半年	-8960
▁в	-8961
▁懂	-8962
▁学员	-8963
▁楼梯	-8964
耳曼	-8965
▁幻想	-8966
▁锅	-8967
▁口岸	-8968
ner	-8969
▁底部	-8970
▁谓	-8971
表达	-8972
▁传承	-8973
▁扩充	-8974
▁百货	-8975
▁多家	-8976
▁直流	-8977
▁室内	-8978
▁深圳市	-8979
▁出家	-8980
▁维多	-8981
▁万平方米	-8982
▁松山	-8983
▁庙宇	-8984
ition	-8985
之战	-8986
▁编成	-8987
▁潭	-8988
▁作客	-8989
▁歌舞	-8990
▁浏览器	-8991
夫人	-8992
▁响应	-8993
▁捐赠	-8994
▁马里	-8995
▁中层	-8996
▁滤	-8997
▁据点	-8998
▁冢	-8999
▁夫卡	-9000
政治局	-9001
物理	-9002
eth	-9003
▁奇幻	-9004
▁微分	-9005
▁毕业生	-9006
▁全民	-9007
ream	-9008
▁分割	-9009
▁林肯	-9010
▁你们	-9011
▁民主派	-9012
▁南越	-9013
▁115	-9014
▁维亚	-9015
▁背面	-9016
▁氮	-9017
▁戈尔	-9018
▁iv	-9019
▁尼尔	-9020
出版	-9021
▁定为	-9022
▁水晶	-9023
▁秋季	-9024
▁温哥	-9025
▁平方英里	-9026
illa	-9027
▁日晚	-9028
▁mr	-9029
▁北约	-9030
▁小巴	-9031
ave	-9032
▁政委	-9033
▁签下	-9034
▁热带风暴	-9035
▁以致	-9036
▁雄性	-9037
▁敲	-9038
▁船只	-9039
▁外来	-9040
▁肯塔基	-9041
▁有趣	-9042
▁风力	-9043
▁偶尔	-9044
▁全国人大	-9045
▁俯	-9046
▁影带	-9047
▁肿瘤	-9048
▁к	-9049
▁邯	-9050
江县	-9051
▁招募	-9052
▁动词	-9053
▁大火	-9054
▁开创	-9055
▁柄	-9056
▁绰	-9057
▁废弃	-9058
▁数的	-9059
ject	-9060
▁杰克逊	-9061
▁烹	-9062
▁铁路局	-9063
oss	-9064
▁民兵	-9065
▁鹦	-9066
▁team	-9067
兴趣	-9068
▁树木	-9069
▁太后	-9070
▁绘入	-9071
▁1899	-9072
▁博览会	-9073
▁游击队	-9074
▁侧式	-9075
▁匈奴	-9076
▁最快	-9077
▁南北朝	-9078
▁活佛	-9079
▁疆	-9080
▁机组	-9081
▁第四十	-9082
▁治安	-9083
▁戴维斯	-9084
▁同事	-9085
▁巡演	-9086
作品	-9087
马逊	-9088
▁倭	-9089
▁爱沙尼亚	-9090
▁用地	-9091
▁害怕	-9092
▁cont	-9093
▁夺冠	-9094
▁保加	-9095
▁生母	-9096
▁唇	-9097
▁比起	-9098
▁甄	-9099
中山	-9100
▁供电	-9101
▁立体	-9102
▁苏军	-9103
▁吉祥	-9104
▁管道	-9105
▁警务	-9106
▁形势	-9107
设施	-9108
▁作物	-9109
▁兰教	-9110
▁前作	-9111
▁理性	-9112
二世	-9113
酋长	-9114
▁巡逻	-9115
什么	-9116
屠杀	-9117
▁民用	-9118
蛋白	-9119
▁挡	-9120
罗夫	-9121
▁上演	-9122
▁公子	-9123
▁研究者	-9124
▁溪流	-9125
▁威尔士	-9126
▁第二名	-9127
▁船员	-9128
▁tvb	-9129
▁android	-9130
▁木材	-9131
▁监管	-9132
▁进军	-9133
▁最先	-9134
▁河内	-9135
▁水系	-9136
▁童年	-9137
▁div	-9138
▁就此	-9139
▁诺尔	-9140
▁绝大	-9141
▁般的	-9142
▁大地	-9143
▁州市	-9144
▁数千	-9145
▁少数民族	-9146
太后	-9147
▁打进	-9148
徒刑	-9149
▁慢慢	-9150
▁监禁	-9151
期徒刑	-9152
▁被誉	-9153
总统	-9154
▁烈士	-9155
▁玛丽亚	-9156
yl	-9157
▁省道	-9158
▁潮州	-9159
▁融入	-9160
▁发电机	-9161
能力	-9162
▁其次	-9163
▁ル	-9164
▁蔬	-9165
▁弹劾	-9166
▁炒	-9167
▁攻克	-9168
▁专栏	-9169
服务	-9170
电车	-9171
▁布置	-9172
承认	-9173
▁碰撞	-9174
▁曝光	-9175
▁北路	-9176
▁金钱	-9177
▁崛	-9178
▁et	-9179
▁推理	-9180
▁楚国	-9181
▁同位	-9182
▁ter	-9183
▁夥	-9184
▁福冈	-9185
▁国土	-9186
ds	-9187
▁放映	-9188
▁装有	-9189
▁制动	-9190
▁科进士	-9191
▁民意	-9192
▁日本政府	-9193
▁ó	-9194
▁政治委员	-9195
ake	-9196
▁故居	-9197
▁辐鳍鱼	-9198
格勒	-9199
▁中立	-9200
▁愉	-9201
▁启发	-9202
▁107	-9203
▁一班	-9204
▁师团	-9205
▁第二个	-9206
▁骆	-9207
▁か	-9208
▁朔	-9209
▁该书	-9210
▁中央政府	-9211
▁一只	-9212
▁培育	-9213
▁墓地	-9214
▁源于	-9215
理工	-9216
▁普法	-9217
▁浑	-9218
pa	-9219
▁兆	-9220
▁轿	-9221
▁爵位	-9222
▁种种	-9223
▁阿肯色	-9224
▁肃	-9225
▁马拉	-9226
▁are	-9227
▁外交官	-9228
▁窑	-9229
▁名古	-9230
▁拼音	-9231
制度	-9232
▁乌鲁	-9233
▁褒	-9234
▁历史学家	-9235
▁乒乓	-9236
▁新村	-9237
▁讲师	-9238
▁诺曼	-9239
▁工作者	-9240
▁渤	-9241
▁大概	-9242
▁听到	-9243
▁说服	-9244
▁ke	-9245
▁仓库	-9246
▁val	-9247
▁宅	-9248
▁武田	-9249
sk	-9250
声明	-9251
▁八路	-9252
▁抽象	-9253
▁兰州	-9254
▁行程	-9255
▁名古屋	-9256
▁全书	-9257
▁卸任	-9258
▁水泥	-9259
▁腓特	-9260
▁证书	-9261
▁残疾	-9262
律师	-9263
▁偏西	-9264
▁合金	-9265
▁安德烈	-9266
▁当中陆	-9267
▁group	-9268
▁一分	-9269
▁之所	-9270
▁裁定	-9271
▁开除	-9272
▁平成	-9273
▁colle	-9274
▁改设	-9275
▁借用	-9276
▁art	-9277
▁之乱	-9278
▁斯图	-9279
▁末端	-9280
▁霍夫	-9281
一度	-9282
分别	-9283
▁不必	-9284
▁埃塞	-9285
▁等同	-9286
▁同进士	-9287
▁时空	-9288
▁卡斯蒂利亚	-9289
▁致命	-9290
利安	-9291
▁否定	-9292
▁抬	-9293
▁前去	-9294
▁数年	-9295
▁寺庙	-9296
▁注重	-9297
▁不敌	-9298
▁华侨	-9299
▁1889	-9300
▁含义	-9301
▁彩虹	-9302
▁第十二届	-9303
▁宽度	-9304
▁war	-9305
▁saint	-9306
▁university	-9307
▁堤	-9308
▁非正	-9309
▁自治市	-9310
▁年春	-9311
▁贫困	-9312
▁da	-9313
▁克雷	-9314
▁吉隆	-9315
▁显然	-9316
▁厂商	-9317
▁散文	-9318
▁促成	-9319
▁捐款	-9320
▁防护	-9321
▁清晰	-9322
▁佩尔	-9323
▁家属	-9324
▁爱好者	-9325
▁交汇处	-9326
▁贵州省	-9327
▁game	-9328
▁受体	-9329
▁寿命	-9330
▁畔	-9331
▁臭	-9332
▁噪	-9333
家庄	-9334
▁迎接	-9335
▁被俘	-9336
▁不列	-9337
▁四名	-9338
▁慧	-9339
▁巴比	-9340
▁珠海	-9341
01	-9342
▁腓特烈	-9343
▁漆	-9344
▁虞	-9345
计算	-9346
▁之内	-9347
▁总管	-9348
▁成名	-9349
▁这件	-9350
▁迹	-9351
▁反复	-9352
▁国籍	-9353
▁集成	-9354
▁研究员	-9355
会员	-9356
▁别人	-9357
▁游乐	-9358
▁春季	-9359
▁军用	-9360
▁有用	-9361
▁致使	-9362
▁各式	-9363
▁悠久	-9364
▁户部	-9365
▁编程	-9366
▁清晨	-9367
如此	-9368
▁international	-9369
▁完颜	-9370
▁所长	-9371
▁知名度	-9372
▁电视动画	-9373
▁蛤	-9374
编码	-9375
▁几种	-9376
▁nhk	-9377
▁减轻	-9378
▁惩罚	-9379
▁万年	-9380
▁舟	-9381
▁东岸	-9382
▁东站	-9383
▁单纯	-9384
▁考量	-9385
▁ec	-9386
▁乐园	-9387
▁北站	-9388
▁总结	-9389
马来	-9390
▁七个	-9391
▁归属	-9392
▁扇	-9393
▁艾尔	-9394
▁损坏	-9395
▁た	-9396
pm	-9397
▁欧美	-9398
▁约克	-9399
▁西里	-9400
▁通勤	-9401
oph	-9402
▁动员	-9403
▁挥	-9404
▁四位	-9405
▁司令员	-9406
▁邢	-9407
▁拘捕	-9408
哈顿	-9409
▁保定	-9410
▁地势	-9411
▁初始	-9412
▁变动	-9413
▁既有	-9414
▁pre	-9415
▁雌性	-9416
▁合共	-9417
▁sec	-9418
▁帖	-9419
▁荔	-9420
蝴蝶	-9421
▁翻新	-9422
▁一句	-9423
▁阵容	-9424
▁外形	-9425
▁向东	-9426
▁围攻	-9427
▁托勒	-9428
▁扩散	-9429
▁反对派	-9430
自由	-9431
▁空降	-9432
▁波士顿	-9433
▁布局	-9434
ings	-9435
▁咬	-9436
▁新任	-9437
▁斯科特	-9438
▁排序	-9439
▁航站	-9440
▁酒吧	-9441
able	-9442
卫生	-9443
▁富豪	-9444
▁西区	-9445
▁铁道部	-9446
▁崛起	-9447
▁答应	-9448
▁03	-9449
▁暗杀	-9450
▁民生	-9451
▁甲板	-9452
▁格拉斯	-9453
▁这两个	-9454
▁朝阳	-9455
▁不想	-9456
▁号码	-9457
奥尔	-9458
▁办学	-9459
▁旺角	-9460
▁共用	-9461
▁怡	-9462
▁剑桥	-9463
▁学派	-9464
▁电动机	-9465
▁公会	-9466
▁怪物	-9467
▁釜	-9468
▁全身	-9469
▁吉士	-9470
▁壁画	-9471
▁宇文	-9472
▁最受	-9473
▁信长	-9474
▁在外	-9475
▁满意	-9476
▁殿试	-9477
▁阻碍	-9478
菲尔德	-9479
▁广为	-9480
▁曼联	-9481
▁胚	-9482
▁直辖市	-9483
▁cap	-9484
▁现行	-9485
▁除非	-9486
员工	-9487
▁关心	-9488
▁灌木	-9489
▁鞭	-9490
▁cy	-9491
▁入学	-9492
▁总司令	-9493
▁鞋	-9494
▁倾斜	-9495
▁科斯	-9496
▁冲锋	-9497
▁天地	-9498
▁海德	-9499
▁可分	-9500
▁240	-9501
▁女士	-9502
▁支配	-9503
伦堡	-9504
▁纪念馆	-9505
▁南开	-9506
▁氨基	-9507
▁全日	-9508
▁别墅	-9509
▁发放	-9510
▁时装	-9511
▁录影	-9512
▁高温	-9513
▁天水	-9514
▁军中	-9515
▁act	-9516
▁共识	-9517
▁天正	-9518
▁几内亚	-9519
▁show	-9520
▁职能	-9521
▁降级	-9522
卫视	-9523
▁横跨	-9524
ico	-9525
▁军政	-9526
▁株式	-9527
▁笔名	-9528
▁谋杀	-9529
▁工作人员	-9530
▁内有	-9531
▁枪管	-9532
▁过于	-9533
▁寇	-9534
▁之所以	-9535
▁wal	-9536
▁瓷	-9537
环境	-9538
▁甲基	-9539
人类	-9540
▁希伯	-9541
▁法师	-9542
▁礼部	-9543
iro	-9544
▁普里	-9545
▁荆州	-9546
▁倖	-9547
▁锯	-9548
▁优异	-9549
▁公务员	-9550
▁孙子	-9551
fl	-9552
起来	-9553
▁撤回	-9554
sa	-9555
三角	-9556
▁接待	-9557
▁深夜	-9558
参谋	-9559
▁日以	-9560
▁è	-9561
▁衙	-9562
▁孙中山	-9563
▁南岸	-9564
▁站名	-9565
ott	-9566
▁窗口	-9567
蒙德	-9568
▁安达	-9569
▁进修	-9570
▁采集	-9571
金山	-9572
▁万馀	-9573
后方	-9574
▁哈萨	-9575
▁iso	-9576
▁洛夫	-9577
海峡	-9578
▁数次	-9579
▁译名	-9580
▁david	-9581
▁债务	-9582
▁藤原	-9583
里兰卡	-9584
▁预警	-9585
▁询问	-9586
▁鲤科	-9587
▁全省	-9588
▁可汗	-9589
▁宦官	-9590
▁腹部	-9591
▁潟	-9592
塞拜	-9593
▁落败	-9594
▁滑雪	-9595
▁过后	-9596
▁占地面积	-9597
▁一中	-9598
▁光年	-9599
▁分泌	-9600
▁讯息	-9601
▁双重	-9602
▁温哥华	-9603
urg	-9604
▁450	-9605
保罗	-9606
▁垄断	-9607
▁完结	-9608
▁投入使用	-9609
▁伺服	-9610
▁玻利	-9611
▁西蒙	-9612
▁费城	-9613
人物	-9614
大区	-9615
▁下设	-9616
▁组件	-9617
务段	-9618
太宗	-9619
▁年份	-9620
▁该镇	-9621
▁109	-9622
▁未经	-9623
▁专科学校	-9624
▁张国	-9625
▁放大	-9626
▁鲶形	-9627
▁告示牌	-9628
▁名举	-9629
▁并成	-9630
▁阵线	-9631
▁白金	-9632
▁内务	-9633
▁西站	-9634
▁慰	-9635
ene	-9636
▁111	-9637
▁娃	-9638
▁吸血	-9639
▁始于	-9640
▁黛	-9641
▁党籍	-9642
多次	-9643
▁付费	-9644
▁接手	-9645
▁民航	-9646
▁延迟	-9647
▁独裁	-9648
▁结识	-9649
▁大军	-9650
规划	-9651
▁否决	-9652
▁擢	-9653
▁三等	-9654
▁制成	-9655
▁机身	-9656
▁舰艇	-9657
▁50%	-9658
▁列斯	-9659
▁南美	-9660
▁开拓	-9661
▁加勒比海	-9662
▁喉	-9663
▁八个	-9664
ino	-9665
▁一集	-9666
▁疯狂	-9667
▁高尔夫	-9668
work	-9669
▁万历	-9670
▁中兴	-9671
▁贼	-9672
▁鳃	-9673
▁家臣	-9674
▁采纳	-9675
▁一门	-9676
▁不够	-9677
▁л	-9678
▁广岛	-9679
▁公共交通	-9680
▁ig	-9681
▁里奇	-9682
▁重型	-9683
▁两家	-9684
▁审议	-9685
▁美食	-9686
▁总统府	-9687
ons	-9688
▁恶劣	-9689
▁炮兵	-9690
▁物业	-9691
vel	-9692
▁缺点	-9693
条件	-9694
▁创刊	-9695
▁指挥部	-9696
▁行省	-9697
▁就读于	-9698
▁邮政编码	-9699
▁摩洛	-9700
▁汉朝	-9701
▁元首	-9702
▁音译	-9703
资料	-9704
▁渤海	-9705
▁贝格	-9706
▁先驱	-9707
▁厄尔	-9708
▁服饰	-9709
▁杀手	-9710
▁相等	-9711
▁晨	-9712
为止	-9713
宁县	-9714
车辆	-9715
龙科	-9716
▁诠释	-9717
▁难度	-9718
▁托勒密	-9719
▁蔓	-9720
▁唱歌	-9721
▁左派	-9722
▁金像	-9723
▁板块	-9724
▁褐色	-9725
▁中南部	-9726
▁拿破仑	-9727
▁致力于	-9728
▁镑	-9729
ero	-9730
▁运载	-9731
▁赎	-9732
德拉	-9733
▁心中	-9734
▁128	-9735
▁三天	-9736
▁南洋	-9737
▁妈妈	-9738
▁共和党	-9739
▁冰原	-9740
▁张学	-9741
▁湿地	-9742
▁圣公会	-9743
▁财团	-9744
▁之时	-9745
▁并为	-9746
▁精选	-9747
▁大法官	-9748
▁美国国家	-9749
▁想到	-9750
▁缝	-9751
▁酱	-9752
▁制服	-9753
▁登山	-9754
▁逃往	-9755
▁专属	-9756
▁内外	-9757
▁橡胶	-9758
▁鸦片	-9759
05	-9760
▁则在	-9761
▁法规	-9762
▁礼拜	-9763
▁转向架	-9764
▁相互作用	-9765
排名	-9766
▁战绩	-9767
▁蝴蝶	-9768
▁big	-9769
▁自行车	-9770
▁德甲	-9771
▁承受	-9772
▁10%	-9773
▁1860	-9774
▁cm	-9775
▁土著	-9776
▁球衣	-9777
▁着手	-9778
▁采购	-9779
▁党委书记	-9780
太阳	-9781
▁忽略	-9782
▁曼哈顿	-9783
▁青海省	-9784
▁comm	-9785
▁保加利亚	-9786
▁分部	-9787
▁撤出	-9788
▁教室	-9789
称作	-9790
▁公署	-9791
▁包裹	-9792
▁被称作	-9793
▁橘	-9794
▁一战	-9795
▁太阳系	-9796
cm	-9797
▁些	-9798
▁海战	-9799
▁重伤	-9800
西比	-9801
▁誉	-9802
ear	-9803
▁人造	-9804
▁候补	-9805
▁护卫	-9806
▁五千	-9807
▁点为	-9808
▁乒乓球	-9809
平县	-9810
▁移除	-9811
进行	-9812
▁从未	-9813
▁高句	-9814
▁栋	-9815
▁硫酸	-9816
▁警报	-9817
▁彩色	-9818
▁每秒	-9819
ek	-9820
▁咏	-9821
▁再生	-9822
▁大败	-9823
▁深水	-9824
▁辣	-9825
▁依法	-9826
▁并被	-9827
▁希腊语	-9828
▁每小时	-9829
▁气象局	-9830
▁窝	-9831
▁将近	-9832
▁史蒂芬	-9833
▁曾多次	-9834
▁阿肯色州	-9835
▁留守	-9836
▁出于	-9837
▁迁入	-9838
▁bas	-9839
▁ラ	-9840
▁所知	-9841
▁第三名	-9842
▁保护区	-9843
▁所有人	-9844
▁暹	-9845
▁物件	-9846
▁此剧	-9847
▁真空	-9848
▁栗	-9849
▁环节	-9850
▁汕	-9851
▁1880	-9852
拉尔	-9853
▁虐	-9854
▁水果	-9855
▁进驻	-9856
▁可追	-9857
▁东晋	-9858
▁1600	-9859
▁上场	-9860
▁掌管	-9861
let	-9862
▁人间	-9863
▁高等法院	-9864
▁樊	-9865
▁sd	-9866
马里	-9867
▁双向	-9868
▁庄园	-9869
▁待遇	-9870
▁南京市	-9871
▁参战	-9872
▁地主	-9873
▁崩溃	-9874
罗尼亚	-9875
▁物理学家	-9876
▁robert	-9877
▁依次	-9878
▁可追溯	-9879
吉尼亚州	-9880
▁僱	-9881
▁射手	-9882
▁清政府	-9883
▁阿姆斯特	-9884
▁苔	-9885
法国	-9886
▁下去	-9887
▁防线	-9888
▁战列舰	-9889
▁初次	-9890
▁卡区	-9891
足联	-9892
闻名	-9893
▁增至	-9894
标准	-9895
▁铸造	-9896
▁中国国民党	-9897
▁闹	-9898
尔茨	-9899
▁day	-9900
军队	-9901
▁南华	-9902
▁同位素	-9903
▁1894	-9904
▁喙	-9905
▁吐蕃	-9906
▁布拉格	-9907
▁斯洛伐克	-9908
▁助手	-9909
▁战死	-9910
▁正当	-9911
▁礼仪	-9912
▁vi	-9913
▁孕	-9914
▁淑	-9915
加索	-9916
▁牛顿	-9917
▁着称	-9918
▁ca	-9919
▁华南	-9920
▁真理	-9921
▁112	-9922
▁阿波罗	-9923
▁在家	-9924
▁参与者	-9925
▁颂	-9926
▁几天	-9927
▁混血	-9928
▁垒	-9929
▁剧组	-9930
▁操纵	-9931
▁xbox	-9932
▁俘虏	-9933
▁135	-9934
▁美国陆	-9935
▁研讨	-9936
▁阶层	-9937
▁ta	-9938
▁同为	-9939
▁欣赏	-9940
▁大将军	-9941
▁基区	-9942
▁惯例	-9943
▁故乡	-9944
▁破产	-9945
▁geor	-9946
▁磡	-9947
▁蜡	-9948
▁大兴	-9949
▁远离	-9950
▁宾夕	-9951
▁沉积	-9952
▁生育	-9953
▁西边	-9954
▁年亚洲	-9955
rit	-9956
uro	-9957
▁假期	-9958
▁道具	-9959
▁瑞拉	-9960
▁原声	-9961
▁流入	-9962
▁克鲁	-9963
▁塔克	-9964
▁二十四	-9965
▁拉丁文	-9966
▁法学院	-9967
▁两项	-9968
▁分店	-9969
▁宗旨	-9970
▁讲话	-9971
▁书中	-9972
▁碎片	-9973
协助	-9974
连续	-9975
▁天堂	-9976
▁定名	-9977
▁辩护	-9978
▁铜锣	-9979
▁日食	-9980
▁christ	-9981
▁普尔	-9982
主席	-9983
▁插入	-9984
▁生殖	-9985
ute	-9986
▁围棋	-9987
▁河东	-9988
▁刘备	-9989
▁中止	-9990
▁幼年	-9991
▁毛利	-9992
▁平坦	-9993
▁削弱	-9994
▁实习	-9995
▁摩根	-9996
▁亚种	-9997
▁卓越	-9998
▁后裔	-9999
▁秦国	-10000
▁that	-10001
▁工资	-10002
▁平日	-10003
▁合资	-10004
▁清理	-10005
人民法院	-10006
▁侦探	-10007
▁起草	-10008
▁铃木	-10009
产阶级	-10010
▁左侧	-10011
▁补助	-10012
▁pla	-10013
▁有所不同	-10014
电话	-10015
▁奉天	-10016
▁高句丽	-10017
江市	-10018
▁土木	-10019
▁医药	-10020
▁患有	-10021
▁续集	-10022
▁贩卖	-10023
▁传教士	-10024
▁人格	-10025
▁修筑	-10026
▁星光	-10027
▁tech	-10028
▁永安	-10029
▁起到	-10030
▁巨星	-10031
▁在线	-10032
▁饲养	-10033
金斯	-10034
▁封建	-10035
▁萨克森	-10036
胜利	-10037
自然	-10038
▁失业	-10039
▁卢森堡	-10040
▁荡	-10041
▁出品	-10042
▁榆	-10043
▁接口	-10044
▁刚刚	-10045
▁茎	-10046
▁巴里	-10047
▁疫苗	-10048
▁重叠	-10049
▁一队	-10050
▁海关	-10051
▁音乐录	-10052
▁维多利亚	-10053
▁伯恩	-10054
▁总兵	-10055
▁沧	-10056
▁中环	-10057
▁敕	-10058
▁耀	-10059
▁低于	-10060
▁排放	-10061
▁校方	-10062
▁武将	-10063
▁敖	-10064
▁三条	-10065
▁亚利	-10066
▁必然	-10067
▁誓	-10068
▁ce	-10069
▁维吾尔	-10070
▁并列	-10071
▁结盟	-10072
▁萝	-10073
▁聚居	-10074
▁第十四	-10075
▁仆	-10076
▁と	-10077
警察	-10078
▁夫斯基	-10079
▁甲级联赛	-10080
▁屋苑	-10081
▁有力	-10082
▁寡	-10083
农业	-10084
设备	-10085
▁仕	-10086
▁郁	-10087
▁徙	-10088
▁神庙	-10089
▁篮板	-10090
▁自立	-10091
▁外籍	-10092
▁1800	-10093
▁枝	-10094
▁寨	-10095
▁血管	-10096
▁硬件	-10097
▁探测器	-10098
▁翻唱	-10099
▁第五十	-10100
▁俊	-10101
▁斥	-10102
▁征召	-10103
▁畜	-10104
迪斯	-10105
oo	-10106
▁冻	-10107
▁已于	-10108
▁mor	-10109
▁古建筑	-10110
▁纳粹德国	-10111
▁第一次世界大战	-10112
▁侵蚀	-10113
▁此种	-10114
way	-10115
▁牡丹	-10116
▁pop	-10117
▁浴	-10118
ife	-10119
▁大王	-10120
▁传记	-10121
▁矿物	-10122
▁饮料	-10123
▁矣	-10124
▁委托	-10125
▁招生	-10126
功能	-10127
▁本季	-10128
▁连锁	-10129
▁open	-10130
▁滋	-10131
▁中视	-10132
▁性行	-10133
▁辛亥	-10134
▁fin	-10135
▁千年	-10136
▁明尼	-10137
▁卡斯特	-10138
▁吉隆坡	-10139
▁塔拉	-10140
▁笛	-10141
▁不应	-10142
▁企划	-10143
▁公正	-10144
▁乌兹	-10145
▁模糊	-10146
▁红旗	-10147
▁话题	-10148
▁南边	-10149
▁英国伦敦	-10150
▁完毕	-10151
▁在此之	-10152
▁宣誓	-10153
▁弗洛	-10154
北克	-10155
▁云林	-10156
▁耿	-10157
▁东莞	-10158
▁人选	-10159
▁内政部	-10160
▁目的地	-10161
▁逃走	-10162
▁遵循	-10163
▁验证	-10164
▁顺位	-10165
▁230	-10166
▁邮件	-10167
透过	-10168
▁现金	-10169
▁第二位	-10170
▁骂	-10171
德罗	-10172
sc	-10173
▁安葬	-10174
▁征收	-10175
▁缺少	-10176
▁售出	-10177
▁派系	-10178
▁剥夺	-10179
▁掩护	-10180
▁联队	-10181
▁第一百	-10182
氨酸	-10183
▁春天	-10184
▁景区	-10185
博物	-10186
▁乙级	-10187
▁军长	-10188
▁蔬菜	-10189
▁eng	-10190
▁一连串	-10191
不多	-10192
▁斯克州	-10193
▁契约	-10194
▁接纳	-10195
▁前提	-10196
▁汉人	-10197
▁魁北克	-10198
▁奖学	-10199
▁狭窄	-10200
▁lim	-10201
▁卤	-10202
▁景点	-10203
▁烤	-10204
▁共青	-10205
▁及后	-10206
▁结尾	-10207
▁方针	-10208
▁枢机	-10209
▁西山	-10210
▁京师	-10211
▁住房	-10212
▁已成	-10213
▁圭	-10214
▁外表	-10215
▁记忆体	-10216
▁疼	-10217
▁主播	-10218
▁肠	-10219
▁先行	-10220
▁诺夫	-10221
察院	-10222
▁乐坛	-10223
▁威力	-10224
▁拓展	-10225
▁讲座	-10226
▁遇难	-10227
▁应对	-10228
▁绰号	-10229
事件	-10230
▁北区	-10231
▁看作	-10232
▁钓鱼	-10233
▁缠	-10234
▁兵器	-10235
▁万英	-10236
▁字样	-10237
▁搜寻	-10238
▁深海	-10239
▁瞬	-10240
▁南宁	-10241
▁贩售	-10242
▁http	-10243
决定	-10244
▁修行	-10245
▁期待	-10246
▁ang	-10247
▁右侧	-10248
▁日公	-10249
▁此书	-10250
▁受欢迎	-10251
▁钙	-10252
ena	-10253
▁科隆	-10254
▁日耳曼	-10255
▁两端	-10256
▁曼谷	-10257
▁还在	-10258
▁水准	-10259
▁阿勒	-10260
▁丧生	-10261
▁公使	-10262
▁情人	-10263
▁分局	-10264
▁文中	-10265
▁鳗	-10266
▁只得	-10267
port	-10268
▁艺名	-10269
▁萨摩	-10270
▁文书	-10271
▁烧毁	-10272
▁祥	-10273
▁出境	-10274
▁关押	-10275
▁八路军	-10276
▁学历	-10277
▁自愿	-10278
▁cro	-10279
▁擦	-10280
▁大脑	-10281
▁第三代	-10282
▁并发	-10283
空军	-10284
龙类	-10285
▁不管	-10286
▁他于	-10287
▁优点	-10288
▁存活	-10289
▁法兰克福	-10290
▁mk	-10291
▁道格	-10292
▁亚马逊	-10293
▁明清	-10294
▁机率	-10295
▁称赞	-10296
▁新罗	-10297
▁分发	-10298
▁契丹	-10299
▁豪华	-10300
▁双层	-10301
▁有期徒刑	-10302
▁您	-10303
▁fa	-10304
▁谐	-10305
▁鳕	-10306
▁黄色	-10307
▁开发区	-10308
维克	-10309
▁全力	-10310
▁笔记	-10311
▁里的	-10312
▁paul	-10313
哈拉	-10314
▁光线	-10315
▁干预	-10316
▁狩猎	-10317
▁挑选	-10318
▁祈祷	-10319
▁摩斯	-10320
▁守备	-10321
▁理事会	-10322
▁1870	-10323
▁阵营	-10324
软件	-10325
▁正好	-10326
▁克罗地亚	-10327
▁飘	-10328
▁流体	-10329
▁要素	-10330
▁半导体	-10331
▁樟	-10332
不到	-10333
▁bu	-10334
▁top	-10335
▁三分之一	-10336
▁中医	-10337
▁巡回	-10338
▁210	-10339
▁社会学	-10340
四军	-10341
▁三维	-10342
▁声优	-10343
▁朱元	-10344
▁厕	-10345
太祖	-10346
ael	-10347
ark	-10348
常委	-10349
▁塔斯	-10350
▁歧义	-10351
▁金马	-10352
▁sim	-10353
▁加泰罗尼亚	-10354
美奖	-10355
▁失利	-10356
▁fc	-10357
▁两场	-10358
▁水手	-10359
▁淹	-10360
▁冶	-10361
▁基层	-10362
▁118	-10363
▁操控	-10364
▁这份	-10365
▁produ	-10366
▁硅	-10367
▁落实	-10368
▁阿德	-10369
▁年成	-10370
▁明白	-10371
▁一属	-10372
▁努尔	-10373
▁玛格	-10374
▁线索	-10375
斯理	-10376
布斯	-10377
▁入狱	-10378
▁层面	-10379
▁tom	-10380
▁弹性	-10381
▁μ	-10382
▁流程	-10383
▁签名	-10384
▁mich	-10385
sm	-10386
▁ア	-10387
灵顿	-10388
▁李氏	-10389
▁灌溉	-10390
ari	-10391
▁损伤	-10392
▁委员长	-10393
▁代言	-10394
▁分会	-10395
▁可作	-10396
▁失望	-10397
▁收益	-10398
▁四方	-10399
▁from	-10400
▁羟	-10401
▁三分	-10402
▁对付	-10403
▁田中	-10404
▁盟友	-10405
▁辽东	-10406
▁样本	-10407
▁摩洛哥	-10408
▁紮	-10409
▁中位	-10410
▁传达	-10411
▁嫌疑	-10412
▁national	-10413
▁补偿	-10414
▁酋长	-10415
▁纳米	-10416
▁淋	-10417
半球	-10418
▁分辨	-10419
▁是罗马尼亚	-10420
▁轩	-10421
▁三重	-10422
▁全境	-10423
▁动机	-10424
▁卫冕	-10425
▁娄	-10426
▁捉	-10427
▁汉口	-10428
▁max	-10429
▁伺服器	-10430
▁原生	-10431
▁county	-10432
▁润	-10433
▁庇护	-10434
▁北纬	-10435
▁打出	-10436
独立	-10437
▁抵制	-10438
▁西西里	-10439
▁锥	-10440
▁ä	-10441
▁煤矿	-10442
▁音乐剧	-10443
▁聊	-10444
幻想	-10445
▁雷诺	-10446
▁reg	-10447
▁洛斯	-10448
▁省会	-10449
▁音乐节	-10450
uck	-10451
▁阮福	-10452
▁sam	-10453
▁中方	-10454
▁候车	-10455
▁尾巴	-10456
▁1871	-10457
▁155	-10458
po	-10459
▁萌	-10460
▁粗体	-10461
▁分出	-10462
▁合称	-10463
▁处罚	-10464
▁壹	-10465
工具	-10466
▁二期	-10467
▁意指	-10468
▁史记	-10469
▁一段时间	-10470
▁控制器	-10471
▁平壤	-10472
▁心灵	-10473
▁老虎	-10474
▁卡是	-10475
▁宇航	-10476
▁rich	-10477
▁爸	-10478
▁亚科	-10479
▁信心	-10480
▁演技	-10481
▁飞船	-10482
▁希伯来	-10483
▁五人	-10484
▁开头	-10485
▁监控	-10486
▁不错	-10487
大奖	-10488
▁水源	-10489
▁米勒	-10490
▁袋	-10491
▁阜	-10492
▁教义	-10493
▁113	-10494
▁啊	-10495
que	-10496
▁据说	-10497
▁伦理	-10498
any	-10499
▁清除	-10500
▁译作	-10501
▁快车	-10502
▁电报	-10503
▁black	-10504
▁千万	-10505
▁拉德	-10506
▁统称	-10507
▁巴登	-10508
▁关节	-10509
▁舰只	-10510
▁贫穷	-10511
▁无效	-10512
▁窄	-10513
▁咨询	-10514
▁莲花	-10515
▁don	-10516
▁sol	-10517
▁斯里兰卡	-10518
▁侏	-10519
▁古罗马	-10520
▁泄	-10521
▁葡萄酒	-10522
▁韶	-10523
▁水扁	-10524
▁质子	-10525
▁6000	-10526
▁饼	-10527
▁账	-10528
▁松江	-10529
▁内蒙古自治区	-10530
by	-10531
▁du	-10532
▁审理	-10533
▁新鲜	-10534
ese	-10535
▁千叶	-10536
▁沿途	-10537
▁算是	-10538
▁桑那州	-10539
▁1885	-10540
▁副司令	-10541
▁放射性	-10542
▁芯	-10543
▁和解	-10544
▁炮台	-10545
▁评级	-10546
▁够	-10547
处长	-10548
▁塞拉	-10549
▁间谍	-10550
▁中国政府	-10551
▁疲	-10552
▁铀	-10553
▁全家	-10554
▁特鲁	-10555
▁槟	-10556
▁关卡	-10557
▁pat	-10558
▁县名	-10559
▁迪克	-10560
▁组成部分	-10561
▁海面	-10562
▁280	-10563
▁困扰	-10564
▁层次	-10565
▁月间	-10566
▁警备	-10567
▁近期	-10568
▁检察官	-10569
▁中北	-10570
▁车次	-10571
▁小提琴	-10572
▁na	-10573
▁拓扑	-10574
▁地铁站	-10575
▁虔	-10576
▁登录	-10577
位置	-10578
▁果实	-10579
▁二号	-10580
▁名额	-10581
▁接驳	-10582
▁演绎	-10583
▁顾客	-10584
▁第一座	-10585
国务	-10586
材料	-10587
项目	-10588
▁增援	-10589
▁日到	-10590
▁埼	-10591
气候	-10592
▁师范学校	-10593
▁trans	-10594
▁历时	-10595
▁存放	-10596
▁感谢	-10597
▁约旦	-10598
卫星	-10599
▁今年	-10600
▁城中	-10601
▁rad	-10602
▁city	-10603
纳尔	-10604
▁严厉	-10605
▁溃	-10606
红军	-10607
▁等于	-10608
▁里亚	-10609
▁time	-10610
▁伯克	-10611
▁恩斯	-10612
▁114	-10613
▁渔业	-10614
▁科普	-10615
iver	-10616
▁伊夫	-10617
▁时至	-10618
堂区	-10619
▁日间	-10620
▁同行	-10621
▁旅馆	-10622
▁东经	-10623
▁哥特	-10624
▁幼儿	-10625
▁毒性	-10626
▁首场	-10627
▁莱斯	-10628
▁埃斯	-10629
▁大正	-10630
▁雀	-10631
▁sl	-10632
▁games	-10633
▁驿	-10634
ism	-10635
▁bm	-10636
▁僧人	-10637
▁民事	-10638
▁腐败	-10639
▁贪污	-10640
▁专题	-10641
▁单行	-10642
▁朱元璋	-10643
▁人民法院	-10644
▁记述	-10645
▁都城	-10646
▁碟	-10647
▁坐在	-10648
▁女生	-10649
▁船舶	-10650
▁随时	-10651
米特	-10652
ram	-10653
▁内存	-10654
▁拨款	-10655
▁邯郸	-10656
▁指向	-10657
▁肯塔基州	-10658
▁冬天	-10659
▁危害	-10660
▁阿卜	-10661
▁一个种	-10662
典礼	-10663
▁后代	-10664
▁仅次于	-10665
▁掀	-10666
▁南阳	-10667
▁20%	-10668
▁福克	-10669
▁辅导	-10670
▁避难	-10671
▁但后来	-10672
▁击退	-10673
▁广西壮	-10674
▁世俗	-10675
华德	-10676
▁魔术	-10677
▁绣	-10678
尼奥	-10679
海军	-10680
▁气氛	-10681
▁酒精	-10682
▁out	-10683
干线	-10684
教师	-10685
▁分行	-10686
▁四种	-10687
▁雏	-10688
尔本	-10689
▁新宿	-10690
▁齐国	-10691
▁约翰逊	-10692
▁猎人	-10693
▁贡士	-10694
▁大屠杀	-10695
▁匈牙利语	-10696
本科	-10697
▁不定	-10698
▁无数	-10699
体育	-10700
▁机型	-10701
▁ト	-10702
后卫	-10703
▁cc	-10704
▁kn	-10705
▁找出	-10706
▁指南	-10707
▁送给	-10708
迪亚	-10709
▁kh	-10710
▁岛峰	-10711
▁吉他手	-10712
务局	-10713
▁不好	-10714
▁多夫	-10715
▁影集	-10716
▁向前	-10717
▁广西壮族自治区	-10718
03	-10719
▁mp	-10720
▁四等	-10721
▁追溯到	-10722
▁见到	-10723
▁玉米	-10724
▁职工	-10725
注意	-10726
▁见面	-10727
▁佛罗里达州	-10728
石器	-10729
osh	-10730
▁总队	-10731
▁珍妮	-10732
▁地层	-10733
▁学界	-10734
舰队	-10735
▁氏族	-10736
▁非裔	-10737
▁见于	-10738
▁潜水	-10739
▁隆头	-10740
▁未成	-10741
▁神奈	-10742
▁表彰	-10743
▁顽	-10744
▁儒家	-10745
▁敷	-10746
ron	-10747
▁加快	-10748
▁个国家	-10749
▁第一期	-10750
▁会面	-10751
oll	-10752
▁ts	-10753
▁晶片	-10754
fo	-10755
▁中路	-10756
▁强奸	-10757
▁mer	-10758
▁不受	-10759
▁有功	-10760
▁背叛	-10761
▁檀	-10762
▁激光	-10763
▁照明	-10764
▁番茄	-10765
▁首周	-10766
▁cal	-10767
za	-10768
▁党内	-10769
▁安大	-10770
▁化学式	-10771
▁淳	-10772
▁教派	-10773
▁晋国	-10774
▁步骤	-10775
▁谈话	-10776
▁料理	-10777
▁庵	-10778
▁诬	-10779
▁匿	-10780
▁擒	-10781
▁零件	-10782
锦赛	-10783
▁之类	-10784
▁煤炭	-10785
▁科举	-10786
▁岐	-10787
▁招收	-10788
▁西克	-10789
▁办公厅	-10790
▁堵	-10791
▁所作	-10792
▁副总	-10793
▁船上	-10794
▁科罗拉多州	-10795
▁驰	-10796
▁中叶	-10797
▁日内	-10798
▁纯粹	-10799
▁ber	-10800
▁究	-10801
▁味道	-10802
▁编修	-10803
▁腓力	-10804
▁开发者	-10805
▁杀人	-10806
▁省长	-10807
▁was	-10808
▁降格	-10809
▁青岛市	-10810
▁歇	-10811
▁战俘	-10812
▁白垩	-10813
▁116	-10814
▁珠江	-10815
▁家长	-10816
▁特斯	-10817
▁隔年	-10818
▁航站楼	-10819
▁巴德	-10820
▁热情	-10821
▁妓	-10822
▁年均	-10823
▁win	-10824
▁福克斯	-10825
▁书店	-10826
▁推举	-10827
▁皮卡	-10828
▁衰落	-10829
▁孙权	-10830
▁阿塞拜	-10831
▁很小	-10832
▁最有	-10833
▁极少	-10834
▁vis	-10835
巴斯	-10836
▁反攻	-10837
▁女友	-10838
▁122	-10839
▁胡安	-10840
▁兑	-10841
分钟	-10842
▁两度	-10843
▁盒	-10844
广东	-10845
▁炮塔	-10846
▁镇守	-10847
▁格鲁吉亚	-10848
▁划入	-10849
▁司长	-10850
▁搬迁	-10851
▁西域	-10852
▁除外	-10853
▁应用程序	-10854
▁率部	-10855
▁工业区	-10856
▁amer	-10857
频道	-10858
▁park	-10859
花园	-10860
▁中西部	-10861
而言	-10862
▁加大	-10863
▁客流	-10864
▁林中	-10865
▁石灰	-10866
▁尼日	-10867
to	-10868
▁出去	-10869
▁印地	-10870
▁目脂	-10871
▁萤幕	-10872
era	-10873
ior	-10874
▁容器	-10875
▁英九	-10876
▁橄榄球	-10877
▁リ	-10878
▁升为	-10879
▁枫	-10880
青年	-10881
▁电源	-10882
▁阿塞拜疆	-10883
▁新秀	-10884
▁组赛	-10885
▁比特	-10886
▁赞成	-10887
▁则有	-10888
▁放出	-10889
▁草本	-10890
电脑	-10891
▁刻有	-10892
▁最终幻想	-10893
爱尔兰	-10894
▁二十三年	-10895
▁ur	-10896
▁二千	-10897
▁位元	-10898
▁民俗	-10899
▁电讯	-10900
▁ios	-10901
▁三十四年	-10902
▁密西西比	-10903
▁奖学金	-10904
▁侦测	-10905
▁香港中文	-10906
▁痕	-10907
破坏	-10908
▁dj	-10909
电站	-10910
和华	-10911
▁为何	-10912
▁交互	-10913
▁type	-10914
▁极其	-10915
▁117	-10916
▁两艘	-10917
▁传出	-10918
▁下水	-10919
▁师长	-10920
▁安大略	-10921
▁回族	-10922
▁给定	-10923
phone	-10924
▁兼容	-10925
▁屏幕	-10926
▁河川	-10927
▁背部	-10928
▁神奈川	-10929
▁首长	-10930
▁北欧	-10931
▁揭露	-10932
▁正教	-10933
▁投资者	-10934
▁一封	-10935
▁体操	-10936
▁高斯	-10937
▁ha	-10938
▁学部	-10939
▁山镇	-10940
▁百合	-10941
▁布鲁斯	-10942
▁禄	-10943
▁习近	-10944
▁尖沙	-10945
▁强行	-10946
▁停办	-10947
02	-10948
▁慾	-10949
▁应付	-10950
▁尖沙咀	-10951
▁财政部	-10952
▁厢	-10953
▁弯曲	-10954
▁甲组	-10955
▁科特	-10956
成功	-10957
方形	-10958
▁填海	-10959
▁号召	-10960
▁杂的	-10961
▁激发	-10962
▁卡洛斯	-10963
enc	-10964
▁影院	-10965
▁机体	-10966
▁检讨	-10967
▁海地	-10968
▁中文版	-10969
协议	-10970
▁公认	-10971
▁广播电台	-10972
巴马	-10973
▁全港	-10974
▁淮南	-10975
▁鹦鹉	-10976
专线	-10977
▁汗国	-10978
▁欢乐	-10979
▁神户	-10980
▁参议	-10981
▁台中市	-10982
▁抹	-10983
▁烯	-10984
▁旗舰	-10985
▁瑟夫	-10986
▁纠纷	-10987
▁杏	-10988
▁搁	-10989
▁天才	-10990
▁rock	-10991
▁il	-10992
佛教	-10993
单位	-10994
▁师生	-10995
▁此站	-10996
▁织田	-10997
▁谣	-10998
▁黔	-10999
绿色	-11000
莱斯	-11001
▁阿萨	-11002
▁角色扮演	-11003
▁戏院	-11004
▁过往	-11005
▁彝	-11006
▁四国	-11007
▁三部曲	-11008
▁家里	-11009
▁org	-11010
▁乌拉圭	-11011
▁满洲国	-11012
运行	-11013
▁两边	-11014
▁外语	-11015
▁英属	-11016
▁优化	-11017
▁外科	-11018
▁祖国	-11019
▁power	-11020
▁年幼	-11021
▁捕捉	-11022
▁清治	-11023
▁贿	-11024
▁歌迷	-11025
▁瓦拉	-11026
▁之地	-11027
▁评分	-11028
▁愚	-11029
▁分隔	-11030
▁奠基	-11031
▁年仅	-11032
▁傍	-11033
▁侍中	-11034
▁同知	-11035
▁藏族	-11036
▁金色	-11037
▁履行	-11038
▁滩	-11039
▁多用	-11040
▁卡通	-11041
▁吉斯	-11042
▁惹	-11043
▁再也	-11044
▁四面	-11045
▁突袭	-11046
▁词汇	-11047
▁inc	-11048
▁洁	-11049
▁各方	-11050
▁sing	-11051
▁な	-11052
学士	-11053
▁一把	-11054
▁会上	-11055
▁骑士团	-11056
文斯	-11057
▁信义	-11058
▁斯巴	-11059
▁副教授	-11060
▁瑜	-11061
▁华纳	-11062
▁度过	-11063
ya	-11064
▁勉	-11065
▁纳尔	-11066
▁事变	-11067
▁元老	-11068
▁波利	-11069
▁铸币	-11070
▁宠物	-11071
▁king	-11072
▁看出	-11073
莉亚	-11074
▁上台	-11075
▁伯特	-11076
▁北非	-11077
▁大英	-11078
▁画作	-11079
▁魔戒	-11080
itter	-11081
▁辟	-11082
▁肋	-11083
▁冷战	-11084
▁塑造	-11085
▁清洁	-11086
▁美金	-11087
▁斯特拉	-11088
▁狐	-11089
▁参政	-11090
▁手持	-11091
▁铜锣湾	-11092
▁代谢	-11093
▁富裕	-11094
fc	-11095
▁跃	-11096
▁向西	-11097
▁石勒	-11098
▁订购	-11099
▁转东	-11100
▁分公司	-11101
▁和谐	-11102
▁民建	-11103
▁及时	-11104
▁摆脱	-11105
▁公墓	-11106
▁洋基	-11107
▁演习	-11108
▁塑料	-11109
▁投诉	-11110
▁提起	-11111
▁alex	-11112
▁james	-11113
▁么	-11114
▁利奥	-11115
▁ww	-11116
▁带动	-11117
业者	-11118
▁该庄	-11119
▁部件	-11120
尼尔	-11121
▁率兵	-11122
▁utc	-11123
▁道格拉斯	-11124
主张	-11125
萨尔	-11126
▁亲属	-11127
▁电荷	-11128
▁陶瓷	-11129
▁一子	-11130
▁格罗	-11131
▁片尾	-11132
▁阵地	-11133
▁高出	-11134
▁伴侣	-11135
▁阿尔卑	-11136
ubl	-11137
▁公理	-11138
▁登基	-11139
▁分手	-11140
▁温州	-11141
▁王家	-11142
▁补选	-11143
▁远镜	-11144
▁笃	-11145
▁1892	-11146
▁外国人	-11147
▁语系	-11148
▁渭	-11149
▁洞穴	-11150
▁配套	-11151
▁大气层	-11152
▁型态	-11153
▁特务	-11154
▁奢	-11155
▁人性	-11156
▁哈拉	-11157
▁之后在	-11158
▁合适	-11159
距离	-11160
▁藏传	-11161
▁任何人	-11162
▁旧金山	-11163
▁窃	-11164
▁瓦斯	-11165
▁维新	-11166
▁参照	-11167
▁复制	-11168
ex	-11169
▁巴利	-11170
▁圣保罗	-11171
▁祁	-11172
▁圣地	-11173
▁处分	-11174
▁特权	-11175
▁1886	-11176
▁达赖	-11177
▁尘	-11178
▁海姆	-11179
▁神像	-11180
▁海军陆	-11181
▁提醒	-11182
▁华裔	-11183
▁奥托	-11184
▁统帅	-11185
▁钻石	-11186
▁1884	-11187
▁巴格	-11188
▁缩短	-11189
▁岬	-11190
▁谨	-11191
▁勒斯	-11192
▁即便	-11193
▁消歧	-11194
▁alb	-11195
布罗	-11196
▁报名	-11197
▁非正式	-11198
▁手工	-11199
▁行政村	-11200
▁俗名	-11201
▁没收	-11202
▁第二年	-11203
▁平时	-11204
▁见证	-11205
▁高桥	-11206
放弃	-11207
▁vo	-11208
▁中北部	-11209
▁晓	-11210
大约	-11211
ham	-11212
▁人质	-11213
ital	-11214
▁莱特	-11215
▁私有	-11216
▁山城	-11217
▁怀特	-11218
▁西太平洋	-11219
▁敢	-11220
▁到底	-11221
▁十九年	-11222
▁像素	-11223
▁锐	-11224
▁假日	-11225
▁外型	-11226
▁德利	-11227
▁眼镜	-11228
▁育有	-11229
▁出名	-11230
▁火焰	-11231
▁sal	-11232
▁普法尔茨	-11233
▁科目	-11234
▁以免	-11235
ven	-11236
▁主线	-11237
吉尼亚	-11238
▁俄亥俄州	-11239
▁嘉定	-11240
▁开采	-11241
▁260	-11242
▁科学技术	-11243
ied	-11244
▁就要	-11245
▁拉格	-11246
▁条纹	-11247
▁中型	-11248
▁十馀	-11249
▁不易	-11250
▁西藏自治区	-11251
▁同情	-11252
▁に	-11253
▁市级	-11254
▁有权	-11255
▁大学士	-11256
▁系主任	-11257
▁二十一年	-11258
▁钠	-11259
aph	-11260
▁注射	-11261
▁消歧义	-11262
问题	-11263
▁ol	-11264
▁教职	-11265
▁母语	-11266
▁陈列	-11267
▁总额	-11268
▁暴雨	-11269
▁堀	-11270
▁斯卡	-11271
▁槽	-11272
▁全名	-11273
政党	-11274
▁比分	-11275
▁相遇	-11276
net	-11277
▁华中	-11278
▁手上	-11279
▁船长	-11280
▁亚太	-11281
▁消化	-11282
▁利沃	-11283
▁悲剧	-11284
▁皇子	-11285
▁lib	-11286
▁最后在	-11287
▁二氧化碳	-11288
▁万名	-11289
▁乘车	-11290
▁阿卜杜	-11291
▁渴	-11292
克罗	-11293
rol	-11294
▁安德鲁	-11295
▁玻利维亚	-11296
▁政事	-11297
▁答案	-11298
▁bill	-11299
大厦	-11300
王星	-11301
▁几次	-11302
▁新年	-11303
▁福斯	-11304
▁fir	-11305
▁爪哇	-11306
▁上线	-11307
▁温暖	-11308
▁陪同	-11309
▁sar	-11310
osa	-11311
▁中超	-11312
▁jap	-11313
水平	-11314
▁三座	-11315
▁枢密	-11316
▁里夫	-11317
▁多半	-11318
▁看台	-11319
▁德勒	-11320
▁明亮	-11321
▁因其	-11322
▁无穷	-11323
▁暹罗	-11324
▁生下	-11325
▁连线	-11326
▁港府	-11327
▁青衣	-11328
▁亏	-11329
▁掷	-11330
▁鹅	-11331
▁西湖	-11332
▁铁路线	-11333
▁蛮	-11334
配角	-11335
▁保有	-11336
▁学业	-11337
▁词语	-11338
▁得票率	-11339
▁语言学	-11340
生涯	-11341
▁介面	-11342
▁摩擦	-11343
▁新式	-11344
▁新浪	-11345
▁现役	-11346
▁故宫	-11347
桃园	-11348
▁克林	-11349
▁受邀	-11350
▁度量	-11351
▁金正	-11352
▁123	-11353
▁房地	-11354
▁攻读	-11355
阿拉	-11356
▁海滨	-11357
轨电车	-11358
▁普利	-11359
▁军阀	-11360
▁java	-11361
作战	-11362
▁孤立	-11363
柏林	-11364
▁原文	-11365
▁后任	-11366
▁梅尔	-11367
▁音节	-11368
▁市委书记	-11369
▁内斯	-11370
▁新泽	-11371
▁样式	-11372
▁红外	-11373
▁vol	-11374
▁哈萨克	-11375
▁oricon	-11376
▁囚禁	-11377
▁国中	-11378
▁当今	-11379
▁方形	-11380
▁赶到	-11381
▁马萨	-11382
▁1888	-11383
▁class	-11384
iff	-11385
▁筹建	-11386
▁日常生活	-11387
▁ク	-11388
▁等价	-11389
▁不见	-11390
▁推迟	-11391
▁不太	-11392
▁尼奥	-11393
▁规律	-11394
▁该寺	-11395
▁逃跑	-11396
▁逼近	-11397
▁皖	-11398
▁旅程	-11399
▁cat	-11400
▁即时	-11401
▁学说	-11402
万人	-11403
▁詹姆	-11404
▁下层	-11405
▁并用	-11406
▁天文学家	-11407
go	-11408
▁客观	-11409
▁收取	-11410
▁救出	-11411
▁旱	-11412
▁二十四年	-11413
▁垫	-11414
▁传闻	-11415
▁供给	-11416
▁圣安	-11417
▁only	-11418
▁内心	-11419
▁落后	-11420
04	-11421
pg	-11422
▁枯	-11423
▁冷却	-11424
▁生平	-11425
▁卫斯理	-11426
▁稜	-11427
▁一幅	-11428
▁多处	-11429
▁梦想	-11430
▁轻人	-11431
bl	-11432
▁土星	-11433
▁镍	-11434
▁光子	-11435
▁幽默	-11436
▁魅力	-11437
▁东欧	-11438
▁录取	-11439
▁文档	-11440
▁金华	-11441
▁record	-11442
▁河水	-11443
▁波多	-11444
▁骄	-11445
交易	-11446
▁李克	-11447
皇后	-11448
▁fla	-11449
▁撕	-11450
▁ba	-11451
▁单车	-11452
▁sun	-11453
▁自发	-11454
▁看来	-11455
▁日本海	-11456
▁〔	-11457
校长	-11458
▁丞相	-11459
▁1893	-11460
▁京城	-11461
▁整修	-11462
▁明末	-11463
▁营造	-11464
▁san	-11465
▁直升机	-11466
▁1887	-11467
▁thom	-11468
▁犀	-11469
▁投影	-11470
▁指派	-11471
▁爸爸	-11472
▁猛烈	-11473
▁黑洞	-11474
▁中央委员会	-11475
▁友人	-11476
▁开辟	-11477
▁演算	-11478
▁自幼	-11479
▁会议员	-11480
▁教育局	-11481
▁第四次	-11482
▁职业生涯	-11483
fa	-11484
▁〕	-11485
▁压制	-11486
▁90%	-11487
运河	-11488
▁崖	-11489
▁泗	-11490
▁祂	-11491
▁园林	-11492
▁细小	-11493
▁文化遗产	-11494
▁二者	-11495
▁右派	-11496
▁研究室	-11497
▁师从	-11498
▁想像	-11499
▁正值	-11500
▁维特	-11501
▁社会党	-11502
06	-11503
▁ibm	-11504
▁弗莱	-11505
▁路面	-11506
▁号的	-11507
▁精神病	-11508
▁り	-11509
▁刘邦	-11510
▁端的	-11511
▁政府军	-11512
▁各州	-11513
▁迁居	-11514
ology	-11515
▁标识	-11516
▁逃出	-11517
▁墨尔本	-11518
▁是非	-11519
▁日月	-11520
ield	-11521
▁肢	-11522
▁幸存	-11523
▁工学院	-11524
▁北角	-11525
▁接连	-11526
▁断层	-11527
▁醇	-11528
▁这本	-11529
▁民族主义	-11530
▁倒塌	-11531
▁内设	-11532
▁堂区	-11533
▁官话	-11534
▁法军	-11535
▁贯穿	-11536
▁michael	-11537
08	-11538
霹雳	-11539
▁厚度	-11540
▁站位	-11541
▁750	-11542
▁述	-11543
广告	-11544
▁石刻	-11545
▁摊	-11546
▁鰕	-11547
▁猎物	-11548
▁东德	-11549
▁常有	-11550
▁流派	-11551
▁综合性	-11552
▁九巴	-11553
▁莱尔	-11554
▁处死	-11555
▁相隔	-11556
▁kar	-11557
▁拉特	-11558
▁有别	-11559
▁菲尔	-11560
▁富兰	-11561
▁巴林	-11562
▁始祖	-11563
▁大坂府	-11564
▁谦	-11565
mun	-11566
▁克尔	-11567
▁合格	-11568
▁cpu	-11569
▁公孙	-11570
▁辅音	-11571
▁rna	-11572
加尔	-11573
▁斯汀	-11574
▁320	-11575
▁抨	-11576
军官	-11577
▁马克思主义	-11578
▁癒	-11579
▁衞	-11580
足球	-11581
▁路易斯安	-11582
▁酮	-11583
▁休斯	-11584
▁星座	-11585
▁目击	-11586
▁耕地	-11587
▁驻华	-11588
▁警察局	-11589
基地	-11590
▁分化	-11591
▁每一	-11592
▁高于	-11593
itch	-11594
▁三号	-11595
▁共青团	-11596
▁第一家	-11597
▁兖	-11598
▁护理	-11599
▁歼灭	-11600
▁该州	-11601
▁145	-11602
▁腺	-11603
▁加拉	-11604
▁分组	-11605
▁开出	-11606
▁对面	-11607
▁jun	-11608
ertain	-11609
▁站点	-11610
▁贝拉	-11611
▁键盘	-11612
▁80%	-11613
▁大片	-11614
▁戴维	-11615
▁疼痛	-11616
▁127	-11617
▁马德里	-11618
▁iphone	-11619
▁向上	-11620
▁考证	-11621
▁北卡罗	-11622
▁一一	-11623
▁阿卡	-11624
▁茄	-11625
▁沙皇	-11626
▁变速	-11627
▁大清	-11628
▁干事	-11629
▁观赏鱼	-11630
▁铎	-11631
▁德文	-11632
▁未曾	-11633
▁偏东	-11634
▁转动	-11635
▁囚犯	-11636
▁抗争	-11637
▁那不	-11638
▁第十三届	-11639
▁偶然	-11640
▁吸血鬼	-11641
▁坚决	-11642
▁布罗	-11643
▁并设	-11644
▁2500	-11645
▁奸	-11646
▁一侧	-11647
▁飞往	-11648
▁研讨会	-11649
ution	-11650
▁1876	-11651
▁岑	-11652
▁便宜	-11653
▁电阻	-11654
▁破裂	-11655
▁转运	-11656
华州	-11657
▁伍德	-11658
▁修缮	-11659
▁南亚	-11660
▁д	-11661
▁亮度	-11662
▁神奇	-11663
德里希	-11664
▁第二任	-11665
▁骨骼	-11666
国务院	-11667
▁辛亥革命	-11668
▁殊	-11669
▁气压	-11670
▁为例	-11671
▁摄氏	-11672
▁总决赛	-11673
▁曾一度	-11674
▁安息	-11675
▁尔斯	-11676
▁约定	-11677
▁病患	-11678
▁121	-11679
▁近年来	-11680
▁best	-11681
▁夺回	-11682
▁栖性	-11683
▁感应	-11684
▁过滤	-11685
▁易名	-11686
▁会合	-11687
▁取景	-11688
▁洋行	-11689
▁襄阳	-11690
▁菊科	-11691
不会	-11692
▁普查	-11693
▁界面	-11694
▁武汉市	-11695
动力	-11696
▁丰臣	-11697
▁刑法	-11698
▁土司	-11699
▁抨击	-11700
▁氟化	-11701
▁轻型	-11702
▁乌兹别	-11703
▁施泰	-11704
▁释出	-11705
▁驻扎	-11706
经营	-11707
ull	-11708
▁cs	-11709
▁上限	-11710
▁本国	-11711
▁林业	-11712
▁直达	-11713
▁先发	-11714
▁字子	-11715
▁商学院	-11716
▁建筑群	-11717
ka	-11718
▁小岛	-11719
▁带到	-11720
▁摔角	-11721
▁航运	-11722
▁落入	-11723
▁弗拉基	-11724
▁字形	-11725
▁逃脱	-11726
▁乡份	-11727
▁使命	-11728
▁凯尔	-11729
▁闪电	-11730
▁玛格丽	-11731
▁1861	-11732
▁南南	-11733
▁编纂	-11734
▁湧	-11735
▁帽子	-11736
▁年秋	-11737
▁那不勒斯	-11738
▁不动	-11739
▁变更	-11740
▁煽	-11741
▁央视	-11742
▁王公	-11743
▁在此之前	-11744
▁砌	-11745
▁为界	-11746
▁模块	-11747
▁毒品	-11748
▁物流	-11749
▁风俗	-11750
▁鲶科	-11751
▁伐	-11752
▁嗜	-11753
▁湾省	-11754
▁聘请	-11755
▁药品	-11756
▁衰变	-11757
▁旅游业	-11758
▁拦截	-11759
▁乌鲁木	-11760
▁祕	-11761
▁梅里	-11762
▁高新	-11763
▁同性恋	-11764
▁奈良	-11765
▁地方法院	-11766
▁苻	-11767
▁礼物	-11768
仙奴	-11769
▁约束	-11770
▁长达	-11771
▁下台	-11772
▁暴风	-11773
▁1850	-11774
▁化身	-11775
▁南山	-11776
▁大殿	-11777
▁罪犯	-11778
▁藏书	-11779
▁西晋	-11780
美术	-11781
▁利比	-11782
▁论述	-11783
▁蔷	-11784
▁手指	-11785
▁牢	-11786
▁鲀	-11787
app	-11788
▁不远	-11789
▁很难	-11790
▁白天	-11791
▁背后	-11792
▁总领	-11793
▁胰	-11794
▁加冕	-11795
▁牌照	-11796
▁配有	-11797
▁厉	-11798
▁亚瑟	-11799
▁协同	-11800
▁敌方	-11801
▁票价	-11802
▁cre	-11803
▁ا	-11804
▁三菱	-11805
▁全台	-11806
▁外借	-11807
▁tre	-11808
▁区议会	-11809
▁醉	-11810
▁选项	-11811
▁长官	-11812
▁心理学	-11813
▁梳	-11814
▁会馆	-11815
▁无意	-11816
▁日前	-11817
▁泰山	-11818
▁灾害	-11819
▁夜晚	-11820
▁早晨	-11821
▁篡	-11822
▁集资	-11823
▁所罗门	-11824
▁使徒	-11825
▁反叛	-11826
▁spec	-11827
▁提取	-11828
的是	-11829
▁信件	-11830
▁时为	-11831
▁音乐学院	-11832
▁拉丁美洲	-11833
mp	-11834
▁对流	-11835
▁总署	-11836
▁长城	-11837
berg	-11838
▁抒	-11839
▁教材	-11840
▁终年	-11841
▁招待	-11842
▁站上	-11843
▁wat	-11844
▁爱丁堡	-11845
▁富兰克林	-11846
▁召唤	-11847
▁国歌	-11848
▁129	-11849
▁微生物	-11850
▁techn	-11851
丽丝	-11852
▁戏曲	-11853
▁釜山	-11854
▁禾本科	-11855
▁波长	-11856
▁简易	-11857
▁两栖	-11858
▁里德	-11859
▁剌	-11860
▁提督	-11861
▁第二部	-11862
▁阿仙奴	-11863
▁藻	-11864
▁交涉	-11865
▁县委	-11866
▁督察	-11867
▁碳酸	-11868
▁聚合	-11869
▁阿曼	-11870
▁选定	-11871
▁bel	-11872
▁bre	-11873
▁rom	-11874
▁利沃夫	-11875
▁五位	-11876
▁围赛	-11877
▁已故	-11878
▁疏散	-11879
▁hot	-11880
▁中央人民政府	-11881
▁菱	-11882
恒星	-11883
▁三段	-11884
▁组长	-11885
▁沙滩	-11886
▁率军	-11887
▁筒	-11888
▁尺度	-11889
▁自传	-11890
▁街区	-11891
▁诉求	-11892
▁轻轨	-11893
▁查询	-11894
冲突	-11895
思想	-11896
歇根	-11897
▁将在	-11898
▁博尔	-11899
▁对战	-11900
▁神明	-11901
▁钟楼	-11902
▁菲尔德	-11903
拉德	-11904
▁迈阿	-11905
▁预留	-11906
▁arm	-11907
▁nat	-11908
eration	-11909
▁陡	-11910
▁ef	-11911
▁填词	-11912
▁收缩	-11913
▁贝斯	-11914
▁碗	-11915
▁逸	-11916
▁梧	-11917
▁是属	-11918
▁诗集	-11919
▁男演员	-11920
▁喷射	-11921
▁立方米	-11922
▁君士坦丁堡	-11923
▁泳	-11924
▁税收	-11925
▁两台	-11926
▁无力	-11927
▁膝	-11928
▁菸	-11929
▁ds	-11930
▁别名	-11931
▁客量	-11932
▁重心	-11933
力量	-11934
▁倡导	-11935
▁六四	-11936
▁钥	-11937
▁宣统	-11938
▁小心	-11939
▁隐居	-11940
▁僵	-11941
▁蜿	-11942
▁现名	-11943
庄村	-11944
▁季风	-11945
▁满族	-11946
▁る	-11947
▁ben	-11948
▁惊人	-11949
▁都尉	-11950
▁bet	-11951
▁奥斯曼帝国	-11952
▁怕	-11953
▁刻意	-11954
▁文人	-11955
▁中毒	-11956
▁元代	-11957
▁拜仁	-11958
▁石碑	-11959
▁美式	-11960
爱的	-11961
▁出使	-11962
▁王府	-11963
▁蜗	-11964
▁服用	-11965
▁期限	-11966
▁男爵	-11967
▁−	-11968
inc	-11969
▁ga	-11970
▁一下	-11971
▁按察使	-11972
▁监测	-11973
▁养殖	-11974
▁报章	-11975
▁较长	-11976
▁结晶	-11977
▁白垩纪	-11978
▁用到	-11979
▁由该	-11980
▁警卫	-11981
▁电子游戏	-11982
▁灌丛	-11983
▁耶和华	-11984
▁邑	-11985
海岸	-11986
▁上班	-11987
▁东边	-11988
▁构建	-11989
▁超出	-11990
▁梅斯	-11991
▁世家	-11992
▁硝酸	-11993
▁蕴	-11994
亚科	-11995
las	-11996
▁植物种	-11997
▁领事馆	-11998
梅尔	-11999
▁举动	-12000
▁抵御	-12001
▁水道	-12002
▁称帝	-12003
▁辖境	-12004
▁组装	-12005
▁金陵	-12006
dy	-12007
▁开枪	-12008
▁膨胀	-12009
▁祸	-12010
▁550	-12011
▁潜在	-12012
维吾尔	-12013
▁mil	-12014
▁1883	-12015
▁捍	-12016
▁忍者	-12017
▁gdp	-12018
▁绅	-12019
▁闰	-12020
▁公所	-12021
▁自古	-12022
以来	-12023
▁南区	-12024
▁当他	-12025
联合会	-12026
▁迈阿密	-12027
巴尔	-12028
▁上车	-12029
▁卡里	-12030
▁新区	-12031
▁瓦解	-12032
▁30%	-12033
▁布莱恩	-12034
▁健身	-12035
▁四强	-12036
▁正如	-12037
▁舞曲	-12038
▁风波	-12039
ors	-12040
▁全军	-12041
▁利润	-12042
▁名将	-12043
▁将他	-12044
▁she	-12045
▁焊	-12046
▁布列	-12047
▁莫尔	-12048
▁乌鲁木齐	-12049
▁〜	-12050
建议	-12051
▁可供	-12052
▁札幌	-12053
▁渗透	-12054
▁1868	-12055
▁在此	-12056
▁客场	-12057
▁疗法	-12058
▁退伍	-12059
▁犹太教	-12060
▁四次	-12061
▁切断	-12062
▁浊	-12063
▁卡利	-12064
▁披露	-12065
▁衰退	-12066
▁き	-12067
▁boy	-12068
▁一时期	-12069
▁地标	-12070
▁战线	-12071
党校	-12072
▁奥德	-12073
▁深远	-12074
导弹	-12075
▁福德	-12076
▁许可证	-12077
▁1891	-12078
▁二十九年	-12079
▁在此期间	-12080
▁м	-12081
安市	-12082
▁中美洲	-12083
07	-12084
▁ま	-12085
效力	-12086
▁之初	-12087
▁蜿蜒	-12088
▁end	-12089
td	-12090
▁夥伴	-12091
▁场比赛	-12092
▁归国	-12093
乐器	-12094
▁平息	-12095
克斯洛	-12096
▁捷克斯洛	-12097
▁捷克斯洛伐克	-12098
▁孢	-12099
▁东县	-12100
▁地底	-12101
▁出动	-12102
▁光度	-12103
▁卡西	-12104
▁城邦	-12105
▁并曾	-12106
▁皇宫	-12107
▁幸运	-12108
▁格斯	-12109
▁后面	-12110
▁密歇根	-12111
继承	-12112
▁帆船	-12113
▁回复	-12114
▁教育家	-12115
▁乌兰	-12116
▁格局	-12117
▁杭州市	-12118
▁serv	-12119
时报	-12120
▁晚会	-12121
▁武功	-12122
▁老年	-12123
▁语的	-12124
▁亚特兰	-12125
党员	-12126
▁会社	-12127
▁抛弃	-12128
▁氧气	-12129
▁维生素	-12130
▁掌控	-12131
▁政局	-12132
▁皮尔	-12133
▁皇太子	-12134
▁华沙	-12135
▁多米	-12136
▁板桥	-12137
▁越过	-12138
辖下	-12139
龙省	-12140
▁一国	-12141
▁单人	-12142
▁失误	-12143
▁成份	-12144
▁百分之	-12145
▁蛙	-12146
▁安哥	-12147
▁射程	-12148
▁澄清	-12149
▁里克	-12150
▁长大	-12151
发生	-12152
▁县市	-12153
▁给事	-12154
▁mart	-12155
▁钉	-12156
▁bi	-12157
▁伏尔	-12158
▁追赠	-12159
▁mi	-12160
▁千瓦	-12161
▁场面	-12162
▁stre	-12163
▁损毁	-12164
▁湿润	-12165
▁座椅	-12166
▁梅花	-12167
▁机器人	-12168
▁孵	-12169
▁加装	-12170
▁安提	-12171
▁dream	-12172
▁mg	-12173
▁京剧	-12174
▁倡议	-12175
▁哈密	-12176
▁汕头	-12177
▁首发	-12178
▁董事会	-12179
▁都御史	-12180
▁club	-12181
▁entertain	-12182
苏里	-12183
▁分界	-12184
▁天花	-12185
▁姿态	-12186
▁拉普	-12187
▁暗中	-12188
▁124	-12189
▁japan	-12190
菲律	-12191
ily	-12192
▁卢卡	-12193
▁史书	-12194
▁实数	-12195
▁干旱	-12196
▁神祇	-12197
▁击中	-12198
▁并对	-12199
▁白宫	-12200
▁德国人	-12201
▁赦	-12202
▁亚伯	-12203
▁户籍	-12204
▁珊瑚礁	-12205
▁鍊	-12206
▁偏南	-12207
▁熙	-12208
▁八一	-12209
▁用法	-12210
起义	-12211
ini	-12212
▁就算	-12213
▁有点	-12214
▁本区	-12215
▁管弦	-12216
▁巨型	-12217
▁est	-12218
▁主人公	-12219
▁动物园	-12220
分析	-12221
▁剿	-12222
▁俾	-12223
▁况	-12224
▁汽油	-12225
▁阿基	-12226
▁mont	-12227
多夫	-12228
奥多	-12229
ric	-12230
▁代价	-12231
▁双人	-12232
▁罢免	-12233
▁淀	-12234
▁诈	-12235
志明	-12236
▁当场	-12237
▁新娘	-12238
▁特兰	-12239
▁赛道	-12240
▁威尔逊	-12241
▁北条	-12242
▁李宗	-12243
▁炮弹	-12244
▁纸币	-12245
ange	-12246
▁嘲	-12247
办公	-12248
▁太和	-12249
▁头颅	-12250
▁126	-12251
▁oh	-12252
▁事发	-12253
▁蔷薇	-12254
▁新世界	-12255
▁师范学院	-12256
▁领导小组	-12257
牛斯	-12258
腾堡	-12259
▁比率	-12260
▁罚款	-12261
▁144	-12262
▁世界排名	-12263
▁比利牛斯	-12264
▁暑	-12265
▁缩小	-12266
▁有利于	-12267
▁住所	-12268
▁迪亚	-12269
▁119	-12270
▁份子	-12271
▁接力	-12272
▁将军澳	-12273
▁一举	-12274
▁超新	-12275
▁fil	-12276
▁溶解	-12277
▁演说	-12278
▁fm	-12279
▁奥兰	-12280
▁巡航	-12281
▁布达	-12282
▁sub	-12283
▁荀	-12284
100	-12285
▁圣人	-12286
▁抓住	-12287
▁维斯	-12288
▁上行	-12289
▁超新星	-12290
▁山本	-12291
▁丑闻	-12292
▁战中	-12293
ral	-12294
▁颗粒	-12295
▁羽联	-12296
▁虐待	-12297
▁世袭	-12298
▁保密	-12299
▁几位	-12300
▁原产	-12301
▁天台	-12302
▁热爱	-12303
▁轻微	-12304
▁丰田	-12305
▁之星	-12306
▁关税	-12307
▁勇敢	-12308
伦西亚	-12309
▁entertainment	-12310
▁滴	-12311
诺斯	-12312
▁章程	-12313
▁黑白	-12314
▁中央政治局	-12315
▁指引	-12316
▁vir	-12317
▁不足以	-12318
▁个堂区	-12319
▁摄影师	-12320
明星	-12321
状态	-12322
▁不肯	-12323
▁客人	-12324
▁新疆维吾尔	-12325
方程	-12326
▁原着	-12327
▁奉行	-12328
▁肯尼迪	-12329
▁1862	-12330
▁tour	-12331
▁名声	-12332
▁建安	-12333
▁恶魔	-12334
▁机上	-12335
▁特快	-12336
▁发表声明	-12337
▁会见	-12338
▁卡片	-12339
▁叶子	-12340
▁必需	-12341
▁痕迹	-12342
▁缓解	-12343
▁arch	-12344
经国	-12345
规则	-12346
▁极高	-12347
▁遇见	-12348
▁全国性	-12349
▁值得注意	-12350
▁大胜	-12351
▁山村	-12352
▁馀下	-12353
▁举例	-12354
▁常住	-12355
▁获准	-12356
▁资格赛	-12357
▁事项	-12358
▁付出	-12359
▁北周	-12360
▁自动化	-12361
▁sg	-12362
▁准则	-12363
▁号称	-12364
▁工委	-12365
▁很长	-12366
▁获选	-12367
▁部族	-12368
▁jack	-12369
他州	-12370
公署	-12371
▁东至	-12372
▁女皇	-12373
▁支出	-12374
▁米格	-12375
▁土库	-12376
▁石家庄	-12377
▁life	-12378
++	-12379
塞州	-12380
▁寒冷	-12381
▁日渐	-12382
▁学士学位	-12383
▁media	-12384
元帅	-12385
▁临近	-12386
▁士官	-12387
▁太极	-12388
▁着重	-12389
▁安哥拉	-12390
▁八大	-12391
▁同类	-12392
▁缺席	-12393
▁处理器	-12394
▁主委	-12395
▁台视	-12396
▁四处	-12397
▁西欧	-12398
▁dan	-12399
▁交通局	-12400
▁溴	-12401
▁军籍	-12402
▁凶手	-12403
▁击落	-12404
▁告终	-12405
▁测定	-12406
▁郡王	-12407
▁650	-12408
▁不丹	-12409
▁亚斯	-12410
▁基斯	-12411
▁复合	-12412
▁布伦	-12413
▁年后	-12414
▁滑冰	-12415
▁漳州	-12416
▁盖尔	-12417
▁终端	-12418
▁幼稚	-12419
▁车厂	-12420
▁尉	-12421
当时	-12422
▁ko	-12423
▁基部	-12424
▁昂贵	-12425
▁枪械	-12426
▁首要	-12427
▁新四军	-12428
▁析	-12429
川县	-12430
▁近海	-12431
▁新疆维吾尔自治区	-12432
▁ve	-12433
▁以示	-12434
▁疑似	-12435
▁弗兰克	-12436
▁乃是	-12437
▁山水	-12438
▁薇	-12439
▁开会	-12440
▁推断	-12441
▁潮湿	-12442
▁输给	-12443
▁雅克	-12444
▁鞑	-12445
▁第三季	-12446
▁做到	-12447
▁城隍	-12448
▁清洗	-12449
▁空难	-12450
▁霹雳	-12451
▁泊	-12452
▁中外	-12453
▁人马	-12454
▁升至	-12455
▁向北	-12456
▁失踪	-12457
▁der	-12458
▁1848	-12459
▁仅存	-12460
▁他现	-12461
▁极度	-12462
▁竟然	-12463
▁除去	-12464
clude	-12465
▁fire	-12466
ump	-12467
▁原属	-12468
▁右手	-12469
铁道	-12470
▁van	-12471
▁堡垒	-12472
▁多条	-12473
▁山丘	-12474
▁年来	-12475
▁韦伯	-12476
▁被誉为	-12477
▁领导者	-12478
▁拆卸	-12479
▁的士	-12480
▁西雅	-12481
▁新一代	-12482
▁拳击	-12483
▁路由	-12484
▁首轮	-12485
▁133	-12486
▁切尔尼	-12487
▁喷发	-12488
▁攻破	-12489
▁音符	-12490
▁新竹市	-12491
▁朝日	-12492
▁根据地	-12493
▁楼宇	-12494
▁爱荷	-12495
协商	-12496
▁倚	-12497
▁羌	-12498
▁雁	-12499
▁三家	-12500
▁上级	-12501
▁凯特	-12502
▁师师	-12503
▁凡尔	-12504
▁特雷	-12505
▁并向	-12506
▁裁决	-12507
▁有个	-12508
▁有史	-12509
▁鲁迅	-12510
▁1867	-12511
▁偏北	-12512
▁决战	-12513
▁科索	-12514
合作	-12515
▁金字	-12516
▁蒙古族	-12517
▁东山	-12518
▁中级	-12519
▁五名	-12520
▁天子	-12521
▁荷尔	-12522
▁177	-12523
lin	-12524
ora	-12525
▁137	-12526
▁总教练	-12527
▁辛普森	-12528
▁豹	-12529
▁第十八	-12530
▁烂	-12531
▁过多	-12532
茨克	-12533
▁月亮	-12534
▁确切	-12535
line	-12536
▁安南	-12537
▁终极	-12538
▁二十二年	-12539
▁秃	-12540
▁钞	-12541
出现	-12542
▁一文	-12543
▁充当	-12544
▁台大	-12545
▁拘留	-12546
▁逐出	-12547
战队	-12548
▁ul	-12549
▁等到	-12550
▁纪律	-12551
▁国民革命	-12552
▁哈萨克斯坦	-12553
▁建交	-12554
▁团员	-12555
▁国营	-12556
▁构想	-12557
▁1877	-12558
▁twitter	-12559
▁洛特	-12560
▁历山大	-12561
▁叉	-12562
团长	-12563
▁表述	-12564
▁骚乱	-12565
▁镰	-12566
▁日时	-12567
▁上市公司	-12568
▁党组书记	-12569
▁芜	-12570
▁谎	-12571
参加	-12572
大选	-12573
▁多重	-12574
▁媒介	-12575
▁此案	-12576
莉丝	-12577
▁子弟	-12578
▁突变	-12579
▁1873	-12580
▁语族	-12581
汉语	-12582
▁党部	-12583
▁扫描	-12584
▁追加	-12585
▁当事	-12586
▁间接	-12587
▁个别	-12588
▁派兵	-12589
▁看守	-12590
▁高兴	-12591
fs	-12592
达科	-12593
▁搭档	-12594
▁活塞	-12595
克力	-12596
▁埋葬	-12597
▁特尔	-12598
▁ok	-12599
▁人大常委会	-12600
▁阐述	-12601
▁175	-12602
教会	-12603
▁平反	-12604
▁扰动	-12605
▁起源于	-12606
▁周日	-12607
▁年区	-12608
▁维拉	-12609
▁厕所	-12610
▁拉赫	-12611
▁安德森	-12612
原子	-12613
皇帝	-12614
资产	-12615
▁多面	-12616
▁当成	-12617
▁沃伦	-12618
▁ant	-12619
▁hen	-12620
form	-12621
▁脆	-12622
夫卡	-12623
ada	-12624
ipt	-12625
▁上书	-12626
▁册封	-12627
▁矿业	-12628
▁领主	-12629
xy	-12630
▁大海	-12631
▁这使	-12632
▁吴国	-12633
▁灵活	-12634
德里克	-12635
▁野战军	-12636
bi	-12637
▁伴随	-12638
▁出产	-12639
▁帮忙	-12640
▁apple	-12641
殿试	-12642
▁副局长	-12643
▁埤	-12644
▁kr	-12645
▁嘉兴	-12646
▁小队	-12647
▁伴奏	-12648
▁大洋洲	-12649
▁天主教徒	-12650
▁不停	-12651
▁台上	-12652
▁大乘	-12653
▁机翼	-12654
▁美的	-12655
▁英镑	-12656
▁蒋经国	-12657
erson	-12658
▁二十六年	-12659
德斯	-12660
▁夸克	-12661
▁左岸	-12662
▁提早	-12663
▁托米	-12664
▁琳娜	-12665
▁稿	-12666
▁过来	-12667
▁award	-12668
▁怨	-12669
▁躲避	-12670
▁露天	-12671
▁一股	-12672
▁1879	-12673
▁劣	-12674
▁哥本	-12675
▁底质	-12676
▁转到	-12677
▁万立方米	-12678
▁暱	-12679
▁毅	-12680
▁花岗	-12681
▁转投	-12682
▁鼓手	-12683
▁渥	-12684
▁人心	-12685
▁充足	-12686
▁十万	-12687
▁施加	-12688
▁高潮	-12689
能够	-12690
艺人	-12691
▁一是	-12692
▁迁徙	-12693
▁弗里德里希	-12694
一世	-12695
ita	-12696
▁开往	-12697
▁霍华德	-12698
▁反派	-12699
▁消散	-12700
▁美联	-12701
ication	-12702
▁淫	-12703
▁瘦	-12704
▁放入	-12705
▁水流	-12706
▁这支	-12707
滋病	-12708
▁升班	-12709
▁40%	-12710
▁may	-12711
▁基本法	-12712
大将	-12713
来说	-12714
▁端点	-12715
哈根	-12716
▁阴阳	-12717
▁哥本哈根	-12718
资格	-12719
▁宫崎	-12720
▁事先	-12721
▁教皇	-12722
▁释迦	-12723
斯达	-12724
ano	-12725
▁新店	-12726
▁蚌	-12727
▁165	-12728
▁棺	-12729
▁麾	-12730
讯号	-12731
▁两支	-12732
▁实在	-12733
▁生死	-12734
▁台南市	-12735
印度	-12736
▁く	-12737
▁中性	-12738
▁去年	-12739
▁教廷	-12740
▁系数	-12741
▁肖像	-12742
▁钾	-12743
教区	-12744
▁斯普	-12745
▁舰长	-12746
▁1864	-12747
▁会区	-12748
▁存有	-12749
▁揭发	-12750
▁预赛	-12751
▁缪	-12752
▁优质	-12753
▁变体	-12754
▁弹匣	-12755
▁伙伴	-12756
▁备受	-12757
▁审计	-12758
▁情景	-12759
▁篮球队	-12760
▁资本主义	-12761
▁拜访	-12762
▁报刊	-12763
▁河西	-12764
▁输送	-12765
▁妈祖	-12766
▁线上	-12767
▁住户	-12768
▁270	-12769
▁rev	-12770
▁生物学	-12771
主题	-12772
▁全县	-12773
▁翟	-12774
▁榴弹	-12775
相关	-12776
▁乐曲	-12777
▁work	-12778
▁挫	-12779
泽民	-12780
200	-12781
▁同属	-12782
▁此曲	-12783
▁蔓延	-12784
▁宛	-12785
▁湛	-12786
uss	-12787
▁北齐	-12788
▁意愿	-12789
▁提示	-12790
▁紫色	-12791
▁因病	-12792
▁失效	-12793
▁克服	-12794
▁压迫	-12795
▁官僚	-12796
▁家用	-12797
▁尼科	-12798
▁衬	-12799
▁考生	-12800
▁四分之一	-12801
▁化妆	-12802
▁孤儿	-12803
▁布斯	-12804
▁流星	-12805
▁混双	-12806
▁tim	-12807
▁习近平	-12808
▁唯一一	-12809
▁布里斯	-12810
▁禹	-12811
▁珍贵	-12812
尼加	-12813
▁停战	-12814
▁科殿试	-12815
▁奕	-12816
▁僧侣	-12817
出版社	-12818
▁二十一	-12819
▁巴洛克	-12820
▁斯泰因	-12821
urt	-12822
▁天鹅	-12823
▁山海	-12824
▁统领	-12825
▁三峡	-12826
▁化学家	-12827
▁γ	-12828
▁介石	-12829
▁作法	-12830
▁比斯	-12831
势力	-12832
梅利	-12833
▁制式	-12834
▁外地	-12835
▁旅客列车	-12836
▁腾讯	-12837
▁调用	-12838
▁通报	-12839
▁各部	-12840
▁阿列	-12841
ula	-12842
▁开元	-12843
▁1865	-12844
事变	-12845
▁嵌入	-12846
兹省	-12847
内容	-12848
复兴	-12849
▁反共	-12850
▁大安	-12851
▁男双	-12852
▁1878	-12853
▁悼	-12854
▁一向	-12855
▁侦查	-12856
▁及第	-12857
▁对待	-12858
代码	-12859
▁厄瓜	-12860
▁机能	-12861
▁糟	-12862
▁西夏	-12863
▁詹姆士	-12864
▁dist	-12865
之处	-12866
纬度	-12867
▁录音室	-12868
▁德米特	-12869
▁port	-12870
▁雷德	-12871
▁文教	-12872
▁树林	-12873
▁不列颠	-12874
族自治州	-12875
▁和尚	-12876
▁国铁	-12877
▁李登	-12878
▁百度	-12879
▁辗	-12880
▁现址	-12881
▁house	-12882
历史	-12883
▁日内瓦	-12884
▁1875	-12885
▁一届	-12886
▁组别	-12887
▁安全性	-12888
▁1882	-12889
▁冤	-12890
▁不了	-12891
▁拥护	-12892
▁称其	-12893
▁视野	-12894
▁远程	-12895
▁大使馆	-12896
▁匾	-12897
▁dd	-12898
▁腹足	-12899
▁绝大多数	-12900
▁虏	-12901
结合	-12902
▁所示	-12903
▁李鸿	-12904
▁邮票	-12905
▁一个月	-12906
uis	-12907
▁开战	-12908
▁锻	-12909
▁优良	-12910
▁厅长	-12911
▁门外	-12912
▁保守派	-12913
▁闲	-12914
▁来看	-12915
▁编为	-12916
瑟琳	-12917
莱德	-12918
▁哥德	-12919
▁次郎	-12920
▁旭	-12921
▁罐	-12922
埃及	-12923
▁一根	-12924
▁法西斯	-12925
▁游戏机	-12926
▁阿姆斯特丹	-12927
少女	-12928
▁不当	-12929
▁投身	-12930
▁市辖区	-12931
大夫	-12932
特律	-12933
▁布什	-12934
▁造反	-12935
▁阿特	-12936
▁巴拉圭	-12937
▁降水量	-12938
可梦	-12939
▁外侧	-12940
▁残留	-12941
医学	-12942
秀吉	-12943
▁山下	-12944
▁百老	-12945
▁第十五	-12946
▁则会	-12947
▁天线	-12948
▁激战	-12949
▁英皇	-12950
▁斑点	-12951
▁亲密	-12952
▁傍晚	-12953
▁库克	-12954
▁邻居	-12955
▁152	-12956
cd	-12957
▁捍卫	-12958
▁黑森	-12959
▁aut	-12960
▁さ	-12961
▁崑	-12962
▁粟	-12963
▁中为	-12964
▁反之	-12965
▁房地产	-12966
▁摩天	-12967
▁欧亚	-12968
ision	-12969
人数	-12970
▁冠名	-12971
▁塔利	-12972
▁白云	-12973
▁ッ	-12974
▁召回	-12975
▁增压	-12976
儿子	-12977
▁光碟	-12978
▁增多	-12979
▁官吏	-12980
▁高宗	-12981
▁737	-12982
▁底特律	-12983
▁合计	-12984
▁违背	-12985
▁abc	-12986
形态	-12987
▁基准	-12988
▁成像	-12989
▁海啸	-12990
▁1840	-12991
▁时光	-12992
▁继而	-12993
▁文化部	-12994
▁区段	-12995
▁hol	-12996
▁阿尔卑斯	-12997
▁岱	-12998
▁利夫	-12999
托夫	-13000
▁怎样	-13001
▁1881	-13002
尔摩	-13003
▁千里	-13004
▁腔	-13005
▁鞍山	-13006
▁鞑靼	-13007
▁告别	-13008
▁法则	-13009
▁玉山	-13010
▁事务所	-13011
▁为准	-13012
▁有过	-13013
▁占有	-13014
▁将于	-13015
▁自家	-13016
▁聚合物	-13017
▁美国国会	-13018
▁做成	-13019
▁该堂	-13020
▁乾隆帝	-13021
▁发布会	-13022
▁特朗	-13023
▁职权	-13024
▁制片人	-13025
▁十字架	-13026
▁新石器	-13027
▁司铎	-13028
▁或许	-13029
▁地理位置	-13030
▁大国	-13031
▁太保	-13032
▁子孙	-13033
▁感动	-13034
▁热烈	-13035
▁第三方	-13036
▁8000	-13037
wn	-13038
▁筛	-13039
▁车票	-13040
▁忙	-13041
报道	-13042
▁一楼	-13043
▁后勤	-13044
▁宇航员	-13045
▁公职	-13046
▁制造商	-13047
▁矽	-13048
▁伯里	-13049
▁噪音	-13050
▁法制	-13051
▁设法	-13052
▁古斯塔	-13053
led	-13054
▁先知	-13055
▁养子	-13056
▁客户端	-13057
▁先是	-13058
▁外面	-13059
▁泰坦	-13060
▁百强	-13061
▁逃到	-13062
▁差不多	-13063
▁悟	-13064
its	-13065
▁单词	-13066
▁说话	-13067
▁远远	-13068
文尼亚	-13069
▁尼克斯	-13070
▁残疾人	-13071
ij	-13072
▁勿	-13073
易斯	-13074
▁传染	-13075
▁叔父	-13076
▁句子	-13077
▁境外	-13078
▁状元	-13079
▁road	-13080
bn	-13081
玛丽	-13082
▁结业	-13083
▁line	-13084
多个	-13085
yth	-13086
▁拉瓦	-13087
▁比重	-13088
▁溶于	-13089
▁值得一	-13090
▁朝鲜半岛	-13091
▁侵入	-13092
▁愿望	-13093
▁unix	-13094
▁穴	-13095
▁锤	-13096
▁一站	-13097
▁效能	-13098
▁赫拉	-13099
▁优胜	-13100
▁四季	-13101
▁法轮	-13102
▁科索沃	-13103
▁人会	-13104
▁全称	-13105
▁叶片	-13106
▁榜单	-13107
▁榜首	-13108
▁灯塔	-13109
▁拉夫	-13110
▁正选	-13111
▁并开始	-13112
▁锌	-13113
▁勃艮	-13114
▁宝石	-13115
▁敌军	-13116
▁这首	-13117
▁154	-13118
气温	-13119
▁出海	-13120
▁北韩	-13121
▁卡车	-13122
▁天安	-13123
▁特急	-13124
ated	-13125
▁sport	-13126
▁两队	-13127
▁华丽	-13128
▁多万	-13129
▁投靠	-13130
▁校址	-13131
▁洛林	-13132
▁讯号	-13133
▁逗	-13134
大师	-13135
▁也许	-13136
▁博客	-13137
▁后续	-13138
▁启德	-13139
▁聪明	-13140
▁文艺复兴	-13141
▁麒	-13142
▁执照	-13143
▁石门	-13144
▁估算	-13145
▁宣战	-13146
▁春节	-13147
▁遣使	-13148
▁dem	-13149
▁first	-13150
▁intel	-13151
▁楠	-13152
水县	-13153
▁苑	-13154
▁储备	-13155
▁座落	-13156
▁俩	-13157
▁修理	-13158
▁多斯	-13159
▁葬礼	-13160
阿拉伯	-13161
▁project	-13162
▁修女	-13163
▁圣诞节	-13164
▁拾	-13165
our	-13166
▁海因	-13167
▁沙特阿拉伯	-13168
▁柜	-13169
▁之声	-13170
▁帝王	-13171
▁时事	-13172
▁湾大学	-13173
▁藏传佛教	-13174
▁出狱	-13175
▁年纪	-13176
▁印度教	-13177
卡尔	-13178
浦路	-13179
▁一番	-13180
▁三间	-13181
▁宣扬	-13182
▁巴马州	-13183
▁最常见	-13184
▁演唱会	-13185
▁代表大会	-13186
▁桦	-13187
达成	-13188
oro	-13189
▁发光	-13190
▁庆典	-13191
▁降水	-13192
▁公安部	-13193
▁陆上	-13194
▁第十六	-13195
▁咒	-13196
成绩	-13197
▁一月	-13198
▁发酵	-13199
▁大碟	-13200
▁苏拉	-13201
博物馆	-13202
▁未成年	-13203
▁玛格丽特	-13204
▁谏	-13205
▁前端	-13206
▁椭圆形	-13207
▁this	-13208
▁丝绸	-13209
▁去除	-13210
▁海伦	-13211
▁金朝	-13212
▁1874	-13213
▁phil	-13214
▁格拉斯哥	-13215
▁取决于	-13216
por	-13217
▁附有	-13218
▁mel	-13219
▁重创	-13220
▁richard	-13221
09	-13222
▁nt	-13223
▁无缘	-13224
▁棉花	-13225
▁武帝	-13226
▁蜗牛	-13227
▁马力	-13228
▁布莱克	-13229
▁dire	-13230
一样	-13231
发行	-13232
▁绑架	-13233
▁耗资	-13234
▁该次	-13235
▁机务段	-13236
▁有轨电车	-13237
▁阿拉伯人	-13238
che	-13239
▁乡道	-13240
▁施政	-13241
理事	-13242
▁塞纳	-13243
▁柔道	-13244
▁ast	-13245
▁good	-13246
▁冠军联赛	-13247
▁椎	-13248
▁斯德	-13249
▁精通	-13250
▁联手	-13251
▁college	-13252
▁莆	-13253
本线	-13254
▁166	-13255
▁外星人	-13256
▁瑶	-13257
战斗	-13258
ery	-13259
▁立面	-13260
▁は	-13261
调查	-13262
▁交出	-13263
▁伯明	-13264
▁分队	-13265
▁回报	-13266
▁大成	-13267
▁起始	-13268
▁pd	-13269
▁手动	-13270
▁东非	-13271
▁国子	-13272
▁韩语	-13273
▁多项式	-13274
▁商船	-13275
▁开关	-13276
▁政法	-13277
▁西州	-13278
▁associ	-13279
▁大为	-13280
▁sir	-13281
▁一律	-13282
▁场馆	-13283
▁奇异	-13284
▁第四名	-13285
▁垦	-13286
园区	-13287
min	-13288
▁特洛	-13289
▁纪元	-13290
信息	-13291
▁祖母	-13292
▁π	-13293
▁不设	-13294
▁搜查	-13295
▁效忠	-13296
▁李登辉	-13297
▁一轮	-13298
▁汇入	-13299
▁骚扰	-13300
▁132	-13301
▁客运专线	-13302
吉斯	-13303
iew	-13304
▁下滑	-13305
▁宗座	-13306
▁爱的	-13307
▁感兴趣	-13308
▁□	-13309
速度	-13310
▁不大	-13311
▁帕克	-13312
▁手稿	-13313
▁西雅图	-13314
▁北爱尔兰	-13315
▁george	-13316
▁病情	-13317
▁前列	-13318
▁周六	-13319
▁大于	-13320
▁相差	-13321
▁hel	-13322
▁埃里克	-13323
undam	-13324
▁加油	-13325
▁魔鬼	-13326
▁dec	-13327
▁gt	-13328
▁名胜	-13329
▁燃油	-13330
▁瑞克	-13331
▁韩民国	-13332
▁戚	-13333
▁宿主	-13334
▁莫里	-13335
ection	-13336
▁譬	-13337
▁专线	-13338
▁史称	-13339
▁更多	-13340
▁布鲁克	-13341
▁视角	-13342
▁bus	-13343
德兰	-13344
▁七世	-13345
▁农历	-13346
▁犯人	-13347
▁离散	-13348
▁米哈	-13349
▁70%	-13350
▁值得一提	-13351
后续	-13352
▁剪辑	-13353
▁坚定	-13354
▁镇江	-13355
▁挑战赛	-13356
▁管治	-13357
▁fam	-13358
press	-13359
▁7000	-13360
▁west	-13361
▁峨	-13362
▁下一	-13363
▁动漫	-13364
▁勇者	-13365
▁电视节目	-13366
▁籍贯	-13367
▁adv	-13368
▁下议院	-13369
▁功臣	-13370
专业	-13371
瑞克	-13372
▁四百	-13373
▁扭曲	-13374
▁波动	-13375
▁狸	-13376
▁二楼	-13377
▁天主	-13378
▁开源	-13379
▁视察	-13380
▁马其	-13381
▁mem	-13382
▁陞	-13383
数据	-13384
王国	-13385
▁南港	-13386
▁收看	-13387
▁出面	-13388
▁跨国	-13389
▁138	-13390
▁les	-13391
▁蒙特利	-13392
▁枪击	-13393
▁男友	-13394
▁gar	-13395
航天	-13396
▁东华	-13397
▁预先	-13398
▁hall	-13399
▁会战	-13400
▁思维	-13401
▁本赛	-13402
▁宝可梦	-13403
▁成都市	-13404
▁水力	-13405
▁渡过	-13406
▁斯巴达	-13407
▁閒	-13408
工会	-13409
▁国小	-13410
▁棕色	-13411
▁浓厚	-13412
▁阻挡	-13413
▁330	-13414
▁泾	-13415
▁全垒	-13416
▁节省	-13417
▁wii	-13418
克莱	-13419
▁李世	-13420
▁未婚	-13421
▁巴伐利亚州	-13422
▁佩斯	-13423
▁长篇	-13424
▁1872	-13425
▁内核	-13426
▁英冠	-13427
▁高效	-13428
研究院	-13429
▁美少女	-13430
▁miss	-13431
▁残酷	-13432
▁麻省	-13433
▁第五次	-13434
▁商会	-13435
▁在世	-13436
▁激素	-13437
eral	-13438
▁凑	-13439
粤语	-13440
▁下行	-13441
▁事迹	-13442
▁学园	-13443
▁环状	-13444
威特	-13445
▁妥协	-13446
▁高加索	-13447
ky	-13448
▁据称	-13449
▁被视	-13450
▁所述	-13451
▁换取	-13452
▁street	-13453
▁у	-13454
▁殴	-13455
▁蟾	-13456
▁不安	-13457
▁英美	-13458
▁陵墓	-13459
▁隶	-13460
▁潮流	-13461
▁重用	-13462
ator	-13463
▁中国人	-13464
▁留学生	-13465
▁泸	-13466
可能	-13467
▁叔叔	-13468
▁巡视	-13469
▁古埃及	-13470
▁宣传部	-13471
▁1863	-13472
▁乍	-13473
▁佛像	-13474
▁建构	-13475
▁文昌	-13476
▁文集	-13477
▁赏识	-13478
▁克拉斯	-13479
▁鸠	-13480
彼得	-13481
▁对比	-13482
▁无罪	-13483
▁以内	-13484
▁武德	-13485
▁潜力	-13486
▁摩泽尔	-13487
▁喀什	-13488
▁太祖	-13489
▁煽动	-13490
▁至元	-13491
装置	-13492
▁历年	-13493
▁受命	-13494
▁大明	-13495
▁标语	-13496
▁究竟	-13497
▁勃艮第	-13498
▁停泊	-13499
▁开口	-13500
▁首支	-13501
▁偏向	-13502
▁女真	-13503
▁张个	-13504
▁所生	-13505
▁马其顿	-13506
▁涂装	-13507
▁师师长	-13508
文件	-13509
ama	-13510
▁侧面	-13511
▁植被	-13512
▁回忆录	-13513
▁蕃	-13514
党籍	-13515
十字	-13516
gin	-13517
▁书面	-13518
▁人知	-13519
▁紫外	-13520
▁缓冲	-13521
▁西端	-13522
▁阿兹	-13523
▁学生会	-13524
学科	-13525
▁三子	-13526
▁分拆	-13527
▁拥立	-13528
▁总公司	-13529
▁竞技场	-13530
▁伊藤	-13531
▁合一	-13532
▁欧拉	-13533
▁傀	-13534
▁陛	-13535
▁库斯	-13536
▁救护	-13537
▁甲第	-13538
▁凯尔特	-13539
▁宁波市	-13540
▁euro	-13541
▁国人	-13542
▁揭幕	-13543
▁残馀	-13544
▁特许	-13545
▁干道	-13546
▁引致	-13547
▁百分	-13548
▁中是	-13549
▁分治	-13550
▁变数	-13551
▁街市	-13552
▁www	-13553
▁作画	-13554
▁阿格	-13555
▁埗	-13556
▁发车	-13557
▁猜测	-13558
▁玉环	-13559
▁宫中	-13560
▁无机	-13561
▁沃尔夫	-13562
乌斯	-13563
▁分级	-13564
▁收获	-13565
▁读音	-13566
▁古墓	-13567
▁活化	-13568
▁古生物	-13569
▁5%	-13570
▁城巴	-13571
▁mad	-13572
▁劳伦斯	-13573
▁曾效力	-13574
▁相对论	-13575
▁天启	-13576
▁慢性	-13577
▁格利	-13578
▁罹患	-13579
▁美好	-13580
▁预选	-13581
▁ka	-13582
▁太宗	-13583
▁牛奶	-13584
▁1400	-13585
▁九十	-13586
▁凯文	-13587
▁增大	-13588
▁守卫	-13589
▁环流	-13590
▁艾哈	-13591
▁组织部	-13592
▁路易十	-13593
▁sr	-13594
▁假如	-13595
▁凯撒	-13596
▁电铁	-13597
▁裙	-13598
变化	-13599
▁后于	-13600
▁弹道	-13601
▁海尔	-13602
▁金币	-13603
▁太阳能	-13604
▁自卫队	-13605
▁滙	-13606
▁闯入	-13607
▁假面	-13608
▁升高	-13609
▁rem	-13610
▁许多人	-13611
▁多明	-13612
▁这款	-13613
▁鲷科	-13614
▁南开大学	-13615
▁si	-13616
▁曾孙	-13617
▁露出	-13618
▁国民革命军	-13619
不断	-13620
▁if	-13621
▁同伴	-13622
▁墓葬	-13623
▁继母	-13624
▁迪南	-13625
▁野外	-13626
▁眉	-13627
胜出	-13628
▁千代	-13629
▁器材	-13630
ates	-13631
▁锂	-13632
▁上尉	-13633
▁厨房	-13634
▁因斯	-13635
▁隆庆	-13636
▁托尔金	-13637
▁豁	-13638
▁链接	-13639
▁电视网	-13640
▁库尔德	-13641
▁δ	-13642
▁こ	-13643
▁凯莉	-13644
▁取胜	-13645
▁爬行	-13646
▁离职	-13647
▁sky	-13648
ci	-13649
▁有如	-13650
▁特质	-13651
▁琉璃	-13652
▁瓦特	-13653
▁通商	-13654
▁第十七	-13655
▁汞	-13656
▁cv	-13657
▁地板	-13658
▁大不	-13659
▁生化	-13660
▁误差	-13661
▁司令官	-13662
讯息	-13663
▁录像	-13664
▁新民	-13665
▁渴望	-13666
▁满分	-13667
协商会议	-13668
▁即为	-13669
▁回去	-13670
▁解剖	-13671
▁康斯坦	-13672
▁诸葛亮	-13673
大赛	-13674
▁一字	-13675
▁苏黎	-13676
▁雇佣	-13677
▁舅	-13678
▁上部	-13679
▁叙事	-13680
▁搞笑	-13681
▁巧克力	-13682
▁世人	-13683
▁法文	-13684
▁156	-13685
▁mtv	-13686
▁滥用	-13687
▁中国中央	-13688
经过	-13689
▁神学院	-13690
▁路易斯安那州	-13691
▁瀛	-13692
坦克	-13693
▁主修	-13694
▁叛变	-13695
▁多尼	-13696
▁每集	-13697
▁米亚	-13698
▁158	-13699
▁半决赛	-13700
▁一九	-13701
▁军民	-13702
▁启蒙	-13703
▁始发	-13704
▁掀起	-13705
▁好像	-13706
▁混音	-13707
▁该岛	-13708
▁边防	-13709
▁拉丁语	-13710
▁坠毁	-13711
▁约合	-13712
▁威廉斯	-13713
▁八强	-13714
▁则由	-13715
▁所致	-13716
▁标注	-13717
▁mid	-13718
▁奥克兰	-13719
▁温和	-13720
▁万人次	-13721
▁σ	-13722
▁朋	-13723
▁羞	-13724
▁鎌	-13725
景点	-13726
▁出国	-13727
▁沦陷	-13728
▁照相	-13729
▁cam	-13730
▁同等	-13731
▁罗杰	-13732
▁马萨诸	-13733
▁印第安人	-13734
▁喊	-13735
▁繁体	-13736
▁陶器	-13737
▁武汉大学	-13738
▁爷	-13739
四个	-13740
▁停播	-13741
▁多达	-13742
▁对决	-13743
▁打死	-13744
▁韦斯	-13745
ular	-13746
▁汉武帝	-13747
▁二十世纪	-13748
include	-13749
化物	-13750
com	-13751
▁从来	-13752
▁申报	-13753
▁索马里	-13754
▁吡	-13755
公尺	-13756
▁开来	-13757
▁引爆	-13758
▁投奔	-13759
▁atp	-13760
▁里斯本	-13761
▁迭	-13762
政变	-13763
▁爱知	-13764
▁布鲁塞尔	-13765
▁十个	-13766
▁大革命	-13767
▁江湖	-13768
▁奥古斯	-13769
▁巴塞罗	-13770
▁修读	-13771
▁弹头	-13772
▁材质	-13773
▁私下	-13774
▁行进	-13775
民主党	-13776
▁ger	-13777
▁led	-13778
▁偕	-13779
▁慎	-13780
▁切割	-13781
▁武警	-13782
▁话剧	-13783
▁land	-13784
▁西班牙人	-13785
▁扔	-13786
▁梭	-13787
▁会以	-13788
▁傀儡	-13789
▁导航	-13790
▁金球	-13791
▁国内外	-13792
▁金字塔	-13793
▁臧	-13794
▁听众	-13795
▁小于	-13796
▁佛陀	-13797
▁趁机	-13798
▁sum	-13799
▁中尉	-13800
▁pal	-13801
▁法国人	-13802
▁高等学校	-13803
▁少林	-13804
▁巨蛋	-13805
▁应急	-13806
▁进度	-13807
▁metac	-13808
▁分院	-13809
▁断裂	-13810
▁甲午	-13811
ican	-13812
▁最后一个	-13813
▁が	-13814
▁九个	-13815
▁声调	-13816
▁首演	-13817
▁专制	-13818
▁大事	-13819
▁安抚	-13820
▁手球	-13821
wan	-13822
▁南韩	-13823
▁提拔	-13824
▁衙门	-13825
登堡	-13826
▁略有	-13827
▁西伯利亚	-13828
▁gp	-13829
信仰	-13830
文章	-13831
▁意甲	-13832
▁欧文	-13833
▁ann	-13834
▁二十五年	-13835
▁城南	-13836
▁边疆	-13837
▁符腾堡	-13838
▁第二期	-13839
▁鲑	-13840
控制	-13841
▁原版	-13842
▁库容	-13843
▁显示器	-13844
▁酯	-13845
▁仙女	-13846
▁全权	-13847
▁阴道	-13848
▁诅	-13849
▁靶	-13850
▁八角	-13851
▁司空	-13852
▁条文	-13853
▁皮埃尔	-13854
ensis	-13855
维拉	-13856
高原	-13857
▁宴会	-13858
▁致敬	-13859
▁退化	-13860
军团	-13861
▁瞬间	-13862
▁蒙古人	-13863
▁匪	-13864
▁亚尔	-13865
▁公信	-13866
▁北县	-13867
▁地段	-13868
▁病例	-13869
▁通风	-13870
▁1300	-13871
▁unic	-13872
常务	-13873
▁不顾	-13874
▁样子	-13875
▁麾下	-13876
什维克	-13877
▁free	-13878
▁charles	-13879
ze	-13880
宪法	-13881
朝鲜	-13882
▁下落	-13883
▁二段	-13884
▁婆罗	-13885
▁用语	-13886
▁中国内	-13887
▁枕	-13888
▁老鼠	-13889
▁骏	-13890
▁交配	-13891
▁关西	-13892
▁桌面	-13893
▁136	-13894
▁巴塞罗那	-13895
▁烦	-13896
ety	-13897
▁地级	-13898
▁明日	-13899
▁模组	-13900
▁\	-13901
▁酵	-13902
▁体的	-13903
▁译本	-13904
▁north	-13905
▁历来	-13906
族自治县	-13907
▁农田	-13908
▁安平	-13909
▁林彪	-13910
▁舍人	-13911
▁门下	-13912
▁studio	-13913
班机	-13914
▁长途	-13915
▁自民党	-13916
▁开支	-13917
▁协和	-13918
▁吉安	-13919
▁困境	-13920
▁北洋政府	-13921
▁传到	-13922
▁写下	-13923
▁卡普	-13924
▁シ	-13925
▁亲戚	-13926
▁出击	-13927
▁坤	-13928
▁睿	-13929
▁wr	-13930
▁岭南	-13931
▁总量	-13932
▁语文	-13933
▁宾夕法	-13934
▁rh	-13935
▁下表	-13936
▁幼虫	-13937
浦路斯	-13938
▁塞浦路斯	-13939
▁抚养	-13940
▁永和	-13941
▁米特	-13942
▁行销	-13943
▁表决	-13944
▁1866	-13945
▁裤	-13946
亚斯	-13947
总局	-13948
▁做好	-13949
▁中饰演	-13950
▁1869	-13951
现代	-13952
门员	-13953
▁借助	-13954
▁八卦	-13955
▁喷泉	-13956
▁奇怪	-13957
▁ram	-13958
▁lang	-13959
▁沮	-13960
▁蔚	-13961
▁人身	-13962
▁年入	-13963
▁糖尿	-13964
▁148	-13965
▁长时间	-13966
▁刺杀	-13967
▁交通工具	-13968
▁担忧	-13969
▁甚么	-13970
▁简体	-13971
▁辛格	-13972
▁139	-13973
▁赛马会	-13974
▁弗雷德里克	-13975
▁み	-13976
▁胺	-13977
▁海豚	-13978
▁英法	-13979
▁配偶	-13980
▁必定	-13981
▁雨量	-13982
▁为什么	-13983
▁尼茨基	-13984
▁中国中央电视台	-13985
▁北边	-13986
▁学中	-13987
▁芭蕾	-13988
ateg	-13989
▁资产阶级	-13990
▁中信	-13991
▁中称	-13992
▁亿年	-13993
▁山姆	-13994
▁贞观	-13995
▁圣彼得	-13996
▁100%	-13997
▁意识形态	-13998
▁枣	-13999
▁党派	-14000
▁自转	-14001
▁60%	-14002
泰尔	-14003
特区	-14004
▁禁令	-14005
▁精彩	-14006
▁跳舞	-14007
▁随意	-14008
▁黑山	-14009
▁惠州	-14010
▁渔民	-14011
▁科大	-14012
▁env	-14013
▁全场	-14014
▁反驳	-14015
▁吉姆	-14016
▁女婿	-14017
▁无需	-14018
▁粪	-14019
ger	-14020
▁pi	-14021
▁切换	-14022
▁圆柱	-14023
▁心情	-14024
▁造像	-14025
ista	-14026
▁λ	-14027
▁声誉	-14028
▁炮击	-14029
士兰	-14030
▁到来	-14031
▁向下	-14032
▁狭义	-14033
▁新港	-14034
▁独家	-14035
▁html	-14036
功率	-14037
▁亚视	-14038
▁萨斯州	-14039
▁吓	-14040
▁尔德	-14041
▁法例	-14042
▁荃湾	-14043
▁鲜明	-14044
▁ear	-14045
▁利比亚	-14046
▁晏	-14047
▁制备	-14048
▁宪政	-14049
▁译为	-14050
▁佛罗伦	-14051
▁天然气	-14052
▁鱼亚目	-14053
▁哈布	-14054
▁挂牌	-14055
▁镇海	-14056
▁实时	-14057
言论	-14058
ste	-14059
▁两组	-14060
国防	-14061
rop	-14062
▁买下	-14063
▁台风	-14064
▁小田	-14065
▁外墙	-14066
▁下半年	-14067
▁п	-14068
▁ら	-14069
▁裘	-14070
▁各样	-14071
▁杂交	-14072
▁睡眠	-14073
▁短缺	-14074
▁mob	-14075
▁印地安	-14076
▁蒙古国	-14077
▁宗教信仰	-14078
就是	-14079
▁光滑	-14080
▁大人	-14081
▁急性	-14082
▁汉代	-14083
▁跳水	-14084
▁渣	-14085
▁周五	-14086
▁屡次	-14087
▁激活	-14088
▁选用	-14089
▁亚当斯	-14090
▁莫里斯	-14091
▁over	-14092
▁一般而言	-14093
▁流域面积	-14094
▁制订	-14095
▁开场	-14096
▁@	-14097
▁一族	-14098
▁收复	-14099
▁泰晤	-14100
▁畜牧	-14101
ions	-14102
▁gundam	-14103
▁佥	-14104
▁俄军	-14105
▁特罗	-14106
周年	-14107
▁内侧	-14108
▁永康	-14109
▁湾总	-14110
分区	-14111
▁不便	-14112
▁两倍	-14113
▁内尔	-14114
▁报社	-14115
▁旧称	-14116
▁相位	-14117
▁泰晤士	-14118
▁伊达	-14119
▁奥克	-14120
▁寻常	-14121
▁左手	-14122
▁王妃	-14123
▁这批	-14124
▁齿轮	-14125
▁克里斯蒂安	-14126
天皇	-14127
理会	-14128
▁二十八	-14129
▁革新	-14130
▁世锦赛	-14131
▁蓟	-14132
▁糖尿病	-14133
▁英联邦	-14134
ritic	-14135
▁瘫	-14136
▁大河	-14137
▁131	-14138
▁全国人大常委会	-14139
▁耶鲁	-14140
▁特朗普	-14141
▁ever	-14142
多尔	-14143
▁命题	-14144
▁小林	-14145
▁gold	-14146
连接	-14147
▁斯诺	-14148
假名	-14149
容纳	-14150
ware	-14151
▁艺术品	-14152
▁城乡	-14153
▁文科	-14154
▁高速铁路	-14155
▁china	-14156
▁声母	-14157
▁排水	-14158
▁法属	-14159
▁算子	-14160
▁日照	-14161
▁芥	-14162
进入	-14163
高宗	-14164
▁三项	-14165
▁匿名	-14166
▁官邸	-14167
▁所说	-14168
▁福岛	-14169
▁绘制	-14170
▁莎拉	-14171
▁鱼亚	-14172
▁第六十	-14173
▁椰	-14174
▁会谈	-14175
▁奉献	-14176
▁总编	-14177
▁获释	-14178
▁追封	-14179
▁metacritic	-14180
▁妾	-14181
▁丛林	-14182
▁南通	-14183
▁后方	-14184
▁白沙	-14185
▁起降	-14186
▁134	-14187
▁log	-14188
▁共生	-14189
▁武侠	-14190
▁港区	-14191
后者	-14192
大使	-14193
▁墙壁	-14194
▁妖怪	-14195
▁影音	-14196
▁议案	-14197
▁音源	-14198
化合物	-14199
▁运动场	-14200
▁德米特里	-14201
▁ob	-14202
▁人行	-14203
▁突围	-14204
▁尼克松	-14205
▁渊	-14206
▁茱	-14207
▁三代	-14208
▁克洛	-14209
▁结成	-14210
▁认真	-14211
▁遗憾	-14212
▁205	-14213
▁反坦克	-14214
▁村委会	-14215
▁时年	-14216
▁营地	-14217
▁wil	-14218
索瓦	-14219
▁伊犁	-14220
▁征战	-14221
▁赌场	-14222
▁酰	-14223
依林	-14224
▁修士	-14225
▁弹簧	-14226
▁溶剂	-14227
书馆	-14228
▁五星	-14229
▁饮用	-14230
▁其一	-14231
▁奥特	-14232
▁影子	-14233
▁收容	-14234
▁气流	-14235
▁门口	-14236
▁斯洛文尼亚	-14237
▁保健	-14238
▁峡谷	-14239
▁时有	-14240
▁表格	-14241
▁妨	-14242
▁渝	-14243
▁用品	-14244
▁相接	-14245
▁琵	-14246
丽鱼	-14247
▁亚裔	-14248
▁并行	-14249
▁文武	-14250
▁逃避	-14251
▁喻	-14252
▁商议	-14253
▁国产	-14254
▁强力	-14255
▁电器	-14256
▁过的	-14257
▁kbs	-14258
ris	-14259
▁面上	-14260
▁168	-14261
▁臂	-14262
玄宗	-14263
▁控告	-14264
▁类动物	-14265
▁诰	-14266
交所	-14267
▁人家	-14268
▁最高峰	-14269
▁氦	-14270
▁专访	-14271
▁已婚	-14272
▁顶端	-14273
▁开普	-14274
▁配属	-14275
▁锅炉	-14276
嘉义	-14277
▁入场	-14278
▁射器	-14279
▁此一	-14280
▁绒	-14281
▁介质	-14282
▁子集	-14283
▁豆科	-14284
▁音频	-14285
▁煞	-14286
葫芦	-14287
▁kg	-14288
▁先天	-14289
▁制裁	-14290
▁校内	-14291
▁皇太后	-14292
▁地貌	-14293
▁等国	-14294
▁thomas	-14295
蓝色	-14296
▁家园	-14297
▁inf	-14298
▁社会科学	-14299
▁史前	-14300
▁尾部	-14301
▁江陵	-14302
▁货车	-14303
▁金日	-14304
▁tc	-14305
▁东门	-14306
▁半部	-14307
▁变迁	-14308
▁奥里	-14309
▁小麦	-14310
▁挣	-14311
▁佐治	-14312
▁兴盛	-14313
▁谥号	-14314
▁迎战	-14315
▁基隆市	-14316
▁探险家	-14317
▁滞	-14318
▁头号	-14319
▁尊敬	-14320
▁局限	-14321
▁橙色	-14322
▁近亲	-14323
▁大理石	-14324
▁所产生	-14325
▁direct	-14326
▁稽	-14327
传统	-14328
▁后人	-14329
▁天生	-14330
▁横向	-14331
▁秋天	-14332
▁致死	-14333
▁二十五	-14334
▁阿拉伯语	-14335
▁peter	-14336
▁秉	-14337
▁指称	-14338
▁机密	-14339
▁西贡	-14340
▁お	-14341
▁瘟	-14342
▁并把	-14343
▁长征	-14344
▁核武器	-14345
▁戴尔	-14346
▁立法局	-14347
▁国会议员	-14348
五十	-14349
▁146	-14350
▁ray	-14351
▁佐藤	-14352
▁替补	-14353
▁红楼	-14354
▁航母	-14355
▁菩提	-14356
▁雨水	-14357
▁太空船	-14358
▁巖	-14359
▁一夜	-14360
▁美女	-14361
▁底下	-14362
▁人工智	-14363
▁荷兰人	-14364
▁タ	-14365
▁休閒	-14366
▁脉冲	-14367
▁高考	-14368
▁同一个	-14369
cript	-14370
▁临海	-14371
▁化成	-14372
▁宪兵	-14373
unes	-14374
▁ju	-14375
▁中校	-14376
▁军营	-14377
▁尾鳍	-14378
▁早就	-14379
▁逆转	-14380
▁殖民者	-14381
▁赫梅利	-14382
▁国安	-14383
▁尽量	-14384
▁手册	-14385
▁抗体	-14386
▁音室	-14387
分之二	-14388
▁south	-14389
二八	-14390
▁太太	-14391
总值	-14392
▁熔岩	-14393
▁米哈伊	-14394
▁jose	-14395
sd	-14396
▁民居	-14397
▁江北	-14398
▁顺德	-14399
cess	-14400
▁sony	-14401
尼察	-14402
▁大体	-14403
▁浦东	-14404
▁紧接	-14405
▁草本植物	-14406
▁钝	-14407
▁启示	-14408
▁坑壁	-14409
▁居留	-14410
▁て	-14411
▁娥	-14412
▁全能	-14413
vin	-14414
▁不堪	-14415
▁可行性	-14416
▁嘉义县	-14417
▁第十九	-14418
▁兀	-14419
▁鄞	-14420
ani	-14421
▁十几	-14422
▁唯有	-14423
▁坚守	-14424
▁排斥	-14425
▁新庄	-14426
▁特派	-14427
▁甲壳	-14428
▁营救	-14429
▁较少	-14430
▁一季	-14431
▁同胞	-14432
▁芯片	-14433
后备	-14434
itz	-14435
▁西拉	-14436
▁跳跃	-14437
▁设计者	-14438
▁焉	-14439
▁村镇	-14440
▁渠道	-14441
▁联会	-14442
▁页面	-14443
▁张家口	-14444
▁franc	-14445
▁户外	-14446
▁月号	-14447
▁每位	-14448
▁mir	-14449
▁仑	-14450
装备	-14451
▁此项	-14452
▁阴影	-14453
▁南北向	-14454
▁销售量	-14455
▁1830	-14456
▁records	-14457
▁叱	-14458
▁信念	-14459
▁和田	-14460
▁推力	-14461
▁触发	-14462
▁原子核	-14463
▁叛军	-14464
▁支柱	-14465
▁诅咒	-14466
▁阿巴	-14467
▁布鲁克林	-14468
▁谕	-14469
▁处置	-14470
▁大业	-14471
▁疫情	-14472
▁不同于	-14473
▁分类法	-14474
▁奥巴马	-14475
产量	-14476
▁克什	-14477
▁总值	-14478
▁订单	-14479
▁追捕	-14480
▁金沙	-14481
▁唤	-14482
▁万千	-14483
▁伪造	-14484
▁午夜	-14485
▁机队	-14486
▁广播电视	-14487
▁川家	-14488
▁戊戌	-14489
▁西沙	-14490
▁カ	-14491
▁戎	-14492
▁柠	-14493
▁加纳	-14494
▁南明	-14495
▁崁	-14496
▁人人	-14497
▁倒数	-14498
▁实录	-14499
▁招标	-14500
▁油画	-14501
▁高低	-14502
全会	-14503
▁火炬	-14504
▁硬体	-14505
ford	-14506
▁your	-14507
进制	-14508
▁乘降	-14509
▁住院	-14510
▁受限	-14511
▁走出	-14512
▁大坂市	-14513
陆续	-14514
▁第六次	-14515
▁中曾	-14516
▁将要	-14517
▁工程学院	-14518
▁忌	-14519
▁烟台	-14520
▁稀少	-14521
▁1700	-14522
▁伊凡	-14523
▁容许	-14524
▁红白	-14525
危机	-14526
▁地委	-14527
▁limited	-14528
证券	-14529
▁他将	-14530
▁巴顿	-14531
▁整编	-14532
▁比喻	-14533
▁牛肉	-14534
▁退位	-14535
▁141	-14536
▁觅	-14537
应用	-14538
▁地被	-14539
▁少校	-14540
▁底盘	-14541
▁本州	-14542
▁海口	-14543
▁诺斯	-14544
▁迹象	-14545
▁grand	-14546
▁励	-14547
▁会试	-14548
▁孔雀	-14549
▁香山	-14550
ason	-14551
ura	-14552
▁住宿	-14553
统治	-14554
▁年级	-14555
▁经文	-14556
▁多功能	-14557
▁巴尔干	-14558
▁unicode	-14559
芬兰	-14560
▁九江	-14561
▁城池	-14562
▁超市	-14563
▁华为	-14564
▁太尉	-14565
▁龙门	-14566
▁sci	-14567
▁宜兰县	-14568
▁刮	-14569
特拉	-14570
▁万多	-14571
▁不时	-14572
▁便会	-14573
▁十多	-14574
▁地盘	-14575
▁巫师	-14576
▁王世	-14577
▁鳍	-14578
德温	-14579
▁在建	-14580
▁唐玄宗	-14581
▁星期五	-14582
▁都督府	-14583
状况	-14584
美尔	-14585
▁一派	-14586
▁其时	-14587
▁克里米亚	-14588
▁基础设施	-14589
▁流失	-14590
▁石川	-14591
▁举重	-14592
▁全都	-14593
▁朝向	-14594
▁沃克	-14595
▁bab	-14596
▁无产阶级	-14597
▁涨	-14598
半部	-14599
▁归还	-14600
▁改动	-14601
▁星星	-14602
▁身心	-14603
▁改革开放	-14604
三人	-14605
▁史诗	-14606
▁宪章	-14607
▁白马	-14608
▁表情	-14609
▁里奥	-14610
▁钢筋	-14611
ki	-14612
▁尧	-14613
▁其母	-14614
▁广阔	-14615
▁玛利亚	-14616
mus	-14617
▁之心	-14618
▁战功	-14619
▁所辖	-14620
▁接见	-14621
▁街上	-14622
▁递交	-14623
▁客家人	-14624
格斯	-14625
▁救济	-14626
▁曹魏	-14627
▁翅膀	-14628
▁副会长	-14629
▁执政党	-14630
▁波多黎	-14631
▁复旦	-14632
▁欺骗	-14633
▁王氏	-14634
▁现身	-14635
兰德	-14636
贝格	-14637
▁佩里	-14638
▁按钮	-14639
▁礼堂	-14640
▁副作用	-14641
▁执行长	-14642
武装	-14643
▁京畿	-14644
▁发到	-14645
▁章节	-14646
▁语义	-14647
▁魏国	-14648
英格兰	-14649
▁演算法	-14650
▁long	-14651
▁定向	-14652
▁租赁	-14653
保险	-14654
▁庄为	-14655
▁虎尾	-14656
▁波多黎各	-14657
专辑	-14658
ren	-14659
▁厌恶	-14660
▁县份	-14661
ally	-14662
▁ltd	-14663
▁最高人民法院	-14664
▁两面	-14665
▁传言	-14666
▁军委	-14667
▁曲面	-14668
▁立交	-14669
▁游泳池	-14670
▁証	-14671
成本	-14672
▁拉尔	-14673
▁西非	-14674
▁黄埔	-14675
▁罗斯福	-14676
▁教员	-14677
▁病死	-14678
夫斯基	-14679
▁效益	-14680
▁皇族	-14681
▁pan	-14682
▁全日制	-14683
▁警务处	-14684
▁驾驶员	-14685
▁侮	-14686
▁寂	-14687
暴力	-14688
▁没能	-14689
▁清河	-14690
▁警署	-14691
ander	-14692
▁车门	-14693
▁霍普	-14694
▁147	-14695
▁绿化	-14696
▁自卫	-14697
▁荣耀	-14698
▁血型	-14699
▁首脑	-14700
ua	-14701
▁â	-14702
▁括	-14703
▁低音	-14704
▁苏门	-14705
▁辗转	-14706
▁烷	-14707
▁瑙	-14708
▁上表	-14709
▁仁川	-14710
▁喜好	-14711
▁大受	-14712
▁开火	-14713
▁dom	-14714
▁价值观	-14715
▁三分之二	-14716
▁下跌	-14717
▁稍微	-14718
▁纲脂	-14719
▁巴塞隆	-14720
▁注意力	-14721
▁获选为	-14722
ui	-14723
▁后世	-14724
▁自贡	-14725
▁高空	-14726
▁law	-14727
▁金日成	-14728
▁有限责任	-14729
▁椅	-14730
▁区东	-14731
▁武藏	-14732
▁源头	-14733
▁祭司	-14734
▁西甲	-14735
▁单行本	-14736
▁威斯康	-14737
▁绞	-14738
文字	-14739
省长	-14740
▁康德	-14741
▁克里夫	-14742
▁ç	-14743
▁棱	-14744
▁打印	-14745
▁目睹	-14746
▁重回	-14747
▁出版物	-14748
▁加德	-14749
▁引来	-14750
▁普林	-14751
▁现状	-14752
▁白银	-14753
▁考取	-14754
▁亚运会	-14755
▁其下	-14756
▁承包	-14757
▁窗户	-14758
能源	-14759
▁一至	-14760
▁井上	-14761
▁交替	-14762
▁限量	-14763
▁胡志明	-14764
锦标	-14765
▁双边	-14766
▁曼彻	-14767
▁阮朝	-14768
▁but	-14769
▁五角	-14770
▁借口	-14771
▁日才	-14772
▁租用	-14773
▁阿什	-14774
▁下车	-14775
▁掠夺	-14776
▁林下	-14777
▁渡轮	-14778
▁256	-14779
▁mov	-14780
▁中国工程	-14781
动作	-14782
麦隆	-14783
▁历程	-14784
▁反革命	-14785
▁苏黎世	-14786
新区	-14787
▁创设	-14788
▁完好	-14789
▁播音	-14790
▁摇滚乐	-14791
▁风景区	-14792
▁煎	-14793
尼克	-14794
sch	-14795
▁停产	-14796
▁男歌手	-14797
▁第一款	-14798
▁堪萨斯州	-14799
▁眷	-14800
▁解读	-14801
▁转让	-14802
▁假定	-14803
▁前一	-14804
▁回顾	-14805
▁斩首	-14806
▁tem	-14807
▁动力学	-14808
▁哈布斯堡	-14809
收录	-14810
▁世宗	-14811
▁古兰	-14812
▁残骸	-14813
▁153	-14814
▁office	-14815
▁硼	-14816
意义	-14817
▁一栋	-14818
▁其名	-14819
▁烟草	-14820
▁身长	-14821
▁陛下	-14822
▁1100	-14823
▁矫	-14824
同盟	-14825
▁交代	-14826
▁天上	-14827
▁身穿	-14828
▁重工	-14829
▁国民大会	-14830
▁战乱	-14831
▁收敛	-14832
▁敦煌	-14833
▁文理	-14834
▁梁振	-14835
▁汉斯	-14836
▁自旋	-14837
▁落地	-14838
▁高手	-14839
▁第三位	-14840
▁白俄罗斯	-14841
▁蒐	-14842
基亚	-14843
宁市	-14844
▁射箭	-14845
▁希拉	-14846
▁托利	-14847
▁相交	-14848
▁穆尔	-14849
勒冈	-14850
▁业者	-14851
▁光荣	-14852
▁博格	-14853
▁索引	-14854
▁面具	-14855
▁餐馆	-14856
str	-14857
▁南安	-14858
▁台语	-14859
▁名次	-14860
▁客货	-14861
▁灯光	-14862
▁特工	-14863
▁学术界	-14864
▁士林	-14865
▁大溪	-14866
▁尔州	-14867
▁民营	-14868
▁轻易	-14869
▁佛罗伦萨	-14870
▁掳	-14871
▁之位	-14872
▁游牧	-14873
▁统筹	-14874
▁视作	-14875
ville	-14876
▁之役	-14877
▁入伍	-14878
▁模范	-14879
▁起用	-14880
▁company	-14881
▁咀	-14882
训练	-14883
ker	-14884
▁加剧	-14885
▁勇气	-14886
▁luc	-14887
▁召集人	-14888
价值	-14889
而成	-14890
▁两届	-14891
▁玄武	-14892
▁中央委员	-14893
▁布尔什维克	-14894
▁爱上	-14895
▁wid	-14896
▁ジ	-14897
▁浆	-14898
▁饿	-14899
▁会将	-14900
▁韦恩	-14901
▁dig	-14902
▁江泽民	-14903
▁1853	-14904
伯格	-14905
▁席次	-14906
▁拉曼	-14907
▁西周	-14908
▁新泽西	-14909
数量	-14910
耶尔	-14911
▁上司	-14912
▁强风	-14913
▁副司令员	-14914
▁周一	-14915
▁安纳	-14916
▁常州	-14917
▁瘫痪	-14918
▁省立	-14919
▁过敏	-14920
▁中文系	-14921
▁唐太宗	-14922
▁news	-14923
代之	-14924
广泛	-14925
▁亚纳	-14926
▁徽章	-14927
▁抒情	-14928
▁ロ	-14929
▁耦	-14930
戈夫	-14931
▁严肃	-14932
▁则以	-14933
▁重申	-14934
▁附设	-14935
▁sbs	-14936
龙属	-14937
▁改以	-14938
▁牌子	-14939
▁王建	-14940
▁福田	-14941
▁竞争力	-14942
▁羁	-14943
▁两张	-14944
▁患上	-14945
▁螺科	-14946
▁看起来	-14947
▁业界	-14948
▁审核	-14949
▁赦免	-14950
▁十名	-14951
▁格斗	-14952
▁转战	-14953
ella	-14954
▁凯瑟琳	-14955
之下	-14956
ble	-14957
▁严谨	-14958
▁佛山	-14959
▁战前	-14960
▁自小	-14961
▁风云	-14962
▁747	-14963
▁fun	-14964
▁中山路	-14965
▁哈佛大学	-14966
▁驯	-14967
▁ah	-14968
▁出线	-14969
▁可可	-14970
▁权限	-14971
▁活力	-14972
▁称谓	-14973
▁mbc	-14974
▁证人	-14975
哥尔摩	-14976
▁物理系	-14977
▁1858	-14978
▁毘	-14979
主事	-14980
▁fi	-14981
▁publ	-14982
▁褐	-14983
▁城外	-14984
▁麻烦	-14985
▁穹	-14986
▁出征	-14987
▁手臂	-14988
▁海港	-14989
▁蒂斯	-14990
▁酿酒	-14991
wa	-14992
▁之变	-14993
▁内置	-14994
▁复活	-14995
▁水师	-14996
▁公安局	-14997
▁中央研究院	-14998
▁あ	-14999
▁盎	-15000
尔克	-15001
情况	-15002
ope	-15003
ush	-15004
▁塑胶	-15005
▁海道	-15006
▁港岛	-15007
▁大胆	-15008
▁审讯	-15009
▁童话	-15010
ents	-15011
▁整顿	-15012
▁汉书	-15013
▁中国工程院	-15014
▁教务	-15015
▁新高	-15016
▁斯德哥尔摩	-15017
▁茜	-15018
▁国庆	-15019
▁葵涌	-15020
▁高阶	-15021
▁初选	-15022
▁力士	-15023
▁信中	-15024
▁假名	-15025
▁其妻	-15026
▁声援	-15027
▁毫不	-15028
▁水星	-15029
▁负载	-15030
▁败给	-15031
▁门户	-15032
▁保禄	-15033
▁推移	-15034
▁汉中	-15035
▁史丹	-15036
▁实为	-15037
▁爱荷华州	-15038
汉字	-15039
▁旅长	-15040
▁aa	-15041
▁一口	-15042
▁反恐	-15043
▁有害	-15044
▁精度	-15045
▁另一名	-15046
▁坐落于	-15047
▁大幅度	-15048
▁翻译成	-15049
▁二十八年	-15050
▁刷新	-15051
▁广电	-15052
▁水位	-15053
▁配角	-15054
ql	-15055
▁位处	-15056
▁季军	-15057
▁设想	-15058
▁豪斯	-15059
▁迎来	-15060
▁送回	-15061
▁麦卡	-15062
▁众议员	-15063
▁real	-15064
事故	-15065
▁充电	-15066
▁卫队	-15067
▁尽快	-15068
▁form	-15069
▁天宝	-15070
▁廉价	-15071
▁手续	-15072
▁短短	-15073
▁美学	-15074
▁赴美	-15075
▁第一书记	-15076
▁湄	-15077
▁mb	-15078
▁全剧	-15079
▁字面	-15080
▁420	-15081
德萨	-15082
▁兴奋	-15083
▁功夫	-15084
▁取而	-15085
▁各处	-15086
▁山中	-15087
▁中举	-15088
idge	-15089
▁nasa	-15090
▁准许	-15091
▁塔吉	-15092
▁看似	-15093
▁伯明翰	-15094
▁密苏里	-15095
吉思	-15096
游行	-15097
▁低温	-15098
▁兵库	-15099
▁北北	-15100
▁固有	-15101
▁进党	-15102
▁邻国	-15103
▁打击率	-15104
ester	-15105
▁伊势	-15106
▁潮汐	-15107
▁突发	-15108
▁三角洲	-15109
▁中国国家	-15110
▁海报	-15111
▁网际	-15112
▁大师赛	-15113
▁晋升为	-15114
▁第一所	-15115
▁费尔德	-15116
▁漕	-15117
线性	-15118
▁151	-15119
普顿	-15120
▁整车	-15121
▁新南	-15122
▁时机	-15123
▁明天	-15124
▁143	-15125
▁发作	-15126
▁夏洛	-15127
▁孢子	-15128
▁显现	-15129
▁浪费	-15130
▁名人堂	-15131
▁1859	-15132
▁一曲	-15133
▁百馀	-15134
▁纵贯	-15135
▁脸书	-15136
▁荔枝	-15137
▁萨尔瓦	-15138
▁just	-15139
▁冯玉	-15140
▁打倒	-15141
就是说	-15142
儿童	-15143
检查	-15144
▁景泰	-15145
▁有毒	-15146
▁沦为	-15147
▁峇	-15148
▁息	-15149
▁渲	-15150
显示	-15151
▁以作	-15152
▁北斗	-15153
▁唐人	-15154
▁毛里	-15155
▁艾米	-15156
▁鲤齿	-15157
▁泪	-15158
延长	-15159
▁珠宝	-15160
▁ham	-15161
▁取而代之	-15162
▁婉	-15163
▁番禺	-15164
▁蒙哥	-15165
▁阿方	-15166
学术	-15167
▁向南	-15168
▁延期	-15169
▁恐慌	-15170
▁追随	-15171
ther	-15172
▁sig	-15173
▁chin	-15174
根据	-15175
▁不准	-15176
▁之神	-15177
▁写信	-15178
▁到场	-15179
▁刺客	-15180
▁柔佛	-15181
▁阿兰	-15182
▁弗朗索瓦	-15183
▁两周	-15184
▁日方	-15185
▁起事	-15186
▁转世	-15187
ja	-15188
ny	-15189
行政	-15190
▁中段	-15191
▁套件	-15192
▁槟城	-15193
▁试点	-15194
ball	-15195
▁米德	-15196
▁访谈	-15197
▁25%	-15198
▁一丁	-15199
▁侄子	-15200
▁桃花	-15201
▁沉没	-15202
▁cct	-15203
▁金马奖	-15204
斗争	-15205
▁仅为	-15206
▁山田	-15207
▁李德	-15208
▁云林县	-15209
▁所着	-15210
▁搁置	-15211
▁科下	-15212
▁静冈	-15213
成果	-15214
▁关中	-15215
▁排出	-15216
▁改版	-15217
▁花样	-15218
▁若瑟	-15219
▁mot	-15220
流域	-15221
阿尔	-15222
▁登堡	-15223
▁麦迪	-15224
▁国防部	-15225
▁生产总值	-15226
▁售价	-15227
▁肺炎	-15228
参谋长	-15229
▁州政府	-15230
▁剃	-15231
交换	-15232
▁基底	-15233
▁日及	-15234
▁西尔	-15235
▁1854	-15236
▁常住人口	-15237
▁一流	-15238
▁中英	-15239
▁星团	-15240
▁贵阳	-15241
▁四十二年	-15242
尔诺	-15243
▁泛指	-15244
▁阿利	-15245
▁east	-15246
炀帝	-15247
▁上野	-15248
▁中药	-15249
▁出血	-15250
▁环线	-15251
▁私营	-15252
▁高大	-15253
宣传	-15254
▁东端	-15255
▁击沉	-15256
▁汉密	-15257
▁ret	-15258
▁其后在	-15259
▁科威特	-15260
▁瞿	-15261
▁三日	-15262
▁外出	-15263
▁忽视	-15264
▁熟知	-15265
▁譬如	-15266
▁蔡依林	-15267
▁冶金	-15268
▁浮雕	-15269
▁225	-15270
▁两类	-15271
▁另类	-15272
▁员外	-15273
▁属名	-15274
▁日夜	-15275
▁211	-15276
▁号班机	-15277
▁预选赛	-15278
▁平常	-15279
▁无名	-15280
▁宝贝	-15281
▁钱币	-15282
▁驾崩	-15283
▁总指挥	-15284
▁捧	-15285
▁	-15286
,	-15287
的	-15288
。	-15289
1	-15290
0	-15291
年	-15292
2	-15293
、	-15294
在	-15295
一	-15296
为	-15297
9	-15298
中	-15299
是	-15300
国	-15301
人	-15302
a	-15303
于	-15304
e	-15305
大	-15306
有	-15307
3	-15308
和	-15309
5	-15310
i	-15311
8	-15312
o	-15313
以	-15314
r	-15315
4	-15316
月	-15317
n	-15318
日	-15319
6	-15320
后	-15321
7	-15322
了	-15323
学	-15324
t	-15325
s	-15326
时	-15327
个	-15328
会	-15329
地	-15330
成	-15331
上	-15332
公	-15333
不	-15334
l	-15335
出	-15336
行	-15337
他	-15338
部	-15339
斯	-15340
与	-15341
区	-15342
之	-15343
c	-15344
名	-15345
发	-15346
其	-15347
主	-15348
作	-15349
生	-15350
尔	-15351
分	-15352
方	-15353
m	-15354
到	-15355
用	-15356
下	-15357
西	-15358
:	-15359
第	-15360
》	-15361
《	-15362
而	-15363
家	-15364
位	-15365
及	-15366
军	-15367
由	-15368
d	-15369
h	-15370
里	-15371
并	-15372
民	-15373
被	-15374
法	-15375
本	-15376
南	-15377
市	-15378
·	-15379
长	-15380
这	-15381
来	-15382
同	-15383
u	-15384
多	-15385
可	-15386
政	-15387
对	-15388
子	-15389
自	-15390
动	-15391
任	-15392
开	-15393
特	-15394
文	-15395
北	-15396
高	-15397
「	-15398
」	-15399
加	-15400
德	-15401
员	-15402
新	-15403
东	-15404
最	-15405
海	-15406
台	-15407
克	-15408
亚	-15409
前	-15410
也	-15411
利	-15412
平	-15413
代	-15414
等	-15415
所	-15416
p	-15417
面	-15418
三	-15419
度	-15420
电	-15421
因	-15422
美	-15423
建	-15424
经	-15425
此	-15426
得	-15427
道	-15428
现	-15429
进	-15430
物	-15431
“	-15432
过	-15433
要	-15434
机	-15435
间	-15436
内	-15437
b	-15438
g	-15439
事	-15440
至	-15441
教	-15442
山	-15443
立	-15444
路	-15445
当	-15446
车	-15447
拉	-15448
小	-15449
入	-15450
口	-15451
将	-15452
战	-15453
体	-15454
能	-15455
世	-15456
二	-15457
理	-15458
工	-15459
该	-15460
州	-15461
合	-15462
表	-15463
外	-15464
定	-15465
马	-15466
期	-15467
天	-15468
赛	-15469
制	-15470
业	-15471
但	-15472
化	-15473
球	-15474
十	-15475
科	-15476
次	-15477
种	-15478
使	-15479
全	-15480
;	-15481
布	-15482
场	-15483
通	-15484
称	-15485
性	-15486
队	-15487
者	-15488
f	-15489
共	-15490
线	-15491
总	-15492
设	-15493
县	-15494
式	-15495
数	-15496
重	-15497
系	-15498
都	-15499
罗	-15500
两	-15501
安	-15502
力	-15503
士	-15504
联	-15505
"	-15506
站	-15507
院	-15508
比	-15509
基	-15510
原	-15511
相	-15512
城	-15513
王	-15514
达	-15515
运	-15516
明	-15517
省	-15518
米	-15519
属	-15520
目	-15521
司	-15522
英	-15523
水	-15524
正	-15525
治	-15526
金	-15527
尼	-15528
华	-15529
格	-15530
号	-15531
统	-15532
府	-15533
k	-15534
关	-15535
组	-15536
兰	-15537
约	-15538
选	-15539
们	-15540
镇	-15541
四	-15542
或	-15543
列	-15544
如	-15545
计	-15546
元	-15547
港	-15548
起	-15549
y	-15550
巴	-15551
影	-15552
从	-15553
语	-15554
产	-15555
首	-15556
女	-15557
提	-15558
常	-15559
星	-15560
阿	-15561
改	-15562
演	-15563
林	-15564
v	-15565
议	-15566
量	-15567
心	-15568
向	-15569
然	-15570
乐	-15571
接	-15572
就	-15573
始	-15574
务	-15575
实	-15576
无	-15577
书	-15578
w	-15579
界	-15580
参	-15581
级	-15582
意	-15583
则	-15584
义	-15585
曾	-15586
委	-15587
广	-15588
管	-15589
手	-15590
受	-15591
单	-15592
指	-15593
程	-15594
说	-15595
卡	-15596
交	-15597
视	-15598
河	-15599
保	-15600
色	-15601
团	-15602
包	-15603
形	-15604
门	-15605
维	-15606
结	-15607
音	-15608
湾	-15609
已	-15610
型	-15611
着	-15612
处	-15613
香	-15614
流	-15615
党	-15616
传	-15617
直	-15618
些	-15619
获	-15620
类	-15621
集	-15622
史	-15623
太	-15624
万	-15625
认	-15626
点	-15627
应	-15628
导	-15629
夫	-15630
变	-15631
校	-15632
五	-15633
品	-15634
身	-15635
字	-15636
空	-15637
领	-15638
示	-15639
回	-15640
社	-15641
更	-15642
岛	-15643
积	-15644
铁	-15645
展	-15646
朝	-15647
江	-15648
还	-15649
古	-15650
持	-15651
师	-15652
张	-15653
图	-15654
各	-15655
奥	-15656
官	-15657
反	-15658
带	-15659
洲	-15660
专	-15661
别	-15662
举	-15663
据	-15664
只	-15665
命	-15666
纪	-15667
游	-15668
资	-15669
风	-15670
取	-15671
京	-15672
活	-15673
报	-15674
造	-15675
普	-15676
击	-15677
标	-15678
光	-15679
信	-15680
支	-15681
局	-15682
术	-15683
少	-15684
历	-15685
曲	-15686
族	-15687
没	-15688
近	-15689
非	-15690
纳	-15691
石	-15692
节	-15693
神	-15694
解	-15695
剧	-15696
清	-15697
情	-15698
际	-15699
转	-15700
研	-15701
每	-15702
论	-15703
苏	-15704
它	-15705
又	-15706
记	-15707
权	-15708
件	-15709
波	-15710
条	-15711
决	-15712
龙	-15713
村	-15714
即	-15715
放	-15716
片	-15717
角	-15718
她	-15719
气	-15720
伊	-15721
商	-15722
版	-15723
头	-15724
/	-15725
连	-15726
武	-15727
密	-15728
乡	-15729
辖	-15730
括	-15731
未	-15732
知	-15733
职	-15734
收	-15735
座	-15736
周	-15737
复	-15738
先	-15739
李	-15740
往	-15741
去	-15742
根	-15743
器	-15744
创	-15745
离	-15746
白	-15747
强	-15748
歌	-15749
福	-15750
果	-15751
再	-15752
办	-15753
初	-15754
究	-15755
陆	-15756
六	-15757
且	-15758
足	-15759
派	-15760
打	-15761
调	-15762
画	-15763
引	-15764
兵	-15765
圣	-15766
完	-15767
今	-15768
亦	-15769
居	-15770
汉	-15771
域	-15772
观	-15773
帝	-15774
季	-15775
许	-15776
装	-15777
播	-15778
阳	-15779
威	-15780
网	-15781
塔	-15782
亲	-15783
z	-15784
除	-15785
题	-15786
编	-15787
宗	-15788
争	-15789
随	-15790
质	-15791
续	-15792
段	-15793
奖	-15794
服	-15795
令	-15796
育	-15797
给	-15798
构	-15799
协	-15800
较	-15801
花	-15802
言	-15803
x	-15804
爱	-15805
很	-15806
园	-15807
八	-15808
查	-15809
土	-15810
担	-15811
速	-15812
见	-15813
戏	-15814
修	-15815
问	-15816
萨	-15817
功	-15818
置	-15819
宣	-15820
规	-15821
营	-15822
另	-15823
黄	-15824
希	-15825
死	-15826
推	-15827
客	-15828
存	-15829
终	-15830
项	-15831
好	-15832
欧	-15833
超	-15834
率	-15835
%	-15836
划	-15837
投	-15838
馆	-15839
录	-15840
雷	-15841
我	-15842
哈	-15843
洛	-15844
供	-15845
护	-15846
样	-15847
吉	-15848
具	-15849
源	-15850
卫	-15851
博	-15852
准	-15853
求	-15854
班	-15855
瓦	-15856
父	-15857
九	-15858
案	-15859
青	-15860
街	-15861
男	-15862
伦	-15863
印	-15864
环	-15865
母	-15866
边	-15867
例	-15868
兴	-15869
济	-15870
负	-15871
伯	-15872
田	-15873
己	-15874
勒	-15875
j	-15876
责	-15877
湖	-15878
故	-15879
陈	-15880
众	-15881
助	-15882
均	-15883
儿	-15884
火	-15885
致	-15886
备	-15887
攻	-15888
那	-15889
鱼	-15890
沙	-15891
航	-15892
落	-15893
百	-15894
诺	-15895
份	-15896
艺	-15897
莱	-15898
皇	-15899
试	-15900
技	-15901
整	-15902
副	-15903
早	-15904
极	-15905
增	-15906
鲁	-15907
志	-15908
容	-15909
热	-15910
模	-15911
半	-15912
群	-15913
围	-15914
红	-15915
层	-15916
飞	-15917
告	-15918
七	-15919
继	-15920
越	-15921
失	-15922
登	-15923
双	-15924
评	-15925
堂	-15926
境	-15927
易	-15928
川	-15929
写	-15930
独	-15931
室	-15932
深	-15933
食	-15934
升	-15935
塞	-15936
排	-15937
需	-15938
黑	-15939
证	-15940
声	-15941
限	-15942
央	-15943
氏	-15944
医	-15945
筑	-15946
射	-15947
织	-15948
席	-15949
像	-15950
费	-15951
老	-15952
象	-15953
何	-15954
响	-15955
采	-15956
千	-15957
甲	-15958
真	-15959
才	-15960
托	-15961
盟	-15962
仍	-15963
杀	-15964
让	-15965
施	-15966
森	-15967
便	-15968
步	-15969
奇	-15970
警	-15971
木	-15972
考	-15973
防	-15974
想	-15975
配	-15976
舰	-15977
感	-15978
牙	-15979
洋	-15980
楼	-15981
岁	-15982
顿	-15983
届	-15984
哥	-15985
低	-15986
止	-15987
住	-15988
桥	-15989
留	-15990
姆	-15991
贝	-15992
效	-15993
—	-15994
律	-15995
病	-15996
农	-15997
刘	-15998
乌	-15999
范	-16000
几	-16001
泰	-16002
曼	-16003
佛	-16004
底	-16005
辑	-16006
恩	-16007
把	-16008
埃	-16009
察	-16010
料	-16011
冠	-16012
蒙	-16013
银	-16014
批	-16015
降	-16016
唱	-16017
仅	-16018
状	-16019
移	-16020
迪	-16021
库	-16022
话	-16023
俄	-16024
票	-16025
云	-16026
景	-16027
胜	-16028
看	-16029
素	-16030
测	-16031
宁	-16032
息	-16033
康	-16034
干	-16035
革	-16036
败	-16037
消	-16038
承	-16039
控	-16040
显	-16041
索	-16042
祖	-16043
授	-16044
_	-16045
算	-16046
温	-16047
念	-16048
典	-16049
词	-16050
弹	-16051
韩	-16052
习	-16053
远	-16054
载	-16055
藏	-16056
思	-16057
确	-16058
户	-16059
友	-16060
做	-16061
守	-16062
馀	-16063
满	-16064
瑞	-16065
态	-16066
拔	-16067
精	-16068
房	-16069
预	-16070
督	-16071
附	-16072
宫	-16073
依	-16074
望	-16075
叶	-16076
照	-16077
述	-16078
注	-16079
请	-16080
夏	-16081
价	-16082
征	-16083
章	-16084
执	-16085
抗	-16086
毛	-16087
停	-16088
退	-16089
牌	-16090
压	-16091
草	-16092
澳	-16093
简	-16094
虽	-16095
却	-16096
丹	-16097
永	-16098
左	-16099
富	-16100
封	-16101
丁	-16102
堡	-16103
验	-16104
坦	-16105
值	-16106
快	-16107
候	-16108
船	-16109
斗	-16110
侧	-16111
势	-16112
丽	-16113
拿	-16114
破	-16115
般	-16116
邦	-16117
宝	-16118
唐	-16119
莫	-16120
梅	-16121
隆	-16122
监	-16123
难	-16124
含	-16125
突	-16126
细	-16127
庄	-16128
庆	-16129
厂	-16130
断	-16131
郡	-16132
识	-16133
似	-16134
况	-16135
闻	-16136
寺	-16137
皮	-16138
植	-16139
旅	-16140
必	-16141
礼	-16142
蒂	-16143
读	-16144
嘉	-16145
尚	-16146
走	-16147
拥	-16148
朗	-16149
延	-16150
毕	-16151
绝	-16152
久	-16153
店	-16154
切	-16155
岸	-16156
右	-16157
厅	-16158
麦	-16159
架	-16160
杰	-16161
售	-16162
换	-16163
轮	-16164
临	-16165
旧	-16166
野	-16167
核	-16168
春	-16169
亡	-16170
弟	-16171
归	-16172
判	-16173
严	-16174
优	-16175
枪	-16176
弗	-16177
松	-16178
艾	-16179
占	-16180
佳	-16181
杨	-16182
油	-16183
雄	-16184
伤	-16185
异	-16186
遗	-16187
遭	-16188
端	-16189
灵	-16190
短	-16191
吴	-16192
股	-16193
码	-16194
练	-16195
孙	-16196
策	-16197
耶	-16198
逐	-16199
轻	-16200
役	-16201
序	-16202
赫	-16203
送	-16204
帕	-16205
旗	-16206
晚	-16207
顺	-16208
菲	-16209
须	-16210
摩	-16211
籍	-16212
若	-16213
距	-16214
暴	-16215
销	-16216
酒	-16217
乘	-16218
树	-16219
}	-16220
{	-16221
束	-16222
雅	-16223
宋	-16224
什	-16225
玛	-16226
微	-16227
末	-16228
杂	-16229
摄	-16230
输	-16231
阵	-16232
泽	-16233
秀	-16234
署	-16235
冲	-16236
卢	-16237
亿	-16238
兼	-16239
频	-16240
!	-16241
译	-16242
款	-16243
荣	-16244
胡	-16245
驻	-16246
阶	-16247
诗	-16248
良	-16249
药	-16250
庭	-16251
沃	-16252
齐	-16253
饰	-16254
启	-16255
血	-16256
善	-16257
略	-16258
劳	-16259
散	-16260
盖	-16261
津	-16262
贵	-16263
免	-16264
婚	-16265
尾	-16266
甚	-16267
丰	-16268
尽	-16269
峰	-16270
拍	-16271
予	-16272
纽	-16273
差	-16274
顶	-16275
迁	-16276
减	-16277
喜	-16278
板	-16279
鲜	-16280
假	-16281
晋	-16282
臣	-16283
杜	-16284
尺	-16285
兹	-16286
追	-16287
朱	-16288
购	-16289
财	-16290
谷	-16291
签	-16292
害	-16293
杯	-16294
烈	-16295
养	-16296
玉	-16297
背	-16298
宾	-16299
仁	-16300
爆	-16301
黎	-16302
训	-16303
罪	-16304
企	-16305
媒	-16306
舞	-16307
释	-16308
凯	-16309
险	-16310
互	-16311
沿	-16312
钟	-16313
盛	-16314
救	-16315
韦	-16316
著	-16317
夺	-16318
廷	-16319
渐	-16320
检	-16321
讯	-16322
轨	-16323
援	-16324
酸	-16325
货	-16326
审	-16327
透	-16328
秘	-16329
牛	-16330
映	-16331
屋	-16332
补	-16333
谢	-16334
昌	-16335
圆	-16336
币	-16337
够	-16338
介	-16339
址	-16340
软	-16341
访	-16342
乔	-16343
荷	-16344
君	-16345
仪	-16346
讲	-16347
扩	-16348
溪	-16349
庙	-16350
智	-16351
坡	-16352
挥	-16353
梁	-16354
材	-16355
借	-16356
按	-16357
郑	-16358
徒	-16359
适	-16360
敦	-16361
皆	-16362
童	-16363
>	-16364
益	-16365
郎	-16366
拜	-16367
辆	-16368
巡	-16369
敌	-16370
玩	-16371
混	-16372
禁	-16373
隶	-16374
颗	-16375
径	-16376
讨	-16377
蓝	-16378
巨	-16379
翰	-16380
锦	-16381
<	-16382
探	-16383
某	-16384
诸	-16385
途	-16386
夜	-16387
穆	-16388
宽	-16389
霍	-16390
觉	-16391
午	-16392
冰	-16393
额	-16394
跟	-16395
献	-16396
描	-16397
替	-16398
撤	-16399
羽	-16400
旋	-16401
刻	-16402
你	-16403
帮	-16404
赵	-16405
吸	-16406
竞	-16407
遇	-16408
刺	-16409
眼	-16410
培	-16411
刊	-16412
符	-16413
乱	-16414
找	-16415
宇	-16416
佩	-16417
殿	-16418
聚	-16419
欢	-16420
爵	-16421
私	-16422
休	-16423
充	-16424
袭	-16425
炮	-16426
逃	-16427
奉	-16428
漫	-16429
返	-16430
犯	-16431
固	-16432
毒	-16433
脑	-16434
否	-16435
耳	-16436
q	-16437
幕	-16438
唯	-16439
丝	-16440
络	-16441
雨	-16442
邻	-16443
召	-16444
捕	-16445
洪	-16446
戈	-16447
疗	-16448
骨	-16449
激	-16450
岩	-16451
废	-16452
魔	-16453
佔	-16454
茨	-16455
刑	-16456
择	-16457
靠	-16458
钱	-16459
操	-16460
怀	-16461
穿	-16462
缺	-16463
雪	-16464
宪	-16465
震	-16466
露	-16467
竹	-16468
'	-16469
么	-16470
忠	-16471
诉	-16472
坐	-16473
乎	-16474
绿	-16475
御	-16476
娜	-16477
恒	-16478
|	-16479
盘	-16480
坑	-16481
灭	-16482
翻	-16483
胞	-16484
尤	-16485
申	-16486
订	-16487
课	-16488
顾	-16489
骑	-16490
肯	-16491
赤	-16492
兄	-16493
待	-16494
抵	-16495
妻	-16496
迫	-16497
损	-16498
听	-16499
镜	-16500
坚	-16501
贡	-16502
徐	-16503
栖	-16504
浙	-16505
姓	-16506
呼	-16507
汇	-16508
刚	-16509
侵	-16510
愿	-16511
毁	-16512
谈	-16513
柏	-16514
桑	-16515
谋	-16516
陵	-16517
孩	-16518
惠	-16519
纲	-16520
秋	-16521
=	-16522
炸	-16523
脉	-16524
汽	-16525
篇	-16526
恶	-16527
辛	-16528
鳍	-16529
董	-16530
绩	-16531
横	-16532
潮	-16533
融	-16534
鸟	-16535
戴	-16536
买	-16537
舍	-16538
疑	-16539
努	-16540
芬	-16541
泉	-16542
孔	-16543
泛	-16544
绍	-16545
急	-16546
默	-16547
甘	-16548
魏	-16549
健	-16550
避	-16551
脱	-16552
卷	-16553
础	-16554
奏	-16555
缩	-16556
腊	-16557
偏	-16558
莉	-16559
榜	-16560
误	-16561
佐	-16562
墓	-16563
危	-16564
衣	-16565
套	-16566
概	-16567
呈	-16568
翼	-16569
针	-16570
坏	-16571
块	-16572
紧	-16573
隔	-16574
裁	-16575
宜	-16576
殖	-16577
肉	-16578
毫	-16579
墨	-16580
涉	-16581
寻	-16582
扎	-16583
扬	-16584
迎	-16585
染	-16586
井	-16587
赖	-16588
叫	-16589
阻	-16590
渡	-16591
虎	-16592
捷	-16593
付	-16594
冷	-16595
迷	-16596
锡	-16597
秦	-16598
贸	-16599
珠	-16600
圈	-16601
哲	-16602
缘	-16603
廉	-16604
析	-16605
弃	-16606
阴	-16607
辅	-16608
亮	-16609
卖	-16610
池	-16611
恐	-16612
招	-16613
氧	-16614
剑	-16615
彩	-16616
侯	-16617
赞	-16618
匹	-16619
虫	-16620
葡	-16621
伍	-16622
仙	-16623
症	-16624
函	-16625
琴	-16626
凤	-16627
享	-16628
味	-16629
赢	-16630
绕	-16631
寿	-16632
洞	-16633
错	-16634
钢	-16635
截	-16636
梦	-16637
]	-16638
妹	-16639
俱	-16640
颁	-16641
滨	-16642
麻	-16643
尊	-16644
暗	-16645
绘	-16646
[	-16647
瑟	-16648
俗	-16649
豪	-16650
硬	-16651
综	-16652
脚	-16653
倒	-16654
誉	-16655
崇	-16656
笔	-16657
町	-16658
驱	-16659
租	-16660
犹	-16661
矿	-16662
徽	-16663
妇	-16664
奈	-16665
铜	-16666
冬	-16667
稳	-16668
逊	-16669
繁	-16670
液	-16671
静	-16672
绪	-16673
冈	-16674
昂	-16675
阁	-16676
逝	-16677
闭	-16678
估	-16679
楚	-16680
暂	-16681
档	-16682
乙	-16683
墙	-16684
辞	-16685
辐	-16686
曹	-16687
邀	-16688
昭	-16689
+	-16690
蛋	-16691
潜	-16692
柱	-16693
掌	-16694
吕	-16695
浦	-16696
跨	-16697
册	-16698
拒	-16699
辽	-16700
郭	-16701
伐	-16702
振	-16703
纸	-16704
幼	-16705
盐	-16706
鼓	-16707
乃	-16708
岭	-16709
裂	-16710
拟	-16711
恢	-16712
裔	-16713
莎	-16714
零	-16715
?	-16716
蔡	-16717
萄	-16718
弱	-16719
轴	-16720
触	-16721
齿	-16722
赏	-16723
滑	-16724
患	-16725
陶	-16726
粉	-16727
菌	-16728
陷	-16729
淡	-16730
浪	-16731
困	-16732
障	-16733
灾	-16734
伟	-16735
览	-16736
剂	-16737
旁	-16738
偶	-16739
藤	-16740
菜	-16741
驶	-16742
彼	-16743
沈	-16744
颜	-16745
牧	-16746
宿	-16747
埔	-16748
税	-16749
丘	-16750
纯	-16751
邮	-16752
残	-16753
涅	-16754
蒋	-16755
狱	-16756
伴	-16757
柯	-16758
搭	-16759
祭	-16760
促	-16761
勇	-16762
疆	-16763
壁	-16764
昆	-16765
允	-16766
迹	-16767
灯	-16768
厦	-16769
龄	-16770
隐	-16771
敏	-16772
亨	-16773
桃	-16774
答	-16775
汤	-16776
熙	-16777
汗	-16778
仔	-16779
键	-16780
恋	-16781
遍	-16782
殊	-16783
衡	-16784
糖	-16785
句	-16786
拆	-16787
宅	-16788
珍	-16789
燃	-16790
烧	-16791
茶	-16792
幅	-16793
迈	-16794
孟	-16795
棒	-16796
葬	-16797
幸	-16798
虚	-16799
侍	-16800
折	-16801
邓	-16802
娱	-16803
沉	-16804
紫	-16805
跑	-16806
坛	-16807
莲	-16808
赴	-16809
灰	-16810
奴	-16811
幻	-16812
械	-16813
塘	-16814
厚	-16815
孝	-16816
餐	-16817
篮	-16818
贤	-16819
敬	-16820
艘	-16821
叙	-16822
祥	-16823
碑	-16824
挑	-16825
筹	-16826
磁	-16827
沟	-16828
锋	-16829
储	-16830
慈	-16831
陕	-16832
遣	-16833
纬	-16834
晶	-16835
纵	-16836
虑	-16837
萧	-16838
姐	-16839
辉	-16840
倍	-16841
箭	-16842
疾	-16843
叛	-16844
违	-16845
谱	-16846
葛	-16847
棋	-16848
贾	-16849
柴	-16850
撞	-16851
慢	-16852
冯	-16853
峡	-16854
熟	-16855
驾	-16856
妮	-16857
苦	-16858
尖	-16859
〉	-16860
枚	-16861
〈	-16862
柳	-16863
』	-16864
艇	-16865
『	-16866
凡	-16867
仰	-16868
跳	-16869
仓	-16870
坂	-16871
遂	-16872
螺	-16873
伸	-16874
伏	-16875
匈	-16876
衔	-16877
朋	-16878
烟	-16879
纹	-16880
燕	-16881
刀	-16882
瓜	-16883
撒	-16884
°	-16885
桂	-16886
彭	-16887
缓	-16888
雕	-16889
贯	-16890
潘	-16891
忆	-16892
贺	-16893
猎	-16894
迅	-16895
慕	-16896
谓	-16897
勤	-16898
兽	-16899
吃	-16900
琳	-16901
靖	-16902
详	-16903
涯	-16904
累	-16905
趣	-16906
粒	-16907
鬼	-16908
番	-16909
罕	-16910
熊	-16911
鹿	-16912
猪	-16913
脂	-16914
泊	-16915
旺	-16916
掉	-16917
诚	-16918
梯	-16919
芳	-16920
挂	-16921
胶	-16922
屯	-16923
咸	-16924
屿	-16925
赠	-16926
饮	-16927
牠	-16928
硕	-16929
晨	-16930
肃	-16931
詹	-16932
秒	-16933
纷	-16934
惊	-16935
蛇	-16936
倾	-16937
禄	-16938
怪	-16939
屏	-16940
页	-16941
抚	-16942
芝	-16943
擎	-16944
凭	-16945
拓	-16946
杉	-16947
羊	-16948
浮	-16949
仲	-16950
乳	-16951
痛	-16952
凌	-16953
俊	-16954
隧	-16955
壳	-16956
锁	-16957
缅	-16958
玄	-16959
炎	-16960
诞	-16961
卓	-16962
坎	-16963
插	-16964
鼠	-16965
弘	-16966
慧	-16967
泥	-16968
腹	-16969
猫	-16970
晓	-16971
岳	-16972
杭	-16973
～	-16974
厄	-16975
圳	-16976
励	-16977
喀	-16978
崎	-16979
搜	-16980
豆	-16981
轰	-16982
旦	-16983
塑	-16984
藩	-16985
袁	-16986
甸	-16987
卿	-16988
乏	-16989
罚	-16990
跃	-16991
戒	-16992
畔	-16993
撰	-16994
宏	-16995
鸡	-16996
笑	-16997
玻	-16998
苗	-16999
扰	-17000
盗	-17001
斑	-17002
赐	-17003
彻	-17004
洗	-17005
丧	-17006
祝	-17007
狮	-17008
寄	-17009
牵	-17010
亭	-17011
泳	-17012
溶	-17013
阮	-17014
坊	-17015
阅	-17016
崔	-17017
袖	-17018
宙	-17019
乾	-17020
胁	-17021
尉	-17022
贞	-17023
é	-17024
循	-17025
妃	-17026
舒	-17027
焦	-17028
询	-17029
巧	-17030
叔	-17031
扮	-17032
茂	-17033
郊	-17034
耀	-17035
僧	-17036
仿	-17037
吨	-17038
悬	-17039
既	-17040
箱	-17041
枢	-17042
衰	-17043
疏	-17044
粤	-17045
霸	-17046
污	-17047
捐	-17048
鲤	-17049
串	-17050
彰	-17051
侦	-17052
弥	-17053
岗	-17054
盾	-17055
逢	-17056
壮	-17057
契	-17058
碳	-17059
勃	-17060
砲	-17061
摇	-17062
措	-17063
陨	-17064
剩	-17065
浩	-17066
床	-17067
氢	-17068
枝	-17069
浓	-17070
喷	-17071
厘	-17072
翁	-17073
滚	-17074
券	-17075
歧	-17076
搬	-17077
鸿	-17078
钦	-17079
湿	-17080
递	-17081
填	-17082
夷	-17083
拳	-17084
荒	-17085
裕	-17086
滩	-17087
帅	-17088
卜	-17089
飓	-17090
浅	-17091
鲍	-17092
傅	-17093
渔	-17094
贴	-17095
欲	-17096
丈	-17097
饭	-17098
润	-17099
窗	-17100
衍	-17101
邨	-17102
割	-17103
怒	-17104
笼	-17105
淮	-17106
粮	-17107
碍	-17108
旨	-17109
尸	-17110
寨	-17111
蝶	-17112
疫	-17113
灌	-17114
肥	-17115
侠	-17116
庞	-17117
垒	-17118
惯	-17119
抽	-17120
踪	-17121
欣	-17122
赶	-17123
洁	-17124
链	-17125
鹰	-17126
珊	-17127
冒	-17128
膜	-17129
狂	-17130
胎	-17131
辩	-17132
尝	-17133
斜	-17134
聘	-17135
悉	-17136
垂	-17137
狄	-17138
稿	-17139
迟	-17140
煤	-17141
贫	-17142
吾	-17143
儒	-17144
腾	-17145
粹	-17146
陀	-17147
孤	-17148
妈	-17149
廊	-17150
湘	-17151
握	-17152
栽	-17153
壤	-17154
闽	-17155
杆	-17156
彦	-17157
耗	-17158
柔	-17159
坪	-17160
粗	-17161
抢	-17162
&	-17163
揭	-17164
逆	-17165
娘	-17166
翠	-17167
貌	-17168
铺	-17169
净	-17170
朴	-17171
琉	-17172
俘	-17173
婆	-17174
堪	-17175
狗	-17176
潭	-17177
恰	-17178
寒	-17179
挪	-17180
翌	-17181
罢	-17182
魂	-17183
璃	-17184
薄	-17185
阔	-17186
辰	-17187
忍	-17188
龟	-17189
禅	-17190
丛	-17191
癌	-17192
扶	-17193
吐	-17194
赋	-17195
丙	-17196
稍	-17197
铭	-17198
遵	-17199
坝	-17200
堆	-17201
勋	-17202
刷	-17203
伪	-17204
脏	-17205
矩	-17206
逻	-17207
碎	-17208
淘	-17209
苑	-17210
诏	-17211
荐	-17212
鼻	-17213
矶	-17214
涵	-17215
颇	-17216
丑	-17217
怖	-17218
汪	-17219
姚	-17220
叠	-17221
鸣	-17222
添	-17223
偷	-17224
栏	-17225
押	-17226
胸	-17227
寸	-17228
惟	-17229
硫	-17230
弦	-17231
逮	-17232
嫌	-17233
祀	-17234
姬	-17235
劝	-17236
扫	-17237
卒	-17238
兆	-17239
歇	-17240
吏	-17241
屠	-17242
姻	-17243
讷	-17244
狼	-17245
蛛	-17246
奔	-17247
雀	-17248
夕	-17249
奎	-17250
诊	-17251
携	-17252
脊	-17253
芒	-17254
琼	-17255
趋	-17256
泡	-17257
酶	-17258
仇	-17259
醒	-17260
蒸	-17261
卑	-17262
嗣	-17263
叉	-17264
逼	-17265
─	-17266
腐	-17267
磨	-17268
偿	-17269
菊	-17270
卵	-17271
韵	-17272
猛	-17273
劫	-17274
涂	-17275
隋	-17276
勳	-17277
厢	-17278
稣	-17279
屈	-17280
拼	-17281
薛	-17282
娃	-17283
嫁	-17284
凝	-17285
斤	-17286
犬	-17287
债	-17288
掘	-17289
肖	-17290
敢	-17291
摆	-17292
鹤	-17293
闪	-17294
嘴	-17295
悲	-17296
醇	-17297
忙	-17298
矛	-17299
伽	-17300
氯	-17301
奶	-17302
棘	-17303
铸	-17304
凉	-17305
抑	-17306
碟	-17307
侨	-17308
曰	-17309
迦	-17310
礁	-17311
姊	-17312
妙	-17313
・	-17314
肌	-17315
忽	-17316
栋	-17317
汰	-17318
祠	-17319
贩	-17320
株	-17321
舱	-17322
雍	-17323
砖	-17324
旬	-17325
鼎	-17326
扁	-17327
翔	-17328
袋	-17329
碧	-17330
吹	-17331
穷	-17332
鲶	-17333
麟	-17334
怕	-17335
抱	-17336
炉	-17337
狭	-17338
稻	-17339
甫	-17340
’	-17341
拖	-17342
姜	-17343
巫	-17344
砂	-17345
谭	-17346
铃	-17347
尹	-17348
幽	-17349
宰	-17350
夹	-17351
绳	-17352
斐	-17353
蹈	-17354
汀	-17355
孕	-17356
寓	-17357
惨	-17358
抓	-17359
剪	-17360
丸	-17361
崩	-17362
圭	-17363
恭	-17364
盆	-17365
锺	-17366
鉴	-17367
鳞	-17368
沪	-17369
竟	-17370
虹	-17371
纤	-17372
邪	-17373
毅	-17374
讚	-17375
鄂	-17376
胆	-17377
闸	-17378
→	-17379
邑	-17380
丞	-17381
寮	-17382
豫	-17383
讬	-17384
埋	-17385
倡	-17386
斋	-17387
苹	-17388
弯	-17389
辨	-17390
驳	-17391
~	-17392
鲈	-17393
钻	-17394
廖	-17395
汝	-17396
蕨	-17397
魁	-17398
渊	-17399
蓬	-17400
囊	-17401
伙	-17402
雌	-17403
珀	-17404
雾	-17405
茅	-17406
蜂	-17407
滕	-17408
襄	-17409
巢	-17410
扣	-17411
荆	-17412
郁	-17413
咖	-17414
募	-17415
拨	-17416
斩	-17417
×	-17418
催	-17419
腺	-17420
茵	-17421
氨	-17422
吧	-17423
腔	-17424
吞	-17425
脸	-17426
蟹	-17427
陪	-17428
披	-17429
挖	-17430
奋	-17431
谦	-17432
暖	-17433
耕	-17434
溯	-17435
涌	-17436
肠	-17437
苯	-17438
酷	-17439
荡	-17440
劲	-17441
擅	-17442
鸭	-17443
聪	-17444
削	-17445
棉	-17446
蜜	-17447
拘	-17448
暨	-17449
吻	-17450
耐	-17451
瓶	-17452
崖	-17453
忘	-17454
铎	-17455
蕾	-17456
舟	-17457
漠	-17458
舌	-17459
愈	-17460
仕	-17461
噶	-17462
毗	-17463
卸	-17464
札	-17465
邱	-17466
帽	-17467
蒲	-17468
栗	-17469
帐	-17470
亥	-17471
斥	-17472
喇	-17473
颈	-17474
薇	-17475
渠	-17476
拱	-17477
巷	-17478
摧	-17479
掠	-17480
遥	-17481
谊	-17482
诱	-17483
姑	-17484
薪	-17485
碱	-17486
蜀	-17487
溃	-17488
昇	-17489
婴	-17490
矮	-17491
忧	-17492
淑	-17493
鲸	-17494
稀	-17495
胺	-17496
‘	-17497
扑	-17498
啡	-17499
顷	-17500
锐	-17501
踏	-17502
邵	-17503
炼	-17504
宠	-17505
筒	-17506
肺	-17507
贼	-17508
琪	-17509
愤	-17510
鑑	-17511
冕	-17512
烯	-17513
轩	-17514
穴	-17515
椎	-17516
爷	-17517
庶	-17518
藻	-17519
葵	-17520
甜	-17521
澄	-17522
哪	-17523
畅	-17524
梨	-17525
菩	-17526
桓	-17527
雇	-17528
亩	-17529
帆	-17530
宛	-17531
睡	-17532
漏	-17533
尿	-17534
掩	-17535
磷	-17536
惜	-17537
谁	-17538
宴	-17539
碰	-17540
豹	-17541
凶	-17542
玲	-17543
卧	-17544
吁	-17545
堤	-17546
怡	-17547
梵	-17548
榄	-17549
鹅	-17550
ー	-17551
绵	-17552
夸	-17553
誓	-17554
逸	-17555
弓	-17556
翅	-17557
慎	-17558
饼	-17559
褐	-17560
瓷	-17561
冀	-17562
腿	-17563
框	-17564
鹏	-17565
挡	-17566
瘤	-17567
棕	-17568
禾	-17569
肤	-17570
桌	-17571
贪	-17572
奸	-17573
仑	-17574
绑	-17575
樱	-17576
仆	-17577
奠	-17578
蹟	-17579
侣	-17580
唇	-17581
绥	-17582
伞	-17583
悠	-17584
姿	-17585
颠	-17586
桐	-17587
弄	-17588
芦	-17589
删	-17590
爪	-17591
骚	-17592
慰	-17593
臂	-17594
娶	-17595
柬	-17596
柄	-17597
贷	-17598
骗	-17599
肿	-17600
颖	-17601
霞	-17602
鸦	-17603
肢	-17604
谐	-17605
惧	-17606
牲	-17607
抛	-17608
抄	-17609
呎	-17610
恨	-17611
盈	-17612
纠	-17613
蝠	-17614
祯	-17615
辈	-17616
‧	-17617
厝	-17618
涛	-17619
肝	-17620
窄	-17621
缴	-17622
腰	-17623
颂	-17624
践	-17625
赌	-17626
烷	-17627
庚	-17628
腓	-17629
а	-17630
劣	-17631
扭	-17632
庇	-17633
肩	-17634
讼	-17635
祈	-17636
茎	-17637
哀	-17638
囚	-17639
蚀	-17640
汶	-17641
*	-17642
坟	-17643
殷	-17644
沼	-17645
辟	-17646
逾	-17647
吊	-17648
朵	-17649
猜	-17650
妖	-17651
饶	-17652
赔	-17653
滋	-17654
秩	-17655
浸	-17656
涡	-17657
炭	-17658
遮	-17659
の	-17660
厥	-17661
滤	-17662
忌	-17663
裸	-17664
谣	-17665
槽	-17666
镑	-17667
怎	-17668
搞	-17669
悦	-17670
瑜	-17671
坠	-17672
兔	-17673
坞	-17674
尘	-17675
跌	-17676
缝	-17677
肇	-17678
α	-17679
屡	-17680
ン	-17681
寇	-17682
爬	-17683
椅	-17684
荃	-17685
C	-17686
蓄	-17687
扇	-17688
嫩	-17689
埠	-17690
夥	-17691
祸	-17692
祐	-17693
凰	-17694
о	-17695
舆	-17696
尧	-17697
芙	-17698
芭	-17699
焚	-17700
鳄	-17701
氟	-17702
戌	-17703
挺	-17704
嵌	-17705
橡	-17706
窝	-17707
趁	-17708
虾	-17709
纺	-17710
虏	-17711
庸	-17712
惩	-17713
崙	-17714
眉	-17715
跋	-17716
猴	-17717
肾	-17718
禧	-17719
骏	-17720
讽	-17721
歉	-17722
贬	-17723
瑚	-17724
昔	-17725
擦	-17726
欠	-17727
酮	-17728
$	-17729
厉	-17730
柜	-17731
晴	-17732
茄	-17733
锅	-17734
浏	-17735
佑	-17736
鞋	-17737
蕃	-17738
剥	-17739
唤	-17740
眠	-17741
坤	-17742
萝	-17743
蜥	-17744
喻	-17745
谘	-17746
挤	-17747
旱	-17748
捉	-17749
勘	-17750
浆	-17751
踢	-17752
昏	-17753
泪	-17754
#	-17755
攀	-17756
履	-17757
娅	-17758
悟	-17759
铝	-17760
厌	-17761
冻	-17762
咏	-17763
漂	-17764
怨	-17765
苍	-17766
戊	-17767
胀	-17768
爸	-17769
橄	-17770
喝	-17771
钓	-17772
炳	-17773
狐	-17774
鲷	-17775
塌	-17776
醉	-17777
烂	-17778
滥	-17779
疯	-17780
丢	-17781
撑	-17782
赣	-17783
澎	-17784
躲	-17785
竣	-17786
璋	-17787
旭	-17788
厨	-17789
钩	-17790
臀	-17791
氮	-17792
缸	-17793
帖	-17794
歼	-17795
淳	-17796
睛	-17797
僚	-17798
裴	-17799
谨	-17800
荫	-17801
и	-17802
妥	-17803
锥	-17804
哺	-17805
辱	-17806
盲	-17807
熔	-17808
穗	-17809
糕	-17810
盒	-17811
匠	-17812
牺	-17813
冢	-17814
匪	-17815
镶	-17816
椒	-17817
棚	-17818
窑	-17819
垦	-17820
钠	-17821
凸	-17822
痕	-17823
畜	-17824
缔	-17825
榴	-17826
罩	-17827
斌	-17828
霖	-17829
涨	-17830
摔	-17831
巩	-17832
匣	-17833
勾	-17834
咒	-17835
酿	-17836
徙	-17837
矢	-17838
秉	-17839
欺	-17840
漆	-17841
鞍	-17842
阀	-17843
饱	-17844
覆	-17845
煌	-17846
阜	-17847
铅	-17848
贿	-17849
聂	-17850
酯	-17851
戚	-17852
岐	-17853
梭	-17854
麓	-17855
黛	-17856
喉	-17857
虞	-17858
糊	-17859
谴	-17860
虐	-17861
菱	-17862
蛙	-17863
い	-17864
嘛	-17865
饥	-17866
佣	-17867
哭	-17868
蛮	-17869
萤	-17870
瑶	-17871
畴	-17872
畏	-17873
庐	-17874
枫	-17875
牟	-17876
笃	-17877
漳	-17878
瞄	-17879
闹	-17880
瑙	-17881
浴	-17882
祷	-17883
拦	-17884
堵	-17885
酋	-17886
拯	-17887
á	-17888
淀	-17889
捲	-17890
闯	-17891
阎	-17892
辣	-17893
庵	-17894
帜	-17895
垣	-17896
谍	-17897
钧	-17898
驰	-17899
廿	-17900
悼	-17901
朔	-17902
笛	-17903
幢	-17904
绅	-17905
吗	-17906
彬	-17907
棠	-17908
韶	-17909
鲨	-17910
凹	-17911
椭	-17912
烦	-17913
橙	-17914
噪	-17915
翡	-17916
弧	-17917
彗	-17918
棍	-17919
蝙	-17920
乞	-17921
咀	-17922
楠	-17923
吓	-17924
氛	-17925
閒	-17926
瓣	-17927
壬	-17928
焰	-17929
赦	-17930
惑	-17931
滴	-17932
胃	-17933
硝	-17934
浑	-17935
蛤	-17936
磅	-17937
骤	-17938
湛	-17939
酱	-17940
颌	-17941
缀	-17942
膨	-17943
寅	-17944
瑰	-17945
濒	-17946
е	-17947
н	-17948
粘	-17949
饲	-17950
燥	-17951
牢	-17952
窃	-17953
冶	-17954
垃	-17955
黏	-17956
摘	-17957
樑	-17958
玫	-17959
禹	-17960
杏	-17961
掷	-17962
汁	-17963
剿	-17964
谕	-17965
沧	-17966
肆	-17967
骂	-17968
谥	-17969
槟	-17970
窟	-17971
劾	-17972
匿	-17973
缆	-17974
圾	-17975
淹	-17976
孜	-17977
邸	-17978
阐	-17979
纂	-17980
懂	-17981
陇	-17982
沦	-17983
艰	-17984
迄	-17985
诈	-17986
β	-17987
泌	-17988
闲	-17989
戎	-17990
畿	-17991
寡	-17992
鹃	-17993
濑	-17994
钥	-17995
芽	-17996
喊	-17997
′	-17998
滞	-17999
橘	-18000
闵	-18001
梓	-18002
冥	-18003
窦	-18004
汕	-18005
懿	-18006
ん	-18007
酰	-18008
奕	-18009
с	-18010
酬	-18011
簧	-18012
沛	-18013
侄	-18014
煮	-18015
孚	-18016
绰	-18017
稽	-18018
妆	-18019
渗	-18020
р	-18021
蔽	-18022
隙	-18023
绒	-18024
邹	-18025
锣	-18026
筋	-18027
浊	-18028
滇	-18029
勉	-18030
纱	-18031
绣	-18032
宦	-18033
寂	-18034
雁	-18035
峻	-18036
缠	-18037
鞭	-18038
谜	-18039
泄	-18040
酵	-18041
瀑	-18042
啤	-18043
焕	-18044
芯	-18045
鳗	-18046
諡	-18047
剌	-18048
蚁	-18049
倪	-18050
仗	-18051
嫡	-18052
竖	-18053
俞	-18054
ü	-18055
萍	-18056
敖	-18057
艳	-18058
【	-18059
】	-18060
曝	-18061
妓	-18062
墩	-18063
籤	-18064
癸	-18065
狩	-18066
伺	-18067
荔	-18068
殉	-18069
萌	-18070
颅	-18071
呢	-18072
乒	-18073
挝	-18074
诛	-18075
僱	-18076
岑	-18077
垄	-18078
榆	-18079
う	-18080
傲	-18081
墅	-18082
拾	-18083
锯	-18084
墟	-18085
烤	-18086
桶	-18087
淋	-18088
啦	-18089
碘	-18090
稚	-18091
茹	-18092
彝	-18093
缪	-18094
诵	-18095
臭	-18096
裹	-18097
缉	-18098
耿	-18099
吋	-18100
彪	-18101
咨	-18102
婉	-18103
蓉	-18104
钙	-18105
暑	-18106
蕴	-18107
哇	-18108
悔	-18109
犁	-18110
堕	-18111
狸	-18112
聊	-18113
衷	-18114
谏	-18115
赚	-18116
鳉	-18117
魅	-18118
竭	-18119
琦	-18120
舜	-18121
挽	-18122
账	-18123
肪	-18124
蹄	-18125
愚	-18126
樟	-18127
砍	-18128
粟	-18129
袜	-18130
骸	-18131
※	-18132
芜	-18133
羌	-18134
爽	-18135
т	-18136
牡	-18137
锤	-18138
淫	-18139
敷	-18140
诠	-18141
嵩	-18142
藓	-18143
蔚	-18144
趾	-18145
砌	-18146
咬	-18147
舖	-18148
亏	-18149
裤	-18150
弼	-18151
皖	-18152
豚	-18153
龚	-18154
轿	-18155
晰	-18156
罐	-18157
碗	-18158
绎	-18159
蔓	-18160
垫	-18161
舅	-18162
弊	-18163
硅	-18164
茜	-18165
ス	-18166
晖	-18167
壶	-18168
擒	-18169
嫔	-18170
匡	-18171
啸	-18172
禽	-18173
莞	-18174
衙	-18175
敲	-18176
薯	-18177
愉	-18178
澜	-18179
蜡	-18180
し	-18181
檀	-18182
廓	-18183
叹	-18184
樊	-18185
钞	-18186
イ	-18187
狙	-18188
•	-18189
í	-18190
膀	-18191
剖	-18192
娥	-18193
毓	-18194
罹	-18195
赎	-18196
哩	-18197
倭	-18198
霉	-18199
嘎	-18200
擢	-18201
扳	-18202
苔	-18203
淆	-18204
炒	-18205
钾	-18206
瞬	-18207
渤	-18208
ö	-18209
蜘	-18210
驼	-18211
褒	-18212
摊	-18213
飘	-18214
泼	-18215
钮	-18216
毙	-18217
孢	-18218
釜	-18219
ā	-18220
蔬	-18221
祇	-18222
杖	-18223
乓	-18224
匀	-18225
驹	-18226
厕	-18227
鲉	-18228
鳃	-18229
鹦	-18230
郝	-18231
壹	-18232
饿	-18233
钉	-18234
棱	-18235
в	-18236
兑	-18237
暹	-18238
胚	-18239
蕉	-18240
甄	-18241
渭	-18242
烹	-18243
俯	-18244
迭	-18245
岱	-18246
睿	-18247
祁	-18248
沁	-18249
к	-18250
邯	-18251
哨	-18252
崛	-18253
霜	-18254
猩	-18255
骆	-18256
抬	-18257
娄	-18258
檐	-18259
猿	-18260
脆	-18261
凑	-18262
ル	-18263
谅	-18264
梧	-18265
胤	-18266
沫	-18267
盔	-18268
ó	-18269
渝	-18270
か	-18271
榕	-18272
疲	-18273
卦	-18274
犀	-18275
挫	-18276
凿	-18277
刹	-18278
灿	-18279
邢	-18280
舶	-18281
巾	-18282
蝴	-18283
裙	-18284
沂	-18285
膝	-18286
た	-18287
宵	-18288
楷	-18289
莹	-18290
莽	-18291
莺	-18292
眷	-18293
晤	-18294
抹	-18295
妾	-18296
矣	-18297
梗	-18298
惹	-18299
疼	-18300
袍	-18301
汐	-18302
黔	-18303
驿	-18304
醛	-18305
蝉	-18306
苷	-18307
髓	-18308
膛	-18309
雯	-18310
搁	-18311
婷	-18312
倖	-18313
媛	-18314
蕊	-18315
è	-18316
桦	-18317
匾	-18318
雏	-18319
潟	-18320
傍	-18321
肚	-18322
铀	-18323
泗	-18324
溥	-18325
谟	-18326
簿	-18327
栅	-18328
笠	-18329
л	-18330
谎	-18331
峙	-18332
膏	-18333
喙	-18334
祺	-18335
蒿	-18336
湧	-18337
勿	-18338
琅	-18339
涩	-18340
卯	-18341
堀	-18342
ラ	-18343
棺	-18344
渴	-18345
汾	-18346
葱	-18347
耻	-18348
辜	-18349
睦	-18350
卤	-18351
磡	-18352
垩	-18353
敕	-18354
俩	-18355
溉	-18356
讳	-18357
桨	-18358
鳕	-18359
奢	-18360
溢	-18361
泾	-18362
渣	-18363
と	-18364
冤	-18365
肋	-18366
顽	-18367
闢	-18368
婿	-18369
您	-18370
敛	-18371
羞	-18372
耆	-18373
岚	-18374
洽	-18375
虔	-18376
幌	-18377
璧	-18378
俭	-18379
堰	-18380
峨	-18381
晃	-18382
殴	-18383
镍	-18384
洼	-18385
郸	-18386
侬	-18387
菁	-18388
羟	-18389
寝	-18390
瘦	-18391
绸	-18392
蜗	-18393
塾	-18394
缮	-18395
吟	-18396
μ	-18397
ア	-18398
啊	-18399
蚌	-18400
紮	-18401
佥	-18402
馨	-18403
摸	-18404
枯	-18405
ä	-18406
馈	-18407
慌	-18408
焊	-18409
晏	-18410
磺	-18411
烃	-18412
羚	-18413
闰	-18414
侏	-18415
揽	-18416
匙	-18417
嘲	-18418
埼	-18419
诬	-18420
谬	-18421
鹉	-18422
枣	-18423
胖	-18424
戟	-18425
苻	-18426
骄	-18427
泵	-18428
酉	-18429
掀	-18430
糟	-18431
钝	-18432
ト	-18433
刃	-18434
捞	-18435
麒	-18436
恼	-18437
丕	-18438
骼	-18439
リ	-18440
艮	-18441
竺	-18442
岔	-18443
芹	-18444
蔷	-18445
锂	-18446
僵	-18447
衬	-18448
衫	-18449
菸	-18450
锌	-18451
慾	-18452
氰	-18453
琛	-18454
岬	-18455
倚	-18456
棵	-18457
噬	-18458
梳	-18459
な	-18460
懋	-18461
兀	-18462
抒	-18463
鸠	-18464
瑾	-18465
萼	-18466
雳	-18467
皓	-18468
斧	-18469
菇	-18470
淞	-18471
磐	-18472
芮	-18473
腕	-18474
蝇	-18475
秃	-18476
枕	-18477
搏	-18478
咪	-18479
锈	-18480
忒	-18481
暱	-18482
に	-18483
娇	-18484
哉	-18485
鸽	-18486
憾	-18487
霹	-18488
ク	-18489
瀛	-18490
穹	-18491
兖	-18492
撕	-18493
稜	-18494
瞻	-18495
睹	-18496
舷	-18497
〔	-18498
戍	-18499
瑛	-18500
棣	-18501
芸	-18502
〕	-18503
兜	-18504
诃	-18505
祂	-18506
汞	-18507
り	-18508
靶	-18509
桩	-18510
浚	-18511
溜	-18512
鰕	-18513
嘱	-18514
溴	-18515
茱	-18516
捧	-18517
焉	-18518
抨	-18519
癒	-18520
衞	-18521
荀	-18522
洩	-18523
煽	-18524
蔗	-18525
洒	-18526
д	-18527
颚	-18528
苞	-18529
篡	-18530
蚕	-18531
缚	-18532
胰	-18533
嗜	-18534
鑫	-18535
蟾	-18536
霆	-18537
蛾	-18538
炬	-18539
祕	-18540
觅	-18541
鲀	-18542
捍	-18543
栈	-18544
ا	-18545
蜒	-18546
阙	-18547
曜	-18548
陡	-18549
韧	-18550
萃	-18551
恪	-18552
帛	-18553
熹	-18554
蜿	-18555
逗	-18556
る	-18557
糙	-18558
霄	-18559
玺	-18560
−	-18561
渥	-18562
隍	-18563
〜	-18564
灶	-18565
き	-18566
怜	-18567
稠	-18568
м	-18569
ま	-18570
孵	-18571
恺	-18572
沸	-18573
镰	-18574
祚	-18575
鍊	-18576
煞	-18577
锻	-18578
俾	-18579
翟	-18580
敞	-18581
瘟	-18582
黜	-18583
妄	-18584
砾	-18585
栓	-18586
昼	-18587
慨	-18588
莓	-18589
峭	-18590
偕	-18591
皂	-18592
绞	-18593
芥	-18594
崑	-18595
巳	-18596
淇	-18597
沽	-18598
妨	-18599
粪	-18600
篷	-18601
曙	-18602
鞑	-18603
筛	-18604
烛	-18605
钊	-18606
昊	-18607
箕	-18608
矽	-18609
咤	-18610
薰	-18611
颐	-18612
埤	-18613
晕	-18614
赁	-18615
躯	-18616
麾	-18617
酚	-18618
蚤	-18619
镖	-18620
く	-18621
屑	-18622
俸	-18623
侮	-18624
硼	-18625
羁	-18626
溺	-18627
γ	-18628
恕	-18629
玮	-18630
潼	-18631
刮	-18632
邺	-18633
辗	-18634
肽	-18635
镁	-18636
泻	-18637
笨	-18638
靼	-18639
さ	-18640
乍	-18641
ッ	-18642
皋	-18643
饷	-18644
斡	-18645
娟	-18646
蚊	-18647
膳	-18648
苣	-18649
咽	-18650
盎	-18651
桢	-18652
禺	-18653
鳅	-18654
鹭	-18655
曦	-18656
泣	-18657
龛	-18658
吡	-18659
妍	-18660
堇	-18661
莆	-18662
隅	-18663
挠	-18664
は	-18665
楞	-18666
臧	-18667
晒	-18668
椰	-18669
靴	-18670
π	-18671
舵	-18672
酪	-18673
彤	-18674
□	-18675
豁	-18676
譬	-18677
贱	-18678
沥	-18679
沐	-18680
陞	-18681
挟	-18682
帘	-18683
瘫	-18684
у	-18685
纶	-18686
泸	-18687
傀	-18688
瘾	-18689
砸	-18690
驯	-18691
钜	-18692
裘	-18693
铉	-18694
暮	-18695
诅	-18696
陛	-18697
吵	-18698
埗	-18699
绮	-18700
鲑	-18701
衢	-18702
滙	-18703
氦	-18704
炫	-18705
阱	-18706
δ	-18707
こ	-18708
疹	-18709
赂	-18710
苟	-18711
柠	-18712
坜	-18713
诰	-18714
σ	-18715
鎌	-18716
儡	-18717
瞒	-18718
蓟	-18719
扔	-18720
が	-18721
佬	-18722
鞘	-18723
倩	-18724
煎	-18725
韬	-18726
夭	-18727
\	-18728
幡	-18729
萱	-18730
庾	-18731
绶	-18732
シ	-18733
峪	-18734
镀	-18735
沮	-18736
戮	-18737
汴	-18738
腥	-18739
み	-18740
呆	-18741
榈	-18742
葫	-18743
λ	-18744
拢	-18745
挣	-18746
毯	-18747
巅	-18748
淄	-18749
伶	-18750
п	-18751
ら	-18752
炯	-18753
隘	-18754
靡	-18755
@	-18756
绫	-18757
羲	-18758
柑	-18759
磊	-18760
奚	-18761
濠	-18762
醚	-18763
槛	-18764
芋	-18765
槐	-18766
琵	-18767
湄	-18768
嘻	-18769
钛	-18770
鼬	-18771
叱	-18772
瞩	-18773
钵	-18774
翘	-18775
お	-18776
晟	-18777
炀	-18778
巖	-18779
タ	-18780
扯	-18781
姨	-18782
萎	-18783
檬	-18784
旷	-18785
讶	-18786
て	-18787
鄞	-18788
矫	-18789
陌	-18790
琶	-18791
鸾	-18792
燮	-18793
カ	-18794
咎	-18795
崁	-18796
陋	-18797
淤	-18798
垮	-18799
鸥	-18800
冉	-18801
娴	-18802
醋	-18803
跪	-18804
胥	-18805
幂	-18806
笋	-18807
拷	-18808
鹫	-18809
証	-18810
â	-18811
恤	-18812
翊	-18813
锚	-18814
ç	-18815
壕	-18816
蒜	-18817
掳	-18818
痪	-18819
耦	-18820
沾	-18821
肛	-18822
蒐	-18823
稷	-18824
铠	-18825
桅	-18826
ジ	-18827
ロ	-18828
苇	-18829
悍	-18830
佚	-18831
寰	-18832
毘	-18833
あ	-18834
朽	-18835
殡	-18836
弈	-18837
憩	-18838
苛	-18839
卉	-18840
瞿	-18841
诫	-18842
拐	-18843
皱	-18844
渲	-18845
笙	-18846
篆	-18847
绛	-18848
蔑	-18849
钰	-18850
漕	-18851
珂	-18852
蕙	-18853
聆	-18854
诡	-18855
釉	-18856
峇	-18857
竿	-18858
揆	-18859
涧	-18860
悚	-18861
濮	-18862
莒	-18863
剃	-18864
懒	-18865
臼	-18866
侃	-18867
悄	-18868
汲	-18869
埕	-18870
啶	-18871
岂	-18872
铬	-18873
○	-18874
谤	-18875
颍	-18876
悖	-18877
闷	-18878
ち	-18879
荧	-18880
昙	-18881
糯	-18882
霰	-18883
孺	-18884
炽	-18885
骇	-18886
坍	-18887
昧	-18888
ε	-18889
饪	-18890
睐	-18891
驸	-18892
崭	-18893
帧	-18894
甥	-18895
苓	-18896
媚	-18897
簇	-18898
琰	-18899
臻	-18900
隼	-18901
衮	-18902
贮	-18903
杞	-18904
愁	-18905
掣	-18906
泷	-18907
盼	-18908
甬	-18909
骁	-18910
ο	-18911
ω	-18912
哆	-18913
芷	-18914
マ	-18915
馏	-18916
铨	-18917
捆	-18918
跆	-18919
褚	-18920
陂	-18921
疟	-18922
谒	-18923
蛱	-18924
昱	-18925
踩	-18926
毋	-18927
珪	-18928
攸	-18929
傻	-18930
桧	-18931
聋	-18932
砷	-18933
镐	-18934
←	-18935
辕	-18936
г	-18937
ド	-18938
僖	-18939
谚	-18940
琐	-18941
侗	-18942
撃	-18943
烘	-18944
灼	-18945
殆	-18946
鲽	-18947
じ	-18948
歪	-18949
硒	-18950
铵	-18951
妒	-18952
撼	-18953
皈	-18954
趟	-18955
葆	-18956
銮	-18957
挚	-18958
躁	-18959
遏	-18960
圻	-18961
傣	-18962
腻	-18963
侈	-18964
赈	-18965
椿	-18966
樵	-18967
畸	-18968
濬	-18969
绯	-18970
羧	-18971
茉	-18972
蜴	-18973
鳌	-18974
贻	-18975
ل	-18976
〇	-18977
レ	-18978
薹	-18979
ú	-18980
跤	-18981
褶	-18982
楔	-18983
瓯	-18984
±	-18985
雉	-18986
恳	-18987
筠	-18988
唸	-18989
铲	-18990
绢	-18991
锰	-18992
叡	-18993
瀚	-18994
卅	-18995
驴	-18996
魄	-18997
峯	-18998
潞	-18999
瞳	-19000
靳	-19001
倦	-19002
鳚	-19003
沅	-19004
媳	-19005
弩	-19006
脾	-19007
辍	-19008
ν	-19009
颊	-19010
ρ	-19011
à	-19012
浒	-19013
匆	-19014
馅	-19015
炜	-19016
勐	-19017
碉	-19018
桔	-19019
拌	-19020
捣	-19021
焘	-19022
圩	-19023
遴	-19024
栉	-19025
飙	-19026
圃	-19027
喃	-19028
耍	-19029
つ	-19030
呕	-19031
禀	-19032
潍	-19033
胱	-19034
τ	-19035
甦	-19036
肴	-19037
搅	-19038
喘	-19039
刁	-19040
愧	-19041
杠	-19042
莘	-19043
琮	-19044
迥	-19045
б	-19046
フ	-19047
拂	-19048
澈	-19049
鹊	-19050
婢	-19051
も	-19052
窥	-19053
洮	-19054
躺	-19055
濂	-19056
颤	-19057
窜	-19058
哑	-19059
を	-19060
铂	-19061
蚜	-19062
裳	-19063
姪	-19064
膺	-19065
й	-19066
琥	-19067
觐	-19068
诽	-19069
鳎	-19070
蚂	-19071
菅	-19072
宸	-19073
襟	-19074
槃	-19075
耸	-19076
浜	-19077
ô	-19078
轭	-19079
渎	-19080
朕	-19081
籽	-19082
荚	-19083
ミ	-19084
昨	-19085
辙	-19086
丫	-19087
遁	-19088
狠	-19089
蟒	-19090
邝	-19091
翎	-19092
邕	-19093
瑕	-19094
夔	-19095
柿	-19096
潢	-19097
猷	-19098
だ	-19099
乂	-19100
浇	-19101
蠕	-19102
蠢	-19103
洙	-19104
粥	-19105
冗	-19106
衅	-19107
吠	-19108
熵	-19109
晦	-19110
痴	-19111
で	-19112
枋	-19113
嫉	-19114
秽	-19115
れ	-19116
殭	-19117
筝	-19118
捡	-19119
ς	-19120
吼	-19121
妳	-19122
扈	-19123
キ	-19124
钴	-19125
僻	-19126
畑	-19127
豔	-19128
掖	-19129
骠	-19130
‰	-19131
エ	-19132
莪	-19133
溧	-19134
オ	-19135
弋	-19136
忻	-19137
逵	-19138
や	-19139
闾	-19140
茛	-19141
ə	-19142
俨	-19143
я	-19144
曳	-19145
疮	-19146
ι	-19147
螂	-19148
貂	-19149
忏	-19150
昕	-19151
瓒	-19152
奘	-19153
藔	-19154
唑	-19155
す	-19156
氹	-19157
阡	-19158
栎	-19159
酥	-19160
惕	-19161
薑	-19162
岷	-19163
斛	-19164
诀	-19165
榔	-19166
钏	-19167
コ	-19168
絮	-19169
薨	-19170
羰	-19171
孀	-19172
涤	-19173
昶	-19174
谛	-19175
妊	-19176
拙	-19177
☆	-19178
鲱	-19179
跻	-19180
剔	-19181
虢	-19182
蛟	-19183
逍	-19184
鮨	-19185
癫	-19186
捏	-19187
咳	-19188
弑	-19189
涿	-19190
醣	-19191
鹘	-19192
φ	-19193
っ	-19194
熄	-19195
渚	-19196
嶋	-19197
轼	-19198
巍	-19199
戛	-19200
偃	-19201
鸢	-19202
佟	-19203
璜	-19204
眺	-19205
栾	-19206
沌	-19207
樽	-19208
鸮	-19209
慷	-19210
叭	-19211
暇	-19212
宕	-19213
滦	-19214
佃	-19215
瑄	-19216
匝	-19217
巽	-19218
š	-19219
盏	-19220
孛	-19221
迺	-19222
囱	-19223
奄	-19224
扼	-19225
颓	-19226
灏	-19227
烽	-19228
璐	-19229
肘	-19230
螯	-19231
伎	-19232
叮	-19233
阇	-19234
镛	-19235
煜	-19236
钨	-19237
砚	-19238
琏	-19239
郢	-19240
篱	-19241
荟	-19242
ブ	-19243
檗	-19244
坳	-19245
迂	-19246
グ	-19247
歙	-19248
哗	-19249
贲	-19250
鄙	-19251
叻	-19252
馥	-19253
璇	-19254
蓼	-19255
髅	-19256
荥	-19257
尬	-19258
餵	-19259
讹	-19260
篠	-19261
缕	-19262
檎	-19263
沱	-19264
黯	-19265
湳	-19266
脖	-19267
掺	-19268
妲	-19269
氓	-19270
皿	-19271
诣	-19272
憎	-19273
颉	-19274
κ	-19275
炙	-19276
牒	-19277
璟	-19278
鞠	-19279
サ	-19280
チ	-19281
涟	-19282
仄	-19283
滔	-19284
谯	-19285
ī	-19286
旻	-19287
惰	-19288
茫	-19289
擂	-19290
胪	-19291
咲	-19292
昵	-19293
珲	-19294
麝	-19295
け	-19296
亵	-19297
峦	-19298
倘	-19299
婺	-19300
眶	-19301
鄱	-19302
骅	-19303
骥	-19304
炔	-19305
璞	-19306
匮	-19307
镕	-19308
丐	-19309
钳	-19310
榨	-19311
瞰	-19312
ナ	-19313
懈	-19314
ы	-19315
ن	-19316
荼	-19317
涪	-19318
骷	-19319
尻	-19320
浔	-19321
碁	-19322
抖	-19323
艋	-19324
挨	-19325
蝗	-19326
劈	-19327
缎	-19328
舺	-19329
呀	-19330
啄	-19331
怠	-19332
磋	-19333
θ	-19334
嗅	-19335
テ	-19336
拇	-19337
歳	-19338
掸	-19339
祉	-19340
ч	-19341
尴	-19342
麴	-19343
ウ	-19344
槓	-19345
蘑	-19346
婕	-19347
稼	-19348
玟	-19349
ム	-19350
缙	-19351
呐	-19352
哮	-19353
旌	-19354
潇	-19355
嫂	-19356
唔	-19357
^	-19358
ر	-19359
纥	-19360
卞	-19361
ь	-19362
汛	-19363
劭	-19364
岖	-19365
з	-19366
酗	-19367
鲫	-19368
咐	-19369
秤	-19370
デ	-19371
撇	-19372
屎	-19373
蠍	-19374
パ	-19375
诲	-19376
亘	-19377
ャ	-19378
酌	-19379
骧	-19380
饵	-19381
鳖	-19382
よ	-19383
わ	-19384
崧	-19385
淦	-19386
乖	-19387
祜	-19388
亢	-19389
熏	-19390
嚣	-19391
铿	-19392
罂	-19393
艏	-19394
ひ	-19395
绊	-19396
ょ	-19397
蝽	-19398
覃	-19399
佗	-19400
槿	-19401
赃	-19402
凋	-19403
嬉	-19404
å	-19405
ê	-19406
ñ	-19407
柚	-19408
蚬	-19409
睢	-19410
珉	-19411
唆	-19412
睾	-19413
螈	-19414
醮	-19415
贰	-19416
プ	-19417
睽	-19418
讥	-19419
葺	-19420
躬	-19421
枭	-19422
鱇	-19423
ィ	-19424
嗓	-19425
岘	-19426
佘	-19427
咕	-19428
ë	-19429
犍	-19430
鵰	-19431
嬴	-19432
蝨	-19433
η	-19434
笈	-19435
冼	-19436
癖	-19437
娠	-19438
魮	-19439
彷	-19440
泓	-19441
迳	-19442
え	-19443
蝎	-19444
痒	-19445
滁	-19446
鬣	-19447
鮟	-19448
谔	-19449
靓	-19450
ニ	-19451
阗	-19452
锑	-19453
髻	-19454
ø	-19455
纾	-19456
粲	-19457
査	-19458
ハ	-19459
钗	-19460
●	-19461
バ	-19462
瓮	-19463
痫	-19464
遐	-19465
羯	-19466
碌	-19467
ي	-19468
铯	-19469
鹛	-19470
堑	-19471
蜱	-19472
喆	-19473
烨	-19474
凳	-19475
澡	-19476
恬	-19477
惶	-19478
鸫	-19479
羹	-19480
耽	-19481
聿	-19482
徘	-19483
熬	-19484
ʁ	-19485
堺	-19486
橇	-19487
墘	-19488
槭	-19489
柩	-19490
徊	-19491
甩	-19492
兮	-19493
槌	-19494
脩	-19495
鲆	-19496
泮	-19497
浣	-19498
歹	-19499
蕈	-19500
摹	-19501
醯	-19502
寥	-19503
鳢	-19504
踝	-19505
轶	-19506
湍	-19507
漩	-19508
ß	-19509
燧	-19510
亳	-19511
灸	-19512
秧	-19513
筱	-19514
玖	-19515
愍	-19516
烁	-19517
忱	-19518
淖	-19519
苳	-19520
م	-19521
渍	-19522
叩	-19523
腋	-19524
窖	-19525
梢	-19526
鲿	-19527
龈	-19528
缢	-19529
蒴	-19530
窘	-19531
锭	-19532
澧	-19533
俏	-19534
怯	-19535
捻	-19536
讫	-19537
羨	-19538
赓	-19539
洵	-19540
ō	-19541
惇	-19542
漱	-19543
窒	-19544
郴	-19545
蟠	-19546
ろ	-19547
ガ	-19548
鸯	-19549
撮	-19550
荻	-19551
铳	-19552
喂	-19553
娩	-19554
疵	-19555
筲	-19556
崴	-19557
弛	-19558
垅	-19559
寞	-19560
骰	-19561
č	-19562
悯	-19563
杵	-19564
氙	-19565
珮	-19566
脐	-19567
ダ	-19568
藜	-19569
镳	-19570
ュ	-19571
屁	-19572
簷	-19573
甯	-19574
洱	-19575
琨	-19576
僭	-19577
珑	-19578
桁	-19579
鼩	-19580
唾	-19581
钍	-19582
妤	-19583
胄	-19584
呤	-19585
碇	-19586
蜕	-19587
蓓	-19588
蔻	-19589
鼐	-19590
狡	-19591
痊	-19592
碾	-19593
肄	-19594
メ	-19595
呜	-19596
晷	-19597
轧	-19598
凛	-19599
脇	-19600
筵	-19601
钼	-19602
鸳	-19603
锄	-19604
و	-19605
戳	-19606
俑	-19607
邬	-19608
茧	-19609
慑	-19610
ビ	-19611
溅	-19612
せ	-19613
晔	-19614
畠	-19615
脷	-19616
攘	-19617
堃	-19618
宥	-19619
拣	-19620
胫	-19621
邳	-19622
娼	-19623
歆	-19624
缇	-19625
踞	-19626
ɛ	-19627
榉	-19628
毡	-19629
盂	-19630
娑	-19631
阉	-19632
钺	-19633
姥	-19634
掏	-19635
箴	-19636
闇	-19637
挛	-19638
琢	-19639
鞅	-19640
嚼	-19641
猕	-19642
揉	-19643
楹	-19644
烫	-19645
驭	-19646
楣	-19647
⁄	-19648
叟	-19649
燊	-19650
诹	-19651
铮	-19652
絃	-19653
筏	-19654
挞	-19655
谪	-19656
疣	-19657
煦	-19658
闺	-19659
橱	-19660
绚	-19661
孽	-19662
矗	-19663
骊	-19664
枉	-19665
榛	-19666
璘	-19667
俳	-19668
珈	-19669
荠	-19670
辄	-19671
恃	-19672
蜻	-19673
钡	-19674
罔	-19675
扒	-19676
荨	-19677
逅	-19678
鲛	-19679
疡	-19680
琬	-19681
蜓	-19682
邂	-19683
氾	-19684
猝	-19685
隽	-19686
嘌	-19687
驮	-19688
婪	-19689
腱	-19690
悫	-19691
铢	-19692
鲹	-19693
箔	-19694
鱿	-19695
炱	-19696
め	-19697
珞	-19698
粽	-19699
瞎	-19700
铍	-19701
镭	-19702
缨	-19703
锟	-19704
辫	-19705
蝰	-19706
澍	-19707
酝	-19708
嘧	-19709
茸	-19710
蕲	-19711
ェ	-19712
榻	-19713
獭	-19714
钚	-19715
霑	-19716
雒	-19717
彧	-19718
霓	-19719
咙	-19720
荪	-19721
阆	-19722
蚓	-19723
侷	-19724
榭	-19725
肱	-19726
檄	-19727
畲	-19728
嬷	-19729
岙	-19730
抉	-19731
爹	-19732
莅	-19733
谿	-19734
鹟	-19735
岌	-19736
ē	-19737
ゅ	-19738
佼	-19739
拮	-19740
钹	-19741
糸	-19742
菠	-19743
勖	-19744
祗	-19745
镉	-19746
鹬	-19747
ū	-19748
俐	-19749
啮	-19750
鹳	-19751
腈	-19752
锢	-19753
庑	-19754
赉	-19755
粱	-19756
懦	-19757
脓	-19758
»	-19759
罄	-19760
虱	-19761
鮠	-19762
焙	-19763
纣	-19764
溼	-19765
噜	-19766
沔	-19767
谳	-19768
モ	-19769
螨	-19770
姗	-19771
栃	-19772
佤	-19773
铰	-19774
匕	-19775
ã	-19776
滘	-19777
夯	-19778
戡	-19779
腭	-19780
赘	-19781
х	-19782
弔	-19783
醍	-19784
ب	-19785
烙	-19786
杲	-19787
吩	-19788
硖	-19789
菀	-19790
帚	-19791
诟	-19792
骈	-19793
锷	-19794
矾	-19795
鹈	-19796
⋯	-19797
恽	-19798
蛹	-19799
獾	-19800
蛎	-19801
豌	-19802
郧	-19803
鲗	-19804
嬅	-19805
栩	-19806
迩	-19807
喧	-19808
殇	-19809
艉	-19810
疽	-19811
佰	-19812
俚	-19813
哔	-19814
蹲	-19815
弁	-19816
洄	-19817
羣	-19818
蠡	-19819
噩	-19820
暧	-19821
醃	-19822
醴	-19823
钒	-19824
瑠	-19825
寛	-19826
芎	-19827
氐	-19828
啼	-19829
鮡	-19830
勺	-19831
紊	-19832
骞	-19833
媲	-19834
漾	-19835
疚	-19836
î	-19837
炖	-19838
醐	-19839
垢	-19840
瑭	-19841
疤	-19842
蛭	-19843
ズ	-19844
觊	-19845
黍	-19846
鲲	-19847
痉	-19848
鳝	-19849
脍	-19850
颢	-19851
蜈	-19852
鄢	-19853
遽	-19854
犊	-19855
羔	-19856
膦	-19857
蛊	-19858
疱	-19859
ł	-19860
烬	-19861
铋	-19862
鳟	-19863
鬃	-19864
鱲	-19865
峒	-19866
彿	-19867
悌	-19868
饺	-19869
儁	-19870
嫖	-19871
酐	-19872
蚣	-19873
眩	-19874
æ	-19875
厮	-19876
瑁	-19877
轸	-19878
嗽	-19879
钯	-19880
呵	-19881
纭	-19882
«	-19883
徕	-19884
戦	-19885
瓘	-19886
糜	-19887
螳	-19888
徳	-19889
恂	-19890
涝	-19891
ど	-19892
漓	-19893
褫	-19894
鄚	-19895
ゆ	-19896
琊	-19897
镧	-19898
ć	-19899
佯	-19900
惮	-19901
杓	-19902
靛	-19903
鲂	-19904
苋	-19905
鲡	-19906
咯	-19907
萩	-19908
ц	-19909
甕	-19910
俪	-19911
孪	-19912
袒	-19913
栢	-19914
昀	-19915
ı	-19916
峤	-19917
柘	-19918
诘	-19919
υ	-19920
憬	-19921
玑	-19922
颔	-19923
庠	-19924
猬	-19925
皎	-19926
珩	-19927
繇	-19928
昴	-19929
揣	-19930
稔	-19931
绽	-19932
诩	-19933
殁	-19934
舫	-19935
邛	-19936
이	-19937
俟	-19938
骡	-19939
ノ	-19940
谗	-19941
鯙	-19942
鲳	-19943
痺	-19944
茴	-19945
ш	-19946
≤	-19947
漪	-19948
珥	-19949
―	-19950
祢	-19951
鼹	-19952
甾	-19953
帷	-19954
汹	-19955
凄	-19956
蜍	-19957
鸵	-19958
螃	-19959
ŋ	-19960
殓	-19961
ゃ	-19962
湟	-19963
筷	-19964
敍	-19965
沭	-19966
辻	-19967
蝮	-19968
娣	-19969
菏	-19970
戸	-19971
湮	-19972
赟	-19973
铣	-19974
颙	-19975
囉	-19976
歎	-19977
掾	-19978
焯	-19979
谌	-19980
赡	-19981
痘	-19982
缵	-19983
铊	-19984
ζ	-19985
瑯	-19986
驷	-19987
蔺	-19988
遶	-19989
镠	-19990
そ	-19991
觎	-19992
韭	-19993
羡	-19994
锆	-19995
睫	-19996
隗	-19997
د	-19998
ツ	-19999
咄	-20000
祎	-20001
廍	-20002
淅	-20003
癡	-20004
镌	-20005
阈	-20006
箫	-20007
嫦	-20008
痰	-20009
隈	-20010
郦	-20011
笺	-20012
蠔	-20013
逞	-20014
ご	-20015
嵊	-20016
萸	-20017
ば	-20018
瓢	-20019
喵	-20020
㑩	-20021
珅	-20022
匐	-20023
癣	-20024
斟	-20025
拚	-20026
摒	-20027
耘	-20028
顗	-20029
垭	-20030
睁	-20031
憧	-20032
裨	-20033
顼	-20034
诋	-20035
闫	-20036
晁	-20037
ㄧ	-20038
惫	-20039
邾	-20040
厩	-20041
靺	-20042
郤	-20043
★	-20044
嵇	-20045
璿	-20046
趴	-20047
盯	-20048
簪	-20049
踊	-20050
ョ	-20051
邃	-20052
阖	-20053
阑	-20054
郓	-20055
鞨	-20056
邠	-20057
涸	-20058
様	-20059
鲭	-20060
锗	-20061
扛	-20062
啉	-20063
邈	-20064
闳	-20065
辇	-20066
ワ	-20067
勅	-20068
涣	-20069
馒	-20070
亟	-20071
渺	-20072
砦	-20073
剷	-20074
廪	-20075
霁	-20076
绷	-20077
鲻	-20078
س	-20079
诒	-20080
栱	-20081
瑗	-20082
荞	-20083
霾	-20084
奭	-20085
幔	-20086
垛	-20087
鲇	-20088
侥	-20089
撷	-20090
柝	-20091
糠	-20092
嘘	-20093
ɔ	-20094
锕	-20095
鲟	-20096
嫣	-20097
嵯	-20098
涕	-20099
瘠	-20100
縻	-20101
屹	-20102
偈	-20103
咱	-20104
囤	-20105
奂	-20106
蒯	-20107
饬	-20108
猖	-20109
澹	-20110
蹦	-20111
攒	-20112
胭	-20113
忿	-20114
ふ	-20115
郯	-20116
猥	-20117
闿	-20118
匍	-20119
辎	-20120
髦	-20121
玳	-20122
ず	-20123
褪	-20124
桀	-20125
乩	-20126
榷	-20127
炊	-20128
砥	-20129
锵	-20130
砺	-20131
箍	-20132
萘	-20133
­	-20134
孰	-20135
牍	-20136
碲	-20137
玠	-20138
県	-20139
ś	-20140
晞	-20141
澂	-20142
琇	-20143
盱	-20144
笏	-20145
刍	-20146
ほ	-20147
郗	-20148
帑	-20149
梶	-20150
璠	-20151
锜	-20152
怂	-20153
恿	-20154
肮	-20155
钇	-20156
専	-20157
棻	-20158
綦	-20159
痢	-20160
铷	-20161
浬	-20162
珙	-20163
妞	-20164
璨	-20165
đ	-20166
锶	-20167
า	-20168
哄	-20169
拗	-20170
ж	-20171
稗	-20172
轲	-20173
ा	-20174
珣	-20175
茗	-20176
铐	-20177
獠	-20178
腌	-20179
苌	-20180
䌽	-20181
[...]
