<pad>	0
<unk>	0
[CLS]	0
[SEP]	0
[MASK]	0
(	0
)	0
”	0
-	0
.	0
–	0
£	0
€	0
▁,	-0
▁的	-1
▁。	-2
▁年	-3
▁1	-4
▁、	-5
▁在	-6
▁一	-7
▁为	-8
▁中	-9
▁是	-10
▁国	-11
▁人	-12
▁2	-13
▁于	-14
▁大	-15
▁有	-16
▁和	-17
▁以	-18
▁月	-19
▁日	-20
▁20	-21
▁后	-22
▁了	-23
▁学	-24
▁时	-25
▁19	-26
▁个	-27
▁会	-28
▁地	-29
▁成	-30
▁上	-31
▁公	-32
▁不	-33
▁出	-34
▁行	-35
▁他	-36
▁部	-37
▁斯	-38
▁与	-39
▁区	-40
▁之	-41
▁名	-42
▁发	-43
▁其	-44
▁主	-45
▁作	-46
▁生	-47
▁尔	-48
▁分	-49
▁方	-50
▁到	-51
▁用	-52
▁下	-53
▁西	-54
▁:	-55
▁第	-56
▁》	-57
▁《	-58
▁而	-59
▁家	-60
▁位	-61
▁及	-62
▁军	-63
▁由	-64
▁里	-65
▁并	-66
▁民	-67
▁被	-68
▁法	-69
▁本	-70
▁南	-71
▁市	-72
▁·	-73
▁长	-74
▁这	-75
▁来	-76
▁同	-77
▁3	-78
▁多	-79
▁可	-80
▁政	-81
▁对	-82
▁子	-83
▁201	-84
▁自	-85
▁动	-86
▁任	-87
▁开	-88
▁特	-89
▁文	-90
▁北	-91
▁高	-92
▁「	-93
▁」	-94
▁加	-95
▁德	-96
▁员	-97
▁新	-98
▁东	-99
▁最	-100
▁海	-101
▁台	-102
▁克	-103
▁亚	-104
▁前	-105
▁也	-106
▁利	-107
▁平	-108
▁代	-109
▁等	-110
▁所	-111
▁面	-112
▁200	-113
▁三	-114
▁度	-115
▁电	-116
▁因	-117
▁美	-118
▁建	-119
▁经	-120
▁此	-121
▁得	-122
▁道	-123
▁现	-124
▁进	-125
▁物	-126
▁“	-127
▁过	-128
▁要	-129
▁机	-130
▁间	-131
▁内	-132
▁事	-133
▁至	-134
▁教	-135
▁山	-136
▁立	-137
▁路	-138
▁当	-139
▁车	-140
▁拉	-141
▁小	-142
▁入	-143
▁口	-144
▁将	-145
▁战	-146
▁体	-147
▁能	-148
▁世	-149
▁二	-150
▁4	-151
▁理	-152
▁工	-153
▁该	-154
▁州	-155
▁合	-156
▁表	-157
▁外	-158
▁定	-159
▁马	-160
▁期	-161
▁天	-162
▁赛	-163
▁制	-164
▁业	-165
▁但	-166
▁化	-167
▁球	-168
▁十	-169
▁科	-170
▁次	-171
▁5	-172
▁种	-173
▁使	-174
▁全	-175
▁;	-176
▁布	-177
▁场	-178
▁通	-179
▁称	-180
▁性	-181
▁队	-182
▁者	-183
▁共	-184
▁线	-185
▁总	-186
▁设	-187
▁县	-188
▁式	-189
▁数	-190
▁重	-191
▁系	-192
▁都	-193
▁罗	-194
▁两	-195
▁安	-196
▁力	-197
▁6	-198
▁士	-199
▁联	-200
▁"	-201
▁站	-202
▁院	-203
▁比	-204
▁基	-205
▁原	-206
▁相	-207
▁城	-208
▁王	-209
▁达	-210
▁s	-211
▁运	-212
▁明	-213
▁省	-214
▁米	-215
▁属	-216
▁目	-217
▁司	-218
▁英	-219
▁水	-220
▁正	-221
▁治	-222
▁7	-223
▁金	-224
▁尼	-225
▁格	-226
▁华	-227
▁号	-228
▁统	-229
▁府	-230
▁关	-231
▁c	-232
▁组	-233
▁兰	-234
▁10	-235
▁约	-236
▁选	-237
▁a	-238
▁们	-239
▁8	-240
▁镇	-241
▁四	-242
▁或	-243
▁列	-244
▁如	-245
▁计	-246
▁元	-247
▁港	-248
▁起	-249
▁巴	-250
▁影	-251
▁从	-252
▁语	-253
▁产	-254
▁首	-255
▁女	-256
▁提	-257
▁常	-258
▁星	-259
▁阿	-260
▁着	-261
▁改	-262
▁演	-263
▁9	-264
▁林	-265
▁议	-266
▁量	-267
▁心	-268
▁向	-269
▁然	-270
▁t	-271
▁接	-272
▁乐	-273
▁就	-274
▁始	-275
er	-276
▁m	-277
▁务	-278
▁实	-279
▁无	-280
▁书	-281
▁界	-282
▁参	-283
▁级	-284
▁意	-285
▁则	-286
▁义	-287
▁曾	-288
▁委	-289
▁广	-290
▁管	-291
00	-292
▁手	-293
▁受	-294
▁单	-295
▁指	-296
▁程	-297
▁说	-298
▁卡	-299
▁交	-300
▁视	-301
▁河	-302
▁保	-303
▁色	-304
▁团	-305
▁包	-306
in	-307
▁形	-308
▁门	-309
▁维	-310
▁结	-311
▁12	-312
▁18	-313
▁b	-314
▁音	-315
▁湾	-316
▁已	-317
▁型	-318
▁处	-319
▁香	-320
▁流	-321
▁党	-322
▁传	-323
▁直	-324
▁些	-325
▁获	-326
▁类	-327
an	-328
▁集	-329
or	-330
▁史	-331
▁太	-332
▁万	-333
▁认	-334
▁点	-335
▁应	-336
▁导	-337
▁夫	-338
▁199	-339
▁变	-340
▁f	-341
on	-342
▁校	-343
▁五	-344
▁品	-345
▁身	-346
▁字	-347
▁空	-348
▁领	-349
▁示	-350
▁回	-351
▁社	-352
▁更	-353
▁岛	-354
▁积	-355
▁铁	-356
▁展	-357
▁朝	-358
▁江	-359
▁还	-360
▁古	-361
▁11	-362
▁持	-363
▁师	-364
▁张	-365
▁图	-366
▁各	-367
▁奥	-368
▁p	-369
▁官	-370
▁反	-371
▁带	-372
▁洲	-373
▁专	-374
▁别	-375
▁举	-376
▁据	-377
▁只	-378
▁命	-379
▁纪	-380
▁游	-381
▁资	-382
▁风	-383
▁取	-384
▁京	-385
▁活	-386
▁报	-387
▁造	-388
▁h	-389
▁d	-390
▁普	-391
▁击	-392
▁标	-393
▁光	-394
▁信	-395
▁支	-396
▁局	-397
▁术	-398
▁少	-399
▁历	-400
▁曲	-401
▁族	-402
▁没	-403
▁近	-404
▁非	-405
▁纳	-406
▁石	-407
▁节	-408
▁神	-409
▁解	-410
▁剧	-411
▁清	-412
▁情	-413
▁际	-414
▁转	-415
▁研	-416
▁每	-417
▁论	-418
▁苏	-419
▁它	-420
▁又	-421
▁记	-422
▁权	-423
▁件	-424
▁波	-425
▁条	-426
▁决	-427
▁龙	-428
▁村	-429
▁即	-430
▁放	-431
▁片	-432
▁角	-433
▁她	-434
▁气	-435
la	-436
▁伊	-437
▁商	-438
▁复	-439
▁版	-440
▁头	-441
▁/	-442
▁连	-443
▁武	-444
en	-445
▁密	-446
▁乡	-447
▁辖	-448
▁括	-449
▁未	-450
▁知	-451
▁职	-452
▁收	-453
▁座	-454
▁周	-455
▁先	-456
▁李	-457
▁往	-458
▁去	-459
▁根	-460
▁器	-461
▁创	-462
▁198	-463
▁离	-464
▁白	-465
▁强	-466
▁歌	-467
▁福	-468
▁果	-469
▁再	-470
▁办	-471
▁初	-472
▁究	-473
▁15	-474
▁陆	-475
ar	-476
▁r	-477
▁六	-478
▁且	-479
▁足	-480
▁派	-481
▁n	-482
▁打	-483
▁调	-484
▁g	-485
▁画	-486
▁引	-487
▁兵	-488
▁圣	-489
▁完	-490
▁今	-491
▁亦	-492
▁居	-493
▁汉	-494
▁域	-495
▁观	-496
▁帝	-497
▁季	-498
▁许	-499
▁装	-500
▁播	-501
▁阳	-502
▁威	-503
▁网	-504
▁塔	-505
▁亲	-506
▁除	-507
▁题	-508
▁编	-509
▁宗	-510
▁争	-511
▁随	-512
▁质	-513
▁续	-514
▁段	-515
▁奖	-516
▁服	-517
▁令	-518
▁育	-519
▁给	-520
▁构	-521
▁协	-522
▁较	-523
▁花	-524
▁言	-525
▁爱	-526
▁很	-527
▁园	-528
▁八	-529
▁查	-530
▁土	-531
▁担	-532
▁速	-533
▁16	-534
▁见	-535
▁戏	-536
▁修	-537
▁问	-538
▁l	-539
▁萨	-540
▁功	-541
▁置	-542
▁宣	-543
▁规	-544
▁营	-545
▁另	-546
▁黄	-547
▁希	-548
▁死	-549
▁推	-550
▁客	-551
▁存	-552
▁终	-553
▁项	-554
▁好	-555
▁欧	-556
▁超	-557
▁17	-558
▁率	-559
▁划	-560
▁投	-561
▁馆	-562
▁录	-563
▁雷	-564
▁我	-565
▁哈	-566
▁洛	-567
▁供	-568
▁护	-569
▁样	-570
▁吉	-571
▁i	-572
▁0	-573
▁具	-574
▁源	-575
▁卫	-576
▁博	-577
▁准	-578
▁求	-579
▁班	-580
▁瓦	-581
▁父	-582
▁九	-583
▁案	-584
▁青	-585
▁街	-586
▁男	-587
▁伦	-588
▁印	-589
▁环	-590
▁母	-591
▁边	-592
▁例	-593
▁兴	-594
es	-595
▁济	-596
▁负	-597
▁伯	-598
▁田	-599
▁己	-600
▁勒	-601
▁责	-602
▁湖	-603
▁故	-604
▁陈	-605
▁众	-606
▁助	-607
▁均	-608
▁儿	-609
▁火	-610
▁致	-611
▁备	-612
▁攻	-613
▁那	-614
▁鱼	-615
▁沙	-616
▁航	-617
▁194	-618
▁落	-619
▁百	-620
at	-621
▁诺	-622
▁份	-623
▁w	-624
▁艺	-625
▁莱	-626
▁皇	-627
▁试	-628
▁技	-629
▁整	-630
▁副	-631
▁197	-632
▁早	-633
▁极	-634
▁增	-635
▁鲁	-636
▁容	-637
▁热	-638
▁志	-639
▁模	-640
▁半	-641
al	-642
▁群	-643
▁围	-644
▁红	-645
▁层	-646
▁飞	-647
▁告	-648
▁七	-649
▁继	-650
▁越	-651
▁失	-652
▁登	-653
▁双	-654
▁14	-655
▁评	-656
ic	-657
▁堂	-658
▁境	-659
▁易	-660
▁川	-661
▁195	-662
▁写	-663
▁独	-664
▁室	-665
▁13	-666
▁深	-667
▁食	-668
▁升	-669
▁塞	-670
▁排	-671
▁需	-672
▁黑	-673
▁证	-674
▁声	-675
▁限	-676
▁央	-677
▁氏	-678
▁医	-679
▁筑	-680
▁射	-681
▁织	-682
▁席	-683
▁e	-684
▁干	-685
▁像	-686
▁费	-687
▁老	-688
▁象	-689
▁何	-690
▁响	-691
▁采	-692
▁千	-693
▁甲	-694
▁196	-695
▁真	-696
▁才	-697
▁托	-698
▁盟	-699
▁仍	-700
▁杀	-701
▁让	-702
▁施	-703
▁k	-704
▁森	-705
▁便	-706
▁步	-707
▁警	-708
▁奇	-709
▁木	-710
▁考	-711
▁o	-712
▁防	-713
▁想	-714
▁配	-715
▁舰	-716
▁感	-717
▁牙	-718
▁洋	-719
▁楼	-720
▁岁	-721
▁顿	-722
▁届	-723
▁哥	-724
▁低	-725
▁止	-726
▁住	-727
▁桥	-728
▁留	-729
▁姆	-730
▁贝	-731
▁效	-732
▁—	-733
▁律	-734
▁病	-735
▁农	-736
▁乌	-737
▁刘	-738
▁范	-739
▁几	-740
▁泰	-741
▁曼	-742
is	-743
▁佛	-744
▁底	-745
▁辑	-746
▁恩	-747
▁把	-748
▁埃	-749
▁察	-750
▁料	-751
▁冠	-752
▁193	-753
▁蒙	-754
▁银	-755
▁批	-756
▁降	-757
▁唱	-758
▁for	-759
▁仅	-760
▁j	-761
▁状	-762
▁移	-763
▁迪	-764
▁库	-765
▁话	-766
▁俄	-767
▁票	-768
▁30	-769
▁云	-770
▁景	-771
▁胜	-772
▁看	-773
▁素	-774
▁测	-775
▁宁	-776
▁息	-777
▁康	-778
▁革	-779
▁败	-780
▁消	-781
▁承	-782
▁控	-783
▁显	-784
▁索	-785
▁祖	-786
▁授	-787
▁算	-788
▁温	-789
▁念	-790
▁典	-791
▁词	-792
mu	-793
it	-794
▁_	-795
▁弹	-796
le	-797
▁21	-798
▁z	-799
▁习	-800
▁韩	-801
▁远	-802
▁载	-803
▁藏	-804
▁思	-805
▁确	-806
▁户	-807
▁友	-808
▁做	-809
▁守	-810
▁馀	-811
▁满	-812
he	-813
▁瑞	-814
▁态	-815
▁拔	-816
▁精	-817
▁房	-818
▁预	-819
▁督	-820
▁附	-821
▁宫	-822
▁依	-823
▁望	-824
▁叶	-825
▁照	-826
▁述	-827
▁注	-828
▁请	-829
▁夏	-830
▁价	-831
▁征	-832
▁章	-833
▁执	-834
▁抗	-835
▁v	-836
▁毛	-837
▁停	-838
▁2010	-839
▁退	-840
▁牌	-841
▁压	-842
▁25	-843
mula	-844
▁草	-845
▁formula	-846
▁2009	-847
▁澳	-848
▁简	-849
▁虽	-850
▁却	-851
▁丹	-852
▁永	-853
▁左	-854
▁富	-855
▁封	-856
▁丁	-857
▁堡	-858
▁验	-859
▁坦	-860
▁值	-861
el	-862
▁快	-863
▁候	-864
▁船	-865
▁192	-866
ro	-867
▁斗	-868
▁侧	-869
▁势	-870
▁丽	-871
▁拿	-872
▁破	-873
▁般	-874
▁邦	-875
un	-876
▁宝	-877
▁唐	-878
▁莫	-879
am	-880
▁梅	-881
▁隆	-882
▁2011	-883
▁监	-884
▁难	-885
▁含	-886
▁突	-887
▁细	-888
▁庄	-889
▁厂	-890
▁庆	-891
▁断	-892
▁郡	-893
▁识	-894
▁似	-895
▁况	-896
▁闻	-897
▁寺	-898
▁皮	-899
▁植	-900
▁旅	-901
▁必	-902
▁礼	-903
▁蒂	-904
▁读	-905
▁嘉	-906
▁尚	-907
▁走	-908
st	-909
000	-910
▁拥	-911
▁朗	-912
▁延	-913
▁毕	-914
▁绝	-915
▁久	-916
▁店	-917
▁切	-918
▁岸	-919
▁右	-920
▁厅	-921
▁麦	-922
▁架	-923
▁co	-924
▁杰	-925
▁售	-926
▁换	-927
▁轮	-928
▁临	-929
▁2012	-930
▁旧	-931
▁野	-932
▁核	-933
▁亡	-934
▁春	-935
▁弟	-936
▁22	-937
il	-938
▁归	-939
▁判	-940
▁严	-941
▁优	-942
▁2013	-943
▁枪	-944
▁弗	-945
et	-946
▁松	-947
▁艾	-948
▁佳	-949
▁占	-950
▁2016	-951
▁杨	-952
ion	-953
▁油	-954
▁雄	-955
▁伤	-956
▁异	-957
▁遗	-958
▁24	-959
▁2014	-960
▁遭	-961
▁端	-962
▁灵	-963
▁短	-964
ac	-965
ur	-966
▁吴	-967
▁股	-968
▁2015	-969
▁码	-970
▁2008	-971
▁练	-972
▁孙	-973
▁策	-974
▁耶	-975
▁zh	-976
▁23	-977
▁逐	-978
▁轻	-979
▁191	-980
▁役	-981
▁序	-982
▁赫	-983
▁送	-984
▁帕	-985
▁旗	-986
▁晚	-987
▁顺	-988
▁菲	-989
▁须	-990
▁摩	-991
▁籍	-992
▁若	-993
▁2001	-994
▁距	-995
us	-996
▁暴	-997
▁the	-998
▁销	-999
▁酒	-1000
▁乘	-1001
▁树	-1002
▁}	-1003
▁束	-1004
▁{	-1005
▁雅	-1006
▁宋	-1007
▁什	-1008
▁玛	-1009
▁微	-1010
▁末	-1011
▁杂	-1012
▁摄	-1013
▁输	-1014
▁阵	-1015
▁泽	-1016
▁秀	-1017
▁署	-1018
▁冲	-1019
▁卢	-1020
▁亿	-1021
▁2017	-1022
▁兼	-1023
as	-1024
▁频	-1025
▁2007	-1026
▁!	-1027
▁译	-1028
▁款	-1029
▁驻	-1030
▁荣	-1031
▁阶	-1032
▁胡	-1033
▁诗	-1034
▁良	-1035
▁药	-1036
▁庭	-1037
▁沃	-1038
▁齐	-1039
▁饰	-1040
▁启	-1041
▁血	-1042
▁善	-1043
▁略	-1044
▁劳	-1045
▁散	-1046
▁盖	-1047
▁津	-1048
▁贵	-1049
▁免	-1050
▁婚	-1051
▁尾	-1052
▁28	-1053
▁甚	-1054
▁丰	-1055
▁尽	-1056
▁2018	-1057
▁峰	-1058
▁拍	-1059
▁予	-1060
▁26	-1061
▁2006	-1062
▁纽	-1063
▁差	-1064
re	-1065
▁顶	-1066
▁迁	-1067
▁减	-1068
▁喜	-1069
▁板	-1070
▁鲜	-1071
▁假	-1072
▁晋	-1073
▁臣	-1074
ing	-1075
▁杜	-1076
▁尺	-1077
▁兹	-1078
▁追	-1079
▁朱	-1080
▁购	-1081
▁财	-1082
▁st	-1083
▁100	-1084
▁签	-1085
▁谷	-1086
▁害	-1087
▁27	-1088
▁杯	-1089
▁烈	-1090
▁养	-1091
▁玉	-1092
▁31	-1093
▁背	-1094
▁宾	-1095
▁仁	-1096
▁爆	-1097
▁黎	-1098
▁训	-1099
▁罪	-1100
▁企	-1101
▁媒	-1102
▁舞	-1103
▁释	-1104
▁凯	-1105
▁险	-1106
▁互	-1107
▁沿	-1108
▁钟	-1109
▁盛	-1110
▁救	-1111
▁韦	-1112
▁夺	-1113
▁廷	-1114
▁渐	-1115
▁检	-1116
▁讯	-1117
▁轨	-1118
ed	-1119
▁援	-1120
▁酸	-1121
▁2005	-1122
ol	-1123
▁货	-1124
▁审	-1125
▁透	-1126
▁秘	-1127
▁牛	-1128
ch	-1129
▁映	-1130
▁屋	-1131
▁补	-1132
▁谢	-1133
▁昌	-1134
▁圆	-1135
▁币	-1136
▁够	-1137
▁介	-1138
▁址	-1139
▁in	-1140
▁软	-1141
▁访	-1142
▁乔	-1143
▁荷	-1144
▁君	-1145
▁仪	-1146
▁讲	-1147
▁扩	-1148
▁溪	-1149
▁庙	-1150
▁智	-1151
▁坡	-1152
▁挥	-1153
ent	-1154
▁x	-1155
▁梁	-1156
▁29	-1157
▁材	-1158
▁借	-1159
▁按	-1160
▁an	-1161
ow	-1162
▁郑	-1163
▁徒	-1164
▁2000	-1165
▁适	-1166
▁敦	-1167
▁皆	-1168
▁童	-1169
▁>	-1170
▁益	-1171
▁郎	-1172
▁拜	-1173
▁辆	-1174
▁巡	-1175
▁敌	-1176
▁玩	-1177
▁混	-1178
▁禁	-1179
▁隶	-1180
▁颗	-1181
▁径	-1182
▁讨	-1183
▁蓝	-1184
▁巨	-1185
id	-1186
▁翰	-1187
▁锦	-1188
▁<	-1189
▁探	-1190
ig	-1191
▁190	-1192
▁某	-1193
▁诸	-1194
▁途	-1195
▁夜	-1196
▁穆	-1197
▁u	-1198
▁宽	-1199
▁霍	-1200
▁觉	-1201
▁午	-1202
▁冰	-1203
▁额	-1204
▁50	-1205
▁跟	-1206
▁献	-1207
▁描	-1208
▁替	-1209
▁撤	-1210
▁羽	-1211
▁2019	-1212
▁旋	-1213
▁刻	-1214
▁你	-1215
▁帮	-1216
▁吸	-1217
▁竞	-1218
▁遇	-1219
▁赵	-1220
ad	-1221
▁刺	-1222
▁眼	-1223
▁培	-1224
▁刊	-1225
▁ch	-1226
▁符	-1227
▁乱	-1228
▁找	-1229
▁宇	-1230
▁佩	-1231
▁殿	-1232
▁聚	-1233
▁欢	-1234
▁爵	-1235
▁私	-1236
▁休	-1237
▁充	-1238
▁袭	-1239
▁炮	-1240
▁2004	-1241
▁逃	-1242
▁of	-1243
▁奉	-1244
▁漫	-1245
▁返	-1246
os	-1247
▁犯	-1248
▁y	-1249
▁固	-1250
▁毒	-1251
▁脑	-1252
▁否	-1253
▁耳	-1254
▁幕	-1255
▁唯	-1256
▁丝	-1257
▁络	-1258
▁雨	-1259
▁邻	-1260
▁召	-1261
▁捕	-1262
▁戈	-1263
▁洪	-1264
▁疗	-1265
▁骨	-1266
▁激	-1267
▁岩	-1268
▁废	-1269
▁魔	-1270
▁佔	-1271
▁茨	-1272
▁刑	-1273
▁40	-1274
▁择	-1275
▁靠	-1276
▁钱	-1277
▁操	-1278
▁怀	-1279
▁穿	-1280
▁缺	-1281
▁雪	-1282
▁宪	-1283
▁露	-1284
▁震	-1285
▁竹	-1286
▁'	-1287
▁么	-1288
▁诉	-1289
▁忠	-1290
▁坐	-1291
▁000	-1292
▁乎	-1293
▁绿	-1294
▁御	-1295
▁娜	-1296
▁恒	-1297
▁br	-1298
▁|	-1299
▁盘	-1300
ut	-1301
▁坑	-1302
▁灭	-1303
▁翻	-1304
▁胞	-1305
▁尤	-1306
▁申	-1307
▁订	-1308
▁课	-1309
▁骑	-1310
▁肯	-1311
▁顾	-1312
▁赤	-1313
▁兄	-1314
▁待	-1315
▁抵	-1316
▁妻	-1317
▁迫	-1318
▁损	-1319
▁听	-1320
▁镜	-1321
▁坚	-1322
▁贡	-1323
▁徐	-1324
▁栖	-1325
▁浙	-1326
om	-1327
▁姓	-1328
▁呼	-1329
iv	-1330
▁汇	-1331
▁刚	-1332
▁侵	-1333
▁愿	-1334
▁毁	-1335
▁谈	-1336
▁柏	-1337
▁谋	-1338
▁桑	-1339
▁陵	-1340
ot	-1341
▁孩	-1342
▁惠	-1343
▁2003	-1344
▁纲	-1345
▁秋	-1346
▁=	-1347
▁炸	-1348
▁脉	-1349
▁汽	-1350
ir	-1351
▁篇	-1352
▁恶	-1353
▁辛	-1354
▁鳍	-1355
▁董	-1356
▁绩	-1357
▁横	-1358
ia	-1359
▁融	-1360
▁潮	-1361
▁鸟	-1362
▁戴	-1363
▁买	-1364
50	-1365
▁舍	-1366
▁疑	-1367
▁努	-1368
▁芬	-1369
▁孔	-1370
▁泉	-1371
▁泛	-1372
▁绍	-1373
▁急	-1374
▁默	-1375
▁甘	-1376
im	-1377
▁魏	-1378
▁避	-1379
▁健	-1380
▁脱	-1381
▁卷	-1382
▁础	-1383
▁奏	-1384
▁缩	-1385
20	-1386
▁腊	-1387
▁偏	-1388
▁莉	-1389
▁榜	-1390
ec	-1391
▁2002	-1392
▁误	-1393
▁佐	-1394
▁墓	-1395
▁危	-1396
▁衣	-1397
▁套	-1398
▁概	-1399
▁呈	-1400
▁翼	-1401
▁针	-1402
▁坏	-1403
▁块	-1404
▁紧	-1405
▁隔	-1406
▁裁	-1407
▁宜	-1408
▁殖	-1409
▁肉	-1410
▁毫	-1411
▁墨	-1412
▁涉	-1413
▁寻	-1414
▁扎	-1415
▁扬	-1416
▁迎	-1417
▁染	-1418
▁井	-1419
▁赖	-1420
▁叫	-1421
▁阻	-1422
▁渡	-1423
▁虎	-1424
▁付	-1425
▁捷	-1426
▁迷	-1427
▁冷	-1428
▁锡	-1429
▁贸	-1430
▁秦	-1431
▁al	-1432
▁珠	-1433
▁圈	-1434
▁哲	-1435
▁缘	-1436
▁廉	-1437
▁析	-1438
▁189	-1439
ag	-1440
▁弃	-1441
▁阴	-1442
▁辅	-1443
▁亮	-1444
▁卖	-1445
▁池	-1446
▁恐	-1447
▁招	-1448
ation	-1449
▁氧	-1450
um	-1451
▁剑	-1452
▁彩	-1453
▁侯	-1454
▁赞	-1455
em	-1456
▁匹	-1457
▁虫	-1458
▁葡	-1459
▁伍	-1460
▁仙	-1461
▁症	-1462
▁函	-1463
▁琴	-1464
▁享	-1465
▁凤	-1466
▁味	-1467
▁赢	-1468
▁绕	-1469
▁寿	-1470
▁洞	-1471
▁错	-1472
▁钢	-1473
▁截	-1474
▁梦	-1475
▁]	-1476
▁妹	-1477
▁俱	-1478
▁颁	-1479
▁滨	-1480
▁麻	-1481
▁60	-1482
▁尊	-1483
▁暗	-1484
▁绘	-1485
▁[	-1486
▁瑟	-1487
▁俗	-1488
▁豪	-1489
od	-1490
▁硬	-1491
▁综	-1492
▁脚	-1493
▁倒	-1494
▁誉	-1495
▁崇	-1496
▁笔	-1497
▁町	-1498
▁驱	-1499
▁租	-1500
▁犹	-1501
▁矿	-1502
▁徽	-1503
▁妇	-1504
▁奈	-1505
▁铜	-1506
▁冬	-1507
▁稳	-1508
▁逊	-1509
▁繁	-1510
▁液	-1511
▁静	-1512
▁绪	-1513
▁冈	-1514
▁昂	-1515
▁阁	-1516
and	-1517
▁逝	-1518
▁闭	-1519
▁估	-1520
ay	-1521
▁楚	-1522
▁暂	-1523
▁档	-1524
▁乙	-1525
▁墙	-1526
▁1999	-1527
▁辞	-1528
▁辐	-1529
▁曹	-1530
▁邀	-1531
▁昭	-1532
▁1990	-1533
▁蛋	-1534
ap	-1535
▁潜	-1536
▁掌	-1537
▁柱	-1538
▁吕	-1539
▁浦	-1540
▁跨	-1541
▁册	-1542
▁拒	-1543
▁35	-1544
▁辽	-1545
▁han	-1546
▁伐	-1547
▁郭	-1548
▁纸	-1549
▁幼	-1550
▁振	-1551
▁盐	-1552
▁鼓	-1553
▁乃	-1554
▁岭	-1555
▁裂	-1556
▁拟	-1557
▁恢	-1558
▁裔	-1559
▁莎	-1560
▁零	-1561
▁?	-1562
▁萄	-1563
▁弱	-1564
▁蔡	-1565
▁轴	-1566
▁触	-1567
▁齿	-1568
▁1998	-1569
▁赏	-1570
▁滑	-1571
▁患	-1572
▁陶	-1573
▁粉	-1574
▁菌	-1575
▁陷	-1576
▁淡	-1577
▁浪	-1578
▁困	-1579
▁障	-1580
ter	-1581
▁灾	-1582
▁览	-1583
▁伟	-1584
▁剂	-1585
▁旁	-1586
▁偶	-1587
▁藤	-1588
▁la	-1589
▁80	-1590
▁32	-1591
▁菜	-1592
▁驶	-1593
▁de	-1594
▁and	-1595
op	-1596
60	-1597
▁彼	-1598
ul	-1599
oc	-1600
▁沈	-1601
▁1997	-1602
▁颜	-1603
▁188	-1604
▁牧	-1605
▁宿	-1606
▁埔	-1607
▁税	-1608
▁丘	-1609
▁邮	-1610
▁纯	-1611
▁残	-1612
og	-1613
▁涅	-1614
▁00	-1615
10	-1616
▁狱	-1617
▁伴	-1618
▁柯	-1619
▁蒋	-1620
▁搭	-1621
▁祭	-1622
ce	-1623
▁促	-1624
▁勇	-1625
▁疆	-1626
▁壁	-1627
▁昆	-1628
▁允	-1629
▁迹	-1630
▁灯	-1631
▁厦	-1632
▁龄	-1633
▁隐	-1634
▁1980	-1635
▁敏	-1636
▁亨	-1637
▁桃	-1638
▁45	-1639
▁答	-1640
▁汤	-1641
▁熙	-1642
▁70	-1643
▁汗	-1644
▁仔	-1645
▁键	-1646
▁恋	-1647
▁遍	-1648
▁殊	-1649
▁衡	-1650
▁糖	-1651
▁句	-1652
▁拆	-1653
▁宅	-1654
▁燃	-1655
▁珍	-1656
▁烧	-1657
30	-1658
▁茶	-1659
▁幅	-1660
▁迈	-1661
▁孟	-1662
▁棒	-1663
▁re	-1664
▁葬	-1665
▁+	-1666
▁幸	-1667
av	-1668
▁虚	-1669
▁侍	-1670
19	-1671
▁折	-1672
▁90	-1673
ers	-1674
▁邓	-1675
▁娱	-1676
▁沉	-1677
▁紫	-1678
▁跑	-1679
▁坛	-1680
▁赴	-1681
▁莲	-1682
▁灰	-1683
ie	-1684
▁奴	-1685
▁幻	-1686
▁械	-1687
▁塘	-1688
▁厚	-1689
▁孝	-1690
▁餐	-1691
▁篮	-1692
48	-1693
▁贤	-1694
▁艘	-1695
▁敬	-1696
▁1996	-1697
▁187	-1698
▁叙	-1699
▁碑	-1700
▁挑	-1701
▁祥	-1702
▁筹	-1703
▁磁	-1704
▁沟	-1705
▁锋	-1706
▁储	-1707
▁ar	-1708
▁慈	-1709
40	-1710
▁陕	-1711
▁遣	-1712
▁500	-1713
▁纬	-1714
ub	-1715
▁晶	-1716
▁纵	-1717
▁1994	-1718
▁虑	-1719
▁萧	-1720
▁姐	-1721
▁33	-1722
▁辉	-1723
▁倍	-1724
▁箭	-1725
▁疾	-1726
▁叛	-1727
▁违	-1728
▁1995	-1729
▁谱	-1730
▁葛	-1731
▁棋	-1732
▁贾	-1733
▁柴	-1734
▁撞	-1735
▁慢	-1736
ip	-1737
▁冯	-1738
▁峡	-1739
▁熟	-1740
▁38	-1741
▁驾	-1742
▁妮	-1743
▁苦	-1744
th	-1745
▁尖	-1746
▁〉	-1747
▁枚	-1748
▁〈	-1749
▁柳	-1750
▁』	-1751
▁艇	-1752
▁『	-1753
▁凡	-1754
▁仰	-1755
▁跳	-1756
▁仓	-1757
▁坂	-1758
▁遂	-1759
▁螺	-1760
▁伸	-1761
▁伏	-1762
▁匈	-1763
▁衔	-1764
▁朋	-1765
▁烟	-1766
▁36	-1767
▁纹	-1768
ard	-1769
▁燕	-1770
▁1993	-1771
▁1992	-1772
▁刀	-1773
▁com	-1774
▁瓜	-1775
▁撒	-1776
▁°	-1777
ov	-1778
▁桂	-1779
▁彭	-1780
▁缓	-1781
▁雕	-1782
▁贯	-1783
▁th	-1784
▁潘	-1785
▁忆	-1786
▁tw	-1787
▁猎	-1788
▁贺	-1789
ak	-1790
ab	-1791
▁迅	-1792
▁37	-1793
▁un	-1794
ind	-1795
▁1991	-1796
▁慕	-1797
▁谓	-1798
▁兽	-1799
▁勤	-1800
▁吃	-1801
▁琳	-1802
▁sh	-1803
▁1950	-1804
▁34	-1805
▁靖	-1806
▁详	-1807
▁涯	-1808
▁累	-1809
▁趣	-1810
▁粒	-1811
80	-1812
ct	-1813
▁q	-1814
▁鬼	-1815
▁番	-1816
▁罕	-1817
▁186	-1818
11	-1819
▁熊	-1820
est	-1821
▁tr	-1822
▁1949	-1823
▁猪	-1824
▁鹿	-1825
▁脂	-1826
▁1970	-1827
▁泊	-1828
ud	-1829
ik	-1830
▁to	-1831
▁掉	-1832
▁旺	-1833
▁诚	-1834
▁梯	-1835
▁挂	-1836
▁胶	-1837
▁芳	-1838
▁屯	-1839
▁咸	-1840
▁屿	-1841
▁sp	-1842
▁赠	-1843
▁饮	-1844
▁牠	-1845
▁硕	-1846
▁晨	-1847
▁肃	-1848
▁詹	-1849
▁秒	-1850
ist	-1851
▁纷	-1852
▁惊	-1853
12	-1854
▁蛇	-1855
▁倾	-1856
▁禄	-1857
▁怪	-1858
▁屏	-1859
▁页	-1860
▁抚	-1861
▁le	-1862
▁芝	-1863
ang	-1864
▁1988	-1865
▁擎	-1866
ine	-1867
▁凭	-1868
▁39	-1869
▁1989	-1870
▁hk	-1871
▁拓	-1872
▁杉	-1873
▁羊	-1874
▁浮	-1875
▁仲	-1876
▁乳	-1877
▁on	-1878
▁痛	-1879
▁te	-1880
ill	-1881
▁凌	-1882
▁sa	-1883
▁隧	-1884
▁俊	-1885
▁300	-1886
▁hans	-1887
▁1945	-1888
▁壳	-1889
▁锁	-1890
▁mar	-1891
▁缅	-1892
▁玄	-1893
▁炎	-1894
▁诞	-1895
25	-1896
▁卓	-1897
▁坎	-1898
▁插	-1899
▁1960	-1900
▁鼠	-1901
▁弘	-1902
▁慧	-1903
▁泥	-1904
▁腹	-1905
▁col	-1906
▁猫	-1907
▁晓	-1908
▁岳	-1909
▁杭	-1910
▁～	-1911
▁pro	-1912
if	-1913
▁厄	-1914
▁圳	-1915
▁励	-1916
▁喀	-1917
▁崎	-1918
▁搜	-1919
▁豆	-1920
▁轰	-1921
▁塑	-1922
▁旦	-1923
▁藩	-1924
▁is	-1925
▁袁	-1926
21	-1927
▁甸	-1928
▁卿	-1929
▁乏	-1930
▁罚	-1931
▁跃	-1932
70	-1933
ess	-1934
▁戒	-1935
▁畔	-1936
▁55	-1937
▁1985	-1938
▁撰	-1939
▁宏	-1940
ob	-1941
▁鸡	-1942
▁笑	-1943
▁玻	-1944
ra	-1945
▁苗	-1946
▁扰	-1947
▁盗	-1948
▁斑	-1949
▁ne	-1950
▁赐	-1951
▁彻	-1952
▁洗	-1953
▁1986	-1954
▁丧	-1955
▁祝	-1956
▁狮	-1957
▁寄	-1958
▁牵	-1959
▁亭	-1960
▁泳	-1961
▁溶	-1962
▁阮	-1963
▁坊	-1964
▁阅	-1965
▁崔	-1966
▁袖	-1967
bo	-1968
▁1987	-1969
15	-1970
▁宙	-1971
ba	-1972
▁1984	-1973
▁胁	-1974
▁尉	-1975
▁贞	-1976
▁é	-1977
▁循	-1978
up	-1979
▁48	-1980
na	-1981
▁妃	-1982
▁舒	-1983
▁焦	-1984
▁询	-1985
▁巧	-1986
▁叔	-1987
▁185	-1988
ok	-1989
▁扮	-1990
ows	-1991
▁郊	-1992
▁茂	-1993
▁46	-1994
▁耀	-1995
▁僧	-1996
▁仿	-1997
▁吨	-1998
▁悬	-1999
▁既	-2000
▁箱	-2001
▁枢	-2002
ell	-2003
▁衰	-2004
▁疏	-2005
▁粤	-2006
▁43	-2007
▁霸	-2008
▁污	-2009
▁捐	-2010
ice	-2011
▁鲤	-2012
▁42	-2013
und	-2014
▁串	-2015
▁彰	-2016
▁侦	-2017
▁弥	-2018
▁岗	-2019
▁盾	-2020
▁逢	-2021
▁契	-2022
▁1982	-2023
▁壮	-2024
18	-2025
16	-2026
▁碳	-2027
▁勃	-2028
▁砲	-2029
▁摇	-2030
▁1983	-2031
▁措	-2032
▁75	-2033
▁am	-2034
▁陨	-2035
▁剩	-2036
▁as	-2037
▁浩	-2038
▁床	-2039
▁氢	-2040
▁枝	-2041
▁浓	-2042
▁%	-2043
▁喷	-2044
▁厘	-2045
▁翁	-2046
▁滚	-2047
▁券	-2048
▁歧	-2049
▁搬	-2050
▁鸿	-2051
all	-2052
▁ap	-2053
▁or	-2054
▁钦	-2055
45	-2056
▁wind	-2057
ian	-2058
▁湿	-2059
17	-2060
▁递	-2061
▁填	-2062
90	-2063
▁hd	-2064
▁夷	-2065
▁拳	-2066
▁47	-2067
▁荒	-2068
▁65	-2069
13	-2070
▁裕	-2071
▁滩	-2072
▁帅	-2073
▁yo	-2074
▁卜	-2075
▁飓	-2076
▁浅	-2077
▁鲍	-2078
ive	-2079
▁渔	-2080
▁傅	-2081
47	-2082
▁贴	-2083
▁欲	-2084
io	-2085
▁丈	-2086
▁饭	-2087
▁润	-2088
▁窗	-2089
▁衍	-2090
▁邨	-2091
▁割	-2092
▁怒	-2093
▁笼	-2094
▁淮	-2095
▁粮	-2096
▁at	-2097
▁con	-2098
35	-2099
▁1979	-2100
ack	-2101
▁be	-2102
▁碍	-2103
▁旨	-2104
▁尸	-2105
▁寨	-2106
▁蝶	-2107
▁疫	-2108
▁灌	-2109
▁150	-2110
▁肥	-2111
▁庞	-2112
▁侠	-2113
ver	-2114
22	-2115
▁垒	-2116
▁惯	-2117
▁抽	-2118
▁踪	-2119
▁400	-2120
ue	-2121
▁欣	-2122
▁赶	-2123
art	-2124
▁1978	-2125
▁洁	-2126
▁链	-2127
▁ma	-2128
▁windows	-2129
▁49	-2130
▁鹰	-2131
▁珊	-2132
▁go	-2133
▁冒	-2134
14	-2135
▁膜	-2136
▁狂	-2137
▁胎	-2138
igh	-2139
▁辩	-2140
ant	-2141
ph	-2142
▁尝	-2143
37	-2144
▁斜	-2145
▁聘	-2146
▁悉	-2147
▁垂	-2148
▁狄	-2149
▁180	-2150
▁稿	-2151
▁en	-2152
▁迟	-2153
▁ii	-2154
▁煤	-2155
▁贫	-2156
▁44	-2157
▁se	-2158
▁儒	-2159
▁吾	-2160
▁腾	-2161
▁粹	-2162
▁陀	-2163
▁孤	-2164
▁妈	-2165
▁廊	-2166
▁64	-2167
▁湘	-2168
ert	-2169
▁握	-2170
▁栽	-2171
▁壤	-2172
▁闽	-2173
▁杆	-2174
▁彦	-2175
▁耗	-2176
▁1981	-2177
23	-2178
ge	-2179
▁柔	-2180
▁坪	-2181
▁粗	-2182
ity	-2183
▁抢	-2184
26	-2185
▁揭	-2186
▁&	-2187
▁逆	-2188
▁娘	-2189
▁翠	-2190
24	-2191
▁1946	-2192
▁貌	-2193
▁铺	-2194
▁净	-2195
oh	-2196
▁58	-2197
sp	-2198
28	-2199
▁朴	-2200
▁琉	-2201
▁俘	-2202
▁婆	-2203
27	-2204
▁1958	-2205
ib	-2206
▁堪	-2207
▁狗	-2208
▁潭	-2209
ich	-2210
▁pr	-2211
▁56	-2212
▁恰	-2213
▁fr	-2214
▁寒	-2215
▁挪	-2216
▁翌	-2217
▁罢	-2218
▁魂	-2219
▁璃	-2220
▁薄	-2221
▁阔	-2222
▁辰	-2223
36	-2224
te	-2225
▁忍	-2226
▁龟	-2227
▁禅	-2228
75	-2229
bs	-2230
▁丛	-2231
▁癌	-2232
▁扶	-2233
▁1920	-2234
38	-2235
▁吐	-2236
▁丙	-2237
▁赋	-2238
▁稍	-2239
▁遵	-2240
▁铭	-2241
▁坝	-2242
▁堆	-2243
▁勋	-2244
29	-2245
▁ad	-2246
▁sc	-2247
▁刷	-2248
▁伪	-2249
▁脏	-2250
▁矩	-2251
▁逻	-2252
▁碎	-2253
▁淘	-2254
▁苑	-2255
▁1930	-2256
ong	-2257
▁诏	-2258
▁荐	-2259
▁鼻	-2260
▁矶	-2261
▁ex	-2262
▁1948	-2263
▁涵	-2264
▁颇	-2265
▁1940	-2266
▁丑	-2267
▁怖	-2268
lay	-2269
▁姚	-2270
▁叠	-2271
▁汪	-2272
▁1975	-2273
▁鸣	-2274
▁添	-2275
▁偷	-2276
▁bo	-2277
▁栏	-2278
▁押	-2279
▁胸	-2280
▁ph	-2281
▁寸	-2282
▁惟	-2283
▁硫	-2284
▁弦	-2285
▁逮	-2286
▁1937	-2287
▁嫌	-2288
▁祀	-2289
▁劝	-2290
▁姬	-2291
▁扫	-2292
▁卒	-2293
▁歇	-2294
▁兆	-2295
▁120	-2296
▁吏	-2297
▁屠	-2298
▁姻	-2299
▁1956	-2300
▁讷	-2301
▁狼	-2302
ate	-2303
ug	-2304
▁蛛	-2305
▁奔	-2306
▁雀	-2307
▁夕	-2308
46	-2309
▁1947	-2310
▁奎	-2311
▁诊	-2312
▁携	-2313
▁脊	-2314
▁芒	-2315
▁趋	-2316
▁琼	-2317
▁泡	-2318
▁酶	-2319
▁仇	-2320
▁76	-2321
▁57	-2322
▁1000	-2323
▁醒	-2324
▁1941	-2325
▁蒸	-2326
39	-2327
▁卑	-2328
uc	-2329
▁嗣	-2330
▁叉	-2331
▁逼	-2332
ry	-2333
▁─	-2334
▁1976	-2335
▁腐	-2336
ey	-2337
bc	-2338
▁磨	-2339
▁偿	-2340
ort	-2341
▁菊	-2342
▁卵	-2343
▁韵	-2344
▁1973	-2345
▁猛	-2346
▁劫	-2347
▁涂	-2348
34	-2349
85	-2350
▁隋	-2351
▁勳	-2352
▁1972	-2353
▁厢	-2354
▁稣	-2355
▁屈	-2356
▁1966	-2357
▁拼	-2358
▁1955	-2359
95	-2360
▁cn	-2361
▁1952	-2362
32	-2363
▁薛	-2364
▁娃	-2365
▁54	-2366
▁66	-2367
▁嫁	-2368
▁so	-2369
86	-2370
▁凝	-2371
▁斤	-2372
▁犬	-2373
▁债	-2374
ix	-2375
ain	-2376
▁600	-2377
ect	-2378
ord	-2379
▁掘	-2380
▁敢	-2381
▁肖	-2382
▁1974	-2383
▁摆	-2384
▁鹤	-2385
33	-2386
ly	-2387
▁闪	-2388
▁嘴	-2389
▁1977	-2390
▁悲	-2391
▁醇	-2392
▁85	-2393
▁忙	-2394
▁1968	-2395
▁矛	-2396
▁伽	-2397
▁氯	-2398
▁奶	-2399
▁ac	-2400
▁棘	-2401
ens	-2402
▁铸	-2403
ft	-2404
▁1954	-2405
▁凉	-2406
▁抑	-2407
▁碟	-2408
▁侨	-2409
▁曰	-2410
▁迦	-2411
▁礁	-2412
▁95	-2413
▁1938	-2414
96	-2415
▁姊	-2416
▁1964	-2417
▁me	-2418
▁1965	-2419
▁1939	-2420
▁妙	-2421
▁・	-2422
ast	-2423
▁肌	-2424
▁忽	-2425
▁1944	-2426
▁800	-2427
▁栋	-2428
▁汰	-2429
▁1971	-2430
▁祠	-2431
▁贩	-2432
▁株	-2433
▁舱	-2434
▁1959	-2435
▁雍	-2436
ace	-2437
ign	-2438
▁砖	-2439
▁旬	-2440
▁jr	-2441
42	-2442
▁鼎	-2443
87	-2444
▁扁	-2445
▁翔	-2446
▁cd	-2447
▁袋	-2448
▁1969	-2449
▁碧	-2450
▁吹	-2451
▁穷	-2452
▁鲶	-2453
▁麟	-2454
▁1957	-2455
44	-2456
▁怕	-2457
▁抱	-2458
▁炉	-2459
man	-2460
▁狭	-2461
31	-2462
▁稻	-2463
▁1942	-2464
▁甫	-2465
ah	-2466
98	-2467
▁’	-2468
▁拖	-2469
▁1967	-2470
▁巫	-2471
▁砂	-2472
▁姜	-2473
▁铃	-2474
▁谭	-2475
▁尹	-2476
▁幽	-2477
▁宰	-2478
▁nba	-2479
▁1953	-2480
one	-2481
▁夹	-2482
ff	-2483
▁gr	-2484
▁绳	-2485
▁斐	-2486
end	-2487
76	-2488
▁蹈	-2489
▁汀	-2490
99	-2491
▁孕	-2492
▁寓	-2493
▁cent	-2494
78	-2495
▁1961	-2496
▁惨	-2497
▁抓	-2498
▁剪	-2499
▁it	-2500
▁1935	-2501
▁丸	-2502
▁崩	-2503
▁41	-2504
▁圭	-2505
▁恭	-2506
▁盆	-2507
▁锺	-2508
▁鉴	-2509
▁鳞	-2510
▁沪	-2511
▁竟	-2512
▁纤	-2513
▁虹	-2514
▁邪	-2515
▁1962	-2516
▁1963	-2517
▁毅	-2518
▁we	-2519
▁讚	-2520
▁鄂	-2521
▁1943	-2522
▁胆	-2523
▁闸	-2524
▁→	-2525
▁邑	-2526
▁1936	-2527
▁丞	-2528
▁ed	-2529
▁寮	-2530
▁豫	-2531
ore	-2532
▁讬	-2533
▁埋	-2534
▁he	-2535
▁op	-2536
▁倡	-2537
▁斋	-2538
▁苹	-2539
▁68	-2540
92	-2541
▁弯	-2542
▁辨	-2543
▁驳	-2544
▁51	-2545
▁~	-2546
▁鲈	-2547
▁钻	-2548
▁1951	-2549
▁廖	-2550
▁汝	-2551
▁蕨	-2552
▁魁	-2553
▁160	-2554
▁渊	-2555
▁蓬	-2556
97	-2557
ust	-2558
▁囊	-2559
▁伙	-2560
65	-2561
▁雌	-2562
▁珀	-2563
ss	-2564
▁sm	-2565
▁雾	-2566
▁茅	-2567
ith	-2568
▁蜂	-2569
▁滕	-2570
▁襄	-2571
qu	-2572
▁巢	-2573
▁扣	-2574
▁荆	-2575
ight	-2576
▁52	-2577
▁mo	-2578
▁郁	-2579
▁咖	-2580
▁募	-2581
▁拨	-2582
▁斩	-2583
▁×	-2584
▁催	-2585
▁腺	-2586
▁茵	-2587
▁氨	-2588
▁吧	-2589
▁腔	-2590
▁吞	-2591
▁脸	-2592
▁蟹	-2593
▁陪	-2594
▁tv	-2595
▁披	-2596
41	-2597
ps	-2598
▁挖	-2599
43	-2600
▁ng	-2601
▁奋	-2602
▁谦	-2603
▁wh	-2604
▁暖	-2605
49	-2606
▁耕	-2607
▁id	-2608
▁溯	-2609
▁涌	-2610
▁肠	-2611
iz	-2612
▁苯	-2613
▁ro	-2614
▁酷	-2615
▁1933	-2616
▁荡	-2617
▁劲	-2618
ies	-2619
▁擅	-2620
▁鸭	-2621
ma	-2622
▁聪	-2623
▁削	-2624
▁蜜	-2625
▁棉	-2626
ux	-2627
▁2020	-2628
▁拘	-2629
▁暨	-2630
▁吻	-2631
▁1927	-2632
int	-2633
ire	-2634
▁耐	-2635
▁瓶	-2636
▁崖	-2637
▁忘	-2638
▁铎	-2639
ock	-2640
▁蕾	-2641
▁舟	-2642
▁漠	-2643
▁舌	-2644
93	-2645
pe	-2646
▁愈	-2647
▁仕	-2648
▁1928	-2649
▁噶	-2650
▁毗	-2651
▁cl	-2652
▁卸	-2653
▁77	-2654
▁88	-2655
▁札	-2656
▁邱	-2657
▁帽	-2658
▁蒲	-2659
▁帐	-2660
▁栗	-2661
▁亥	-2662
▁96	-2663
▁斥	-2664
▁喇	-2665
ne	-2666
▁1931	-2667
sh	-2668
▁颈	-2669
▁薇	-2670
ond	-2671
▁渠	-2672
▁拱	-2673
▁巷	-2674
▁摧	-2675
▁掠	-2676
▁遥	-2677
▁谊	-2678
▁诱	-2679
▁1932	-2680
▁姑	-2681
▁sch	-2682
▁薪	-2683
▁碱	-2684
▁car	-2685
▁蜀	-2686
▁溃	-2687
▁昇	-2688
▁婴	-2689
▁cod	-2690
▁矮	-2691
▁忧	-2692
▁淑	-2693
▁鲸	-2694
▁bl	-2695
▁稀	-2696
▁胺	-2697
▁67	-2698
▁‘	-2699
▁1934	-2700
▁扑	-2701
▁啡	-2702
▁顷	-2703
▁play	-2704
▁锐	-2705
▁sy	-2706
▁dv	-2707
▁踏	-2708
▁邵	-2709
▁86	-2710
ick	-2711
▁炼	-2712
▁宠	-2713
▁筒	-2714
94	-2715
▁肺	-2716
▁贼	-2717
▁琪	-2718
▁hant	-2719
▁愤	-2720
▁inter	-2721
▁78	-2722
ern	-2723
▁gam	-2724
ai	-2725
▁鑑	-2726
▁53	-2727
▁冕	-2728
unt	-2729
▁烯	-2730
▁穴	-2731
▁轩	-2732
▁椎	-2733
▁ge	-2734
▁爷	-2735
▁庶	-2736
▁藻	-2737
ber	-2738
▁葵	-2739
▁甜	-2740
▁澄	-2741
▁哪	-2742
▁畅	-2743
91	-2744
▁梨	-2745
▁cr	-2746
56	-2747
ial	-2748
▁菩	-2749
▁桓	-2750
▁雇	-2751
▁110	-2752
▁1929	-2753
son	-2754
▁亩	-2755
▁帆	-2756
▁宛	-2757
▁睡	-2758
▁漏	-2759
▁尿	-2760
▁掩	-2761
▁磷	-2762
▁惜	-2763
▁谁	-2764
▁宴	-2765
▁ht	-2766
▁碰	-2767
▁700	-2768
▁凶	-2769
▁豹	-2770
▁玲	-2771
▁par	-2772
▁卧	-2773
▁mac	-2774
ment	-2775
▁98	-2776
ii	-2777
▁吁	-2778
▁堤	-2779
▁joh	-2780
▁怡	-2781
▁梵	-2782
▁榄	-2783
▁鹅	-2784
se	-2785
▁ー	-2786
▁绵	-2787
▁夸	-2788
▁el	-2789
▁誓	-2790
ung	-2791
▁弓	-2792
▁逸	-2793
▁翅	-2794
▁慎	-2795
▁饼	-2796
▁褐	-2797
▁瓷	-2798
▁冀	-2799
62	-2800
▁lin	-2801
▁1912	-2802
▁腿	-2803
▁框	-2804
▁挡	-2805
▁瘤	-2806
▁棕	-2807
▁鹏	-2808
▁禾	-2809
▁肤	-2810
▁桌	-2811
▁man	-2812
▁贪	-2813
ure	-2814
▁hr	-2815
▁奸	-2816
▁仑	-2817
▁绑	-2818
▁ak	-2819
▁樱	-2820
▁仆	-2821
ina	-2822
ier	-2823
▁my	-2824
▁奠	-2825
ath	-2826
▁蹟	-2827
▁侣	-2828
▁唇	-2829
▁绥	-2830
▁us	-2831
▁new	-2832
▁伞	-2833
▁72	-2834
68	-2835
▁悠	-2836
▁姿	-2837
▁颠	-2838
▁桐	-2839
▁弄	-2840
▁130	-2841
▁芦	-2842
▁dvd	-2843
▁删	-2844
▁140	-2845
▁爪	-2846
ory	-2847
▁dr	-2848
▁骚	-2849
▁慰	-2850
▁臂	-2851
▁娶	-2852
yle	-2853
▁1925	-2854
▁柬	-2855
▁柄	-2856
▁1924	-2857
▁贷	-2858
▁骗	-2859
71	-2860
▁肿	-2861
▁wor	-2862
▁颖	-2863
az	-2864
▁霞	-2865
▁鸦	-2866
▁1919	-2867
▁肢	-2868
▁谐	-2869
xt	-2870
▁惧	-2871
▁1918	-2872
▁牲	-2873
ogle	-2874
▁抛	-2875
▁抄	-2876
▁呎	-2877
72	-2878
▁恨	-2879
▁盈	-2880
88	-2881
▁纠	-2882
cl	-2883
▁蝠	-2884
▁mv	-2885
▁google	-2886
▁辈	-2887
▁祯	-2888
▁‧	-2889
▁厝	-2890
▁ho	-2891
▁ip	-2892
▁99	-2893
▁肝	-2894
▁涛	-2895
▁1926	-2896
▁窄	-2897
▁av	-2898
73	-2899
co	-2900
▁缴	-2901
iss	-2902
▁腰	-2903
▁颂	-2904
▁践	-2905
▁赌	-2906
▁烷	-2907
▁庚	-2908
▁腓	-2909
74	-2910
▁250	-2911
▁а	-2912
▁劣	-2913
▁扭	-2914
▁170	-2915
▁庇	-2916
▁肩	-2917
ont	-2918
▁1922	-2919
▁mus	-2920
▁讼	-2921
▁祈	-2922
▁茎	-2923
55	-2924
▁哀	-2925
▁囚	-2926
▁蚀	-2927
▁汶	-2928
▁*	-2929
▁坟	-2930
▁殷	-2931
▁沼	-2932
77	-2933
▁辟	-2934
▁1914	-2935
66	-2936
ide	-2937
▁逾	-2938
so	-2939
83	-2940
▁center	-2941
▁吊	-2942
ld	-2943
▁朵	-2944
▁猜	-2945
▁59	-2946
▁63	-2947
53	-2948
▁妖	-2949
▁饶	-2950
▁赔	-2951
▁滋	-2952
▁62	-2953
ish	-2954
64	-2955
▁秩	-2956
▁浸	-2957
▁涡	-2958
79	-2959
mm	-2960
▁炭	-2961
▁遮	-2962
▁の	-2963
▁厥	-2964
▁滤	-2965
1900	-2966
▁忌	-2967
▁sao	-2968
▁裸	-2969
▁61	-2970
ube	-2971
89	-2972
▁谣	-2973
▁ag	-2974
▁槽	-2975
▁镑	-2976
▁john	-2977
aw	-2978
▁1913	-2979
▁怎	-2980
▁搞	-2981
▁悦	-2982
▁comp	-2983
▁瑜	-2984
▁坠	-2985
▁兔	-2986
▁坞	-2987
▁ser	-2988
▁尘	-2989
▁跌	-2990
▁缝	-2991
▁肇	-2992
▁α	-2993
▁屡	-2994
▁ン	-2995
▁寇	-2996
▁爬	-2997
▁1917	-2998
ational	-2999
▁椅	-3000
▁荃	-3001
ton	-3002
▁1923	-3003
▁蓄	-3004
▁扇	-3005
▁嫩	-3006
▁埠	-3007
▁ist	-3008
▁夥	-3009
▁lov	-3010
▁back	-3011
82	-3012
▁祸	-3013
67	-3014
▁祐	-3015
▁凰	-3016
▁codice	-3017
▁о	-3018
▁舆	-3019
ala	-3020
▁1921	-3021
▁芙	-3022
▁尧	-3023
▁芭	-3024
ep	-3025
ans	-3026
au	-3027
▁焚	-3028
▁鳄	-3029
▁style	-3030
▁氟	-3031
▁戌	-3032
61	-3033
▁挺	-3034
▁嵌	-3035
▁橡	-3036
age	-3037
58	-3038
▁窝	-3039
▁趁	-3040
▁虾	-3041
▁fo	-3042
▁纺	-3043
▁虏	-3044
▁庸	-3045
ary	-3046
▁no	-3047
▁1911	-3048
▁3000	-3049
▁惩	-3050
51	-3051
52	-3052
▁崙	-3053
▁眉	-3054
▁跋	-3055
▁猴	-3056
▁net	-3057
▁肾	-3058
▁qu	-3059
▁禧	-3060
▁骏	-3061
▁讽	-3062
▁歉	-3063
▁贬	-3064
▁em	-3065
▁瑚	-3066
▁ab	-3067
ach	-3068
69	-3069
54	-3070
▁po	-3071
▁昔	-3072
lar	-3073
▁擦	-3074
57	-3075
▁欠	-3076
▁酮	-3077
▁$	-3078
round	-3079
▁dna	-3080
81	-3081
▁柜	-3082
▁厉	-3083
anc	-3084
▁晴	-3085
▁茄	-3086
▁锅	-3087
▁浏	-3088
▁sup	-3089
▁佑	-3090
▁鞋	-3091
▁蕃	-3092
▁69	-3093
▁剥	-3094
▁唤	-3095
84	-3096
▁74	-3097
▁met	-3098
▁眠	-3099
span	-3100
ile	-3101
▁colspan	-3102
▁萝	-3103
▁坤	-3104
▁sk	-3105
▁蜥	-3106
▁谘	-3107
▁喻	-3108
▁istat	-3109
59	-3110
ann	-3111
▁1900	-3112
▁挤	-3113
▁旱	-3114
▁捉	-3115
63	-3116
▁勘	-3117
▁浆	-3118
▁踢	-3119
▁昏	-3120
ank	-3121
▁泪	-3122
▁1909	-3123
▁攀	-3124
▁履	-3125
▁娅	-3126
▁悟	-3127
ite	-3128
ass	-3129
▁铝	-3130
▁lo	-3131
▁sil	-3132
▁厌	-3133
▁冻	-3134
ime	-3135
▁er	-3136
▁漂	-3137
▁咏	-3138
▁km	-3139
are	-3140
▁怨	-3141
▁苍	-3142
▁戊	-3143
▁胀	-3144
▁ste	-3145
▁yout	-3146
▁爸	-3147
▁橄	-3148
▁pc	-3149
▁喝	-3150
▁钓	-3151
amp	-3152
iel	-3153
ta	-3154
▁73	-3155
▁app	-3156
▁mic	-3157
rom	-3158
▁炳	-3159
▁狐	-3160
▁鲷	-3161
▁塌	-3162
▁醉	-3163
ium	-3164
▁烂	-3165
▁滥	-3166
▁im	-3167
▁疯	-3168
▁丢	-3169
▁撑	-3170
▁per	-3171
land	-3172
▁赣	-3173
▁澎	-3174
▁躲	-3175
▁竣	-3176
uk	-3177
▁璋	-3178
▁厨	-3179
▁钩	-3180
▁旭	-3181
▁臀	-3182
▁氮	-3183
▁缸	-3184
▁now	-3185
▁帖	-3186
▁101	-3187
▁one	-3188
ction	-3189
▁歼	-3190
▁淳	-3191
▁睛	-3192
▁1910	-3193
▁僚	-3194
▁all	-3195
▁裴	-3196
▁谨	-3197
▁荫	-3198
▁bar	-3199
▁71	-3200
▁и	-3201
▁妥	-3202
▁align	-3203
▁锥	-3204
▁哺	-3205
▁辱	-3206
▁pl	-3207
▁盲	-3208
▁熔	-3209
▁穗	-3210
▁糕	-3211
▁盒	-3212
▁匠	-3213
▁牺	-3214
▁冢	-3215
▁匪	-3216
ground	-3217
▁镶	-3218
ck	-3219
▁椒	-3220
tv	-3221
▁棚	-3222
▁窑	-3223
▁垦	-3224
▁#	-3225
▁钠	-3226
▁82	-3227
▁凸	-3228
▁bd	-3229
▁痕	-3230
▁畜	-3231
▁缔	-3232
▁榴	-3233
▁罩	-3234
ae	-3235
pr	-3236
▁涨	-3237
▁霖	-3238
ts	-3239
▁ngc	-3240
▁斌	-3241
▁sn	-3242
▁摔	-3243
▁巩	-3244
▁匣	-3245
▁勾	-3246
▁咒	-3247
▁酿	-3248
▁徙	-3249
▁81	-3250
▁矢	-3251
ence	-3252
▁ps	-3253
▁欺	-3254
▁漆	-3255
▁秉	-3256
▁鞍	-3257
▁阀	-3258
ica	-3259
ivers	-3260
▁饱	-3261
per	-3262
ical	-3263
▁pe	-3264
▁煌	-3265
▁阜	-3266
old	-3267
▁do	-3268
▁铅	-3269
▁900	-3270
▁贿	-3271
▁1905	-3272
ance	-3273
▁87	-3274
▁聂	-3275
▁酯	-3276
▁1915	-3277
▁戚	-3278
▁1916	-3279
▁岐	-3280
▁梭	-3281
▁麓	-3282
▁jo	-3283
iki	-3284
ley	-3285
▁es	-3286
▁黛	-3287
station	-3288
▁os	-3289
▁喉	-3290
▁background	-3291
ere	-3292
▁虞	-3293
▁糊	-3294
lat	-3295
▁will	-3296
▁谴	-3297
▁84	-3298
▁1901	-3299
▁虐	-3300
▁菱	-3301
▁79	-3302
▁蛙	-3303
▁い	-3304
▁嘛	-3305
▁fre	-3306
ase	-3307
▁饥	-3308
▁gre	-3309
cc	-3310
▁cor	-3311
▁佣	-3312
▁哭	-3313
▁蛮	-3314
▁萤	-3315
▁瑶	-3316
▁畴	-3317
▁83	-3318
▁畏	-3319
▁庐	-3320
▁枫	-3321
▁牟	-3322
▁笃	-3323
▁漳	-3324
act	-3325
own	-3326
▁瞄	-3327
▁闹	-3328
▁color	-3329
▁瑙	-3330
▁playstation	-3331
▁love	-3332
▁浴	-3333
▁fl	-3334
▁nh	-3335
▁祷	-3336
▁拦	-3337
ool	-3338
▁堵	-3339
▁cp	-3340
▁酋	-3341
▁1500	-3342
▁á	-3343
▁拯	-3344
▁97	-3345
▁淀	-3346
5%	-3347
▁捲	-3348
▁闯	-3349
▁youtube	-3350
for	-3351
▁阎	-3352
▁5000	-3353
▁辣	-3354
book	-3355
▁mod	-3356
▁庵	-3357
▁帜	-3358
ys	-3359
▁垣	-3360
▁you	-3361
▁谍	-3362
▁钧	-3363
▁驰	-3364
▁ep	-3365
▁廿	-3366
▁92	-3367
▁悼	-3368
iam	-3369
▁gro	-3370
▁朔	-3371
▁1903	-3372
▁gen	-3373
▁笛	-3374
ome	-3375
▁text	-3376
▁min	-3377
▁幢	-3378
ash	-3379
▁绅	-3380
▁吗	-3381
▁彬	-3382
▁棠	-3383
▁韶	-3384
▁鲨	-3385
▁pa	-3386
▁凹	-3387
▁椭	-3388
▁ind	-3389
▁intern	-3390
use	-3391
gr	-3392
▁sw	-3393
▁rob	-3394
▁05	-3395
les	-3396
▁mon	-3397
▁烦	-3398
▁橙	-3399
▁gu	-3400
▁linux	-3401
▁噪	-3402
▁翡	-3403
▁弧	-3404
▁彗	-3405
▁棍	-3406
▁live	-3407
▁mat	-3408
▁蝙	-3409
▁乞	-3410
▁89	-3411
ga	-3412
▁咀	-3413
▁med	-3414
▁1906	-3415
▁吓	-3416
▁楠	-3417
▁氛	-3418
▁1908	-3419
▁1907	-3420
▁閒	-3421
ame	-3422
▁瓣	-3423
▁mag	-3424
▁壬	-3425
▁焰	-3426
▁赦	-3427
▁惑	-3428
▁ic	-3429
▁滴	-3430
▁胃	-3431
▁硝	-3432
▁浑	-3433
▁micro	-3434
▁蛤	-3435
▁磅	-3436
▁骤	-3437
▁酱	-3438
▁湛	-3439
▁颌	-3440
▁缀	-3441
▁膨	-3442
▁寅	-3443
ml	-3444
tr	-3445
▁91	-3446
▁瑰	-3447
▁univers	-3448
▁濒	-3449
▁360	-3450
▁е	-3451
▁н	-3452
▁粘	-3453
▁饲	-3454
pl	-3455
▁res	-3456
▁燥	-3457
▁牢	-3458
tp	-3459
▁窃	-3460
▁冶	-3461
▁垃	-3462
▁黏	-3463
▁摘	-3464
▁105	-3465
▁樑	-3466
ve	-3467
▁des	-3468
▁玫	-3469
▁with	-3470
▁禹	-3471
▁06	-3472
▁掷	-3473
▁cla	-3474
▁杏	-3475
ale	-3476
▁93	-3477
▁1904	-3478
▁汁	-3479
▁剿	-3480
km	-3481
▁silver	-3482
▁by	-3483
▁谕	-3484
▁肆	-3485
▁沧	-3486
▁骂	-3487
▁谥	-3488
▁槟	-3489
▁窟	-3490
▁劾	-3491
▁匿	-3492
▁缆	-3493
ict	-3494
ri	-3495
▁圾	-3496
ise	-3497
▁淹	-3498
ho	-3499
▁孜	-3500
ult	-3501
▁dav	-3502
ee	-3503
▁邸	-3504
▁阐	-3505
ild	-3506
ms	-3507
▁纂	-3508
▁懂	-3509
▁陇	-3510
▁沦	-3511
▁face	-3512
ara	-3513
▁艰	-3514
▁迄	-3515
tc	-3516
▁诈	-3517
▁09	-3518
me	-3519
▁β	-3520
▁泌	-3521
▁闲	-3522
va	-3523
▁畿	-3524
▁戎	-3525
▁寡	-3526
▁鹃	-3527
▁濑	-3528
▁rec	-3529
enn	-3530
▁world	-3531
▁钥	-3532
▁ty	-3533
▁芽	-3534
▁喊	-3535
▁super	-3536
eng	-3537
▁滞	-3538
▁橘	-3539
▁闵	-3540
▁梓	-3541
▁冥	-3542
▁star	-3543
▁窦	-3544
▁iii	-3545
▁汕	-3546
▁懿	-3547
hel	-3548
▁ん	-3549
▁酰	-3550
▁с	-3551
▁奕	-3552
▁酬	-3553
ork	-3554
ose	-3555
af	-3556
▁94	-3557
▁har	-3558
▁簧	-3559
▁int	-3560
▁沛	-3561
▁侄	-3562
▁bro	-3563
▁煮	-3564
▁绰	-3565
▁孚	-3566
▁稽	-3567
▁妆	-3568
▁渗	-3569
urn	-3570
▁gl	-3571
▁su	-3572
▁р	-3573
mb	-3574
▁蔽	-3575
▁隙	-3576
▁char	-3577
▁绒	-3578
▁锣	-3579
▁筋	-3580
▁邹	-3581
▁ent	-3582
▁浊	-3583
▁chr	-3584
ony	-3585
ower	-3586
▁滇	-3587
ade	-3588
ins	-3589
▁勉	-3590
▁纱	-3591
▁绣	-3592
▁宦	-3593
▁寂	-3594
▁mm	-3595
▁雁	-3596
▁01	-3597
▁music	-3598
▁峻	-3599
▁fe	-3600
▁缠	-3601
▁鞭	-3602
▁谜	-3603
lex	-3604
▁07	-3605
▁泄	-3606
▁酵	-3607
gb	-3608
yn	-3609
▁瀑	-3610
▁啤	-3611
▁焕	-3612
▁pet	-3613
der	-3614
▁芯	-3615
▁鳗	-3616
▁can	-3617
▁諡	-3618
▁剌	-3619
▁count	-3620
▁蚁	-3621
▁倪	-3622
▁仗	-3623
▁嫡	-3624
▁竖	-3625
▁俞	-3626
▁air	-3627
▁ü	-3628
▁mc	-3629
▁敖	-3630
▁萍	-3631
▁bla	-3632
▁【	-3633
▁艳	-3634
▁】	-3635
▁akb	-3636
▁ms	-3637
▁350	-3638
▁08	-3639
▁曝	-3640
▁妓	-3641
▁her	-3642
▁墩	-3643
▁school	-3644
uth	-3645
stem	-3646
▁籤	-3647
ward	-3648
▁癸	-3649
▁狩	-3650
▁伺	-3651
▁荔	-3652
▁殉	-3653
▁ib	-3654
▁萌	-3655
olog	-3656
▁颅	-3657
▁呢	-3658
▁1898	-3659
itt	-3660
▁乒	-3661
▁挝	-3662
▁诛	-3663
▁僱	-3664
▁岑	-3665
▁垄	-3666
▁榆	-3667
▁う	-3668
▁傲	-3669
▁1895	-3670
▁stud	-3671
▁墅	-3672
▁拾	-3673
▁锯	-3674
▁墟	-3675
▁烤	-3676
▁1902	-3677
▁桶	-3678
ana	-3679
ata	-3680
▁淋	-3681
▁啦	-3682
▁碘	-3683
▁稚	-3684
ics	-3685
▁茹	-3686
de	-3687
▁彝	-3688
▁诵	-3689
▁缪	-3690
box	-3691
▁臭	-3692
▁裹	-3693
▁缉	-3694
▁web	-3695
▁up	-3696
▁耿	-3697
▁je	-3698
oth	-3699
ster	-3700
▁facebook	-3701
▁吋	-3702
▁彪	-3703
ax	-3704
▁咨	-3705
▁婉	-3706
▁str	-3707
▁蓉	-3708
▁钙	-3709
▁暑	-3710
▁ua	-3711
ca	-3712
ink	-3713
▁蕴	-3714
▁哇	-3715
▁悔	-3716
▁犁	-3717
▁ir	-3718
▁堕	-3719
▁狸	-3720
▁part	-3721
▁聊	-3722
6%	-3723
▁谏	-3724
▁衷	-3725
▁赚	-3726
▁nor	-3727
▁鳉	-3728
▁104	-3729
▁魅	-3730
we	-3731
du	-3732
▁竭	-3733
▁di	-3734
▁琦	-3735
▁舜	-3736
▁dis	-3737
▁挽	-3738
4%	-3739
▁账	-3740
▁肪	-3741
▁蹄	-3742
3%	-3743
▁system	-3744
▁愚	-3745
▁樟	-3746
▁砍	-3747
▁袜	-3748
ha	-3749
▁粟	-3750
▁骸	-3751
▁※	-3752
▁芜	-3753
▁af	-3754
soft	-3755
orn	-3756
▁爽	-3757
▁羌	-3758
▁т	-3759
▁牡	-3760
▁锤	-3761
▁淫	-3762
br	-3763
▁敷	-3764
▁che	-3765
▁诠	-3766
▁嵩	-3767
▁藓	-3768
ke	-3769
lo	-3770
▁pol	-3771
ald	-3772
▁ass	-3773
1%	-3774
▁′	-3775
▁趾	-3776
▁蔚	-3777
▁dc	-3778
7%	-3779
▁ev	-3780
▁砌	-3781
ler	-3782
▁咬	-3783
▁舖	-3784
▁108	-3785
▁li	-3786
2%	-3787
▁亏	-3788
▁裤	-3789
▁弼	-3790
▁sur	-3791
▁皖	-3792
▁豚	-3793
mer	-3794
▁轿	-3795
▁晰	-3796
▁罐	-3797
ike	-3798
▁碗	-3799
▁绎	-3800
▁龚	-3801
▁蔓	-3802
▁垫	-3803
▁舅	-3804
be	-3805
▁弊	-3806
ual	-3807
▁硅	-3808
▁茜	-3809
▁ra	-3810
▁ス	-3811
ode	-3812
▁壶	-3813
▁4000	-3814
▁晖	-3815
▁擒	-3816
▁嫔	-3817
▁ss	-3818
asa	-3819
▁jav	-3820
8%	-3821
dp	-3822
▁匡	-3823
▁啸	-3824
▁禽	-3825
▁red	-3826
ls	-3827
▁莞	-3828
ille	-3829
▁衙	-3830
▁敲	-3831
▁薯	-3832
▁愉	-3833
▁蜡	-3834
▁澜	-3835
▁106	-3836
▁し	-3837
▁檀	-3838
ude	-3839
▁廓	-3840
▁叹	-3841
▁钞	-3842
▁樊	-3843
▁bbc	-3844
▁イ	-3845
▁125	-3846
▁狙	-3847
pt	-3848
▁04	-3849
▁high	-3850
▁•	-3851
da	-3852
oci	-3853
▁í	-3854
▁膀	-3855
▁jam	-3856
▁1890	-3857
▁gn	-3858
▁ref	-3859
▁剖	-3860
▁娥	-3861
▁毓	-3862
ugh	-3863
▁罹	-3864
▁赎	-3865
▁102	-3866
cr	-3867
roid	-3868
▁哩	-3869
ius	-3870
▁02	-3871
▁倭	-3872
att	-3873
icon	-3874
ane	-3875
▁霉	-3876
uch	-3877
▁ver	-3878
▁220	-3879
▁嘎	-3880
▁擢	-3881
▁扳	-3882
▁苔	-3883
▁mark	-3884
▁gir	-3885
▁淆	-3886
▁炒	-3887
▁钾	-3888
▁瞬	-3889
ited	-3890
▁del	-3891
9%	-3892
▁渤	-3893
▁inst	-3894
▁103	-3895
ood	-3896
▁ö	-3897
▁蜘	-3898
▁驼	-3899
▁1896	-3900
▁褒	-3901
hz	-3902
▁摊	-3903
▁飘	-3904
▁泼	-3905
▁ele	-3906
▁钮	-3907
▁毙	-3908
▁孢	-3909
▁釜	-3910
▁not	-3911
▁ā	-3912
▁1200	-3913
▁蔬	-3914
▁祇	-3915
▁杖	-3916
▁nowiki	-3917
▁乓	-3918
▁off	-3919
▁匀	-3920
▁驹	-3921
▁厕	-3922
▁鲉	-3923
▁hy	-3924
ett	-3925
▁鳃	-3926
▁鹦	-3927
▁william	-3928
▁壹	-3929
▁郝	-3930
▁饿	-3931
ien	-3932
▁钉	-3933
dr	-3934
▁microsoft	-3935
ement	-3936
▁1897	-3937
▁棱	-3938
▁в	-3939
ner	-3940
▁兑	-3941
▁暹	-3942
▁胚	-3943
▁蕉	-3944
▁甄	-3945
ition	-3946
▁渭	-3947
▁烹	-3948
eth	-3949
ream	-3950
▁俯	-3951
▁迭	-3952
▁115	-3953
▁iv	-3954
▁岱	-3955
illa	-3956
▁mr	-3957
▁睿	-3958
ave	-3959
▁祁	-3960
▁к	-3961
▁沁	-3962
▁邯	-3963
ject	-3964
oss	-3965
▁team	-3966
▁哨	-3967
▁崛	-3968
▁1899	-3969
▁霜	-3970
▁猩	-3971
▁骆	-3972
▁抬	-3973
▁cont	-3974
▁娄	-3975
▁檐	-3976
▁tvb	-3977
▁android	-3978
▁猿	-3979
▁脆	-3980
▁div	-3981
▁凑	-3982
yl	-3983
▁ル	-3984
▁谅	-3985
▁梧	-3986
▁et	-3987
▁胤	-3988
▁沫	-3989
▁盔	-3990
▁ter	-3991
ds	-3992
▁ó	-3993
ake	-3994
▁渝	-3995
▁107	-3996
▁か	-3997
pa	-3998
▁疲	-3999
▁are	-4000
▁卦	-4001
▁榕	-4002
▁ke	-4003
▁val	-4004
sk	-4005
▁犀	-4006
▁group	-4007
▁挫	-4008
▁凿	-4009
▁colle	-4010
▁art	-4011
▁1889	-4012
▁war	-4013
▁saint	-4014
▁university	-4015
▁da	-4016
▁刹	-4017
▁game	-4018
01	-4019
▁灿	-4020
▁舶	-4021
▁邢	-4022
▁international	-4023
▁巾	-4024
▁蝴	-4025
▁裙	-4026
▁nhk	-4027
▁ec	-4028
▁沂	-4029
▁膝	-4030
▁た	-4031
pm	-4032
▁宵	-4033
oph	-4034
▁楷	-4035
▁莹	-4036
▁pre	-4037
▁sec	-4038
▁莽	-4039
▁莺	-4040
ings	-4041
▁眷	-4042
▁晤	-4043
able	-4044
▁抹	-4045
▁03	-4046
▁妾	-4047
▁矣	-4048
▁梗	-4049
▁惹	-4050
▁疼	-4051
▁袍	-4052
▁cap	-4053
▁汐	-4054
▁cy	-4055
▁黔	-4056
▁240	-4057
▁驿	-4058
▁醛	-4059
▁蝉	-4060
▁act	-4061
▁苷	-4062
▁髓	-4063
▁show	-4064
▁膛	-4065
ico	-4066
▁雯	-4067
▁搁	-4068
▁wal	-4069
▁婷	-4070
iro	-4071
▁倖	-4072
fl	-4073
▁蕊	-4074
sa	-4075
▁媛	-4076
▁è	-4077
▁桦	-4078
ott	-4079
▁匾	-4080
▁雏	-4081
▁iso	-4082
▁david	-4083
▁潟	-4084
▁傍	-4085
▁肚	-4086
urg	-4087
▁450	-4088
▁铀	-4089
▁泗	-4090
▁109	-4091
ene	-4092
▁111	-4093
▁溥	-4094
▁谟	-4095
▁50%	-4096
ino	-4097
work	-4098
▁簿	-4099
▁栅	-4100
▁笠	-4101
▁л	-4102
▁ig	-4103
ons	-4104
vel	-4105
▁谎	-4106
ero	-4107
▁128	-4108
▁峙	-4109
▁膏	-4110
▁喙	-4111
▁蒿	-4112
▁祺	-4113
05	-4114
▁big	-4115
▁10%	-4116
▁1860	-4117
▁cm	-4118
▁湧	-4119
▁comm	-4120
▁勿	-4121
▁琅	-4122
cm	-4123
ear	-4124
▁涩	-4125
▁堀	-4126
ek	-4127
▁卯	-4128
▁bas	-4129
▁ラ	-4130
▁棺	-4131
▁渴	-4132
▁1880	-4133
▁1600	-4134
let	-4135
▁sd	-4136
▁汾	-4137
▁robert	-4138
▁day	-4139
▁葱	-4140
▁1894	-4141
▁耻	-4142
▁vi	-4143
▁辜	-4144
▁ca	-4145
▁112	-4146
▁睦	-4147
▁xbox	-4148
▁135	-4149
▁ta	-4150
▁geor	-4151
▁卤	-4152
▁磡	-4153
▁垩	-4154
▁敕	-4155
rit	-4156
uro	-4157
▁俩	-4158
▁溉	-4159
▁christ	-4160
▁讳	-4161
ute	-4162
▁桨	-4163
▁鳕	-4164
▁that	-4165
▁pla	-4166
▁tech	-4167
▁奢	-4168
▁溢	-4169
▁泾	-4170
▁渣	-4171
▁ce	-4172
▁と	-4173
▁冤	-4174
▁肋	-4175
▁顽	-4176
▁1800	-4177
▁闢	-4178
▁婿	-4179
▁您	-4180
oo	-4181
▁mor	-4182
▁敛	-4183
way	-4184
▁pop	-4185
ife	-4186
▁羞	-4187
▁耆	-4188
▁open	-4189
▁fin	-4190
▁岚	-4191
▁虔	-4192
▁洽	-4193
▁230	-4194
sc	-4195
▁幌	-4196
▁eng	-4197
▁璧	-4198
▁lim	-4199
▁俭	-4200
▁堰	-4201
▁峨	-4202
▁http	-4203
▁ang	-4204
▁晃	-4205
▁殴	-4206
ena	-4207
▁镍	-4208
▁洼	-4209
port	-4210
▁cro	-4211
▁郸	-4212
▁侬	-4213
▁菁	-4214
▁mk	-4215
▁羟	-4216
▁fa	-4217
▁paul	-4218
▁寝	-4219
▁1870	-4220
▁瘦	-4221
▁绸	-4222
▁蜗	-4223
▁bu	-4224
▁top	-4225
▁210	-4226
ael	-4227
ark	-4228
▁塾	-4229
▁sim	-4230
▁fc	-4231
▁缮	-4232
▁118	-4233
▁produ	-4234
▁吟	-4235
▁tom	-4236
▁μ	-4237
▁mich	-4238
sm	-4239
▁ア	-4240
▁啊	-4241
ari	-4242
▁蚌	-4243
▁from	-4244
▁紮	-4245
▁national	-4246
▁佥	-4247
▁馨	-4248
▁摸	-4249
▁枯	-4250
▁max	-4251
▁county	-4252
▁ä	-4253
▁馈	-4254
▁reg	-4255
uck	-4256
▁sam	-4257
▁1871	-4258
▁慌	-4259
▁焊	-4260
▁155	-4261
po	-4262
▁rich	-4263
▁晏	-4264
▁磺	-4265
▁113	-4266
▁烃	-4267
que	-4268
any	-4269
▁羚	-4270
▁black	-4271
▁闰	-4272
▁don	-4273
▁sol	-4274
▁侏	-4275
▁6000	-4276
by	-4277
▁du	-4278
ese	-4279
▁1885	-4280
▁pat	-4281
▁280	-4282
▁揽	-4283
▁na	-4284
▁匙	-4285
▁嘲	-4286
▁埼	-4287
▁trans	-4288
▁rad	-4289
▁city	-4290
▁诬	-4291
▁time	-4292
▁114	-4293
iver	-4294
▁谬	-4295
▁鹉	-4296
▁枣	-4297
▁sl	-4298
▁games	-4299
▁胖	-4300
ism	-4301
▁bm	-4302
▁戟	-4303
▁苻	-4304
▁骄	-4305
▁泵	-4306
ram	-4307
▁酉	-4308
▁掀	-4309
▁20%	-4310
▁糟	-4311
▁钝	-4312
▁out	-4313
▁刃	-4314
▁ト	-4315
▁cc	-4316
▁kn	-4317
▁kh	-4318
03	-4319
▁mp	-4320
▁捞	-4321
osh	-4322
ron	-4323
oll	-4324
▁ts	-4325
fo	-4326
▁mer	-4327
▁cal	-4328
za	-4329
▁ber	-4330
▁was	-4331
▁116	-4332
▁win	-4333
▁麒	-4334
▁vis	-4335
▁122	-4336
▁恼	-4337
▁amer	-4338
▁park	-4339
to	-4340
▁骼	-4341
era	-4342
ior	-4343
▁リ	-4344
▁丕	-4345
▁艮	-4346
▁ur	-4347
▁ios	-4348
▁竺	-4349
▁dj	-4350
▁岔	-4351
▁芹	-4352
▁蔷	-4353
▁锂	-4354
▁type	-4355
▁117	-4356
▁僵	-4357
phone	-4358
▁衬	-4359
▁衫	-4360
▁菸	-4361
▁ha	-4362
02	-4363
▁锌	-4364
▁慾	-4365
▁氰	-4366
enc	-4367
▁琛	-4368
▁岬	-4369
▁rock	-4370
▁il	-4371
▁org	-4372
▁power	-4373
▁倚	-4374
▁棵	-4375
▁噬	-4376
▁inc	-4377
▁梳	-4378
▁sing	-4379
▁な	-4380
▁兀	-4381
ya	-4382
▁king	-4383
▁懋	-4384
itter	-4385
▁抒	-4386
▁鸠	-4387
▁瑾	-4388
▁萼	-4389
▁雳	-4390
▁皓	-4391
fc	-4392
▁菇	-4393
▁斧	-4394
▁alex	-4395
▁james	-4396
▁磐	-4397
▁ww	-4398
▁淞	-4399
▁utc	-4400
ubl	-4401
▁1892	-4402
▁芮	-4403
▁腕	-4404
▁蝇	-4405
▁秃	-4406
ex	-4407
▁1886	-4408
▁枕	-4409
▁1884	-4410
▁alb	-4411
▁搏	-4412
▁vo	-4413
ham	-4414
ital	-4415
▁咪	-4416
▁sal	-4417
ven	-4418
▁260	-4419
ied	-4420
▁锈	-4421
▁忒	-4422
▁暱	-4423
▁に	-4424
aph	-4425
▁ol	-4426
net	-4427
▁娇	-4428
▁lib	-4429
▁哉	-4430
rol	-4431
▁鸽	-4432
▁bill	-4433
▁fir	-4434
▁sar	-4435
osa	-4436
▁jap	-4437
▁憾	-4438
▁123	-4439
▁java	-4440
▁霹	-4441
▁vol	-4442
▁oricon	-4443
▁1888	-4444
▁class	-4445
iff	-4446
▁ク	-4447
▁瀛	-4448
▁穹	-4449
▁cat	-4450
go	-4451
▁兖	-4452
▁撕	-4453
▁only	-4454
04	-4455
pg	-4456
▁稜	-4457
bl	-4458
▁record	-4459
▁fla	-4460
▁ba	-4461
▁sun	-4462
▁睹	-4463
▁瞻	-4464
▁舷	-4465
▁〔	-4466
▁1893	-4467
▁戍	-4468
▁san	-4469
▁1887	-4470
▁thom	-4471
▁棣	-4472
▁瑛	-4473
▁芸	-4474
fa	-4475
▁〕	-4476
▁兜	-4477
▁诃	-4478
▁90%	-4479
▁祂	-4480
▁汞	-4481
06	-4482
▁ibm	-4483
▁靶	-4484
▁り	-4485
▁桩	-4486
ology	-4487
▁浚	-4488
ield	-4489
▁michael	-4490
08	-4491
▁溜	-4492
▁750	-4493
▁鰕	-4494
▁嘱	-4495
▁溴	-4496
▁茱	-4497
▁kar	-4498
▁捧	-4499
mun	-4500
▁cpu	-4501
▁rna	-4502
▁焉	-4503
▁320	-4504
▁抨	-4505
▁癒	-4506
▁衞	-4507
▁荀	-4508
itch	-4509
▁145	-4510
▁洩	-4511
▁jun	-4512
ertain	-4513
▁80%	-4514
▁127	-4515
▁iphone	-4516
▁煽	-4517
▁蔗	-4518
▁洒	-4519
▁2500	-4520
ution	-4521
▁1876	-4522
▁д	-4523
▁121	-4524
▁best	-4525
▁颚	-4526
▁苞	-4527
▁篡	-4528
▁蚕	-4529
▁缚	-4530
ull	-4531
▁cs	-4532
ka	-4533
▁胰	-4534
▁嗜	-4535
▁蟾	-4536
▁鑫	-4537
▁霆	-4538
▁1861	-4539
▁蛾	-4540
▁炬	-4541
▁祕	-4542
▁觅	-4543
▁1850	-4544
▁鲀	-4545
app	-4546
▁捍	-4547
▁栈	-4548
▁cre	-4549
▁ا	-4550
▁tre	-4551
▁蜒	-4552
▁阙	-4553
▁spec	-4554
mp	-4555
berg	-4556
▁曜	-4557
▁wat	-4558
▁陡	-4559
▁129	-4560
▁techn	-4561
▁韧	-4562
▁萃	-4563
▁bel	-4564
▁bre	-4565
▁rom	-4566
▁恪	-4567
▁hot	-4568
▁帛	-4569
▁arm	-4570
▁nat	-4571
eration	-4572
▁ef	-4573
▁ds	-4574
▁蜿	-4575
▁逗	-4576
▁る	-4577
▁熹	-4578
▁ben	-4579
▁bet	-4580
▁糙	-4581
▁霄	-4582
▁−	-4583
▁玺	-4584
inc	-4585
▁ga	-4586
▁渥	-4587
las	-4588
dy	-4589
▁550	-4590
▁mil	-4591
▁1883	-4592
▁隍	-4593
▁gdp	-4594
▁30%	-4595
ors	-4596
▁she	-4597
▁〜	-4598
▁灶	-4599
▁1868	-4600
▁き	-4601
▁怜	-4602
▁boy	-4603
▁稠	-4604
▁1891	-4605
▁м	-4606
07	-4607
▁ま	-4608
▁end	-4609
td	-4610
▁serv	-4611
▁孵	-4612
▁mart	-4613
▁bi	-4614
▁mi	-4615
▁stre	-4616
▁恺	-4617
▁dream	-4618
▁沸	-4619
▁mg	-4620
▁club	-4621
▁entertain	-4622
▁124	-4623
▁japan	-4624
▁镰	-4625
ily	-4626
▁祚	-4627
▁鍊	-4628
▁煞	-4629
▁锻	-4630
ini	-4631
▁est	-4632
▁俾	-4633
▁mont	-4634
ric	-4635
▁翟	-4636
ange	-4637
▁瘟	-4638
▁黜	-4639
▁妄	-4640
▁敞	-4641
▁126	-4642
▁砾	-4643
▁oh	-4644
▁144	-4645
▁119	-4646
▁fil	-4647
▁栓	-4648
▁昼	-4649
▁fm	-4650
▁sub	-4651
100	-4652
▁慨	-4653
▁莓	-4654
ral	-4655
▁峭	-4656
▁偕	-4657
▁entertainment	-4658
▁vir	-4659
▁1862	-4660
▁tour	-4661
▁皂	-4662
▁arch	-4663
▁绞	-4664
▁芥	-4665
▁sg	-4666
▁jack	-4667
▁life	-4668
++	-4669
▁崑	-4670
▁media	-4671
▁巳	-4672
▁沽	-4673
▁dan	-4674
▁650	-4675
▁妨	-4676
▁淇	-4677
▁粪	-4678
▁ko	-4679
▁篷	-4680
▁ve	-4681
▁鞑	-4682
▁曙	-4683
▁der	-4684
▁1848	-4685
clude	-4686
▁fire	-4687
ump	-4688
▁van	-4689
▁133	-4690
▁筛	-4691
▁1867	-4692
▁烛	-4693
▁177	-4694
lin	-4695
ora	-4696
▁137	-4697
▁钊	-4698
▁昊	-4699
line	-4700
▁箕	-4701
▁ul	-4702
▁矽	-4703
▁1877	-4704
▁twitter	-4705
▁咤	-4706
▁1873	-4707
▁薰	-4708
fs	-4709
▁ok	-4710
▁175	-4711
▁ant	-4712
▁hen	-4713
▁颐	-4714
form	-4715
ada	-4716
ipt	-4717
xy	-4718
bi	-4719
▁apple	-4720
▁埤	-4721
▁晕	-4722
▁赁	-4723
▁kr	-4724
erson	-4725
▁躯	-4726
▁award	-4727
▁麾	-4728
▁1879	-4729
▁酚	-4730
ita	-4731
ication	-4732
▁40%	-4733
▁may	-4734
ano	-4735
▁165	-4736
▁蚤	-4737
▁镖	-4738
▁く	-4739
▁1864	-4740
▁屑	-4741
▁270	-4742
▁rev	-4743
▁俸	-4744
▁work	-4745
200	-4746
▁侮	-4747
uss	-4748
▁硼	-4749
▁羁	-4750
▁tim	-4751
▁溺	-4752
urt	-4753
▁γ	-4754
ula	-4755
▁1865	-4756
▁玮	-4757
▁潼	-4758
▁1878	-4759
▁恕	-4760
▁刮	-4761
▁dist	-4762
▁port	-4763
▁邺	-4764
▁辗	-4765
▁house	-4766
▁1875	-4767
▁1882	-4768
▁肽	-4769
▁dd	-4770
uis	-4771
▁镁	-4772
▁泻	-4773
▁笨	-4774
▁152	-4775
cd	-4776
▁靼	-4777
▁aut	-4778
▁さ	-4779
▁乍	-4780
ision	-4781
▁ッ	-4782
▁737	-4783
▁abc	-4784
▁1840	-4785
▁饷	-4786
▁皋	-4787
▁hol	-4788
▁1881	-4789
▁8000	-4790
wn	-4791
▁斡	-4792
▁娟	-4793
▁蚊	-4794
led	-4795
▁膳	-4796
its	-4797
ij	-4798
▁road	-4799
bn	-4800
▁line	-4801
yth	-4802
▁unix	-4803
▁苣	-4804
▁咽	-4805
▁盎	-4806
▁154	-4807
ated	-4808
▁sport	-4809
▁dem	-4810
▁first	-4811
▁intel	-4812
▁桢	-4813
▁禺	-4814
▁鳅	-4815
▁project	-4816
▁鹭	-4817
our	-4818
oro	-4819
▁泣	-4820
▁曦	-4821
▁this	-4822
▁1874	-4823
▁phil	-4824
por	-4825
▁mel	-4826
▁richard	-4827
09	-4828
▁nt	-4829
▁dire	-4830
▁龛	-4831
che	-4832
▁吡	-4833
▁妍	-4834
▁ast	-4835
▁good	-4836
▁college	-4837
▁堇	-4838
▁莆	-4839
▁隅	-4840
▁166	-4841
▁挠	-4842
ery	-4843
▁は	-4844
▁楞	-4845
▁pd	-4846
▁臧	-4847
▁associ	-4848
▁晒	-4849
▁sir	-4850
min	-4851
▁椰	-4852
▁靴	-4853
▁π	-4854
▁舵	-4855
▁酪	-4856
▁132	-4857
▁彤	-4858
iew	-4859
▁□	-4860
▁george	-4861
▁hel	-4862
undam	-4863
▁dec	-4864
▁豁	-4865
▁gt	-4866
ection	-4867
▁譬	-4868
▁贱	-4869
▁bus	-4870
▁70%	-4871
▁沥	-4872
▁fam	-4873
press	-4874
▁7000	-4875
▁west	-4876
▁adv	-4877
▁mem	-4878
▁沐	-4879
▁陞	-4880
▁挟	-4881
▁138	-4882
▁les	-4883
▁gar	-4884
▁hall	-4885
▁330	-4886
▁wii	-4887
▁帘	-4888
▁瘫	-4889
▁1872	-4890
▁miss	-4891
eral	-4892
ky	-4893
▁street	-4894
▁у	-4895
▁纶	-4896
ator	-4897
▁泸	-4898
▁1863	-4899
▁傀	-4900
▁瘾	-4901
▁砸	-4902
▁驯	-4903
ama	-4904
▁钜	-4905
▁铉	-4906
gin	-4907
▁暮	-4908
▁裘	-4909
▁诅	-4910
▁陛	-4911
▁euro	-4912
▁吵	-4913
▁www	-4914
▁埗	-4915
▁绮	-4916
▁5%	-4917
▁mad	-4918
▁鲑	-4919
▁ka	-4920
▁1400	-4921
▁衢	-4922
▁sr	-4923
▁滙	-4924
▁rem	-4925
▁si	-4926
▁if	-4927
ates	-4928
▁氦	-4929
▁炫	-4930
▁阱	-4931
▁δ	-4932
▁こ	-4933
▁疹	-4934
▁赂	-4935
▁sky	-4936
ci	-4937
▁苟	-4938
▁cv	-4939
▁柠	-4940
▁156	-4941
▁mtv	-4942
▁坜	-4943
▁158	-4944
▁诰	-4945
▁mid	-4946
▁σ	-4947
▁鎌	-4948
▁cam	-4949
▁儡	-4950
ular	-4951
include	-4952
com	-4953
▁atp	-4954
▁瞒	-4955
▁蓟	-4956
▁ger	-4957
▁led	-4958
▁land	-4959
▁扔	-4960
▁sum	-4961
▁pal	-4962
▁metac	-4963
ican	-4964
▁が	-4965
▁佬	-4966
wan	-4967
▁鞘	-4968
▁gp	-4969
▁ann	-4970
▁倩	-4971
ensis	-4972
▁煎	-4973
▁韬	-4974
▁1300	-4975
▁unic	-4976
▁free	-4977
▁charles	-4978
ze	-4979
▁夭	-4980
▁136	-4981
ety	-4982
▁\	-4983
▁north	-4984
▁幡	-4985
▁studio	-4986
▁萱	-4987
▁庾	-4988
▁绶	-4989
▁シ	-4990
▁峪	-4991
▁wr	-4992
▁镀	-4993
▁rh	-4994
▁1866	-4995
▁1869	-4996
▁沮	-4997
▁戮	-4998
▁ram	-4999
▁lang	-5000
▁148	-5001
▁汴	-5002
▁腥	-5003
▁139	-5004
▁み	-5005
▁呆	-5006
▁榈	-5007
▁葫	-5008
ateg	-5009
▁100%	-5010
▁60%	-5011
▁env	-5012
ger	-5013
▁pi	-5014
ista	-5015
▁λ	-5016
▁拢	-5017
▁挣	-5018
▁html	-5019
▁ear	-5020
▁毯	-5021
▁巅	-5022
▁淄	-5023
ste	-5024
▁伶	-5025
rop	-5026
▁п	-5027
▁ら	-5028
▁mob	-5029
▁隘	-5030
▁over	-5031
▁靡	-5032
▁@	-5033
▁炯	-5034
ions	-5035
▁gundam	-5036
▁绫	-5037
▁羲	-5038
▁柑	-5039
▁奚	-5040
▁濠	-5041
▁磊	-5042
ritic	-5043
▁131	-5044
▁ever	-5045
▁gold	-5046
ware	-5047
▁醚	-5048
▁china	-5049
▁槛	-5050
▁芋	-5051
▁metacritic	-5052
▁134	-5053
▁log	-5054
▁槐	-5055
▁ob	-5056
▁琵	-5057
▁205	-5058
▁湄	-5059
▁wil	-5060
▁嘻	-5061
▁钛	-5062
▁鼬	-5063
▁kbs	-5064
▁叱	-5065
▁瞩	-5066
ris	-5067
▁168	-5068
▁kg	-5069
▁钵	-5070
▁thomas	-5071
▁inf	-5072
▁tc	-5073
▁翘	-5074
▁direct	-5075
▁peter	-5076
▁お	-5077
▁晟	-5078
▁炀	-5079
▁146	-5080
▁ray	-5081
▁巖	-5082
▁タ	-5083
▁扯	-5084
cript	-5085
unes	-5086
▁姨	-5087
▁ju	-5088
▁south	-5089
▁萎	-5090
▁jose	-5091
sd	-5092
▁檬	-5093
cess	-5094
▁sony	-5095
▁旷	-5096
▁讶	-5097
▁て	-5098
vin	-5099
▁鄞	-5100
ani	-5101
▁矫	-5102
▁陌	-5103
itz	-5104
▁琶	-5105
▁franc	-5106
▁mir	-5107
▁鸾	-5108
▁1830	-5109
▁records	-5110
▁カ	-5111
▁咎	-5112
▁崁	-5113
▁陋	-5114
▁淤	-5115
ford	-5116
▁your	-5117
▁燮	-5118
▁1700	-5119
▁limited	-5120
▁141	-5121
▁垮	-5122
▁grand	-5123
▁鸥	-5124
ason	-5125
ura	-5126
▁冉	-5127
▁unicode	-5128
▁sci	-5129
▁醋	-5130
▁娴	-5131
▁跪	-5132
▁胥	-5133
▁bab	-5134
▁幂	-5135
ki	-5136
mus	-5137
▁笋	-5138
▁拷	-5139
▁long	-5140
ren	-5141
ally	-5142
▁ltd	-5143
▁鹫	-5144
▁証	-5145
▁pan	-5146
ander	-5147
▁147	-5148
ua	-5149
▁â	-5150
▁dom	-5151
▁恤	-5152
ui	-5153
▁翊	-5154
▁law	-5155
▁锚	-5156
▁ç	-5157
▁壕	-5158
▁蒜	-5159
▁but	-5160
▁掳	-5161
▁256	-5162
▁mov	-5163
sch	-5164
▁痪	-5165
▁耦	-5166
▁tem	-5167
▁153	-5168
▁office	-5169
▁1100	-5170
▁沾	-5171
▁肛	-5172
▁蒐	-5173
str	-5174
▁稷	-5175
ville	-5176
▁company	-5177
ker	-5178
▁luc	-5179
▁桅	-5180
▁铠	-5181
▁wid	-5182
▁ジ	-5183
▁dig	-5184
▁1853	-5185
▁news	-5186
▁ロ	-5187
▁sbs	-5188
▁苇	-5189
ella	-5190
ble	-5191
▁747	-5192
▁fun	-5193
▁悍	-5194
▁ah	-5195
▁mbc	-5196
▁佚	-5197
▁1858	-5198
▁毘	-5199
▁fi	-5200
▁publ	-5201
▁寰	-5202
wa	-5203
▁あ	-5204
▁朽	-5205
ope	-5206
ush	-5207
▁殡	-5208
ents	-5209
▁弈	-5210
▁憩	-5211
▁aa	-5212
▁苛	-5213
ql	-5214
▁real	-5215
▁卉	-5216
▁瞿	-5217
▁form	-5218
▁mb	-5219
▁420	-5220
▁诫	-5221
▁拐	-5222
▁皱	-5223
idge	-5224
▁nasa	-5225
▁渲	-5226
▁笙	-5227
▁篆	-5228
ester	-5229
▁绛	-5230
▁蔑	-5231
▁漕	-5232
▁钰	-5233
▁151	-5234
▁蕙	-5235
▁143	-5236
▁珂	-5237
▁聆	-5238
▁1859	-5239
▁just	-5240
▁诡	-5241
▁釉	-5242
▁峇	-5243
▁ham	-5244
▁竿	-5245
ther	-5246
▁sig	-5247
▁chin	-5248
▁揆	-5249
▁悚	-5250
▁涧	-5251
ja	-5252
ny	-5253
ball	-5254
▁25%	-5255
▁cct	-5256
▁濮	-5257
▁莒	-5258
▁剃	-5259
▁懒	-5260
▁臼	-5261
▁mot	-5262
▁1854	-5263
▁east	-5264
▁侃	-5265
▁ret	-5266
▁225	-5267
▁悄	-5268
▁211	-5269
▁1857	-5270
▁汲	-5271
mo	-5272
▁203	-5273
▁埕	-5274
▁camp	-5275
▁啶	-5276
ule	-5277
▁roy	-5278
▁岂	-5279
▁铬	-5280
▁az	-5281
▁tal	-5282
▁○	-5283
▁谤	-5284
▁颍	-5285
▁amd	-5286
▁悖	-5287
▁闷	-5288
▁jon	-5289
▁nov	-5290
▁ち	-5291
▁荧	-5292
uz	-5293
▁昙	-5294
▁pp	-5295
▁squ	-5296
▁糯	-5297
▁霰	-5298
▁孺	-5299
▁american	-5300
fe	-5301
▁骇	-5302
▁gnu	-5303
▁坍	-5304
▁炽	-5305
▁昧	-5306
▁850	-5307
ative	-5308
si	-5309
▁ε	-5310
▁instit	-5311
▁andre	-5312
▁blue	-5313
▁214	-5314
▁饪	-5315
▁lis	-5316
▁睐	-5317
▁驸	-5318
▁production	-5319
▁167	-5320
▁崭	-5321
▁帧	-5322
ling	-5323
▁235	-5324
▁tor	-5325
▁甥	-5326
▁girls	-5327
▁苓	-5328
▁157	-5329
▁api	-5330
▁mal	-5331
▁媚	-5332
▁簇	-5333
▁琰	-5334
▁fer	-5335
▁臻	-5336
▁key	-5337
▁隼	-5338
▁ign	-5339
▁nav	-5340
▁who	-5341
▁衮	-5342
▁贮	-5343
ko	-5344
▁杞	-5345
▁hal	-5346
▁batt	-5347
▁380	-5348
▁愁	-5349
▁xp	-5350
▁掣	-5351
▁泷	-5352
▁盼	-5353
▁208	-5354
▁163	-5355
▁173	-5356
▁lar	-5357
▁340	-5358
▁甬	-5359
asc	-5360
▁301	-5361
▁骁	-5362
▁ο	-5363
▁ω	-5364
101	-5365
▁1856	-5366
▁哆	-5367
▁lee	-5368
ival	-5369
▁202	-5370
▁芷	-5371
▁マ	-5372
▁soft	-5373
▁馏	-5374
▁捆	-5375
▁跆	-5376
▁铨	-5377
▁sant	-5378
li	-5379
▁陂	-5380
▁褚	-5381
▁215	-5382
▁疟	-5383
001	-5384
▁kong	-5385
▁178	-5386
▁soc	-5387
▁谒	-5388
ello	-5389
▁149	-5390
▁association	-5391
▁蛱	-5392
▁song	-5393
▁昱	-5394
mann	-5395
▁great	-5396
▁踩	-5397
agon	-5398
▁chem	-5399
▁毋	-5400
els	-5401
▁hum	-5402
▁isbn	-5403
▁珪	-5404
▁cast	-5405
▁攸	-5406
▁dos	-5407
▁elect	-5408
ody	-5409
▁far	-5410
▁傻	-5411
▁桧	-5412
▁聋	-5413
▁girl	-5414
▁砷	-5415
▁categ	-5416
▁←	-5417
▁镐	-5418
▁1851	-5419
▁辕	-5420
▁г	-5421
▁ド	-5422
▁hong	-5423
▁僖	-5424
▁jul	-5425
▁谚	-5426
▁band	-5427
▁dl	-5428
▁young	-5429
▁1847	-5430
▁琐	-5431
▁ut	-5432
▁162	-5433
▁mill	-5434
▁侗	-5435
▁network	-5436
▁name	-5437
▁rap	-5438
▁tai	-5439
▁green	-5440
▁onlyinclude	-5441
ih	-5442
▁撃	-5443
▁烘	-5444
▁home	-5445
no	-5446
▁灼	-5447
urch	-5448
▁殆	-5449
▁鲽	-5450
▁480	-5451
▁von	-5452
ury	-5453
pc	-5454
▁159	-5455
▁じ	-5456
▁歪	-5457
▁硒	-5458
▁铵	-5459
▁妒	-5460
▁撼	-5461
▁bal	-5462
▁皈	-5463
▁趟	-5464
▁bb	-5465
▁1855	-5466
▁leg	-5467
▁ova	-5468
▁pres	-5469
▁itunes	-5470
▁銮	-5471
▁river	-5472
▁葆	-5473
vid	-5474
▁挚	-5475
ous	-5476
▁躁	-5477
▁遏	-5478
▁gala	-5479
▁how	-5480
▁night	-5481
ocal	-5482
0%	-5483
▁圻	-5484
▁om	-5485
▁傣	-5486
▁nbc	-5487
▁腻	-5488
▁doc	-5489
▁category	-5490
▁td	-5491
▁15%	-5492
▁176	-5493
my	-5494
red	-5495
▁hist	-5496
▁侈	-5497
▁inv	-5498
▁赈	-5499
ila	-5500
▁vict	-5501
▁syn	-5502
▁post	-5503
▁椿	-5504
▁champ	-5505
▁gb	-5506
▁jean	-5507
▁樵	-5508
▁畸	-5509
▁濬	-5510
fer	-5511
▁que	-5512
fr	-5513
▁绯	-5514
▁142	-5515
▁206	-5516
▁ext	-5517
▁羧	-5518
▁茉	-5519
▁蜴	-5520
▁cg	-5521
▁207	-5522
gbt	-5523
▁鳌	-5524
ipp	-5525
▁183	-5526
▁tbs	-5527
▁ll	-5528
▁370	-5529
▁贻	-5530
ns	-5531
▁heart	-5532
urus	-5533
▁two	-5534
▁ل	-5535
▁〇	-5536
▁town	-5537
▁レ	-5538
▁209	-5539
▁ros	-5540
▁薹	-5541
▁ú	-5542
▁ai	-5543
▁frank	-5544
▁跤	-5545
▁410	-5546
▁soci	-5547
ague	-5548
ips	-5549
▁1852	-5550
▁white	-5551
▁褶	-5552
▁die	-5553
▁bank	-5554
▁楔	-5555
▁瓯	-5556
ney	-5557
▁sat	-5558
ou	-5559
gram	-5560
▁±	-5561
▁tur	-5562
▁雉	-5563
▁恳	-5564
▁筠	-5565
▁sv	-5566
▁164	-5567
▁1841	-5568
▁唸	-5569
▁铲	-5570
ota	-5571
▁sin	-5572
▁绢	-5573
ios	-5574
▁290	-5575
▁锰	-5576
▁ly	-5577
uv	-5578
▁叡	-5579
▁171	-5580
▁pag	-5581
▁1846	-5582
▁瀚	-5583
▁md	-5584
erv	-5585
▁usb	-5586
burg	-5587
▁204	-5588
▁310	-5589
▁430	-5590
▁卅	-5591
▁驴	-5592
▁has	-5593
▁魄	-5594
▁anim	-5595
ws	-5596
star	-5597
▁峯	-5598
ets	-5599
▁state	-5600
▁mak	-5601
▁潞	-5602
wood	-5603
ning	-5604
▁169	-5605
▁stand	-5606
▁internet	-5607
▁瞳	-5608
▁cbs	-5609
▁靳	-5610
▁1%	-5611
▁1849	-5612
▁倦	-5613
▁hs	-5614
ids	-5615
▁鳚	-5616
▁221	-5617
▁沅	-5618
▁媳	-5619
unc	-5620
▁tar	-5621
zo	-5622
▁172	-5623
▁弩	-5624
▁island	-5625
▁脾	-5626
▁218	-5627
▁tro	-5628
ache	-5629
ift	-5630
▁cur	-5631
▁hill	-5632
idae	-5633
▁辍	-5634
gy	-5635
▁light	-5636
mi	-5637
▁ν	-5638
▁颊	-5639
▁bay	-5640
▁ρ	-5641
▁width	-5642
▁book	-5643
▁1844	-5644
▁under	-5645
▁184	-5646
▁distr	-5647
▁cctv	-5648
▁disc	-5649
▁hor	-5650
▁rub	-5651
ira	-5652
▁bur	-5653
▁à	-5654
▁浒	-5655
▁ceo	-5656
▁1820	-5657
▁dh	-5658
▁182	-5659
ional	-5660
▁1815	-5661
▁alph	-5662
ison	-5663
▁var	-5664
▁year	-5665
▁161	-5666
obe	-5667
▁匆	-5668
▁馅	-5669
▁炜	-5670
▁223	-5671
▁勐	-5672
ima	-5673
▁ry	-5674
▁def	-5675
▁server	-5676
▁rt	-5677
▁碉	-5678
▁pt	-5679
▁mu	-5680
▁桔	-5681
▁au	-5682
▁拌	-5683
ape	-5684
▁捣	-5685
▁united	-5686
▁遴	-5687
▁dar	-5688
▁焘	-5689
ely	-5690
▁ice	-5691
▁圩	-5692
▁栉	-5693
▁飙	-5694
▁cle	-5695
▁圃	-5696
ats	-5697
▁joseph	-5698
500	-5699
▁1843	-5700
▁217	-5701
▁dev	-5702
▁喃	-5703
▁耍	-5704
▁vii	-5705
▁1845	-5706
▁commun	-5707
▁つ	-5708
▁呕	-5709
▁216	-5710
▁禀	-5711
▁enviro	-5712
▁潍	-5713
gen	-5714
▁胱	-5715
ific	-5716
▁222	-5717
▁10000	-5718
▁τ	-5719
▁甦	-5720
▁肴	-5721
▁bon	-5722
▁搅	-5723
▁let	-5724
▁store	-5725
▁238	-5726
▁喘	-5727
ops	-5728
ucn	-5729
▁愧	-5730
▁space	-5731
▁刁	-5732
▁杠	-5733
▁莘	-5734
ree	-5735
▁174	-5736
▁迥	-5737
▁212	-5738
▁1812	-5739
▁henry	-5740
▁401	-5741
▁琮	-5742
olf	-5743
▁б	-5744
▁cons	-5745
▁フ	-5746
▁拂	-5747
▁澈	-5748
▁鹊	-5749
▁181	-5750
▁cas	-5751
lation	-5752
▁婢	-5753
▁cho	-5754
▁litt	-5755
▁も	-5756
▁窥	-5757
▁iucn	-5758
xx	-5759
▁ot	-5760
▁洮	-5761
▁躺	-5762
▁颤	-5763
▁dep	-5764
▁911	-5765
▁濂	-5766
▁窜	-5767
ye	-5768
▁哑	-5769
▁db	-5770
▁bob	-5771
▁を	-5772
▁228	-5773
▁铂	-5774
▁440	-5775
▁fran	-5776
▁prof	-5777
▁way	-5778
▁蚜	-5779
▁裳	-5780
▁cry	-5781
ather	-5782
▁section	-5783
▁姪	-5784
▁膺	-5785
▁179	-5786
▁й	-5787
▁琥	-5788
▁觐	-5789
▁men	-5790
▁rpg	-5791
▁xx	-5792
▁tele	-5793
▁诽	-5794
▁鳎	-5795
▁1842	-5796
▁蚂	-5797
▁god	-5798
▁菅	-5799
board	-5800
▁宸	-5801
▁襟	-5802
▁1814	-5803
▁manag	-5804
▁run	-5805
zy	-5806
▁耸	-5807
ideo	-5808
▁槃	-5809
▁浜	-5810
▁213	-5811
▁sel	-5812
▁jac	-5813
▁ô	-5814
▁轭	-5815
▁model	-5816
▁渎	-5817
▁朕	-5818
▁籽	-5819
▁smith	-5820
▁荚	-5821
▁lu	-5822
▁pv	-5823
▁engine	-5824
▁ミ	-5825
tps	-5826
ures	-5827
▁昨	-5828
▁ti	-5829
rich	-5830
▁辙	-5831
▁丫	-5832
isc	-5833
▁son	-5834
▁cross	-5835
▁bit	-5836
▁ny	-5837
ural	-5838
▁expl	-5839
▁遁	-5840
▁jump	-5841
▁狠	-5842
▁蟒	-5843
▁邝	-5844
azine	-5845
▁翎	-5846
▁邕	-5847
▁battle	-5848
▁瑕	-5849
▁夔	-5850
▁柿	-5851
▁潢	-5852
▁carl	-5853
▁だ	-5854
▁乂	-5855
▁浇	-5856
▁蠕	-5857
edia	-5858
▁蠢	-5859
▁radio	-5860
▁猷	-5861
▁tu	-5862
▁num	-5863
ister	-5864
▁粥	-5865
den	-5866
▁spr	-5867
pp	-5868
▁冗	-5869
▁衅	-5870
▁bir	-5871
▁吠	-5872
atic	-5873
annel	-5874
▁洙	-5875
▁熵	-5876
▁1789	-5877
▁core	-5878
▁晦	-5879
▁mobile	-5880
▁痴	-5881
▁で	-5882
ida	-5883
raft	-5884
ji	-5885
▁cha	-5886
▁https	-5887
▁party	-5888
esh	-5889
ense	-5890
▁church	-5891
▁crh	-5892
▁255	-5893
▁265	-5894
▁general	-5895
ato	-5896
▁jan	-5897
▁ze	-5898
▁comic	-5899
▁control	-5900
▁枋	-5901
▁嫉	-5902
▁秽	-5903
uct	-5904
▁plus	-5905
▁arr	-5906
▁service	-5907
▁れ	-5908
▁hu	-5909
field	-5910
▁martin	-5911
▁殭	-5912
▁筝	-5913
ty	-5914
▁league	-5915
▁fn	-5916
▁lgbt	-5917
▁捡	-5918
▁mas	-5919
ington	-5920
▁ς	-5921
▁dm	-5922
rpm	-5923
▁吼	-5924
▁妳	-5925
▁扈	-5926
▁キ	-5927
▁gi	-5928
▁rep	-5929
▁snh	-5930
▁钴	-5931
▁僻	-5932
▁畑	-5933
▁豔	-5934
cs	-5935
▁louis	-5936
▁掖	-5937
aya	-5938
▁pala	-5939
▁骠	-5940
well	-5941
▁‰	-5942
▁219	-5943
▁magazine	-5944
▁エ	-5945
bor	-5946
earch	-5947
▁莪	-5948
▁station	-5949
▁溧	-5950
▁steam	-5951
▁mt	-5952
▁box	-5953
▁1792	-5954
▁オ	-5955
▁弋	-5956
▁忻	-5957
▁逵	-5958
lad	-5959
▁pass	-5960
▁や	-5961
▁foot	-5962
▁闾	-5963
▁his	-5964
▁bh	-5965
▁275	-5966
▁online	-5967
▁茛	-5968
▁jim	-5969
▁research	-5970
▁ə	-5971
▁俨	-5972
▁cir	-5973
▁mit	-5974
▁mult	-5975
▁bad	-5976
▁xml	-5977
▁я	-5978
als	-5979
▁曳	-5980
▁疮	-5981
201	-5982
▁ki	-5983
▁little	-5984
▁ι	-5985
▁wwe	-5986
▁螂	-5987
▁mur	-5988
▁1835	-5989
▁610	-5990
▁fest	-5991
▁pier	-5992
▁child	-5993
yr	-5994
▁貂	-5995
oy	-5996
▁0%	-5997
peg	-5998
▁460	-5999
▁忏	-6000
▁昕	-6001
▁瓒	-6002
▁muse	-6003
▁gal	-6004
▁master	-6005
▁sports	-6006
▁奘	-6007
▁ins	-6008
▁藔	-6009
ks	-6010
▁365	-6011
▁moz	-6012
▁aug	-6013
▁aust	-6014
▁唑	-6015
une	-6016
▁sand	-6017
▁す	-6018
▁氹	-6019
▁sem	-6020
▁阡	-6021
▁mol	-6022
▁栎	-6023
ox	-6024
oid	-6025
▁1832	-6026
▁酥	-6027
▁tg	-6028
▁sound	-6029
▁薑	-6030
▁like	-6031
▁岷	-6032
▁惕	-6033
▁asia	-6034
▁mount	-6035
▁斛	-6036
▁诀	-6037
▁榔	-6038
▁fox	-6039
ette	-6040
velop	-6041
ple	-6042
▁mary	-6043
cy	-6044
▁钏	-6045
cast	-6046
▁3500	-6047
▁special	-6048
▁コ	-6049
▁絮	-6050
ship	-6051
▁1839	-6052
▁薨	-6053
eter	-6054
▁plan	-6055
▁corpor	-6056
▁junior	-6057
▁羰	-6058
▁cf	-6059
▁305	-6060
▁set	-6061
▁1795	-6062
▁75%	-6063
ili	-6064
▁001	-6065
▁den	-6066
▁poly	-6067
▁孀	-6068
▁涤	-6069
▁昶	-6070
▁vs	-6071
▁谛	-6072
ization	-6073
▁640	-6074
▁720	-6075
▁institute	-6076
urs	-6077
▁channel	-6078
adem	-6079
▁950	-6080
▁bea	-6081
▁妊	-6082
▁拙	-6083
301	-6084
gar	-6085
▁560	-6086
▁226	-6087
▁1793	-6088
▁☆	-6089
▁鲱	-6090
▁ae	-6091
▁跻	-6092
pan	-6093
▁kw	-6094
▁剔	-6095
hell	-6096
uel	-6097
▁虢	-6098
ient	-6099
▁蛟	-6100
▁逍	-6101
▁鮨	-6102
▁aw	-6103
cher	-6104
▁code	-6105
▁conc	-6106
▁癫	-6107
asy	-6108
▁pac	-6109
▁捏	-6110
igo	-6111
▁victor	-6112
▁咳	-6113
▁弑	-6114
iana	-6115
▁1821	-6116
▁涿	-6117
▁醣	-6118
▁鹘	-6119
▁224	-6120
▁have	-6121
▁design	-6122
▁φ	-6123
▁っ	-6124
off	-6125
▁lg	-6126
▁熄	-6127
▁glob	-6128
▁marc	-6129
▁program	-6130
▁777	-6131
▁after	-6132
▁journ	-6133
▁1838	-6134
▁point	-6135
▁渚	-6136
▁bor	-6137
▁lam	-6138
▁1836	-6139
▁brit	-6140
▁嶋	-6141
aga	-6142
▁edward	-6143
▁society	-6144
▁轼	-6145
out	-6146
▁word	-6147
▁巍	-6148
▁戛	-6149
▁small	-6150
bert	-6151
▁229	-6152
▁non	-6153
▁express	-6154
▁偃	-6155
▁540	-6156
▁鸢	-6157
▁ml	-6158
▁rd	-6159
▁att	-6160
▁1824	-6161
▁next	-6162
▁visual	-6163
▁501	-6164
▁璜	-6165
▁video	-6166
▁佟	-6167
▁眺	-6168
▁520	-6169
gan	-6170
pi	-6171
▁prot	-6172
▁develop	-6173
▁沌	-6174
▁tak	-6175
▁vista	-6176
▁栾	-6177
501	-6178
▁239	-6179
▁1825	-6180
▁樽	-6181
▁鸮	-6182
▁low	-6183
▁pm	-6184
ider	-6185
▁245	-6186
▁iee	-6187
▁nam	-6188
▁1644	-6189
ious	-6190
▁down	-6191
ars	-6192
▁2021	-6193
▁慷	-6194
▁234	-6195
▁叭	-6196
▁暇	-6197
acy	-6198
▁249	-6199
▁gh	-6200
▁宕	-6201
▁325	-6202
ility	-6203
▁1801	-6204
▁308	-6205
▁hbo	-6206
▁ieee	-6207
▁scott	-6208
▁滦	-6209
▁maj	-6210
▁happ	-6211
pn	-6212
▁232	-6213
▁佃	-6214
lam	-6215
ocket	-6216
▁galaxy	-6217
▁瑄	-6218
▁匝	-6219
▁巽	-6220
▁š	-6221
▁ct	-6222
▁ni	-6223
▁盏	-6224
▁227	-6225
▁htc	-6226
▁孛	-6227
uld	-6228
▁2022	-6229
▁530	-6230
▁fed	-6231
▁1806	-6232
▁迺	-6233
▁data	-6234
ces	-6235
ona	-6236
▁680	-6237
▁囱	-6238
▁奄	-6239
▁扼	-6240
▁颓	-6241
ola	-6242
▁262	-6243
▁烽	-6244
och	-6245
▁311	-6246
▁601	-6247
▁tel	-6248
▁580	-6249
▁灏	-6250
▁肘	-6251
▁螯	-6252
▁978	-6253
▁moon	-6254
▁伎	-6255
▁璐	-6256
▁hon	-6257
ni	-6258
▁叮	-6259
vent	-6260
▁阇	-6261
orm	-6262
▁1837	-6263
▁251	-6264
▁钨	-6265
▁镛	-6266
▁bern	-6267
▁cin	-6268
▁煜	-6269
▁hard	-6270
▁砚	-6271
▁rs	-6272
▁bec	-6273
▁hom	-6274
▁more	-6275
▁1831	-6276
ize	-6277
ret	-6278
▁map	-6279
▁琏	-6280
▁郢	-6281
▁jer	-6282
▁rog	-6283
▁篱	-6284
▁荟	-6285
▁233	-6286
▁steph	-6287
▁ブ	-6288
▁檗	-6289
▁坳	-6290
▁迂	-6291
▁470	-6292
▁グ	-6293
▁歙	-6294
▁mach	-6295
olution	-6296
▁哗	-6297
bit	-6298
▁贲	-6299
▁鄙	-6300
yp	-6301
▁叻	-6302
▁馥	-6303
win	-6304
▁髅	-6305
inal	-6306
▁taiwan	-6307
▁蓼	-6308
▁璇	-6309
▁mos	-6310
▁荥	-6311
▁wo	-6312
▁kir	-6313
▁second	-6314
ao	-6315
▁390	-6316
▁found	-6317
▁尬	-6318
▁餵	-6319
▁9000	-6320
▁讹	-6321
▁pay	-6322
▁篠	-6323
▁缕	-6324
▁檎	-6325
▁nd	-6326
▁mom	-6327
▁沱	-6328
▁黯	-6329
▁湳	-6330
▁bs	-6331
▁脖	-6332
▁掺	-6333
▁妲	-6334
▁chinese	-6335
▁science	-6336
▁氓	-6337
▁皿	-6338
oto	-6339
▁brown	-6340
▁诣	-6341
300	-6342
▁憎	-6343
▁颉	-6344
ogr	-6345
aker	-6346
rome	-6347
▁level	-6348
▁κ	-6349
▁炙	-6350
▁牒	-6351
face	-6352
▁asc	-6353
▁璟	-6354
▁1833	-6355
▁sql	-6356
▁mozilla	-6357
▁鞠	-6358
▁sen	-6359
▁right	-6360
▁サ	-6361
▁チ	-6362
▁涟	-6363
▁307	-6364
▁fal	-6365
▁francis	-6366
▁仄	-6367
▁谯	-6368
▁ī	-6369
▁滔	-6370
▁246	-6371
kg	-6372
▁旻	-6373
wor	-6374
▁dor	-6375
▁spe	-6376
▁build	-6377
▁royal	-6378
▁惰	-6379
▁茫	-6380
▁1776	-6381
▁擂	-6382
▁胪	-6383
▁angel	-6384
ng	-6385
▁咲	-6386
▁昵	-6387
▁fly	-6388
▁mini	-6389
▁1810	-6390
▁peop	-6391
▁union	-6392
▁珲	-6393
▁麝	-6394
▁call	-6395
▁け	-6396
stein	-6397
tor	-6398
ations	-6399
▁explor	-6400
▁亵	-6401
▁峦	-6402
mat	-6403
▁wa	-6404
▁cup	-6405
601	-6406
▁620	-6407
▁som	-6408
▁rain	-6409
▁倘	-6410
▁婺	-6411
▁眶	-6412
▁鄱	-6413
▁film	-6414
▁champion	-6415
▁骅	-6416
▁236	-6417
▁place	-6418
▁eric	-6419
▁eb	-6420
ender	-6421
▁炔	-6422
ency	-6423
▁aud	-6424
▁what	-6425
▁匮	-6426
fox	-6427
ness	-6428
▁pap	-6429
▁丐	-6430
▁璞	-6431
▁钳	-6432
▁骥	-6433
▁ax	-6434
▁pg	-6435
▁1834	-6436
▁榨	-6437
▁瞰	-6438
▁gov	-6439
▁liv	-6440
▁ナ	-6441
▁镕	-6442
▁618	-6443
▁95%	-6444
▁adobe	-6445
down	-6446
max	-6447
▁corporation	-6448
▁懈	-6449
▁vr	-6450
arch	-6451
▁285	-6452
▁dam	-6453
▁flash	-6454
▁ы	-6455
▁ku	-6456
▁ub	-6457
ei	-6458
▁had	-6459
▁orig	-6460
▁ن	-6461
▁荼	-6462
▁237	-6463
▁630	-6464
▁equ	-6465
▁left	-6466
▁matt	-6467
▁wi	-6468
▁涪	-6469
▁fu	-6470
▁254	-6471
ost	-6472
▁骷	-6473
▁1790	-6474
▁1822	-6475
▁square	-6476
▁尻	-6477
▁浔	-6478
▁od	-6479
▁technology	-6480
▁碁	-6481
▁303	-6482
▁gra	-6483
▁243	-6484
▁512	-6485
▁ace	-6486
▁1826	-6487
▁抖	-6488
▁510	-6489
▁mvp	-6490
701	-6491
▁cu	-6492
▁nm	-6493
▁艋	-6494
▁ns	-6495
▁315	-6496
▁cit	-6497
▁2%	-6498
▁sf	-6499
▁挨	-6500
▁蝗	-6501
▁242	-6502
▁york	-6503
▁劈	-6504
▁缎	-6505
▁舺	-6506
▁1799	-6507
▁呀	-6508
▁266	-6509
▁get	-6510
vidia	-6511
▁啄	-6512
▁jt	-6513
▁exp	-6514
▁mix	-6515
▁802	-6516
ym	-6517
▁怠	-6518
▁磋	-6519
ython	-6520
▁1828	-6521
▁maria	-6522
▁θ	-6523
▁嗅	-6524
▁318	-6525
▁pent	-6526
force	-6527
iy	-6528
▁テ	-6529
ume	-6530
ique	-6531
iness	-6532
▁nvidia	-6533
▁which	-6534
▁拇	-6535
over	-6536
▁arts	-6537
▁歳	-6538
▁掸	-6539
▁244	-6540
▁252	-6541
▁ing	-6542
agram	-6543
other	-6544
▁gard	-6545
▁summer	-6546
▁final	-6547
▁vl	-6548
▁last	-6549
▁digital	-6550
▁祉	-6551
▁ч	-6552
▁firefox	-6553
380	-6554
▁尴	-6555
▁麴	-6556
▁comput	-6557
▁christian	-6558
▁ウ	-6559
▁1791	-6560
row	-6561
▁card	-6562
▁daniel	-6563
▁槓	-6564
▁338	-6565
▁hold	-6566
▁touch	-6567
▁蘑	-6568
▁婕	-6569
▁241	-6570
▁tam	-6571
▁head	-6572
▁vers	-6573
▁玟	-6574
▁稼	-6575
▁arc	-6576
▁1804	-6577
▁clar	-6578
▁1813	-6579
▁press	-6580
▁ム	-6581
▁缙	-6582
▁qq	-6583
▁960	-6584
▁呐	-6585
▁哮	-6586
▁旌	-6587
▁潇	-6588
401	-6589
ote	-6590
sport	-6591
▁嫂	-6592
▁bbs	-6593
aster	-6594
▁唔	-6595
▁1829	-6596
jo	-6597
res	-6598
▁bt	-6599
ices	-6600
▁sign	-6601
gs	-6602
▁^	-6603
▁ر	-6604
▁hit	-6605
▁纥	-6606
col	-6607
lor	-6608
▁cnn	-6609
▁卞	-6610
▁ken	-6611
▁ren	-6612
▁festival	-6613
▁ь	-6614
▁汛	-6615
▁1823	-6616
▁劭	-6617
▁岖	-6618
ago	-6619
▁1818	-6620
▁з	-6621
▁酗	-6622
▁again	-6623
▁1819	-6624
▁adam	-6625
▁鲫	-6626
▁258	-6627
hd	-6628
▁咐	-6629
ater	-6630
▁660	-6631
▁operation	-6632
▁秤	-6633
▁software	-6634
▁248	-6635
▁264	-6636
▁enter	-6637
▁hand	-6638
▁social	-6639
▁デ	-6640
▁撇	-6641
▁312	-6642
zer	-6643
▁253	-6644
▁304	-6645
▁屎	-6646
▁蠍	-6647
▁パ	-6648
▁psy	-6649
▁诲	-6650
▁apg	-6651
▁亘	-6652
umb	-6653
elle	-6654
▁nad	-6655
▁1775	-6656
▁europe	-6657
▁hp	-6658
flix	-6659
▁fact	-6660
▁alexander	-6661
▁ャ	-6662
▁酌	-6663
▁3%	-6664
▁ft	-6665
▁302	-6666
▁chi	-6667
▁1802	-6668
▁饵	-6669
▁骧	-6670
▁鳖	-6671
mar	-6672
▁bat	-6673
▁1816	-6674
▁global	-6675
▁よ	-6676
▁fif	-6677
▁pos	-6678
▁bc	-6679
anna	-6680
▁247	-6681
▁public	-6682
▁switch	-6683
400	-6684
▁tran	-6685
▁268	-6686
▁277	-6687
▁wood	-6688
▁わ	-6689
▁崧	-6690
▁sav	-6691
▁beat	-6692
▁deb	-6693
▁乖	-6694
▁淦	-6695
onom	-6696
▁bey	-6697
▁cell	-6698
ascript	-6699
▁亢	-6700
▁熏	-6701
▁祜	-6702
▁astro	-6703
▁netflix	-6704
▁ff	-6705
▁323	-6706
▁old	-6707
▁phone	-6708
▁嚣	-6709
▁铿	-6710
▁cop	-6711
▁1796	-6712
▁fant	-6713
ika	-6714
▁269	-6715
▁august	-6716
▁罂	-6717
▁rail	-6718
▁艏	-6719
▁fx	-6720
▁1780	-6721
▁ひ	-6722
▁绊	-6723
▁ょ	-6724
▁1794	-6725
▁people	-6726
▁蝽	-6727
▁ri	-6728
▁princ	-6729
▁football	-6730
▁佗	-6731
▁槿	-6732
▁赃	-6733
▁series	-6734
▁凋	-6735
▁cb	-6736
▁gd	-6737
▁acc	-6738
▁嬉	-6739
▁覃	-6740
▁gm	-6741
ters	-6742
▁231	-6743
▁viv	-6744
▁257	-6745
▁und	-6746
▁å	-6747
▁academ	-6748
▁273	-6749
▁cra	-6750
▁circ	-6751
801	-6752
▁yg	-6753
▁lady	-6754
▁ê	-6755
▁263	-6756
▁og	-6757
▁explorer	-6758
▁ñ	-6759
▁柚	-6760
▁va	-6761
▁lond	-6762
rie	-6763
▁1807	-6764
▁蚬	-6765
▁295	-6766
▁mah	-6767
▁4500	-6768
▁睢	-6769
▁pk	-6770
▁570	-6771
▁1805	-6772
▁hello	-6773
▁langu	-6774
▁were	-6775
▁唆	-6776
▁珉	-6777
▁睾	-6778
omb	-6779
▁ker	-6780
▁螈	-6781
▁醮	-6782
kin	-6783
▁kl	-6784
▁uc	-6785
▁ash	-6786
▁asp	-6787
▁instagram	-6788
▁贰	-6789
▁1650	-6790
▁プ	-6791
▁prem	-6792
▁dance	-6793
▁management	-6794
▁睽	-6795
▁讥	-6796
▁306	-6797
▁district	-6798
▁葺	-6799
2000	-6800
▁276	-6801
▁1798	-6802
iga	-6803
▁yah	-6804
▁1645	-6805
▁躬	-6806
▁pen	-6807
▁枭	-6808
▁1809	-6809
yd	-6810
▁鱇	-6811
▁ru	-6812
▁uss	-6813
▁ィ	-6814
▁嗓	-6815
▁岘	-6816
▁1750	-6817
▁billboard	-6818
▁佘	-6819
▁咕	-6820
▁ë	-6821
▁犍	-6822
▁鵰	-6823
▁tcp	-6824
▁block	-6825
▁嬴	-6826
▁蝨	-6827
▁nu	-6828
▁η	-6829
ible	-6830
▁299	-6831
▁笈	-6832
ird	-6833
▁272	-6834
▁286	-6835
▁701	-6836
▁冼	-6837
▁癖	-6838
▁娠	-6839
▁魮	-6840
▁ye	-6841
▁fut	-6842
▁1803	-6843
ran	-6844
▁bf	-6845
▁bug	-6846
▁2100	-6847
ograph	-6848
▁python	-6849
▁彷	-6850
▁泓	-6851
▁迳	-6852
▁eg	-6853
▁yu	-6854
▁gab	-6855
▁georg	-6856
▁え	-6857
▁蝎	-6858
▁fri	-6859
▁2400	-6860
▁386	-6861
▁ipad	-6862
▁痒	-6863
▁dol	-6864
▁family	-6865
▁pagasa	-6866
tl	-6867
▁滁	-6868
key	-6869
rick	-6870
▁psp	-6871
▁鬣	-6872
▁鮟	-6873
▁767	-6874
▁1808	-6875
▁read	-6876
▁awards	-6877
oe	-6878
▁谔	-6879
▁靓	-6880
▁emu	-6881
▁ニ	-6882
▁490	-6883
▁eff	-6884
▁perf	-6885
▁counc	-6886
▁force	-6887
▁vocal	-6888
▁阗	-6889
▁锑	-6890
▁髻	-6891
▁pu	-6892
▁288	-6893
▁425	-6894
▁tan	-6895
▁296	-6896
▁fair	-6897
▁ø	-6898
ohc	-6899
▁纾	-6900
▁rb	-6901
▁粲	-6902
▁査	-6903
▁1788	-6904
▁1817	-6905
▁ハ	-6906
▁279	-6907
▁钗	-6908
▁820	-6909
▁water	-6910
▁●	-6911
▁バ	-6912
▁瓮	-6913
▁lat	-6914
▁museum	-6915
▁痫	-6916
▁cw	-6917
▁wom	-6918
▁council	-6919
▁hop	-6920
▁1787	-6921
▁羯	-6922
▁dt	-6923
▁nc	-6924
▁alt	-6925
▁dark	-6926
▁mess	-6927
▁碌	-6928
▁gps	-6929
▁遐	-6930
▁pin	-6931
inger	-6932
▁ي	-6933
▁铯	-6934
▁鹛	-6935
▁train	-6936
▁780	-6937
▁imp	-6938
▁堑	-6939
▁ja	-6940
▁蜱	-6941
ros	-6942
ident	-6943
▁喆	-6944
▁din	-6945
▁rod	-6946
▁mnet	-6947
▁journal	-6948
▁278	-6949
▁烨	-6950
iko	-6951
lab	-6952
▁alf	-6953
▁stad	-6954
▁凳	-6955
aven	-6956
▁ven	-6957
▁mike	-6958
▁澡	-6959
▁np	-6960
▁gun	-6961
▁pdf	-6962
▁rat	-6963
▁恬	-6964
▁惶	-6965
▁鸫	-6966
▁um	-6967
esis	-6968
uke	-6969
▁298	-6970
▁javascript	-6971
▁耽	-6972
▁ea	-6973
▁tn	-6974
▁357	-6975
▁cult	-6976
▁羹	-6977
▁徘	-6978
▁熬	-6979
▁聿	-6980
▁meth	-6981
▁central	-6982
mon	-6983
nes	-6984
▁ld	-6985
▁doub	-6986
▁earth	-6987
▁inform	-6988
▁sab	-6989
▁london	-6990
▁market	-6991
hr	-6992
osp	-6993
▁ult	-6994
cho	-6995
▁albert	-6996
▁ʁ	-6997
ias	-6998
▁335	-6999
▁1592	-7000
▁chris	-7001
▁堺	-7002
▁271	-7003
▁348	-7004
▁tvbs	-7005
901	-7006
oma	-7007
▁sor	-7008
▁centre	-7009
▁橇	-7010
▁1580	-7011
▁conn	-7012
▁ipod	-7013
▁main	-7014
▁anton	-7015
▁墘	-7016
▁1783	-7017
▁well	-7018
▁zero	-7019
▁frame	-7020
▁槭	-7021
play	-7022
▁ide	-7023
▁mig	-7024
▁710	-7025
▁mun	-7026
▁2600	-7027
▁sche	-7028
nd	-7029
▁柩	-7030
▁bud	-7031
▁徊	-7032
▁甩	-7033
oud	-7034
▁sb	-7035
▁274	-7036
▁its	-7037
▁兮	-7038
▁槌	-7039
▁脩	-7040
▁鲆	-7041
men	-7042
▁1550	-7043
ti	-7044
▁泮	-7045
▁浣	-7046
▁1568	-7047
▁beta	-7048
▁歹	-7049
▁蕈	-7050
rey	-7051
▁801	-7052
▁ske	-7053
▁soul	-7054
▁摹	-7055
▁醯	-7056
▁385	-7057
▁375	-7058
▁730	-7059
▁arg	-7060
▁andrew	-7061
▁寥	-7062
▁鳢	-7063
▁stat	-7064
▁story	-7065
▁333	-7066
▁901	-7067
▁踝	-7068
▁basic	-7069
▁edition	-7070
rad	-7071
▁313	-7072
▁blu	-7073
▁bell	-7074
▁four	-7075
▁kill	-7076
▁轶	-7077
eta	-7078
▁bul	-7079
▁say	-7080
▁round	-7081
▁湍	-7082
▁324	-7083
▁415	-7084
▁670	-7085
▁ban	-7086
▁meg	-7087
▁front	-7088
▁friend	-7089
kh	-7090
▁漩	-7091
aka	-7092
▁ß	-7093
▁leon	-7094
▁燧	-7095
cept	-7096
▁kon	-7097
▁gall	-7098
▁亳	-7099
▁灸	-7100
▁秧	-7101
▁筱	-7102
▁album	-7103
▁玖	-7104
▁愍	-7105
▁烁	-7106
320	-7107
ines	-7108
▁ipv	-7109
▁alpha	-7110
▁淖	-7111
▁苳	-7112
▁link	-7113
▁م	-7114
▁259	-7115
▁319	-7116
▁chan	-7117
vision	-7118
je	-7119
▁dur	-7120
▁忱	-7121
▁渍	-7122
vo	-7123
▁叩	-7124
▁腋	-7125
▁lord	-7126
▁fried	-7127
▁窖	-7128
▁281	-7129
▁jeff	-7130
▁stan	-7131
▁human	-7132
▁梢	-7133
▁鲿	-7134
caa	-7135
ful	-7136
▁hi	-7137
▁590	-7138
▁2300	-7139
▁they	-7140
▁85%	-7141
▁sund	-7142
▁龈	-7143
ova	-7144
▁缢	-7145
▁蒴	-7146
▁621	-7147
▁kim	-7148
▁窘	-7149
▁锭	-7150
▁1827	-7151
▁澧	-7152
▁俏	-7153
▁怯	-7154
iter	-7155
mond	-7156
ston	-7157
▁捻	-7158
▁讫	-7159
▁328	-7160
▁begin	-7161
▁羨	-7162
▁赓	-7163
▁757	-7164
▁tit	-7165
▁note	-7166
▁洵	-7167
▁ath	-7168
▁ō	-7169
▁惇	-7170
▁aaa	-7171
ering	-7172
▁drive	-7173
▁窒	-7174
▁郴	-7175
▁rac	-7176
▁漱	-7177
▁蟠	-7178
▁880	-7179
▁ろ	-7180
▁ガ	-7181
▁鸯	-7182
▁284	-7183
▁289	-7184
▁sho	-7185
▁撮	-7186
▁荻	-7187
▁铳	-7188
mhz	-7189
▁267	-7190
▁2200	-7191
▁喂	-7192
▁娩	-7193
▁疵	-7194
▁筲	-7195
▁弛	-7196
▁283	-7197
▁316	-7198
▁282	-7199
▁589	-7200
▁kiss	-7201
▁pack	-7202
vi	-7203
▁垅	-7204
▁寞	-7205
▁崴	-7206
▁骰	-7207
▁vel	-7208
yt	-7209
▁293	-7210
▁314	-7211
▁č	-7212
con	-7213
▁mcc	-7214
▁悯	-7215
ami	-7216
get	-7217
▁杵	-7218
▁760	-7219
▁php	-7220
▁氙	-7221
▁脐	-7222
cha	-7223
▁bg	-7224
▁lake	-7225
▁ダ	-7226
▁珮	-7227
▁藜	-7228
una	-7229
▁525	-7230
▁joe	-7231
▁list	-7232
▁trip	-7233
▁镳	-7234
▁lab	-7235
▁base	-7236
tern	-7237
ities	-7238
▁development	-7239
▁ュ	-7240
▁309	-7241
▁prim	-7242
▁russ	-7243
▁dragon	-7244
▁屁	-7245
▁簷	-7246
▁261	-7247
▁787	-7248
▁lum	-7249
▁ten	-7250
▁unit	-7251
▁systems	-7252
▁children	-7253
▁322	-7254
▁甯	-7255
▁287	-7256
▁ncaa	-7257
▁fort	-7258
iii	-7259
▁mx	-7260
▁dim	-7261
▁hay	-7262
▁tra	-7263
▁345	-7264
▁412	-7265
▁prop	-7266
▁僭	-7267
▁珑	-7268
▁ay	-7269
▁amaz	-7270
▁洱	-7271
ania	-7272
▁355	-7273
▁830	-7274
▁1582	-7275
▁琨	-7276
▁桁	-7277
▁dy	-7278
heim	-7279
▁secret	-7280
▁test	-7281
▁鼩	-7282
▁334	-7283
▁唾	-7284
▁钍	-7285
uri	-7286
▁妤	-7287
lie	-7288
▁1553	-7289
▁shar	-7290
kb	-7291
▁胄	-7292
▁321	-7293
▁331	-7294
▁tay	-7295
▁1811	-7296
▁lamb	-7297
▁sour	-7298
▁呤	-7299
▁碇	-7300
▁oc	-7301
▁蜕	-7302
▁hiv	-7303
▁1571	-7304
▁蔻	-7305
▁742	-7306
▁fel	-7307
▁kat	-7308
▁cook	-7309
hs	-7310
▁狡	-7311
▁痊	-7312
▁碾	-7313
▁蓓	-7314
▁鼐	-7315
▁1080	-7316
▁肄	-7317
▁iec	-7318
▁1570	-7319
▁educ	-7320
▁メ	-7321
less	-7322
kt	-7323
▁呜	-7324
▁晷	-7325
▁轧	-7326
ria	-7327
ror	-7328
▁327	-7329
▁dest	-7330
▁wild	-7331
▁rows	-7332
▁1770	-7333
▁toky	-7334
▁there	-7335
▁凛	-7336
▁脇	-7337
▁ia	-7338
▁inn	-7339
▁anth	-7340
▁筵	-7341
▁钼	-7342
▁鸳	-7343
alth	-7344
▁405	-7345
▁903	-7346
▁1583	-7347
▁exc	-7348
▁rfc	-7349
▁1648	-7350
▁317	-7351
▁359	-7352
▁mass	-7353
▁const	-7354
db	-7355
don	-7356
▁gil	-7357
▁ill	-7358
▁1565	-7359
do	-7360
▁锄	-7361
▁326	-7362
▁758	-7363
zi	-7364
▁و	-7365
▁戳	-7366
ado	-7367
▁zone	-7368
▁俑	-7369
▁pur	-7370
▁happy	-7371
sl	-7372
▁茧	-7373
▁慑	-7374
▁邬	-7375
bus	-7376
▁plat	-7377
▁ビ	-7378
▁溅	-7379
▁344	-7380
▁nar	-7381
▁せ	-7382
▁晔	-7383
▁583	-7384
▁hat	-7385
▁wond	-7386
▁beyond	-7387
▁畠	-7388
▁脷	-7389
▁416	-7390
▁1778	-7391
▁攘	-7392
▁fan	-7393
house	-7394
▁fifa	-7395
▁court	-7396
▁宥	-7397
▁拣	-7398
car	-7399
▁uk	-7400
▁417	-7401
▁our	-7402
▁rowspan	-7403
▁堃	-7404
bsd	-7405
▁some	-7406
▁pas	-7407
▁sla	-7408
ember	-7409
▁1777	-7410
▁baby	-7411
▁prom	-7412
▁villa	-7413
▁works	-7414
▁history	-7415
▁胫	-7416
▁邳	-7417
esc	-7418
▁swe	-7419
▁lind	-7420
▁person	-7421
▁娼	-7422
▁ple	-7423
▁歆	-7424
▁缇	-7425
▁407	-7426
▁organ	-7427
▁object	-7428
hp	-7429
▁踞	-7430
▁atl	-7431
ating	-7432
ito	-7433
▁528	-7434
▁ɛ	-7435
uber	-7436
▁marie	-7437
anda	-7438
▁govern	-7439
anth	-7440
mail	-7441
▁榉	-7442
▁kde	-7443
▁1784	-7444
▁356	-7445
▁1797	-7446
▁707	-7447
▁arth	-7448
▁毡	-7449
▁盂	-7450
ati	-7451
▁emi	-7452
▁娑	-7453
itte	-7454
▁jyp	-7455
▁404	-7456
▁1640	-7457
▁ie	-7458
▁rp	-7459
▁354	-7460
▁steve	-7461
▁阉	-7462
▁607	-7463
▁sus	-7464
▁1661	-7465
▁1785	-7466
▁qual	-7467
▁钺	-7468
▁ron	-7469
elf	-7470
olk	-7471
▁740	-7472
▁gla	-7473
▁lor	-7474
▁their	-7475
▁姥	-7476
▁掏	-7477
▁箴	-7478
sen	-7479
▁闇	-7480
eck	-7481
ves	-7482
▁america	-7483
▁dal	-7484
▁edge	-7485
▁smart	-7486
▁挛	-7487
▁鞅	-7488
▁嚼	-7489
▁猕	-7490
▁琢	-7491
▁tokyo	-7492
▁揉	-7493
▁411	-7494
▁abo	-7495
▁cab	-7496
▁virt	-7497
▁楹	-7498
▁烫	-7499
▁驭	-7500
▁prin	-7501
▁business	-7502
▁346	-7503
▁690	-7504
▁ball	-7505
▁980	-7506
▁por	-7507
▁solo	-7508
▁楣	-7509
▁421	-7510
▁535	-7511
▁860	-7512
▁seed	-7513
▁three	-7514
▁921	-7515
▁fall	-7516
▁math	-7517
▁start	-7518
▁叟	-7519
▁291	-7520
▁bmw	-7521
▁fore	-7522
of	-7523
▁scr	-7524
▁ted	-7525
▁other	-7526
▁诹	-7527
iger	-7528
▁got	-7529
athan	-7530
▁spir	-7531
▁燊	-7532
▁絃	-7533
lish	-7534
▁418	-7535
iano	-7536
▁1586	-7537
▁know	-7538
▁queen	-7539
▁bridge	-7540
▁筏	-7541
▁opt	-7542
▁saf	-7543
▁铮	-7544
awa	-7545
▁384	-7546
▁beaut	-7547
▁挞	-7548
▁谪	-7549
600	-7550
▁297	-7551
▁tex	-7552
▁shell	-7553
▁疣	-7554
ument	-7555
▁brand	-7556
▁闺	-7557
ole	-7558
▁dog	-7559
▁煦	-7560
ques	-7561
▁930	-7562
▁ghz	-7563
▁diff	-7564
▁samu	-7565
▁橱	-7566
ban	-7567
icle	-7568
▁343	-7569
▁445	-7570
▁pot	-7571
▁2030	-7572
▁boss	-7573
▁libr	-7574
▁403	-7575
▁840	-7576
▁ton	-7577
▁绚	-7578
▁1521	-7579
▁feat	-7580
▁true	-7581
▁profess	-7582
▁孽	-7583
▁矗	-7584
▁骊	-7585
▁wta	-7586
▁1368	-7587
▁1577	-7588
▁枉	-7589
▁榛	-7590
▁璘	-7591
▁ey	-7592
▁chap	-7593
▁俳	-7594
▁珈	-7595
▁荠	-7596
▁caf	-7597
▁辄	-7598
▁恃	-7599
▁蜻	-7600
▁钡	-7601
▁1646	-7602
▁process	-7603
utv	-7604
val	-7605
▁810	-7606
▁fac	-7607
▁1786	-7608
▁deep	-7609
▁罔	-7610
▁shad	-7611
▁johnson	-7612
▁hip	-7613
▁mmc	-7614
nm	-7615
▁329	-7616
▁nex	-7617
▁aven	-7618
▁trav	-7619
▁扒	-7620
▁007	-7621
▁465	-7622
▁1760	-7623
ission	-7624
▁荨	-7625
▁逅	-7626
▁鲛	-7627
oli	-7628
▁294	-7629
▁413	-7630
▁dat	-7631
▁los	-7632
▁疡	-7633
▁rose	-7634
▁蜓	-7635
▁395	-7636
▁add	-7637
▁cher	-7638
▁field	-7639
▁philip	-7640
uf	-7641
▁邂	-7642
▁292	-7643
▁fbi	-7644
▁jay	-7645
▁sha	-7646
▁function	-7647
hi	-7648
▁氾	-7649
▁猝	-7650
▁琬	-7651
▁隽	-7652
chen	-7653
▁402	-7654
▁mik	-7655
▁stephen	-7656
▁嘌	-7657
▁驮	-7658
▁8%	-7659
▁770	-7660
▁婪	-7661
▁419	-7662
▁sea	-7663
▁conf	-7664
▁jess	-7665
▁order	-7666
▁腱	-7667
▁kan	-7668
▁2700	-7669
▁alan	-7670
▁yahoo	-7671
▁悫	-7672
▁铢	-7673
▁鲹	-7674
isa	-7675
▁6%	-7676
▁ern	-7677
▁number	-7678
▁箔	-7679
▁鱿	-7680
itor	-7681
▁dia	-7682
▁炱	-7683
▁rx	-7684
▁358	-7685
▁pierre	-7686
iti	-7687
▁352	-7688
▁indust	-7689
▁め	-7690
▁珞	-7691
▁粽	-7692
ector	-7693
unter	-7694
▁break	-7695
▁瞎	-7696
erm	-7697
rent	-7698
▁bang	-7699
▁action	-7700
▁铍	-7701
lect	-7702
▁carol	-7703
kw	-7704
▁581	-7705
▁appl	-7706
▁cand	-7707
▁镭	-7708
▁tb	-7709
▁rot	-7710
▁broad	-7711
▁viutv	-7712
▁缨	-7713
▁锟	-7714
▁414	-7715
▁gpl	-7716
▁raw	-7717
▁辫	-7718
▁367	-7719
▁jos	-7720
▁single	-7721
gi	-7722
▁蝰	-7723
sky	-7724
▁999	-7725
▁moh	-7726
osaurus	-7727
▁酝	-7728
▁336	-7729
▁1781	-7730
▁stra	-7731
▁澍	-7732
▁kk	-7733
▁language	-7734
▁嘧	-7735
▁茸	-7736
▁dead	-7737
▁蕲	-7738
amin	-7739
anga	-7740
▁ess	-7741
▁take	-7742
▁ェ	-7743
▁榻	-7744
▁獭	-7745
▁钚	-7746
din	-7747
▁870	-7748
▁tod	-7749
▁霑	-7750
▁448	-7751
▁502	-7752
▁627	-7753
▁speed	-7754
▁track	-7755
▁aim	-7756
▁kin	-7757
ellow	-7758
gu	-7759
dom	-7760
▁bin	-7761
▁mpeg	-7762
▁彧	-7763
▁霓	-7764
▁py	-7765
▁985	-7766
▁1636	-7767
▁phot	-7768
▁ring	-7769
▁雒	-7770
▁342	-7771
▁greg	-7772
▁econom	-7773
▁咙	-7774
▁阆	-7775
▁lr	-7776
▁625	-7777
▁jud	-7778
▁information	-7779
▁蚓	-7780
oon	-7781
sson	-7782
▁505	-7783
▁555	-7784
▁1590	-7785
▁standard	-7786
cp	-7787
▁7%	-7788
untu	-7789
▁cad	-7790
▁cinem	-7791
▁hotel	-7792
pot	-7793
▁侷	-7794
▁榭	-7795
▁肱	-7796
▁荪	-7797
han	-7798
▁tab	-7799
▁merc	-7800
▁檄	-7801
▁畲	-7802
▁side	-7803
▁austral	-7804
▁嬷	-7805
▁岙	-7806
▁抉	-7807
▁爹	-7808
▁莅	-7809
▁谿	-7810
▁鹟	-7811
▁337	-7812
▁岌	-7813
▁pow	-7814
▁common	-7815
med	-7816
▁406	-7817
▁turn	-7818
▁states	-7819
▁ē	-7820
▁ゅ	-7821
▁佼	-7822
▁4%	-7823
▁ky	-7824
▁拮	-7825
▁钹	-7826
die	-7827
ece	-7828
▁ascii	-7829
▁academy	-7830
▁糸	-7831
▁菠	-7832
▁bag	-7833
▁phys	-7834
aki	-7835
▁645	-7836
▁imax	-7837
ications	-7838
▁勖	-7839
par	-7840
erty	-7841
▁485	-7842
▁anal	-7843
▁祗	-7844
▁镉	-7845
▁339	-7846
▁548	-7847
▁kenn	-7848
lan	-7849
ming	-7850
▁ruby	-7851
▁鹬	-7852
bon	-7853
▁see	-7854
▁1610	-7855
▁foundation	-7856
esa	-7857
▁uh	-7858
▁ū	-7859
▁俐	-7860
hed	-7861
war	-7862
▁kd	-7863
▁518	-7864
▁dyn	-7865
▁啮	-7866
▁鹳	-7867
iva	-7868
utc	-7869
▁1643	-7870
▁stage	-7871
▁williams	-7872
▁腈	-7873
▁锢	-7874
▁619	-7875
▁brt	-7876
▁mhz	-7877
▁refer	-7878
▁virgin	-7879
▁geforce	-7880
▁collection	-7881
▁庑	-7882
▁赉	-7883
mad	-7884
▁fle	-7885
▁1622	-7886
▁pont	-7887
▁times	-7888
▁british	-7889
her	-7890
▁nr	-7891
▁970	-7892
▁eos	-7893
▁粱	-7894
ots	-7895
ski	-7896
▁1559	-7897
▁education	-7898
▁懦	-7899
▁脓	-7900
▁»	-7901
▁罄	-7902
▁虱	-7903
▁鮠	-7904
▁view	-7905
▁焙	-7906
▁纣	-7907
▁399	-7908
▁ale	-7909
▁1680	-7910
▁ross	-7911
▁produce	-7912
▁溼	-7913
▁fab	-7914
▁噜	-7915
▁沔	-7916
▁谳	-7917
▁′′	-7918
▁347	-7919
▁via	-7920
▁1730	-7921
▁モ	-7922
▁螨	-7923
▁1763	-7924
ants	-7925
elli	-7926
▁447	-7927
▁姗	-7928
▁栃	-7929
▁515	-7930
▁row	-7931
▁simon	-7932
▁where	-7933
aro	-7934
atus	-7935
▁bac	-7936
▁also	-7937
▁access	-7938
▁eleven	-7939
▁source	-7940
▁佤	-7941
▁1517	-7942
▁week	-7943
▁double	-7944
▁studios	-7945
▁铰	-7946
eri	-7947
▁eth	-7948
▁kam	-7949
▁santa	-7950
ef	-7951
▁匕	-7952
▁1723	-7953
▁2800	-7954
▁mytv	-7955
▁ã	-7956
▁gw	-7957
▁351	-7958
▁johann	-7959
uy	-7960
▁sug	-7961
▁arthur	-7962
gl	-7963
▁abs	-7964
▁1620	-7965
▁1642	-7966
▁flor	-7967
▁most	-7968
▁滘	-7969
▁1683	-7970
▁voice	-7971
apt	-7972
▁bsd	-7973
light	-7974
▁1562	-7975
▁interact	-7976
▁夯	-7977
▁戡	-7978
▁腭	-7979
mph	-7980
▁lv	-7981
elly	-7982
head	-7983
▁727	-7984
▁mam	-7985
▁赘	-7986
▁abd	-7987
▁chen	-7988
▁wolf	-7989
▁chang	-7990
▁magic	-7991
zz	-7992
▁х	-7993
▁弔	-7994
▁醍	-7995
▁rf	-7996
▁xm	-7997
ogue	-7998
▁dun	-7999
▁1628	-8000
▁laur	-8001
▁pict	-8002
▁ب	-8003
ief	-8004
ser	-8005
▁1547	-8006
▁kids	-8007
▁when	-8008
▁烙	-8009
▁hm	-8010
▁ox	-8011
▁1556	-8012
▁15000	-8013
▁jackson	-8014
▁杲	-8015
ify	-8016
▁nick	-8017
bar	-8018
▁cba	-8019
▁haw	-8020
▁lost	-8021
▁major	-8022
▁吩	-8023
▁硖	-8024
▁菀	-8025
chi	-8026
dle	-8027
▁cer	-8028
▁sac	-8029
▁帚	-8030
▁诟	-8031
▁骈	-8032
▁353	-8033
▁nas	-8034
▁socket	-8035
▁锷	-8036
▁617	-8037
▁1625	-8038
▁jones	-8039
▁矾	-8040
▁鹈	-8041
▁rc	-8042
▁civ	-8043
▁rue	-8044
▁1772	-8045
▁wiki	-8046
▁tower	-8047
▁⋯	-8048
▁622	-8049
▁639	-8050
▁1782	-8051
▁file	-8052
▁恽	-8053
▁蛹	-8054
▁427	-8055
▁sta	-8056
▁wall	-8057
▁獾	-8058
▁蛎	-8059
▁豌	-8060
▁郧	-8061
▁鲗	-8062
chan	-8063
▁615	-8064
▁nik	-8065
▁boys	-8066
▁嬅	-8067
▁栩	-8068
▁迩	-8069
▁920	-8070
▁gog	-8071
▁喧	-8072
iny	-8073
ken	-8074
▁ud	-8075
▁1598	-8076
▁殇	-8077
▁艉	-8078
ante	-8079
▁lte	-8080
▁nmb	-8081
▁sunday	-8082
▁mountain	-8083
▁疽	-8084
ved	-8085
▁1660	-8086
▁gang	-8087
▁佰	-8088
▁俚	-8089
▁哔	-8090
▁蹲	-8091
ril	-8092
▁days	-8093
▁弁	-8094
▁洄	-8095
▁羣	-8096
▁蠡	-8097
▁mba	-8098
▁rand	-8099
▁噩	-8100
▁暧	-8101
▁醃	-8102
▁醴	-8103
▁钒	-8104
▁35%	-8105
▁瑠	-8106
works	-8107
▁cham	-8108
▁invest	-8109
▁寛	-8110
▁芎	-8111
▁sid	-8112
ments	-8113
▁氐	-8114
olo	-8115
vers	-8116
▁css	-8117
▁kal	-8118
▁啼	-8119
▁529	-8120
▁irt	-8121
▁yes	-8122
▁1511	-8123
▁1574	-8124
▁into	-8125
▁every	-8126
▁nicon	-8127
▁鮡	-8128
▁gon	-8129
▁apache	-8130
▁勺	-8131
▁紊	-8132
▁骞	-8133
330	-8134
uit	-8135
▁ya	-8136
▁341	-8137
▁opera	-8138
▁媲	-8139
▁漾	-8140
▁疚	-8141
▁tf	-8142
▁408	-8143
▁aff	-8144
▁ped	-8145
ified	-8146
▁î	-8147
▁炖	-8148
▁醐	-8149
istr	-8150
▁371	-8151
▁383	-8152
▁536	-8153
▁six	-8154
▁sts	-8155
▁1662	-8156
▁垢	-8157
▁瑭	-8158
▁疤	-8159
▁蛭	-8160
▁cj	-8161
▁lp	-8162
▁332	-8163
▁605	-8164
▁ala	-8165
▁ズ	-8166
▁觊	-8167
▁黍	-8168
▁432	-8169
anced	-8170
▁karl	-8171
▁鲲	-8172
gre	-8173
▁gpu	-8174
▁division	-8175
▁痉	-8176
wer	-8177
▁398	-8178
▁sars	-8179
▁blood	-8180
▁prince	-8181
▁鳝	-8182
rix	-8183
gate	-8184
iner	-8185
▁1573	-8186
▁20000	-8187
▁niconico	-8188
▁脍	-8189
▁颢	-8190
▁377	-8191
▁1630	-8192
▁tony	-8193
▁shine	-8194
▁蜈	-8195
▁鄢	-8196
▁366	-8197
▁435	-8198
▁lew	-8199
▁tun	-8200
▁wel	-8201
abeth	-8202
▁遽	-8203
▁tt	-8204
▁nec	-8205
▁rest	-8206
▁theat	-8207
▁犊	-8208
▁羔	-8209
▁膦	-8210
▁蛊	-8211
day	-8212
bang	-8213
ental	-8214
▁golden	-8215
▁疱	-8216
▁1755	-8217
▁ł	-8218
▁烬	-8219
▁1779	-8220
▁2025	-8221
▁never	-8222
▁walter	-8223
▁铋	-8224
▁鳟	-8225
▁hero	-8226
▁361	-8227
▁rel	-8228
▁walk	-8229
▁鬃	-8230
▁鱲	-8231
ove	-8232
▁js	-8233
▁hkt	-8234
▁ener	-8235
▁峒	-8236
▁lc	-8237
▁tm	-8238
▁537	-8239
▁910	-8240
▁940	-8241
▁彿	-8242
▁than	-8243
▁饺	-8244
bra	-8245
▁kt	-8246
▁儁	-8247
▁嫖	-8248
▁悌	-8249
▁酐	-8250
zen	-8251
▁3200	-8252
▁fish	-8253
▁蚣	-8254
▁io	-8255
▁45%	-8256
▁705	-8257
▁yam	-8258
▁made	-8259
change	-8260
▁about	-8261
▁眩	-8262
▁eva	-8263
▁cosp	-8264
▁surface	-8265
▁æ	-8266
▁厮	-8267
▁瑁	-8268
▁546	-8269
▁kle	-8270
▁lot	-8271
▁1774	-8272
▁cole	-8273
▁computer	-8274
ench	-8275
▁ddr	-8276
▁sas	-8277
▁1560	-8278
▁1621	-8279
▁make	-8280
▁嗽	-8281
▁轸	-8282
▁钯	-8283
▁885	-8284
▁esc	-8285
▁std	-8286
▁mind	-8287
▁呵	-8288
usion	-8289
▁gear	-8290
▁纭	-8291
▁575	-8292
▁gor	-8293
▁1490	-8294
iction	-8295
▁«	-8296
▁徕	-8297
▁戦	-8298
▁瓘	-8299
▁螳	-8300
▁oct	-8301
▁reb	-8302
atory	-8303
▁talk	-8304
▁graph	-8305
▁avenue	-8306
▁徳	-8307
▁恂	-8308
▁涝	-8309
▁糜	-8310
▁387	-8311
▁depart	-8312
▁ど	-8313
▁future	-8314
▁漓	-8315
▁褫	-8316
▁鄚	-8317
▁tl	-8318
▁388	-8319
▁396	-8320
▁player	-8321
▁ゆ	-8322
▁409	-8323
▁infin	-8324
▁samuel	-8325
▁wonder	-8326
▁琊	-8327
▁镧	-8328
omo	-8329
utt	-8330
▁pix	-8331
worth	-8332
▁1624	-8333
▁sega	-8334
▁electron	-8335
▁transport	-8336
gn	-8337
▁ć	-8338
▁佯	-8339
kins	-8340
▁511	-8341
▁pun	-8342
prise	-8343
▁mand	-8344
▁atr	-8345
▁brad	-8346
▁惮	-8347
▁杓	-8348
▁aj	-8349
iant	-8350
▁545	-8351
▁bil	-8352
▁theory	-8353
▁library	-8354
▁靛	-8355
▁鲂	-8356
▁538	-8357
▁bah	-8358
▁1637	-8359
▁1649	-8360
▁苋	-8361
▁鲡	-8362
240	-8363
▁523	-8364
▁790	-8365
▁cel	-8366
issement	-8367
▁virtual	-8368
▁咯	-8369
▁萩	-8370
▁mh	-8371
▁466	-8372
▁547	-8373
▁611	-8374
▁1765	-8375
▁effect	-8376
▁english	-8377
▁ц	-8378
▁甕	-8379
▁527	-8380
gress	-8381
▁1634	-8382
▁nico	-8383
▁俪	-8384
▁孪	-8385
▁袒	-8386
▁pf	-8387
▁476	-8388
▁499	-8389
▁bot	-8390
▁fat	-8391
▁iss	-8392
▁栢	-8393
▁hx	-8394
▁ls	-8395
▁kab	-8396
▁昀	-8397
alk	-8398
ges	-8399
lah	-8400
▁ci	-8401
▁612	-8402
▁abb	-8403
▁1748	-8404
▁full	-8405
▁memor	-8406
▁cosplay	-8407
▁ı	-8408
gam	-8409
▁1541	-8410
▁taip	-8411
▁峤	-8412
▁柘	-8413
▁诘	-8414
▁1535	-8415
▁υ	-8416
▁506	-8417
▁1627	-8418
▁1720	-8419
▁seven	-8420
▁憬	-8421
▁玑	-8422
▁颔	-8423
▁rn	-8424
▁12%	-8425
▁庠	-8426
cle	-8427
ists	-8428
▁368	-8429
▁455	-8430
▁516	-8431
▁chart	-8432
▁猬	-8433
▁皎	-8434
▁ik	-8435
▁robin	-8436
▁taylor	-8437
▁繇	-8438
uma	-8439
ogen	-8440
▁626	-8441
▁昴	-8442
▁gc	-8443
bour	-8444
▁556	-8445
▁kevin	-8446
▁christoph	-8447
▁揣	-8448
▁珩	-8449
▁稔	-8450
▁绽	-8451
▁诩	-8452
inae	-8453
▁gem	-8454
▁1585	-8455
▁magn	-8456
▁capital	-8457
▁殁	-8458
▁舫	-8459
▁邛	-8460
▁이	-8461
umi	-8462
▁ck	-8463
esco	-8464
▁364	-8465
▁378	-8466
▁442	-8467
▁here	-8468
▁俟	-8469
▁骡	-8470
▁vita	-8471
▁hyd	-8472
▁pad	-8473
▁rade	-8474
▁brian	-8475
▁ノ	-8476
▁谗	-8477
▁鯙	-8478
▁鲳	-8479
▁kc	-8480
▁nfl	-8481
▁痺	-8482
het	-8483
▁rr	-8484
▁422	-8485
▁joy	-8486
▁1736	-8487
▁stadium	-8488
▁european	-8489
▁茴	-8490
lis	-8491
ides	-8492
▁cour	-8493
▁death	-8494
▁method	-8495
▁ш	-8496
▁≤	-8497
▁mw	-8498
▁ow	-8499
icus	-8500
▁479	-8501
▁1724	-8502
▁漪	-8503
▁珥	-8504
▁614	-8505
▁1250	-8506
▁1629	-8507
▁lead	-8508
▁arrond	-8509
▁generation	-8510
▁―	-8511
▁祢	-8512
▁鼹	-8513
800	-8514
▁522	-8515
▁deut	-8516
▁committe	-8517
▁甾	-8518
▁ee	-8519
▁675	-8520
▁433	-8521
▁eliz	-8522
▁mega	-8523
▁board	-8524
▁parad	-8525
▁arrondissement	-8526
▁帷	-8527
▁汹	-8528
oni	-8529
▁486	-8530
▁1631	-8531
▁aur	-8532
▁凄	-8533
▁蜍	-8534
isk	-8535
ando	-8536
▁451	-8537
▁aqu	-8538
▁chrome	-8539
▁contin	-8540
▁framework	-8541
▁鸵	-8542
ersh	-8543
▁439	-8544
▁loc	-8545
▁1647	-8546
▁comb	-8547
▁patrick	-8548
▁376	-8549
▁508	-8550
▁519	-8551
▁628	-8552
dm	-8553
▁螃	-8554
vis	-8555
▁475	-8556
enger	-8557
▁1529	-8558
▁dohc	-8559
▁ŋ	-8560
▁殓	-8561
back	-8562
▁389	-8563
▁ゃ	-8564
▁湟	-8565
▁筷	-8566
▁397	-8567
▁paris	-8568
▁敍	-8569
▁沭	-8570
▁辻	-8571
ete	-8572
▁1727	-8573
▁ubuntu	-8574
▁蝮	-8575
▁426	-8576
▁526	-8577
▁925	-8578
▁娣	-8579
▁菏	-8580
ites	-8581
▁349	-8582
▁372	-8583
▁443	-8584
▁pak	-8585
▁1538	-8586
▁area	-8587
▁services	-8588
▁戸	-8589
▁湮	-8590
▁赟	-8591
▁铣	-8592
▁颙	-8593
ali	-8594
ages	-8595
▁stone	-8596
▁囉	-8597
▁歎	-8598
uce	-8599
▁423	-8600
▁534	-8601
▁five	-8602
▁掾	-8603
▁谌	-8604
▁赡	-8605
▁533	-8606
▁552	-8607
▁1616	-8608
▁burn	-8609
▁priv	-8610
ological	-8611
▁痘	-8612
▁缵	-8613
▁铊	-8614
oda	-8615
▁369	-8616
▁lan	-8617
▁1771	-8618
▁cant	-8619
▁radeon	-8620
▁kv	-8621
▁567	-8622
▁kom	-8623
▁doug	-8624
▁offic	-8625
▁secur	-8626
di	-8627
▁ζ	-8628
▁焯	-8629
ocr	-8630
view	-8631
▁363	-8632
▁373	-8633
▁1618	-8634
▁rele	-8635
pson	-8636
▁mode	-8637
▁pink	-8638
▁michel	-8639
▁瑯	-8640
ois	-8641
▁381	-8642
▁613	-8643
▁890	-8644
▁dip	-8645
▁sex	-8646
▁1769	-8647
▁advance	-8648
▁362	-8649
▁436	-8650
▁99%	-8651
▁wilson	-8652
▁遶	-8653
▁驷	-8654
▁tri	-8655
▁1651	-8656
▁table	-8657
▁garden	-8658
▁蔺	-8659
ols	-8660
▁pb	-8661
▁428	-8662
▁990	-8663
▁1740	-8664
▁1745	-8665
▁metal	-8666
▁镠	-8667
▁df	-8668
bach	-8669
▁453	-8670
▁51%	-8671
▁lay	-8672
▁lyn	-8673
▁tgv	-8674
rough	-8675
▁mars	-8676
▁wing	-8677
uction	-8678
▁そ	-8679
▁觎	-8680
▁韭	-8681
mas	-8682
▁dp	-8683
▁655	-8684
▁nac	-8685
▁1773	-8686
▁jacob	-8687
▁movie	-8688
▁theatre	-8689
▁羡	-8690
▁锆	-8691
▁nich	-8692
▁spring	-8693
▁睫	-8694
109	-8695
▁hey	-8696
▁lie	-8697
▁5500	-8698
▁friedrich	-8699
▁د	-8700
▁ツ	-8701
▁咄	-8702
▁祎	-8703
▁隗	-8704
ardo	-8705
▁1762	-8706
▁pers	-8707
▁廍	-8708
read	-8709
▁636	-8710
▁pit	-8711
▁alice	-8712
▁淅	-8713
▁qs	-8714
▁18%	-8715
▁524	-8716
▁pci	-8717
iance	-8718
▁stop	-8719
▁907	-8720
▁1544	-8721
▁stor	-8722
▁concert	-8723
▁癡	-8724
▁镌	-8725
▁阈	-8726
ten	-8727
▁lm	-8728
▁517	-8729
▁tot	-8730
▁anti	-8731
▁watch	-8732
▁箫	-8733
▁ix	-8734
▁1619	-8735
▁嫦	-8736
▁cz	-8737
inus	-8738
▁committee	-8739
▁痰	-8740
▁隈	-8741
▁1487	-8742
▁1493	-8743
▁1505	-8744
▁1545	-8745
▁郦	-8746
▁sher	-8747
▁very	-8748
▁mission	-8749
▁笺	-8750
▁蠔	-8751
▁逞	-8752
▁won	-8753
anger	-8754
▁1615	-8755
▁lisp	-8756
__	-8757
eld	-8758
raw	-8759
ough	-8760
▁606	-8761
▁616	-8762
▁pse	-8763
▁jenn	-8764
▁modern	-8765
▁pacific	-8766
▁ご	-8767
▁嵊	-8768
▁萸	-8769
vet	-8770
▁596	-8771
▁gsm	-8772
▁nok	-8773
▁1735	-8774
▁lisa	-8775
▁nord	-8776
▁building	-8777
▁ば	-8778
▁瓢	-8779
ray	-8780
▁624	-8781
▁715	-8782
▁age	-8783
▁dir	-8784
▁ric	-8785
▁喵	-8786
uki	-8787
▁635	-8788
▁lucas	-8789
▁health	-8790
▁㑩	-8791
▁珅	-8792
▁717	-8793
▁det	-8794
▁emp	-8795
▁kit	-8796
iller	-8797
ollow	-8798
▁1670	-8799
▁wave	-8800
▁taipei	-8801
dc	-8802
acs	-8803
▁457	-8804
▁495	-8805
▁685	-8806
▁republ	-8807
▁daw	-8808
▁dns	-8809
▁him	-8810
▁jet	-8811
▁mis	-8812
▁1689	-8813
▁cart	-8814
▁12000	-8815
▁匐	-8816
▁癣	-8817
har	-8818
reme	-8819
▁1502	-8820
▁1757	-8821
▁斟	-8822
uan	-8823
▁394	-8824
▁aer	-8825
▁1603	-8826
▁6500	-8827
▁auth	-8828
▁cube	-8829
▁women	-8830
▁拚	-8831
▁摒	-8832
▁耘	-8833
▁顗	-8834
ido	-8835
etty	-8836
▁392	-8837
▁539	-8838
▁648	-8839
▁垭	-8840
▁睁	-8841
nam	-8842
acle	-8843
▁374	-8844
▁bow	-8845
▁been	-8846
▁憧	-8847
▁裨	-8848
▁gs	-8849
▁xe	-8850
▁sap	-8851
▁sweet	-8852
▁顼	-8853
▁815	-8854
▁usa	-8855
▁bmt	-8856
▁hart	-8857
illy	-8858
▁585	-8859
▁ali	-8860
▁wik	-8861
▁1609	-8862
▁2023	-8863
▁3600	-8864
▁诋	-8865
▁smk	-8866
bourg	-8867
▁1450	-8868
▁1578	-8869
▁report	-8870
▁闫	-8871
ives	-8872
▁379	-8873
▁532	-8874
▁pia	-8875
▁mrna	-8876
▁pasc	-8877
action	-8878
▁晁	-8879
▁ati	-8880
▁jar	-8881
▁anne	-8882
▁ㄧ	-8883
▁惫	-8884
fri	-8885
ori	-8886
▁vv	-8887
▁65%	-8888
▁98%	-8889
▁bes	-8890
▁fda	-8891
▁mes	-8892
▁obs	-8893
▁1667	-8894
▁come	-8895
▁gene	-8896
▁pentium	-8897
▁邾	-8898
▁711	-8899
▁1688	-8900
▁dynam	-8901
▁alfred	-8902
▁vocaloid	-8903
▁厩	-8904
▁靺	-8905
▁9%	-8906
▁kb	-8907
ches	-8908
ways	-8909
▁1725	-8910
vey	-8911
▁438	-8912
▁554	-8913
▁825	-8914
▁resp	-8915
cf	-8916
ht	-8917
▁郤	-8918
▁424	-8919
▁431	-8920
▁762	-8921
▁553	-8922
▁ost	-8923
▁roll	-8924
ification	-8925
▁★	-8926
▁嵇	-8927
▁513	-8928
▁638	-8929
▁amp	-8930
▁rab	-8931
ences	-8932
▁1370	-8933
▁freder	-8934
rot	-8935
▁vt	-8936
iron	-8937
▁454	-8938
▁tvn	-8939
▁1768	-8940
▁money	-8941
▁gamespot	-8942
▁璿	-8943
▁趴	-8944
▁629	-8945
▁valley	-8946
▁盯	-8947
▁簪	-8948
▁踊	-8949
oke	-8950
▁503	-8951
▁623	-8952
▁721	-8953
▁auto	-8954
▁relat	-8955
wh	-8956
▁ョ	-8957
▁邃	-8958
▁阖	-8959
▁marsh	-8960
▁portable	-8961
▁阑	-8962
▁549	-8963
▁1635	-8964
df	-8965
▁郓	-8966
▁鞨	-8967
ige	-8968
▁enc	-8969
▁active	-8970
▁邠	-8971
mes	-8972
▁1623	-8973
▁1756	-8974
▁1764	-8975
▁carr	-8976
▁涸	-8977
▁713	-8978
▁lud	-8979
▁様	-8980
▁鲭	-8981
hen	-8982
hard	-8983
iday	-8984
▁598	-8985
▁637	-8986
▁926	-8987
▁lem	-8988
helm	-8989
▁fred	-8990
▁锗	-8991
iers	-8992
ulat	-8993
▁扛	-8994
mal	-8995
▁tas	-8996
eland	-8997
▁1759	-8998
▁inte	-8999
▁sail	-9000
▁啉	-9001
▁邈	-9002
▁闳	-9003
▁ara	-9004
▁vit	-9005
▁fast	-9006
▁jason	-9007
▁stars	-9008
▁辇	-9009
700	-9010
▁dx	-9011
ucle	-9012
▁468	-9013
▁551	-9014
▁1050	-9015
▁review	-9016
rd	-9017
rt	-9018
▁ワ	-9019
▁勅	-9020
▁涣	-9021
▁馒	-9022
▁393	-9023
inder	-9024
▁corn	-9025
▁gate	-9026
▁wester	-9027
ues	-9028
stal	-9029
▁1728	-9030
▁body	-9031
▁archive	-9032
▁亟	-9033
▁渺	-9034
▁砦	-9035
▁514	-9036
▁531	-9037
▁1752	-9038
▁hell	-9039
▁shop	-9040
▁剷	-9041
▁廪	-9042
case	-9043
▁494	-9044
▁espn	-9045
▁绷	-9046
▁霁	-9047
▁fs	-9048
ians	-9049
▁55%	-9050
▁1150	-9051
▁1466	-9052
▁1758	-9053
▁鲻	-9054
bro	-9055
▁050	-9056
▁576	-9057
▁1659	-9058
▁index	-9059
▁ville	-9060
▁harris	-9061
mg	-9062
▁س	-9063
▁诒	-9064
oom	-9065
▁458	-9066
▁634	-9067
▁712	-9068
▁735	-9069
▁805	-9070
▁1652	-9071
▁anna	-9072
▁step	-9073
▁autom	-9074
▁栱	-9075
▁瑗	-9076
▁荞	-9077
▁霾	-9078
ils	-9079
lon	-9080
▁504	-9081
▁876	-9082
▁lcd	-9083
▁gnome	-9084
▁roger	-9085
▁think	-9086
▁奭	-9087
▁幔	-9088
▁604	-9089
▁fro	-9090
▁kur	-9091
▁mut	-9092
▁fern	-9093
▁垛	-9094
▁鲇	-9095
sta	-9096
▁1260	-9097
▁perl	-9098
▁energy	-9099
▁species	-9100
▁侥	-9101
▁撷	-9102
▁柝	-9103
▁糠	-9104
yan	-9105
▁521	-9106
▁rol	-9107
▁1569	-9108
▁lewis	-9109
▁short	-9110
▁fantasy	-9111
▁嘘	-9112
▁796	-9113
▁kid	-9114
▁thr	-9115
▁1601	-9116
▁fami	-9117
▁ɔ	-9118
▁锕	-9119
▁鲟	-9120
nie	-9121
▁jp	-9122
▁hyper	-9123
▁original	-9124
▁嫣	-9125
▁嵯	-9126
▁涕	-9127
▁瘠	-9128
▁縻	-9129
oria	-9130
ature	-9131
▁1632	-9132
▁smap	-9133
▁936	-9134
▁acid	-9135
▁oper	-9136
▁poem	-9137
▁harry	-9138
▁偈	-9139
▁咱	-9140
▁囤	-9141
▁屹	-9142
tran	-9143
▁1664	-9144
▁struct	-9145
▁奂	-9146
▁蒯	-9147
▁饬	-9148
enz	-9149
oper	-9150
self	-9151
▁cia	-9152
▁1733	-9153
▁mort	-9154
▁tell	-9155
▁termin	-9156
▁猖	-9157
leg	-9158
▁any	-9159
otion	-9160
▁coll	-9161
▁澹	-9162
▁蹦	-9163
elo	-9164
▁452	-9165
▁509	-9166
▁565	-9167
▁595	-9168
▁msn	-9169
▁1457	-9170
▁1654	-9171
▁lock	-9172
▁countdown	-9173
▁攒	-9174
▁胭	-9175
▁fem	-9176
▁gas	-9177
▁7500	-9178
▁barb	-9179
▁mathe	-9180
▁castle	-9181
▁忿	-9182
tex	-9183
▁716	-9184
▁962	-9185
▁1655	-9186
▁ふ	-9187
▁郯	-9188
asia	-9189
▁pic	-9190
▁blog	-9191
▁ital	-9192
▁complex	-9193
▁猥	-9194
▁neo	-9195
▁npc	-9196
▁1478	-9197
▁case	-9198
▁look	-9199
▁freed	-9200
omy	-9201
ancy	-9202
endo	-9203
▁1595	-9204
▁1604	-9205
▁adhd	-9206
▁闿	-9207
alis	-9208
host	-9209
▁765	-9210
▁cut	-9211
▁planet	-9212
▁匍	-9213
▁辎	-9214
▁髦	-9215
▁686	-9216
▁725	-9217
▁bol	-9218
▁did	-9219
▁soh	-9220
ether	-9221
▁1575	-9222
▁1729	-9223
▁march	-9224
▁玳	-9225
▁ek	-9226
▁391	-9227
▁755	-9228
▁rib	-9229
scape	-9230
▁being	-9231
▁version	-9232
aver	-9233
time	-9234
▁472	-9235
▁597	-9236
▁632	-9237
▁snow	-9238
▁spect	-9239
▁differ	-9240
▁ず	-9241
▁褪	-9242
▁382	-9243
▁桀	-9244
▁mn	-9245
▁437	-9246
▁775	-9247
▁1567	-9248
▁bart	-9249
▁乩	-9250
▁榷	-9251
▁炊	-9252
▁砥	-9253
▁xi	-9254
▁sak	-9255
▁pascal	-9256
▁anthony	-9257
▁砺	-9258
▁箍	-9259
▁锵	-9260
eno	-9261
pro	-9262
ione	-9263
▁718	-9264
▁kap	-9265
▁vip	-9266
ennis	-9267
▁1572	-9268
▁1584	-9269
▁1613	-9270
▁juan	-9271
▁507	-9272
▁557	-9273
peria	-9274
▁萘	-9275
▁pra	-9276
▁1701	-9277
▁wong	-9278
▁­	-9279
▁孰	-9280
ulu	-9281
▁429	-9282
▁nin	-9283
▁1767	-9284
▁牍	-9285
▁碲	-9286
▁586	-9287
▁1540	-9288
▁cath	-9289
▁food	-9290
▁solar	-9291
▁658	-9292
▁1626	-9293
▁1638	-9294
▁1684	-9295
▁nokia	-9296
▁machine	-9297
▁玠	-9298
▁県	-9299
▁bp	-9300
ized	-9301
▁918	-9302
▁1612	-9303
▁cash	-9304
▁ryan	-9305
▁nan	-9306
▁1496	-9307
▁season	-9308
▁ś	-9309
▁晞	-9310
▁577	-9311
▁enterprise	-9312
▁christopher	-9313
▁澂	-9314
▁琇	-9315
▁盱	-9316
▁arn	-9317
▁fis	-9318
▁vcd	-9319
▁avex	-9320
▁trib	-9321
▁davis	-9322
▁alexand	-9323
▁holdings	-9324
▁commission	-9325
▁interactive	-9326
▁笏	-9327
▁1⁄	-9328
▁444	-9329
▁544	-9330
▁gib	-9331
▁1369	-9332
▁hosp	-9333
▁刍	-9334
itect	-9335
▁1685	-9336
▁gamec	-9337
▁ほ	-9338
▁郗	-9339
atan	-9340
▁738	-9341
▁alg	-9342
▁1350	-9343
▁path	-9344
▁帑	-9345
▁梶	-9346
264	-9347
▁dk	-9348
▁561	-9349
▁603	-9350
▁835	-9351
thers	-9352
▁1713	-9353
▁1721	-9354
▁vent	-9355
▁metro	-9356
▁orient	-9357
▁classic	-9358
▁璠	-9359
▁锜	-9360
imo	-9361
onic	-9362
▁13%	-9363
▁676	-9364
▁945	-9365
▁nak	-9366
▁nig	-9367
▁ufo	-9368
▁1589	-9369
▁1614	-9370
▁1751	-9371
▁rank	-9372
▁sens	-9373
▁engineering	-9374
▁怂	-9375
▁493	-9376
▁986	-9377
▁sud	-9378
▁bigbang	-9379
▁恿	-9380
▁肮	-9381
▁钇	-9382
▁hms	-9383
▁tap	-9384
▁1754	-9385
▁xperia	-9386
▁専	-9387
bre	-9388
erg	-9389
etta	-9390
▁456	-9391
▁hyp	-9392
▁1587	-9393
▁andr	-9394
ev	-9395
▁棻	-9396
▁綦	-9397
▁496	-9398
▁cav	-9399
▁hub	-9400
▁1766	-9401
intosh	-9402
▁miller	-9403
▁痢	-9404
▁铷	-9405
▁464	-9406
▁467	-9407
▁exper	-9408
▁wilhelm	-9409
▁elizabeth	-9410
▁浬	-9411
▁珙	-9412
fly	-9413
▁651	-9414
▁ful	-9415
▁tag	-9416
▁妞	-9417
▁璨	-9418
▁487	-9419
▁912	-9420
▁ois	-9421
▁rud	-9422
▁vor	-9423
▁3166	-9424
▁capt	-9425
▁kore	-9426
▁based	-9427
▁đ	-9428
▁锶	-9429
ifi	-9430
inn	-9431
olic	-9432
▁498	-9433
▁667	-9434
▁1526	-9435
▁hein	-9436
oa	-9437
▁哄	-9438
ande	-9439
▁568	-9440
▁684	-9441
▁722	-9442
▁拗	-9443
een	-9444
▁845	-9445
▁886	-9446
▁965	-9447
▁tnt	-9448
▁1561	-9449
▁gord	-9450
▁past	-9451
▁tang	-9452
▁calif	-9453
▁product	-9454
▁department	-9455
▁ж	-9456
▁稗	-9457
▁轲	-9458
▁441	-9459
▁975	-9460
▁996	-9461
▁1639	-9462
▁1658	-9463
▁rick	-9464
pur	-9465
▁492	-9466
▁jane	-9467
▁directx	-9468
▁484	-9469
▁541	-9470
▁687	-9471
▁roc	-9472
▁1280	-9473
▁1469	-9474
▁mail	-9475
ension	-9476
▁ा	-9477
▁珣	-9478
▁茗	-9479
▁铐	-9480
350	-9481
air	-9482
len	-9483
▁cx	-9484
agar	-9485
icip	-9486
itan	-9487
▁731	-9488
▁itv	-9489
▁1761	-9490
▁wash	-9491
▁memory	-9492
▁showcase	-9493
▁446	-9494
▁668	-9495
▁751	-9496
▁785	-9497
▁929	-9498
▁isa	-9499
▁zip	-9500
▁1753	-9501
▁spot	-9502
▁arena	-9503
▁pseud	-9504
▁477	-9505
berry	-9506
▁room	-9507
▁937	-9508
▁997	-9509
▁tog	-9510
▁gamer	-9511
▁piece	-9512
ea	-9513
▁獠	-9514
▁腌	-9515
▁苌	-9516
▁719	-9517
▁das	-9518
▁amazon	-9519
▁perfect	-9520
▁californ	-9521
▁482	-9522
▁yosh	-9523
rian	-9524
▁oly	-9525
▁government	-9526
▁䌽	-9527
110	-9528
▁915	-9529
▁969	-9530
▁dre	-9531
▁sad	-9532
▁tea	-9533
▁allen	-9534
▁榘	-9535
▁559	-9536
▁698	-9537
▁bun	-9538
▁vic	-9539
▁1707	-9540
▁3300	-9541
▁dash	-9542
▁diam	-9543
▁clark	-9544
▁儋	-9545
▁犛	-9546
osph	-9547
▁647	-9548
▁ccd	-9549
▁lev	-9550
▁1593	-9551
▁1732	-9552
▁macos	-9553
▁howard	-9554
▁advanced	-9555
▁nk	-9556
▁rg	-9557
bury	-9558
▁jas	-9559
music	-9560
▁atom	-9561
▁ling	-9562
▁victoria	-9563
▁恙	-9564
▁ans	-9565
▁oce	-9566
▁pip	-9567
ference	-9568
▁珏	-9569
dit	-9570
rum	-9571
▁483	-9572
▁1690	-9573
▁twins	-9574
▁architect	-9575
▁鄯	-9576
▁863	-9577
▁973	-9578
▁्	-9579
▁暐	-9580
▁蒨	-9581
ales	-9582
▁706	-9583
▁846	-9584
▁pga	-9585
▁1475	-9586
▁vinc	-9587
ential	-9588
▁娲	-9589
▁砵	-9590
azz	-9591
▁434	-9592
▁704	-9593
iment	-9594
▁need	-9595
▁peace	-9596
▁hospital	-9597
▁nl	-9598
ones	-9599
▁562	-9600
▁hem	-9601
▁gram	-9602
▁then	-9603
▁谙	-9604
▁豺	-9605
▁ble	-9606
▁1520	-9607
▁universal	-9608
▁鵙	-9609
ners	-9610
sche	-9611
▁682	-9612
▁695	-9613
▁818	-9614
▁esp	-9615
▁vhs	-9616
▁feel	-9617
▁symb	-9618
▁瀬	-9619
▁腮	-9620
▁诙	-9621
lag	-9622
anny	-9623
ifer	-9624
onia	-9625
▁602	-9626
▁729	-9627
orough	-9628
▁ultra	-9629
▁industr	-9630
▁璀	-9631
▁蛰	-9632
arm	-9633
cat	-9634
hem	-9635
uff	-9636
▁469	-9637
▁905	-9638
▁cis	-9639
▁nic	-9640
▁gran	-9641
▁turbo	-9642
▁尕	-9643
uda	-9644
▁14%	-9645
▁eug	-9646
▁1588	-9647
▁1607	-9648
▁1710	-9649
▁セ	-9650
▁岫	-9651
▁燬	-9652
▁痹	-9653
▁逛	-9654
▁hab	-9655
▁pul	-9656
▁1718	-9657
▁formation	-9658
mark	-9659
▁449	-9660
▁471	-9661
▁748	-9662
▁759	-9663
▁947	-9664
▁zen	-9665
▁1726	-9666
▁gaon	-9667
▁imag	-9668
▁俺	-9669
▁漯	-9670
▁翩	-9671
hal	-9672
▁eu	-9673
▁478	-9674
▁489	-9675
▁756	-9676
▁1460	-9677
▁airport	-9678
▁蔼	-9679
▁込	-9680
▁镓	-9681
▁qt	-9682
▁812	-9683
▁938	-9684
▁kel	-9685
▁1611	-9686
▁1737	-9687
▁catal	-9688
▁storm	-9689
▁vision	-9690
▁natural	-9691
▁菈	-9692
▁藕	-9693
▁nv	-9694
▁573	-9695
under	-9696
▁1555	-9697
▁bios	-9698
▁revolution	-9699
▁枷	-9700
bow	-9701
aria	-9702
▁798	-9703
▁1453	-9704
▁1530	-9705
▁brun	-9706
▁pain	-9707
▁polit	-9708
▁matthe	-9709
eman	-9710
▁681	-9711
▁714	-9712
▁nob	-9713
▁rca	-9714
epend	-9715
▁1524	-9716
▁1657	-9717
▁1717	-9718
▁ther	-9719
▁western	-9720
▁gamecube	-9721
▁youtuber	-9722
oi	-9723
▁edu	-9724
▁attack	-9725
py	-9726
▁壑	-9727
▁涓	-9728
▁煲	-9729
▁缤	-9730
▁谑	-9731
▁郃	-9732
▁齧	-9733
▁571	-9734
▁atm	-9735
▁put	-9736
▁dear	-9737
▁scope	-9738
▁studies	-9739
▁唁	-9740
▁槻	-9741
▁毎	-9742
▁薙	-9743
▁aq	-9744
ente	-9745
▁las	-9746
▁vin	-9747
▁1380	-9748
▁exile	-9749
▁ぶ	-9750
▁嚐	-9751
hedr	-9752
▁609	-9753
▁813	-9754
imate	-9755
▁1130	-9756
▁1430	-9757
▁1454	-9758
▁penn	-9759
enberg	-9760
▁nucle	-9761
▁roman	-9762
mw	-9763
▁む	-9764
▁汜	-9765
▁苴	-9766
▁鳐	-9767
cht	-9768
▁ez	-9769
▁587	-9770
▁666	-9771
▁nap	-9772
▁1532	-9773
▁cloud	-9774
▁princip	-9775
▁support	-9776
▁э	-9777
▁湃	-9778
▁pw	-9779
▁wc	-9780
▁558	-9781
▁kad	-9782
▁1525	-9783
▁1675	-9784
▁cycl	-9785
▁hack	-9786
▁viii	-9787
▁濡	-9788
▁588	-9789
▁lun	-9790
▁1715	-9791
▁france	-9792
▁煊	-9793
▁碓	-9794
▁麋	-9795
113	-9796
▁488	-9797
▁726	-9798
▁1481	-9799
▁1681	-9800
▁1697	-9801
▁khan	-9802
▁triple	-9803
kn	-9804
▁ی	-9805
▁ケ	-9806
▁刈	-9807
▁惭	-9808
▁xf	-9809
▁1492	-9810
▁1738	-9811
▁barr	-9812
▁gary	-9813
▁lion	-9814
▁nova	-9815
▁antonio	-9816
▁ˈ	-9817
▁呛	-9818
▁墉	-9819
▁涞	-9820
▁谶	-9821
rod	-9822
ype	-9823
atch	-9824
▁923	-9825
▁928	-9826
▁935	-9827
▁rim	-9828
▁1666	-9829
▁cass	-9830
▁local	-9831
▁prime	-9832
▁า	-9833
▁忤	-9834
▁爨	-9835
▁窍	-9836
▁铆	-9837
aco	-9838
agu	-9839
ogo	-9840
▁nf	-9841
▁16%	-9842
▁ral	-9843
▁1591	-9844
▁1747	-9845
ination	-9846
▁塭	-9847
▁猾	-9848
▁讧	-9849
bers	-9850
▁11%	-9851
▁459	-9852
▁599	-9853
ancer	-9854
▁1523	-9855
▁1581	-9856
▁1679	-9857
▁kick	-9858
▁match	-9859
▁championship	-9860
▁蝾	-9861
▁谧	-9862
bell	-9863
ysis	-9864
▁995	-9865
▁mall	-9866
▁security	-9867
▁歴	-9868
▁疃	-9869
▁688	-9870
▁817	-9871
▁1653	-9872
▁1665	-9873
▁1731	-9874
▁陟	-9875
fore	-9876
▁821	-9877
▁927	-9878
▁ncc	-9879
▁ras	-9880
▁1633	-9881
▁want	-9882
▁donald	-9883
▁耒	-9884
▁踵	-9885
▁鹑	-9886
▁fd	-9887
▁ks	-9888
▁463	-9889
▁542	-9890
▁574	-9891
▁826	-9892
▁dsp	-9893
▁1641	-9894
▁1734	-9895
▁andy	-9896
▁cool	-9897
▁olymp	-9898
▁independ	-9899
▁呋	-9900
rin	-9901
▁bj	-9902
▁656	-9903
▁786	-9904
▁cos	-9905
▁dlc	-9906
▁1714	-9907
▁mond	-9908
▁sent	-9909
▁shin	-9910
▁憨	-9911
▁陲	-9912
ucky	-9913
wart	-9914
▁497	-9915
▁643	-9916
▁dick	-9917
▁self	-9918
▁xiii	-9919
▁contr	-9920
▁ァ	-9921
▁lt	-9922
▁17%	-9923
▁563	-9924
▁572	-9925
▁1672	-9926
▁笹	-9927
▁菟	-9928
fan	-9929
usa	-9930
ross	-9931
▁708	-9932
▁847	-9933
▁1564	-9934
▁pear	-9935
▁naver	-9936
▁california	-9937
▁咆	-9938
▁圜	-9939
▁敎	-9940
▁颞	-9941
▁__	-9942
▁702	-9943
▁hud	-9944
▁tat	-9945
craft	-9946
ilton	-9947
▁1739	-9948
▁plaza	-9949
mc	-9950
▁xl	-9951
oshi	-9952
▁728	-9953
▁pep	-9954
acter	-9955
antic	-9956
▁1722	-9957
105	-9958
ains	-9959
ulus	-9960
▁461	-9961
▁543	-9962
▁633	-9963
▁745	-9964
▁bak	-9965
▁johnny	-9966
▁command	-9967
▁through	-9968
lu	-9969
▁秆	-9970
▁肼	-9971
▁铌	-9972
▁陉	-9973
▁鹕	-9974
▁ug	-9975
▁579	-9976
▁875	-9977
▁hur	-9978
▁ria	-9979
▁1742	-9980
▁epic	-9981
▁logo	-9982
▁mater	-9983
▁carlos	-9984
▁ع	-9985
▁ร	-9986
▁蝌	-9987
▁镒	-9988
iph	-9989
▁lil	-9990
▁1576	-9991
▁bord	-9992
▁moham	-9993
▁intell	-9994
▁singap	-9995
▁绾	-9996
▁蟑	-9997
wick	-9998
▁582	-9999
▁hav	-10000
▁pod	-10001
▁commer	-10002
▁forever	-10003
▁嵋	-10004
▁hg	-10005
▁iz	-10006
▁oz	-10007
▁wu	-10008
haus	-10009
▁696	-10010
▁823	-10011
▁cond	-10012
▁imper	-10013
▁premium	-10014
▁macintosh	-10015
▁楫	-10016
▁珐	-10017
▁铟	-10018
odon	-10019
▁gig	-10020
▁1514	-10021
bridge	-10022
▁civil	-10023
▁霏	-10024
mur	-10025
1000	-10026
agne	-10027
▁49%	-10028
▁865	-10029
▁sie	-10030
▁cccc	-10031
▁shir	-10032
▁tree	-10033
▁treat	-10034
▁燎	-10035
▁眙	-10036
▁砀	-10037
▁608	-10038
▁808	-10039
▁919	-10040
▁948	-10041
▁971	-10042
▁hxd	-10043
▁pil	-10044
itive	-10045
▁font	-10046
▁grav	-10047
▁25000	-10048
▁living	-10049
▁瑀	-10050
rid	-10051
olis	-10052
▁649	-10053
▁811	-10054
▁976	-10055
▁1563	-10056
▁1744	-10057
▁bass	-10058
▁another	-10059
▁ð	-10060
▁ί	-10061
iful	-10062
town	-10063
▁914	-10064
▁1709	-10065
▁openg	-10066
▁́	-10067
▁蚪	-10068
▁tp	-10069
▁678	-10070
istry	-10071
▁1605	-10072
▁fate	-10073
▁years	-10074
▁middle	-10075
▁francisco	-10076
▁鎗	-10077
▁阂	-10078
25%	-10079
▁hl	-10080
▁481	-10081
▁578	-10082
▁816	-10083
▁888	-10084
▁902	-10085
▁939	-10086
▁beh	-10087
▁kay	-10088
ienne	-10089
▁1676	-10090
▁palm	-10091
▁asian	-10092
▁medium	-10093
▁orange	-10094
▁喱	-10095
▁揪	-10096
▁蝓	-10097
▁镂	-10098
iac	-10099
▁dw	-10100
▁ou	-10101
▁474	-10102
▁cosm	-10103
▁quad	-10104
▁prote	-10105
ography	-10106
▁楯	-10107
▁蛞	-10108
inte	-10109
▁657	-10110
▁768	-10111
count	-10112
▁hugh	-10113
▁maur	-10114
▁page	-10115
▁perfor	-10116
▁return	-10117
▁against	-10118
▁friends	-10119
▁ね	-10120
▁愫	-10121
▁桡	-10122
▁薮	-10123
▁讣	-10124
▁鹗	-10125
lim	-10126
▁659	-10127
▁887	-10128
▁896	-10129
▁1602	-10130
▁1699	-10131
▁army	-10132
▁dual	-10133
▁lear	-10134
▁image	-10135
▁dreamcast	-10136
gas	-10137
vard	-10138
▁etc	-10139
▁lac	-10140
▁1687	-10141
▁dota	-10142
▁azure	-10143
▁sailor	-10144
▁橐	-10145
▁胧	-10146
amo	-10147
gie	-10148
pla	-10149
▁pn	-10150
▁33%	-10151
▁819	-10152
▁908	-10153
▁ach	-10154
▁ange	-10155
▁dave	-10156
▁democr	-10157
▁integr	-10158
▁anderson	-10159
bb	-10160
▁坯	-10161
▁氘	-10162
▁氪	-10163
▁鲔	-10164
▁dn	-10165
▁mf	-10166
phal	-10167
▁guy	-10168
▁lip	-10169
istic	-10170
▁1673	-10171
▁cdma	-10172
▁ghost	-10173
▁ccccff	-10174
▁medical	-10175
▁television	-10176
▁猗	-10177
▁豊	-10178
▁钤	-10179
edy	-10180
▁699	-10181
▁724	-10182
ening	-10183
▁easy	-10184
▁ferr	-10185
icular	-10186
▁焜	-10187
gon	-10188
oul	-10189
ween	-10190
▁761	-10191
▁951	-10192
▁follow	-10193
▁legend	-10194
▁雹	-10195
lav	-10196
▁fp	-10197
anch	-10198
▁569	-10199
▁642	-10200
▁838	-10201
▁1001	-10202
▁1741	-10203
▁2024	-10204
▁honey	-10205
▁these	-10206
lection	-10207
▁margar	-10208
▁country	-10209
▁community	-10210
▁嶷	-10211
▁徭	-10212
▁恣	-10213
arts	-10214
▁jal	-10215
▁1599	-10216
▁sams	-10217
▁wang	-10218
orf	-10219
▁wm	-10220
▁wp	-10221
lass	-10222
more	-10223
▁fit	-10224
▁sed	-10225
uster	-10226
▁1536	-10227
▁1669	-10228
▁grad	-10229
▁kent	-10230
office	-10231
ulation	-10232
aa	-10233
▁∈	-10234
▁蜚	-10235
▁赭	-10236
uto	-10237
▁934	-10238
▁whe	-10239
▁hope	-10240
▁songs	-10241
▁trust	-10242
▁freebsd	-10243
▁ž	-10244
▁歩	-10245
ashi	-10246
▁692	-10247
▁lad	-10248
▁1180	-10249
▁1558	-10250
▁jord	-10251
▁lamigo	-10252
▁exchange	-10253
▁singapore	-10254
▁ネ	-10255
▁蹇	-10256
zzo	-10257
▁473	-10258
▁661	-10259
▁741	-10260
▁828	-10261
▁chu	-10262
▁jes	-10263
▁toy	-10264
▁giov	-10265
▁orch	-10266
▁ت	-10267
▁姫	-10268
▁煇	-10269
▁锉	-10270
340	-10271
icy	-10272
agen	-10273
▁822	-10274
▁lic	-10275
▁ris	-10276
▁tax	-10277
▁1566	-10278
▁1656	-10279
▁bert	-10280
▁bing	-10281
▁wright	-10282
▁ボ	-10283
▁旸	-10284
▁耙	-10285
aku	-10286
▁644	-10287
▁occ	-10288
▁use	-10289
▁1597	-10290
▁bruce	-10291
▁labor	-10292
▁monster	-10293
orph	-10294
tech	-10295
▁653	-10296
▁709	-10297
▁955	-10298
▁1542	-10299
▁1749	-10300
▁teau	-10301
▁audio	-10302
▁flight	-10303
▁pictures	-10304
vc	-10305
▁χ	-10306
▁䜣	-10307
▁嘶	-10308
▁荖	-10309
▁593	-10310
▁746	-10311
▁flo	-10312
itude	-10313
▁josh	-10314
▁canada	-10315
▁debian	-10316
▁village	-10317
▁ぐ	-10318
▁芩	-10319
310	-10320
▁641	-10321
▁689	-10322
▁736	-10323
▁bom	-10324
▁1127	-10325
▁ident	-10326
▁opens	-10327
uh	-10328
▁ˋ	-10329
▁啬	-10330
▁睇	-10331
▁733	-10332
▁824	-10333
▁wan	-10334
▁gaga	-10335
▁shah	-10336
▁jimmy	-10337
▁剽	-10338
▁喹	-10339
▁碛	-10340
▁苎	-10341
▁藐	-10342
▁阯	-10343
emb	-10344
ulf	-10345
▁sz	-10346
▁bos	-10347
▁exe	-10348
▁exo	-10349
▁eye	-10350
▁gaz	-10351
▁pel	-10352
▁1519	-10353
▁raid	-10354
▁walker	-10355
▁ă	-10356
▁俶	-10357
iet	-10358
uary	-10359
▁662	-10360
▁957	-10361
▁998	-10362
▁lou	-10363
▁nit	-10364
▁coco	-10365
▁spirit	-10366
▁®	-10367
▁ş	-10368
▁་	-10369
▁峠	-10370
arc	-10371
▁sq	-10372
odes	-10373
estra	-10374
▁1230	-10375
▁demo	-10376
▁eyes	-10377
▁urban	-10378
▁author	-10379
▁german	-10380
▁mathemat	-10381
iq	-10382
▁坵	-10383
▁瞪	-10384
▁绀	-10385
▁rm	-10386
▁564	-10387
angel	-10388
space	-10389
▁1617	-10390
▁admin	-10391
▁delta	-10392
▁temple	-10393
▁朐	-10394
▁滂	-10395
▁龢	-10396
pent	-10397
▁566	-10398
▁652	-10399
▁839	-10400
▁933	-10401
▁kol	-10402
▁leo	-10403
stone	-10404
▁1537	-10405
▁fund	-10406
▁sequ	-10407
▁30000	-10408
▁lambda	-10409
gh	-10410
▁侑	-10411
▁俣	-10412
▁殃	-10413
aten	-10414
ilog	-10415
ament	-10416
world	-10417
▁ward	-10418
▁change	-10419
▁nation	-10420
▁winter	-10421
▁嗪	-10422
▁翱	-10423
lete	-10424
▁594	-10425
▁754	-10426
▁897	-10427
▁979	-10428
▁1522	-10429
▁1674	-10430
▁1712	-10431
▁gent	-10432
▁kind	-10433
▁kelly	-10434
▁gordon	-10435
▁window	-10436
▁republic	-10437
▁橹	-10438
▁菓	-10439
▁醌	-10440
uts	-10441
stra	-10442
▁683	-10443
▁tet	-10444
ische	-10445
▁must	-10446
▁motor	-10447
▁netscape	-10448
bf	-10449
▁挹	-10450
02%	-10451
▁584	-10452
▁946	-10453
▁bed	-10454
▁1606	-10455
▁benn	-10456
▁keep	-10457
▁彊	-10458
▁桉	-10459
▁獗	-10460
▁菖	-10461
107	-10462
▁491	-10463
▁ner	-10464
iation	-10465
▁nature	-10466
hn	-10467
116	-10468
iri	-10469
igan	-10470
▁ian	-10471
▁texas	-10472
▁evolution	-10473
▁昉	-10474
▁睪	-10475
▁铱	-10476
▁za	-10477
▁895	-10478
▁1371	-10479
▁quest	-10480
▁culture	-10481
▁factory	-10482
▁勗	-10483
▁旃	-10484
▁贽	-10485
▁锴	-10486
103	-10487
▁gy	-10488
ules	-10489
▁827	-10490
▁1220	-10491
▁1527	-10492
▁horn	-10493
▁ocean	-10494
▁quick	-10495
▁histor	-10496
▁hunter	-10497
▁粿	-10498
▁蹼	-10499
120	-10500
stad	-10501
▁646	-10502
▁kai	-10503
rence	-10504
▁1668	-10505
▁benj	-10506
▁gray	-10507
▁ster	-10508
▁sevent	-10509
▁between	-10510
▁beautiful	-10511
wd	-10512
bis	-10513
uka	-10514
▁cec	-10515
▁nem	-10516
▁1435	-10517
▁bomb	-10518
▁root	-10519
▁whit	-10520
▁activ	-10521
▁cover	-10522
▁yellow	-10523
▁perfume	-10524
▁哌	-10525
▁睑	-10526
▁虬	-10527
104	-10528
▁xy	-10529
anni	-10530
▁gay	-10531
overy	-10532
▁1276	-10533
▁beau	-10534
▁cert	-10535
▁kara	-10536
▁medic	-10537
▁blackp	-10538
▁matthew	-10539
▁frederick	-10540
▁conference	-10541
▁黒	-10542
▁723	-10543
▁881	-10544
▁sdk	-10545
▁sle	-10546
▁kitt	-10547
▁forest	-10548
▁environ	-10549
▁碣	-10550
▁纮	-10551
▁膑	-10552
phy	-10553
▁lh	-10554
▁806	-10555
▁url	-10556
▁wol	-10557
▁1746	-10558
▁morn	-10559
▁scar	-10560
▁score	-10561
▁opengl	-10562
▁jacques	-10563
▁samsung	-10564
▁汨	-10565
▁炅	-10566
▁痞	-10567
▁蹂	-10568
▁hug	-10569
▁imm	-10570
▁1024	-10571
▁1579	-10572
▁3800	-10573
▁midi	-10574
chester	-10575
atherine	-10576
▁铼	-10577
▁ji	-10578
▁sj	-10579
▁vp	-10580
othy	-10581
▁855	-10582
▁1472	-10583
▁1508	-10584
▁idol	-10585
▁spin	-10586
▁search	-10587
▁president	-10588
▁莿	-10589
▁蟆	-10590
put	-10591
▁px	-10592
▁968	-10593
▁1512	-10594
▁stay	-10595
▁崂	-10596
▁揖	-10597
▁蚵	-10598
00%	-10599
▁xt	-10600
reis	-10601
▁913	-10602
▁fur	-10603
▁plc	-10604
▁grow	-10605
▁jpeg	-10606
▁ober	-10607
▁宓	-10608
▁旼	-10609
▁獐	-10610
▁篙	-10611
▁翦	-10612
▁脯	-10613
75%	-10614
aru	-10615
▁ws	-10616
▁ibn	-10617
▁nom	-10618
▁1440	-10619
▁used	-10620
▁fight	-10621
▁financ	-10622
▁倻	-10623
▁孖	-10624
▁椽	-10625
▁ein	-10626
▁1702	-10627
▁boot	-10628
▁瘀	-10629
▁脲	-10630
emy	-10631
wig	-10632
▁iw	-10633
▁nn	-10634
▁vf	-10635
itar	-10636
▁ges	-10637
▁kun	-10638
▁1464	-10639
▁1711	-10640
▁daily	-10641
▁scien	-10642
▁alliance	-10643
▁י	-10644
iah	-10645
oca	-10646
▁kp	-10647
anne	-10648
▁592	-10649
▁mate	-10650
▁wars	-10651
▁moore	-10652
▁display	-10653
▁潦	-10654
▁纫	-10655
▁lf	-10656
▁669	-10657
▁amb	-10658
asure	-10659
▁1510	-10660
▁1546	-10661
▁beach	-10662
▁brook	-10663
▁plant	-10664
▁would	-10665
▁douglas	-10666
▁princess	-10667
▁坨	-10668
▁捩	-10669
▁祟	-10670
▁vc	-10671
▁924	-10672
▁oem	-10673
eless	-10674
▁origin	-10675
▁transform	-10676
▁ه	-10677
▁坷	-10678
▁氩	-10679
▁砜	-10680
bol	-10681
▁hz	-10682
stic	-10683
▁776	-10684
▁843	-10685
▁922	-10686
▁acp	-10687
▁apm	-10688
▁flow	-10689
▁repr	-10690
▁sarah	-10691
▁wanna	-10692
▁shinee	-10693
▁恸	-10694
33%	-10695
ced	-10696
gio	-10697
ras	-10698
▁898	-10699
▁them	-10700
▁canon	-10701
▁creek	-10702
▁knight	-10703
adi	-10704
▁732	-10705
▁784	-10706
▁809	-10707
▁916	-10708
▁981	-10709
▁kot	-10710
▁wifi	-10711
▁henri	-10712
▁malay	-10713
▁agency	-10714
▁ά	-10715
▁竑	-10716
▁觞	-10717
▁bn	-10718
▁836	-10719
▁prov	-10720
▁books	-10721
▁remix	-10722
▁kingdom	-10723
▁russell	-10724
▁ザ	-10725
met	-10726
rov	-10727
▁462	-10728
▁781	-10729
▁848	-10730
▁882	-10731
▁904	-10732
▁gui	-10733
▁syl	-10734
▁1596	-10735
▁1663	-10736
▁appro	-10737
▁jonathan	-10738
bw	-10739
▁楸	-10740
▁骐	-10741
▁020	-10742
▁697	-10743
▁739	-10744
▁771	-10745
▁1682	-10746
▁1703	-10747
▁such	-10748
▁before	-10749
▁technolog	-10750
▁professional	-10751
▁曷	-10752
▁朦	-10753
ards	-10754
▁alc	-10755
▁ark	-10756
inton	-10757
▁incl	-10758
▁valve	-10759
▁ポ	-10760
▁綝	-10761
▁蚩	-10762
▁鳔	-10763
▁hc	-10764
ador	-10765
▁691	-10766
▁797	-10767
▁pon	-10768
▁1277	-10769
▁twice	-10770
▁creative	-10771
▁christmas	-10772
▁僳	-10773
▁蚺	-10774
▁魟	-10775
03%	-10776
imi	-10777
▁iu	-10778
iler	-10779
▁917	-10780
▁bis	-10781
▁iup	-10782
▁advent	-10783
▁diamond	-10784
dn	-10785
▁鹄	-10786
edd	-10787
oko	-10788
▁ej	-10789
▁uf	-10790
▁829	-10791
▁acg	-10792
▁amx	-10793
▁psych	-10794
▁skype	-10795
▁tourn	-10796
▁brothers	-10797
▁electric	-10798
▁侪	-10799
▁沣	-10800
▁藨	-10801
side	-10802
▁763	-10803
▁766	-10804
▁899	-10805
▁987	-10806
▁benjamin	-10807
▁noinclude	-10808
▁嘟	-10809
▁躏	-10810
▁钿	-10811
fort	-10812
riel	-10813
▁97%	-10814
▁obe	-10815
▁1719	-10816
▁host	-10817
▁nint	-10818
▁trade	-10819
tz	-10820
▁卍	-10821
▁玷	-10822
▁颛	-10823
123	-10824
bes	-10825
▁uv	-10826
oker	-10827
▁1040	-10828
▁1528	-10829
▁1552	-10830
▁iron	-10831
▁solid	-10832
ability	-10833
▁premier	-10834
▁blackpink	-10835
dh	-10836
▁婶	-10837
izon	-10838
▁744	-10839
▁795	-10840
▁ф	-10841
▁吝	-10842
▁羿	-10843
▁蜷	-10844
▁辊	-10845
▁鳀	-10846
01%	-10847
pal	-10848
▁eh	-10849
bird	-10850
▁842	-10851
▁bib	-10852
▁1385	-10853
▁1420	-10854
▁1506	-10855
▁hydro	-10856
▁pixel	-10857
▁埭	-10858
▁槎	-10859
ired	-10860
▁kor	-10861
▁1066	-10862
▁1070	-10863
▁1678	-10864
▁coup	-10865
▁administr	-10866
▁र	-10867
▁∞	-10868
▁ゲ	-10869
▁暄	-10870
▁霭	-10871
mum	-10872
▁aba	-10873
▁hir	-10874
▁ipa	-10875
▁jak	-10876
aceae	-10877
mance	-10878
▁1705	-10879
▁ford	-10880
▁嘅	-10881
▁晗	-10882
▁暠	-10883
102	-10884
▁bw	-10885
▁703	-10886
▁788	-10887
▁961	-10888
▁lon	-10889
▁neg	-10890
▁1340	-10891
▁burg	-10892
▁earl	-10893
▁smile	-10894
▁constr	-10895
▁without	-10896
▁≥	-10897
▁僮	-10898
▁恍	-10899
▁氡	-10900
05%	-10901
idi	-10902
onda	-10903
▁663	-10904
▁734	-10905
▁pav	-10906
▁seg	-10907
▁1415	-10908
▁moment	-10909
▁southern	-10910
oft	-10911
tion	-10912
▁672	-10913
▁803	-10914
ample	-10915
▁1125	-10916
▁berg	-10917
▁jtbc	-10918
▁vert	-10919
▁still	-10920
▁publish	-10921
▁memorial	-10922
▁together	-10923
iser	-10924
▁783	-10925
▁1275	-10926
▁gust	-10927
▁trin	-10928
▁billy	-10929
▁franz	-10930
▁heaven	-10931
▁傈	-10932
▁哼	-10933
▁噻	-10934
▁碚	-10935
▁铈	-10936
14%	-10937
aha	-10938
otte	-10939
▁877	-10940
▁psv	-10941
▁tru	-10942
▁1390	-10943
▁1451	-10944
▁1516	-10945
▁cost	-10946
▁cris	-10947
▁proble	-10948
▁bernard	-10949
▁washington	-10950
▁椁	-10951
▁芗	-10952
15%	-10953
roll	-10954
▁591	-10955
▁988	-10956
▁ips	-10957
▁stu	-10958
▁tib	-10959
▁1330	-10960
▁soph	-10961
▁lumia	-10962
▁morris	-10963
▁thunder	-10964
aba	-10965
▁fw	-10966
band	-10967
▁004	-10968
ibili	-10969
▁1499	-10970
▁1543	-10971
▁gill	-10972
▁spacex	-10973
▁稹	-10974
▁鹞	-10975
150	-10976
olar	-10977
▁814	-10978
▁1513	-10979
▁1534	-10980
▁born	-10981
▁total	-10982
▁youth	-10983
▁凪	-10984
▁褂	-10985
▁诂	-10986
▁跖	-10987
▁钽	-10988
▁dod	-10989
▁lex	-10990
▁1557	-10991
▁bish	-10992
▁trad	-10993
▁user	-10994
▁vice	-10995
ju	-10996
▁弭	-10997
▁缜	-10998
bal	-10999
feld	-11000
▁952	-11001
▁gym	-11002
▁wow	-11003
▁april	-11004
▁惺	-11005
▁袄	-11006
08%	-11007
eron	-11008
▁837	-11009
▁cub	-11010
▁dut	-11011
▁sit	-11012
▁crystal	-11013
▁freedom	-11014
▁bilibili	-11015
▁virginia	-11016
▁輋	-11017
125	-11018
rah	-11019
uve	-11020
▁631	-11021
▁677	-11022
▁679	-11023
▁cot	-11024
▁nel	-11025
ittor	-11026
▁1234	-11027
▁1554	-11028
▁hunt	-11029
▁wise	-11030
▁quant	-11031
▁oliver	-11032
▁distrib	-11033
▁environment	-11034
bu	-11035
▁ぎ	-11036
▁冑	-11037
▁泞	-11038
nik	-11039
▁wy	-11040
▁982	-11041
▁lux	-11042
▁rio	-11043
▁saw	-11044
lands	-11045
▁1376	-11046
▁1686	-11047
▁4800	-11048
▁minor	-11049
▁select	-11050
▁intellig	-11051
▁і	-11052
▁惋	-11053
▁梆	-11054
▁闩	-11055
▁1⁄2	-11056
▁tin	-11057
▁tma	-11058
▁1382	-11059
▁8500	-11060
▁charl	-11061
▁morning	-11062
▁municip	-11063
▁nintendo	-11064
▁扉	-11065
▁葶	-11066
04%	-11067
106	-11068
99%	-11069
abe	-11070
kir	-11071
▁878	-11072
▁nike	-11073
▁sigma	-11074
▁study	-11075
yo	-11076
▁ゴ	-11077
190	-11078
95%	-11079
▁23%	-11080
▁743	-11081
▁fig	-11082
eller	-11083
▁buff	-11084
▁grace	-11085
▁present	-11086
▁墀	-11087
cus	-11088
mod	-11089
▁vm	-11090
▁673	-11091
▁gim	-11092
▁ntt	-11093
▁1594	-11094
▁mast	-11095
▁mother	-11096
▁primary	-11097
▁analysis	-11098
hu	-11099
▁萜	-11100
▁蚶	-11101
aron	-11102
▁pom	-11103
▁rif	-11104
▁3700	-11105
▁crit	-11106
▁sang	-11107
▁shot	-11108
ything	-11109
▁england	-11110
▁sciences	-11111
▁拴	-11112
hol	-11113
jan	-11114
kan	-11115
▁664	-11116
▁883	-11117
▁spy	-11118
▁1691	-11119
▁1716	-11120
▁trax	-11121
▁lovel	-11122
▁ό	-11123
▁嘿	-11124
▁淝	-11125
▁芍	-11126
ema	-11127
▁002	-11128
▁792	-11129
▁dll	-11130
▁mul	-11131
▁1170	-11132
▁2050	-11133
▁coff	-11134
▁requ	-11135
eb	-11136
alo	-11137
▁tz	-11138
eyer	-11139
▁bod	-11140
▁1010	-11141
▁1011	-11142
▁1320	-11143
▁1692	-11144
▁bond	-11145
▁prod	-11146
▁snap	-11147
▁abdul	-11148
▁bobby	-11149
▁della	-11150
▁staff	-11151
▁stock	-11152
▁french	-11153
▁technologies	-11154
▁窿	-11155
▁跷	-11156
11%	-11157
67%	-11158
▁xc	-11159
ende	-11160
▁778	-11161
▁rex	-11162
▁1270	-11163
▁1278	-11164
▁1548	-11165
▁1696	-11166
▁margaret	-11167
▁movement	-11168
▁ソ	-11169
▁伉	-11170
▁夙	-11171
▁氚	-11172
▁筊	-11173
▁蚯	-11174
96%	-11175
▁ei	-11176
▁833	-11177
▁844	-11178
▁852	-11179
▁dub	-11180
▁nts	-11181
▁1445	-11182
▁belie	-11183
rs	-11184
▁蹊	-11185
▁辘	-11186
▁665	-11187
▁693	-11188
▁752	-11189
▁864	-11190
▁pir	-11191
▁typ	-11192
▁utf	-11193
anche	-11194
antis	-11195
lines	-11196
▁1694	-11197
▁1704	-11198
▁luis	-11199
▁value	-11200
rat	-11201
▁804	-11202
▁aks	-11203
▁1240	-11204
▁ming	-11205
▁guide	-11206
▁ground	-11207
▁police	-11208
▁material	-11209
nh	-11210
▁佞	-11211
▁爰	-11212
▁箬	-11213
▁髯	-11214
emi	-11215
zza	-11216
▁zu	-11217
ocus	-11218
▁862	-11219
▁906	-11220
▁967	-11221
▁dsm	-11222
osoph	-11223
▁sncf	-11224
▁graham	-11225
▁rainbow	-11226
▁洺	-11227
▁缄	-11228
▁芪	-11229
203	-11230
ono	-11231
bank	-11232
▁779	-11233
▁794	-11234
▁799	-11235
▁909	-11236
▁adm	-11237
▁kec	-11238
illon	-11239
▁cafe	-11240
▁exec	-11241
▁iata	-11242
▁synd	-11243
▁candy	-11244
▁charlie	-11245
▁lawrence	-11246
▁ˊ	-11247
▁畈	-11248
▁889	-11249
▁944	-11250
▁hid	-11251
▁wir	-11252
▁1030	-11253
▁1442	-11254
▁1480	-11255
▁shel	-11256
▁tiger	-11257
▁columb	-11258
▁running	-11259
▁杷	-11260
▁笞	-11261
▁阚	-11262
13%	-11263
▁jb	-11264
▁834	-11265
point	-11266
▁chic	-11267
▁worms	-11268
▁jordan	-11269
▁financial	-11270
▁performance	-11271
▁ψ	-11272
▁び	-11273
▁狒	-11274
▁蹠	-11275
▁郜	-11276
16%	-11277
▁dz	-11278
ario	-11279
▁807	-11280
▁851	-11281
▁874	-11282
▁oak	-11283
▁1433	-11284
▁give	-11285
▁factor	-11286
▁justin	-11287
▁thompson	-11288
▁productions	-11289
px	-11290
▁寔	-11291
▁怛	-11292
▁灞	-11293
▁関	-11294
06%	-11295
ilia	-11296
▁943	-11297
▁972	-11298
▁aps	-11299
color	-11300
ience	-11301
▁1608	-11302
▁mong	-11303
▁terr	-11304
▁tolk	-11305
▁norman	-11306
▁velvet	-11307
▁giovanni	-11308
27%	-11309
▁amc	-11310
▁rgb	-11311
▁rig	-11312
▁1549	-11313
▁1695	-11314
▁4200	-11315
▁dean	-11316
▁tommy	-11317
vention	-11318
▁steven	-11319
▁ギ	-11320
▁擘	-11321
▁楝	-11322
115	-11323
21%	-11324
24%	-11325
85%	-11326
base	-11327
▁694	-11328
▁753	-11329
▁959	-11330
▁977	-11331
▁1190	-11332
▁lane	-11333
▁mile	-11334
▁teen	-11335
▁ò	-11336
▁ピ	-11337
▁傕	-11338
▁汎	-11339
▁锹	-11340
▁驒	-11341
aca	-11342
▁tk	-11343
▁away	-11344
▁brig	-11345
▁care	-11346
▁chun	-11347
▁baron	-11348
▁reich	-11349
wc	-11350
▁¥	-11351
▁愔	-11352
▁玘	-11353
121	-11354
23%	-11355
aps	-11356
▁ue	-11357
mont	-11358
▁831	-11359
▁jin	-11360
▁rid	-11361
▁1360	-11362
▁1515	-11363
▁oliv	-11364
▁phill	-11365
▁hamilton	-11366
▁messenger	-11367
▁苄	-11368
▁蜑	-11369
18%	-11370
hai	-11371
hib	-11372
uer	-11373
lard	-11374
▁654	-11375
▁haz	-11376
▁1743	-11377
▁cann	-11378
▁later	-11379
▁sainte	-11380
▁deutsch	-11381
▁tolkien	-11382
wr	-11383
▁崽	-11384
▁锝	-11385
17%	-11386
▁jd	-11387
▁vb	-11388
lock	-11389
ouse	-11390
▁030	-11391
▁956	-11392
▁cem	-11393
▁1140	-11394
▁bird	-11395
▁chung	-11396
▁doctor	-11397
▁destiny	-11398
▁universit	-11399
▁federation	-11400
▁妫	-11401
▁戾	-11402
▁穰	-11403
▁菴	-11404
07%	-11405
▁fb	-11406
osis	-11407
▁why	-11408
ledge	-11409
▁1693	-11410
▁3400	-11411
▁clear	-11412
▁promotion	-11413
wo	-11414
▁蜃	-11415
▁豉	-11416
▁辂	-11417
98%	-11418
▁010	-11419
▁mys	-11420
▁1533	-11421
▁1677	-11422
▁1708	-11423
▁multi	-11424
▁century	-11425
▁application	-11426
▁ו	-11427
▁臆	-11428
kar	-11429
uru	-11430
▁866	-11431
▁942	-11432
▁eag	-11433
▁1204	-11434
▁1470	-11435
▁ifpi	-11436
▁pick	-11437
friend	-11438
▁禛	-11439
▁铕	-11440
ythm	-11441
▁cbe	-11442
▁jew	-11443
▁1404	-11444
▁echo	-11445
▁less	-11446
▁grant	-11447
▁scheme	-11448
▁connect	-11449
▁勣	-11450
▁玥	-11451
▁瑷	-11452
▁膊	-11453
eda	-11454
oco	-11455
▁nb	-11456
▁wn	-11457
ress	-11458
▁891	-11459
▁bam	-11460
▁bmg	-11461
▁bra	-11462
▁emb	-11463
▁vvv	-11464
▁thor	-11465
▁multip	-11466
▁justice	-11467
▁簋	-11468
▁酆	-11469
32%	-11470
iod	-11471
roy	-11472
omet	-11473
▁22%	-11474
▁869	-11475
▁983	-11476
▁993	-11477
▁upd	-11478
▁1279	-11479
▁1403	-11480
▁jung	-11481
▁mack	-11482
▁40000	-11483
▁maker	-11484
▁references	-11485
▁organization	-11486
▁芾	-11487
▁跗	-11488
12%	-11489
▁749	-11490
▁kil	-11491
▁arab	-11492
▁buck	-11493
▁dram	-11494
▁duke	-11495
▁ping	-11496
▁symph	-11497
▁third	-11498
▁rapper	-11499
▁gabriel	-11500
▁ː	-11501
▁垠	-11502
▁椴	-11503
▁訇	-11504
42%	-11505
iae	-11506
ipe	-11507
omi	-11508
illo	-11509
orum	-11510
▁052	-11511
▁789	-11512
▁958	-11513
▁1135	-11514
▁1706	-11515
▁hend	-11516
▁nine	-11517
▁coast	-11518
▁thing	-11519
▁provid	-11520
▁northern	-11521
▁沢	-11522
▁溟	-11523
111	-11524
eco	-11525
▁tls	-11526
▁2900	-11527
▁iupac	-11528
▁搓	-11529
▁迤	-11530
▁鄜	-11531
117	-11532
uli	-11533
▁769	-11534
▁841	-11535
▁892	-11536
▁tol	-11537
owski	-11538
▁both	-11539
▁phen	-11540
▁kitty	-11541
▁rights	-11542
▁travel	-11543
▁broadcast	-11544
▁嚎	-11545
58%	-11546
brid	-11547
ring	-11548
room	-11549
▁849	-11550
▁nag	-11551
▁1392	-11552
▁clos	-11553
▁pure	-11554
hedral	-11555
▁railway	-11556
sy	-11557
▁枇	-11558
▁柃	-11559
▁樋	-11560
▁牯	-11561
▁932	-11562
▁992	-11563
▁sib	-11564
▁much	-11565
▁yang	-11566
▁nexus	-11567
▁while	-11568
▁legacy	-11569
▁observ	-11570
▁û	-11571
▁ヤ	-11572
▁晾	-11573
▁砧	-11574
▁舂	-11575
▁리	-11576
126	-11577
386	-11578
asi	-11579
ping	-11580
rain	-11581
▁24%	-11582
▁782	-11583
▁dei	-11584
cloud	-11585
▁null	-11586
▁50000	-11587
▁check	-11588
▁korea	-11589
▁metrop	-11590
▁塬	-11591
▁蒾	-11592
▁袂	-11593
▁qf	-11594
iles	-11595
▁080	-11596
▁clo	-11597
▁tes	-11598
shire	-11599
▁1206	-11600
▁1448	-11601
▁mang	-11602
▁release	-11603
ku	-11604
▁魇	-11605
122	-11606
19%	-11607
34%	-11608
▁mck	-11609
▁1129	-11610
▁1551	-11611
▁kath	-11612
▁craig	-11613
▁theod	-11614
▁today	-11615
▁yoshiki	-11616
▁animation	-11617
▁electronic	-11618
▁囓	-11619
▁惣	-11620
▁蹴	-11621
28%	-11622
tha	-11623
▁764	-11624
▁hob	-11625
▁jst	-11626
▁koh	-11627
▁1295	-11628
▁half	-11629
▁beauty	-11630
▁motion	-11631
▁scient	-11632
▁private	-11633
▁裟	-11634
▁镯	-11635
▁韫	-11636
22%	-11637
▁954	-11638
▁ctv	-11639
▁yak	-11640
eline	-11641
▁1356	-11642
▁1406	-11643
▁1539	-11644
▁meet	-11645
▁gener	-11646
▁holly	-11647
▁prize	-11648
▁flower	-11649
▁gogoro	-11650
▁robinson	-11651
▁巻	-11652
▁璩	-11653
▁箇	-11654
▁籁	-11655
▁蛄	-11656
yon	-11657
▁gg	-11658
alle	-11659
▁21%	-11660
▁674	-11661
▁kaw	-11662
▁own	-11663
▁leop	-11664
▁jerry	-11665
▁milit	-11666
▁flying	-11667
▁倬	-11668
▁愕	-11669
▁揄	-11670
▁涎	-11671
108	-11672
900	-11673
▁atv	-11674
▁pau	-11675
▁xen	-11676
ality	-11677
▁1388	-11678
▁event	-11679
▁dennis	-11680
▁沆	-11681
▁藁	-11682
35%	-11683
82%	-11684
nel	-11685
▁cum	-11686
▁dag	-11687
▁shaw	-11688
▁extra	-11689
▁sever	-11690
▁australia	-11691
▁†	-11692
▁躄	-11693
▁麂	-11694
38%	-11695
77%	-11696
pos	-11697
▁963	-11698
▁jen	-11699
▁kaz	-11700
▁saab	-11701
▁wish	-11702
▁artist	-11703
▁gallery	-11704
▁ヒ	-11705
▁眞	-11706
▁袈	-11707
▁讪	-11708
▁1120	-11709
▁ansi	-11710
▁bull	-11711
▁sohc	-11712
▁wool	-11713
▁vogue	-11714
▁ï	-11715
▁ベ	-11716
pin	-11717
vert	-11718
▁nim	-11719
▁veh	-11720
▁vpn	-11721
▁find	-11722
▁glad	-11723
▁tong	-11724
▁palazzo	-11725
▁ξ	-11726
▁へ	-11727
▁啜	-11728
▁帼	-11729
▁搔	-11730
log	-11731
ska	-11732
anta	-11733
omer	-11734
▁016	-11735
▁shadow	-11736
▁concept	-11737
▁million	-11738
▁lovelive	-11739
▁philosoph	-11740
▁嵙	-11741
47%	-11742
boy	-11743
idea	-11744
▁015	-11745
▁nes	-11746
▁pie	-11747
▁1215	-11748
▁1498	-11749
▁bour	-11750
▁icao	-11751
▁early	-11752
▁oracle	-11753
▁partners	-11754
hl	-11755
▁น	-11756
▁拭	-11757
▁袱	-11758
▁鞮	-11759
▁鲮	-11760
37%	-11761
▁rk	-11762
▁854	-11763
▁894	-11764
▁931	-11765
▁isp	-11766
▁sod	-11767
ended	-11768
▁brain	-11769
▁pocket	-11770
▁刽	-11771
▁孃	-11772
▁琚	-11773
▁蓁	-11774
▁趸	-11775
▁飨	-11776
53%	-11777
▁ov	-11778
ader	-11779
anus	-11780
eder	-11781
▁671	-11782
▁774	-11783
▁941	-11784
▁ads	-11785
▁raf	-11786
▁sco	-11787
▁1138	-11788
▁dise	-11789
▁otto	-11790
▁emule	-11791
▁gmail	-11792
▁keith	-11793
▁element	-11794
▁campbell	-11795
▁泫	-11796
▁疝	-11797
▁袤	-11798
65%	-11799
86%	-11800
ava	-11801
cer	-11802
isch	-11803
▁chall	-11804
▁grande	-11805
▁discovery	-11806
▁嗡	-11807
▁崮	-11808
▁淼	-11809
226	-11810
52%	-11811
87%	-11812
wal	-11813
▁gf	-11814
iven	-11815
▁27%	-11816
▁lif	-11817
▁mud	-11818
▁1671	-11819
▁1698	-11820
▁calc	-11821
▁ship	-11822
▁chrom	-11823
▁crazy	-11824
▁sense	-11825
▁circle	-11826
▁protoc	-11827
▁げ	-11828
29%	-11829
93%	-11830
▁893	-11831
▁amu	-11832
▁ich	-11833
▁1225	-11834
▁1439	-11835
▁corp	-11836
▁fine	-11837
▁animax	-11838
▁heinrich	-11839
▁垓	-11840
▁拽	-11841
▁洹	-11842
97%	-11843
ahl	-11844
oen	-11845
▁hb	-11846
▁26%	-11847
▁791	-11848
▁868	-11849
▁raj	-11850
▁1214	-11851
▁1413	-11852
▁1509	-11853
▁3100	-11854
▁normal	-11855
▁cathedral	-11856
▁`	-11857
▁綑	-11858
▁蘸	-11859
30%	-11860
irus	-11861
▁sip	-11862
▁tow	-11863
script	-11864
▁excel	-11865
▁guard	-11866
▁india	-11867
▁埴	-11868
▁増	-11869
▁飒	-11870
▁鮈	-11871
bat	-11872
ben	-11873
▁dg	-11874
▁lz	-11875
reen	-11876
▁tum	-11877
▁udp	-11878
▁1020	-11879
▁grey	-11880
▁domin	-11881
▁suite	-11882
▁swing	-11883
▁蟀	-11884
▁謇	-11885
ads	-11886
ail	-11887
edo	-11888
▁kj	-11889
igen	-11890
mund	-11891
▁984	-11892
▁ecl	-11893
▁beast	-11894
▁廨	-11895
▁秣	-11896
44%	-11897
48%	-11898
49%	-11899
66%	-11900
etic	-11901
▁991	-11902
▁amy	-11903
▁ana	-11904
▁ran	-11905
shine	-11906
▁bund	-11907
▁retrie	-11908
hy	-11909
lr	-11910
▁楂	-11911
▁槲	-11912
▁濯	-11913
57%	-11914
92%	-11915
pie	-11916
▁fib	-11917
▁lav	-11918
▁suc	-11919
osaur	-11920
▁1407	-11921
▁1494	-11922
▁node	-11923
amatan	-11924
▁crown	-11925
▁empire	-11926
▁ernest	-11927
▁senior	-11928
▁stream	-11929
▁kenneth	-11930
▁stewart	-11931
kv	-11932
▁岀	-11933
▁毬	-11934
▁缬	-11935
▁铛	-11936
iza	-11937
▁fg	-11938
▁858	-11939
▁884	-11940
▁989	-11941
▁ela	-11942
▁ole	-11943
▁rip	-11944
▁1060	-11945
▁1375	-11946
▁bent	-11947
▁sept	-11948
ipedia	-11949
▁drama	-11950
▁sugar	-11951
▁marine	-11952
▁simple	-11953
▁kecamatan	-11954
dl	-11955
zj	-11956
▁ح	-11957
▁祛	-11958
20%	-11959
36%	-11960
aza	-11961
▁964	-11962
▁974	-11963
▁atc	-11964
▁wer	-11965
▁1067	-11966
▁scot	-11967
▁compet	-11968
▁magnet	-11969
▁rockstar	-11970
▁筐	-11971
45%	-11972
fun	-11973
yes	-11974
▁nx	-11975
▁867	-11976
▁afi	-11977
▁duc	-11978
▁1290	-11979
▁1328	-11980
▁flag	-11981
▁ntfs	-11982
▁colon	-11983
▁prest	-11984
▁annivers	-11985
▁吲	-11986
▁喔	-11987
▁矜	-11988
▁譁	-11989
26%	-11990
39%	-11991
40%	-11992
lec	-11993
rus	-11994
▁rw	-11995
1911	-11996
▁96%	-11997
▁fia	-11998
▁fra	-11999
▁shoot	-12000
▁winner	-12001
▁bgcolor	-12002
▁character	-12003
202	-12004
50%	-12005
jet	-12006
kit	-12007
nar	-12008
▁gap	-12009
▁1531	-12010
▁ivan	-12011
▁sata	-12012
▁trna	-12013
ecraft	-12014
stream	-12015
▁liter	-12016
▁菝	-12017
62%	-12018
elin	-12019
olla	-12020
▁012	-12021
▁832	-12022
▁aid	-12023
▁vie	-12024
▁cmos	-12025
▁anime	-12026
▁instr	-12027
▁ralph	-12028
▁hudson	-12029
▁includ	-12030
▁powerpc	-12031
▁aircraft	-12032
▁economic	-12033
▁training	-12034
▁ý	-12035
▁敝	-12036
360	-12037
▁949	-12038
▁sis	-12039
opter	-12040
▁quar	-12041
▁manga	-12042
▁woman	-12043
▁strong	-12044
▁晩	-12045
▁眈	-12046
56%	-12047
63%	-12048
ede	-12049
oki	-12050
uil	-12051
▁yf	-12052
ilis	-12053
king	-12054
▁872	-12055
▁maz	-12056
▁toul	-12057
▁ultr	-12058
▁chand	-12059
▁nathan	-12060
▁ʃ	-12061
▁蹶	-12062
0000	-12063
esta	-12064
iste	-12065
▁772	-12066
▁1185	-12067
▁1425	-12068
▁barry	-12069
▁shang	-12070
▁around	-12071
▁anniversary	-12072
▁亶	-12073
▁瞧	-12074
▁蜢	-12075
73%	-12076
mit	-12077
▁jis	-12078
▁spl	-12079
▁sti	-12080
▁vas	-12081
▁june	-12082
ighter	-12083
▁刎	-12084
▁舔	-12085
▁鮄	-12086
46%	-12087
69%	-12088
eca	-12089
eli	-12090
▁zo	-12091
enti	-12092
igne	-12093
▁28%	-12094
▁aux	-12095
▁ens	-12096
▁1137	-12097
▁1160	-12098
▁1364	-12099
▁1421	-12100
▁1501	-12101
▁gith	-12102
▁basil	-12103
▁films	-12104
▁continu	-12105
▁ホ	-12106
▁僊	-12107
▁轫	-12108
▁郅	-12109
ovi	-12110
▁hh	-12111
wiki	-12112
▁060	-12113
▁ome	-12114
▁try	-12115
▁1399	-12116
▁1504	-12117
▁chal	-12118
▁hang	-12119
▁imdb	-12120
▁many	-12121
▁crist	-12122
▁cyber	-12123
ru	-12124
▁寐	-12125
▁峥	-12126
09%	-12127
41%	-12128
59%	-12129
68%	-12130
81%	-12131
88%	-12132
▁zn	-12133
▁sul	-12134
▁1412	-12135
▁draw	-12136
▁rout	-12137
▁tank	-12138
▁visa	-12139
▁faith	-12140
▁github	-12141
▁hybrid	-12142
▁姒	-12143
▁沓	-12144
▁淌	-12145
▁蟋	-12146
▁鲎	-12147
▁鸬	-12148
43%	-12149
oku	-12150
ango	-12151
char	-12152
▁003	-12153
▁xxx	-12154
▁1219	-12155
▁1265	-12156
▁epis	-12157
▁salv	-12158
▁site	-12159
▁writ	-12160
▁aggre	-12161
▁melon	-12162
▁seventeen	-12163
rh	-12164
▁ю	-12165
▁佶	-12166
▁傉	-12167
▁焗	-12168
▁蛸	-12169
231	-12170
70%	-12171
76%	-12172
owa	-12173
ipse	-12174
▁kas	-12175
▁appe	-12176
▁logic	-12177
▁mechan	-12178
▁stanley	-12179
zh	-12180
▁樫	-12181
▁瓌	-12182
▁荳	-12183
▁蔵	-12184
54%	-12185
▁42%	-12186
▁43%	-12187
▁879	-12188
▁994	-12189
▁bog	-12190
▁ces	-12191
▁1488	-12192
▁1503	-12193
▁gain	-12194
▁risc	-12195
▁sult	-12196
▁baker	-12197
▁stein	-12198
▁example	-12199
▁fortran	-12200
▁communications	-12201
yu	-12202
▁哚	-12203
▁揶	-12204
▁篝	-12205
▁遹	-12206
71%	-12207
72%	-12208
89%	-12209
etz	-12210
imes	-12211
unch	-12212
▁040	-12213
▁mta	-12214
▁sse	-12215
▁tec	-12216
▁tee	-12217
▁1424	-12218
▁drop	-12219
▁soho	-12220
▁berlin	-12221
▁lucasarts	-12222
▁咫	-12223
▁泠	-12224
▁vh	-12225
▁36%	-12226
▁873	-12227
▁psr	-12228
▁rer	-12229
enson	-12230
▁1518	-12231
▁chief	-12232
▁paper	-12233
▁raymond	-12234
▁strateg	-12235
▁yourself	-12236
▁哒	-12237
▁腑	-12238
▁葭	-12239
55%	-12240
can	-12241
chin	-12242
elia	-12243
▁853	-12244
▁fav	-12245
▁gmb	-12246
▁ufc	-12247
▁1394	-12248
▁kamp	-12249
▁prix	-12250
▁ernst	-12251
▁larry	-12252
▁professor	-12253
▁冏	-12254
iola	-12255
sten	-12256
▁006	-12257
▁793	-12258
▁pub	-12259
▁arms	-12260
▁bapt	-12261
▁hide	-12262
gp	-12263
▁杼	-12264
▁貘	-12265
▁钐	-12266
▁铧	-12267
84%	-12268
iya	-12269
set	-12270
ours	-12271
ting	-12272
▁070	-12273
▁dup	-12274
▁lod	-12275
▁rah	-12276
▁wim	-12277
ances	-12278
uther	-12279
▁1086	-12280
▁1110	-12281
▁shock	-12282
▁titan	-12283
▁canton	-12284
▁signal	-12285
▁vincent	-12286
▁ì	-12287
▁礽	-12288
▁罡	-12289
▁褓	-12290
▁镝	-12291
▁馗	-12292
31%	-12293
mel	-12294
▁qr	-12295
▁gren	-12296
▁rate	-12297
▁suica	-12298
▁during	-12299
▁region	-12300
▁conserv	-12301
▁佺	-12302
▁嗝	-12303
▁氖	-12304
▁滢	-12305
▁鹚	-12306
79%	-12307
▁ui	-12308
fish	-12309
▁19%	-12310
▁csm	-12311
▁ptt	-12312
▁ssl	-12313
▁tir	-12314
▁heat	-12315
▁hills	-12316
▁captain	-12317
▁ù	-12318
▁徇	-12319
▁邽	-12320
▁鼱	-12321
▁lb	-12322
▁013	-12323
▁859	-12324
▁kep	-12325
▁ktv	-12326
▁lag	-12327
▁nhl	-12328
▁1387	-12329
▁cord	-12330
▁holy	-12331
▁init	-12332
▁jazz	-12333
▁tard	-12334
▁forum	-12335
▁phase	-12336
▁smack	-12337
▁sonic	-12338
▁bishop	-12339
▁marcus	-12340
▁resour	-12341
▁ḥ	-12342
▁刨	-12343
▁眨	-12344
249	-12345
51%	-12346
aser	-12347
▁857	-12348
▁wes	-12349
▁1115	-12350
▁1402	-12351
▁1507	-12352
▁heav	-12353
▁rush	-12354
▁canad	-12355
▁carter	-12356
▁ペ	-12357
▁隰	-12358
▁tx	-12359
▁agm	-12360
▁1409	-12361
▁1465	-12362
▁1495	-12363
▁each	-12364
▁race	-12365
▁roth	-12366
▁wake	-12367
▁rhythm	-12368
▁鎏	-12369
kes	-12370
link	-12371
▁afr	-12372
▁nab	-12373
▁vik	-12374
utions	-12375
▁belle	-12376
▁range	-12377
▁myster	-12378
▁芈	-12379
▁鬬	-12380
60%	-12381
78%	-12382
arn	-12383
khz	-12384
aman	-12385
fire	-12386
lich	-12387
▁bae	-12388
▁umb	-12389
▁samp	-12390
othing	-12391
▁alive	-12392
▁gangan	-12393
▁sunshine	-12394
▁independent	-12395
▁哦	-12396
▁棂	-12397
▁蓑	-12398
▁iq	-12399
ever	-12400
▁dab	-12401
▁mlb	-12402
▁nog	-12403
▁vac	-12404
▁wto	-12405
uring	-12406
▁1471	-12407
▁sold	-12408
▁butter	-12409
▁repres	-12410
▁islands	-12411
▁̇	-12412
▁ة	-12413
▁◎	-12414
▁圹	-12415
▁澶	-12416
▁萦	-12417
▁蓣	-12418
▁跛	-12419
ogn	-12420
etti	-12421
izer	-12422
▁953	-12423
▁tok	-12424
▁1497	-12425
▁emba	-12426
▁gmbh	-12427
▁sung	-12428
▁vill	-12429
▁terry	-12430
▁herbert	-12431
▁greatest	-12432
▁冇	-12433
▁咁	-12434
▁狈	-12435
▁茁	-12436
▁邰	-12437
64%	-12438
gel	-12439
ket	-12440
rac	-12441
uge	-12442
▁bk	-12443
onne	-12444
▁966	-12445
▁ade	-12446
▁sns	-12447
▁tau	-12448
▁too	-12449
▁1155	-12450
▁vern	-12451
▁pedro	-12452
▁dreams	-12453
▁complete	-12454
▁ń	-12455
▁嵘	-12456
▁榎	-12457
▁缭	-12458
80%	-12459
aux	-12460
isy	-12461
▁32%	-12462
▁38%	-12463
▁856	-12464
▁aub	-12465
▁gly	-12466
▁laz	-12467
▁len	-12468
▁1449	-12469
▁1476	-12470
▁pand	-12471
▁size	-12472
▁always	-12473
▁interface	-12474
▁昺	-12475
124	-12476
204	-12477
74%	-12478
asha	-12479
mers	-12480
▁rus	-12481
▁1224	-12482
▁11000	-12483
▁joint	-12484
▁monte	-12485
▁ざ	-12486
▁畹	-12487
▁磘	-12488
▁钸	-12489
205	-12490
gro	-12491
oka	-12492
orp	-12493
sia	-12494
▁1122	-12495
▁1211	-12496
▁1213	-12497
▁5200	-12498
▁bald	-12499
▁bust	-12500
▁cust	-12501
itation	-12502
▁morgan	-12503
▁theater	-12504
▁communication	-12505
▁劵	-12506
▁犒	-12507
▁瘴	-12508
▁苾	-12509
▁鯓	-12510
61%	-12511
ims	-12512
▁jc	-12513
ares	-12514
ased	-12515
aste	-12516
news	-12517
▁051	-12518
▁773	-12519
▁871	-12520
▁cbc	-12521
▁hut	-12522
▁jab	-12523
▁lia	-12524
▁pid	-12525
▁utr	-12526
kreis	-12527
▁1428	-12528
▁bure	-12529
▁dawn	-12530
▁gonz	-12531
▁insp	-12532
▁loop	-12533
▁rule	-12534
▁schm	-12535
▁tact	-12536
▁price	-12537
▁safari	-12538
▁镗	-12539
pat	-12540
card	-12541
▁025	-12542
▁ats	-12543
▁jur	-12544
▁1210	-12545
▁1438	-12546
▁wait	-12547
▁cooper	-12548
▁transit	-12549
ittorrent	-12550
▁峄	-12551
▁滏	-12552
▁疙	-12553
▁瘩	-12554
▁隷	-12555
▁鲣	-12556
233	-12557
▁llo	-12558
▁rin	-12559
▁unc	-12560
inary	-12561
ovich	-12562
▁1217	-12563
▁1227	-12564
▁lanc	-12565
▁sister	-12566
▁architecture	-12567
▁発	-12568
▁髋	-12569
112	-12570
94%	-12571
▁cow	-12572
▁hed	-12573
▁ngo	-12574
▁1075	-12575
▁1274	-12576
▁innov	-12577
▁mysql	-12578
▁spark	-12579
▁friday	-12580
▁matrix	-12581
▁minister	-12582
▁丶	-12583
▁兢	-12584
▁淬	-12585
▁溱	-12586
▁牦	-12587
▁葜	-12588
▁诤	-12589
lus	-12590
pet	-12591
olas	-12592
orus	-12593
▁kos	-12594
▁1374	-12595
▁cele	-12596
▁kala	-12597
▁bloom	-12598
▁griff	-12599
▁alphago	-12600
▁evangel	-12601
▁gregory	-12602
▁document	-12603
▁箐	-12604
129	-12605
83%	-12606
shop	-12607
▁44%	-12608
▁aeg	-12609
▁sbl	-12610
▁sph	-12611
opsis	-12612
▁1161	-12613
▁hung	-12614
▁stem	-12615
▁laura	-12616
▁assist	-12617
▁eclipse	-12618
▁manager	-12619
▁smackdown	-12620
▁啃	-12621
▁犸	-12622
305	-12623
307	-12624
____	-12625
enge	-12626
▁tig	-12627
▁1085	-12628
▁pant	-12629
▁same	-12630
▁vector	-12631
▁chicago	-12632
▁graphics	-12633
▁伫	-12634
▁傚	-12635
▁壅	-12636
▁枞	-12637
▁樾	-12638
▁簸	-12639
▁蔴	-12640
136	-12641
▁bio	-12642
▁cgi	-12643
▁itu	-12644
▁lit	-12645
▁mrs	-12646
ields	-12647
▁1099	-12648
▁bear	-12649
▁mala	-12650
▁sean	-12651
▁chiang	-12652
▁solaris	-12653
▁cinemasc	-12654
▁minecraft	-12655
▁璁	-12656
▁菰	-12657
ined	-12658
onna	-12659
▁ott	-12660
▁1397	-12661
▁wasp	-12662
▁genie	-12663
▁altern	-12664
▁federal	-12665
▁jessica	-12666
▁represent	-12667
▁retrieved	-12668
su	-12669
▁喋	-12670
▁鏖	-12671
195	-12672
apa	-12673
avi	-12674
▁dot	-12675
▁sos	-12676
▁1025	-12677
▁dong	-12678
▁gian	-12679
▁kink	-12680
enburg	-12681
▁cheng	-12682
▁helen	-12683
▁fusion	-12684
▁ludwig	-12685
▁someth	-12686
▁warren	-12687
▁嵬	-12688
▁胛	-12689
▁蠹	-12690
▁钕	-12691
▁飚	-12692
ahn	-12693
cal	-12694
▁1253	-12695
▁1381	-12696
▁1410	-12697
▁cultural	-12698
▁囍	-12699
▁泚	-12700
▁牴	-12701
▁荩	-12702
aci	-12703
come	-12704
eler	-12705
▁aes	-12706
▁cox	-12707
▁roh	-12708
▁1126	-12709
▁1405	-12710
▁ikon	-12711
▁lite	-12712
▁pled	-12713
▁content	-12714
▁progress	-12715
aj	-12716
▁疍	-12717
aby	-12718
uba	-12719
burn	-12720
▁wwf	-12721
▁1216	-12722
▁1285	-12723
▁1429	-12724
▁1485	-12725
▁flat	-12726
▁nato	-12727
▁rise	-12728
▁shift	-12729
▁nelson	-12730
▁leonard	-12731
▁↔	-12732
▁仡	-12733
▁嘢	-12734
▁汊	-12735
10%	-12736
ugg	-12737
uta	-12738
ichi	-12739
▁aac	-12740
▁dsi	-12741
▁nfc	-12742
▁woo	-12743
▁conso	-12744
▁estate	-12745
▁eastern	-12746
▁foreign	-12747
▁include	-12748
▁macbook	-12749
▁platform	-12750
▁municipal	-12751
▁wikipedia	-12752
▁ق	-12753
▁佢	-12754
tes	-12755
ades	-12756
wald	-12757
wich	-12758
▁52%	-12759
▁92%	-12760
▁cfm	-12761
▁dro	-12762
▁ore	-12763
▁1016	-12764
ration	-12765
▁thank	-12766
▁truth	-12767
▁oxford	-12768
▁myspace	-12769
▁medicine	-12770
▁official	-12771
▁ultimate	-12772
izen	-12773
▁abu	-12774
▁nds	-12775
▁1018	-12776
▁clay	-12777
▁help	-12778
▁datab	-12779
▁glass	-12780
▁assemb	-12781
▁indian	-12782
▁learning	-12783
▁bittorrent	-12784
eto	-12785
▁kf	-12786
enet	-12787
urst	-12788
▁017	-12789
▁47%	-12790
stand	-12791
▁1235	-12792
▁1358	-12793
▁brav	-12794
▁nano	-12795
▁birth	-12796
▁chain	-12797
▁cherry	-12798
▁disney	-12799
▁sultan	-12800
▁genesis	-12801
▁airlines	-12802
▁australian	-12803
▁industrial	-12804
etf	-12805
▁wz	-12806
▁zf	-12807
▁34%	-12808
▁drm	-12809
▁mpa	-12810
▁suv	-12811
▁suz	-12812
▁wit	-12813
▁1116	-12814
▁1139	-12815
▁1187	-12816
▁1241	-12817
▁1266	-12818
▁flex	-12819
▁joey	-12820
▁peak	-12821
▁afric	-12822
▁oscar	-12823
▁param	-12824
▁claude	-12825
▁amazing	-12826
gg	-12827
▁xd	-12828
auer	-12829
enda	-12830
ived	-12831
last	-12832
▁861	-12833
▁nct	-12834
ingen	-12835
▁1004	-12836
▁1189	-12837
▁1367	-12838
▁bahn	-12839
bourne	-12840
ership	-12841
▁devil	-12842
▁serge	-12843
▁better	-12844
▁choice	-12845
▁lovely	-12846
▁palace	-12847
iu	-12848
118	-12849
262	-12850
chu	-12851
rik	-12852
▁jf	-12853
▁xb	-12854
edes	-12855
igny	-12856
▁deg	-12857
▁ssd	-12858
▁xii	-12859
ensen	-12860
▁1351	-12861
▁1355	-12862
▁1456	-12863
▁bott	-12864
▁cnbc	-12865
▁fash	-12866
▁route	-12867
▁piazza	-12868
▁congress	-12869
▁nicholas	-12870
▁students	-12871
▁investment	-12872
114	-12873
▁rl	-12874
cent	-12875
gins	-12876
vest	-12877
▁37%	-12878
▁ftp	-12879
▁curt	-12880
▁neil	-12881
▁vari	-12882
▁verd	-12883
▁vvvf	-12884
▁beats	-12885
▁danny	-12886
▁lotus	-12887
▁protocol	-12888
▁xv	-12889
ager	-12890
flow	-12891
▁bee	-12892
▁gan	-12893
▁gcc	-12894
▁gob	-12895
▁1044	-12896
▁1236	-12897
▁1377	-12898
▁1455	-12899
▁spac	-12900
▁wald	-12901
▁domain	-12902
▁current	-12903
▁transfer	-12904
bel	-12905
itas	-12906
▁053	-12907
▁ard	-12908
▁pew	-12909
▁vil	-12910
ength	-12911
iform	-12912
umont	-12913
▁1119	-12914
▁4400	-12915
▁athlon	-12916
▁pledis	-12917
▁believe	-12918
ieu	-12919
iot	-12920
▁ih	-12921
asis	-12922
issa	-12923
▁ddg	-12924
▁eco	-12925
▁llc	-12926
▁nod	-12927
▁yan	-12928
▁1208	-12929
▁1418	-12930
▁1477	-12931
ession	-12932
▁intro	-12933
▁kings	-12934
▁large	-12935
▁swift	-12936
▁teach	-12937
▁virus	-12938
▁different	-12939
vm	-12940
002	-12941
iev	-12942
kov	-12943
opa	-12944
▁sx	-12945
olin	-12946
▁46%	-12947
▁elf	-12948
▁hus	-12949
▁kum	-12950
▁tsh	-12951
▁1229	-12952
▁1271	-12953
▁4700	-12954
▁ment	-12955
▁move	-12956
▁rodr	-12957
▁stev	-12958
▁viet	-12959
▁13000	-12960
▁focus	-12961
▁theor	-12962
▁coffee	-12963
▁victory	-12964
▁universe	-12965
▁structure	-12966
175	-12967
nic	-12968
▁fh	-12969
▁ald	-12970
▁ion	-12971
▁lap	-12972
▁1002	-12973
▁1162	-12974
▁1414	-12975
▁4300	-12976
▁rosa	-12977
▁gross	-12978
▁nancy	-12979
▁letter	-12980
▁allmusic	-12981
▁aggregate	-12982
▁francesco	-12983
▁cinemascore	-12984
128	-12985
izz	-12986
lem	-12987
uen	-12988
idas	-12989
▁bai	-12990
▁buk	-12991
▁ced	-12992
▁1123	-12993
▁1153	-12994
▁1333	-12995
▁bala	-12996
olitan	-12997
▁blues	-12998
▁laugh	-12999
▁openoffice	-13000
▁hf	-13001
alia	-13002
amer	-13003
blue	-13004
uten	-13005
▁eif	-13006
▁gur	-13007
▁nur	-13008
▁sov	-13009
▁1365	-13010
▁1372	-13011
▁1373	-13012
▁dipl	-13013
▁karen	-13014
▁maxim	-13015
▁affair	-13016
▁bright	-13017
▁rogers	-13018
▁account	-13019
▁disease	-13020
▁symbian	-13021
▁marshall	-13022
▁military	-13023
tb	-13024
osc	-13025
ilus	-13026
look	-13027
pers	-13028
▁vog	-13029
▁1141	-13030
▁1283	-13031
▁1287	-13032
▁1482	-13033
▁krist	-13034
▁mirror	-13035
▁safety	-13036
▁update	-13037
▁valent	-13038
▁infinite	-13039
wi	-13040
lac	-13041
pad	-13042
raf	-13043
ivan	-13044
oche	-13045
roph	-13046
▁fuj	-13047
▁kla	-13048
▁ups	-13049
▁1218	-13050
▁1391	-13051
▁elle	-13052
▁tiff	-13053
▁vall	-13054
▁comics	-13055
▁height	-13056
▁constit	-13057
▁episode	-13058
vd	-13059
ams	-13060
enu	-13061
▁tj	-13062
apur	-13063
rise	-13064
▁57%	-13065
▁hun	-13066
▁rum	-13067
▁sdr	-13068
▁1076	-13069
▁1282	-13070
▁hdmi	-13071
▁rrna	-13072
▁boule	-13073
▁cinema	-13074
▁fellow	-13075
▁orchestra	-13076
▁something	-13077
rup	-13078
iden	-13079
▁054	-13080
▁csi	-13081
▁jum	-13082
▁raz	-13083
orton	-13084
▁1118	-13085
▁1198	-13086
▁1258	-13087
▁1395	-13088
▁1396	-13089
▁alone	-13090
▁adrian	-13091
▁anders	-13092
▁barbara	-13093
▁defense	-13094
▁gamerank	-13095
250	-13096
vais	-13097
▁005	-13098
▁48%	-13099
▁geo	-13100
▁pam	-13101
▁voc	-13102
▁vre	-13103
uchus	-13104
▁1095	-13105
▁1128	-13106
▁1221	-13107
▁1419	-13108
▁caen	-13109
▁dial	-13110
▁ebay	-13111
▁fung	-13112
▁kirk	-13113
▁near	-13114
▁rang	-13115
itions	-13116
▁16000	-13117
▁klein	-13118
▁venus	-13119
▁ericsson	-13120
▁frontier	-13121
▁gamerankings	-13122
005	-13123
bas	-13124
bye	-13125
▁jh	-13126
body	-13127
imir	-13128
ipop	-13129
orpg	-13130
▁bmp	-13131
▁pdp	-13132
water	-13133
▁1048	-13134
▁1111	-13135
▁1207	-13136
▁1362	-13137
▁1398	-13138
▁1427	-13139
▁expo	-13140
▁chies	-13141
▁close	-13142
▁pract	-13143
▁steel	-13144
▁thumb	-13145
▁parker	-13146
▁policy	-13147
▁philipp	-13148
▁qe	-13149
arin	-13150
▁090	-13151
▁29%	-13152
▁aus	-13153
▁lob	-13154
▁ntv	-13155
ivity	-13156
▁1071	-13157
▁1297	-13158
▁1348	-13159
▁kang	-13160
▁aaron	-13161
▁eagle	-13162
▁eddie	-13163
▁sleep	-13164
▁synth	-13165
▁argent	-13166
▁bureau	-13167
ieux	-13168
ober	-13169
▁alp	-13170
▁phd	-13171
▁riv	-13172
▁tsa	-13173
▁uci	-13174
▁1073	-13175
▁1378	-13176
▁avbw	-13177
▁feed	-13178
▁kern	-13179
▁late	-13180
▁18000	-13181
▁berry	-13182
▁crypt	-13183
▁react	-13184
▁austin	-13185
▁rachel	-13186
▁temper	-13187
▁protein	-13188
ises	-13189
▁dio	-13190
▁eid	-13191
▁wav	-13192
▁1035	-13193
▁1329	-13194
▁maxi	-13195
▁poss	-13196
etal	-13197
etch	-13198
uced	-13199
▁era	-13200
▁pda	-13201
gamer	-13202
stadt	-13203
▁1461	-13204
▁adams	-13205
▁higher	-13206
▁personal	-13207
erd	-13208
▁ets	-13209
▁mcg	-13210
▁nut	-13211
andal	-13212
where	-13213
▁drum	-13214
▁gaud	-13215
former	-13216
▁susan	-13217
▁driver	-13218
▁fashion	-13219
nn	-13220
bot	-13221
olia	-13222
othe	-13223
▁018	-13224
▁job	-13225
▁mim	-13226
▁rpm	-13227
▁syd	-13228
▁zim	-13229
▁1131	-13230
▁1142	-13231
▁1147	-13232
▁1281	-13233
▁orth	-13234
▁parl	-13235
▁fleet	-13236
▁chiesa	-13237
▁mmorpg	-13238
▁simula	-13239
ez	-13240
135	-13241
gun	-13242
ppm	-13243
▁vy	-13244
aton	-13245
jang	-13246
lace	-13247
▁cbd	-13248
▁wiz	-13249
▁wrc	-13250
utive	-13251
▁1156	-13252
▁1183	-13253
▁1408	-13254
▁1467	-13255
▁elli	-13256
▁iptv	-13257
▁mama	-13258
▁vlad	-13259
▁evans	-13260
▁lantis	-13261
▁vehicle	-13262
▁landkreis	-13263
217	-13264
iral	-13265
itis	-13266
omon	-13267
road	-13268
▁53%	-13269
▁eur	-13270
▁hin	-13271
▁nos	-13272
▁pok	-13273
orrow	-13274
▁1386	-13275
▁carn	-13276
▁nerv	-13277
▁montb	-13278
▁ready	-13279
▁course	-13280
▁murray	-13281
▁constant	-13282
lia	-13283
▁fnc	-13284
▁gba	-13285
▁pbs	-13286
▁snk	-13287
▁1192	-13288
▁1436	-13289
▁1468	-13290
▁danc	-13291
▁emil	-13292
▁rome	-13293
▁surv	-13294
▁chick	-13295
▁kkbox	-13296
▁lloyd	-13297
▁singh	-13298
tek	-13299
via	-13300
▁gk	-13301
agan	-13302
bras	-13303
iman	-13304
type	-13305
utes	-13306
▁flu	-13307
▁frs	-13308
▁kok	-13309
▁ppm	-13310
ships	-13311
▁1072	-13312
▁1175	-13313
▁1195	-13314
▁1259	-13315
▁1389	-13316
▁beca	-13317
▁mers	-13318
▁para	-13319
▁canal	-13320
▁initi	-13321
▁varia	-13322
▁melody	-13323
▁gilbert	-13324
▁paradise	-13325
▁shanghai	-13326
▁everything	-13327
321	-13328
kel	-13329
▁oo	-13330
ucci	-13331
ving	-13332
▁56%	-13333
▁67%	-13334
▁88%	-13335
▁1005	-13336
▁4600	-13337
▁apec	-13338
▁dock	-13339
▁mine	-13340
▁rein	-13341
▁relig	-13342
▁monkey	-13343
▁syndrome	-13344
arth	-13345
▁duo	-13346
▁oss	-13347
▁sut	-13348
▁unt	-13349
track	-13350
▁1238	-13351
▁1257	-13352
▁1264	-13353
▁1284	-13354
▁cala	-13355
▁cort	-13356
▁ietf	-13357
▁wend	-13358
▁emacs	-13359
▁phoen	-13360
▁because	-13361
▁director	-13362
yc	-13363
90%	-13364
abi	-13365
asse	-13366
html	-13367
inum	-13368
▁bgm	-13369
▁cet	-13370
▁naz	-13371
▁1286	-13372
▁dang	-13373
▁dome	-13374
▁twin	-13375
▁animal	-13376
▁import	-13377
sea	-13378
iche	-13379
▁afl	-13380
▁gau	-13381
▁wah	-13382
▁1226	-13383
▁1252	-13384
▁1346	-13385
▁1483	-13386
▁leed	-13387
▁trig	-13388
▁amiga	-13389
▁cctld	-13390
ibility	-13391
▁manuel	-13392
▁chamber	-13393
▁diction	-13394
▁reaction	-13395
▁hollywood	-13396
gir	-13397
lee	-13398
▁ln	-13399
▁abl	-13400
▁gtk	-13401
▁jag	-13402
▁pri	-13403
▁sic	-13404
▁1314	-13405
▁1337	-13406
▁extr	-13407
▁loll	-13408
▁sist	-13409
▁alexa	-13410
▁libre	-13411
▁perry	-13412
▁member	-13413
▁boulevard	-13414
▁selection	-13415
dal	-13416
ffic	-13417
load	-13418
▁86%	-13419
▁eve	-13420
▁kem	-13421
▁lai	-13422
▁spa	-13423
▁tac	-13424
etime	-13425
onkey	-13426
▁1256	-13427
▁1307	-13428
▁cells	-13429
▁julia	-13430
▁lucky	-13431
▁stuart	-13432
▁georges	-13433
▁regional	-13434
▁reference	-13435
▁technical	-13436
▁convention	-13437
eh	-13438
vs	-13439
▁bye	-13440
▁dft	-13441
▁mev	-13442
▁uri	-13443
▁vod	-13444
▁1019	-13445
▁beck	-13446
▁hipp	-13447
▁igbt	-13448
ective	-13449
▁photo	-13450
▁squad	-13451
itional	-13452
▁reddit	-13453
▁tomorrow	-13454
yx	-13455
atar	-13456
gest	-13457
▁93%	-13458
▁94%	-13459
▁fad	-13460
▁kak	-13461
▁oil	-13462
▁pcr	-13463
▁1121	-13464
▁1157	-13465
▁1246	-13466
▁nest	-13467
▁pred	-13468
▁14000	-13469
▁harold	-13470
▁jeremy	-13471
▁things	-13472
▁though	-13473
▁turner	-13474
▁japanese	-13475
91%	-13476
ivo	-13477
abad	-13478
ovan	-13479
▁011	-13480
▁dak	-13481
▁dbc	-13482
▁gol	-13483
▁hap	-13484
▁jor	-13485
▁lyc	-13486
▁rhe	-13487
▁sax	-13488
icket	-13489
▁boom	-13490
▁mono	-13491
urance	-13492
▁cemet	-13493
▁print	-13494
▁robot	-13495
▁camera	-13496
▁liberty	-13497
▁nuclear	-13498
yg	-13499
207	-13500
isi	-13501
low	-13502
mah	-13503
yll	-13504
ardi	-13505
ibus	-13506
ured	-13507
▁ves	-13508
andro	-13509
▁1054	-13510
▁1336	-13511
▁1444	-13512
▁1452	-13513
▁2026	-13514
▁alto	-13515
▁chel	-13516
▁fresh	-13517
▁upper	-13518
▁astron	-13519
▁stefan	-13520
127	-13521
ilt	-13522
▁rv	-13523
▁wb	-13524
enne	-13525
rell	-13526
▁58%	-13527
▁72%	-13528
▁emd	-13529
▁eun	-13530
▁1013	-13531
▁1143	-13532
▁1411	-13533
▁1441	-13534
▁aero	-13535
▁guid	-13536
▁wide	-13537
diepie	-13538
▁layer	-13539
▁racing	-13540
▁forward	-13541
▁hermann	-13542
▁cemetery	-13543
▁imperial	-13544
▁catherine	-13545
agn	-13546
rys	-13547
umn	-13548
van	-13549
▁fk	-13550
aign	-13551
▁ask	-13552
▁emm	-13553
▁rup	-13554
▁ssh	-13555
▁1014	-13556
▁1096	-13557
▁1124	-13558
▁1261	-13559
▁1291	-13560
▁1322	-13561
▁1324	-13562
▁1363	-13563
▁2040	-13564
▁chat	-13565
▁ella	-13566
▁hash	-13567
▁uber	-13568
istics	-13569
ternal	-13570
▁colin	-13571
▁going	-13572
▁medal	-13573
formula	-13574
▁trinity	-13575
▁database	-13576
▁pewdiepie	-13577
▁distribution	-13578
agh	-13579
bin	-13580
cia	-13581
ocy	-13582
iley	-13583
uche	-13584
▁cvt	-13585
▁hog	-13586
▁1228	-13587
▁1232	-13588
▁1248	-13589
▁1416	-13590
▁1484	-13591
▁lons	-13592
▁sara	-13593
▁seba	-13594
▁arnold	-13595
▁columbia	-13596
▁87%	-13597
layer	-13598
▁1205	-13599
▁1231	-13600
▁1308	-13601
▁aver	-13602
▁nand	-13603
▁quart	-13604
▁volume	-13605
▁console	-13606
▁fighter	-13607
▁sunrise	-13608
eni	-13609
ikh	-13610
pen	-13611
quer	-13612
ries	-13613
▁63%	-13614
▁ada	-13615
▁gis	-13616
▁pps	-13617
ished	-13618
▁1008	-13619
▁1055	-13620
▁1194	-13621
▁1366	-13622
▁lily	-13623
▁label	-13624
▁newton	-13625
▁georgia	-13626
▁problem	-13627
▁tonight	-13628
▁infinity	-13629
▁philippe	-13630
hof	-13631
mut	-13632
▁nj	-13633
anti	-13634
▁khz	-13635
▁kop	-13636
▁vul	-13637
▁1017	-13638
▁1437	-13639
▁1486	-13640
▁barc	-13641
▁cyan	-13642
▁mans	-13643
▁piet	-13644
▁said	-13645
▁trop	-13646
▁webs	-13647
▁agent	-13648
▁could	-13649
▁mario	-13650
▁fisher	-13651
▁powers	-13652
▁survey	-13653
▁nothing	-13654
206	-13655
aur	-13656
cep	-13657
irs	-13658
tic	-13659
▁ao	-13660
▁jj	-13661
▁mj	-13662
erve	-13663
ised	-13664
onex	-13665
onse	-13666
▁009	-13667
▁41%	-13668
▁ipo	-13669
▁liu	-13670
▁pfa	-13671
chell	-13672
▁1113	-13673
▁1132	-13674
▁1167	-13675
▁crow	-13676
▁fell	-13677
▁mean	-13678
▁momo	-13679
▁claud	-13680
▁pride	-13681
▁compos	-13682
▁device	-13683
▁miguel	-13684
icularia	-13685
999	-13686
ires	-13687
▁31%	-13688
▁66%	-13689
▁fps	-13690
▁gav	-13691
▁gue	-13692
▁lol	-13693
▁tah	-13694
▁1042	-13695
▁1176	-13696
▁1191	-13697
▁1335	-13698
▁1443	-13699
▁5600	-13700
▁cern	-13701
▁riaa	-13702
uation	-13703
▁corps	-13704
▁toulouse	-13705
hop	-13706
phi	-13707
rypt	-13708
▁amo	-13709
▁muk	-13710
▁ord	-13711
▁1097	-13712
▁1103	-13713
▁1325	-13714
▁1417	-13715
▁kurt	-13716
▁male	-13717
▁prec	-13718
▁sans	-13719
▁vick	-13720
▁macau	-13721
▁posix	-13722
▁sales	-13723
borough	-13724
▁bullet	-13725
▁counter	-13726
eme	-13727
idt	-13728
oga	-13729
var	-13730
▁gj	-13731
amoo	-13732
dale	-13733
ught	-13734
▁dvb	-13735
▁rak	-13736
▁vid	-13737
▁1037	-13738
▁1101	-13739
▁1134	-13740
▁peng	-13741
▁macro	-13742
▁stern	-13743
▁celebr	-13744
▁watson	-13745
▁maurice	-13746
▁secretary	-13747
nt	-13748
263	-13749
asp	-13750
uca	-13751
etto	-13752
▁048	-13753
▁065	-13754
▁kra	-13755
▁1107	-13756
▁1196	-13757
▁1352	-13758
▁agre	-13759
▁cold	-13760
▁trim	-13761
▁cable	-13762
▁carlo	-13763
▁geoff	-13764
▁please	-13765
▁nations	-13766
▁profile	-13767
▁working	-13768
▁challenge	-13769
apy	-13770
born	-13771
▁89%	-13772
▁gdi	-13773
▁hex	-13774
▁pig	-13775
encer	-13776
oshop	-13777
vince	-13778
▁1078	-13779
▁barn	-13780
▁mick	-13781
▁catholic	-13782
▁remember	-13783
▁utricularia	-13784
fb	-13785
epp	-13786
omys	-13787
wall	-13788
▁eso	-13789
▁kre	-13790
▁oxy	-13791
▁suk	-13792
▁thy	-13793
▁1065	-13794
▁1327	-13795
▁exid	-13796
▁luke	-13797
▁mann	-13798
▁rice	-13799
▁sier	-13800
▁frequ	-13801
▁glory	-13802
▁unity	-13803
▁illust	-13804
▁period	-13805
▁tardis	-13806
▁charlotte	-13807
▁photoshop	-13808
004	-13809
151	-13810
aly	-13811
away	-13812
▁aco	-13813
▁dry	-13814
▁gtp	-13815
▁nde	-13816
▁wei	-13817
graph	-13818
▁1233	-13819
▁6400	-13820
▁dell	-13821
▁salt	-13822
▁stro	-13823
▁atlas	-13824
▁bound	-13825
▁sandy	-13826
▁title	-13827
▁inside	-13828
▁extreme	-13829
▁journey	-13830
▁lollipop	-13831
▁authority	-13832
▁following	-13833
131	-13834
del	-13835
zip	-13836
quin	-13837
▁jpg	-13838
▁nay	-13839
▁pvc	-13840
ually	-13841
▁0001	-13842
▁1056	-13843
▁1106	-13844
▁7200	-13845
▁aiko	-13846
▁shall	-13847
▁words	-13848
▁saturn	-13849
▁highway	-13850
▁roberts	-13851
▁chemical	-13852
▁administration	-13853
▁qb	-13854
ingo	-13855
text	-13856
▁83%	-13857
▁ata	-13858
▁fcc	-13859
istan	-13860
▁1027	-13861
▁1049	-13862
▁1068	-13863
▁1146	-13864
▁1158	-13865
▁1174	-13866
▁isis	-13867
▁ting	-13868
▁weap	-13869
duction	-13870
▁filter	-13871
▁ronald	-13872
▁collins	-13873
▁compact	-13874
▁ireland	-13875
▁physical	-13876
mf	-13877
003	-13878
119	-13879
149	-13880
zan	-13881
▁xo	-13882
isen	-13883
life	-13884
▁84%	-13885
▁ari	-13886
▁gad	-13887
▁nah	-13888
▁smg	-13889
▁wai	-13890
▁1273	-13891
▁1294	-13892
▁1310	-13893
▁1347	-13894
▁1349	-13895
▁1474	-13896
▁isab	-13897
▁mint	-13898
▁wine	-13899
▁elite	-13900
▁jalan	-13901
▁lower	-13902
▁tyler	-13903
▁article	-13904
▁collect	-13905
▁spotify	-13906
▁canadian	-13907
▁province	-13908
tt	-13909
180	-13910
bie	-13911
▁ars	-13912
▁ioc	-13913
▁nir	-13914
▁1034	-13915
▁1223	-13916
▁1357	-13917
▁fuck	-13918
▁seas	-13919
▁ucla	-13920
elling	-13921
▁navig	-13922
▁plate	-13923
▁sharp	-13924
▁cortex	-13925
▁making	-13926
▁spider	-13927
▁brother	-13928
▁dynamic	-13929
▁outlook	-13930
▁industry	-13931
ady	-13932
edi	-13933
uin	-13934
▁vk	-13935
▁dop	-13936
▁hak	-13937
▁irc	-13938
▁1028	-13939
▁1272	-13940
▁1313	-13941
▁1345	-13942
▁1426	-13943
▁5300	-13944
▁bash	-13945
▁btob	-13946
▁sull	-13947
▁target	-13948
▁schools	-13949
▁showtime	-13950
319	-13951
450	-13952
api	-13953
aye	-13954
des	-13955
▁pj	-13956
hood	-13957
▁022	-13958
▁54%	-13959
▁fen	-13960
▁htm	-13961
▁psi	-13962
▁wag	-13963
arian	-13964
▁5400	-13965
▁buch	-13966
▁sala	-13967
▁atenu	-13968
▁chron	-13969
▁chuck	-13970
▁corre	-13971
▁sword	-13972
▁xhtml	-13973
▁commod	-13974
▁strike	-13975
▁borough	-13976
▁vietnam	-13977
▁atlantic	-13978
cial	-13979
esse	-13980
loss	-13981
▁fus	-13982
▁mia	-13983
▁sag	-13984
▁scp	-13985
annon	-13986
▁1136	-13987
▁1148	-13988
▁6600	-13989
▁hass	-13990
▁hood	-13991
starter	-13992
▁electro	-13993
gt	-13994
lyn	-13995
mill	-13996
▁024	-13997
▁afc	-13998
▁etf	-13999
etype	-14000
▁1090	-14001
▁1177	-14002
▁1239	-14003
▁1255	-14004
▁3900	-14005
▁beam	-14006
▁kate	-14007
▁lung	-14008
▁push	-14009
▁save	-14010
ifying	-14011
▁colla	-14012
▁cookie	-14013
▁father	-14014
▁phoenix	-14015
▁quarter	-14016
▁russian	-14017
▁starship	-14018
▁knowledge	-14019
▁operations	-14020
pel	-14021
yer	-14022
ecca	-14023
erse	-14024
ores	-14025
▁019	-14026
▁039	-14027
▁62%	-14028
▁haj	-14029
▁hod	-14030
▁lig	-14031
▁ttc	-14032
anner	-14033
illes	-14034
iving	-14035
▁1117	-14036
▁1163	-14037
▁1181	-14038
▁1203	-14039
▁1251	-14040
▁hour	-14041
▁liqu	-14042
▁once	-14043
▁felix	-14044
▁heavy	-14045
▁border	-14046
▁encore	-14047
▁julius	-14048
▁lincol	-14049
▁fernando	-14050
▁johannes	-14051
▁secondary	-14052
▁protection	-14053
▁construction	-14054
220	-14055
303	-14056
rim	-14057
aris	-14058
▁ffe	-14059
▁gto	-14060
▁rie	-14061
▁0000	-14062
▁1006	-14063
▁1015	-14064
▁1296	-14065
▁1462	-14066
▁attr	-14067
▁guer	-14068
▁owen	-14069
▁therm	-14070
▁docomo	-14071
▁goodbye	-14072
▁student	-14073
▁campaign	-14074
▁tournament	-14075
308	-14076
unk	-14077
▁jk	-14078
cycl	-14079
▁39%	-14080
▁bou	-14081
▁png	-14082
▁1094	-14083
▁1359	-14084
▁1473	-14085
▁dyna	-14086
▁fitz	-14087
▁mist	-14088
▁cohen	-14089
▁sorry	-14090
▁circus	-14091
▁combat	-14092
▁kirara	-14093
▁lincoln	-14094
▁political	-14095
▁publishing	-14096
dd	-14097
akes	-14098
ames	-14099
cell	-14100
gang	-14101
▁093	-14102
▁78%	-14103
▁bub	-14104
▁dic	-14105
▁rsa	-14106
▁yet	-14107
ators	-14108
▁1045	-14109
▁1102	-14110
▁1242	-14111
▁1459	-14112
▁5800	-14113
▁gond	-14114
▁lucy	-14115
▁omni	-14116
▁kabup	-14117
▁liner	-14118
▁muham	-14119
▁silva	-14120
▁since	-14121
▁wings	-14122
▁arcade	-14123
▁campus	-14124
▁ferdin	-14125
▁paypal	-14126
▁rubber	-14127
▁gaudens	-14128
▁kickstarter	-14129
134	-14130
akh	-14131
ibe	-14132
neo	-14133
isan	-14134
▁apt	-14135
▁dra	-14136
▁gec	-14137
▁gom	-14138
▁sdn	-14139
▁tul	-14140
▁1171	-14141
▁1186	-14142
▁1323	-14143
▁1422	-14144
▁bdsm	-14145
▁bush	-14146
▁buzz	-14147
▁idea	-14148
▁shan	-14149
▁islam	-14150
▁month	-14151
▁share	-14152
▁contem	-14153
▁depend	-14154
▁success	-14155
▁mitchell	-14156
▁objective	-14157
▁dictionary	-14158
▁laboratory	-14159
140	-14160
igi	-14161
jun	-14162
oly	-14163
web	-14164
▁ij	-14165
ault	-14166
opus	-14167
▁82%	-14168
▁diy	-14169
▁imf	-14170
▁mbe	-14171
▁ngt	-14172
▁sri	-14173
andra	-14174
▁1263	-14175
▁1431	-14176
▁6800	-14177
▁duck	-14178
▁foss	-14179
▁hugo	-14180
▁json	-14181
▁pcie	-14182
donald	-14183
▁honor	-14184
▁jesus	-14185
▁laser	-14186
▁message	-14187
▁quality	-14188
▁telecom	-14189
▁cambridge	-14190
▁kabupaten	-14191
aks	-14192
nas	-14193
ared	-14194
isse	-14195
▁aig	-14196
▁egg	-14197
▁myc	-14198
▁nbl	-14199
▁nsa	-14200
okawa	-14201
▁1114	-14202
▁1199	-14203
▁1268	-14204
▁1303	-14205
▁1458	-14206
▁9600	-14207
▁anto	-14208
▁benz	-14209
▁chip	-14210
▁hits	-14211
▁schw	-14212
▁brave	-14213
▁error	-14214
▁branch	-14215
▁models	-14216
▁points	-14217
▁african	-14218
fla	-14219
pass	-14220
▁77%	-14221
▁pab	-14222
▁rss	-14223
▁1202	-14224
▁1209	-14225
▁1267	-14226
▁1446	-14227
▁1479	-14228
▁clin	-14229
▁drug	-14230
▁folk	-14231
▁riot	-14232
▁catch	-14233
▁clock	-14234
▁disco	-14235
▁giant	-14236
▁mason	-14237
▁phenom	-14238
▁script	-14239
▁welcome	-14240
acht	-14241
anie	-14242
nell	-14243
▁037	-14244
▁dum	-14245
▁shu	-14246
▁tcl	-14247
burgh	-14248
erner	-14249
otype	-14250
▁1447	-14251
▁goes	-14252
▁term	-14253
▁notes	-14254
▁using	-14255
▁transp	-14256
▁finance	-14257
▁postscript	-14258
▁broadcasting	-14259
168	-14260
211	-14261
213	-14262
ako	-14263
mor	-14264
▁lj	-14265
plus	-14266
▁ate	-14267
▁dix	-14268
▁uni	-14269
ellar	-14270
▁1077	-14271
▁1087	-14272
▁1179	-14273
▁1237	-14274
▁1247	-14275
▁1302	-14276
▁1326	-14277
▁1393	-14278
▁1491	-14279
▁bach	-14280
▁cogn	-14281
▁evan	-14282
▁task	-14283
▁tung	-14284
manuel	-14285
▁ahmad	-14286
▁capit	-14287
▁pitch	-14288
▁sunny	-14289
▁trail	-14290
▁corner	-14291
▁guitar	-14292
▁novell	-14293
▁sydney	-14294
▁quantum	-14295
▁caroline	-14296
▁franklin	-14297
▁terminal	-14298
▁executive	-14299
fet	-14300
enia	-14301
eppe	-14302
wave	-14303
▁035	-14304
▁056	-14305
▁acm	-14306
▁baz	-14307
▁fix	-14308
▁gif	-14309
▁icc	-14310
▁lut	-14311
▁tic	-14312
▁1262	-14313
▁gius	-14314
▁niss	-14315
▁pete	-14316
▁emily	-14317
▁kinki	-14318
▁prada	-14319
▁forces	-14320
▁screen	-14321
208	-14322
228	-14323
▁vu	-14324
ktop	-14325
lett	-14326
▁lpl	-14327
▁sio	-14328
ected	-14329
▁1104	-14330
▁1151	-14331
▁1166	-14332
▁1434	-14333
▁1463	-14334
▁edwin	-14335
▁bandar	-14336
▁random	-14337
▁however	-14338
▁assembly	-14339
229	-14340
230	-14341
aft	-14342
gus	-14343
▁pz	-14344
acon	-14345
city	-14346
otic	-14347
▁hib	-14348
▁sof	-14349
▁uhf	-14350
▁yun	-14351
aries	-14352
forge	-14353
istol	-14354
▁1144	-14355
▁1154	-14356
▁1341	-14357
▁bath	-14358
▁goth	-14359
berger	-14360
▁cliff	-14361
▁elena	-14362
▁gaming	-14363
▁schwar	-14364
▁sebast	-14365
▁allstar	-14366
▁informer	-14367
▁networks	-14368
007	-14369
ilo	-14370
jon	-14371
mul	-14372
▁uu	-14373
quis	-14374
▁ain	-14375
court	-14376
▁1003	-14377
▁1059	-14378
▁1081	-14379
▁1152	-14380
▁1173	-14381
▁1384	-14382
▁choc	-14383
▁marco	-14384
▁africa	-14385
▁fedora	-14386
▁kadokawa	-14387
▁mountains	-14388
224	-14389
405	-14390
icz	-14391
aldi	-14392
▁cun	-14393
▁cyp	-14394
▁jax	-14395
▁peg	-14396
▁1063	-14397
▁bone	-14398
▁disk	-14399
▁emma	-14400
▁fans	-14401
▁neut	-14402
▁wins	-14403
▁adult	-14404
▁petit	-14405
▁snake	-14406
▁wagon	-14407
▁coming	-14408
▁format	-14409
▁within	-14410
▁persona	-14411
▁beauvais	-14412
▁jennifer	-14413
omm	-14414
ovo	-14415
▁hn	-14416
▁014	-14417
▁067	-14418
▁crj	-14419
▁icd	-14420
child	-14421
dress	-14422
frame	-14423
order	-14424
▁1165	-14425
▁1293	-14426
▁1301	-14427
▁bast	-14428
▁cock	-14429
▁dame	-14430
▁dart	-14431
▁erik	-14432
▁kiha	-14433
▁reed	-14434
▁ruth	-14435
▁julian	-14436
▁louise	-14437
▁commander	-14438
130	-14439
177	-14440
aii	-14441
▁gx	-14442
▁xa	-14443
aper	-14444
hill	-14445
real	-14446
▁faa	-14447
▁zam	-14448
▁1038	-14449
▁1254	-14450
▁beth	-14451
▁flav	-14452
▁frag	-14453
▁loss	-14454
▁temu	-14455
▁tenn	-14456
▁joker	-14457
▁andrea	-14458
▁doremi	-14459
▁shield	-14460
▁chapter	-14461
▁singles	-14462
▁symphony	-14463
hg	-14464
mt	-14465
255	-14466
ibr	-14467
chus	-14468
ffer	-14469
okie	-14470
▁iau	-14471
▁kub	-14472
▁lcc	-14473
▁sne	-14474
▁yui	-14475
▁1069	-14476
▁1212	-14477
▁1289	-14478
▁drag	-14479
▁jtwc	-14480
▁mant	-14481
▁swan	-14482
ensive	-14483
▁blade	-14484
▁phant	-14485
▁carbon	-14486
▁leslie	-14487
▁result	-14488
▁coaster	-14489
▁supreme	-14490
▁aviation	-14491
rc	-14492
199	-14493
rem	-14494
cock	-14495
enzo	-14496
essa	-14497
ieri	-14498
ults	-14499
▁008	-14500
▁het	-14501
▁kus	-14502
▁mee	-14503
inois	-14504
rique	-14505
▁1009	-14506
▁1145	-14507
▁1288	-14508
▁1311	-14509
▁1318	-14510
▁dian	-14511
▁known	-14512
▁miles	-14513
▁polar	-14514
▁rapid	-14515
▁accord	-14516
▁claire	-14517
▁excell	-14518
▁trance	-14519
▁musical	-14520
▁metropolitan	-14521
pd	-14522
emo	-14523
phe	-14524
▁apu	-14525
▁fai	-14526
▁pyr	-14527
▁1012	-14528
▁1309	-14529
▁boyz	-14530
▁ching	-14531
▁diego	-14532
▁might	-14533
▁harvey	-14534
▁played	-14535
arat	-14536
erous	-14537
onica	-14538
▁1046	-14539
▁1184	-14540
▁1401	-14541
▁fear	-14542
▁gast	-14543
▁ligo	-14544
apping	-14545
▁eugene	-14546
▁olympic	-14547
▁computing	-14548
▁experience	-14549
286	-14550
bad	-14551
rab	-14552
aldo	-14553
chat	-14554
icks	-14555
talk	-14556
▁068	-14557
▁aec	-14558
▁fsa	-14559
▁jup	-14560
▁mri	-14561
▁phi	-14562
night	-14563
▁1041	-14564
▁1047	-14565
▁1093	-14566
▁1182	-14567
▁1197	-14568
▁1299	-14569
▁brid	-14570
▁even	-14571
▁mips	-14572
▁trap	-14573
▁warri	-14574
▁hammer	-14575
▁nikola	-14576
▁malaysia	-14577
dan	-14578
uga	-14579
atti	-14580
▁085	-14581
▁enh	-14582
▁rey	-14583
▁sep	-14584
▁uns	-14585
▁1098	-14586
▁1112	-14587
▁1159	-14588
▁1489	-14589
▁hind	-14590
▁mari	-14591
▁shap	-14592
▁coach	-14593
▁prism	-14594
▁editor	-14595
▁rocket	-14596
▁deutsche	-14597
▁adventure	-14598
▁programming	-14599
156	-14600
elt	-14601
▁zz	-14602
anto	-14603
ishi	-14604
step	-14605
tery	-14606
▁amg	-14607
▁avc	-14608
▁fol	-14609
▁neu	-14610
▁rav	-14611
▁1201	-14612
▁bind	-14613
▁harm	-14614
▁july	-14615
▁pang	-14616
▁pump	-14617
▁sett	-14618
▁thir	-14619
ermont	-14620
▁array	-14621
▁huang	-14622
▁jesse	-14623
▁rifle	-14624
▁pretty	-14625
▁jeffrey	-14626
▁scholar	-14627
▁products	-14628
▁register	-14629
137	-14630
257	-14631
323	-14632
aea	-14633
▁64%	-14634
▁91%	-14635
▁chs	-14636
▁cie	-14637
▁lak	-14638
▁ned	-14639
▁iris	-14640
▁leaf	-14641
▁nice	-14642
▁pale	-14643
▁ratp	-14644
▁umts	-14645
iament	-14646
▁ridge	-14647
▁scale	-14648
▁foster	-14649
▁reality	-14650
159	-14651
bla	-14652
orh	-14653
sey	-14654
olph	-14655
▁cah	-14656
▁lga	-14657
▁tub	-14658
▁1088	-14659
▁1292	-14660
▁isle	-14661
▁saga	-14662
▁cream	-14663
▁falls	-14664
▁yonex	-14665
▁custom	-14666
▁players	-14667
▁clermont	-14668
▁agreement	-14669
160	-14670
185	-14671
enh	-14672
duct	-14673
eria	-14674
teen	-14675
▁81%	-14676
▁cyt	-14677
▁rag	-14678
ucker	-14679
▁1032	-14680
▁1133	-14681
▁1361	-14682
▁gott	-14683
▁uefa	-14684
▁wiss	-14685
▁aster	-14686
▁linear	-14687
▁warner	-14688
▁waters	-14689
▁holiday	-14690
▁kennedy	-14691
▁languages	-14692
▁oy	-14693
▁044	-14694
▁68%	-14695
▁74%	-14696
▁arp	-14697
▁wet	-14698
itage	-14699
▁5700	-14700
▁ller	-14701
▁rece	-14702
▁bruno	-14703
▁johan	-14704
▁scala	-14705
▁wayne	-14706
▁harper	-14707
▁render	-14708
▁resist	-14709
▁talent	-14710
▁spencer	-14711
▁muhammad	-14712
133	-14713
214	-14714
ija	-14715
emon	-14716
▁cep	-14717
▁lsd	-14718
▁1168	-14719
▁8859	-14720
▁chak	-14721
▁dies	-14722
▁exit	-14723
▁hoch	-14724
▁kung	-14725
▁span	-14726
▁eight	-14727
▁license	-14728
▁alternative	-14729
bh	-14730
vr	-14731
218	-14732
737	-14733
bet	-14734
esia	-14735
iper	-14736
late	-14737
▁ado	-14738
▁eps	-14739
▁gin	-14740
▁lok	-14741
▁och	-14742
ansas	-14743
▁1109	-14744
▁bugs	-14745
▁cape	-14746
▁goal	-14747
▁loud	-14748
anning	-14749
▁behav	-14750
▁meyer	-14751
▁stray	-14752
▁athlet	-14753
▁called	-14754
▁vorbis	-14755
▁gfriend	-14756
▁illustr	-14757
▁mamamoo	-14758
▁november	-14759
216	-14760
227	-14761
503	-14762
bur	-14763
ici	-14764
prs	-14765
uni	-14766
umer	-14767
▁075	-14768
▁hmv	-14769
▁mbs	-14770
▁mph	-14771
▁nih	-14772
▁tip	-14773
▁xiv	-14774
itten	-14775
radio	-14776
▁1039	-14777
▁1083	-14778
▁2029	-14779
▁bron	-14780
▁farm	-14781
▁glen	-14782
▁kanon	-14783
▁pearl	-14784
▁stack	-14785
▁falcon	-14786
▁gibson	-14787
▁kindle	-14788
▁treaty	-14789
▁terminus	-14790
▁parliament	-14791
▁intelligence	-14792
oz	-14793
188	-14794
256	-14795
bee	-14796
hou	-14797
iao	-14798
zel	-14799
▁rj	-14800
wide	-14801
▁aoa	-14802
▁cid	-14803
▁cyn	-14804
▁dad	-14805
▁dob	-14806
▁ghq	-14807
▁hik	-14808
▁mex	-14809
▁ppp	-14810
▁1312	-14811
▁2035	-14812
▁ajax	-14813
▁amar	-14814
▁carc	-14815
▁gamma	-14816
▁recep	-14817
▁growth	-14818
▁hearts	-14819
▁joshua	-14820
▁giuseppe	-14821
▁straight	-14822
▁interchange	-14823
006	-14824
155	-14825
161	-14826
leh	-14827
▁ew	-14828
game	-14829
kell	-14830
▁due	-14831
▁lau	-14832
▁vim	-14833
▁yuk	-14834
▁grid	-14835
▁isra	-14836
porary	-14837
▁betty	-14838
▁emerg	-14839
▁hanna	-14840
▁opent	-14841
▁rosen	-14842
▁sdram	-14843
▁gustav	-14844
▁sexual	-14845
▁extended	-14846
▁controller	-14847
fm	-14848
avar	-14849
enty	-14850
erie	-14851
▁028	-14852
▁amr	-14853
▁mvc	-14854
▁sae	-14855
▁1023	-14856
▁1315	-14857
▁copy	-14858
▁gone	-14859
▁mund	-14860
▁sham	-14861
▁heter	-14862
▁strat	-14863
▁groups	-14864
▁carpent	-14865
▁paralle	-14866
▁harrison	-14867
fin	-14868
ply	-14869
▁lx	-14870
3000	-14871
ctic	-14872
inet	-14873
lain	-14874
▁dee	-14875
▁ict	-14876
▁kob	-14877
lable	-14878
▁1029	-14879
▁1178	-14880
▁6300	-14881
▁wnba	-14882
▁atari	-14883
▁fischer	-14884
▁laurent	-14885
138	-14886
215	-14887
iso	-14888
rel	-14889
roc	-14890
zig	-14891
inga	-14892
ungs	-14893
uron	-14894
▁cru	-14895
▁orb	-14896
▁tep	-14897
▁tus	-14898
▁zet	-14899
mania	-14900
▁1074	-14901
▁1108	-14902
▁1344	-14903
▁elis	-14904
▁evil	-14905
▁jade	-14906
▁above	-14907
▁bourg	-14908
▁josef	-14909
▁ninja	-14910
▁gerald	-14911
▁ladies	-14912
▁meeting	-14913
▁rebecca	-14914
▁basilica	-14915
▁eurogamer	-14916
▁industries	-14917
np	-14918
139	-14919
164	-14920
166	-14921
222	-14922
afe	-14923
dia	-14924
ecd	-14925
hip	-14926
ieg	-14927
ogy	-14928
este	-14929
▁029	-14930
▁092	-14931
▁als	-14932
▁aol	-14933
▁esa	-14934
▁gut	-14935
▁itf	-14936
▁mai	-14937
▁rez	-14938
▁tid	-14939
aland	-14940
oides	-14941
▁1298	-14942
▁cout	-14943
▁else	-14944
▁rare	-14945
▁ride	-14946
ampton	-14947
▁avbwu	-14948
▁chase	-14949
▁chess	-14950
▁crime	-14951
▁wells	-14952
▁angela	-14953
▁sierra	-14954
▁cookies	-14955
▁popular	-14956
▁roberto	-14957
▁subject	-14958
▁timothy	-14959
▁michelle	-14960
▁phillips	-14961
▁commercial	-14962
197	-14963
306	-14964
456	-14965
rap	-14966
▁apa	-14967
▁hdr	-14968
▁tha	-14969
break	-14970
unier	-14971
ustic	-14972
▁1269	-14973
▁5100	-14974
▁craw	-14975
▁crim	-14976
▁hook	-14977
▁hulu	-14978
▁khal	-14979
▁punk	-14980
▁scsi	-14981
▁zepp	-14982
idence	-14983
lement	-14984
▁blake	-14985
▁quint	-14986
▁harmon	-14987
▁dancing	-14988
▁mystery	-14989
qi	-14990
165	-14991
302	-14992
sty	-14993
ucl	-14994
ding	-14995
iani	-14996
inda	-14997
mani	-14998
mart	-14999
otto	-15000
▁61%	-15001
▁fid	-15002
▁sob	-15003
ernet	-15004
erton	-15005
inter	-15006
▁1432	-15007
▁clim	-15008
▁dunc	-15009
▁edit	-15010
▁nana	-15011
▁sexy	-15012
▁upon	-15013
▁atlus	-15014
▁destr	-15015
▁eidos	-15016
▁horse	-15017
▁julie	-15018
▁latin	-15019
▁encycl	-15020
▁unesco	-15021
▁identity	-15022
▁presents	-15023
▁variable	-15024
▁commodore	-15025
▁artsvision	-15026
▁championships	-15027
486	-15028
oce	-15029
opy	-15030
▁hj	-15031
latz	-15032
uate	-15033
▁cim	-15034
▁lik	-15035
▁mab	-15036
ising	-15037
▁1169	-15038
▁1193	-15039
▁1339	-15040
▁1379	-15041
▁aids	-15042
▁bean	-15043
▁fiba	-15044
▁hern	-15045
▁sram	-15046
▁todd	-15047
▁35000	-15048
▁bible	-15049
▁click	-15050
▁incre	-15051
▁irish	-15052
▁should	-15053
▁angeles	-15054
▁approach	-15055
▁baseball	-15056
▁property	-15057
alt	-15058
nos	-15059
uya	-15060
▁rz	-15061
quet	-15062
▁cul	-15063
▁gnz	-15064
▁wis	-15065
▁1338	-15066
▁anat	-15067
▁does	-15068
▁hoff	-15069
▁maus	-15070
▁sinc	-15071
▁blanc	-15072
▁chaos	-15073
▁capcom	-15074
▁porter	-15075
▁resort	-15076
▁fiction	-15077
▁economics	-15078
169	-15079
404	-15080
ghz	-15081
sha	-15082
▁++	-15083
▁zb	-15084
aine	-15085
horn	-15086
iber	-15087
▁072	-15088
▁pch	-15089
▁vga	-15090
icles	-15091
▁amph	-15092
▁infl	-15093
▁tail	-15094
▁tale	-15095
▁those	-15096
▁trent	-15097
▁liquid	-15098
▁matter	-15099
▁postgr	-15100
▁affairs	-15101
▁frances	-15102
▁lovelyz	-15103
▁paradox	-15104
▁nacional	-15105
▁september	-15106
fi	-15107
603	-15108
▁jy	-15109
▁vx	-15110
athy	-15111
cont	-15112
rock	-15113
west	-15114
▁046	-15115
▁dlp	-15116
▁epr	-15117
▁kau	-15118
▁liz	-15119
▁tyr	-15120
▁1243	-15121
▁2047	-15122
▁intr	-15123
▁jake	-15124
▁pour	-15125
▁demon	-15126
isation	-15127
plement	-15128
▁adidas	-15129
▁angels	-15130
▁hughes	-15131
▁reason	-15132
132	-15133
162	-15134
law	-15135
uku	-15136
▁zi	-15137
aran	-15138
ipro	-15139
▁073	-15140
▁cac	-15141
▁doi	-15142
▁ech	-15143
▁gat	-15144
▁pcm	-15145
▁svg	-15146
fried	-15147
odont	-15148
▁1053	-15149
▁1222	-15150
▁2027	-15151
▁bard	-15152
▁load	-15153
▁nadp	-15154
▁raja	-15155
▁safe	-15156
▁bened	-15157
▁blast	-15158
▁gamep	-15159
▁isaac	-15160
▁subst	-15161
▁basket	-15162
▁berger	-15163
▁calvin	-15164
▁female	-15165
▁nicolas	-15166
▁ferdinand	-15167
365	-15168
esi	-15169
jin	-15170
▁hw	-15171
abil	-15172
atha	-15173
hold	-15174
lang	-15175
ulin	-15176
▁csl	-15177
▁hil	-15178
▁ktm	-15179
▁rug	-15180
▁sli	-15181
▁sme	-15182
▁1064	-15183
▁6200	-15184
▁aria	-15185
▁caus	-15186
▁hier	-15187
▁pray	-15188
▁sogo	-15189
▁till	-15190
▁vend	-15191
▁viva	-15192
schaft	-15193
▁ahmed	-15194
▁craft	-15195
▁cycle	-15196
▁molec	-15197
▁shish	-15198
▁teams	-15199
▁boston	-15200
▁cheung	-15201
▁marina	-15202
▁santos	-15203
▁sophie	-15204
▁circuit	-15205
▁investig	-15206
▁sullivan	-15207
▁blackberry	-15208
509	-15209
lax	-15210
ucc	-15211
eton	-15212
ivid	-15213
mbps	-15214
ocer	-15215
wind	-15216
▁cdc	-15217
▁lep	-15218
emann	-15219
verse	-15220
▁1057	-15221
▁1331	-15222
▁1353	-15223
▁icon	-15224
▁lich	-15225
▁ohio	-15226
▁semi	-15227
▁skin	-15228
▁omega	-15229
▁panzer	-15230
▁sistar	-15231
▁haskell	-15232
▁stories	-15233
261	-15234
508	-15235
iak	-15236
▁yi	-15237
ayan	-15238
pace	-15239
▁ged	-15240
▁gum	-15241
▁mao	-15242
▁ont	-15243
illus	-15244
osaic	-15245
▁1031	-15246
▁1092	-15247
▁1423	-15248
▁abra	-15249
▁dere	-15250
▁joel	-15251
▁lect	-15252
▁stard	-15253
▁troub	-15254
▁duncan	-15255
▁franco	-15256
▁marion	-15257
▁address	-15258
▁borland	-15259
▁openbsd	-15260
▁constitution	-15261
hk	-15262
146	-15263
iku	-15264
mos	-15265
udi	-15266
▁xs	-15267
▁73%	-15268
▁ais	-15269
▁lub	-15270
▁sbd	-15271
▁urs	-15272
rahim	-15273
▁1188	-15274
▁bene	-15275
▁dens	-15276
▁hiro	-15277
▁defin	-15278
▁hands	-15279
▁janet	-15280
▁wrest	-15281
▁vmware	-15282
▁officer	-15283
▁scandal	-15284
▁mercedes	-15285
▁programme	-15286
fy	-15287
157	-15288
arte	-15289
ilar	-15290
oire	-15291
ouri	-15292
▁061	-15293
▁066	-15294
▁boh	-15295
▁git	-15296
▁kod	-15297
▁omn	-15298
▁rov	-15299
▁tav	-15300
▁1033	-15301
▁1316	-15302
▁1319	-15303
▁1332	-15304
▁date	-15305
▁febr	-15306
▁homo	-15307
▁pter	-15308
▁rena	-15309
▁naval	-15310
▁killer	-15311
▁bennett	-15312
▁frequency	-15313
▁scientific	-15314
152	-15315
304	-15316
core	-15317
▁038	-15318
▁ecc	-15319
▁els	-15320
▁gmt	-15321
▁loh	-15322
▁ust	-15323
▁wen	-15324
chaft	-15325
elius	-15326
▁1052	-15327
▁1061	-15328
▁1306	-15329
▁biow	-15330
▁enix	-15331
▁mash	-15332
▁pend	-15333
▁xeon	-15334
▁lover	-15335
▁neuro	-15336
▁piano	-15337
▁bleach	-15338
▁compon	-15339
▁create	-15340
▁genius	-15341
▁glados	-15342
▁nissan	-15343
▁palais	-15344
▁rising	-15345
▁busters	-15346
▁january	-15347
▁perform	-15348
lb	-15349
rp	-15350
uw	-15351
145	-15352
bul	-15353
▁jg	-15354
▁mq	-15355
aire	-15356
arum	-15357
ithe	-15358
▁021	-15359
▁043	-15360
▁69%	-15361
▁bau	-15362
▁cip	-15363
▁gpa	-15364
▁kis	-15365
▁ola	-15366
aling	-15367
▁1022	-15368
▁1079	-15369
▁1149	-15370
▁1343	-15371
▁2028	-15372
▁luna	-15373
▁oppo	-15374
▁pony	-15375
▁swim	-15376
▁denis	-15377
▁deter	-15378
▁butler	-15379
▁rabbit	-15380
▁verycd	-15381
ographic	-15382
▁governor	-15383
yi	-15384
167	-15385
184	-15386
run	-15387
say	-15388
achi	-15389
alli	-15390
arus	-15391
inos	-15392
obar	-15393
wire	-15394
zone	-15395
▁ong	-15396
▁sau	-15397
▁smo	-15398
▁sue	-15399
▁sys	-15400
angle	-15401
brain	-15402
ively	-15403
uston	-15404
▁fail	-15405
▁reve	-15406
▁sons	-15407
▁teng	-15408
▁void	-15409
opedia	-15410
▁lance	-15411
▁pharm	-15412
▁thorn	-15413
▁compan	-15414
▁nicola	-15415
▁cartoon	-15416
▁horizon	-15417
▁indiana	-15418
▁spirits	-15419
▁verilog	-15420
▁workshop	-15421
192	-15422
238	-15423
aze	-15424
ele	-15425
lov	-15426
xxx	-15427
alie	-15428
▁034	-15429
▁097	-15430
▁gel	-15431
▁iia	-15432
▁thi	-15433
astic	-15434
lette	-15435
▁1021	-15436
▁1026	-15437
▁1304	-15438
▁2048	-15439
▁4100	-15440
▁diva	-15441
▁gprs	-15442
▁grim	-15443
▁hous	-15444
▁milk	-15445
▁opus	-15446
▁proc	-15447
dragon	-15448
▁algor	-15449
▁cause	-15450
▁false	-15451
▁grass	-15452
▁demand	-15453
▁impact	-15454
▁lights	-15455
▁thread	-15456
▁admiral	-15457
▁allison	-15458
▁andreas	-15459
▁rolling	-15460
▁sequence	-15461
▁treasure	-15462
▁associates	-15463
708	-15464
omp	-15465
rag	-15466
rog	-15467
▁zk	-15468
ging	-15469
orre	-15470
rail	-15471
▁auf	-15472
▁osi	-15473
▁sah	-15474
▁tpp	-15475
edded	-15476
▁1105	-15477
▁1383	-15478
▁fame	-15479
▁gare	-15480
▁luck	-15481
▁zoom	-15482
▁plane	-15483
▁seine	-15484
▁stick	-15485
▁accept	-15486
▁werner	-15487
▁bioware	-15488
▁gateway	-15489
▁holland	-15490
▁lisieux	-15491
▁historical	-15492
▁competition	-15493
174	-15494
178	-15495
331	-15496
730	-15497
906	-15498
cos	-15499
ged	-15500
endi	-15501
▁078	-15502
▁dax	-15503
▁dvi	-15504
▁nez	-15505
▁noc	-15506
▁pcb	-15507
▁tut	-15508
aguar	-15509
ianus	-15510
known	-15511
uffle	-15512
▁1172	-15513
▁aaaa	-15514
▁bian	-15515
▁hear	-15516
▁joan	-15517
▁nipp	-15518
▁ntsb	-15519
▁spar	-15520
▁17000	-15521
▁mills	-15522
▁noble	-15523
▁marvel	-15524
▁reader	-15525
▁reform	-15526
▁string	-15527
▁masters	-15528
▁physics	-15529
▁picture	-15530
143	-15531
193	-15532
mura	-15533
▁096	-15534
▁099	-15535
▁bmi	-15536
▁tox	-15537
▁vio	-15538
▁zur	-15539
▁1342	-15540
▁golf	-15541
▁tool	-15542
▁vevo	-15543
▁alleg	-15544
▁bonus	-15545
▁casey	-15546
▁honda	-15547
▁leung	-15548
▁ordin	-15549
standing	-15550
▁bradley	-15551
▁mercury	-15552
▁december	-15553
▁illinois	-15554
▁institut	-15555
▁relation	-15556
▁response	-15557
▁vladimir	-15558
▁insurance	-15559
▁solutions	-15560
▁qualifying	-15561
009	-15562
gal	-15563
had	-15564
map	-15565
ases	-15566
atis	-15567
uman	-15568
▁071	-15569
▁gmp	-15570
▁lec	-15571
▁pup	-15572
▁voy	-15573
▁2758	-15574
▁chia	-15575
▁funk	-15576
▁kend	-15577
▁among	-15578
▁bryan	-15579
▁chair	-15580
▁favor	-15581
▁separ	-15582
▁realme	-15583
▁verdun	-15584
▁saunier	-15585
▁academic	-15586
242	-15587
mud	-15588
▁vg	-15589
isha	-15590
▁055	-15591
▁074	-15592
▁59%	-15593
▁igg	-15594
▁luk	-15595
arium	-15596
illac	-15597
mouth	-15598
shock	-15599
▁1036	-15600
▁1245	-15601
▁jojo	-15602
▁clean	-15603
▁indic	-15604
▁reach	-15605
▁tales	-15606
▁terra	-15607
▁clarke	-15608
▁fields	-15609
▁thomson	-15610
▁critical	-15611
▁scotland	-15612
▁democracy	-15613
cw	-15614
158	-15615
176	-15616
189	-15617
209	-15618
fil	-15619
gia	-15620
hev	-15621
lib	-15622
nan	-15623
iton	-15624
onde	-15625
onte	-15626
stre	-15627
▁023	-15628
▁047	-15629
▁dhl	-15630
▁msc	-15631
▁pah	-15632
▁sms	-15633
anton	-15634
vania	-15635
▁1164	-15636
▁1244	-15637
▁1354	-15638
▁dust	-15639
▁info	-15640
▁kota	-15641
▁lept	-15642
▁mons	-15643
▁pard	-15644
▁pine	-15645
▁send	-15646
▁sind	-15647
▁flick	-15648
▁inner	-15649
▁innoc	-15650
▁sanct	-15651
▁units	-15652
embourg	-15653
▁cancer	-15654
▁getchu	-15655
▁monica	-15656
▁norton	-15657
▁olivia	-15658
▁psycho	-15659
▁recogn	-15660
▁contain	-15661
▁desktop	-15662
▁dynamics	-15663
▁butterfly	-15664
▁translation	-15665
iw	-15666
179	-15667
370	-15668
fff	-15669
kal	-15670
▁036	-15671
▁alm	-15672
▁cfa	-15673
▁jvc	-15674
▁laf	-15675
▁lhc	-15676
▁sia	-15677
itzer	-15678
▁1007	-15679
▁1043	-15680
▁chow	-15681
▁nina	-15682
▁prob	-15683
asonic	-15684
▁rules	-15685
▁hypert	-15686
▁langon	-15687
▁maggie	-15688
▁peters	-15689
▁package	-15690
▁equation	-15691
▁released	-15692
254	-15693
357	-15694
802	-15695
anz	-15696
gis	-15697
ugu	-15698
uzz	-15699
▁qw	-15700
▁yy	-15701
abet	-15702
▁062	-15703
▁71%	-15704
▁cio	-15705
▁cli	-15706
▁gag	-15707
▁hag	-15708
▁mtu	-15709
asaki	-15710
essel	-15711
ipper	-15712
▁door	-15713
▁nied	-15714
omorph	-15715
▁greek	-15716
▁linda	-15717
▁paint	-15718
▁jaguar	-15719
▁myself	-15720
▁schema	-15721
▁territ	-15722
▁antoine	-15723
▁schmidt	-15724
▁oriental	-15725
265	-15726
acc	-15727
coo	-15728
fta	-15729
mac	-15730
the	-15731
▁gq	-15732
▁xr	-15733
code	-15734
fect	-15735
ithm	-15736
opro	-15737
ylus	-15738
▁032	-15739
▁095	-15740
▁76%	-15741
▁dud	-15742
▁dul	-15743
▁ell	-15744
▁svd	-15745
arius	-15746
rical	-15747
▁1305	-15748
▁6100	-15749
▁caps	-15750
▁ciel	-15751
▁maya	-15752
▁pula	-15753
▁voip	-15754
▁canyon	-15755
▁edmund	-15756
▁mosaic	-15757
▁palmer	-15758
▁phosph	-15759
▁weekly	-15760
▁weather	-15761
▁heritage	-15762
▁railroad	-15763
▁chemistry	-15764
402	-15765
480	-15766
arr	-15767
reg	-15768
gers	-15769
lier	-15770
▁ira	-15771
▁lng	-15772
▁rst	-15773
▁tud	-15774
acker	-15775
amine	-15776
radar	-15777
▁2150	-15778
▁auch	-15779
▁brew	-15780
▁came	-15781
▁eden	-15782
▁gaba	-15783
▁grac	-15784
▁hast	-15785
▁pool	-15786
▁heath	-15787
▁lines	-15788
▁everyd	-15789
▁kaiser	-15790
▁lonely	-15791
▁yamaha	-15792
▁october	-15793
▁restaur	-15794
▁wallace	-15795
▁wonderful	-15796
▁integrated	-15797
tn	-15798
hor	-15799
▁bv	-15800
▁wd	-15801
onso	-15802
ulum	-15803
▁apr	-15804
▁cms	-15805
▁eup	-15806
▁hst	-15807
▁lup	-15808
▁sek	-15809
▁shi	-15810
ufact	-15811
▁9500	-15812
▁casa	-15813
▁fold	-15814
▁gddr	-15815
▁navy	-15816
▁norm	-15817
▁temp	-15818
▁abbey	-15819
▁pepper	-15820
▁alberto	-15821
▁passion	-15822
▁carolina	-15823
▁truetype	-15824
▁snapdragon	-15825
pf	-15826
280	-15827
ieh	-15828
roe	-15829
sma	-15830
teo	-15831
uns	-15832
▁uw	-15833
odus	-15834
▁049	-15835
▁agn	-15836
▁bry	-15837
▁ctr	-15838
▁gtx	-15839
▁isu	-15840
▁ket	-15841
▁zun	-15842
recht	-15843
▁1321	-15844
▁1334	-15845
▁6700	-15846
▁dale	-15847
▁gior	-15848
▁ndez	-15849
▁soap	-15850
▁tune	-15851
master	-15852
▁buddh	-15853
▁ellen	-15854
▁fritz	-15855
▁glise	-15856
▁nitro	-15857
▁bailey	-15858
▁sounds	-15859
▁formosa	-15860
▁holding	-15861
▁leopard	-15862
▁elements	-15863
▁specific	-15864
▁katherine	-15865
▁panasonic	-15866
lc	-15867
mh	-15868
xa	-15869
232	-15870
458	-15871
▁hv	-15872
▁ym	-15873
ahan	-15874
idad	-15875
oder	-15876
uted	-15877
▁csp	-15878
▁dow	-15879
▁anci	-15880
▁kyle	-15881
▁mead	-15882
▁skyl	-15883
▁agric	-15884
▁bella	-15885
▁compi	-15886
▁jorge	-15887
▁legal	-15888
▁namco	-15889
▁atomic	-15890
▁davies	-15891
▁patric	-15892
▁techno	-15893
▁terror	-15894
▁ibrahim	-15895
▁monitor	-15896
▁optical	-15897
▁theorem	-15898
▁magnetic	-15899
▁extension	-15900
▁democratic	-15901
▁soundtrack	-15902
sw	-15903
351	-15904
ffe	-15905
lio	-15906
oir	-15907
oop	-15908
oor	-15909
1200	-15910
2010	-15911
beat	-15912
enko	-15913
mans	-15914
ophy	-15915
rett	-15916
▁064	-15917
▁hla	-15918
▁ida	-15919
▁orn	-15920
▁rut	-15921
▁zoo	-15922
ijing	-15923
oplan	-15924
owitz	-15925
▁1317	-15926
▁spee	-15927
▁vide	-15928
▁amuse	-15929
▁bukit	-15930
▁wales	-15931
▁roland	-15932
▁rounds	-15933
▁twitch	-15934
▁wizard	-15935
▁carrier	-15936
▁birthday	-15937
▁manufact	-15938
▁missouri	-15939
▁including	-15940
▁nationale	-15941
▁associated	-15942
kr	-15943
186	-15944
259	-15945
266	-15946
905	-15947
loe	-15948
▁nz	-15949
▁bic	-15950
▁bts	-15951
▁cus	-15952
▁kul	-15953
▁mbk	-15954
▁pax	-15955
▁pes	-15956
ached	-15957
antha	-15958
ersch	-15959
ports	-15960
▁imac	-15961
▁ntsc	-15962
▁acfun	-15963
▁chrys	-15964
▁wowow	-15965
lington	-15966
▁aqours	-15967
▁selina	-15968
▁silent	-15969
▁grammar	-15970
▁acoustic	-15971
▁parallel	-15972
▁wireless	-15973
▁wolfgang	-15974
196	-15975
lea	-15976
comm	-15977
rine	-15978
▁apc	-15979
▁boo	-15980
▁fft	-15981
▁gle	-15982
▁kee	-15983
▁tis	-15984
▁wed	-15985
drive	-15986
▁uniq	-15987
▁diana	-15988
▁fever	-15989
▁bandai	-15990
▁chapel	-15991
▁client	-15992
▁stella	-15993
▁sungai	-15994
▁charter	-15995
▁shadows	-15996
▁kentucky	-15997
▁opentype	-15998
▁essential	-15999
▁winchester	-16000
▁observatory	-16001
▁temperature	-16002
333	-16003
gpp	-16004
onn	-16005
▁bx	-16006
▁eq	-16007
▁wt	-16008
0001	-16009
eric	-16010
etry	-16011
▁027	-16012
▁ett	-16013
▁fes	-16014
▁hai	-16015
▁kes	-16016
▁tia	-16017
▁1089	-16018
▁avai	-16019
▁bagn	-16020
▁bend	-16021
▁grub	-16022
▁kris	-16023
▁wien	-16024
strong	-16025
▁carry	-16026
▁jenny	-16027
▁jewel	-16028
▁noise	-16029
▁witch	-16030
▁barbus	-16031
▁kernel	-16032
▁majest	-16033
▁queens	-16034
▁abraham	-16035
▁phantom	-16036
▁chandler	-16037
▁memories	-16038
▁mohammad	-16039
605	-16040
606	-16041
608	-16042
ccc	-16043
weg	-16044
atin	-16045
pton	-16046
uver	-16047
▁coe	-16048
▁leh	-16049
▁ley	-16050
▁mec	-16051
▁nil	-16052
▁yas	-16053
▁1058	-16054
▁8800	-16055
▁haus	-16056
▁jing	-16057
▁marg	-16058
▁pico	-16059
▁role	-16060
▁tube	-16061
▁besan	-16062
▁bless	-16063
▁jamie	-16064
▁joyce	-16065
▁manif	-16066
▁tools	-16067
imental	-16068
▁murphy	-16069
▁toyota	-16070
▁troyes	-16071
▁leopold	-16072
▁resources	-16073
▁wordpress	-16074
jar	-16075
olt	-16076
arta	-16077
avan	-16078
ched	-16079
iong	-16080
ondo	-16081
ushi	-16082
▁atf	-16083
▁epa	-16084
▁gul	-16085
▁kud	-16086
▁osp	-16087
▁psa	-16088
▁tie	-16089
attan	-16090
etics	-16091
stock	-16092
▁2250	-16093
▁bint	-16094
▁dhcp	-16095
▁mina	-16096
▁mith	-16097
▁nash	-16098
▁sets	-16099
▁adapt	-16100
▁chlor	-16101
▁estab	-16102
▁pilot	-16103
▁teddy	-16104
▁write	-16105
▁100000	-16106
▁charge	-16107
▁cnblue	-16108
▁delphi	-16109
▁desire	-16110
▁libert	-16111
▁webkit	-16112
▁brandon	-16113
▁playing	-16114
▁reading	-16115
▁schwarz	-16116
▁stevens	-16117
▁regiment	-16118
▁marketing	-16119
▁intelligent	-16120
gf	-16121
142	-16122
eye	-16123
oso	-16124
oux	-16125
▁ux	-16126
elis	-16127
most	-16128
nine	-16129
ococ	-16130
show	-16131
▁042	-16132
▁coo	-16133
▁gai	-16134
▁lop	-16135
▁nxt	-16136
ically	-16137
▁annie	-16138
▁blind	-16139
▁cache	-16140
▁names	-16141
▁redmi	-16142
▁tears	-16143
▁trick	-16144
▁gainax	-16145
▁kepler	-16146
▁artists	-16147
▁lieuten	-16148
▁regular	-16149
▁shuffle	-16150
▁agricult	-16151
▁philosophy	-16152
008	-16153
182	-16154
251	-16155
344	-16156
358	-16157
502	-16158
505	-16159
hat	-16160
oyd	-16161
1917	-16162
cott	-16163
main	-16164
oble	-16165
▁058	-16166
▁jed	-16167
▁rai	-16168
▁rox	-16169
▁zap	-16170
▁1082	-16171
▁1091	-16172
▁abba	-16173
▁aber	-16174
▁alma	-16175
▁apol	-16176
▁fork	-16177
▁gimp	-16178
▁herz	-16179
▁lynn	-16180
▁mend	-16181
▁rust	-16182
▁jakob	-16183
▁knock	-16184
▁sarre	-16185
issance	-16186
▁heroes	-16187
▁length	-16188
▁linked	-16189
▁destroy	-16190
▁effects	-16191
▁individ	-16192
▁shirley	-16193
▁dualshock	-16194
198	-16195
288	-16196
ffy	-16197
ijn	-16198
vas	-16199
▁vz	-16200
ener	-16201
ffff	-16202
iate	-16203
iere	-16204
ismo	-16205
oron	-16206
rice	-16207
rill	-16208
▁026	-16209
▁088	-16210
▁agb	-16211
▁bsp	-16212
▁crt	-16213
▁psl	-16214
▁sto	-16215
▁tft	-16216
▁til	-16217
▁badm	-16218
▁chop	-16219
▁diet	-16220
▁gree	-16221
▁iast	-16222
▁lala	-16223
▁purp	-16224
▁issue	-16225
▁jules	-16226
▁nigel	-16227
▁swiss	-16228
▁tibet	-16229
▁crisis	-16230
▁vernon	-16231
▁evening	-16232
▁gamespy	-16233
▁initial	-16234
▁reserve	-16235
▁woollim	-16236
▁michigan	-16237
▁worldwide	-16238
▁instrument	-16239
▁environmental	-16240
kk	-16241
nc	-16242
144	-16243
236	-16244
erc	-16245
hes	-16246
lys	-16247
upt	-16248
▁qi	-16249
atum	-16250
gart	-16251
name	-16252
ongo	-16253
udio	-16254
▁033	-16255
▁045	-16256
▁beg	-16257
▁2049	-16258
▁koch	-16259
▁mits	-16260
▁pern	-16261
▁reyn	-16262
▁scor	-16263
ention	-16264
▁allan	-16265
▁amber	-16266
▁draft	-16267
▁links	-16268
▁toshi	-16269
▁chance	-16270
▁herman	-16271
▁italia	-16272
▁twenty	-16273
▁usenet	-16274
▁airways	-16275
▁storage	-16276
▁distance	-16277
▁relative	-16278
▁alexandra	-16279
▁introduction	-16280
aq	-16281
154	-16282
225	-16283
239	-16284
arp	-16285
kat	-16286
▁oe	-16287
▁zw	-16288
gypt	-16289
ilon	-16290
▁084	-16291
▁091	-16292
▁098	-16293
▁agp	-16294
▁eat	-16295
▁jia	-16296
▁kow	-16297
▁mei	-16298
▁oth	-16299
▁ree	-16300
▁sdf	-16301
▁taw	-16302
media	-16303
▁chol	-16304
▁diss	-16305
▁larg	-16306
▁peer	-16307
▁60000	-16308
▁aless	-16309
▁bring	-16310
▁elvis	-16311
▁fairy	-16312
▁scene	-16313
▁seoul	-16314
▁spike	-16315
▁whole	-16316
▁compar	-16317
▁decade	-16318
▁examin	-16319
▁prison	-16320
▁scream	-16321
▁consort	-16322
▁edwards	-16323
▁numbers	-16324
▁similar	-16325
▁automatic	-16326
▁happiness	-16327
403	-16328
406	-16329
604	-16330
ahu	-16331
achy	-16332
ploy	-16333
▁jsp	-16334
▁nev	-16335
▁sai	-16336
▁vix	-16337
ifier	-16338
▁cruz	-16339
▁meta	-16340
▁niel	-16341
▁tall	-16342
▁dirty	-16343
▁kitch	-16344
▁morph	-16345
▁until	-16346
▁montana	-16347
▁fantasia	-16348
▁connection	-16349
▁lieutenant	-16350
asv	-16351
cmg	-16352
icia	-16353
iffe	-16354
imer	-16355
oman	-16356
xton	-16357
▁079	-16358
▁081	-16359
▁arb	-16360
▁hbl	-16361
▁mum	-16362
▁sce	-16363
▁tms	-16364
quest	-16365
▁bras	-16366
▁brow	-16367
▁coal	-16368
▁gale	-16369
▁glas	-16370
▁ware	-16371
▁yuen	-16372
willer	-16373
▁bibli	-16374
▁equip	-16375
▁jelly	-16376
▁schne	-16377
roliner	-16378
▁barnes	-16379
▁keroro	-16380
▁magnus	-16381
▁applied	-16382
▁capitol	-16383
▁pierrot	-16384
▁several	-16385
▁february	-16386
▁interest	-16387
▁multiple	-16388
▁shishamo	-16389
▁contemporary	-16390
171	-16391
355	-16392
loo	-16393
tml	-16394
erto	-16395
rand	-16396
▁083	-16397
▁bwv	-16398
▁lal	-16399
▁paw	-16400
▁piz	-16401
▁une	-16402
▁vos	-16403
▁yar	-16404
izing	-16405
leton	-16406
▁done	-16407
▁herm	-16408
▁impl	-16409
▁myth	-16410
▁spex	-16411
▁trac	-16412
▁yoho	-16413
ershot	-16414
▁damon	-16415
▁edgar	-16416
▁exhib	-16417
▁grove	-16418
▁pages	-16419
ylvania	-16420
▁falcom	-16421
▁lancer	-16422
▁plasma	-16423
▁tennis	-16424
▁cluster	-16425
▁feature	-16426
▁whitney	-16427
▁everyday	-16428
▁madhouse	-16429
▁postgres	-16430
▁armstrong	-16431
▁badminton	-16432
▁carpenter	-16433
▁processing	-16434
▁richardson	-16435
cn	-16436
488	-16437
oba	-16438
shi	-16439
▁wg	-16440
bold	-16441
file	-16442
imal	-16443
tron	-16444
▁hig	-16445
▁hof	-16446
▁koi	-16447
▁kry	-16448
asser	-16449
elles	-16450
ornis	-16451
▁1249	-16452
▁aacs	-16453
▁audi	-16454
▁laws	-16455
▁mare	-16456
▁mell	-16457
▁phyl	-16458
▁rfid	-16459
▁sach	-16460
▁yard	-16461
▁algol	-16462
▁apink	-16463
▁lands	-16464
▁lives	-16465
▁natur	-16466
▁holmes	-16467
▁matlab	-16468
▁britain	-16469
▁clement	-16470
▁maxwell	-16471
▁walking	-16472
▁commerce	-16473
▁spectrum	-16474
▁directory	-16475
194	-16476
223	-16477
309	-16478
eus	-16479
ocl	-16480
see	-16481
2500	-16482
anet	-16483
elot	-16484
hail	-16485
mune	-16486
ocks	-16487
pool	-16488
quar	-16489
ulty	-16490
walk	-16491
▁063	-16492
▁cay	-16493
▁dao	-16494
▁ink	-16495
▁jct	-16496
▁orc	-16497
▁tad	-16498
▁uml	-16499
sters	-16500
▁2033	-16501
▁chau	-16502
▁item	-16503
▁kerr	-16504
▁koda	-16505
▁nadh	-16506
▁stur	-16507
▁vamp	-16508
ements	-16509
ousand	-16510
▁except	-16511
▁magnum	-16512
▁rudolf	-16513
▁burning	-16514
▁chaumont	-16515
bm	-16516
172	-16517
gom	-16518
uti	-16519
vor	-16520
ogon	-16521
rant	-16522
▁069	-16523
▁adp	-16524
▁chn	-16525
▁gos	-16526
▁sou	-16527
▁xav	-16528
ogram	-16529
▁axis	-16530
▁lass	-16531
▁lenn	-16532
▁porn	-16533
ellite	-16534
kinson	-16535
▁feder	-16536
▁config	-16537
▁credit	-16538
▁events	-16539
▁israel	-16540
▁request	-16541
▁romance	-16542
▁springs	-16543
▁wonders	-16544
▁thousand	-16545
141	-16546
eor	-16547
baum	-16548
borg	-16549
girl	-16550
olds	-16551
omat	-16552
▁fay	-16553
▁hok	-16554
▁hul	-16555
▁kah	-16556
▁mhc	-16557
icity	-16558
video	-16559
▁apps	-16560
▁bold	-16561
▁byte	-16562
▁canc	-16563
▁dior	-16564
▁glay	-16565
▁maps	-16566
▁thre	-16567
▁tier	-16568
▁adolf	-16569
▁apost	-16570
▁brack	-16571
▁derek	-16572
▁dutch	-16573
▁limit	-16574
▁oasis	-16575
▁speak	-16576
▁gentle	-16577
▁gloria	-16578
▁baptist	-16579
▁beijing	-16580
▁cameron	-16581
▁millenn	-16582
▁promise	-16583
▁basketball	-16584
▁mathematica	-16585
285	-16586
356	-16587
407	-16588
455	-16589
lew	-16590
atsu	-16591
elyn	-16592
esto	-16593
gren	-16594
opia	-16595
▁aik	-16596
▁aix	-16597
idium	-16598
keley	-16599
▁aeon	-16600
▁crew	-16601
▁dion	-16602
▁goto	-16603
▁wick	-16604
▁chong	-16605
▁civic	-16606
▁daisy	-16607
▁drink	-16608
▁emper	-16609
▁tempo	-16610
▁unter	-16611
▁wheel	-16612
▁wille	-16613
▁formos	-16614
▁produc	-16615
▁remote	-16616
▁secure	-16617
▁chicken	-16618
▁defence	-16619
▁edonkey	-16620
▁fortune	-16621
▁position	-16622
▁classical	-16623
▁centroliner	-16624
187	-16625
287	-16626
602	-16627
inx	-16628
joy	-16629
lev	-16630
amax	-16631
atra	-16632
eeee	-16633
ound	-16634
ylon	-16635
▁cpr	-16636
▁gew	-16637
▁ler	-16638
▁lug	-16639
▁tao	-16640
▁tik	-16641
▁yao	-16642
▁budd	-16643
▁gulf	-16644
▁kann	-16645
▁kwok	-16646
▁levi	-16647
▁meas	-16648
▁thai	-16649
▁conse	-16650
▁costa	-16651
▁glenn	-16652
▁petro	-16653
▁trial	-16654
▁murder	-16655
▁carroll	-16656
▁provinc	-16657
▁wolfram	-16658
▁contract	-16659
295	-16660
dam	-16661
oha	-16662
zon	-16663
ilda	-16664
▁041	-16665
▁057	-16666
▁059	-16667
▁baa	-16668
▁biz	-16669
▁ecm	-16670
▁fah	-16671
▁hos	-16672
endar	-16673
ither	-16674
▁1062	-16675
▁beng	-16676
▁held	-16677
▁lpga	-16678
▁siri	-16679
▁tiny	-16680
▁vega	-16681
▁vine	-16682
player	-16683
▁floyd	-16684
▁concord	-16685
▁regulat	-16686
▁stellar	-16687
▁disorder	-16688
▁ministry	-16689
▁monument	-16690
▁elementary	-16691
▁expression	-16692
anco	-16693
dorf	-16694
inct	-16695
phus	-16696
rics	-16697
▁077	-16698
▁082	-16699
▁boc	-16700
▁cai	-16701
▁dex	-16702
▁eia	-16703
▁hcl	-16704
▁ses	-16705
▁tse	-16706
▁txt	-16707
front	-16708
tranz	-16709
▁doll	-16710
▁lith	-16711
▁metz	-16712
▁nguy	-16713
▁noah	-16714
▁zion	-16715
escent	-16716
schule	-16717
▁cours	-16718
▁prima	-16719
▁amanda	-16720
▁fergus	-16721
▁powell	-16722
▁savage	-16723
▁adtranz	-16724
▁therapy	-16725
▁tiffany	-16726
▁verizon	-16727
▁geoffrey	-16728
▁junction	-16729
▁mohammed	-16730
▁montbard	-16731
▁patricia	-16732
▁elisabeth	-16733
▁synthesis	-16734
▁gamesradar	-16735
▁mathematics	-16736
270	-16737
276	-16738
375	-16739
bec	-16740
gor	-16741
jek	-16742
utz	-16743
▁zx	-16744
fare	-16745
fast	-16746
▁aic	-16747
▁foo	-16748
▁hui	-16749
▁ltp	-16750
▁rit	-16751
▁rng	-16752
▁rou	-16753
▁wpa	-16754
iling	-16755
▁1084	-16756
▁dhar	-16757
▁flip	-16758
▁hair	-16759
▁iowa	-16760
▁oecd	-16761
▁soon	-16762
▁coord	-16763
▁derby	-16764
▁exist	-16765
▁often	-16766
▁sight	-16767
▁uncle	-16768
▁weiss	-16769
▁whats	-16770
▁escape	-16771
▁nippon	-16772
▁pietro	-16773
▁zetima	-16774
▁fellows	-16775
▁houston	-16776
▁shannon	-16777
▁spexial	-16778
▁direction	-16779
▁enterbrain	-16780
▁initiative	-16781
▁institution	-16782
eo	-16783
210	-16784
457	-16785
atz	-16786
ech	-16787
eed	-16788
erno	-16789
hall	-16790
otes	-16791
uard	-16792
▁089	-16793
▁bid	-16794
▁naw	-16795
▁xsl	-16796
▁2046	-16797
▁7800	-16798
▁deal	-16799
▁dice	-16800
▁jumo	-16801
▁manh	-16802
▁puma	-16803
▁suit	-16804
▁witt	-16805
ingham	-16806
▁ellis	-16807
▁pablo	-16808
▁patri	-16809
▁punch	-16810
▁rider	-16811
▁taste	-16812
▁eeeeee	-16813
▁geomet	-16814
▁groove	-16815
▁kinect	-16816
▁propos	-16817
▁status	-16818
▁assault	-16819
▁newtype	-16820
▁berkeley	-16821
▁tactical	-16822
▁mediawiki	-16823
191	-16824
271	-16825
352	-16826
504	-16827
enk	-16828
iat	-16829
ceed	-16830
clus	-16831
sted	-16832
▁031	-16833
▁076	-16834
▁cvs	-16835
▁dac	-16836
▁dit	-16837
▁dms	-16838
▁jub	-16839
▁rpc	-16840
▁siv	-16841
▁snp	-16842
▁zan	-16843
encia	-16844
enses	-16845
heart	-16846
iston	-16847
▁bits	-16848
▁conv	-16849
▁hsbc	-16850
▁labs	-16851
▁slow	-16852
▁wwdc	-16853
▁22000	-16854
▁along	-16855
▁grade	-16856
▁meego	-16857
▁notre	-16858
▁ouest	-16859
▁stere	-16860
▁torre	-16861
▁worth	-16862
▁concep	-16863
▁darwin	-16864
▁jensen	-16865
▁ancient	-16866
▁indones	-16867
▁microsd	-16868
ellschaft	-16869
▁pleasure	-16870
▁question	-16871
▁scottish	-16872
▁cherbourg	-16873
▁electronics	-16874
pb	-16875
284	-16876
409	-16877
855	-16878
udo	-16879
uls	-16880
▁qa	-16881
boys	-16882
lash	-16883
mind	-16884
ogne	-16885
oint	-16886
▁atx	-16887
▁dah	-16888
▁sop	-16889
ensor	-16890
uctor	-16891
▁aclu	-16892
▁dors	-16893
▁duch	-16894
▁lest	-16895
▁nist	-16896
▁ogle	-16897
▁omar	-16898
▁prev	-16899
▁risk	-16900
▁sank	-16901
▁globe	-16902
▁liver	-16903
▁sampa	-16904
▁albums	-16905
▁ashley	-16906
▁binary	-16907
▁bottom	-16908
▁desert	-16909
▁expans	-16910
▁konami	-16911
▁margin	-16912
▁marian	-16913
▁bedford	-16914
▁session	-16915
▁fighting	-16916
▁strategic	-16917
nu	-16918
366	-16919
806	-16920
903	-16921
efi	-16922
mons	-16923
oven	-16924
▁086	-16925
▁hac	-16926
▁icu	-16927
▁ski	-16928
▁ttl	-16929
▁wak	-16930
▁wrx	-16931
ascar	-16932
ibada	-16933
▁8086	-16934
▁defe	-16935
▁dent	-16936
▁polo	-16937
▁poor	-16938
▁tres	-16939
▁zach	-16940
estyle	-16941
▁clann	-16942
▁radar	-16943
▁slash	-16944
▁types	-16945
▁wendy	-16946
▁chanel	-16947
▁leader	-16948
▁output	-16949
▁parade	-16950
▁radical	-16951
▁principle	-16952
▁individual	-16953
▁encyclopedia	-16954
153	-16955
246	-16956
269	-16957
416	-16958
702	-16959
706	-16960
tax	-16961
▁fv	-16962
crib	-16963
wser	-16964
▁aab	-16965
▁ack	-16966
▁crc	-16967
▁dil	-16968
▁emo	-16969
▁osm	-16970
▁ssg	-16971
▁zar	-16972
ennes	-16973
teron	-16974
▁4900	-16975
▁braz	-16976
▁mbps	-16977
▁phon	-16978
▁symp	-16979
▁ying	-16980
phalus	-16981
▁penns	-16982
▁ratio	-16983
▁dollar	-16984
▁receptor	-16985
▁resource	-16986
▁whatsapp	-16987
▁equipment	-16988
▁sourceforge	-16989
▁thunderbird	-16990
▁transportation	-16991
yk	-16992
dma	-16993
eti	-16994
far	-16995
hin	-16996
jee	-16997
mec	-16998
ohn	-16999
chia	-17000
feed	-17001
lord	-17002
oris	-17003
rico	-17004
▁ish	-17005
▁ivy	-17006
▁lms	-17007
▁miz	-17008
▁obl	-17009
▁ruf	-17010
▁tna	-17011
▁vig	-17012
▁este	-17013
▁kane	-17014
▁sten	-17015
▁went	-17016
inator	-17017
▁gucci	-17018
▁maint	-17019
▁roche	-17020
▁brooks	-17021
▁flickr	-17022
▁parish	-17023
▁summit	-17024
▁harbour	-17025
▁lorenzo	-17026
▁champions	-17027
▁christine	-17028
▁lightning	-17029
▁smalltalk	-17030
jd	-17031
705	-17032
ijk	-17033
zia	-17034
▁jl	-17035
▁lw	-17036
▁xz	-17037
acha	-17038
erne	-17039
fest	-17040
phin	-17041
unge	-17042
▁79%	-17043
▁acs	-17044
▁bpm	-17045
▁dfa	-17046
▁nia	-17047
▁scb	-17048
▁sik	-17049
inkle	-17050
onder	-17051
ovsky	-17052
▁7400	-17053
▁8300	-17054
▁carm	-17055
▁hess	-17056
▁sana	-17057
schild	-17058
▁80000	-17059
▁absol	-17060
▁avran	-17061
▁boris	-17062
▁brass	-17063
▁reven	-17064
▁vegas	-17065
version	-17066
▁aurora	-17067
▁hidden	-17068
▁wesley	-17069
________	-17070
▁conduct	-17071
▁gardens	-17072
▁related	-17073
▁positive	-17074
▁powerpoint	-17075
▁restaurant	-17076
▁applications	-17077
653	-17078
lak	-17079
lic	-17080
▁xu	-17081
illi	-17082
inem	-17083
▁ams	-17084
▁ecu	-17085
▁edm	-17086
▁hes	-17087
▁ibf	-17088
▁lys	-17089
▁pvp	-17090
▁seo	-17091
▁ucc	-17092
▁uic	-17093
▁zfc	-17094
aller	-17095
asing	-17096
guard	-17097
insky	-17098
maker	-17099
place	-17100
ridge	-17101
▁bret	-17102
▁doom	-17103
▁finn	-17104
▁hawk	-17105
▁mime	-17106
▁mora	-17107
▁pere	-17108
▁sync	-17109
▁wear	-17110
▁zico	-17111
▁blair	-17112
▁bunny	-17113
▁irene	-17114
▁mausu	-17115
▁prior	-17116
▁apollo	-17117
▁connor	-17118
▁speech	-17119
▁griffin	-17120
▁consider	-17121
▁midnight	-17122
▁morrison	-17123
▁innovation	-17124
173	-17125
183	-17126
296	-17127
359	-17128
agi	-17129
opt	-17130
pha	-17131
qua	-17132
▁cq	-17133
anes	-17134
kbps	-17135
otus	-17136
sons	-17137
▁094	-17138
▁fog	-17139
▁nie	-17140
▁wap	-17141
▁zak	-17142
block	-17143
kirch	-17144
▁1051	-17145
▁2160	-17146
▁anno	-17147
▁fuse	-17148
▁goss	-17149
▁hann	-17150
▁mord	-17151
▁crush	-17152
▁guild	-17153
▁liber	-17154
▁across	-17155
▁answer	-17156
▁kotaku	-17157
▁module	-17158
▁nights	-17159
▁purple	-17160
▁bigorre	-17161
▁clannad	-17162
▁madonna	-17163
▁unknown	-17164
▁zealand	-17165
▁behavior	-17166
▁jefferson	-17167
▁manchester	-17168
cu	-17169
wu	-17170
163	-17171
181	-17172
368	-17173
465	-17174
abo	-17175
arh	-17176
itr	-17177
ped	-17178
pse	-17179
wen	-17180
▁iy	-17181
colm	-17182
iami	-17183
omyc	-17184
▁alv	-17185
▁dcc	-17186
▁kdl	-17187
▁msm	-17188
▁nis	-17189
▁nun	-17190
▁rae	-17191
▁sym	-17192
▁tos	-17193
▁wad	-17194
crete	-17195
ignan	-17196
ption	-17197
ulate	-17198
▁alth	-17199
▁berk	-17200
▁dana	-17201
▁ding	-17202
▁lens	-17203
▁mori	-17204
▁zeta	-17205
hausen	-17206
imedia	-17207
▁buddy	-17208
▁gates	-17209
▁merry	-17210
▁novel	-17211
▁marsan	-17212
▁rivers	-17213
▁transm	-17214
▁consult	-17215
▁florida	-17216
▁phillip	-17217
▁descript	-17218
▁richmond	-17219
▁township	-17220
▁avranches	-17221
▁powershot	-17222
▁postgresql	-17223
▁resistance	-17224
475	-17225
fre	-17226
ipa	-17227
ych	-17228
opal	-17229
thor	-17230
▁087	-17231
▁ani	-17232
▁fet	-17233
▁ipc	-17234
▁kha	-17235
▁mgm	-17236
▁yee	-17237
ilian	-17238
umann	-17239
uttle	-17240
▁2060	-17241
▁boat	-17242
▁mixt	-17243
▁oled	-17244
▁rage	-17245
▁uefi	-17246
▁viol	-17247
ughter	-17248
utical	-17249
ymetal	-17250
▁allow	-17251
▁angle	-17252
▁boost	-17253
▁gecko	-17254
▁orbit	-17255
▁quake	-17256
▁rotem	-17257
▁sabah	-17258
▁angelo	-17259
▁lovers	-17260
▁meteor	-17261
▁mojang	-17262
▁nicole	-17263
▁nogent	-17264
▁economy	-17265
▁gravity	-17266
▁langres	-17267
▁malcolm	-17268
▁mirande	-17269
▁rosetta	-17270
▁theodor	-17271
▁polytech	-17272
▁soribada	-17273
289	-17274
777	-17275
bak	-17276
rax	-17277
tar	-17278
▁mz	-17279
1897	-17280
2001	-17281
aeus	-17282
aint	-17283
eces	-17284
hart	-17285
▁cic	-17286
▁kaf	-17287
▁nup	-17288
▁ska	-17289
▁zig	-17290
▁3001	-17291
▁7600	-17292
▁evol	-17293
▁herr	-17294
▁hund	-17295
▁lamp	-17296
▁leuc	-17297
▁loen	-17298
▁nate	-17299
▁ofdm	-17300
▁rode	-17301
▁seth	-17302
▁smrt	-17303
▁spas	-17304
▁wire	-17305
▁blitz	-17306
▁choco	-17307
▁europ	-17308
▁recon	-17309
▁annual	-17310
▁conrad	-17311
▁monday	-17312
▁weapon	-17313
▁missing	-17314
▁opteron	-17315
▁darkness	-17316
▁theodore	-17317
▁babymetal	-17318
▁materials	-17319
▁satellite	-17320
▁literature	-17321
▁resolution	-17322
▁pennsylvania	-17323
235	-17324
244	-17325
273	-17326
377	-17327
gra	-17328
▁oa	-17329
4000	-17330
eaux	-17331
ento	-17332
eper	-17333
fall	-17334
imon	-17335
inth	-17336
isto	-17337
mule	-17338
▁aia	-17339
▁bej	-17340
▁dmc	-17341
▁dok	-17342
▁dts	-17343
▁edg	-17344
▁nus	-17345
▁tlc	-17346
ersey	-17347
etric	-17348
group	-17349
▁7300	-17350
▁alta	-17351
▁avro	-17352
▁eval	-17353
▁hala	-17354
▁hole	-17355
▁kumi	-17356
▁leap	-17357
▁mens	-17358
▁musa	-17359
▁sage	-17360
▁tone	-17361
▁turt	-17362
▁45000	-17363
▁banks	-17364
▁britt	-17365
▁chant	-17366
▁egypt	-17367
▁floor	-17368
▁melan	-17369
▁neway	-17370
▁trend	-17371
▁archae	-17372
▁forbes	-17373
▁motoro	-17374
▁singer	-17375
▁falling	-17376
▁statist	-17377
▁warrior	-17378
▁mapframe	-17379
258	-17380
275	-17381
282	-17382
fit	-17383
gle	-17384
▁jw	-17385
▁zd	-17386
ipes	-17387
ippi	-17388
list	-17389
▁alo	-17390
▁cly	-17391
▁diz	-17392
▁efi	-17393
▁img	-17394
▁kei	-17395
▁kev	-17396
attle	-17397
▁chad	-17398
▁pair	-17399
▁panc	-17400
▁rift	-17401
▁sale	-17402
▁arsen	-17403
▁ayumi	-17404
▁freak	-17405
▁moody	-17406
▁shake	-17407
▁volks	-17408
▁americ	-17409
▁deport	-17410
▁salins	-17411
▁contact	-17412
▁harmony	-17413
▁harvest	-17414
▁maximum	-17415
▁bernhard	-17416
▁intermed	-17417
▁problems	-17418
▁religion	-17419
▁shopping	-17420
▁dangerous	-17421
uj	-17422
urb	-17423
yne	-17424
▁kz	-17425
▁ql	-17426
▁zr	-17427
boot	-17428
lair	-17429
▁ags	-17430
▁ait	-17431
▁anc	-17432
▁asm	-17433
▁ave	-17434
▁gne	-17435
▁hoh	-17436
▁luv	-17437
▁pim	-17438
▁qew	-17439
▁zel	-17440
▁zer	-17441
enter	-17442
otten	-17443
ulata	-17444
▁2036	-17445
▁gift	-17446
▁miui	-17447
▁seal	-17448
▁slip	-17449
▁susp	-17450
▁tart	-17451
cement	-17452
ometer	-17453
▁comet	-17454
▁debut	-17455
▁dress	-17456
▁logan	-17457
▁phila	-17458
▁vreux	-17459
▁woods	-17460
▁bonnie	-17461
▁figure	-17462
▁irving	-17463
▁kansas	-17464
▁macrom	-17465
▁magdal	-17466
▁rafael	-17467
▁viktor	-17468
▁wagner	-17469
▁liberal	-17470
▁seasons	-17471
▁traffic	-17472
▁crawford	-17473
▁download	-17474
▁embedded	-17475
▁emmanuel	-17476
▁historic	-17477
▁motorola	-17478
▁pressure	-17479
▁continental	-17480
bir	-17481
uxe	-17482
alon	-17483
hand	-17484
idan	-17485
olan	-17486
otti	-17487
▁aek	-17488
▁eck	-17489
▁kwk	-17490
▁zis	-17491
iques	-17492
otive	-17493
▁9800	-17494
▁blow	-17495
▁hila	-17496
▁typh	-17497
▁vala	-17498
ischen	-17499
system	-17500
▁bravo	-17501
▁brett	-17502
▁chanc	-17503
▁entry	-17504
▁kuala	-17505
▁neigh	-17506
▁porta	-17507
▁randy	-17508
▁romeo	-17509
▁tumbl	-17510
▁infant	-17511
▁native	-17512
▁patrol	-17513
▁quadro	-17514
▁sidney	-17515
▁atlanta	-17516
▁chapman	-17517
▁concern	-17518
▁dorothy	-17519
▁emperor	-17520
▁imaging	-17521
▁determin	-17522
▁alexandre	-17523
▁important	-17524
▁standards	-17525
252	-17526
387	-17527
408	-17528
607	-17529
988	-17530
ioc	-17531
los	-17532
nor	-17533
▁uz	-17534
four	-17535
omed	-17536
shan	-17537
ylie	-17538
▁boe	-17539
▁cmg	-17540
▁ddt	-17541
▁erp	-17542
▁ils	-17543
▁lus	-17544
▁mug	-17545
▁slo	-17546
▁wig	-17547
erver	-17548
▁baob	-17549
▁dans	-17550
▁disp	-17551
▁graf	-17552
▁herc	-17553
▁lump	-17554
▁mara	-17555
▁punt	-17556
▁scen	-17557
▁turb	-17558
▁vivo	-17559
atives	-17560
▁advis	-17561
▁bulld	-17562
▁forms	-17563
▁frost	-17564
▁given	-17565
▁icoca	-17566
▁johor	-17567
▁paras	-17568
▁split	-17569
▁assess	-17570
▁marcel	-17571
▁reserv	-17572
▁brigade	-17573
▁bristol	-17574
▁harvard	-17575
▁respons	-17576
▁simpson	-17577
▁internal	-17578
▁practice	-17579
▁functions	-17580
▁treatment	-17581
▁wrestling	-17582
▁liberation	-17583
fz	-17584
378	-17585
907	-17586
raz	-17587
▁dq	-17588
▁hq	-17589
3100	-17590
oney	-17591
▁adj	-17592
▁mbt	-17593
▁ols	-17594
▁rpk	-17595
▁spd	-17596
basic	-17597
brand	-17598
raine	-17599
▁bung	-17600
▁cald	-17601
▁halo	-17602
▁nast	-17603
▁nero	-17604
▁tram	-17605
▁volt	-17606
▁benny	-17607
▁eugen	-17608
▁heinz	-17609
▁mixed	-17610
▁raven	-17611
▁ribon	-17612
▁satur	-17613
▁scout	-17614
▁sparc	-17615
▁curtis	-17616
▁ending	-17617
▁frankf	-17618
▁luther	-17619
▁sphere	-17620
▁activex	-17621
▁browser	-17622
▁dynasty	-17623
▁miracle	-17624
▁certific	-17625
▁stardust	-17626
▁beginning	-17627
234	-17628
277	-17629
395	-17630
399	-17631
chr	-17632
fps	-17633
▁eo	-17634
▁fy	-17635
▁wf	-17636
avia	-17637
ects	-17638
ovic	-17639
thal	-17640
▁kne	-17641
▁lfa	-17642
▁lid	-17643
▁ops	-17644
▁rtl	-17645
antin	-17646
archy	-17647
games	-17648
olens	-17649
▁cuda	-17650
▁drew	-17651
▁nept	-17652
▁syfy	-17653
▁thur	-17654
▁yeah	-17655
▁bever	-17656
▁curie	-17657
▁curry	-17658
▁miche	-17659
▁paolo	-17660
▁shape	-17661
▁baobab	-17662
▁fiesta	-17663
▁takara	-17664
▁teresa	-17665
▁deliver	-17666
▁greater	-17667
▁cyanogen	-17668
▁deadline	-17669
▁grenoble	-17670
▁politics	-17671
▁reflection	-17672
▁generations	-17673
js	-17674
298	-17675
993	-17676
tec	-17677
tur	-17678
1001	-17679
1500	-17680
iker	-17681
tale	-17682
unce	-17683
wehr	-17684
▁eds	-17685
▁eli	-17686
▁giv	-17687
▁itt	-17688
▁kav	-17689
▁nai	-17690
▁nen	-17691
▁nmr	-17692
▁xyz	-17693
▁yen	-17694
▁yum	-17695
annes	-17696
▁7100	-17697
▁chir	-17698
▁ecfa	-17699
▁lara	-17700
▁tina	-17701
▁alien	-17702
▁curve	-17703
▁eleph	-17704
▁prosp	-17705
▁rocky	-17706
▁tsing	-17707
[...]
