<pad>	0
<unk>	0
[CLS]	0
[SEP]	0
[MASK]	0
(	0
)	0
”	0
-	0
.	0
–	0
£	0
€	0
▁⿰	-0
⿰	-1
▁⿱	-2
⿱	-3
▁,	-4
⿱⿱	-5
勹丶	-6
▁。	-7
▁⿸	-8
▁⿰⿱	-9
⿰⿱	-10
⿱⿱	-11
▁⿱⿱	-12
⿸	-13
一八	-14
▁⿺	-15
▁⿻	-16
一口	-17
⿺	-18
▁1	-19
一龰	-20
幺芉	-21
▁、	-22
▁年	-23
⿱⿰	-24
特一八	-25
土寸	-26
㡏土	-27
⿻	-28
⿵	-29
一厶	-30
▁⿱⿰	-31
目八	-32
⿴	-33
▁⿵	-34
⿱⿰	-35
口口	-36
▁⿹	-37
口丨	-38
⿱⿴	-39
二丨	-40
十口	-41
日一	-42
▁2	-43
丁口	-44
▁一	-45
⿳	-46
𠘧又	-47
亠口	-48
人一	-49
⿰⿱⿱	-50
𠂇月	-51
▁⿳	-52
一人	-53
▁⿴	-54
一厶土	-55
一廾	-56
夂口	-57
⿰⿱	-58
人人	-59
口一	-60
⿱⿻	-61
𠁣𠃛	-62
亠丷	-63
戊𠃌	-64
⿹	-65
禾口	-66
一止	-67
丿𠃌	-68
龷八	-69
⿱⿻	-70
䬎彐	-71
一丁	-72
▁人	-73
㐅乂	-74
▁20	-75
乛亅	-76
甲一	-77
亠土	-78
▁月	-79
乀丿	-80
耂日	-81
囗玉	-82
二厶	-83
▁19	-84
▁⿰⿱⿱	-85
⺌日	-86
囗⺌日	-87
冂口	-88
八厶	-89
丿丿	-90
▁日	-91
土也	-92
⿹⿻	-93
凵丨	-94
一兀	-95
人⺀	-96
八刀	-97
厶口	-98
人丶	-99
⺌冖	-100
幺幺	-101
立口	-102
人一口	-103
⺊一	-104
凵丨凵	-105
䒑土	-106
一漹	-107
一大	-108
弓丨	-109
⺊口	-110
丷干	-111
▁⿱⿱⿱	-112
亻也	-113
立口阝	-114
特一八斤	-115
䒑自	-116
土厶	-117
𠂊冫	-118
▁以	-119
亠口小	-120
⺌冖口	-121
𠂉大	-122
𠂉母	-123
丶硴	-124
丨丨	-125
▁⿰⿸	-126
▁為	-127
日十	-128
夕口	-129
目儿	-130
⿱⿱⿱	-131
弓丨丿	-132
耳又	-133
⿳⿰	-134
乚丿	-135
▁⿱⿻	-136
亻乍	-137
止匕	-138
丿士	-139
立日	-140
冂一口	-141
口止	-142
⿶⿳⿰	-143
䬎彐一八	-144
一厶土刂	-145
夕夕	-146
力口	-147
土龰	-148
⿷	-149
一卜	-150
儿口	-151
⿱⿳	-152
▁:	-153
小丿	-154
亠父	-155
▁》	-156
▁《	-157
且一	-158
⿰⿸	-159
宀豕	-160
㧖匕	-161
宀八	-162
龶月	-163
亻立	-164
立朩	-165
㪭丿	-166
月刂	-167
𠂊小	-168
木木	-169
幺夂	-170
冫欠	-171
冖子	-172
衤皮	-173
干丷	-174
亠巾	-175
▁为	-176
丿丨	-177
口儿	-178
▁·	-179
囗大	-180
一心	-181
▁3	-182
甲一一	-183
一止攵	-184
⿱⿳	-185
人丨	-186
十罒	-187
十罒一心	-188
且一八	-189
由八	-190
▁201	-191
⺆冫	-192
𠃋丿	-193
𠃋丿人	-194
丿糸	-195
千口	-196
▁由	-197
䒑业	-198
宀㠯	-199
禾刂	-200
亠乂	-201
𠂊田	-202
丿尸	-203
廴聿	-204
𠂇巾	-205
冖車	-206
立朩斤	-207
▁「	-208
▁」	-209
亻弋	-210
宀女	-211
▁⿸⿸	-212
井一八	-213
▁⿶⿳⿰	-214
十口儿	-215
⿶⿱⿰	-216
䬎彐冖	-217
廿又	-218
白小	-219
⿲	-220
⿱⿰⿱	-221
𠂆一口	-222
囗呦	-223
子攵	-224
匕匕	-225
丿尸斤	-226
⿵⿰	-227
𠂆又	-228
▁也	-229
㐅乂子	-230
▁200	-231
一二	-232
日乚	-233
䒑土大	-234
日一寸	-235
匚㐅	-236
峴灬	-237
弋工	-238
▁⿱⿳	-239
歹刂	-240
覀女	-241
▁“	-242
士口	-243
人丶龴	-244
土口	-245
▁自	-246
亻寸	-247
蟽寸	-248
▁⿰⿳	-249
爫冖	-250
冖巾	-251
▁⿲	-252
木目	-253
耂子攵	-254
▁⿵⿵	-255
日寸	-256
冂卄	-257
⿵⿵	-258
亠丷一	-259
扌立	-260
⿳𭕄	-261
揗一	-262
▁⿺⿱	-263
口八	-264
口王	-265
▁4	-266
王里	-267
▁⿵⿰	-268
龶𧘇	-269
日月	-270
夕卜	-271
櫵一	-272
人王	-273
丶葭	-274
特一八月	-275
尢丶	-276
コ一	-277
冂刂	-278
牛冂刂	-279
禾斗	-280
王求	-281
⿸⿸	-282
▁5	-283
亻吏	-284
一口田	-285
▁;	-286
𠂒儿	-287
勹巳	-288
忄生	-289
丷八	-290
𠂊田灬	-291
冖车	-292
女攵	-293
▁及	-294
⿺⿱	-295
立十	-296
一由八	-297
十又	-298
㪭一	-299
耂日阝	-300
一巛	-301
一巛工	-302
▁⿱⿰⿱	-303
𠂒口	-304
𠂊冫寸	-305
刀口	-306
尸匕	-307
囗口	-308
▁小	-309
一厶儿	-310
▁6	-311
▁"	-312
幺幺丱	-313
人一朩	-314
土土	-315
习习	-316
特一八土	-317
一土	-318
▁s	-319
亠斌	-320
爫冖又	-321
湥月	-322
小丿目	-323
糸言	-324
糸言糸	-325
匕日	-326
重力	-327
⿱⿶⿱⿰	-328
⿵⿰	-329
卩又	-330
艹央	-331
▁生	-332
辶文	-333
口木	-334
⿵⿱	-335
王丷	-336
䒑土寸	-337
幺芉隹	-338
一㚱	-339
▁7	-340
五口	-341
⿵⿵	-342
又寸	-343
口丂	-344
𠁣𠃛日	-345
䒑土我	-346
丿冂口	-347
▁c	-348
口贝	-349
辶言	-350
亻丨	-351
日大	-352
▁10	-353
亠丷厂	-354
▁a	-355
女口	-356
肀一	-357
⿻⿻	-358
宀八工	-359
龷八巳	-360
▁8	-361
𠂇又	-362
⺌冖口田	-363
囗儿	-364
日生	-365
曲豆	-366
⿰⿳	-367
⿹⿶	-368
幺幺人	-369
儿丨	-370
土龰巳	-371
一㚱一	-372
亠口小彡	-373
立日心	-374
禾女	-375
▁工	-376
葭卩	-377
犬灬	-378
𠂊冫犬灬	-379
ス工	-380
冎口	-381
⺌冖口巾	-382
▁⿷	-383
戈十	-384
⿱⿱⿱	-385
己攵	-386
▁重	-387
一廾刂	-388
▁9	-389
米大	-390
入入	-391
肀一一	-392
𠂊巴	-393
一冉	-394
日一里	-395
▁于	-396
⿳⿱	-397
丿冂	-398
夂⺀	-399
辶隹	-400
▁发	-401
夂力	-402
大丶	-403
日十月	-404
立女	-405
釆田	-406
▁t	-407
木丶	-408
er	-409
▁m	-410
一巾	-411
隹又	-412
儿土	-413
甲一戈	-414
丷豕	-415
𠂇口	-416
土儿土	-417
二厶力	-418
白水	-419
▁⿳𭕄	-420
乂丶	-421
目八刂	-422
𠂉丶	-423
▁世	-424
力八	-425
禾日	-426
▁比	-427
00	-428
冂入	-429
𫝀口	-430
亠几	-431
宀丰	-432
⿰⿰	-433
上卜	-434
勹虫	-435
方攵	-436
𫝀口㐄	-437
勹口	-438
丿大	-439
门日	-440
in	-441
一廾彡	-442
冂人	-443
𠂊冫溬	-444
木几	-445
𠂊冫溬示	-446
⿱⿰⿴	-447
一业	-448
▁12	-449
▁18	-450
丿夫	-451
▁本	-452
▁b	-453
一廾刂土	-454
丿囗	-455
龷由八	-456
⿰⿻	-457
▁二	-458
止匕二	-459
⿱⿲	-460
凵㐅	-461
口口隹	-462
▁⿰⿻	-463
尹口	-464
宀丰口	-465
口心	-466
丷口心	-467
火火	-468
氏丶	-469
an	-470
⺌兀	-471
隹木	-472
戊一	-473
or	-474
辶寸	-475
十口攵	-476
辶井	-477
亠丷冖巾	-478
爫冉	-479
▁199	-480
二人	-481
▁⿰⿰	-482
丿十	-483
丶艮	-484
十豆	-485
▁f	-486
on	-487
且厶	-488
一𫝀	-489
卌一	-490
𠂉卌一	-491
▁已	-492
宀子	-493
䒑未	-494
宀匕	-495
虍几	-496
巳巳	-497
八口	-498
▁十	-499
人彡	-500
王见	-501
氵工	-502
口力	-503
▁⿱⿶⿱⿰	-504
礻土	-505
日乂	-506
▁⿹⿶	-507
𠂉大口	-508
▁女	-509
▁巴	-510
⿰⿳	-511
夕寸	-512
虍豕	-513
宀示	-514
禾重	-515
禾中	-516
䒑业日	-517
糸言糸弓	-518
▁11	-519
锊一	-520
覀示	-521
几丶	-522
⺌月	-523
▁山	-524
撈女攵	-525
▁p	-526
癶豆	-527
丷夫	-528
氵州	-529
𠂉丶皿	-530
𠂇工	-531
口卩	-532
亻本	-533
刀丿	-534
▁事	-535
▁⿰⿱⿰	-536
⺌彐	-537
⿰⿹	-538
田一	-539
止𣥂	-540
⺊口戈	-541
⿱⿰⿴	-542
𠂉子	-543
幺木	-544
幺白	-545
幺白幺木	-546
▁米	-547
刀牛	-548
土羊	-549
日夂	-550
𠂉日夂	-551
𠁣𠃛柬	-552
块刀	-553
▁d	-554
▁h	-555
龷日	-556
▁⿲㇇	-557
罒夕	-558
十口月	-559
丘八	-560
丿囗夂	-561
一厶月	-562
▁民	-563
亠口冖	-564
𠂉十	-565
氵皮	-566
𠃌口	-567
亻言	-568
弋一止	-569
且一小	-570
⿱⿲	-571
コ一亅	-572
辶斤	-573
丿冂米大	-574
阝人	-575
▁東	-576
礻申	-577
米女攵	-578
丆口	-579
一白	-580
口龰	-581
丶葭阝	-582
戊一口	-583
亠幺	-584
凵㐅禸	-585
▁⿰⿹	-586
夂朩	-587
人匕	-588
⿱⿴⿱	-589
宀必	-590
土儿土丸	-591
尸禹	-592
厶厶	-593
亻牛	-594
▁又	-595
丿囗夂心	-596
亠丷日	-597
二阝	-598
刀二阝	-599
𠂆鮪	-600
艹騜	-601
女也	-602
心夂	-603
la	-604
亻尹	-605
𠂉卌一灬	-606
冖儿	-607
木寸	-608
▁/	-609
土斌	-610
宀必山	-611
▁目	-612
en	-613
日日	-614
▁东	-615
人人龰	-616
歹匕	-617
日木	-618
口口犬	-619
言十	-620
丩攵	-621
⿸⿴	-622
尸一口	-623
贝刂	-624
土𠃓	-625
肀一一田一	-626
甫寸	-627
日罒	-628
日罒又	-629
木艮	-630
▁198	-631
𠂊田一	-632
幺芉且	-633
木子	-634
井一八贝	-635
丁口欠	-636
纟戋	-637
一口𧘇	-638
月䦯	-639
立月䦯	-640
乚丿十	-641
纟且	-642
▁⿱⿵⿱	-643
爫木	-644
中一	-645
亠八	-646
衤刀	-647
宀八九	-648
▁15	-649
ar	-650
八夂	-651
辶大	-652
立日儿	-653
▁r	-654
身寸	-655
冖儿木	-656
▁n	-657
二丨凵	-658
▁g	-659
丨丿	-660
扌丁	-661
纟及	-662
▁⿵⿱	-663
勹口攵	-664
厶厶人彡	-665
山而	-666
丷三	-667
⿹⿶	-668
亻门	-669
▁⿳⿱	-670
戊一女	-671
⿳⿰	-672
禾子	-673
土口𧘇	-674
𠂊蛖	-675
士衣	-676
口虫	-677
𠂊厂	-678
火火冖	-679
夕㐄	-680
宀谷	-681
㇇	-682
讠十	-683
𠃌丨	-684
刀丿心	-685
甘木	-686
雨田	-687
▁非	-688
艹禺	-689
⿲㇇	-690
㡏子	-691
囗丨	-692
彳艮	-693
丿虫	-694
丿口	-695
口丿口	-696
厂生	-697
丿七	-698
⿱⿹	-699
亻隹	-700
辶束	-701
▁16	-702
丷八十	-703
門山	-704
▁l	-705
夂彡	-706
工力	-707
白王	-708
田力	-709
扌隹	-710
勹冫	-711
又土	-712
又又	-713
口十	-714
女子	-715
⿱⿸	-716
▁17	-717
犬頁	-718
米犬頁	-719
⿰⿱⿰	-720
厶大	-721
宀头	-722
厶大彡	-723
夂几	-724
▁i	-725
井一冉	-726
▁0	-727
山一	-728
▁⿱⿲	-729
幆王	-730
王幆王	-731
一氺	-732
一氺丶	-733
八乂	-734
⿶	-735
束攵	-736
宀女木	-737
⿵⿱	-738
雨而	-739
辶車	-740
䬎卩	-741
纟隹	-742
es	-743
肀一一日	-744
白丿十	-745
革力	-746
亻白	-747
⿰⿱⿱	-748
且力	-749
⿱⿴	-750
士口冖	-751
人丶龴頁	-752
コ一斌	-753
扌斤	-754
一内	-755
辶不	-756
八人	-757
甈冖巾	-758
口夫	-759
一厶土攵	-760
▁我	-761
肀口	-762
工攵	-763
車凵	-764
▁广	-765
丿𠃌刂	-766
▁194	-767
at	-768
▁未	-769
亻隹心	-770
䒑自寸	-771
▁w	-772
上小	-773
▁197	-774
勹厶	-775
一口田刂	-776
⿺⿻	-777
▁⿰⿷	-778
丿廾	-779
一尢	-780
夂丰	-781
▁⿱⿴	-782
禾乃	-783
龷八氺	-784
亠斌又	-785
虍豕刂	-786
士心	-787
⿺⿱	-788
夂卜	-789
扌丸	-790
彑氺	-791
𠘧又手	-792
人㔾	-793
⺌冖口土	-794
al	-795
尹口羊	-796
块刀田	-797
上小又	-798
木示	-799
▁长	-800
乛头	-801
土龰戉	-802
𠂉也	-803
▁14	-804
▁⿰⿱⿹	-805
ic	-806
幺芉及	-807
糸言糸攵	-808
人丶龴页	-809
⺊口灬	-810
士𠃜	-811
⺌冖口黑	-812
▁195	-813
几㐅	-814
匚儿	-815
囗才	-816
▁13	-817
▁⿱⿰⿻	-818
⿱𭕄	-819
▁白	-820
巳寸	-821
一自	-822
井一八土	-823
幺芉己	-824
扌非	-825
亻专	-826
㵞灬	-827
耂匕	-828
▁来	-829
牛冂刂衣	-830
犭犬	-831
阝艮	-832
門灬	-833
耂丂	-834
亻更	-835
儿言	-836
廿巾	-837
▁e	-838
田心	-839
一𧘇	-840
井一𧘇	-841
豆頁	-842
㐅朩	-843
亻象	-844
▁手	-845
▁車	-846
囗丨𧰨	-847
勹又	-848
一自夂	-849
▁196	-850
彐心	-851
戊一口心	-852
亻乃	-853
▁k	-854
日月皿	-855
立里	-856
勹口攵言	-857
丿二丨	-858
丫㫔	-859
刀丫㫔	-860
▁⿱⿰⿴	-861
一丨	-862
▁o	-863
𠂇又丶	-864
⿺⿸	-865
𠂉一	-866
丰阝	-867
木目心	-868
阝方	-869
一曲	-870
一曲日	-871
亠口子	-872
酉己	-873
▁入	-874
土土寸	-875
氵羊	-876
口耳	-877
气米	-878
氵夬	-879
冖一	-880
▁身	-881
讠人	-882
釆大	-883
丿冂釆大	-884
亠口冖丁	-885
丷酉	-886
厂力	-887
女母	-888
礻见	-889
亠父攵	-890
⿸⿱	-891
讠己	-892
纟内	-893
▁—	-894
彳聿	-895
𡗗氺	-896
▁⿰⿱⿴	-897
冖一豕	-898
𠂇工月	-899
⿱⿻⿱	-900
is	-901
爿戈	-902
爿戈臣	-903
自心	-904
亻弗	-905
凵㐅禸隹	-906
囗大心	-907
艹冖	-908
纟己	-909
夂㐄	-910
扌巴	-911
米斗	-912
一兀寸	-913
▁193	-914
▁for	-915
扌比	-916
广隶	-917
▁j	-918
辶由	-919
▁30	-920
尸一口刂	-921
亻我	-922
龶糸	-923
幺芉内	-924
涗八	-925
厶虫	-926
龵目	-927
冂一	-928
冂儿	-929
⿱⿱⿰	-930
厶八夂	-931
阝日	-932
羊目	-933
丿䖻	-934
躯卩	-935
弓长	-936
十冖	-937
十冖糸	-938
比白	-939
礻且	-940
⿰⿹	-941
目廾	-942
⿰⿱⿴	-943
䒑山	-944
卅冖巾	-945
彐氺	-946
丨丨比	-947
宀寸	-948
mu	-949
𠂊冫寸犬	-950
▁_	-951
it	-952
le	-953
▁21	-954
力力	-955
言己	-956
▁z	-957
辶艮	-958
阝示	-959
尸口	-960
䱘山	-961
▁八	-962
辶车	-963
he	-964
氵隹	-965
白巾	-966
口力刂	-967
氵又	-968
▁土	-969
禾禾	-970
禾禾止	-971
⿱⿱⿻	-972
𠂇厶	-973
户方	-974
一龰頁	-975
▁车	-976
上小又目	-977
艹田	-978
𠃊米	-979
爿士衣	-980
七刀	-981
亡月	-982
冫欠贝	-983
亡月王	-984
亻衣	-985
刀口灬	-986
𠂊田灬禾	-987
▁专	-988
爫一	-989
木又	-990
车专	-991
⿳⿱⿻	-992
⿱⿺	-993
冫夬	-994
𠘧口	-995
丿大口	-996
▁v	-997
口龶	-998
二乚	-999
斤斤	-1000
䒑亡	-1001
𠃊人	-1002
▁2010	-1003
mula	-1004
▁25	-1005
立十力	-1006
⿱⿵⿱	-1007
▁formula	-1008
日比	-1009
▁2009	-1010
冖方	-1011
亠丷冖方	-1012
▁角	-1013
▁九	-1014
𠂊亅	-1015
口又	-1016
▁州	-1017
𠂉一乁	-1018
冂二	-1019
⺆冫攵	-1020
口木土	-1021
一亅	-1022
⿱⿶⿳⿰	-1023
忄夬	-1024
阝東	-1025
el	-1026
▁史	-1027
虍豆	-1028
虍豆戈	-1029
▁192	-1030
ro	-1031
人一口手	-1032
⿶⿳⿰	-1033
口又一	-1034
⿱⿹	-1035
耳口王	-1036
石皮	-1037
口口欠	-1038
un	-1039
⿱⿵	-1040
一生	-1041
臼儿	-1042
▁才	-1043
am	-1044
▁2011	-1045
白方攵	-1046
𠂇火	-1047
𠁣𠃛口	-1048
䱘一	-1049
夂丶	-1050
宀八犬	-1051
尹口阝	-1052
人㔾刂	-1053
亻以	-1054
女又	-1055
冫隹	-1056
艹来	-1057
戈刂	-1058
▁⿱⿱⿰	-1059
罒乑	-1060
𠂉鮪	-1061
▁乡	-1062
中一贝	-1063
谷卩	-1064
心丿	-1065
工頁	-1066
世木	-1067
一丂	-1068
丷夫㔾	-1069
⺄十	-1070
里予	-1071
十口刂	-1072
▁⿱⿶⿳⿰	-1073
㐅㐅	-1074
耳阝	-1075
夫见	-1076
st	-1077
丶葭月	-1078
000	-1079
䒑土永	-1080
⿱⿺	-1081
𡗗日	-1082
コ又	-1083
冂丶	-1084
厂干	-1085
扌户	-1086
龴疋	-1087
力口木	-1088
▁co	-1089
宀八方	-1090
隹口	-1091
丬士衣	-1092
戈戈	-1093
▁2012	-1094
几攵	-1095
山一几攵	-1096
▁⿻㇀	-1097
亠𠃊	-1098
▁22	-1099
il	-1100
▁子	-1101
コ一女	-1102
二丨刂	-1103
▁2013	-1104
尢丶丿	-1105
土儿土丸灬	-1106
⿸⿸	-1107
et	-1108
艹乂	-1109
十豆口	-1110
亠丷厂生	-1111
十贝	-1112
土八夂	-1113
▁2016	-1114
⿸⿱⿱	-1115
ion	-1116
▁心	-1117
氵由	-1118
一龰页	-1119
𠂇厶隹	-1120
冖𧘇	-1121
勹缶	-1122
𠂊田一日	-1123
人氺	-1124
口寸	-1125
门口	-1126
▁24	-1127
▁2014	-1128
宀丁	-1129
𠂉大豆	-1130
ac	-1131
𠃌丨一	-1132
勹灬	-1133
ur	-1134
▁⿱⿵⿵	-1135
▁2015	-1136
▁2008	-1137
工页	-1138
隹隹又	-1139
竹朿	-1140
王王	-1141
又戈	-1142
𠂉乙	-1143
屯頁	-1144
▁23	-1145
▁zh	-1146
𠘧又耳	-1147
辶豕	-1148
⿲⿱	-1149
葭旡	-1150
木羊	-1151
▁191	-1152
广予	-1153
巾白	-1154
王不	-1155
又见	-1156
䒑口	-1157
羊䒑口	-1158
肀一一田一刂	-1159
艹非	-1160
撈女	-1161
氏日	-1162
丬夕	-1163
木木手	-1164
▁2001	-1165
口止巨	-1166
us	-1167
广土	-1168
丿皿	-1169
▁the	-1170
氵酉	-1171
▁}	-1172
▁{	-1173
牙隹	-1174
亻十	-1175
匚㐅欠	-1176
擊灬	-1177
▁⿱⿰⿱⿱	-1178
辶力	-1179
宀木	-1180
𠂊彐心	-1181
幺芉工	-1182
幺大	-1183
氵㔾	-1184
龶贝	-1185
⿰⿻	-1186
戊一𣥂	-1187
口口木	-1188
▁2017	-1189
as	-1190
幺幺灬	-1191
丷夫力	-1192
▁2007	-1193
士示	-1194
目八攵	-1195
纟工	-1196
氵隹十	-1197
▁!	-1198
丿之	-1199
士示欠	-1200
夂田	-1201
人人十	-1202
羊工	-1203
弓冫	-1204
▁永	-1205
𠘧又酉	-1206
彐冖巾	-1207
冖隹	-1208
𠂉巾	-1209
尸毛	-1210
囗人	-1211
夫夫	-1212
▁母	-1213
𠂊田灬日	-1214
丬夕大	-1215
丰丰	-1216
氵聿	-1217
乛耳	-1218
乛耳攵	-1219
夫夫日	-1220
▁28	-1221
冂㐅	-1222
衤里	-1223
▁2018	-1224
扌白	-1225
彡頁	-1226
⿰⿱⿹	-1227
䒑八	-1228
䒑八皿	-1229
户口	-1230
金艮	-1231
▁26	-1232
▁2006	-1233
re	-1234
日小	-1235
車斤	-1236
⿱⿰⿱⿱	-1237
辶𠂤	-1238
爫子	-1239
⿰⿳⿱⿻	-1240
广车	-1241
习习白	-1242
丿乚	-1243
骒心夂	-1244
𠂊贝	-1245
ing	-1246
一厶月攵	-1247
爿犬	-1248
▁瓦	-1249
金刂	-1250
木土	-1251
▁飛	-1252
块刀金刂	-1253
囗韦	-1254
▁100	-1255
▁st	-1256
米女	-1257
口虫隹	-1258
扌丸灬	-1259
▁27	-1260
勹丿	-1261
凵土	-1262
幺幺灬頁	-1263
𠂉母攵	-1264
歹刂灬	-1265
大口	-1266
𠃑大口	-1267
丷干丸	-1268
⿱⿱⿻	-1269
㧖匕月	-1270
▁31	-1271
刀丿丶	-1272
▁⿱⿹	-1273
口夫隹	-1274
乡隹	-1275
罒非	-1276
人止	-1277
亻二	-1278
大丷	-1279
一彑	-1280
大丷日小	-1281
刀丿丶木	-1282
王丶	-1283
几口	-1284
戊𠃌皿	-1285
艹乙	-1286
求攵	-1287
犭虫	-1288
予頁	-1289
▁朱	-1290
ed	-1291
囗人皿	-1292
亠口子攵	-1293
戈十車	-1294
▁2005	-1295
ol	-1296
田皿	-1297
▁书	-1298
舟见	-1299
禾必	-1300
人人夂	-1301
ch	-1302
凵田	-1303
文刂	-1304
⿰⿸	-1305
日央	-1306
一𣥂	-1307
▁甲	-1308
⿱⿵⿱	-1309
土止	-1310
▁⿱⿳𭕄	-1311
⿴⿱	-1312
尸由	-1313
▁in	-1314
⿻㇀	-1315
▁⿱⿰⿷	-1316
日业	-1317
一乚丿	-1318
一乚丿兀	-1319
匕匕心	-1320
▁木	-1321
ent	-1322
土皮	-1323
▁x	-1324
冂二月	-1325
冂二月犬	-1326
⿰⿱⿵	-1327
一䖻	-1328
一䖻卩	-1329
𠂉大口日	-1330
日皿	-1331
▁29	-1332
▁承	-1333
木才	-1334
土儿土丸力	-1335
罂一	-1336
▁an	-1337
ow	-1338
弗贝	-1339
▁且	-1340
木木示	-1341
▁2000	-1342
耳又乑	-1343
⿳⿻	-1344
冖又	-1345
コ一冖又	-1346
阝东	-1347
亻又	-1348
一丰	-1349
▁>	-1350
子小	-1351
口口口	-1352
辶巛	-1353
▁⿱⿱⿻	-1354
人人一	-1355
𠂉疋	-1356
月月	-1357
⿱⿻⿻	-1358
id	-1359
▁几	-1360
木及	-1361
▁<	-1362
几丶木	-1363
ig	-1364
▁190	-1365
八大	-1366
冂八大	-1367
▁⿸⿱	-1368
▁⿲⿱	-1369
雨隹	-1370
▁u	-1371
山夕	-1372
白小彡	-1373
丷酉寸	-1374
丨又	-1375
臼丨又	-1376
▁皮	-1377
冫水	-1378
土土兀	-1379
▁50	-1380
▁⿹⿻	-1381
冂二月犬土	-1382
口止艮	-1383
屯页	-1384
▁口	-1385
夫丷	-1386
▁2019	-1387
木木疋	-1388
蟽心	-1389
广車	-1390
𠃋丿人刂	-1391
朿刂	-1392
又隹	-1393
▁⿱⿺	-1394
口及	-1395
ad	-1396
辶禺	-1397
葭寸	-1398
爫罒	-1399
目艮	-1400
日大巾	-1401
干刂	-1402
▁ch	-1403
𠂊厂㔾	-1404
亻木	-1405
𠁣𠃛耳	-1406
雨彐	-1407
▁曲	-1408
扌戈	-1409
冖几	-1410
王缶	-1411
禾厶	-1412
▁巨	-1413
石角	-1414
宀于	-1415
禾火	-1416
木斤	-1417
冂口攵	-1418
▁2004	-1419
▁of	-1420
丶尸	-1421
不口	-1422
辶兆	-1423
os	-1424
十廾	-1425
龶母	-1426
▁y	-1427
犭㔾	-1428
田糸	-1429
▁⿶	-1430
▁⿱⿵	-1431
宀且	-1432
耳耳	-1433
耂匕日	-1434
口隹	-1435
戈廾	-1436
扌甫	-1437
幺幺斤	-1438
弋丿	-1439
⿱⿳𭕄	-1440
乛工	-1441
乛工一	-1442
士乛工一	-1443
艹两	-1444
山石	-1445
丬犬	-1446
丰寸	-1447
▁40	-1448
木木鬼	-1449
𠂒口非	-1450
幺芉田	-1451
木隹	-1452
夕㔾	-1453
艹重	-1454
𩰋𩰊	-1455
钅艮	-1456
缶夬	-1457
宀八牙	-1458
車㔾	-1459
罒俩	-1460
▁'	-1461
亠斌弓	-1462
罒俩𧘇	-1463
幺芉柬	-1464
山隹	-1465
▁000	-1466
广大	-1467
▁br	-1468
中心	-1469
▁|	-1470
艹隹	-1471
艹隹臼	-1472
讠上	-1473
ut	-1474
⿻⿺	-1475
▁田	-1476
止月	-1477
厶又	-1478
爫龴	-1479
▁⿱⿻⿱	-1480
大丶心	-1481
戈十车	-1482
⿱⿵⿵	-1483
辶白	-1484
彑𧰨	-1485
子皿	-1486
十豆寸	-1487
𠃌冫	-1488
辶米	-1489
又又木	-1490
臣又	-1491
勹臼	-1492
om	-1493
女生	-1494
䒑夫	-1495
iv	-1496
口乎	-1497
丷酉大	-1498
阝車	-1499
刀巴	-1500
木白	-1501
ot	-1502
冂大	-1503
𠂊冂大	-1504
土丶	-1505
▁2003	-1506
爫缶	-1507
▁=	-1508
▁革	-1509
大隹	-1510
子乚	-1511
氵气	-1512
ir	-1513
火乍	-1514
摸一	-1515
⺊尸	-1516
比十	-1517
日十韦	-1518
禾女鬼	-1519
▁干	-1520
▁⿰⿵	-1521
▁丹	-1522
ia	-1523
止𣥂頁	-1524
囗㐅	-1525
丿囗㐅	-1526
勹日	-1527
夕㐄木	-1528
氵甫	-1529
一丨虫	-1530
▁飞	-1531
50	-1532
⿰⿵	-1533
𠂤止	-1534
女又力	-1535
▁贝	-1536
车斤	-1537
月生	-1538
土厶卩	-1539
黑犬	-1540
im	-1541
厂㔾	-1542
𡗗禾	-1543
川頁	-1544
丷夫氺	-1545
纟田	-1546
丰丰豆	-1547
20	-1548
ec	-1549
▁2002	-1550
火火冖木	-1551
土攵	-1552
丿土攵	-1553
户隹	-1554
贝攵	-1555
日大土	-1556
宀玉	-1557
囗㐅籝	-1558
𠃊米斤	-1559
亡口	-1560
习习隹	-1561
大镸	-1562
亠口冖豕	-1563
亠𧘇	-1564
予页	-1565
木灬	-1566
⿷⿱	-1567
㡀攵	-1568
户口攵	-1569
戈十衣	-1570
亻戈	-1571
隹灬	-1572
▁士	-1573
黑土	-1574
丨丿彐	-1575
亠口冖毛	-1576
厂丁	-1577
⿱⿸	-1578
扌乚	-1579
止𣥂页	-1580
木𠃓	-1581
氵九	-1582
氵九木	-1583
十目	-1584
人人木隹	-1585
口丩	-1586
阝且	-1587
田月	-1588
一锊	-1589
一锊厂	-1590
⿰⿱⿺	-1591
▁al	-1592
扌疌	-1593
大隹寸	-1594
山豆	-1595
王朱	-1596
▁189	-1597
扌斤口	-1598
ag	-1599
心皿	-1600
心皿丁	-1601
门耳	-1602
彡页	-1603
凵丨月	-1604
亠口冖几	-1605
勹甫	-1606
▁片	-1607
氵也	-1608
几丶心	-1609
ation	-1610
气羊	-1611
um	-1612
土厶皿	-1613
em	-1614
爫木彡	-1615
亻五	-1616
亻山	-1617
言川	-1618
口未	-1619
火火冖力	-1620
𠂊田一羊	-1621
亠口子阝	-1622
爫工	-1623
爫工彐心	-1624
丷酉大阝	-1625
戈十隹	-1626
▁]	-1627
艹冖力	-1628
幺芉丑	-1629
扌丸力	-1630
▁60	-1631
女未	-1632
一田	-1633
一田一	-1634
⺌冖口手	-1635
肀一灬	-1636
肀一灬皿	-1637
十豆彡	-1638
▁[	-1639
▁牛	-1640
䒑土食	-1641
亻谷	-1642
王王必	-1643
od	-1644
丨日	-1645
石更	-1646
龶夂	-1647
大示	-1648
幺力	-1649
礻乚	-1650
丁頁	-1651
果页	-1652
亚日	-1653
▁末	-1654
▁⿻⿺	-1655
田丁	-1656
禾且	-1657
不皿	-1658
糸攵	-1659
山一糸攵	-1660
𠂉母攵糸	-1661
目八才	-1662
▁申	-1663
衤甫	-1664
and	-1665
囗木	-1666
ay	-1667
𠂊田灬羊	-1668
山豆几	-1669
▁⿱⿸	-1670
〢又	-1671
▁1999	-1672
䒑土皿	-1673
▁⿺⿵	-1674
覀大	-1675
覀大巳	-1676
尸示	-1677
尸示寸	-1678
亠口了	-1679
言寸	-1680
ap	-1681
▁1990	-1682
疋虫	-1683
辶千	-1684
九朩	-1685
⿱⿰⿸	-1686
耂子	-1687
▁甘	-1688
▁35	-1689
川页	-1690
二丨力	-1691
扌巨	-1692
▁门	-1693
▁han	-1694
中一㠯	-1695
丿巾	-1696
𠄎丿	-1697
尺⺀	-1698
歹刂衣	-1699
▁?	-1700
丰刀	-1701
▁1998	-1702
木示隶	-1703
幺芉糸	-1704
串心	-1705
囗禾	-1706
言方	-1707
亻乙	-1708
车九	-1709
⿱⿰⿱	-1710
山己	-1711
爿士	-1712
車欠	-1713
⿰⿺	-1714
一日	-1715
厶厶一日	-1716
巳廾	-1717
ter	-1718
彐火	-1719
𠂉力	-1720
歺又	-1721
亻禺	-1722
▁la	-1723
丁页	-1724
日土	-1725
▁32	-1726
▁80	-1727
乚丿贝	-1728
土丷	-1729
▁⿳⿱⿻	-1730
▁de	-1731
▁and	-1732
㇇⿱	-1733
op	-1734
口口隹欠	-1735
⿴⿰	-1736
60	-1737
日干	-1738
彳皮	-1739
纟丑	-1740
ul	-1741
oc	-1742
冫中	-1743
▁1997	-1744
▁188	-1745
牛攵	-1746
夕㐄阝	-1747
乛水	-1748
乛水一	-1749
贝才	-1750
土甫	-1751
艹罒	-1752
三丨	-1753
og	-1754
▁00	-1755
10	-1756
𠂉一罒	-1757
厶儿	-1758
▁乐	-1759
ce	-1760
扌广	-1761
纟东	-1762
弓土	-1763
冖木	-1764
立十土	-1765
宀申	-1766
彳重	-1767
亠口子丸	-1768
土龰㐅	-1769
▁1980	-1770
歹匕廾	-1771
▁45	-1772
言果	-1773
車九	-1774
巳灬	-1775
木兆	-1776
𦣞巳灬	-1777
▁70	-1778
氵干	-1779
𠂊田大	-1780
亻子	-1781
歹朱	-1782
▁⿱⿰⿸	-1783
氵冘	-1784
扌斥	-1785
30	-1786
木不	-1787
言丁	-1788
艹人	-1789
艹人朩	-1790
▁re	-1791
镸彡	-1792
山己几	-1793
讠井	-1794
▁+	-1795
⿳⿳	-1796
av	-1797
厶又乚	-1798
19	-1799
口月	-1800
夂口頁	-1801
言斥	-1802
▁90	-1803
ers	-1804
一丨犬	-1805
土龰卜	-1806
冂二目	-1807
ie	-1808
止匕糸	-1809
幺𠃌	-1810
⿳⿱	-1811
48	-1812
工贝	-1813
歺又食	-1814
▁187	-1815
▁1996	-1816
日子	-1817
口巴	-1818
艹见	-1819
𠘧又皿	-1820
户隹頁	-1821
臣又土	-1822
扌兆	-1823
⿰⿵	-1824
目儿丶	-1825
▁ar	-1826
十冖子	-1827
40	-1828
幺幺心	-1829
钅中	-1830
一㚱一心	-1831
▁500	-1832
车欠	-1833
礻羊	-1834
阝车	-1835
ub	-1836
立月䦯衣	-1837
戊一火	-1838
爫臼	-1839
▁1994	-1840
臼籝	-1841
丿厶	-1842
㡀攵巾	-1843
▁33	-1844
女且	-1845
讠方	-1846
又丶	-1847
▁乙	-1848
▁1995	-1849
⿰⿷	-1850
工口寸	-1851
丷干犬	-1852
虫虫	-1853
ip	-1854
止匕木	-1855
白小頁	-1856
▁38	-1857
亻犬	-1858
亠口子丸灬	-1859
䒑山刂	-1860
th	-1861
讠川	-1862
广由	-1863
小大	-1864
衤卜	-1865
丶丶	-1866
丶丶丶	-1867
口止兆	-1868
木攵	-1869
辶了	-1870
木卯	-1871
▁』	-1872
▁『	-1873
㧖匕口	-1874
㧖匕口灬	-1875
艹罒冖	-1876
▁〉	-1877
夂口页	-1878
▁〈	-1879
亻申	-1880
▁36	-1881
▁⿺⿻	-1882
ard	-1883
▁1993	-1884
▁1992	-1885
▁com	-1886
大电	-1887
罒心	-1888
宀丰罒心	-1889
千口攵	-1890
𠃌丿	-1891
一大阝	-1892
ov	-1893
钅戋	-1894
土口隹	-1895
▁th	-1896
车两	-1897
㇇⿱	-1898
ak	-1899
ab	-1900
▁头	-1901
▁tw	-1902
▁37	-1903
▁un	-1904
ind	-1905
▁1991	-1906
日大㣺	-1907
田一口	-1908
臼工	-1909
口龶力	-1910
龙衣	-1911
▁sh	-1912
八刀頁	-1913
𠂒儿贝	-1914
艹罒冖夕	-1915
氵白	-1916
車甫	-1917
▁1950	-1918
▁34	-1919
革月	-1920
80	-1921
大寸	-1922
米立	-1923
ct	-1924
丨丨一	-1925
▁q	-1926
千口乚	-1927
▁186	-1928
土欠	-1929
丰阝巾	-1930
丿田	-1931
儿厶	-1932
冖儿干	-1933
11	-1934
est	-1935
▁韦	-1936
▁tr	-1937
匕匕灬	-1938
田田	-1939
▁1949	-1940
▁1970	-1941
ud	-1942
ik	-1943
▁to	-1944
氵匚	-1945
▁示	-1946
王白	-1947
日王	-1948
▁sp	-1949
牛也	-1950
凵丨欠	-1951
凵乚	-1952
冖见	-1953
金十	-1954
廿木	-1955
十冖子力	-1956
艹方	-1957
忄不	-1958
ist	-1959
12	-1960
人人刂	-1961
弓厶	-1962
▁le	-1963
人干	-1964
ang	-1965
▁1988	-1966
ine	-1967
广发	-1968
▁39	-1969
勹口攵手	-1970
艹之	-1971
▁1989	-1972
臣又糸	-1973
▁⿰⿳⿱	-1974
扌石	-1975
爫子乚	-1976
木木幺	-1977
臼土	-1978
木彡	-1979
▁on	-1980
▁hk	-1981
土夬	-1982
▁te	-1983
ill	-1984
亻中	-1985
▁sa	-1986
▁300	-1987
▁mar	-1988
▁1945	-1989
▁hans	-1990
25	-1991
⿰⿳⿱	-1992
千臼	-1993
𠂊蛖丶	-1994
峴灬史	-1995
▁1960	-1996
𠂉丶见	-1997
丰刀大	-1998
▁col	-1999
車斤日	-2000
讠寸	-2001
王文	-2002
▁言	-2003
丰丰彐心	-2004
矛木	-2005
石广	-2006
廿灬	-2007
▁pro	-2008
旡旡	-2009
if	-2010
旡旡日	-2011
土川	-2012
▁川	-2013
凵丨月土	-2014
▁is	-2015
▁肉	-2016
21	-2017
▁⿳⿰	-2018
竹聿	-2019
勹田	-2020
〢又土	-2021
禾禾日	-2022
𠂎葭卩	-2023
一火	-2024
70	-2025
▁55	-2026
ess	-2027
▁1985	-2028
ob	-2029
谷欠	-2030
王皮	-2031
▁谷	-2032
ra	-2033
又欠	-2034
疒了	-2035
糸言糸心	-2036
讠斥	-2037
⺊贝	-2038
戈𠂇	-2039
▁ne	-2040
王文王	-2041
▁1986	-2042
斤欠	-2043
舟皿	-2044
冖牛	-2045
▁氏	-2046
氵永	-2047
口斤	-2048
▁见	-2049
果頁	-2050
15	-2051
土方	-2052
bo	-2053
▁1987	-2054
衤由	-2055
ba	-2056
人丶龴阝	-2057
▁1984	-2058
宀由	-2059
阝月	-2060
扌𠃓	-2061
白小心	-2062
up	-2063
na	-2064
▁48	-2065
工丂	-2066
口一𧘇	-2067
女己	-2068
冂㐅刂	-2069
▁185	-2070
千口予	-2071
ows	-2072
ok	-2073
厂㔾页	-2074
土鬼	-2075
▁46	-2076
亠父阝	-2077
土不	-2078
车由	-2079
亻方	-2080
ell	-2081
块刀贝	-2082
丿丨刂	-2083
〢又糸	-2084
▁43	-2085
艹戊	-2086
丘山	-2087
ice	-2088
▁42	-2089
und	-2090
钅十	-2091
口口丨	-2092
日十彡	-2093
▁1982	-2094
18	-2095
16	-2096
犭言	-2097
犭言犬	-2098
土卜	-2099
土卜皿	-2100
厂里	-2101
▁1983	-2102
▁am	-2103
▁75	-2104
𠁣𠃛才	-2105
⿱⿰⿳	-2106
㧖匕刂	-2107
▁as	-2108
讠丁	-2109
广木	-2110
忄隹	-2111
▁%	-2112
一八言	-2113
丷夫刀	-2114
all	-2115
▁ap	-2116
▁wind	-2117
45	-2118
▁or	-2119
匕頁	-2120
ian	-2121
17	-2122
▁hd	-2123
90	-2124
大弓	-2125
▁47	-2126
13	-2127
▁65	-2128
丷夫手	-2129
幺芉氏	-2130
业䒑夫	-2131
熭一	-2132
熭熭一	-2133
㪭丿言	-2134
▁yo	-2135
衤谷	-2136
厂彡頁	-2137
虍业	-2138
犭火	-2139
ive	-2140
47	-2141
讠果	-2142
幺芉屯	-2143
氵𠃓	-2144
彳氵	-2145
月巴	-2146
覀土	-2147
io	-2148
犭王	-2149
宀丰口刂	-2150
几又	-2151
毌贝	-2152
▁at	-2153
▁con	-2154
35	-2155
女又心	-2156
屯阝	-2157
ack	-2158
▁1979	-2159
▁be	-2160
巛火	-2161
亚心	-2162
▁150	-2163
井一八木	-2164
22	-2165
ver	-2166
彐寸	-2167
扌由	-2168
▁400	-2169
ue	-2170
▁1978	-2171
art	-2172
▁windows	-2173
女彐	-2174
▁ma	-2175
由丂	-2176
▁49	-2177
白儿	-2178
釆心	-2179
14	-2180
▁go	-2181
王册	-2182
由阝	-2183
田一口犬	-2184
辶万	-2185
𠂊田灬里	-2186
igh	-2187
ant	-2188
ph	-2189
口口田一口犬	-2190
子瓜	-2191
37	-2192
巛果	-2193
▁180	-2194
人一朩斗	-2195
门才	-2196
㇇⿰	-2197
▁en	-2198
口内	-2199
▁ii	-2200
目八女	-2201
虍心	-2202
▁久	-2203
▁44	-2204
▁se	-2205
一厶廾	-2206
▁64	-2207
ert	-2208
戈十木	-2209
▁1981	-2210
23	-2211
耒毛	-2212
月贝	-2213
几木	-2214
ge	-2215
勹米	-2216
卩丶	-2217
𠂎丶	-2218
米且	-2219
ity	-2220
爫女	-2221
土土卜	-2222
26	-2223
纟氏	-2224
24	-2225
▁58	-2226
oh	-2227
▁1946	-2228
sp	-2229
28	-2230
一刂	-2231
丿𠃌攵	-2232
27	-2233
月永	-2234
氵皮女	-2235
▁斗	-2236
▁1958	-2237
ib	-2238
▁pr	-2239
ich	-2240
▁56	-2241
▁fr	-2242
竹毛	-2243
𠃊人欠	-2244
𠂉大巨	-2245
井一八⺀	-2246
束刂	-2247
人一朩又	-2248
扌以	-2249
习习立	-2250
匚王	-2251
宀火	-2252
36	-2253
二厶鬼	-2254
te	-2255
丶丶丶皿	-2256
口口山	-2257
非一	-2258
75	-2259
bs	-2260
尸巾	-2261
尸巾刂	-2262
▁1920	-2263
车甫	-2264
艹肅	-2265
扌夫	-2266
38	-2267
日女	-2268
幺芉文	-2269
丷八月	-2270
口土	-2271
土隹	-2272
29	-2273
▁sc	-2274
▁ad	-2275
歹戋	-2276
一大㣺	-2277
木木石	-2278
▁1930	-2279
ong	-2280
▁ex	-2281
▁1948	-2282
▁1940	-2283
冖且	-2284
亠幺田	-2285
▁1975	-2286
lay	-2287
▁bo	-2288
扌甲	-2289
▁ph	-2290
丶葭欠	-2291
匕页	-2292
⿱⿱⿰	-2293
又阝	-2294
▁1937	-2295
辶隶	-2296
女兆	-2297
垂阝	-2298
礻巳	-2299
𠃜目	-2300
女𦣞	-2301
氵王	-2302
▁120	-2303
峴灬心	-2304
一史	-2305
▁1956	-2306
犭讠	-2307
犭讠犬	-2308
車由	-2309
▁⿱⿴⿱	-2310
癶豆阝	-2311
ate	-2312
虫朱	-2313
ug	-2314
46	-2315
小隹	-2316
艹亡	-2317
𠂊丶	-2318
▁1947	-2319
𠂤十	-2320
𠂊彐	-2321
乛水一灬	-2322
▁57	-2323
▁76	-2324
言羊	-2325
▁1000	-2326
亻九	-2327
▁1941	-2328
39	-2329
▁丘	-2330
uc	-2331
⺊又	-2332
▁⿰⿱⿻	-2333
ry	-2334
覀贝	-2335
朿朿	-2336
▁1976	-2337
▁⿱⿰⿳	-2338
ey	-2339
bc	-2340
亻寸肉	-2341
▁耳	-2342
ort	-2343
木乚	-2344
丷八牛	-2345
车斤日	-2346
▁1973	-2347
厂万	-2348
角虫	-2349
85	-2350
34	-2351
土厶力	-2352
▁1972	-2353
纟屯	-2354
丿二丨刂	-2355
氵欠	-2356
亠丷厂彡页	-2357
▁1966	-2358
▁丈	-2359
▁1955	-2360
95	-2361
彳钅	-2362
口贝力	-2363
▁1952	-2364
32	-2365
艹肃	-2366
▁cn	-2367
▁54	-2368
▁66	-2369
▁so	-2370
月刂心	-2371
竹龙	-2372
木木夕	-2373
86	-2374
車車	-2375
八刀页	-2376
ix	-2377
丿丿心	-2378
ain	-2379
▁600	-2380
ect	-2381
ord	-2382
人一朩攵	-2383
▁牙	-2384
▁1974	-2385
止匕角	-2386
33	-2387
肀月	-2388
ly	-2389
釆丂	-2390
丿囗釆丂	-2391
⿹⿻⿱	-2392
大冖牛	-2393
▁1977	-2394
▁1968	-2395
▁85	-2396
非心	-2397
忄亡	-2398
ens	-2399
⿹⿱	-2400
乛亅丿	-2401
▁ac	-2402
ft	-2403
女乃	-2404
▁1954	-2405
▁95	-2406
96	-2407
▁1938	-2408
▁me	-2409
▁1964	-2410
▁1965	-2411
▁1939	-2412
彳金	-2413
ast	-2414
火丁	-2415
月几	-2416
⿻⿱	-2417
▁800	-2418
▁1944	-2419
▁1971	-2420
田田土	-2421
亻韦	-2422
木朱	-2423
▁1959	-2424
十廾贝	-2425
氵欠皿	-2426
ign	-2427
ace	-2428
田比	-2429
▁jr	-2430
42	-2431
87	-2432
八口𧘇	-2433
牙阝	-2434
▁隶	-2435
亠里	-2436
亠里𧘇	-2437
▁cd	-2438
⿱⿰⿷	-2439
▁1969	-2440
亻弋衣	-2441
㪭灬	-2442
44	-2443
覀木	-2444
▁1957	-2445
口欠	-2446
王白石	-2447
讠内	-2448
man	-2449
忄白	-2450
31	-2451
一中	-2452
一中冖	-2453
▁1942	-2454
ah	-2455
98	-2456
▁1967	-2457
⿱⿵	-2458
十月	-2459
十月丶	-2460
⿳⿳	-2461
又丶虫	-2462
▁nba	-2463
▁1953	-2464
one	-2465
石页	-2466
ff	-2467
▁gr	-2468
亻丨攵	-2469
76	-2470
艹禺力	-2471
口屯	-2472
冫欠口	-2473
end	-2474
非文	-2475
コ一丿	-2476
99	-2477
月刂刀	-2478
▁cent	-2479
乃子	-2480
78	-2481
氵丁	-2482
宀禺	-2483
▁1961	-2484
䒑土女	-2485
八刀皿	-2486
一丂阝	-2487
▁1935	-2488
▁it	-2489
扌爪	-2490
氵中	-2491
木卜	-2492
九丶	-2493
▁41	-2494
言刂	-2495
龷八㣺	-2496
▁1962	-2497
▁1963	-2498
▁we	-2499
▁1943	-2500
虫工	-2501
▁井	-2502
▁1936	-2503
⿰⿸⿸	-2504
予象	-2505
▁ed	-2506
㐅乂木	-2507
ore	-2508
▁op	-2509
▁he	-2510
土里	-2511
㐅乂木大	-2512
92	-2513
▁68	-2514
士冖	-2515
立十幆	-2516
立𧰨	-2517
▁尺	-2518
▁51	-2519
▁1951	-2520
⿰⿰	-2521
97	-2522
鬼斗	-2523
ust	-2524
▁160	-2525
65	-2526
亻火	-2527
石頁	-2528
辶韦	-2529
止匕隹	-2530
ss	-2531
▁sm	-2532
氵女	-2533
ith	-2534
力力月	-2535
艹矛	-2536
qu	-2537
▁52	-2538
ight	-2539
▁mo	-2540
扌口	-2541
立十言	-2542
日大力	-2543
▁瓜	-2544
目隹	-2545
刀牛虫	-2546
41	-2547
▁tv	-2548
▁⿰⿱⿺	-2549
一大口	-2550
43	-2551
▁ng	-2552
ps	-2553
宀八乙	-2554
金重	-2555
扌皮	-2556
49	-2557
▁wh	-2558
▁id	-2559
耒井	-2560
iz	-2561
艹本	-2562
丰刀糸	-2563
▁ro	-2564
门王	-2565
纟文	-2566
▁⿰⿸⿱⿱	-2567
▁1933	-2568
ies	-2569
⿹⿻	-2570
ma	-2571
匚儿力	-2572
▁2020	-2573
⺌月刂	-2574
ux	-2575
▁1927	-2576
int	-2577
ire	-2578
亻士	-2579
宀必虫	-2580
而寸	-2581
一廾瓦	-2582
ock	-2583
幺大隹	-2584
亡心	-2585
93	-2586
土贝	-2587
pe	-2588
▁1928	-2589
讠羊	-2590
丬士	-2591
▁cl	-2592
䒑土灬	-2593
▁88	-2594
▁77	-2595
氵巨	-2596
氵巨木	-2597
62	-2598
櫵一史	-2599
斤丶	-2600
sh	-2601
ne	-2602
▁1931	-2603
水日	-2604
ond	-2605
▁⿻⿵	-2606
〢又贝	-2607
▁1932	-2608
丘阝	-2609
▁sch	-2610
▁car	-2611
户攵	-2612
▁cod	-2613
68	-2614
▁bl	-2615
𠁣𠃛王	-2616
▁67	-2617
钅甫	-2618
▁厂	-2619
▁豆	-2620
▁1934	-2621
口非	-2622
尸水	-2623
▁dv	-2624
▁sy	-2625
▁play	-2626
ick	-2627
94	-2628
宀八乍	-2629
且厶心	-2630
▁inter	-2631
⺌贝	-2632
▁78	-2633
▁hant	-2634
▁gam	-2635
刀口阝	-2636
ern	-2637
ai	-2638
▁53	-2639
unt	-2640
▁ge	-2641
ber	-2642
⿸⿱	-2643
千口甘	-2644
目目隹	-2645
91	-2646
亠丷厂彡	-2647
▁cr	-2648
ial	-2649
禾刂木	-2650
▁1929	-2651
▁110	-2652
亠田	-2653
丿糸心	-2654
son	-2655
厂万力	-2656
乃又	-2657
乃又皿	-2658
尸雨	-2659
目垂	-2660
亠斌心	-2661
▁ht	-2662
コ一人	-2663
▁700	-2664
⺌冖口贝	-2665
▁⿰⿺	-2666
67	-2667
▁par	-2668
▁mac	-2669
ment	-2670
𠂉丶金	-2671
氵户	-2672
▁98	-2673
ii	-2674
⿻⿱	-2675
▁joh	-2676
钅欠	-2677
𠁣𠃛虫	-2678
se	-2679
士冖豆	-2680
ung	-2681
▁el	-2682
一䖻卩示	-2683
扌斤言	-2684
56	-2685
▁lin	-2686
▁⿰⿳⿱⿻	-2687
▁1912	-2688
▁⿳⿳	-2689
木干	-2690
讠刂	-2691
金欠	-2692
冫欠瓦	-2693
▁hr	-2694
▁man	-2695
ure	-2696
力口贝	-2697
丿木	-2698
▁ak	-2699
▁⿻⿻	-2700
𠂤巾	-2701
▁my	-2702
ier	-2703
ina	-2704
ath	-2705
64	-2706
▁us	-2707
▁new	-2708
乀丿口	-2709
丨丿巾	-2710
▁72	-2711
亻丨攵心	-2712
王廾	-2713
忄乙	-2714
▁130	-2715
冫欠女	-2716
贝贝	-2717
▁dvd	-2718
66	-2719
▁140	-2720
不一	-2721
ory	-2722
▁dr	-2723
耳又女	-2724
yle	-2725
▁1925	-2726
尸示寸心	-2727
自犬	-2728
立十月	-2729
▁⿰⿱⿱⿱⿰	-2730
▁1924	-2731
▁wor	-2732
▁臣	-2733
▁1919	-2734
xt	-2735
az	-2736
▁1918	-2737
饣欠	-2738
▁97	-2739
ogle	-2740
▁⿱⿰⿱⿴	-2741
匚一	-2742
牛生	-2743
𠘧又糸	-2744
口尺	-2745
匕禾	-2746
cl	-2747
88	-2748
忄艮	-2749
▁google	-2750
▁⿰⿴	-2751
▁ip	-2752
▁ho	-2753
▁87	-2754
月干	-2755
▁av	-2756
▁99	-2757
▁1926	-2758
co	-2759
▁mv	-2760
▁柬	-2761
iss	-2762
口巾	-2763
月力	-2764
月非	-2765
▁250	-2766
户月	-2767
69	-2768
厂彡	-2769
▁170	-2770
61	-2771
扌丑	-2772
ont	-2773
小丿力	-2774
广比	-2775
▁1922	-2776
▁mus	-2777
55	-2778
亠口𧘇	-2779
礻斤	-2780
氵文	-2781
▁1914	-2782
ide	-2783
so	-2784
戊丶	-2785
▁center	-2786
83	-2787
丿士几	-2788
ld	-2789
▁59	-2790
53	-2791
▁63	-2792
𠁣𠃛人	-2793
目大	-2794
竹目大	-2795
ish	-2796
▁62	-2797
63	-2798
皮頁	-2799
mm	-2800
人目	-2801
冂一八	-2802
贝贝女	-2803
1900	-2804
八刀贝	-2805
己心	-2806
▁sao	-2807
衤果	-2808
▁61	-2809
立十讠	-2810
▁ag	-2811
ube	-2812
冫欠皿	-2813
89	-2814
57	-2815
aw	-2816
⿰⿱⿱⿱⿰	-2817
▁1913	-2818
▁john	-2819
八厶𧘇	-2820
▁comp	-2821
乍心	-2822
▁ser	-2823
石专	-2824
▁1917	-2825
▁1923	-2826
ational	-2827
爪巴	-2828
ton	-2829
丷田一口	-2830
口口隹力	-2831
户攵聿	-2832
丂戈	-2833
禾丂戈	-2834
▁ist	-2835
▁back	-2836
▁lov	-2837
58	-2838
▁codice	-2839
ala	-2840
▁1921	-2841
艹巴	-2842
ans	-2843
ep	-2844
au	-2845
艹夫	-2846
土龰干	-2847
气弗	-2848
71	-2849
甘欠	-2850
72	-2851
木木火	-2852
age	-2853
木象	-2854
82	-2855
一巛工力	-2856
▁fo	-2857
身弓	-2858
ary	-2859
▁1911	-2860
51	-2861
▁no	-2862
52	-2863
▁3000	-2864
乀丿寸	-2865
▁style	-2866
▁net	-2867
▁qu	-2868
▁em	-2869
74	-2870
ach	-2871
54	-2872
▁ab	-2873
コ一斌欠	-2874
▁po	-2875
73	-2876
lar	-2877
木東	-2878
round	-2879
▁dna	-2880
亻为	-2881
anc	-2882
81	-2883
▁sup	-2884
隹乃	-2885
𠂇月阝	-2886
辶尺	-2887
广龙	-2888
▁69	-2889
span	-2890
▁met	-2891
▁74	-2892
目民	-2893
ile	-2894
▁colspan	-2895
84	-2896
▁sk	-2897
幺冖牛	-2898
▁istat	-2899
㇇⿸	-2900
59	-2901
▁1900	-2902
ann	-2903
77	-2904
口口一	-2905
𠂊田一禾	-2906
79	-2907
▁1909	-2908
ank	-2909
㐅乂木大手	-2910
土申	-2911
▁sil	-2912
ass	-2913
ite	-2914
▁lo	-2915
ime	-2916
▁er	-2917
亻為	-2918
门虫	-2919
▁km	-2920
氵戋	-2921
are	-2922
⿻⿵	-2923
▁ste	-2924
夕㔾心	-2925
⿸⿱⿱	-2926
▁yout	-2927
▁pc	-2928
amp	-2929
▁mic	-2930
▁73	-2931
iel	-2932
rom	-2933
▁app	-2934
ta	-2935
父巴	-2936
犭瓜	-2937
ium	-2938
▁im	-2939
▁per	-2940
land	-2941
⿱⿻⿱	-2942
⿳⿻	-2943
uk	-2944
車干	-2945
缶工	-2946
𠘧又月	-2947
▁now	-2948
匚非	-2949
▁101	-2950
▁one	-2951
▁止	-2952
ction	-2953
一巛工頁	-2954
目夂	-2955
冂人目夂	-2956
九日	-2957
▁1910	-2958
▁all	-2959
▁71	-2960
▁bar	-2961
▁align	-2962
口甫	-2963
▁96	-2964
▁犬	-2965
非衣	-2966
▁pl	-2967
亡目	-2968
𠁣𠃛甲	-2969
皮页	-2970
人一口皿	-2971
ground	-2972
匚斤	-2973
ck	-2974
▁86	-2975
tv	-2976
▁bd	-2977
艮土	-2978
▁82	-2979
疒艮	-2980
ae	-2981
▁己	-2982
止龰	-2983
pr	-2984
▁ngc	-2985
又力	-2986
ts	-2987
▁⿻⿱	-2988
▁sn	-2989
且一八頁	-2990
▁⿱⿰⿰	-2991
匚甲	-2992
口口几	-2993
▁81	-2994
ence	-2995
▁ps	-2996
米丂	-2997
▁⿱⿱⿲	-2998
厶牛	-2999
ivers	-3000
ica	-3001
特一八欠	-3002
per	-3003
▁pe	-3004
▁do	-3005
▁900	-3006
ical	-3007
丿二丨小	-3008
old	-3009
▁1905	-3010
人一朩土	-3011
ance	-3012
▁1915	-3013
𠁣𠃛月	-3014
▁1916	-3015
iki	-3016
ley	-3017
▁es	-3018
▁jo	-3019
亻弋黑	-3020
▁os	-3021
▁background	-3022
station	-3023
ere	-3024
丿囗米丂	-3025
扌彐	-3026
lat	-3027
▁1901	-3028
▁will	-3029
▁84	-3030
▁79	-3031
▁戊	-3032
▁fre	-3033
ase	-3034
cc	-3035
▁cor	-3036
▁gre	-3037
女干	-3038
▁爪	-3039
▁83	-3040
act	-3041
▁欠	-3042
own	-3043
爿一	-3044
片爿一	-3045
▁弓	-3046
▁color	-3047
▁playstation	-3048
▁love	-3049
氵谷	-3050
▁fl	-3051
▁nh	-3052
ool	-3053
▁cp	-3054
▁1500	-3055
八丂	-3056
且一八页	-3057
5%	-3058
for	-3059
▁5000	-3060
▁mod	-3061
纟千	-3062
▁youtube	-3063
book	-3064
立十束	-3065
ys	-3066
石几	-3067
▁you	-3068
▁gro	-3069
▁92	-3070
▁ep	-3071
▁1903	-3072
▁gen	-3073
▁text	-3074
ome	-3075
iam	-3076
土斌攵	-3077
竹由	-3078
▁min	-3079
金甫	-3080
大隹田	-3081
户犬	-3082
ash	-3083
▁廿	-3084
▁pa	-3085
▁ind	-3086
▁intern	-3087
use	-3088
gr	-3089
les	-3090
▁rob	-3091
▁sw	-3092
▁mon	-3093
言隹	-3094
木木彡	-3095
▁05	-3096
⺌冖口木	-3097
▁linux	-3098
▁gu	-3099
丰丰彐	-3100
▁mat	-3101
弓瓜	-3102
▁live	-3103
ga	-3104
▁89	-3105
▁1906	-3106
▁1908	-3107
宀八力	-3108
▁med	-3109
▁1907	-3110
口且	-3111
疋月	-3112
冫欠心	-3113
▁mag	-3114
ame	-3115
▁ic	-3116
口一心	-3117
▁micro	-3118
火火冖虫	-3119
王攵	-3120
立十瓜	-3121
ml	-3122
tr	-3123
▁univers	-3124
一自戈	-3125
▁360	-3126
▁91	-3127
pl	-3128
▁res	-3129
王鬼	-3130
tp	-3131
宀牛	-3132
⿰⿳⿱	-3133
土立	-3134
ve	-3135
木口	-3136
▁with	-3137
▁des	-3138
▁105	-3139
▁cla	-3140
纟韦	-3141
▁1904	-3142
ale	-3143
▁06	-3144
▁93	-3145
氵十	-3146
门木	-3147
▁silver	-3148
km	-3149
▁by	-3150
巛果刂	-3151
𠃋丿人力	-3152
⿱⿴⿱	-3153
ict	-3154
竹目大糸	-3155
ise	-3156
镸聿	-3157
ri	-3158
女亚	-3159
ho	-3160
ee	-3161
土及	-3162
ult	-3163
非車	-3164
▁dav	-3165
ms	-3166
ild	-3167
臣卜	-3168
氏丶阝	-3169
ara	-3170
tc	-3171
犬廾	-3172
艹犬廾	-3173
▁face	-3174
口电	-3175
▁09	-3176
me	-3177
氵必	-3178
幺幺田	-3179
丨丨比土	-3180
冂卄頁	-3181
va	-3182
▁rec	-3183
▁world	-3184
enn	-3185
丆且	-3186
eng	-3187
艹牙	-3188
丿米	-3189
▁ty	-3190
▁super	-3191
▁star	-3192
▁iii	-3193
匕禾頁	-3194
火户	-3195
hel	-3196
▁尸	-3197
丿米丨	-3198
▁94	-3199
ose	-3200
▁har	-3201
ork	-3202
▁int	-3203
af	-3204
氵山	-3205
酉州	-3206
亠斌大	-3207
▁bro	-3208
火东	-3209
冖果	-3210
耂日灬	-3211
彑冖果	-3212
urn	-3213
▁gl	-3214
▁su	-3215
mb	-3216
▁char	-3217
▁ent	-3218
ony	-3219
▁chr	-3220
ower	-3221
▁⿳⿻	-3222
ins	-3223
ade	-3224
言永	-3225
文而	-3226
士冖一	-3227
▁mm	-3228
八厶頁	-3229
宀臣	-3230
▁01	-3231
▁music	-3232
𠂊蛖力	-3233
▁fe	-3234
lex	-3235
大田	-3236
木东	-3237
▁07	-3238
yn	-3239
氵世	-3240
gb	-3241
⿰⿴	-3242
▁pet	-3243
艹心	-3244
八丂皿	-3245
der	-3246
▁can	-3247
尢力	-3248
▁count	-3249
门甲	-3250
亻丈	-3251
覀米	-3252
▁mc	-3253
▁air	-3254
▁akb	-3255
▁ms	-3256
▁350	-3257
▁08	-3258
▁bla	-3259
▁school	-3260
▁her	-3261
uth	-3262
stem	-3263
ward	-3264
人一口頁	-3265
▁ib	-3266
▁1898	-3267
itt	-3268
olog	-3269
丘丿	-3270
▁1895	-3271
▁stud	-3272
里予土	-3273
⿱⿵⿵	-3274
ana	-3275
口止戋	-3276
▁1902	-3277
▁⿸⿸⿸	-3278
ata	-3279
丷豕土	-3280
门人	-3281
火柬	-3282
扌发	-3283
ics	-3284
de	-3285
▁页	-3286
▁束	-3287
▁⿷⿱	-3288
禾隹	-3289
box	-3290
果𧘇	-3291
亠果𧘇	-3292
▁up	-3293
▁web	-3294
▁je	-3295
羊乚	-3296
亻卜	-3297
oth	-3298
ster	-3299
▁ua	-3300
▁facebook	-3301
▁str	-3302
ax	-3303
丨丨一刂	-3304
▁⿰⿱⿳	-3305
耳火	-3306
ca	-3307
虍几彡	-3308
ink	-3309
▁ir	-3310
犭里	-3311
禾刂牛	-3312
宀八缶	-3313
▁part	-3314
6%	-3315
米糸	-3316
扌卜	-3317
▁nor	-3318
耳卯	-3319
▁104	-3320
we	-3321
du	-3322
中𧘇	-3323
亠中𧘇	-3324
米糸廾	-3325
▁di	-3326
鬼未	-3327
幺芉丩	-3328
▁dis	-3329
4%	-3330
月方	-3331
月中	-3332
3%	-3333
纟方	-3334
▁system	-3335
ha	-3336
禺心	-3337
丿丿丶	-3338
月𠃓	-3339
石欠	-3340
▁af	-3341
soft	-3342
orn	-3343
▁che	-3344
br	-3345
厶厶土	-3346
ke	-3347
牛土	-3348
lo	-3349
ald	-3350
1%	-3351
甫方攵	-3352
▁ass	-3353
▁pol	-3354
钅内	-3355
口止止	-3356
月豕	-3357
7%	-3358
▁dc	-3359
▁ev	-3360
ler	-3361
▁⿰⿻⿵	-3362
▁li	-3363
2%	-3364
凵㐅儿	-3365
千口甫	-3366
▁108	-3367
▁sur	-3368
艹户	-3369
mer	-3370
一白弓	-3371
be	-3372
ike	-3373
ual	-3374
巛田	-3375
臣又月	-3376
ode	-3377
丿土攵心	-3378
▁ra	-3379
丶葭虫	-3380
虍力	-3381
㡀攵廾	-3382
▁ス	-3383
▁央	-3384
▁4000	-3385
asa	-3386
▁jav	-3387
8%	-3388
▁ss	-3389
▁red	-3390
dp	-3391
ille	-3392
冫東	-3393
匚巾	-3394
歺又米	-3395
ls	-3396
ude	-3397
▁106	-3398
▁bbc	-3399
pt	-3400
▁04	-3401
▁high	-3402
▁1890	-3403
▁125	-3404
oci	-3405
▁gn	-3406
▁jam	-3407
da	-3408
▁ref	-3409
犭且	-3410
册刂	-3411
歹千	-3412
roid	-3413
ugh	-3414
立口刂	-3415
cr	-3416
▁102	-3417
▁02	-3418
icon	-3419
att	-3420
ius	-3421
uch	-3422
ane	-3423
▁220	-3424
月重	-3425
▁ver	-3426
▁mark	-3427
口里	-3428
▁gir	-3429
女我	-3430
9%	-3431
ited	-3432
▁del	-3433
▁inst	-3434
ood	-3435
▁103	-3436
⿺⿸	-3437
豸艮土	-3438
口木𧘇	-3439
▁1896	-3440
氵文刂	-3441
hz	-3442
▁⿰⿸⿸	-3443
▁1200	-3444
▁not	-3445
丘丶	-3446
木丈	-3447
▁nowiki	-3448
▁off	-3449
臣人	-3450
▁ele	-3451
口于	-3452
▁hy	-3453
礻氏	-3454
ett	-3455
亻弋贝	-3456
䬎彐一八車	-3457
士冖一禾	-3458
▁頁	-3459
纟丩	-3460
▁william	-3461
ien	-3462
申𠃓	-3463
▁microsoft	-3464
dr	-3465
▁1897	-3466
ement	-3467
饣虫	-3468
日隹	-3469
ner	-3470
ition	-3471
eth	-3472
彐氺刂	-3473
亠口了灬	-3474
ream	-3475
广户	-3476
▁iv	-3477
▁mr	-3478
覀土瓦	-3479
ave	-3480
illa	-3481
月女	-3482
甘阝	-3483
▁team	-3484
▁1899	-3485
ject	-3486
oss	-3487
▁115	-3488
▁⿱⿶	-3489
土斌阝	-3490
亻弋山	-3491
▁册	-3492
氵心	-3493
𠂊田灬由	-3494
礻阝	-3495
▁cont	-3496
𠂊冫寸水	-3497
▁android	-3498
幺芉申	-3499
▁div	-3500
▁tvb	-3501
yl	-3502
▁et	-3503
ds	-3504
▁ter	-3505
幺月	-3506
幺月乚	-3507
𠂇火皿	-3508
ake	-3509
阝龙	-3510
▁107	-3511
讠隹	-3512
氵末	-3513
▁are	-3514
pa	-3515
▁兆	-3516
丶丶丶匕	-3517
▁val	-3518
疒皮	-3519
▁ke	-3520
sk	-3521
▁group	-3522
▁colle	-3523
▁art	-3524
⺌冖口牙	-3525
▁1889	-3526
▁university	-3527
▁da	-3528
▁saint	-3529
▁war	-3530
▁game	-3531
01	-3532
▁nhk	-3533
未攵	-3534
王厶	-3535
舟白	-3536
▁虫	-3537
▁舟	-3538
pm	-3539
宀龙	-3540
oph	-3541
▁international	-3542
▁卜	-3543
▁ec	-3544
⿰⿱⿶	-3545
丶丶丶匕彡	-3546
▁pre	-3547
氵斤	-3548
𠂇口心	-3549
▁sec	-3550
ings	-3551
able	-3552
▁03	-3553
丷夫目	-3554
木冖	-3555
木缶	-3556
木缶木冖	-3557
▁cy	-3558
▁cap	-3559
▁240	-3560
▁⿵⿱⿱	-3561
扌末	-3562
氵夕	-3563
田皿頁	-3564
艹甘	-3565
九力	-3566
ico	-3567
一廾阝	-3568
▁show	-3569
▁wal	-3570
月夫	-3571
▁act	-3572
iro	-3573
木更	-3574
fl	-3575
ott	-3576
▁iso	-3577
sa	-3578
䬎彐一八车	-3579
心心	-3580
雨文	-3581
▁david	-3582
▁450	-3583
月土	-3584
urg	-3585
▁111	-3586
贝长	-3587
ene	-3588
⿰⿸⿱⿱	-3589
▁109	-3590
▁50%	-3591
金隹	-3592
work	-3593
ino	-3594
丷十	-3595
门文	-3596
ons	-3597
vel	-3598
▁ig	-3599
竹立	-3600
火頁	-3601
▁128	-3602
冂口月	-3603
ero	-3604
▁1860	-3605
05	-3606
▁comm	-3607
▁cm	-3608
▁10%	-3609
cm	-3610
ear	-3611
▁big	-3612
ek	-3613
𠂎卩	-3614
自木	-3615
▁1880	-3616
▁bas	-3617
▁1600	-3618
let	-3619
⿰⿱⿰	-3620
▁1894	-3621
▁robert	-3622
▁day	-3623
▁vi	-3624
山我	-3625
▁xbox	-3626
▁ca	-3627
▁ta	-3628
ス工页	-3629
▁112	-3630
▁geor	-3631
▁sd	-3632
rit	-3633
▁135	-3634
uro	-3635
▁christ	-3636
▁that	-3637
ute	-3638
▁pla	-3639
八厶页	-3640
𠂊冫寸酉	-3641
▁tech	-3642
匕禾页	-3643
羊丑	-3644
▁ce	-3645
▁1800	-3646
oo	-3647
𠂊小心	-3648
ife	-3649
▁mor	-3650
way	-3651
▁open	-3652
门柬	-3653
▁fin	-3654
峴灬也	-3655
▁pop	-3656
里儿土	-3657
▁230	-3658
虍文	-3659
sc	-3660
▁eng	-3661
▁lim	-3662
▁http	-3663
▁ang	-3664
port	-3665
▁⿰⿱⿰⿱	-3666
甲一阝	-3667
▁cro	-3668
ena	-3669
立十玉	-3670
▁mk	-3671
▁fa	-3672
彑氺刂	-3673
▁paul	-3674
▁1870	-3675
▁bu	-3676
▁sim	-3677
▁top	-3678
ark	-3679
亠口子丸土	-3680
▁210	-3681
▁produ	-3682
ael	-3683
▁118	-3684
⿸⿸⿸	-3685
sm	-3686
虫丰	-3687
▁tom	-3688
▁mich	-3689
ari	-3690
▁from	-3691
𠘧又石	-3692
▁national	-3693
▁county	-3694
言乍	-3695
▁fc	-3696
▁max	-3697
巾长	-3698
木乚糸	-3699
uck	-3700
▁reg	-3701
▁1871	-3702
▁sam	-3703
▁155	-3704
po	-3705
丬夕水	-3706
▁rich	-3707
que	-3708
▁113	-3709
any	-3710
▁sol	-3711
亻朱	-3712
ese	-3713
▁1885	-3714
▁6000	-3715
▁don	-3716
▁du	-3717
by	-3718
〢又月	-3719
▁black	-3720
▁280	-3721
非车	-3722
▁pat	-3723
⿷⿱	-3724
▁na	-3725
糸言糸虫	-3726
▁trans	-3727
月长	-3728
石水	-3729
▁time	-3730
一止心	-3731
▁rad	-3732
▁city	-3733
iver	-3734
▁114	-3735
▁sl	-3736
一龰匕	-3737
▁games	-3738
ism	-3739
ram	-3740
阝人土	-3741
酉鬼	-3742
▁bm	-3743
日十戈	-3744
▁out	-3745
▁20%	-3746
▁cc	-3747
▁kh	-3748
▁kn	-3749
03	-3750
▁mp	-3751
⿰⿹⿶	-3752
osh	-3753
ron	-3754
▁ts	-3755
fo	-3756
▁⿸⿱⿰	-3757
oll	-3758
za	-3759
▁mer	-3760
木矛木	-3761
▁cal	-3762
弋心	-3763
大十	-3764
▁was	-3765
▁ber	-3766
▁win	-3767
未攵厂里	-3768
日立	-3769
▁vis	-3770
▁amer	-3771
口比	-3772
夂卜口	-3773
▁122	-3774
𠂇工月土	-3775
幺芉方	-3776
▁park	-3777
era	-3778
ior	-3779
▁116	-3780
冂人禸	-3781
▁ios	-3782
▁ur	-3783
▁dj	-3784
phone	-3785
to	-3786
厂犬	-3787
▁117	-3788
02	-3789
爿女	-3790
▁type	-3791
竹二	-3792
▁ha	-3793
衤彡	-3794
enc	-3795
谷欠心	-3796
山甲	-3797
▁il	-3798
八刀山	-3799
▁rock	-3800
▁org	-3801
木果	-3802
▁power	-3803
▁inc	-3804
艹斤	-3805
ya	-3806
▁king	-3807
▁sing	-3808
itter	-3809
fc	-3810
钅隹	-3811
一儿	-3812
▁ww	-3813
▁alex	-3814
▁james	-3815
▁utc	-3816
父斤	-3817
ubl	-3818
▁1892	-3819
扌予	-3820
几丶革	-3821
⿳⿲	-3822
▁1886	-3823
ex	-3824
▁1884	-3825
艹内	-3826
▁alb	-3827
ham	-3828
木冘	-3829
▁vo	-3830
ital	-3831
口米	-3832
亠斌虫	-3833
▁sal	-3834
▁260	-3835
ied	-3836
木矛木心	-3837
aph	-3838
▁ol	-3839
▁lib	-3840
net	-3841
戈十口	-3842
▁bill	-3843
▁fir	-3844
钅月	-3845
osa	-3846
rol	-3847
▁jap	-3848
女女	-3849
饣几	-3850
ven	-3851
▁sar	-3852
▁123	-3853
ス工力	-3854
▁java	-3855
▁class	-3856
▁oricon	-3857
▁1888	-3858
iff	-3859
▁vol	-3860
宀八弓	-3861
▁cat	-3862
pg	-3863
▁only	-3864
04	-3865
go	-3866
bl	-3867
▁record	-3868
▁sun	-3869
▁fla	-3870
▁ba	-3871
▁1893	-3872
▁1887	-3873
工水	-3874
fa	-3875
▁san	-3876
▁thom	-3877
コ儿	-3878
躯白	-3879
▁ibm	-3880
躯白コ儿	-3881
▁90%	-3882
06	-3883
革巴	-3884
ology	-3885
⿻⿵	-3886
丿丿皿	-3887
ield	-3888
礻也	-3889
豆寸	-3890
08	-3891
▁michael	-3892
木隶	-3893
▁750	-3894
▁kar	-3895
▁rna	-3896
艹朱	-3897
▁320	-3898
mun	-3899
itch	-3900
▁cpu	-3901
ertain	-3902
▁iphone	-3903
▁jun	-3904
▁127	-3905
▁145	-3906
▁80%	-3907
▁1876	-3908
▁2500	-3909
ution	-3910
▁best	-3911
▁121	-3912
竹目大厶	-3913
▁cs	-3914
ka	-3915
▁1861	-3916
ull	-3917
▁1850	-3918
车干	-3919
虫我	-3920
火巨	-3921
app	-3922
▁cre	-3923
▁tre	-3924
一㚱一土	-3925
礻必	-3926
⿻⿻	-3927
▁spec	-3928
mp	-3929
berg	-3930
冫东	-3931
▁129	-3932
▁wat	-3933
金金	-3934
▁techn	-3935
▁bre	-3936
⿵⿱⿱	-3937
▁bel	-3938
▁hot	-3939
止止	-3940
▁rom	-3941
▁ef	-3942
eration	-3943
▁arm	-3944
▁nat	-3945
▁ds	-3946
▁bet	-3947
▁ben	-3948
▁ga	-3949
inc	-3950
辶豆	-3951
las	-3952
▁1883	-3953
▁550	-3954
十豆口灬	-3955
▁mil	-3956
又艮	-3957
父卩	-3958
dy	-3959
▁1868	-3960
ors	-3961
▁she	-3962
▁30%	-3963
▁gdp	-3964
▁boy	-3965
虍隹	-3966
▁1891	-3967
▁end	-3968
07	-3969
td	-3970
火火冖玉	-3971
钅甲	-3972
▁serv	-3973
⿱⿰⿹	-3974
▁bi	-3975
▁stre	-3976
▁entertain	-3977
▁club	-3978
▁124	-3979
▁⿰⿰⿴	-3980
▁dream	-3981
氵弗	-3982
▁mart	-3983
▁japan	-3984
▁mi	-3985
ily	-3986
▁est	-3987
ini	-3988
㇇⿰⿱	-3989
ange	-3990
▁mont	-3991
亡女	-3992
礻乍	-3993
▁mg	-3994
▁oh	-3995
金柬	-3996
ric	-3997
▁126	-3998
▁丑	-3999
▁144	-4000
▁fil	-4001
▁119	-4002
100	-4003
ral	-4004
▁entertainment	-4005
立月䦯土	-4006
小土	-4007
▁fm	-4008
▁1862	-4009
▁sub	-4010
▁vir	-4011
▁arch	-4012
▁tour	-4013
++	-4014
▁jack	-4015
凵丨阝	-4016
▁life	-4017
攵灬	-4018
𠂊彐攵灬	-4019
▁media	-4020
▁650	-4021
▁dan	-4022
▁ve	-4023
▁1848	-4024
clude	-4025
白七	-4026
言朱	-4027
▁ko	-4028
▁der	-4029
耒禺	-4030
ump	-4031
女方	-4032
口夫艮	-4033
▁van	-4034
▁133	-4035
▁fire	-4036
▁1867	-4037
▁sg	-4038
▁177	-4039
ora	-4040
lin	-4041
▁137	-4042
石夕	-4043
▁ul	-4044
▁1877	-4045
line	-4046
▁twitter	-4047
▁1873	-4048
fs	-4049
▁175	-4050
▁ok	-4051
𠁣𠃛文	-4052
▁ant	-4053
ipt	-4054
金丑	-4055
▁⿸⿱⿱	-4056
xy	-4057
form	-4058
▁hen	-4059
ada	-4060
▁apple	-4061
bi	-4062
土文	-4063
▁kr	-4064
erson	-4065
▁1879	-4066
▁award	-4067
ita	-4068
木木毛	-4069
▁may	-4070
ication	-4071
𠁣𠃛木	-4072
▁1864	-4073
▁40%	-4074
ano	-4075
罒方	-4076
▁165	-4077
⿱⿻⿻	-4078
▁270	-4079
▁work	-4080
200	-4081
uss	-4082
櫵一也	-4083
▁tim	-4084
▁1865	-4085
urt	-4086
▁rev	-4087
▁禹	-4088
▁1878	-4089
ula	-4090
▁1875	-4091
▁port	-4092
▁dist	-4093
▁1882	-4094
禾几	-4095
▁house	-4096
uis	-4097
cd	-4098
ision	-4099
▁dd	-4100
▁152	-4101
▁737	-4102
女口心	-4103
▁abc	-4104
▁aut	-4105
▁1840	-4106
竹本	-4107
⿱⿰⿰	-4108
▁1881	-4109
▁hol	-4110
火土	-4111
▁8000	-4112
wn	-4113
led	-4114
bn	-4115
yth	-4116
▁unix	-4117
臣又豆	-4118
its	-4119
艹巨	-4120
〢又立	-4121
ij	-4122
人斗	-4123
▁line	-4124
▁road	-4125
𠂊田一里	-4126
▁sport	-4127
ated	-4128
▁154	-4129
央皿	-4130
▁first	-4131
▁intel	-4132
▁dem	-4133
▁project	-4134
虫文	-4135
our	-4136
▁1874	-4137
▁this	-4138
por	-4139
▁phil	-4140
▁mel	-4141
09	-4142
▁dire	-4143
艹甫	-4144
ery	-4145
▁college	-4146
che	-4147
▁richard	-4148
氵立	-4149
▁nt	-4150
丹彡	-4151
阝禺	-4152
▁pd	-4153
▁ast	-4154
▁good	-4155
▁sir	-4156
▁associ	-4157
▁132	-4158
千口刂	-4159
▁166	-4160
iew	-4161
min	-4162
oro	-4163
㚱一	-4164
金丁	-4165
冖㚱一	-4166
▁george	-4167
朿⺀	-4168
▁hel	-4169
▁gt	-4170
▁dec	-4171
ection	-4172
▁bus	-4173
宀丰口谷	-4174
undam	-4175
火页	-4176
▁adv	-4177
▁west	-4178
𠂊田灬屯	-4179
▁7000	-4180
凵丨隹	-4181
▁70%	-4182
press	-4183
▁fam	-4184
▁mem	-4185
▁hall	-4186
▁les	-4187
▁138	-4188
言柬	-4189
𠂊彐阝	-4190
▁wii	-4191
丿廾土	-4192
▁330	-4193
▁gar	-4194
▁1872	-4195
eral	-4196
氵木	-4197
▁miss	-4198
ky	-4199
▁1863	-4200
▁street	-4201
ator	-4202
比土	-4203
gin	-4204
亻鬼	-4205
▁www	-4206
▁euro	-4207
ama	-4208
㐅朩刂	-4209
▁乍	-4210
▁mad	-4211
▁1400	-4212
日大日	-4213
▁sr	-4214
𠂉一罒金	-4215
▁5%	-4216
匚隹	-4217
▁si	-4218
ates	-4219
▁rem	-4220
▁ka	-4221
求衣	-4222
一攵	-4223
▁sky	-4224
▁cv	-4225
ci	-4226
▁if	-4227
阝井	-4228
▁158	-4229
▁mid	-4230
▁mtv	-4231
𠂉大隹	-4232
▁156	-4233
include	-4234
com	-4235
▁cam	-4236
ular	-4237
▁ger	-4238
▁land	-4239
木巨	-4240
▁atp	-4241
▁metac	-4242
ican	-4243
▁led	-4244
▁sum	-4245
▁肃	-4246
▁pal	-4247
扌乃	-4248
口肃	-4249
⿰⿱⿻	-4250
▁gp	-4251
木木非	-4252
▁ann	-4253
ensis	-4254
▁unic	-4255
wan	-4256
月刂灬	-4257
▁1300	-4258
▁charles	-4259
讠柬	-4260
▁free	-4261
一丂頁	-4262
▁north	-4263
ety	-4264
ze	-4265
▁studio	-4266
氵且	-4267
▁wr	-4268
扌丸土	-4269
▁136	-4270
▁rh	-4271
▁1866	-4272
▁1869	-4273
▁lang	-4274
氵目	-4275
人彡戈	-4276
▁148	-4277
▁139	-4278
▁ram	-4279
ateg	-4280
丶葭我	-4281
▁100%	-4282
山谷	-4283
▁env	-4284
讠朱	-4285
ista	-4286
▁60%	-4287
▁html	-4288
▁pi	-4289
ger	-4290
▁ear	-4291
rop	-4292
ste	-4293
▁mob	-4294
ions	-4295
▁over	-4296
▁gundam	-4297
ritic	-4298
▁131	-4299
木甘	-4300
▁gold	-4301
ware	-4302
田八夂	-4303
▁metacritic	-4304
▁log	-4305
▁ever	-4306
▁china	-4307
石石	-4308
▁134	-4309
龙土	-4310
王王比	-4311
艹于	-4312
▁wil	-4313
隹十	-4314
丿丿丶心	-4315
臼籝由	-4316
▁kbs	-4317
▁ob	-4318
▁205	-4319
氵发	-4320
ris	-4321
▁168	-4322
▁kg	-4323
▁inf	-4324
▁tc	-4325
▁thomas	-4326
▁direct	-4327
▁peter	-4328
木鬼	-4329
金内	-4330
⿱⿻⿹	-4331
cript	-4332
囗口禾	-4333
王王巴	-4334
▁ray	-4335
▁146	-4336
▁south	-4337
sd	-4338
▁sony	-4339
cess	-4340
▁⿰⿱⿱⿱	-4341
扌止	-4342
▁ju	-4343
口龶阝	-4344
▁jose	-4345
ani	-4346
itz	-4347
vin	-4348
丷干丸土	-4349
▁records	-4350
火言	-4351
▁1830	-4352
▁franc	-4353
unes	-4354
▁mir	-4355
▁1700	-4356
▁grand	-4357
▁limited	-4358
▁unicode	-4359
ura	-4360
ford	-4361
ason	-4362
▁141	-4363
▁sci	-4364
▁your	-4365
火言火	-4366
▁bab	-4367
ki	-4368
丬夕酉	-4369
示示	-4370
▁long	-4371
mus	-4372
火言火又	-4373
▁ltd	-4374
ren	-4375
ally	-4376
幺芉肅	-4377
人示	-4378
ua	-4379
▁147	-4380
▁pan	-4381
ander	-4382
▁dom	-4383
ui	-4384
▁law	-4385
▁but	-4386
▁mov	-4387
sch	-4388
▁office	-4389
▁1100	-4390
▁tem	-4391
月工	-4392
str	-4393
▁256	-4394
ville	-4395
▁company	-4396
丬女	-4397
▁wid	-4398
▁153	-4399
▁1853	-4400
ker	-4401
▁dig	-4402
言内	-4403
▁luc	-4404
▁news	-4405
艹鬼	-4406
▁sbs	-4407
ella	-4408
ble	-4409
▁1858	-4410
▁mbc	-4411
▁747	-4412
▁ah	-4413
氵于	-4414
▁publ	-4415
▁fun	-4416
wa	-4417
▁fi	-4418
ents	-4419
ope	-4420
口肅	-4421
ush	-4422
耳心	-4423
▁aa	-4424
▁real	-4425
亠斌廾	-4426
▁form	-4427
千口自心	-4428
▁nasa	-4429
▁mb	-4430
▁420	-4431
ql	-4432
木丂	-4433
idge	-4434
ester	-4435
▁1859	-4436
𠂊冫寸木	-4437
▁just	-4438
▁143	-4439
▁151	-4440
讠乍	-4441
▁ham	-4442
亠斌木	-4443
ther	-4444
▁sig	-4445
▁chin	-4446
ja	-4447
忄束	-4448
竹生	-4449
ball	-4450
▁cct	-4451
目八力	-4452
竹干	-4453
弓丨丿刂	-4454
ny	-4455
▁1854	-4456
▁mot	-4457
一兀頁	-4458
▁25%	-4459
户攵口	-4460
▁ret	-4461
▁east	-4462
▁211	-4463
▁1857	-4464
▁225	-4465
▁203	-4466
▁camp	-4467
▁roy	-4468
釆由	-4469
▁tal	-4470
匕水	-4471
ule	-4472
▁amd	-4473
mo	-4474
▁az	-4475
氵及	-4476
▁pp	-4477
▁nov	-4478
▁jon	-4479
▁gnu	-4480
▁american	-4481
fe	-4482
▁squ	-4483
uz	-4484
si	-4485
金由	-4486
▁850	-4487
ative	-4488
土丹	-4489
▁andre	-4490
丿皿乑	-4491
▁lis	-4492
▁instit	-4493
▁214	-4494
▁production	-4495
▁blue	-4496
金巨	-4497
士冖业	-4498
日未	-4499
▁167	-4500
ling	-4501
口永	-4502
▁235	-4503
▁api	-4504
▁mal	-4505
▁tor	-4506
▁girls	-4507
▁157	-4508
亠田久	-4509
▁key	-4510
▁fer	-4511
▁380	-4512
▁hal	-4513
ko	-4514
▁xp	-4515
▁batt	-4516
▁who	-4517
牛冂刂手	-4518
▁ign	-4519
▁208	-4520
▁nav	-4521
木己	-4522
▁lar	-4523
禾火心	-4524
▁340	-4525
▁163	-4526
asc	-4527
▁173	-4528
▁301	-4529
丶葭几	-4530
纟申	-4531
▁1856	-4532
101	-4533
ival	-4534
木册	-4535
▁202	-4536
▁soft	-4537
▁215	-4538
▁lee	-4539
▁sant	-4540
li	-4541
阝皮	-4542
001	-4543
艹止	-4544
▁178	-4545
ello	-4546
▁kong	-4547
勹二	-4548
▁soc	-4549
▁149	-4550
▁association	-4551
▁song	-4552
▁chem	-4553
mann	-4554
▁isbn	-4555
▁great	-4556
els	-4557
▁hum	-4558
agon	-4559
▁dos	-4560
▁cast	-4561
石申	-4562
ody	-4563
▁categ	-4564
▁elect	-4565
▁1851	-4566
▁girl	-4567
禾儿	-4568
⿱⿱⿴⿱	-4569
丿囗㐅儿	-4570
▁far	-4571
▁1847	-4572
▁band	-4573
▁hong	-4574
𠘧又金	-4575
▁jul	-4576
▁dl	-4577
▁mill	-4578
▁young	-4579
▁ut	-4580
▁162	-4581
▁network	-4582
▁onlyinclude	-4583
饣我	-4584
𡗗臼	-4585
▁home	-4586
▁name	-4587
▁green	-4588
金屯	-4589
▁rap	-4590
▁von	-4591
urch	-4592
▁480	-4593
ih	-4594
no	-4595
丷干臼	-4596
ury	-4597
▁1855	-4598
▁tai	-4599
pc	-4600
▁159	-4601
▁bal	-4602
▁leg	-4603
女户	-4604
爫寸	-4605
▁bb	-4606
▁ova	-4607
▁pres	-4608
▁river	-4609
▁gala	-4610
vid	-4611
0%	-4612
ocal	-4613
▁night	-4614
▁how	-4615
▁om	-4616
ous	-4617
▁nbc	-4618
▁category	-4619
土斤	-4620
▁itunes	-4621
▁doc	-4622
red	-4623
▁td	-4624
▁15%	-4625
▁vict	-4626
ila	-4627
▁hist	-4628
▁inv	-4629
▁syn	-4630
▁176	-4631
▁post	-4632
▁gb	-4633
▁champ	-4634
fer	-4635
▁jean	-4636
角斗	-4637
fr	-4638
my	-4639
▁ext	-4640
▁que	-4641
▁207	-4642
▁206	-4643
▁cg	-4644
▁142	-4645
▁tbs	-4646
ipp	-4647
▁ll	-4648
▁183	-4649
艹末	-4650
木戋	-4651
urus	-4652
ns	-4653
广里	-4654
gbt	-4655
▁370	-4656
束欠	-4657
▁209	-4658
▁town	-4659
▁heart	-4660
▁ros	-4661
▁two	-4662
弓米	-4663
弓米弓	-4664
▁frank	-4665
ague	-4666
▁410	-4667
▁1852	-4668
▁soci	-4669
ips	-4670
▁ai	-4671
▁white	-4672
ney	-4673
gram	-4674
▁die	-4675
钅垂	-4676
▁tur	-4677
▁sat	-4678
丿丿刂	-4679
▁1841	-4680
▁164	-4681
钅里	-4682
▁sv	-4683
▁bank	-4684
ou	-4685
艮心	-4686
ios	-4687
ota	-4688
▁sin	-4689
▁290	-4690
▁ly	-4691
▁pag	-4692
▁1846	-4693
▁md	-4694
▁171	-4695
uv	-4696
钅由	-4697
erv	-4698
人目又	-4699
▁usb	-4700
burg	-4701
▁204	-4702
▁430	-4703
▁310	-4704
川一	-4705
▁anim	-4706
▁has	-4707
ws	-4708
金垂	-4709
ets	-4710
star	-4711
▁state	-4712
日文	-4713
wood	-4714
▁mak	-4715
▁169	-4716
▁internet	-4717
白鬼	-4718
ning	-4719
▁cbs	-4720
▁1849	-4721
▁hs	-4722
▁1%	-4723
▁221	-4724
▁stand	-4725
厶廾	-4726
ids	-4727
unc	-4728
▁tar	-4729
▁172	-4730
▁island	-4731
zo	-4732
女又弓	-4733
▁218	-4734
▁tro	-4735
▁⿺⿱⿱	-4736
ift	-4737
▁cur	-4738
▁hill	-4739
idae	-4740
ache	-4741
▁light	-4742
▁bay	-4743
▁width	-4744
mi	-4745
钅丁	-4746
▁book	-4747
▁1844	-4748
▁under	-4749
gy	-4750
▁184	-4751
▁cctv	-4752
▁distr	-4753
▁hor	-4754
▁disc	-4755
革斤	-4756
▁rub	-4757
ira	-4758
▁dh	-4759
▁bur	-4760
▁ceo	-4761
▁1815	-4762
▁1820	-4763
▁182	-4764
▁alph	-4765
ison	-4766
▁var	-4767
▁161	-4768
ional	-4769
▁year	-4770
obe	-4771
▁223	-4772
▁def	-4773
ima	-4774
▁rt	-4775
▁server	-4776
子皿力	-4777
▁mu	-4778
▁au	-4779
ape	-4780
▁ry	-4781
▁ice	-4782
▁united	-4783
ely	-4784
犬犬	-4785
▁pt	-4786
▁cle	-4787
▁dar	-4788
▁joseph	-4789
ats	-4790
▁1843	-4791
▁1845	-4792
囗甫	-4793
▁217	-4794
而女	-4795
500	-4796
▁commun	-4797
土于	-4798
▁enviro	-4799
▁⿻⿹	-4800
gen	-4801
▁vii	-4802
▁10000	-4803
ific	-4804
▁222	-4805
▁dev	-4806
▁bon	-4807
▁216	-4808
▁store	-4809
木工	-4810
ops	-4811
▁let	-4812
一大虫	-4813
▁238	-4814
▁肅	-4815
ucn	-4816
▁space	-4817
ree	-4818
▁174	-4819
忄鬼	-4820
▁212	-4821
▁1812	-4822
olf	-4823
▁henry	-4824
更生	-4825
▁401	-4826
▁181	-4827
▁cons	-4828
▁litt	-4829
扌弗	-4830
▁cas	-4831
lation	-4832
▁cho	-4833
▁iucn	-4834
氵兆	-4835
巳八夂	-4836
▁dep	-4837
xx	-4838
▁db	-4839
止自	-4840
▁ot	-4841
止自巳八夂	-4842
▁911	-4843
▁prof	-4844
虫牙	-4845
▁440	-4846
▁bob	-4847
▁ny	-4848
▁228	-4849
▁fran	-4850
▁cry	-4851
▁way	-4852
▁section	-4853
▁rpg	-4854
ather	-4855
▁179	-4856
▁men	-4857
▁1842	-4858
▁tele	-4859
矛攵	-4860
⺌冖口衣	-4861
▁god	-4862
▁1814	-4863
board	-4864
▁run	-4865
ideo	-4866
亻隹月	-4867
▁213	-4868
▁manag	-4869
▁xx	-4870
𠘧又木	-4871
zy	-4872
钅丑	-4873
▁jac	-4874
▁model	-4875
▁sel	-4876
钅刂	-4877
㐅乂玉	-4878
tps	-4879
▁lu	-4880
▁smith	-4881
▁ti	-4882
▁engine	-4883
米子	-4884
▁pv	-4885
rich	-4886
▁bit	-4887
▁cross	-4888
八厶儿	-4889
ures	-4890
▁expl	-4891
▁son	-4892
▁jump	-4893
ural	-4894
isc	-4895
azine	-4896
ye	-4897
日乍	-4898
▁battle	-4899
▁冉	-4900
丷丨	-4901
edia	-4902
丿乀	-4903
▁num	-4904
ister	-4905
▁radio	-4906
犭艮	-4907
▁spr	-4908
▁carl	-4909
den	-4910
▁tu	-4911
口犬	-4912
annel	-4913
pp	-4914
atic	-4915
▁bir	-4916
▁1789	-4917
▁mobile	-4918
ida	-4919
ji	-4920
raft	-4921
▁core	-4922
▁https	-4923
▁cha	-4924
▁church	-4925
丷酉犬	-4926
ense	-4927
▁crh	-4928
▁party	-4929
esh	-4930
▁general	-4931
▁255	-4932
ato	-4933
▁jan	-4934
金甲	-4935
▁comic	-4936
▁ze	-4937
⿸⿸⿸	-4938
木方	-4939
▁plus	-4940
氵朱	-4941
▁265	-4942
▁service	-4943
uct	-4944
▁hu	-4945
𠂇月土	-4946
▁league	-4947
▁control	-4948
▁fn	-4949
▁arr	-4950
field	-4951
▁dm	-4952
丨丨比灬	-4953
▁martin	-4954
耳止	-4955
rpm	-4956
ington	-4957
ty	-4958
▁gi	-4959
▁mas	-4960
▁snh	-4961
▁lgbt	-4962
言且	-4963
▁rep	-4964
木丶刂	-4965
cs	-4966
▁pala	-4967
▁louis	-4968
火田	-4969
well	-4970
▁219	-4971
▁magazine	-4972
aya	-4973
earch	-4974
bor	-4975
衤寸	-4976
▁station	-4977
艹我	-4978
▁steam	-4979
▁1792	-4980
言牙	-4981
▁mt	-4982
▁pass	-4983
lad	-4984
▁box	-4985
▁his	-4986
一乚	-4987
忄斤	-4988
一乚丶	-4989
▁foot	-4990
▁bh	-4991
丬夕木	-4992
▁research	-4993
▁275	-4994
▁mit	-4995
艹艮	-4996
▁cir	-4997
▁xml	-4998
▁mult	-4999
▁jim	-5000
als	-5001
▁bad	-5002
▁online	-5003
201	-5004
▁little	-5005
▁ki	-5006
▁wwe	-5007
宀石	-5008
▁fest	-5009
宀一	-5010
▁child	-5011
yr	-5012
▁mur	-5013
▁0%	-5014
▁610	-5015
▁1835	-5016
▁pier	-5017
▁460	-5018
oy	-5019
▁sports	-5020
立十木	-5021
▁gal	-5022
▁寸	-5023
氵虫	-5024
一兀页	-5025
▁moz	-5026
黑攵	-5027
山一黑攵	-5028
▁aust	-5029
ks	-5030
▁aug	-5031
▁muse	-5032
▁ins	-5033
▁365	-5034
▁sand	-5035
▁master	-5036
乙水	-5037
peg	-5038
une	-5039
ox	-5040
oid	-5041
▁tg	-5042
▁1832	-5043
酉禾	-5044
▁mol	-5045
▁mount	-5046
▁sound	-5047
亻两	-5048
▁fox	-5049
▁sem	-5050
阝千	-5051
▁set	-5052
▁like	-5053
爿士大	-5054
velop	-5055
▁asia	-5056
日斤	-5057
ple	-5058
cy	-5059
山民	-5060
cast	-5061
▁mary	-5062
▁3500	-5063
▁special	-5064
▁コ	-5065
女口糸	-5066
▁cf	-5067
eter	-5068
ship	-5069
▁1839	-5070
▁corpor	-5071
▁junior	-5072
ette	-5073
▁den	-5074
▁1795	-5075
▁001	-5076
▁75%	-5077
ili	-5078
▁poly	-5079
ization	-5080
▁305	-5081
▁720	-5082
▁plan	-5083
▁640	-5084
永日	-5085
urs	-5086
▁channel	-5087
▁950	-5088
𠂊田一刂	-5089
▁institute	-5090
301	-5091
讠韦	-5092
gar	-5093
▁vs	-5094
▁560	-5095
▁1793	-5096
艹冖火	-5097
pan	-5098
▁bea	-5099
▁kw	-5100
hell	-5101
▁ae	-5102
adem	-5103
▁226	-5104
▁code	-5105
asy	-5106
▁conc	-5107
cher	-5108
▁aw	-5109
ient	-5110
▁victor	-5111
▁pac	-5112
▁1821	-5113
uel	-5114
iana	-5115
▁224	-5116
▁have	-5117
off	-5118
▁design	-5119
▁program	-5120
业阝	-5121
▁glob	-5122
艹冖玉	-5123
毛毛	-5124
▁lg	-5125
▁777	-5126
▁journ	-5127
igo	-5128
▁1838	-5129
▁bor	-5130
▁marc	-5131
▁after	-5132
▁brit	-5133
火𠃓	-5134
▁1836	-5135
aga	-5136
▁word	-5137
▁edward	-5138
out	-5139
▁point	-5140
▁society	-5141
贝戋	-5142
▁229	-5143
▁small	-5144
▁rd	-5145
▁540	-5146
▁express	-5147
金里	-5148
▁non	-5149
▁visual	-5150
bert	-5151
▁lam	-5152
▁1824	-5153
▁next	-5154
厂人	-5155
▁501	-5156
▁att	-5157
▁video	-5158
钅屯	-5159
gan	-5160
目兆	-5161
▁520	-5162
▁prot	-5163
▁develop	-5164
▁vista	-5165
石乐	-5166
▁ml	-5167
▁239	-5168
▁low	-5169
▁tak	-5170
▁1825	-5171
氵屯	-5172
501	-5173
ider	-5174
ious	-5175
▁iee	-5176
▁nam	-5177
pi	-5178
▁pm	-5179
▁1644	-5180
ars	-5181
▁2021	-5182
▁245	-5183
▁249	-5184
acy	-5185
▁gh	-5186
ility	-5187
▁1801	-5188
▁308	-5189
▁hbo	-5190
㇇⿱⿱	-5191
▁down	-5192
衤末	-5193
▁ieee	-5194
pn	-5195
▁232	-5196
ocket	-5197
▁happ	-5198
▁scott	-5199
ola	-5200
▁234	-5201
▁maj	-5202
▁galaxy	-5203
▁325	-5204
峴灬川	-5205
▁ct	-5206
▁227	-5207
uld	-5208
▁htc	-5209
▁2022	-5210
▁ni	-5211
▁530	-5212
人人攵	-5213
▁1806	-5214
亻田	-5215
ces	-5216
士口頁	-5217
▁262	-5218
▁fed	-5219
lam	-5220
ona	-5221
▁601	-5222
▁580	-5223
▁680	-5224
▁311	-5225
▁tel	-5226
▁978	-5227
▁data	-5228
匕水页	-5229
丿𠃌攵虫	-5230
ni	-5231
och	-5232
月寸	-5233
orm	-5234
vent	-5235
𠂊彐隹	-5236
▁251	-5237
▁1837	-5238
▁moon	-5239
▁bern	-5240
▁cin	-5241
口丁	-5242
▁rs	-5243
▁bec	-5244
▁hom	-5245
▁hon	-5246
▁more	-5247
▁1831	-5248
ize	-5249
▁map	-5250
▁jer	-5251
▁hard	-5252
ret	-5253
口王阝	-5254
▁233	-5255
▁steph	-5256
习习欠	-5257
▁rog	-5258
bit	-5259
⿴⿱	-5260
▁470	-5261
yp	-5262
win	-5263
olution	-5264
囗口阝	-5265
▁mach	-5266
inal	-5267
▁kir	-5268
▁wo	-5269
▁mos	-5270
𦣞页	-5271
ao	-5272
辶于	-5273
▁second	-5274
▁390	-5275
囗口示	-5276
▁9000	-5277
▁found	-5278
▁taiwan	-5279
▁nd	-5280
▁mom	-5281
▁bs	-5282
▁pay	-5283
▁chinese	-5284
300	-5285
▁brown	-5286
▁science	-5287
oto	-5288
rome	-5289
𠂊⺀	-5290
aker	-5291
face	-5292
▁asc	-5293
▁level	-5294
ogr	-5295
𠂊⺀火	-5296
▁1833	-5297
▁mozilla	-5298
▁right	-5299
▁307	-5300
▁sen	-5301
亡民	-5302
▁fal	-5303
▁build	-5304
▁francis	-5305
kg	-5306
▁dor	-5307
▁sql	-5308
亠口小頁	-5309
▁royal	-5310
▁1776	-5311
ng	-5312
氵亡	-5313
▁spe	-5314
丿囗㐅比	-5315
𠁣𠃛心	-5316
wor	-5317
▁246	-5318
▁1810	-5319
▁fly	-5320
▁mini	-5321
▁peop	-5322
stein	-5323
▁explor	-5324
宀八巾	-5325
▁call	-5326
ations	-5327
tor	-5328
▁union	-5329
601	-5330
mat	-5331
▁wa	-5332
▁620	-5333
▁cup	-5334
▁som	-5335
▁angel	-5336
金玉	-5337
▁film	-5338
𦣞頁	-5339
▁place	-5340
矛攵女	-5341
▁rain	-5342
▁champion	-5343
釆田阝	-5344
火夬	-5345
▁eb	-5346
fox	-5347
▁aud	-5348
▁what	-5349
▁pg	-5350
ness	-5351
▁pap	-5352
▁236	-5353
ender	-5354
▁gov	-5355
立十刀	-5356
▁liv	-5357
▁adobe	-5358
一由	-5359
ency	-5360
▁618	-5361
▁ax	-5362
down	-5363
▁95%	-5364
▁1834	-5365
max	-5366
▁corporation	-5367
arch	-5368
▁flash	-5369
▁ku	-5370
▁ub	-5371
▁vr	-5372
▁eric	-5373
▁237	-5374
▁had	-5375
▁orig	-5376
ei	-5377
▁left	-5378
▁630	-5379
匚㐅瓦	-5380
▁285	-5381
▁dam	-5382
ost	-5383
▁equ	-5384
▁matt	-5385
▁fu	-5386
▁1790	-5387
▁254	-5388
▁1822	-5389
▁wi	-5390
▁303	-5391
幺芉非	-5392
▁1826	-5393
▁od	-5394
▁gra	-5395
▁technology	-5396
701	-5397
▁243	-5398
▁cu	-5399
▁nm	-5400
▁512	-5401
▁ace	-5402
特一八石	-5403
▁square	-5404
尸九	-5405
▁510	-5406
▁ns	-5407
▁cit	-5408
扌斗	-5409
▁2%	-5410
立月䦯耳	-5411
▁242	-5412
▁1799	-5413
▁york	-5414
▁315	-5415
▁get	-5416
▁exp	-5417
▁mvp	-5418
▁802	-5419
口牙	-5420
▁sf	-5421
▁mix	-5422
vidia	-5423
ython	-5424
▁1828	-5425
㇇⿸⿸	-5426
▁maria	-5427
ym	-5428
▁jt	-5429
▁266	-5430
▁318	-5431
force	-5432
▁pent	-5433
iy	-5434
舟甲	-5435
ique	-5436
iness	-5437
ume	-5438
▁which	-5439
扌母	-5440
厶口心	-5441
over	-5442
戊一小	-5443
▁nvidia	-5444
日广	-5445
▁244	-5446
agram	-5447
▁arts	-5448
other	-5449
▁gard	-5450
380	-5451
▁vl	-5452
▁ing	-5453
▁summer	-5454
▁252	-5455
▁final	-5456
▁digital	-5457
▁firefox	-5458
▁christian	-5459
▁1791	-5460
▁card	-5461
▁comput	-5462
▁last	-5463
▁hold	-5464
▁touch	-5465
▁338	-5466
▁tam	-5467
礻止	-5468
▁1804	-5469
row	-5470
龷由八阝	-5471
▁1813	-5472
▁head	-5473
▁vers	-5474
▁daniel	-5475
▁241	-5476
▁arc	-5477
▁press	-5478
女疌	-5479
𠂉生	-5480
401	-5481
ote	-5482
人人頁	-5483
sport	-5484
▁1829	-5485
▁960	-5486
▁bbs	-5487
aster	-5488
▁sign	-5489
res	-5490
gs	-5491
col	-5492
▁qq	-5493
ices	-5494
jo	-5495
tl	-5496
lor	-5497
▁festival	-5498
▁ken	-5499
▁ren	-5500
ago	-5501
▁hit	-5502
▁1823	-5503
▁clar	-5504
▁1818	-5505
▁again	-5506
▁cnn	-5507
▁1819	-5508
▁258	-5509
▁660	-5510
▁software	-5511
▁operation	-5512
ater	-5513
▁248	-5514
▁enter	-5515
hd	-5516
▁264	-5517
▁hand	-5518
▁social	-5519
▁253	-5520
▁312	-5521
刀口力	-5522
▁304	-5523
▁adam	-5524
尸米	-5525
𠂊小玉	-5526
▁apg	-5527
elle	-5528
㇇⿻	-5529
▁nad	-5530
▁1775	-5531
▁europe	-5532
▁hp	-5533
▁302	-5534
▁1802	-5535
▁fact	-5536
▁3%	-5537
flix	-5538
▁chi	-5539
▁psy	-5540
▁alexander	-5541
mar	-5542
umb	-5543
▁1816	-5544
▁global	-5545
anna	-5546
▁bat	-5547
▁bc	-5548
▁247	-5549
▁fif	-5550
▁pos	-5551
▁switch	-5552
▁277	-5553
▁wood	-5554
▁public	-5555
二贝	-5556
zer	-5557
▁268	-5558
▁tran	-5559
𠂊彐皮	-5560
▁deb	-5561
▁beat	-5562
▁sav	-5563
ascript	-5564
▁cell	-5565
▁ff	-5566
▁old	-5567
▁phone	-5568
onom	-5569
▁cop	-5570
▁fant	-5571
▁netflix	-5572
夂月	-5573
▁269	-5574
▁⿱⿻⿻	-5575
▁august	-5576
ika	-5577
▁323	-5578
▁bey	-5579
▁fx	-5580
▁1780	-5581
▁1796	-5582
▁astro	-5583
竹尹	-5584
400	-5585
糸言糸金	-5586
丰寸灬	-5587
▁1794	-5588
▁rail	-5589
▁people	-5590
▁ri	-5591
▁acc	-5592
▁princ	-5593
▁football	-5594
▁231	-5595
▁gd	-5596
ters	-5597
▁series	-5598
▁gm	-5599
癶豆几	-5600
▁295	-5601
▁und	-5602
▁257	-5603
801	-5604
▁273	-5605
▁viv	-5606
▁circ	-5607
▁cb	-5608
⺊尸页	-5609
▁explorer	-5610
氵金	-5611
▁263	-5612
▁cra	-5613
▁1807	-5614
▁lond	-5615
▁academ	-5616
火山	-5617
rie	-5618
▁og	-5619
▁lady	-5620
▁mah	-5621
▁va	-5622
▁yg	-5623
▁4500	-5624
▁570	-5625
▁1805	-5626
▁hello	-5627
▁langu	-5628
木由	-5629
▁were	-5630
▁pk	-5631
▁uc	-5632
▁instagram	-5633
kin	-5634
omb	-5635
▁kl	-5636
▁ash	-5637
▁asp	-5638
▁1650	-5639
▁bt	-5640
2000	-5641
▁prem	-5642
▁dance	-5643
▁district	-5644
䒑未阝	-5645
▁ker	-5646
▁1645	-5647
▁1798	-5648
▁management	-5649
▁306	-5650
▁pen	-5651
iga	-5652
▁276	-5653
▁yah	-5654
▁1809	-5655
▁uss	-5656
▁ru	-5657
木且	-5658
王民	-5659
▁tcp	-5660
▁1750	-5661
▁block	-5662
▁nu	-5663
▁billboard	-5664
yd	-5665
▁299	-5666
▁701	-5667
ird	-5668
▁286	-5669
▁272	-5670
𠂊田灬比	-5671
▁1803	-5672
▁ft	-5673
▁ye	-5674
▁python	-5675
▁2100	-5676
▁georg	-5677
ible	-5678
ran	-5679
▁fri	-5680
▁gab	-5681
▁2400	-5682
▁ipad	-5683
ograph	-5684
彳方	-5685
竹及	-5686
▁eg	-5687
▁fut	-5688
▁pagasa	-5689
▁386	-5690
▁psp	-5691
key	-5692
▁yu	-5693
▁dol	-5694
▁1808	-5695
▁767	-5696
▁read	-5697
▁awards	-5698
rick	-5699
▁counc	-5700
▁family	-5701
▁vocal	-5702
▁490	-5703
▁tan	-5704
▁perf	-5705
▁force	-5706
▁425	-5707
▁bug	-5708
▁288	-5709
▁eff	-5710
oe	-5711
▁296	-5712
▁fair	-5713
ohc	-5714
▁pu	-5715
▁rb	-5716
▁emu	-5717
▁1788	-5718
▁1817	-5719
▁279	-5720
人一口龙	-5721
▁lat	-5722
八厶瓦	-5723
▁water	-5724
▁museum	-5725
▁council	-5726
▁bf	-5727
▁cw	-5728
▁wom	-5729
▁1787	-5730
▁820	-5731
▁nc	-5732
▁alt	-5733
▁mess	-5734
inger	-5735
▁dark	-5736
▁train	-5737
▁dt	-5738
▁780	-5739
▁pin	-5740
▁hop	-5741
▁gps	-5742
ros	-5743
▁ja	-5744
▁din	-5745
▁imp	-5746
▁278	-5747
▁journal	-5748
ident	-5749
▁stad	-5750
lab	-5751
▁mnet	-5752
▁pdf	-5753
▁rod	-5754
iko	-5755
▁um	-5756
▁alf	-5757
uke	-5758
▁np	-5759
aven	-5760
▁javascript	-5761
nes	-5762
▁ea	-5763
▁gun	-5764
▁ven	-5765
▁357	-5766
▁mike	-5767
▁298	-5768
▁rat	-5769
▁ld	-5770
▁tn	-5771
esis	-5772
▁cult	-5773
▁doub	-5774
▁market	-5775
▁central	-5776
mon	-5777
▁sab	-5778
▁london	-5779
osp	-5780
▁meth	-5781
▁earth	-5782
hr	-5783
彳非	-5784
▁ult	-5785
丿𠃌攵灬	-5786
▁inform	-5787
cho	-5788
▁1592	-5789
耳冘	-5790
▁271	-5791
▁348	-5792
▁albert	-5793
901	-5794
oma	-5795
▁臼	-5796
▁335	-5797
▁1580	-5798
▁main	-5799
▁1783	-5800
▁conn	-5801
▁ipod	-5802
▁chris	-5803
ias	-5804
play	-5805
▁sor	-5806
▁710	-5807
▁centre	-5808
肀二	-5809
▁sche	-5810
▁tvbs	-5811
▁anton	-5812
匚久	-5813
oud	-5814
▁274	-5815
▁bud	-5816
▁ide	-5817
▁well	-5818
nd	-5819
▁its	-5820
▁1550	-5821
▁2600	-5822
▁mun	-5823
▁beta	-5824
▁sb	-5825
▁ske	-5826
ti	-5827
men	-5828
rey	-5829
櫵一户	-5830
▁801	-5831
▁mig	-5832
▁1568	-5833
▁soul	-5834
▁730	-5835
▁andrew	-5836
火虫	-5837
▁385	-5838
▁zero	-5839
▁frame	-5840
日大手	-5841
▁333	-5842
▁901	-5843
▁arg	-5844
▁edition	-5845
一夕	-5846
▁313	-5847
▁story	-5848
▁bell	-5849
rad	-5850
▁blu	-5851
▁bul	-5852
▁four	-5853
▁basic	-5854
▁round	-5855
eta	-5856
口止果	-5857
▁415	-5858
▁670	-5859
▁stat	-5860
▁front	-5861
金肅	-5862
aka	-5863
儿丨皿	-5864
▁324	-5865
▁375	-5866
▁ban	-5867
▁meg	-5868
▁friend	-5869
▁say	-5870
▁gall	-5871
▁kill	-5872
▁kon	-5873
久火	-5874
民攵	-5875
▁leon	-5876
cept	-5877
▁ipv	-5878
320	-5879
▁album	-5880
▁alpha	-5881
ines	-5882
丿士贝	-5883
民攵心	-5884
▁259	-5885
▁link	-5886
je	-5887
vision	-5888
豸艮心	-5889
▁dur	-5890
▁chan	-5891
▁lord	-5892
▁fried	-5893
vo	-5894
▁319	-5895
▁jeff	-5896
▁human	-5897
钅本	-5898
▁590	-5899
▁they	-5900
kh	-5901
ful	-5902
櫵一川	-5903
▁281	-5904
▁sund	-5905
▁hi	-5906
▁2300	-5907
王久	-5908
caa	-5909
▁621	-5910
▁1827	-5911
▁stan	-5912
▁85%	-5913
▁kim	-5914
iter	-5915
▁begin	-5916
ova	-5917
ston	-5918
▁328	-5919
▁757	-5920
▁tit	-5921
▁note	-5922
mond	-5923
▁aaa	-5924
▁ath	-5925
▁drive	-5926
▁rac	-5927
ering	-5928
▁880	-5929
丷干丸手	-5930
▁289	-5931
⿱⿶⿱⿰	-5932
mhz	-5933
▁267	-5934
▁284	-5935
▁sho	-5936
▁2200	-5937
▁283	-5938
▁282	-5939
▁589	-5940
▁kiss	-5941
▁pack	-5942
vi	-5943
忄冘	-5944
木木阝	-5945
弓也	-5946
▁293	-5947
▁316	-5948
▁⿱⿰⿻⿱	-5949
yt	-5950
▁314	-5951
▁mcc	-5952
▁vel	-5953
ami	-5954
con	-5955
气山	-5956
禾央	-5957
get	-5958
▁php	-5959
cha	-5960
una	-5961
▁525	-5962
▁760	-5963
▁lake	-5964
▁list	-5965
▁bg	-5966
▁joe	-5967
▁lab	-5968
tern	-5969
▁base	-5970
▁trip	-5971
ities	-5972
▁development	-5973
▁787	-5974
▁lum	-5975
▁systems	-5976
尸比	-5977
▁261	-5978
▁309	-5979
▁prim	-5980
▁russ	-5981
▁unit	-5982
▁children	-5983
▁ten	-5984
日一頁	-5985
▁287	-5986
▁322	-5987
▁fort	-5988
▁巾	-5989
▁mx	-5990
▁dim	-5991
▁412	-5992
▁hay	-5993
▁ncaa	-5994
▁amaz	-5995
▁prop	-5996
▁dragon	-5997
宀心	-5998
▁ay	-5999
ania	-6000
▁345	-6001
▁tra	-6002
▁dy	-6003
heim	-6004
▁1582	-6005
言夬	-6006
iii	-6007
▁355	-6008
▁sour	-6009
▁test	-6010
▁secret	-6011
氵耳	-6012
lie	-6013
▁331	-6014
▁334	-6015
▁830	-6016
▁1553	-6017
▁1811	-6018
kb	-6019
▁321	-6020
▁lamb	-6021
▁shar	-6022
uri	-6023
▁tay	-6024
口垂	-6025
金川	-6026
▁oc	-6027
▁1571	-6028
女予	-6029
由月	-6030
▁742	-6031
▁hiv	-6032
▁kat	-6033
▁1080	-6034
▁cook	-6035
hs	-6036
▁iec	-6037
▁1570	-6038
▁wild	-6039
kt	-6040
ria	-6041
▁327	-6042
▁fel	-6043
▁rows	-6044
less	-6045
▁there	-6046
▁1770	-6047
𠂉大聿	-6048
alth	-6049
▁inn	-6050
▁1583	-6051
▁anth	-6052
▁educ	-6053
▁toky	-6054
▁405	-6055
▁903	-6056
▁exc	-6057
▁dest	-6058
▁ia	-6059
▁rfc	-6060
ror	-6061
▁317	-6062
▁359	-6063
▁const	-6064
▁ill	-6065
▁1648	-6066
db	-6067
do	-6068
▁1565	-6069
▁mass	-6070
don	-6071
▁758	-6072
▁gil	-6073
习习隹戈	-6074
ado	-6075
艹韦	-6076
▁326	-6077
▁zone	-6078
▁happy	-6079
bus	-6080
▁plat	-6081
▁pur	-6082
sl	-6083
zi	-6084
▁344	-6085
▁583	-6086
▁hat	-6087
▁416	-6088
白田	-6089
▁fan	-6090
house	-6091
▁1778	-6092
▁nar	-6093
▁wond	-6094
▁rowspan	-6095
bsd	-6096
▁uk	-6097
▁417	-6098
▁our	-6099
▁some	-6100
▁court	-6101
▁fifa	-6102
▁prom	-6103
▁works	-6104
car	-6105
⿻⿹	-6106
▁sla	-6107
▁1777	-6108
▁lind	-6109
▁beyond	-6110
不一阝	-6111
▁pas	-6112
▁ple	-6113
ember	-6114
▁baby	-6115
▁407	-6116
▁history	-6117
ating	-6118
hp	-6119
esc	-6120
ito	-6121
▁528	-6122
▁atl	-6123
▁organ	-6124
▁person	-6125
▁marie	-6126
▁villa	-6127
anda	-6128
anth	-6129
▁govern	-6130
二丨心	-6131
mail	-6132
▁kde	-6133
▁1784	-6134
扌龙	-6135
立日欠	-6136
uber	-6137
▁1797	-6138
▁arth	-6139
于皿	-6140
▁707	-6141
▁emi	-6142
▁swe	-6143
▁356	-6144
▁jyp	-6145
▁object	-6146
▁404	-6147
▁1640	-6148
itte	-6149
▁354	-6150
▁steve	-6151
▁ie	-6152
▁rp	-6153
士口页	-6154
▁1785	-6155
▁qual	-6156
▁607	-6157
ati	-6158
olk	-6159
▁gla	-6160
▁sus	-6161
▁lor	-6162
▁ron	-6163
▁1661	-6164
▁their	-6165
eck	-6166
sen	-6167
▁740	-6168
▁america	-6169
ves	-6170
革央	-6171
▁edge	-6172
▁dal	-6173
elf	-6174
方土	-6175
方方土	-6176
▁411	-6177
▁abo	-6178
▁tokyo	-6179
▁business	-6180
▁690	-6181
▁cab	-6182
▁virt	-6183
▁980	-6184
▁ball	-6185
▁prin	-6186
▁smart	-6187
▁por	-6188
▁346	-6189
▁535	-6190
▁860	-6191
▁three	-6192
▁421	-6193
▁solo	-6194
▁291	-6195
▁bmw	-6196
▁fall	-6197
▁start	-6198
▁scr	-6199
▁other	-6200
of	-6201
小丿女	-6202
幺芉予	-6203
iger	-6204
▁ted	-6205
▁fore	-6206
▁spir	-6207
▁got	-6208
⿱⿰⿱⿴	-6209
▁418	-6210
athan	-6211
▁know	-6212
▁bridge	-6213
iano	-6214
▁921	-6215
▁opt	-6216
▁saf	-6217
▁1586	-6218
▁math	-6219
▁seed	-6220
awa	-6221
lish	-6222
▁384	-6223
▁297	-6224
▁shell	-6225
▁tex	-6226
▁queen	-6227
ole	-6228
▁dog	-6229
ument	-6230
门心	-6231
▁ghz	-6232
▁beaut	-6233
▁brand	-6234
刀丿止	-6235
icle	-6236
ques	-6237
▁445	-6238
▁930	-6239
▁diff	-6240
▁libr	-6241
▁samu	-6242
ban	-6243
▁343	-6244
▁403	-6245
▁2030	-6246
▁840	-6247
勹口灬	-6248
▁ton	-6249
𠂊冫寸大	-6250
▁1577	-6251
▁boss	-6252
▁profess	-6253
立十子	-6254
▁1521	-6255
▁feat	-6256
▁true	-6257
亻非	-6258
木王	-6259
▁chap	-6260
▁ey	-6261
▁caf	-6262
▁1646	-6263
▁process	-6264
▁810	-6265
▁fac	-6266
▁pot	-6267
▁1786	-6268
val	-6269
▁1368	-6270
▁deep	-6271
▁shad	-6272
▁johnson	-6273
nm	-6274
utv	-6275
▁329	-6276
▁hip	-6277
▁mmc	-6278
耳𠃊	-6279
▁007	-6280
▁465	-6281
▁nex	-6282
▁wta	-6283
▁1760	-6284
ission	-6285
600	-6286
▁294	-6287
▁dat	-6288
▁aven	-6289
扌八	-6290
oli	-6291
火火木	-6292
▁rose	-6293
▁trav	-6294
▁413	-6295
𠂊田灬刂	-6296
▁field	-6297
▁292	-6298
▁add	-6299
▁philip	-6300
chen	-6301
▁395	-6302
uf	-6303
▁402	-6304
▁jay	-6305
▁los	-6306
▁sha	-6307
▁cher	-6308
言非	-6309
▁fbi	-6310
▁mik	-6311
▁order	-6312
hi	-6313
▁8%	-6314
木木女	-6315
▁770	-6316
▁stephen	-6317
▁function	-6318
木乐	-6319
isa	-6320
▁419	-6321
▁sea	-6322
▁jess	-6323
▁number	-6324
凵丨皮	-6325
▁kan	-6326
▁2700	-6327
▁conf	-6328
▁yahoo	-6329
▁6%	-6330
厶口火	-6331
itor	-6332
▁dia	-6333
▁alan	-6334
▁352	-6335
▁indust	-6336
iti	-6337
▁358	-6338
▁ern	-6339
▁rx	-6340
▁pierre	-6341
▁break	-6342
erm	-6343
ector	-6344
rent	-6345
unter	-6346
▁action	-6347
kw	-6348
lect	-6349
▁581	-6350
▁appl	-6351
▁bang	-6352
▁cand	-6353
▁carol	-6354
▁tb	-6355
▁broad	-6356
▁gpl	-6357
▁367	-6358
▁raw	-6359
▁414	-6360
▁rot	-6361
▁viutv	-6362
钅白	-6363
▁999	-6364
osaurus	-6365
gi	-6366
▁1781	-6367
sky	-6368
▁336	-6369
▁moh	-6370
▁single	-6371
▁language	-6372
▁stra	-6373
amin	-6374
anga	-6375
▁ess	-6376
din	-6377
▁870	-6378
▁jos	-6379
▁take	-6380
▁448	-6381
▁502	-6382
▁627	-6383
▁dead	-6384
▁track	-6385
▁kin	-6386
▁tod	-6387
▁kk	-6388
▁bin	-6389
▁mpeg	-6390
gu	-6391
dom	-6392
▁1636	-6393
⿱⿰⿻⿱	-6394
▁speed	-6395
▁py	-6396
甲一斤	-6397
▁342	-6398
▁985	-6399
▁aim	-6400
ellow	-6401
▁ring	-6402
▁lr	-6403
艹耳	-6404
oon	-6405
▁555	-6406
▁phot	-6407
cp	-6408
sson	-6409
untu	-6410
▁625	-6411
▁jud	-6412
▁1590	-6413
▁greg	-6414
▁hotel	-6415
▁econom	-6416
▁standard	-6417
▁酉	-6418
讠且	-6419
▁7%	-6420
夂口隹	-6421
▁505	-6422
▁tab	-6423
▁cinem	-6424
▁information	-6425
han	-6426
⿱⿱⿲	-6427
▁merc	-6428
▁austral	-6429
冖水	-6430
▁337	-6431
pot	-6432
▁cad	-6433
▁pow	-6434
▁side	-6435
▁common	-6436
幺大谷	-6437
▁states	-6438
子子	-6439
▁ky	-6440
扌夬	-6441
med	-6442
▁4%	-6443
▁406	-6444
▁turn	-6445
▁ascii	-6446
山及	-6447
die	-6448
𠘧又缶	-6449
幺小	-6450
十罒心	-6451
▁bag	-6452
▁imax	-6453
▁phys	-6454
ications	-6455
erty	-6456
▁645	-6457
冂二目力	-6458
石见	-6459
aki	-6460
par	-6461
▁485	-6462
▁anal	-6463
ece	-6464
lan	-6465
ming	-6466
▁548	-6467
▁academy	-6468
bon	-6469
▁339	-6470
▁1610	-6471
▁kenn	-6472
▁ruby	-6473
esa	-6474
人人龰耳	-6475
war	-6476
▁kd	-6477
▁dyn	-6478
hed	-6479
iva	-6480
utc	-6481
▁uh	-6482
▁518	-6483
糸言糸山	-6484
▁brt	-6485
▁refer	-6486
▁virgin	-6487
▁geforce	-6488
▁collection	-6489
▁foundation	-6490
▁619	-6491
▁mhz	-6492
▁see	-6493
▁1622	-6494
▁1643	-6495
▁pont	-6496
▁stage	-6497
▁times	-6498
▁british	-6499
▁eos	-6500
her	-6501
ski	-6502
人示田	-6503
▁970	-6504
▁fle	-6505
▁1559	-6506
mad	-6507
ots	-6508
刀丿丶米	-6509
▁nr	-6510
▁view	-6511
▁399	-6512
▁1680	-6513
▁produce	-6514
▁via	-6515
▁1730	-6516
▁education	-6517
▁347	-6518
▁ross	-6519
▁1763	-6520
elli	-6521
▁447	-6522
▁row	-6523
▁where	-6524
▁williams	-6525
𭕄⿻	-6526
bar	-6527
扌丸手	-6528
ants	-6529
atus	-6530
▁515	-6531
▁fab	-6532
▁simon	-6533
▁source	-6534
𠂆万	-6535
▁also	-6536
eri	-6537
幺幺土	-6538
▁kam	-6539
▁1517	-6540
▁santa	-6541
▁access	-6542
▁double	-6543
▁studios	-6544
▁ale	-6545
▁bac	-6546
▁eth	-6547
▁2800	-6548
▁mytv	-6549
▁week	-6550
▁gw	-6551
▁1723	-6552
▁351	-6553
▁sug	-6554
▁arthur	-6555
▁johann	-6556
ef	-6557
gl	-6558
uy	-6559
▁1642	-6560
▁abs	-6561
▁1620	-6562
▁1683	-6563
▁most	-6564
▁voice	-6565
apt	-6566
▁bsd	-6567
▁1562	-6568
▁flor	-6569
▁interact	-6570
亻瓦	-6571
工口	-6572
▁lv	-6573
▁mam	-6574
light	-6575
▁chen	-6576
▁wolf	-6577
▁chang	-6578
▁magic	-6579
大力	-6580
mph	-6581
▁rf	-6582
elly	-6583
head	-6584
ogue	-6585
▁abd	-6586
▁1628	-6587
▁laur	-6588
門木	-6589
▁727	-6590
▁dun	-6591
▁pict	-6592
▁when	-6593
▁hm	-6594
▁xm	-6595
▁1547	-6596
▁kids	-6597
▁15000	-6598
ief	-6599
匚儿戈	-6600
zz	-6601
▁ox	-6602
▁lost	-6603
▁jackson	-6604
chi	-6605
dle	-6606
▁major	-6607
ify	-6608
▁353	-6609
▁haw	-6610
▁socket	-6611
▁617	-6612
▁cer	-6613
▁nas	-6614
▁sac	-6615
▁1625	-6616
▁nick	-6617
aro	-6618
ser	-6619
▁civ	-6620
⿰⿱⿵	-6621
▁wiki	-6622
▁tower	-6623
▁622	-6624
▁639	-6625
▁rue	-6626
▁1772	-6627
▁file	-6628
▁rc	-6629
▁427	-6630
▁1782	-6631
▁wall	-6632
▁jones	-6633
▁615	-6634
▁nik	-6635
▁1556	-6636
chan	-6637
▁cba	-6638
ken	-6639
▁ud	-6640
ante	-6641
▁920	-6642
▁lte	-6643
▁sta	-6644
▁1598	-6645
▁boys	-6646
▁sunday	-6647
▁mountain	-6648
疒且	-6649
iny	-6650
▁gang	-6651
ved	-6652
ril	-6653
亠口小页	-6654
▁days	-6655
亻里	-6656
▁mba	-6657
works	-6658
▁1660	-6659
▁eleven	-6660
▁35%	-6661
𠂊田一非	-6662
olo	-6663
vers	-6664
▁nmb	-6665
艹弓	-6666
▁529	-6667
▁css	-6668
▁irt	-6669
▁kal	-6670
▁1511	-6671
▁1574	-6672
▁cham	-6673
▁rand	-6674
▁nicon	-6675
▁invest	-6676
熭丶	-6677
▁sid	-6678
𠂊田灬兆	-6679
▁apache	-6680
▁341	-6681
ments	-6682
▁into	-6683
▁opera	-6684
uit	-6685
▁⿳⿲	-6686
▁408	-6687
ified	-6688
▁every	-6689
▁tf	-6690
▁ped	-6691
▁six	-6692
▁sts	-6693
▁lp	-6694
▁332	-6695
▁383	-6696
▁536	-6697
▁aff	-6698
▁1662	-6699
文糸	-6700
疒久	-6701
▁cj	-6702
▁ya	-6703
istr	-6704
▁371	-6705
▁432	-6706
▁605	-6707
▁yes	-6708
anced	-6709
▁ala	-6710
▁karl	-6711
▁division	-6712
工阝	-6713
330	-6714
gre	-6715
▁gpu	-6716
▁blood	-6717
gate	-6718
▁398	-6719
▁prince	-6720
▁niconico	-6721
rix	-6722
wer	-6723
▁435	-6724
▁1573	-6725
▁1630	-6726
疒巴	-6727
iner	-6728
▁366	-6729
▁377	-6730
▁gog	-6731
▁tun	-6732
▁wel	-6733
abeth	-6734
▁tt	-6735
▁nec	-6736
▁20000	-6737
▁shine	-6738
▁theat	-6739
車斤土	-6740
▁lew	-6741
▁golden	-6742
day	-6743
贝贝缶	-6744
▁rest	-6745
▁tony	-6746
束頁	-6747
▁gon	-6748
ental	-6749
▁1755	-6750
▁1779	-6751
▁walter	-6752
㪭灬阝	-6753
▁2025	-6754
▁sars	-6755
▁never	-6756
丿大山	-6757
▁361	-6758
ove	-6759
▁js	-6760
▁hkt	-6761
▁hero	-6762
目来	-6763
▁tm	-6764
▁537	-6765
▁910	-6766
▁940	-6767
▁rel	-6768
▁walk	-6769
▁lc	-6770
▁kt	-6771
酉干	-6772
▁3200	-6773
▁ener	-6774
▁than	-6775
彳弗	-6776
钅重	-6777
bra	-6778
▁705	-6779
▁fish	-6780
change	-6781
▁about	-6782
▁eva	-6783
⿱⿶⿳⿰	-6784
▁cosp	-6785
▁surface	-6786
▁io	-6787
▁45%	-6788
▁546	-6789
▁lot	-6790
▁yam	-6791
▁kle	-6792
▁sas	-6793
▁1560	-6794
▁1774	-6795
▁cole	-6796
▁make	-6797
▁std	-6798
▁1621	-6799
▁computer	-6800
ench	-6801
▁885	-6802
▁ddr	-6803
usion	-6804
▁gear	-6805
口龶见	-6806
▁575	-6807
▁esc	-6808
▁mind	-6809
iction	-6810
zen	-6811
▁oct	-6812
▁1490	-6813
▁⿰⿱𭕄⿻	-6814
▁graph	-6815
人人耳	-6816
▁gor	-6817
atory	-6818
▁talk	-6819
▁avenue	-6820
▁387	-6821
木木米	-6822
▁reb	-6823
▁made	-6824
▁depart	-6825
▁tl	-6826
日大阝	-6827
bang	-6828
▁388	-6829
▁player	-6830
𠂊口比	-6831
▁409	-6832
金白	-6833
omo	-6834
worth	-6835
▁1624	-6836
▁sega	-6837
▁infin	-6838
▁samuel	-6839
▁pix	-6840
▁mand	-6841
▁electron	-6842
gn	-6843
⿳𭕄	-6844
亻羊	-6845
▁511	-6846
▁pun	-6847
prise	-6848
▁brad	-6849
▁future	-6850
▁wonder	-6851
▁transport	-6852
utt	-6853
▁aj	-6854
㇇⿴	-6855
▁atr	-6856
▁library	-6857
▁396	-6858
▁545	-6859
▁1637	-6860
iant	-6861
kins	-6862
▁523	-6863
▁538	-6864
▁790	-6865
▁bil	-6866
▁cel	-6867
issement	-6868
豸里	-6869
▁466	-6870
▁476	-6871
▁547	-6872
▁bah	-6873
▁1649	-6874
▁1765	-6875
240	-6876
▁mh	-6877
▁611	-6878
▁1634	-6879
▁theory	-6880
▁virtual	-6881
亚土	-6882
乡隹瓦	-6883
▁527	-6884
▁乎	-6885
▁pf	-6886
▁499	-6887
▁iss	-6888
▁effect	-6889
▁english	-6890
ges	-6891
▁hx	-6892
𠘧又心	-6893
▁kab	-6894
gress	-6895
▁1748	-6896
▁nico	-6897
▁memor	-6898
▁cosplay	-6899
alk	-6900
▁612	-6901
▁abb	-6902
▁bot	-6903
▁1541	-6904
lah	-6905
▁ci	-6906
▁fat	-6907
▁1535	-6908
▁full	-6909
▁taip	-6910
▁rn	-6911
▁506	-6912
▁1627	-6913
▁1720	-6914
▁seven	-6915
木石	-6916
gam	-6917
▁12%	-6918
▁368	-6919
▁455	-6920
▁516	-6921
十口儿刂	-6922
钅玉	-6923
cle	-6924
▁ls	-6925
ists	-6926
▁626	-6927
▁robin	-6928
▁taylor	-6929
uma	-6930
▁gc	-6931
▁ik	-6932
▁chart	-6933
inae	-6934
ogen	-6935
▁1585	-6936
▁magn	-6937
▁capital	-6938
umi	-6939
esco	-6940
▁442	-6941
▁556	-6942
▁here	-6943
▁kevin	-6944
▁christoph	-6945
bour	-6946
▁378	-6947
▁gem	-6948
▁vita	-6949
日卯	-6950
▁364	-6951
▁hyd	-6952
▁rade	-6953
▁pad	-6954
▁brian	-6955
▁kc	-6956
▁rr	-6957
▁422	-6958
▁1736	-6959
▁stadium	-6960
▁european	-6961
▁ck	-6962
丨丨比阝	-6963
het	-6964
lis	-6965
▁mw	-6966
icus	-6967
ides	-6968
▁479	-6969
▁joy	-6970
▁nfl	-6971
▁1724	-6972
▁614	-6973
▁1250	-6974
▁1629	-6975
▁lead	-6976
▁death	-6977
▁arrond	-6978
▁generation	-6979
广羊	-6980
舟方	-6981
▁ow	-6982
▁522	-6983
▁deut	-6984
▁ee	-6985
▁675	-6986
▁method	-6987
▁433	-6988
▁mega	-6989
▁⿺⿱⿻⿻	-6990
▁parad	-6991
▁committe	-6992
▁arrondissement	-6993
巾隹	-6994
王耳	-6995
▁1631	-6996
▁eliz	-6997
▁board	-6998
800	-6999
oni	-7000
讠非	-7001
▁486	-7002
▁cour	-7003
爫见	-7004
▁439	-7005
▁1647	-7006
▁comb	-7007
▁chrome	-7008
▁contin	-7009
ersh	-7010
▁451	-7011
▁519	-7012
▁628	-7013
▁aur	-7014
isk	-7015
▁376	-7016
▁aqu	-7017
▁loc	-7018
enger	-7019
▁1529	-7020
dm	-7021
vis	-7022
丶葭耳	-7023
back	-7024
▁508	-7025
▁dohc	-7026
▁patrick	-7027
▁389	-7028
▁397	-7029
ando	-7030
▁paris	-7031
▁ubuntu	-7032
▁426	-7033
▁925	-7034
▁1727	-7035
▁349	-7036
▁372	-7037
▁443	-7038
▁475	-7039
▁526	-7040
▁pak	-7041
▁1538	-7042
▁area	-7043
辶十	-7044
ete	-7045
禾几页	-7046
ages	-7047
ites	-7048
▁services	-7049
▁framework	-7050
ali	-7051
▁534	-7052
人一口页	-7053
uce	-7054
▁533	-7055
▁552	-7056
▁1616	-7057
▁burn	-7058
▁five	-7059
▁priv	-7060
▁stone	-7061
oda	-7062
人人艮	-7063
口夫欠	-7064
▁369	-7065
▁423	-7066
▁lan	-7067
▁cant	-7068
土儿土丸𧘇	-7069
▁radeon	-7070
一尸	-7071
疒豆	-7072
▁436	-7073
▁567	-7074
▁kom	-7075
▁1771	-7076
口口頁	-7077
view	-7078
▁363	-7079
▁1618	-7080
▁doug	-7081
▁rele	-7082
▁secur	-7083
di	-7084
▁373	-7085
▁offic	-7086
ological	-7087
ois	-7088
▁kv	-7089
pson	-7090
▁613	-7091
▁890	-7092
▁dip	-7093
糸言糸木	-7094
▁1769	-7095
▁advance	-7096
ocr	-7097
▁381	-7098
▁mode	-7099
▁pink	-7100
▁michel	-7101
▁tri	-7102
コ一人贝	-7103
▁1651	-7104
▁table	-7105
𠃊目八	-7106
▁362	-7107
▁428	-7108
▁990	-7109
▁sex	-7110
▁1740	-7111
▁1745	-7112
▁garden	-7113
ols	-7114
▁df	-7115
bach	-7116
▁51%	-7117
▁tgv	-7118
▁wing	-7119
▁wilson	-7120
▁dp	-7121
▁pb	-7122
▁453	-7123
▁655	-7124
▁99%	-7125
rough	-7126
▁mars	-7127
▁metal	-7128
▁theatre	-7129
mas	-7130
▁1773	-7131
▁nich	-7132
uction	-7133
▁jacob	-7134
▁spring	-7135
▁lyn	-7136
▁5500	-7137
▁movie	-7138
▁friedrich	-7139
109	-7140
▁hey	-7141
▁lay	-7142
▁lie	-7143
▁1762	-7144
口亚	-7145
戋皿	-7146
目疌	-7147
read	-7148
▁nac	-7149
阝鬼	-7150
▁qs	-7151
▁636	-7152
▁pers	-7153
▁stop	-7154
▁524	-7155
▁907	-7156
iance	-7157
▁stor	-7158
▁alice	-7159
ten	-7160
亠斌金	-7161
▁18%	-7162
▁pci	-7163
▁pit	-7164
▁1544	-7165
▁anti	-7166
▁concert	-7167
▁ix	-7168
▁lm	-7169
▁1619	-7170
▁watch	-7171
inus	-7172
▁517	-7173
▁tot	-7174
▁1487	-7175
▁1493	-7176
▁1545	-7177
口頁	-7178
▁cz	-7179
▁committee	-7180
anger	-7181
▁1505	-7182
▁1615	-7183
▁lisp	-7184
▁very	-7185
▁mission	-7186
__	-7187
▁pse	-7188
▁won	-7189
▁modern	-7190
eld	-7191
raw	-7192
vet	-7193
ough	-7194
▁596	-7195
▁616	-7196
▁gsm	-7197
▁nok	-7198
▁lisa	-7199
▁sher	-7200
▁building	-7201
覀示瓜	-7202
▁606	-7203
▁624	-7204
▁715	-7205
▁age	-7206
▁1735	-7207
▁1757	-7208
▁jenn	-7209
▁nord	-7210
束力	-7211
缶本	-7212
▁635	-7213
▁lucas	-7214
▁health	-7215
▁pacific	-7216
王申	-7217
ray	-7218
uki	-7219
▁1670	-7220
acs	-7221
▁457	-7222
▁685	-7223
▁det	-7224
▁dir	-7225
▁kit	-7226
▁republ	-7227
dc	-7228
▁495	-7229
▁717	-7230
▁dns	-7231
▁mis	-7232
iller	-7233
ollow	-7234
▁1689	-7235
▁cart	-7236
▁taipei	-7237
讠牙	-7238
har	-7239
▁daw	-7240
▁emp	-7241
▁him	-7242
▁1502	-7243
▁12000	-7244
ardo	-7245
reme	-7246
▁cube	-7247
uan	-7248
▁392	-7249
▁539	-7250
▁aer	-7251
▁ric	-7252
▁1603	-7253
▁6500	-7254
▁auth	-7255
▁wave	-7256
▁women	-7257
ido	-7258
山豆頁	-7259
未攵厂	-7260
acle	-7261
etty	-7262
▁374	-7263
▁648	-7264
▁been	-7265
nam	-7266
▁gs	-7267
▁xe	-7268
▁sap	-7269
▁1667	-7270
▁394	-7271
▁815	-7272
▁jet	-7273
钅目	-7274
匚儿斗	-7275
▁bmt	-7276
▁hart	-7277
▁bow	-7278
▁1609	-7279
匕水頁	-7280
illy	-7281
▁smk	-7282
▁usa	-7283
▁wik	-7284
▁1450	-7285
▁report	-7286
日兆	-7287
▁532	-7288
▁ali	-7289
▁pia	-7290
▁2023	-7291
▁3600	-7292
▁pasc	-7293
金甘	-7294
▁379	-7295
▁ati	-7296
▁mrna	-7297
action	-7298
▁98%	-7299
▁1578	-7300
▁anne	-7301
▁gene	-7302
▁pentium	-7303
ori	-7304
ives	-7305
▁bes	-7306
▁mes	-7307
bourg	-7308
▁1688	-7309
▁dynam	-7310
▁vocaloid	-7311
朱阝	-7312
革末	-7313
fri	-7314
▁kb	-7315
ches	-7316
▁711	-7317
▁jar	-7318
▁obs	-7319
▁come	-7320
vey	-7321
▁9%	-7322
▁vv	-7323
戈戈皿	-7324
▁438	-7325
▁554	-7326
▁65%	-7327
▁825	-7328
▁1725	-7329
▁alfred	-7330
ht	-7331
谷阝	-7332
▁431	-7333
▁resp	-7334
▁sweet	-7335
▁553	-7336
▁585	-7337
▁762	-7338
ification	-7339
▁424	-7340
▁638	-7341
▁amp	-7342
▁ost	-7343
▁rab	-7344
火火冖火	-7345
ences	-7346
▁roll	-7347
cf	-7348
rot	-7349
iron	-7350
ways	-7351
▁454	-7352
▁513	-7353
▁tvn	-7354
▁1768	-7355
▁freder	-7356
龙耳	-7357
▁fda	-7358
▁1370	-7359
▁valley	-7360
oke	-7361
▁629	-7362
▁money	-7363
wh	-7364
▁vt	-7365
▁503	-7366
▁721	-7367
▁marsh	-7368
▁gamespot	-7369
▁portable	-7370
尢丶山	-7371
▁549	-7372
▁623	-7373
▁1635	-7374
df	-7375
▁auto	-7376
㇇⿺	-7377
▁1623	-7378
▁1764	-7379
▁relat	-7380
▁active	-7381
八刀阝	-7382
▁713	-7383
▁enc	-7384
䒑土水	-7385
iday	-7386
▁598	-7387
▁637	-7388
▁lem	-7389
▁carr	-7390
hen	-7391
mes	-7392
hard	-7393
helm	-7394
▁926	-7395
▁lud	-7396
▁fred	-7397
iers	-7398
ulat	-7399
▁1756	-7400
目丁	-7401
mal	-7402
▁tas	-7403
eland	-7404
▁1759	-7405
▁sail	-7406
王韦	-7407
▁vit	-7408
▁fast	-7409
▁stars	-7410
▁巳	-7411
▁468	-7412
▁551	-7413
▁ara	-7414
⿸⿱⿰	-7415
▁1050	-7416
rt	-7417
来贝	-7418
700	-7419
▁dx	-7420
ucle	-7421
▁393	-7422
inder	-7423
▁wester	-7424
一虫	-7425
ige	-7426
ues	-7427
stal	-7428
凵丨一虫	-7429
▁1728	-7430
▁body	-7431
▁inte	-7432
▁jason	-7433
▁archive	-7434
rd	-7435
扌工	-7436
▁514	-7437
▁531	-7438
▁1752	-7439
▁gate	-7440
▁shop	-7441
▁review	-7442
case	-7443
▁corn	-7444
▁fs	-7445
▁1758	-7446
▁espn	-7447
钅贝	-7448
ians	-7449
▁050	-7450
▁494	-7451
▁55%	-7452
𠂊田灬非	-7453
▁1150	-7454
▁1457	-7455
▁1659	-7456
▁harris	-7457
mg	-7458
bro	-7459
▁458	-7460
▁576	-7461
▁712	-7462
▁735	-7463
▁805	-7464
▁anna	-7465
▁index	-7466
▁ville	-7467
ils	-7468
oom	-7469
口止八	-7470
日一页	-7471
▁634	-7472
▁hell	-7473
▁autom	-7474
▁gnome	-7475
▁think	-7476
金土	-7477
▁604	-7478
▁876	-7479
▁lcd	-7480
sta	-7481
▁mut	-7482
▁1260	-7483
▁1466	-7484
▁1652	-7485
▁perl	-7486
▁species	-7487
㐅刂	-7488
木斥	-7489
yan	-7490
艹冖虫	-7491
▁1569	-7492
▁short	-7493
▁fantasy	-7494
lon	-7495
▁504	-7496
▁kid	-7497
▁kur	-7498
▁rol	-7499
▁thr	-7500
▁step	-7501
木木糸	-7502
▁521	-7503
▁796	-7504
▁1601	-7505
▁fami	-7506
▁fern	-7507
亠丷厂生刂	-7508
▁hyper	-7509
▁lewis	-7510
▁roger	-7511
▁original	-7512
扌柬	-7513
nie	-7514
▁fro	-7515
▁1567	-7516
▁1632	-7517
▁smap	-7518
▁energy	-7519
▁936	-7520
ature	-7521
▁acid	-7522
▁poem	-7523
▁harry	-7524
一由心	-7525
oria	-7526
tran	-7527
▁1664	-7528
▁oper	-7529
▁1733	-7530
▁mort	-7531
▁struct	-7532
口自	-7533
月月刂	-7534
止匕石	-7535
▁any	-7536
otion	-7537
▁tell	-7538
▁termin	-7539
leg	-7540
▁595	-7541
▁962	-7542
▁cia	-7543
▁msn	-7544
▁coll	-7545
elo	-7546
oper	-7547
▁452	-7548
▁509	-7549
▁fem	-7550
▁gas	-7551
▁1654	-7552
▁7500	-7553
▁lock	-7554
▁mathe	-7555
▁countdown	-7556
enz	-7557
▁716	-7558
▁castle	-7559
囗屯	-7560
火韦	-7561
tex	-7562
self	-7563
▁565	-7564
▁pic	-7565
▁ital	-7566
▁complex	-7567
火火阝	-7568
禾儿頁	-7569
▁1478	-7570
▁blog	-7571
ancy	-7572
asia	-7573
endo	-7574
▁neo	-7575
▁1604	-7576
▁1655	-7577
▁adhd	-7578
alis	-7579
host	-7580
▁1595	-7581
▁look	-7582
▁freed	-7583
▁686	-7584
▁725	-7585
▁cut	-7586
▁1575	-7587
▁1729	-7588
▁1767	-7589
▁case	-7590
▁march	-7591
八刀心	-7592
▁391	-7593
▁755	-7594
▁did	-7595
▁rib	-7596
▁soh	-7597
scape	-7598
▁being	-7599
▁planet	-7600
▁ek	-7601
aver	-7602
▁472	-7603
▁597	-7604
▁765	-7605
▁npc	-7606
ether	-7607
▁snow	-7608
▁spect	-7609
▁differ	-7610
▁version	-7611
镸彡毛	-7612
time	-7613
▁382	-7614
▁437	-7615
▁632	-7616
▁bol	-7617
冂丨	-7618
omy	-7619
▁mn	-7620
▁xi	-7621
幺芉虫	-7622
▁775	-7623
▁sak	-7624
▁barb	-7625
▁pascal	-7626
▁anthony	-7627
pro	-7628
ione	-7629
▁718	-7630
ennis	-7631
▁1572	-7632
▁1584	-7633
▁1613	-7634
▁bart	-7635
𠃊目	-7636
▁507	-7637
▁kap	-7638
peria	-7639
eno	-7640
▁557	-7641
▁pra	-7642
▁1701	-7643
▁429	-7644
▁nin	-7645
火欠	-7646
ulu	-7647
▁cath	-7648
▁wong	-7649
▁solar	-7650
▁658	-7651
▁1540	-7652
▁1626	-7653
▁1638	-7654
▁1684	-7655
▁juan	-7656
▁nokia	-7657
𠃊目小	-7658
▁vip	-7659
▁cash	-7660
▁food	-7661
▁bp	-7662
ized	-7663
▁nan	-7664
▁1496	-7665
▁machine	-7666
宀八串	-7667
▁577	-7668
▁918	-7669
▁1612	-7670
▁season	-7671
▁enterprise	-7672
▁586	-7673
▁vcd	-7674
▁avex	-7675
▁trib	-7676
▁alexand	-7677
▁holdings	-7678
▁commission	-7679
▁interactive	-7680
▁hosp	-7681
▁davis	-7682
▁christopher	-7683
目于	-7684
▁544	-7685
▁arn	-7686
▁fis	-7687
▁gib	-7688
▁1369	-7689
▁1685	-7690
▁738	-7691
▁alg	-7692
itect	-7693
▁1350	-7694
▁path	-7695
▁gamec	-7696
264	-7697
atan	-7698
▁444	-7699
▁561	-7700
▁603	-7701
▁835	-7702
thers	-7703
▁classic	-7704
门隹	-7705
imo	-7706
▁dk	-7707
▁jp	-7708
⺊口乚	-7709
▁676	-7710
▁945	-7711
▁nak	-7712
▁nig	-7713
▁ufo	-7714
▁1589	-7715
▁1614	-7716
▁1721	-7717
▁1751	-7718
▁rank	-7719
▁vent	-7720
𠂇巾阝	-7721
onic	-7722
▁13%	-7723
▁493	-7724
▁sud	-7725
▁metro	-7726
▁engineering	-7727
▁986	-7728
▁1713	-7729
▁1754	-7730
▁xperia	-7731
钅甘	-7732
女又巾	-7733
▁1587	-7734
▁ryan	-7735
▁sens	-7736
一由寸	-7737
etta	-7738
▁456	-7739
▁hub	-7740
▁tap	-7741
ev	-7742
▁464	-7743
▁cav	-7744
▁hms	-7745
▁hyp	-7746
▁andr	-7747
▁miller	-7748
▁wilhelm	-7749
▁elizabeth	-7750
忄千	-7751
fly	-7752
▁467	-7753
▁tag	-7754
▁orient	-7755
bre	-7756
▁487	-7757
▁651	-7758
▁912	-7759
▁ful	-7760
▁ois	-7761
▁rud	-7762
▁vor	-7763
▁1658	-7764
▁3166	-7765
intosh	-7766
▁exper	-7767
氵里	-7768
一丂页	-7769
olic	-7770
▁667	-7771
▁1526	-7772
▁1766	-7773
▁capt	-7774
▁hein	-7775
oa	-7776
ifi	-7777
ande	-7778
▁498	-7779
▁722	-7780
▁based	-7781
女丑	-7782
een	-7783
▁568	-7784
▁684	-7785
▁845	-7786
▁886	-7787
▁965	-7788
▁1561	-7789
▁kore	-7790
▁tang	-7791
▁product	-7792
erg	-7793
inn	-7794
八刀木	-7795
▁441	-7796
▁496	-7797
▁975	-7798
▁996	-7799
▁gord	-7800
▁past	-7801
▁rick	-7802
▁calif	-7803
▁department	-7804
350	-7805
▁492	-7806
▁tnt	-7807
▁1639	-7808
▁directx	-7809
pur	-7810
▁484	-7811
▁541	-7812
▁687	-7813
▁1280	-7814
▁1469	-7815
air	-7816
▁cx	-7817
agar	-7818
itan	-7819
▁itv	-7820
▁jane	-7821
▁mail	-7822
▁wash	-7823
ension	-7824
▁showcase	-7825
len	-7826
丷夫己	-7827
icip	-7828
▁446	-7829
▁731	-7830
▁751	-7831
▁785	-7832
▁929	-7833
▁isa	-7834
▁roc	-7835
▁zip	-7836
特一八糸	-7837
▁1753	-7838
▁1761	-7839
▁arena	-7840
▁pseud	-7841
▁memory	-7842
▁477	-7843
▁668	-7844
▁937	-7845
berry	-7846
▁room	-7847
▁719	-7848
▁997	-7849
▁spot	-7850
▁amazon	-7851
▁482	-7852
▁das	-7853
▁tog	-7854
▁yosh	-7855
▁californ	-7856
ea	-7857
扌丸𧘇	-7858
rian	-7859
▁perfect	-7860
门三	-7861
110	-7862
▁915	-7863
▁dre	-7864
▁gamer	-7865
▁government	-7866
▁559	-7867
▁698	-7868
▁oly	-7869
▁sad	-7870
▁1707	-7871
▁3300	-7872
▁dash	-7873
▁allen	-7874
▁piece	-7875
▁bigbang	-7876
▁647	-7877
▁863	-7878
▁969	-7879
▁ccd	-7880
未攵厂牛	-7881
▁1593	-7882
▁1732	-7883
▁macos	-7884
▁advanced	-7885
▁rg	-7886
bury	-7887
osph	-7888
▁bun	-7889
▁jas	-7890
▁lev	-7891
▁atom	-7892
▁diam	-7893
▁ling	-7894
▁nk	-7895
▁oce	-7896
▁tea	-7897
▁vic	-7898
▁victoria	-7899
钅巴	-7900
rum	-7901
▁483	-7902
music	-7903
▁1690	-7904
ference	-7905
dit	-7906
▁pip	-7907
▁architect	-7908
䒑土心	-7909
ales	-7910
▁ans	-7911
▁pga	-7912
羊䒑口阝	-7913
▁1475	-7914
▁vinc	-7915
ential	-7916
▁howard	-7917
纟非	-7918
▁434	-7919
▁704	-7920
▁846	-7921
▁need	-7922
▁peace	-7923
▁twins	-7924
▁hospital	-7925
azz	-7926
▁nl	-7927
▁562	-7928
iment	-7929
ones	-7930
▁706	-7931
▁973	-7932
𠂉大巨木	-7933
▁1520	-7934
▁then	-7935
▁universal	-7936
王玉	-7937
▁695	-7938
▁818	-7939
▁hem	-7940
▁vhs	-7941
▁symb	-7942
石本	-7943
onia	-7944
sche	-7945
▁602	-7946
▁682	-7947
▁729	-7948
▁905	-7949
orough	-7950
▁industr	-7951
arm	-7952
lag	-7953
uff	-7954
anny	-7955
ifer	-7956
ners	-7957
▁469	-7958
▁cis	-7959
业㡀	-7960
uda	-7961
▁esp	-7962
▁1588	-7963
▁gran	-7964
▁clark	-7965
▁turbo	-7966
▁ultra	-7967
豸才	-7968
hem	-7969
▁nic	-7970
▁1607	-7971
▁1657	-7972
▁1718	-7973
▁formation	-7974
cat	-7975
▁14%	-7976
▁471	-7977
▁748	-7978
▁947	-7979
▁eug	-7980
▁pul	-7981
▁zen	-7982
▁1710	-7983
▁1726	-7984
▁imag	-7985
山由	-7986
金戉	-7987
▁eu	-7988
峴灬又	-7989
▁449	-7990
▁478	-7991
▁759	-7992
▁hab	-7993
▁1460	-7994
▁gaon	-7995
▁airport	-7996
hal	-7997
▁qt	-7998
mark	-7999
▁938	-8000
▁kel	-8001
▁1611	-8002
▁feel	-8003
▁catal	-8004
▁storm	-8005
▁natural	-8006
辶入	-8007
▁489	-8008
▁573	-8009
▁756	-8010
▁ble	-8011
𠂊田灬方	-8012
▁1555	-8013
▁1737	-8014
▁vision	-8015
▁nv	-8016
𠁣𠃛隹	-8017
aria	-8018
▁798	-8019
▁812	-8020
under	-8021
▁bios	-8022
▁brun	-8023
▁gram	-8024
▁pain	-8025
▁revolution	-8026
bow	-8027
eman	-8028
▁681	-8029
▁714	-8030
▁rca	-8031
▁1453	-8032
▁1530	-8033
▁matthe	-8034
▁western	-8035
▁nob	-8036
epend	-8037
▁gamecube	-8038
口木火	-8039
▁571	-8040
▁put	-8041
▁1524	-8042
▁1717	-8043
▁ther	-8044
▁polit	-8045
▁scope	-8046
▁studies	-8047
乃小	-8048
▁aq	-8049
▁atm	-8050
▁dear	-8051
▁youtuber	-8052
oi	-8053
py	-8054
冂一谷	-8055
ente	-8056
hedr	-8057
▁609	-8058
▁666	-8059
▁813	-8060
▁las	-8061
▁vin	-8062
imate	-8063
▁1380	-8064
▁1430	-8065
▁1454	-8066
冂一谷又土	-8067
enberg	-8068
▁exile	-8069
▁roman	-8070
▁attack	-8071
艹且	-8072
cht	-8073
▁nap	-8074
人一口阝	-8075
▁1130	-8076
▁1532	-8077
▁penn	-8078
▁cloud	-8079
▁nucle	-8080
▁princip	-8081
▁support	-8082
mw	-8083
氵巳	-8084
▁pw	-8085
▁558	-8086
▁587	-8087
▁kad	-8088
▁1525	-8089
▁1675	-8090
口言	-8091
▁ez	-8092
▁wc	-8093
⿱⿶	-8094
▁588	-8095
▁edu	-8096
▁1715	-8097
▁cycl	-8098
▁hack	-8099
车乚	-8100
▁968	-8101
▁lun	-8102
▁1681	-8103
▁1697	-8104
▁khan	-8105
▁france	-8106
113	-8107
▁488	-8108
▁726	-8109
▁1481	-8110
▁1492	-8111
▁1738	-8112
▁gary	-8113
▁lion	-8114
kn	-8115
石隹	-8116
atch	-8117
▁928	-8118
丨丨比米	-8119
▁1666	-8120
▁cass	-8121
▁triple	-8122
大火	-8123
山见	-8124
文口	-8125
aco	-8126
agu	-8127
rod	-8128
ype	-8129
▁nf	-8130
峴灬大	-8131
▁923	-8132
▁935	-8133
▁ral	-8134
▁rim	-8135
▁1591	-8136
▁1747	-8137
▁barr	-8138
▁local	-8139
▁prime	-8140
▁xf	-8141
▁11%	-8142
▁459	-8143
▁1523	-8144
▁1581	-8145
▁1679	-8146
▁kick	-8147
▁nova	-8148
▁match	-8149
▁⿺⿸	-8150
口贝阝	-8151
bers	-8152
ysis	-8153
▁16%	-8154
▁995	-8155
▁viii	-8156
ination	-8157
▁antonio	-8158
▁security	-8159
▁championship	-8160
钅不	-8161
木木止	-8162
bell	-8163
▁599	-8164
▁817	-8165
ancer	-8166
▁1665	-8167
▁1731	-8168
口口瓦	-8169
▁688	-8170
▁821	-8171
▁927	-8172
▁1633	-8173
▁mall	-8174
▁want	-8175
▁fd	-8176
▁ks	-8177
▁463	-8178
▁542	-8179
▁574	-8180
▁826	-8181
▁ras	-8182
▁1641	-8183
▁cool	-8184
▁donald	-8185
必皿	-8186
rin	-8187
▁bj	-8188
▁656	-8189
▁cos	-8190
▁dsp	-8191
▁1734	-8192
▁sent	-8193
▁shin	-8194
▁independ	-8195
疒羊	-8196
ucky	-8197
▁497	-8198
▁786	-8199
▁dlc	-8200
▁ncc	-8201
▁1653	-8202
▁1714	-8203
▁andy	-8204
▁mond	-8205
▁olymp	-8206
一未	-8207
阝垂	-8208
ogo	-8209
口止重	-8210
fore	-8211
wart	-8212
▁17%	-8213
▁563	-8214
乛耳攵心	-8215
▁1672	-8216
usa	-8217
▁572	-8218
▁643	-8219
▁847	-8220
▁1564	-8221
▁pear	-8222
▁contr	-8223
竹世	-8224
𠂉丹	-8225
fan	-8226
▁__	-8227
ross	-8228
▁702	-8229
▁708	-8230
▁hud	-8231
▁tat	-8232
craft	-8233
ilton	-8234
▁1739	-8235
▁plaza	-8236
▁california	-8237
mc	-8238
𠂉𠃓	-8239
▁lt	-8240
丿丿火	-8241
oshi	-8242
▁728	-8243
▁pep	-8244
acter	-8245
▁1722	-8246
▁dick	-8247
▁self	-8248
▁xl	-8249
𠂇子攵	-8250
ains	-8251
ulus	-8252
▁461	-8253
▁bak	-8254
antic	-8255
▁naver	-8256
▁command	-8257
月井	-8258
105	-8259
▁543	-8260
▁hur	-8261
▁1742	-8262
▁epic	-8263
▁logo	-8264
▁xiii	-8265
▁mater	-8266
▁through	-8267
lu	-8268
iph	-8269
▁579	-8270
▁875	-8271
▁lil	-8272
▁ria	-8273
▁1576	-8274
▁intell	-8275
▁582	-8276
▁pod	-8277
▁bord	-8278
▁johnny	-8279
▁singap	-8280
民日	-8281
▁hg	-8282
▁iz	-8283
▁ug	-8284
wick	-8285
▁633	-8286
▁696	-8287
▁745	-8288
▁823	-8289
▁cond	-8290
▁imper	-8291
▁moham	-8292
▁commer	-8293
幺芉寸	-8294
▁gig	-8295
▁hav	-8296
▁1514	-8297
▁civil	-8298
▁forever	-8299
▁premium	-8300
mur	-8301
▁oz	-8302
▁wu	-8303
1000	-8304
agne	-8305
odon	-8306
▁49%	-8307
▁865	-8308
▁sie	-8309
▁cccc	-8310
▁treat	-8311
▁carlos	-8312
雨非	-8313
haus	-8314
▁919	-8315
▁948	-8316
▁font	-8317
▁shir	-8318
bridge	-8319
▁macintosh	-8320
rid	-8321
olis	-8322
▁608	-8323
▁808	-8324
▁811	-8325
▁976	-8326
▁hxd	-8327
▁pil	-8328
▁1563	-8329
▁grav	-8330
▁another	-8331
石木	-8332
iful	-8333
▁649	-8334
▁914	-8335
itive	-8336
▁1744	-8337
▁tree	-8338
▁openg	-8339
▁living	-8340
▁tp	-8341
日一毛	-8342
town	-8343
▁678	-8344
▁971	-8345
▁bass	-8346
▁years	-8347
▁middle	-8348
虫斗	-8349
25%	-8350
▁hl	-8351
▁481	-8352
▁578	-8353
▁816	-8354
▁888	-8355
▁939	-8356
▁beh	-8357
▁kay	-8358
▁1605	-8359
▁1676	-8360
▁1709	-8361
▁palm	-8362
▁25000	-8363
▁medium	-8364
▁orange	-8365
王禹	-8366
▁dw	-8367
▁474	-8368
▁902	-8369
ienne	-8370
istry	-8371
▁cosm	-8372
▁asian	-8373
▁prote	-8374
iac	-8375
▁fate	-8376
▁quad	-8377
▁perfor	-8378
▁return	-8379
▁against	-8380
▁francisco	-8381
lim	-8382
inte	-8383
▁657	-8384
▁659	-8385
▁768	-8386
▁887	-8387
▁896	-8388
count	-8389
▁1602	-8390
▁1699	-8391
▁army	-8392
▁hugh	-8393
▁page	-8394
▁image	-8395
▁friends	-8396
▁dreamcast	-8397
gas	-8398
▁ou	-8399
覀示刂	-8400
▁etc	-8401
▁dota	-8402
▁dual	-8403
▁maur	-8404
ography	-8405
▁sailor	-8406
amo	-8407
▁pn	-8408
vard	-8409
▁819	-8410
▁908	-8411
▁lac	-8412
▁1687	-8413
▁lear	-8414
▁anderson	-8415
bb	-8416
▁fp	-8417
㇇⿹	-8418
lass	-8419
▁ach	-8420
▁guy	-8421
istic	-8422
▁1673	-8423
▁ange	-8424
▁cdma	-8425
▁dave	-8426
㇇⿰⿱⿱	-8427
▁ghost	-8428
▁ccccff	-8429
gie	-8430
▁mf	-8431
phal	-8432
▁easy	-8433
▁medical	-8434
▁television	-8435
edy	-8436
▁dn	-8437
ween	-8438
▁33%	-8439
▁699	-8440
▁761	-8441
▁951	-8442
ening	-8443
▁ferr	-8444
icular	-8445
▁democr	-8446
▁follow	-8447
丷田	-8448
lav	-8449
丷田日	-8450
口寸灬	-8451
anch	-8452
▁569	-8453
▁724	-8454
▁838	-8455
▁lip	-8456
▁1741	-8457
▁these	-8458
▁integr	-8459
▁legend	-8460
▁margar	-8461
▁country	-8462
gon	-8463
arts	-8464
▁642	-8465
▁1001	-8466
▁1599	-8467
▁sams	-8468
▁wang	-8469
▁azure	-8470
orf	-8471
oul	-8472
▁wm	-8473
▁sed	-8474
▁1669	-8475
▁2024	-8476
▁kent	-8477
office	-8478
lection	-8479
ulation	-8480
▁community	-8481
more	-8482
▁fit	-8483
uster	-8484
▁1536	-8485
▁1558	-8486
▁grad	-8487
▁freebsd	-8488
非虫	-8489
uto	-8490
▁wp	-8491
夫丷页	-8492
擊灬阝	-8493
ashi	-8494
▁934	-8495
▁jal	-8496
▁whe	-8497
▁1180	-8498
▁songs	-8499
▁exchange	-8500
aa	-8501
▁473	-8502
▁661	-8503
▁741	-8504
▁828	-8505
▁chu	-8506
▁jes	-8507
▁lad	-8508
弋一止贝	-8509
▁giov	-8510
▁hope	-8511
▁orch	-8512
▁honey	-8513
▁singapore	-8514
女臣	-8515
340	-8516
agen	-8517
▁692	-8518
▁822	-8519
▁lic	-8520
▁ris	-8521
pla	-8522
zzo	-8523
▁644	-8524
▁occ	-8525
▁tax	-8526
▁toy	-8527
▁use	-8528
▁labor	-8529
▁trust	-8530
aku	-8531
orph	-8532
tech	-8533
▁653	-8534
▁709	-8535
▁1597	-8536
▁1749	-8537
▁bert	-8538
▁bing	-8539
▁teau	-8540
▁audio	-8541
▁bruce	-8542
▁pictures	-8543
vc	-8544
icy	-8545
▁593	-8546
▁746	-8547
▁flo	-8548
itude	-8549
▁1542	-8550
▁1566	-8551
▁jord	-8552
▁canada	-8553
▁debian	-8554
▁wright	-8555
▁monster	-8556
▁village	-8557
禺頁	-8558
耒巴	-8559
▁641	-8560
▁689	-8561
▁736	-8562
▁1127	-8563
▁ident	-8564
▁opens	-8565
uh	-8566
310	-8567
▁733	-8568
▁wan	-8569
▁1656	-8570
阝止	-8571
ulf	-8572
▁955	-8573
▁bom	-8574
▁bos	-8575
▁exo	-8576
▁pel	-8577
▁1519	-8578
▁josh	-8579
▁raid	-8580
iet	-8581
▁sz	-8582
立十糸	-8583
uary	-8584
▁662	-8585
▁824	-8586
▁957	-8587
▁998	-8588
▁gaz	-8589
▁lou	-8590
▁nit	-8591
▁coco	-8592
▁gaga	-8593
▁jimmy	-8594
▁spirit	-8595
▁walker	-8596
arc	-8597
emb	-8598
odes	-8599
▁exe	-8600
estra	-8601
▁1230	-8602
▁demo	-8603
▁mathemat	-8604
▁564	-8605
▁eye	-8606
▁1617	-8607
▁shah	-8608
▁delta	-8609
▁urban	-8610
▁author	-8611
▁flight	-8612
▁rm	-8613
▁652	-8614
▁leo	-8615
angel	-8616
▁1537	-8617
▁eyes	-8618
▁fund	-8619
▁sequ	-8620
▁30000	-8621
▁german	-8622
▁lambda	-8623
iq	-8624
土丘	-8625
aten	-8626
ilog	-8627
▁566	-8628
▁kol	-8629
ament	-8630
▁ward	-8631
▁admin	-8632
▁change	-8633
▁lamigo	-8634
▁temple	-8635
gh	-8636
▁sq	-8637
pent	-8638
▁594	-8639
▁897	-8640
▁933	-8641
▁979	-8642
stone	-8643
▁1674	-8644
▁1712	-8645
▁kind	-8646
▁window	-8647
▁republic	-8648
勹言	-8649
歹央	-8650
艹果	-8651
金皮	-8652
冖车阝	-8653
lete	-8654
stra	-8655
▁683	-8656
▁839	-8657
ische	-8658
▁1522	-8659
▁gent	-8660
▁must	-8661
▁kelly	-8662
▁motor	-8663
▁gordon	-8664
▁nation	-8665
▁winter	-8666
▁netscape	-8667
bf	-8668
火乐	-8669
02%	-8670
▁754	-8671
▁946	-8672
▁bed	-8673
▁benn	-8674
▁keep	-8675
金本	-8676
107	-8677
冂卄禾	-8678
▁491	-8679
▁tet	-8680
iation	-8681
▁nature	-8682
uts	-8683
igan	-8684
▁584	-8685
▁ner	-8686
▁texas	-8687
hn	-8688
116	-8689
iri	-8690
▁za	-8691
▁895	-8692
space	-8693
world	-8694
▁1606	-8695
▁quest	-8696
▁factory	-8697
▁evolution	-8698
120	-8699
㇀⿰	-8700
ules	-8701
▁646	-8702
▁827	-8703
▁1371	-8704
▁1527	-8705
▁ocean	-8706
▁quick	-8707
▁culture	-8708
钅必	-8709
▁ian	-8710
▁kai	-8711
▁1668	-8712
▁benj	-8713
▁gray	-8714
▁ster	-8715
▁histor	-8716
▁hunter	-8717
▁sevent	-8718
▁between	-8719
▁beautiful	-8720
103	-8721
▁gy	-8722
rence	-8723
▁1220	-8724
▁1435	-8725
▁bomb	-8726
▁horn	-8727
▁root	-8728
▁cover	-8729
▁yellow	-8730
▁perfume	-8731
米果	-8732
104	-8733
uka	-8734
anni	-8735
▁nem	-8736
overy	-8737
▁1276	-8738
▁whit	-8739
▁activ	-8740
▁conference	-8741
wd	-8742
▁xy	-8743
▁881	-8744
▁gay	-8745
▁sdk	-8746
▁beau	-8747
▁cert	-8748
▁kara	-8749
▁kitt	-8750
▁environ	-8751
▁matthew	-8752
▁frederick	-8753
bis	-8754
▁723	-8755
▁sle	-8756
▁url	-8757
▁wol	-8758
▁1746	-8759
▁score	-8760
▁opengl	-8761
▁jacques	-8762
▁samsung	-8763
日火	-8764
氵日	-8765
里灬	-8766
phy	-8767
▁lh	-8768
▁hug	-8769
▁imm	-8770
▁1579	-8771
▁midi	-8772
▁morn	-8773
▁scar	-8774
▁forest	-8775
▁ji	-8776
▁sj	-8777
▁vp	-8778
othy	-8779
▁806	-8780
▁855	-8781
▁cec	-8782
火火冖水	-8783
▁1024	-8784
▁1508	-8785
▁3800	-8786
▁spin	-8787
chester	-8788
▁search	-8789
atherine	-8790
▁president	-8791
put	-8792
▁px	-8793
▁1472	-8794
▁idol	-8795
日方	-8796
00%	-8797
▁xt	-8798
reis	-8799
▁fur	-8800
▁plc	-8801
▁1512	-8802
▁grow	-8803
▁ober	-8804
▁stay	-8805
月甫	-8806
▁ws	-8807
▁nom	-8808
▁1440	-8809
▁financ	-8810
75%	-8811
▁913	-8812
▁ein	-8813
糸言糸手	-8814
▁1702	-8815
▁used	-8816
▁fight	-8817
氵来	-8818
讠夬	-8819
▁iw	-8820
▁nn	-8821
▁ibn	-8822
▁kun	-8823
▁1711	-8824
▁boot	-8825
▁alliance	-8826
aru	-8827
emy	-8828
iah	-8829
oca	-8830
wig	-8831
stad	-8832
▁ges	-8833
▁1464	-8834
▁mate	-8835
▁daily	-8836
▁scien	-8837
▁display	-8838
㇇⿳	-8839
▁592	-8840
▁669	-8841
▁amb	-8842
asure	-8843
▁1510	-8844
▁1546	-8845
▁beach	-8846
▁moore	-8847
▁would	-8848
▁kp	-8849
▁vc	-8850
anne	-8851
▁924	-8852
▁oem	-8853
eless	-8854
▁wars	-8855
▁brook	-8856
▁douglas	-8857
▁transform	-8858
bol	-8859
▁vf	-8860
口口页	-8861
itar	-8862
stic	-8863
▁776	-8864
▁843	-8865
▁922	-8866
▁acp	-8867
▁flow	-8868
▁repr	-8869
▁origin	-8870
▁shinee	-8871
▁princess	-8872
33%	-8873
ced	-8874
gio	-8875
ras	-8876
▁hz	-8877
▁898	-8878
▁apm	-8879
凵丨凵示	-8880
▁them	-8881
▁creek	-8882
▁medic	-8883
▁sarah	-8884
▁wanna	-8885
▁knight	-8886
▁732	-8887
▁784	-8888
▁809	-8889
▁canon	-8890
▁agency	-8891
钅川	-8892
adi	-8893
▁916	-8894
▁981	-8895
▁prov	-8896
▁wifi	-8897
▁books	-8898
▁henri	-8899
▁malay	-8900
▁plant	-8901
▁kingdom	-8902
▁russell	-8903
▁bn	-8904
▁lf	-8905
▁462	-8906
▁781	-8907
▁836	-8908
▁848	-8909
▁882	-8910
▁904	-8911
▁gui	-8912
▁kot	-8913
▁syl	-8914
▁1596	-8915
▁1663	-8916
▁jpeg	-8917
▁remix	-8918
▁blackp	-8919
bw	-8920
met	-8921
rov	-8922
▁697	-8923
▁739	-8924
▁771	-8925
▁1682	-8926
▁1703	-8927
▁such	-8928
▁appro	-8929
▁jonathan	-8930
▁technolog	-8931
ards	-8932
▁020	-8933
▁967	-8934
▁alc	-8935
▁ark	-8936
▁incl	-8937
▁valve	-8938
▁professional	-8939
▁hc	-8940
▁pon	-8941
inton	-8942
▁1277	-8943
▁creative	-8944
▁christmas	-8945
虫冉	-8946
▁iu	-8947
ador	-8948
iler	-8949
▁797	-8950
▁917	-8951
▁twice	-8952
03%	-8953
edd	-8954
imi	-8955
▁ej	-8956
▁uf	-8957
亠斌手	-8958
▁691	-8959
▁829	-8960
▁bis	-8961
▁iup	-8962
▁psych	-8963
▁skype	-8964
▁tourn	-8965
▁advent	-8966
▁before	-8967
▁brothers	-8968
dn	-8969
oko	-8970
▁899	-8971
▁987	-8972
▁acg	-8973
▁amx	-8974
𠂊田灬工	-8975
▁diamond	-8976
▁benjamin	-8977
▁electric	-8978
▁noinclude	-8979
夫夫车	-8980
▁763	-8981
▁97%	-8982
▁obe	-8983
▁1719	-8984
▁host	-8985
▁nint	-8986
tz	-8987
▁uv	-8988
▁766	-8989
▁1528	-8990
▁iron	-8991
▁trade	-8992
ability	-8993
dh	-8994
123	-8995
fort	-8996
izon	-8997
riel	-8998
▁744	-8999
▁795	-9000
▁1040	-9001
▁1552	-9002
▁solid	-9003
▁premier	-9004
饣耳	-9005
01%	-9006
pal	-9007
▁eh	-9008
习习廾	-9009
bird	-9010
side	-9011
▁842	-9012
▁1420	-9013
▁1506	-9014
▁hydro	-9015
▁pixel	-9016
bes	-9017
ired	-9018
▁bib	-9019
▁kor	-9020
▁1070	-9021
▁1385	-9022
▁1678	-9023
▁coup	-9024
▁administr	-9025
▁aba	-9026
▁hir	-9027
aceae	-9028
mance	-9029
▁1705	-9030
▁ford	-9031
土隶	-9032
mum	-9033
oker	-9034
▁703	-9035
▁788	-9036
▁961	-9037
▁lon	-9038
▁neg	-9039
▁1557	-9040
▁earl	-9041
▁smile	-9042
▁constr	-9043
▁without	-9044
钅朱	-9045
102	-9046
idi	-9047
▁bw	-9048
▁663	-9049
▁734	-9050
▁ipa	-9051
▁pav	-9052
▁seg	-9053
▁1340	-9054
▁1415	-9055
▁burg	-9056
▁southern	-9057
05%	-9058
oft	-9059
onda	-9060
tion	-9061
▁672	-9062
ample	-9063
▁1125	-9064
▁jtbc	-9065
▁vert	-9066
▁publish	-9067
▁memorial	-9068
iser	-9069
▁803	-9070
▁1275	-9071
▁berg	-9072
▁gust	-9073
▁trin	-9074
▁billy	-9075
▁heaven	-9076
▁moment	-9077
14%	-9078
otte	-9079
▁jak	-9080
▁psv	-9081
▁tru	-9082
▁1390	-9083
▁1451	-9084
▁1516	-9085
▁together	-9086
▁washington	-9087
150	-9088
aha	-9089
roll	-9090
▁591	-9091
▁783	-9092
▁988	-9093
▁ips	-9094
▁tib	-9095
▁1330	-9096
▁cost	-9097
▁soph	-9098
▁lumia	-9099
▁still	-9100
▁morris	-9101
▁proble	-9102
▁bernard	-9103
▁thunder	-9104
▁004	-9105
▁stu	-9106
▁1066	-9107
▁1499	-9108
▁1543	-9109
▁gill	-9110
▁franz	-9111
▁spacex	-9112
15%	-9113
aba	-9114
band	-9115
▁1513	-9116
▁born	-9117
▁cris	-9118
olar	-9119
▁dod	-9120
ibili	-9121
▁user	-9122
▁vice	-9123
▁total	-9124
▁youth	-9125
ju	-9126
口止石	-9127
▁814	-9128
▁864	-9129
▁952	-9130
▁wow	-9131
▁bish	-9132
▁april	-9133
08%	-9134
bal	-9135
▁fw	-9136
feld	-9137
▁866	-9138
▁cub	-9139
▁1534	-9140
▁trad	-9141
▁crystal	-9142
▁virginia	-9143
金朱	-9144
rah	-9145
uve	-9146
▁631	-9147
▁679	-9148
▁837	-9149
▁dut	-9150
▁gym	-9151
▁sit	-9152
𠂊田一屯	-9153
ittor	-9154
▁1234	-9155
▁1554	-9156
▁wise	-9157
▁environment	-9158
bu	-9159
言斤	-9160
▁wy	-9161
亠斌山	-9162
eron	-9163
▁677	-9164
lands	-9165
▁1686	-9166
▁4800	-9167
▁minor	-9168
▁quant	-9169
▁oliver	-9170
▁select	-9171
▁freedom	-9172
▁bilibili	-9173
▁intellig	-9174
▁blackpink	-9175
几止	-9176
弓耳	-9177
nik	-9178
罂一阝	-9179
▁982	-9180
▁cot	-9181
▁rio	-9182
▁saw	-9183
▁tma	-9184
▁1382	-9185
▁8500	-9186
▁distrib	-9187
▁municip	-9188
▁nintendo	-9189
大車	-9190
99%	-9191
kir	-9192
山大車	-9193
▁878	-9194
▁lex	-9195
▁tin	-9196
▁hunt	-9197
▁sigma	-9198
▁study	-9199
▁morning	-9200
yo	-9201
04%	-9202
125	-9203
190	-9204
95%	-9205
abe	-9206
▁23%	-9207
▁fig	-9208
▁1376	-9209
▁buff	-9210
▁charl	-9211
▁grace	-9212
106	-9213
cus	-9214
mod	-9215
▁vm	-9216
▁673	-9217
▁743	-9218
▁gim	-9219
eller	-9220
▁1594	-9221
▁mother	-9222
▁present	-9223
▁analysis	-9224
hu	-9225
户非	-9226
▁pom	-9227
▁3700	-9228
▁mast	-9229
▁sang	-9230
ything	-9231
▁england	-9232
▁primary	-9233
虫甘	-9234
67%	-9235
hol	-9236
kan	-9237
▁664	-9238
▁1691	-9239
▁1716	-9240
▁crit	-9241
▁nike	-9242
▁trax	-9243
▁lovel	-9244
▁sciences	-9245
車乚	-9246
ema	-9247
▁002	-9248
▁792	-9249
▁dll	-9250
▁rif	-9251
▁1170	-9252
▁2050	-9253
jan	-9254
aron	-9255
eyer	-9256
▁883	-9257
▁1010	-9258
▁1692	-9259
▁bond	-9260
▁coff	-9261
▁requ	-9262
▁shot	-9263
▁della	-9264
▁stock	-9265
▁technologies	-9266
eb	-9267
口黑	-9268
▁xc	-9269
▁778	-9270
▁868	-9271
▁877	-9272
▁bod	-9273
▁mul	-9274
▁rex	-9275
▁spy	-9276
▁1278	-9277
▁1320	-9278
▁1696	-9279
▁prod	-9280
▁snap	-9281
▁abdul	-9282
▁french	-9283
▁margaret	-9284
▁movement	-9285
气川	-9286
11%	-9287
96%	-9288
alo	-9289
▁ei	-9290
▁tz	-9291
▁844	-9292
▁nts	-9293
▁1270	-9294
▁1445	-9295
▁staff	-9296
虫丘	-9297
▁693	-9298
▁752	-9299
▁833	-9300
▁852	-9301
▁862	-9302
▁typ	-9303
▁utf	-9304
⿰⿰⿱	-9305
anche	-9306
antis	-9307
▁1694	-9308
rs	-9309
▁665	-9310
▁804	-9311
▁pir	-9312
▁1011	-9313
▁1240	-9314
▁1548	-9315
▁1704	-9316
▁ming	-9317
▁belie	-9318
▁guide	-9319
▁value	-9320
▁material	-9321
nh	-9322
几歹	-9323
emi	-9324
zza	-9325
▁zu	-9326
镸彡冉	-9327
ocus	-9328
▁aks	-9329
▁dsm	-9330
▁dub	-9331
▁ntt	-9332
lines	-9333
osoph	-9334
▁bobby	-9335
▁graham	-9336
▁ground	-9337
▁rainbow	-9338
二女	-9339
ono	-9340
rat	-9341
bank	-9342
ende	-9343
▁779	-9344
▁794	-9345
▁799	-9346
▁909	-9347
▁kec	-9348
▁exec	-9349
▁iata	-9350
▁luis	-9351
▁candy	-9352
▁charlie	-9353
203	-9354
▁867	-9355
▁889	-9356
▁944	-9357
▁hid	-9358
▁wir	-9359
▁1030	-9360
▁1442	-9361
▁1480	-9362
▁shel	-9363
▁synd	-9364
▁tiger	-9365
▁lawrence	-9366
▁jb	-9367
▁834	-9368
▁906	-9369
point	-9370
▁cafe	-9371
▁chic	-9372
▁sncf	-9373
▁worms	-9374
▁running	-9375
▁financial	-9376
▁performance	-9377
犭弗	-9378
13%	-9379
▁dz	-9380
▁807	-9381
▁851	-9382
▁oak	-9383
▁1433	-9384
▁factor	-9385
▁productions	-9386
px	-9387
16%	-9388
ilia	-9389
▁943	-9390
color	-9391
illon	-9392
▁1608	-9393
▁give	-9394
▁mong	-9395
▁tolk	-9396
▁justin	-9397
▁velvet	-9398
▁giovanni	-9399
▁thompson	-9400
木巴	-9401
06%	-9402
▁adm	-9403
▁aps	-9404
▁rgb	-9405
ience	-9406
▁1695	-9407
▁dean	-9408
▁terr	-9409
▁tommy	-9410
vention	-9411
▁norman	-9412
21%	-9413
24%	-9414
27%	-9415
85%	-9416
▁694	-9417
▁753	-9418
▁874	-9419
▁rig	-9420
▁1190	-9421
▁4200	-9422
▁mile	-9423
▁teen	-9424
▁columb	-9425
▁steven	-9426
目目	-9427
艹氏	-9428
aca	-9429
目八阝	-9430
立十手	-9431
ario	-9432
base	-9433
▁959	-9434
▁972	-9435
▁amc	-9436
▁1549	-9437
▁away	-9438
▁brig	-9439
▁chun	-9440
▁baron	-9441
▁reich	-9442
▁jordan	-9443
王己	-9444
23%	-9445
aps	-9446
▁tk	-9447
▁ue	-9448
mont	-9449
▁831	-9450
▁jin	-9451
▁nel	-9452
▁rid	-9453
▁1515	-9454
▁care	-9455
▁lane	-9456
▁hamilton	-9457
▁messenger	-9458
木柬	-9459
豕豕	-9460
18%	-9461
hib	-9462
丿䖻虫	-9463
▁654	-9464
▁haz	-9465
▁1360	-9466
▁1743	-9467
▁cann	-9468
▁oliv	-9469
▁later	-9470
▁deutsch	-9471
▁tolkien	-9472
wr	-9473
121	-9474
17%	-9475
hai	-9476
lard	-9477
ouse	-9478
▁030	-9479
▁956	-9480
▁cem	-9481
▁1140	-9482
▁chung	-9483
▁phill	-9484
▁sainte	-9485
▁universit	-9486
115	-9487
uer	-9488
▁fb	-9489
▁jd	-9490
▁vb	-9491
lock	-9492
▁why	-9493
ledge	-9494
▁1693	-9495
▁clear	-9496
▁doctor	-9497
▁promotion	-9498
wc	-9499
07%	-9500
98%	-9501
乀丿虫	-9502
𠂊蛖⺀	-9503
osis	-9504
▁010	-9505
▁mys	-9506
▁1677	-9507
▁1708	-9508
▁3400	-9509
▁century	-9510
▁destiny	-9511
▁federation	-9512
▁application	-9513
wo	-9514
▁942	-9515
▁977	-9516
▁1470	-9517
▁1533	-9518
▁police	-9519
kar	-9520
ythm	-9521
▁eag	-9522
▁jew	-9523
▁1204	-9524
▁1404	-9525
▁echo	-9526
▁less	-9527
▁grant	-9528
▁multi	-9529
▁scheme	-9530
▁connect	-9531
oco	-9532
▁nb	-9533
▁wn	-9534
▁891	-9535
▁cbe	-9536
▁lux	-9537
friend	-9538
▁multip	-9539
▁justice	-9540
32%	-9541
eda	-9542
iod	-9543
uru	-9544
▁869	-9545
▁983	-9546
▁bam	-9547
▁bmg	-9548
▁emb	-9549
▁upd	-9550
▁1403	-9551
▁bird	-9552
▁jung	-9553
▁pick	-9554
▁thor	-9555
▁references	-9556
▁organization	-9557
讠几	-9558
12%	-9559
roy	-9560
亠斌子	-9561
虫虫皿	-9562
omet	-9563
ress	-9564
▁749	-9565
▁993	-9566
▁kil	-9567
▁vvv	-9568
▁1279	-9569
▁arab	-9570
▁buck	-9571
▁duke	-9572
▁ifpi	-9573
▁mack	-9574
▁ping	-9575
▁maker	-9576
▁rapper	-9577
42%	-9578
iae	-9579
omi	-9580
火火刂	-9581
illo	-9582
orum	-9583
▁22%	-9584
▁789	-9585
▁958	-9586
▁bra	-9587
▁dram	-9588
▁hend	-9589
▁40000	-9590
▁third	-9591
土亚	-9592
111	-9593
eco	-9594
ipe	-9595
▁tls	-9596
▁1135	-9597
▁2900	-9598
▁nine	-9599
▁coast	-9600
▁iupac	-9601
▁symph	-9602
▁thing	-9603
▁provid	-9604
▁gabriel	-9605
▁northern	-9606
竹艮	-9607
117	-9608
uli	-9609
竹艮皿	-9610
▁052	-9611
▁769	-9612
▁841	-9613
▁892	-9614
▁tol	-9615
目目隹又	-9616
owski	-9617
▁1706	-9618
▁phen	-9619
▁kitty	-9620
▁rights	-9621
▁broadcast	-9622
氵尺	-9623
58%	-9624
ring	-9625
▁nag	-9626
丰丰豆阝	-9627
▁1392	-9628
▁clos	-9629
hedral	-9630
▁travel	-9631
▁railway	-9632
王月	-9633
𠂒口阝	-9634
room	-9635
▁849	-9636
▁932	-9637
▁992	-9638
▁sib	-9639
▁both	-9640
▁much	-9641
▁pure	-9642
▁yang	-9643
▁nexus	-9644
▁while	-9645
▁legacy	-9646
▁observ	-9647
sy	-9648
asi	-9649
冂口木	-9650
brid	-9651
ping	-9652
rain	-9653
▁24%	-9654
cloud	-9655
▁check	-9656
▁metrop	-9657
土艮	-9658
戊臣	-9659
木比	-9660
900	-9661
iles	-9662
▁080	-9663
▁782	-9664
▁clo	-9665
▁tes	-9666
shire	-9667
▁1448	-9668
▁mang	-9669
▁null	-9670
▁release	-9671
ku	-9672
122	-9673
▁mck	-9674
㇇⿱⿰	-9675
▁1129	-9676
▁1551	-9677
▁50000	-9678
▁korea	-9679
▁theod	-9680
▁yoshiki	-9681
▁animation	-9682
衤夬	-9683
19%	-9684
34%	-9685
386	-9686
▁qf	-9687
▁764	-9688
▁jst	-9689
▁1206	-9690
▁1295	-9691
▁half	-9692
▁today	-9693
▁private	-9694
▁electronic	-9695
22%	-9696
28%	-9697
tha	-9698
▁954	-9699
▁963	-9700
▁koh	-9701
▁1539	-9702
▁kath	-9703
▁meet	-9704
▁gener	-9705
▁prize	-9706
▁robinson	-9707
126	-9708
yon	-9709
▁gg	-9710
▁21%	-9711
▁674	-9712
▁ctv	-9713
▁kaw	-9714
▁own	-9715
▁yak	-9716
▁leop	-9717
▁craig	-9718
▁holly	-9719
▁jerry	-9720
▁flying	-9721
▁motion	-9722
▁scient	-9723
108	-9724
小丿衣	-9725
alle	-9726
▁atv	-9727
▁dei	-9728
▁hob	-9729
▁pau	-9730
▁xen	-9731
▁1388	-9732
▁event	-9733
▁milit	-9734
▁dennis	-9735
石𠃓	-9736
35%	-9737
nel	-9738
▁dag	-9739
eline	-9740
▁1406	-9741
▁shaw	-9742
▁extra	-9743
▁beauty	-9744
▁flower	-9745
▁australia	-9746
38%	-9747
77%	-9748
82%	-9749
▁cum	-9750
丨丨比几	-9751
ality	-9752
▁saab	-9753
▁sever	-9754
▁artist	-9755
▁gallery	-9756
矛𧘇	-9757
钅皮	-9758
pos	-9759
▁jen	-9760
▁kaz	-9761
▁ansi	-9762
▁bull	-9763
▁wish	-9764
▁vogue	-9765
pin	-9766
目八缶	-9767
vert	-9768
▁nim	-9769
▁veh	-9770
▁vpn	-9771
▁1120	-9772
▁glad	-9773
▁sohc	-9774
▁tong	-9775
log	-9776
ska	-9777
力口衣	-9778
氵𠃓火	-9779
anta	-9780
▁016	-9781
▁find	-9782
▁palazzo	-9783
▁lovelive	-9784
▁philosoph	-9785
㇀	-9786
47%	-9787
idea	-9788
omer	-9789
▁015	-9790
▁nes	-9791
▁pie	-9792
▁1215	-9793
▁1498	-9794
▁early	-9795
▁oracle	-9796
▁shadow	-9797
▁million	-9798
hl	-9799
37%	-9800
▁rk	-9801
▁854	-9802
▁894	-9803
▁931	-9804
▁isp	-9805
▁1356	-9806
▁bour	-9807
▁icao	-9808
▁wool	-9809
▁brain	-9810
▁pocket	-9811
▁concept	-9812
53%	-9813
▁ov	-9814
▁671	-9815
▁774	-9816
▁941	-9817
▁sod	-9818
ended	-9819
▁1138	-9820
▁dise	-9821
▁emule	-9822
▁keith	-9823
▁element	-9824
▁partners	-9825
疒山	-9826
65%	-9827
86%	-9828
ava	-9829
亠矛𧘇	-9830
ader	-9831
anus	-9832
isch	-9833
▁1067	-9834
▁otto	-9835
▁chall	-9836
▁gmail	-9837
▁campbell	-9838
▁discovery	-9839
山山	-9840
白匕	-9841
竹戋	-9842
52%	-9843
cer	-9844
wal	-9845
▁gf	-9846
▁mud	-9847
▁1698	-9848
▁chrom	-9849
▁sense	-9850
▁circle	-9851
▁protoc	-9852
钅巨	-9853
87%	-9854
93%	-9855
boy	-9856
▁893	-9857
▁amu	-9858
▁ich	-9859
▁lif	-9860
▁1439	-9861
▁1671	-9862
▁calc	-9863
▁corp	-9864
▁fine	-9865
▁animax	-9866
▁heinrich	-9867
干干	-9868
29%	-9869
97%	-9870
oen	-9871
▁hb	-9872
eder	-9873
iven	-9874
▁27%	-9875
▁791	-9876
▁raj	-9877
▁1214	-9878
▁1225	-9879
▁1413	-9880
▁1509	-9881
▁ship	-9882
▁crazy	-9883
▁grande	-9884
▁normal	-9885
▁cathedral	-9886
226	-9887
ahl	-9888
▁ads	-9889
▁sco	-9890
▁sip	-9891
script	-9892
▁excel	-9893
▁india	-9894
30%	-9895
ben	-9896
▁dg	-9897
irus	-9898
reen	-9899
▁raf	-9900
▁tum	-9901
▁udp	-9902
▁1020	-9903
▁3100	-9904
▁grey	-9905
▁domin	-9906
▁suite	-9907
王页	-9908
ads	-9909
ail	-9910
edo	-9911
▁lz	-9912
igen	-9913
mund	-9914
▁26%	-9915
▁984	-9916
▁tow	-9917
▁guard	-9918
▁swing	-9919
44%	-9920
48%	-9921
49%	-9922
66%	-9923
bat	-9924
▁kj	-9925
etic	-9926
▁amy	-9927
▁ecl	-9928
shine	-9929
▁beast	-9930
▁gogoro	-9931
▁retrie	-9932
hy	-9933
57%	-9934
92%	-9935
pie	-9936
立十纟	-9937
▁964	-9938
▁ran	-9939
▁suc	-9940
osaur	-9941
▁1407	-9942
▁1494	-9943
▁bund	-9944
▁node	-9945
amatan	-9946
▁empire	-9947
▁stream	-9948
▁kenneth	-9949
kv	-9950
lr	-9951
禾末	-9952
iza	-9953
▁fg	-9954
▁858	-9955
▁884	-9956
▁991	-9957
▁ana	-9958
▁ela	-9959
▁fib	-9960
▁lav	-9961
▁rip	-9962
井一八言	-9963
▁1375	-9964
▁bent	-9965
▁sept	-9966
ipedia	-9967
▁sugar	-9968
▁senior	-9969
▁simple	-9970
▁stewart	-9971
▁kecamatan	-9972
dl	-9973
zj	-9974
人工	-9975
20%	-9976
36%	-9977
aza	-9978
▁989	-9979
▁ole	-9980
▁wer	-9981
▁1060	-9982
▁scot	-9983
▁crown	-9984
▁drama	-9985
▁compet	-9986
▁magnet	-9987
▁marine	-9988
毛求	-9989
45%	-9990
fun	-9991
yes	-9992
▁nx	-9993
▁afi	-9994
▁atc	-9995
▁1290	-9996
▁1328	-9997
▁flag	-9998
▁ntfs	-9999
▁colon	-10000
▁prest	-10001
▁annivers	-10002
▁rockstar	-10003
26%	-10004
39%	-10005
40%	-10006
rus	-10007
▁rw	-10008
▁96%	-10009
▁duc	-10010
▁fra	-10011
▁ernest	-10012
▁winner	-10013
▁bgcolor	-10014
▁character	-10015
水水	-10016
礻韦	-10017
钅戉	-10018
202	-10019
360	-10020
50%	-10021
jet	-10022
kit	-10023
lec	-10024
▁974	-10025
▁gap	-10026
▁ivan	-10027
▁trna	-10028
▁liter	-10029
▁shoot	-10030
62%	-10031
nar	-10032
elin	-10033
olla	-10034
▁012	-10035
▁832	-10036
▁aid	-10037
▁fia	-10038
▁vie	-10039
▁cmos	-10040
▁sata	-10041
ecraft	-10042
stream	-10043
▁anime	-10044
▁ralph	-10045
▁hudson	-10046
▁includ	-10047
▁powerpc	-10048
▁aircraft	-10049
▁economic	-10050
▁training	-10051
1911	-10052
▁949	-10053
opter	-10054
▁1531	-10055
▁quar	-10056
▁manga	-10057
▁woman	-10058
56%	-10059
ede	-10060
king	-10061
▁maz	-10062
▁sis	-10063
▁toul	-10064
▁instr	-10065
▁yf	-10066
0000	-10067
ilis	-10068
iste	-10069
▁772	-10070
▁ultr	-10071
▁around	-10072
▁nathan	-10073
▁strong	-10074
▁anniversary	-10075
王龙	-10076
63%	-10077
mit	-10078
uil	-10079
esta	-10080
▁872	-10081
▁spl	-10082
▁sti	-10083
▁1185	-10084
▁1425	-10085
▁june	-10086
▁barry	-10087
▁chand	-10088
▁shang	-10089
二儿	-10090
虫皿	-10091
69%	-10092
▁zo	-10093
櫵一又	-10094
enti	-10095
▁28%	-10096
▁aux	-10097
▁ens	-10098
▁jis	-10099
𠂊田灬弗	-10100
▁1137	-10101
▁1160	-10102
▁1421	-10103
▁1501	-10104
▁gith	-10105
ighter	-10106
▁basil	-10107
▁films	-10108
目冘	-10109
46%	-10110
73%	-10111
eca	-10112
oki	-10113
ovi	-10114
▁hh	-10115
igne	-10116
wiki	-10117
▁060	-10118
▁ome	-10119
▁try	-10120
▁vas	-10121
▁1364	-10122
▁1399	-10123
▁1504	-10124
▁many	-10125
▁crist	-10126
▁cyber	-10127
▁continu	-10128
ru	-10129
09%	-10130
41%	-10131
59%	-10132
68%	-10133
eli	-10134
▁zn	-10135
▁chal	-10136
▁hang	-10137
▁imdb	-10138
▁faith	-10139
▁github	-10140
81%	-10141
88%	-10142
▁sul	-10143
▁xxx	-10144
一厶土阝	-10145
▁1265	-10146
▁1412	-10147
▁draw	-10148
▁epis	-10149
▁rout	-10150
▁writ	-10151
▁hybrid	-10152
▁seventeen	-10153
rh	-10154
231	-10155
43%	-10156
oku	-10157
owa	-10158
ango	-10159
▁003	-10160
▁966	-10161
▁kas	-10162
▁1219	-10163
▁appe	-10164
▁salv	-10165
▁site	-10166
▁aggre	-10167
▁logic	-10168
zh	-10169
王几	-10170
54%	-10171
70%	-10172
76%	-10173
ipse	-10174
▁994	-10175
▁bog	-10176
▁1488	-10177
▁1503	-10178
▁gain	-10179
▁risc	-10180
▁visa	-10181
▁baker	-10182
▁mechan	-10183
▁example	-10184
▁fortran	-10185
▁stanley	-10186
▁communications	-10187
氵龙	-10188
爿未	-10189
白木	-10190
虫乚	-10191
71%	-10192
89%	-10193
冂丶阝	-10194
char	-10195
imes	-10196
unch	-10197
▁040	-10198
▁42%	-10199
▁43%	-10200
▁ces	-10201
▁mta	-10202
▁sse	-10203
▁tec	-10204
▁tee	-10205
丷八白木	-10206
▁1424	-10207
▁drop	-10208
▁soho	-10209
▁sult	-10210
▁melon	-10211
▁stein	-10212
▁berlin	-10213
▁lucasarts	-10214
etz	-10215
▁vh	-10216
▁36%	-10217
▁psr	-10218
▁rer	-10219
enson	-10220
▁1518	-10221
▁chief	-10222
▁paper	-10223
▁strateg	-10224
yu	-10225
丿干	-10226
55%	-10227
chin	-10228
▁879	-10229
▁ufc	-10230
▁1394	-10231
▁kamp	-10232
▁prix	-10233
▁tank	-10234
▁larry	-10235
▁professor	-10236
女以	-10237
72%	-10238
can	-10239
iya	-10240
iola	-10241
▁793	-10242
▁853	-10243
▁fav	-10244
▁gmb	-10245
▁bapt	-10246
▁hide	-10247
▁ernst	-10248
▁raymond	-10249
gp	-10250
艹豆	-10251
84%	-10252
mel	-10253
ours	-10254
ting	-10255
▁dup	-10256
▁lod	-10257
▁pub	-10258
▁wim	-10259
ances	-10260
uther	-10261
▁1086	-10262
▁arms	-10263
▁shock	-10264
▁titan	-10265
▁canton	-10266
▁signal	-10267
▁vincent	-10268
31%	-10269
set	-10270
▁qr	-10271
sten	-10272
▁070	-10273
▁rah	-10274
▁gren	-10275
▁rate	-10276
▁suica	-10277
▁during	-10278
▁region	-10279
▁conserv	-10280
▁yourself	-10281
气乃	-10282
79%	-10283
elia	-10284
fish	-10285
▁873	-10286
▁ssl	-10287
▁tir	-10288
▁1110	-10289
▁heat	-10290
▁hills	-10291
▁captain	-10292
竹肅	-10293
钅土	-10294
▁lb	-10295
▁ui	-10296
▁013	-10297
▁19%	-10298
▁kep	-10299
▁nhl	-10300
人人龰心	-10301
▁1387	-10302
▁cord	-10303
▁holy	-10304
▁init	-10305
▁tard	-10306
▁forum	-10307
▁smack	-10308
▁resour	-10309
木予	-10310
51%	-10311
aser	-10312
▁857	-10313
▁lag	-10314
▁ptt	-10315
▁wes	-10316
▁1115	-10317
▁1507	-10318
▁jazz	-10319
▁canad	-10320
▁bishop	-10321
249	-10322
▁tx	-10323
土土阝	-10324
▁859	-10325
▁agm	-10326
▁1409	-10327
▁1495	-10328
▁each	-10329
▁heav	-10330
▁race	-10331
▁roth	-10332
▁phase	-10333
▁sonic	-10334
▁marcus	-10335
▁rhythm	-10336
䱘木	-10337
kes	-10338
▁006	-10339
▁afr	-10340
▁csm	-10341
▁nab	-10342
▁1402	-10343
▁1465	-10344
▁rush	-10345
utions	-10346
▁belle	-10347
▁range	-10348
▁carter	-10349
60%	-10350
78%	-10351
arn	-10352
勹巳刂	-10353
fire	-10354
link	-10355
▁vik	-10356
▁gangan	-10357
▁myster	-10358
▁sunshine	-10359
广阝	-10360
火屯	-10361
礻乃	-10362
khz	-10363
▁iq	-10364
aman	-10365
ever	-10366
▁ktv	-10367
▁nog	-10368
▁umb	-10369
uring	-10370
▁1471	-10371
▁samp	-10372
othing	-10373
▁butter	-10374
▁repres	-10375
▁islands	-10376
▁independent	-10377
口我	-10378
疒𠃓	-10379
64%	-10380
ogn	-10381
口止皮	-10382
▁953	-10383
▁vac	-10384
▁1155	-10385
▁1497	-10386
▁emba	-10387
▁sold	-10388
▁sung	-10389
▁vill	-10390
▁terry	-10391
▁greatest	-10392
uge	-10393
▁bk	-10394
izer	-10395
lich	-10396
▁ade	-10397
▁mlb	-10398
▁tok	-10399
▁too	-10400
▁gmbh	-10401
▁vern	-10402
▁alive	-10403
▁dreams	-10404
▁herbert	-10405
▁complete	-10406
口甘	-10407
aux	-10408
gel	-10409
isy	-10410
ket	-10411
rac	-10412
etti	-10413
▁38%	-10414
▁bae	-10415
▁dab	-10416
▁len	-10417
▁1449	-10418
▁1476	-10419
▁pand	-10420
▁wake	-10421
▁pedro	-10422
▁interface	-10423
口人	-10424
𠂇冂	-10425
204	-10426
80%	-10427
asha	-10428
▁856	-10429
▁gly	-10430
▁laz	-10431
▁sns	-10432
▁size	-10433
▁11000	-10434
▁joint	-10435
205	-10436
gro	-10437
mers	-10438
▁32%	-10439
▁aub	-10440
▁rus	-10441
▁tau	-10442
糸言糸子	-10443
▁1211	-10444
▁1213	-10445
▁1224	-10446
▁5200	-10447
▁bald	-10448
▁bust	-10449
▁cust	-10450
▁monte	-10451
▁always	-10452
▁morgan	-10453
▁theater	-10454
彳来	-10455
124	-10456
61%	-10457
oka	-10458
orp	-10459
sia	-10460
▁jc	-10461
儿丨金	-10462
櫵一大	-10463
龶月见	-10464
ares	-10465
ased	-10466
news	-10467
▁051	-10468
▁773	-10469
▁cbc	-10470
▁hut	-10471
▁jab	-10472
▁lia	-10473
▁pid	-10474
▁utr	-10475
kreis	-10476
▁1122	-10477
▁1428	-10478
▁loop	-10479
▁rule	-10480
▁schm	-10481
▁price	-10482
itation	-10483
▁safari	-10484
ims	-10485
pat	-10486
aste	-10487
▁025	-10488
▁1210	-10489
▁1438	-10490
▁bure	-10491
▁dawn	-10492
▁wait	-10493
▁transit	-10494
ittorrent	-10495
艹必	-10496
233	-10497
74%	-10498
士示隶	-10499
▁ats	-10500
▁llo	-10501
▁rin	-10502
ovich	-10503
▁1227	-10504
▁insp	-10505
▁lanc	-10506
▁cooper	-10507
▁sister	-10508
▁communication	-10509
竹肃	-10510
112	-10511
94%	-10512
card	-10513
▁871	-10514
▁cow	-10515
▁1075	-10516
▁1274	-10517
▁innov	-10518
▁mysql	-10519
▁spark	-10520
▁friday	-10521
▁matrix	-10522
▁minister	-10523
▁architecture	-10524
冂山	-10525
pet	-10526
olas	-10527
onne	-10528
▁hed	-10529
▁jur	-10530
𠂊田灬身	-10531
▁1217	-10532
▁cele	-10533
▁kala	-10534
亠丷厂彡頁	-10535
▁griff	-10536
▁alphago	-10537
▁gregory	-10538
▁document	-10539
129	-10540
lus	-10541
shop	-10542
▁aeg	-10543
▁kos	-10544
▁sbl	-10545
opsis	-10546
▁hung	-10547
▁stem	-10548
▁bloom	-10549
▁laura	-10550
▁assist	-10551
▁evangel	-10552
▁smackdown	-10553
307	-10554
cin	-10555
____	-10556
enge	-10557
orus	-10558
▁44%	-10559
▁ngo	-10560
▁sph	-10561
▁1085	-10562
▁1161	-10563
▁1374	-10564
▁gonz	-10565
▁pant	-10566
▁same	-10567
▁vector	-10568
▁chicago	-10569
▁eclipse	-10570
▁graphics	-10571
83%	-10572
厶口阝	-10573
▁bio	-10574
▁cgi	-10575
▁itu	-10576
▁lit	-10577
▁mrs	-10578
▁tig	-10579
⿱⿳⿳	-10580
ields	-10581
▁1367	-10582
▁bear	-10583
▁mala	-10584
▁tact	-10585
▁chiang	-10586
▁solaris	-10587
▁cinemasc	-10588
305	-10589
ined	-10590
onna	-10591
▁wto	-10592
丷干丸虫	-10593
▁1099	-10594
▁1397	-10595
▁wasp	-10596
▁federal	-10597
▁jessica	-10598
▁minecraft	-10599
▁represent	-10600
▁retrieved	-10601
su	-10602
▁丶	-10603
apa	-10604
avi	-10605
▁dot	-10606
▁1025	-10607
▁dong	-10608
enburg	-10609
▁cheng	-10610
▁genie	-10611
▁helen	-10612
▁altern	-10613
▁fusion	-10614
▁someth	-10615
▁warren	-10616
▁manager	-10617
月甲	-10618
金衣	-10619
136	-10620
195	-10621
ahn	-10622
cal	-10623
乡隹土	-10624
人人且	-10625
▁ott	-10626
▁sos	-10627
一中冖石	-10628
▁1253	-10629
▁1410	-10630
▁gian	-10631
▁kink	-10632
▁sean	-10633
▁ludwig	-10634
aci	-10635
come	-10636
eler	-10637
▁aes	-10638
▁cox	-10639
▁roh	-10640
▁⿱⿳⿻	-10641
丨丨比金	-10642
inary	-10643
▁1126	-10644
▁1405	-10645
▁lite	-10646
▁pled	-10647
▁cultural	-10648
aj	-10649
山鬼	-10650
艹虫	-10651
金不	-10652
burn	-10653
▁wwf	-10654
▁1216	-10655
▁1285	-10656
▁1381	-10657
▁1429	-10658
▁shift	-10659
▁content	-10660
▁leonard	-10661
10%	-10662
aby	-10663
ugg	-10664
ichi	-10665
▁861	-10666
▁aac	-10667
▁dsi	-10668
▁nfc	-10669
▁woo	-10670
▁1485	-10671
▁ikon	-10672
▁conso	-10673
▁estate	-10674
▁eastern	-10675
▁foreign	-10676
▁include	-10677
▁macbook	-10678
▁platform	-10679
▁progress	-10680
▁municipal	-10681
▁wikipedia	-10682
tes	-10683
uba	-10684
八刀土	-10685
ades	-10686
wald	-10687
wich	-10688
▁cfm	-10689
▁dro	-10690
▁ore	-10691
特一八皮	-10692
▁flat	-10693
▁truth	-10694
▁myspace	-10695
▁ultimate	-10696
uta	-10697
izen	-10698
▁52%	-10699
▁abu	-10700
▁nds	-10701
▁1016	-10702
▁1018	-10703
▁1358	-10704
▁help	-10705
▁nato	-10706
ration	-10707
▁datab	-10708
▁glass	-10709
▁official	-10710
▁bittorrent	-10711
亻巨	-10712
扌垂	-10713
eto	-10714
▁kf	-10715
enet	-10716
urst	-10717
▁017	-10718
stand	-10719
▁1235	-10720
▁nano	-10721
▁rise	-10722
▁birth	-10723
▁chain	-10724
▁thank	-10725
▁assemb	-10726
▁disney	-10727
▁oxford	-10728
▁australian	-10729
▁industrial	-10730
扌东	-10731
etf	-10732
▁wz	-10733
重力灬	-10734
▁47%	-10735
▁drm	-10736
▁suv	-10737
▁suz	-10738
▁wit	-10739
▁1116	-10740
▁1139	-10741
▁1187	-10742
▁flex	-10743
▁peak	-10744
▁afric	-10745
▁param	-10746
▁claude	-10747
▁sultan	-10748
▁amazing	-10749
▁learning	-10750
gg	-10751
犭九	-10752
钅乙	-10753
▁xd	-10754
▁zf	-10755
enda	-10756
last	-10757
▁34%	-10758
▁92%	-10759
▁mpa	-10760
▁nct	-10761
ingen	-10762
▁1004	-10763
▁1189	-10764
▁1241	-10765
▁bahn	-10766
▁clay	-10767
ership	-10768
▁serge	-10769
▁better	-10770
▁palace	-10771
▁genesis	-10772
▁airlines	-10773
iu	-10774
廴由	-10775
艹目	-10776
262	-10777
chu	-10778
rik	-10779
▁jf	-10780
木斤白	-10781
auer	-10782
edes	-10783
igny	-10784
ived	-10785
▁deg	-10786
▁ssd	-10787
▁xii	-10788
ensen	-10789
▁1351	-10790
▁1355	-10791
▁bott	-10792
▁brav	-10793
▁cnbc	-10794
▁oscar	-10795
▁route	-10796
▁cherry	-10797
▁choice	-10798
▁indian	-10799
▁lovely	-10800
▁piazza	-10801
▁nicholas	-10802
▁students	-10803
114	-10804
118	-10805
▁rl	-10806
▁xb	-10807
cent	-10808
gins	-10809
vest	-10810
▁37%	-10811
▁ftp	-10812
▁curt	-10813
▁fash	-10814
▁joey	-10815
▁vari	-10816
▁verd	-10817
bourne	-10818
▁devil	-10819
▁lotus	-10820
▁congress	-10821
▁protocol	-10822
▁xv	-10823
八厶心	-10824
ager	-10825
flow	-10826
▁bee	-10827
▁gan	-10828
▁gcc	-10829
▁gob	-10830
▁1044	-10831
▁1455	-10832
▁spac	-10833
▁wald	-10834
▁beats	-10835
▁danny	-10836
▁medicine	-10837
▁transfer	-10838
▁investment	-10839
舟中	-10840
bel	-10841
丷夫言	-10842
itas	-10843
▁053	-10844
▁pew	-10845
iform	-10846
▁1119	-10847
▁1236	-10848
▁1377	-10849
▁4400	-10850
▁neil	-10851
▁vvvf	-10852
▁athlon	-10853
▁domain	-10854
▁pledis	-10855
▁current	-10856
米巴	-10857
ieu	-10858
iot	-10859
▁ih	-10860
asis	-10861
issa	-10862
▁ard	-10863
▁eco	-10864
▁llc	-10865
▁nod	-10866
▁vil	-10867
▁yan	-10868
ength	-10869
umont	-10870
▁1208	-10871
▁1266	-10872
▁1418	-10873
ession	-10874
▁kings	-10875
▁large	-10876
▁swift	-10877
▁teach	-10878
▁believe	-10879
▁different	-10880
vm	-10881
金卯	-10882
002	-10883
opa	-10884
▁sx	-10885
车斤土	-10886
▁elf	-10887
▁hus	-10888
▁kum	-10889
丶葭月土	-10890
▁1157	-10891
▁1229	-10892
▁1271	-10893
▁4700	-10894
▁ment	-10895
▁move	-10896
▁stev	-10897
▁viet	-10898
▁focus	-10899
▁intro	-10900
▁theor	-10901
▁victory	-10902
▁universe	-10903
iev	-10904
nic	-10905
▁fh	-10906
耳耳頁	-10907
olin	-10908
▁46%	-10909
▁ald	-10910
▁ddg	-10911
▁lap	-10912
▁tsh	-10913
▁1002	-10914
▁1162	-10915
▁1414	-10916
▁1477	-10917
▁gross	-10918
▁nancy	-10919
▁virus	-10920
▁coffee	-10921
▁letter	-10922
▁allmusic	-10923
▁aggregate	-10924
▁francesco	-10925
▁structure	-10926
▁cinemascore	-10927
▁毌	-10928
口羊	-10929
128	-10930
izz	-10931
kov	-10932
uen	-10933
idas	-10934
▁bai	-10935
▁buk	-10936
▁ion	-10937
▁1123	-10938
▁1153	-10939
▁1333	-10940
▁4300	-10941
▁rosa	-10942
olitan	-10943
▁13000	-10944
▁blues	-10945
▁openoffice	-10946
lem	-10947
▁hf	-10948
幺幺子	-10949
alia	-10950
amer	-10951
blue	-10952
uten	-10953
▁ced	-10954
▁eif	-10955
▁nur	-10956
▁sov	-10957
▁1365	-10958
▁bala	-10959
▁dipl	-10960
▁affair	-10961
▁bright	-10962
▁rogers	-10963
▁disease	-10964
▁symbian	-10965
▁marshall	-10966
tb	-10967
ilus	-10968
look	-10969
pers	-10970
▁gur	-10971
白丿十阝	-10972
▁1141	-10973
▁1257	-10974
▁1283	-10975
▁1287	-10976
▁1373	-10977
▁1482	-10978
▁karen	-10979
▁krist	-10980
▁maxim	-10981
▁safety	-10982
▁update	-10983
▁valent	-10984
▁account	-10985
▁military	-10986
wi	-10987
175	-10988
pad	-10989
raf	-10990
ivan	-10991
oche	-10992
roph	-10993
▁fuj	-10994
▁kla	-10995
▁1218	-10996
▁1372	-10997
▁1467	-10998
▁elle	-10999
▁tiff	-11000
▁vall	-11001
▁comics	-11002
▁height	-11003
▁constit	-11004
▁episode	-11005
▁infinite	-11006
ams	-11007
enu	-11008
▁tj	-11009
apur	-11010
rise	-11011
▁hun	-11012
▁ups	-11013
▁1076	-11014
▁1391	-11015
▁1456	-11016
▁hdmi	-11017
▁rodr	-11018
▁rrna	-11019
▁boule	-11020
▁laugh	-11021
▁orchestra	-11022
▁something	-11023
vd	-11024
酉甘	-11025
rup	-11026
iden	-11027
▁57%	-11028
▁jum	-11029
▁raz	-11030
▁rum	-11031
▁vog	-11032
orton	-11033
▁1198	-11034
▁1258	-11035
▁1282	-11036
▁adrian	-11037
▁anders	-11038
▁barbara	-11039
▁gamerank	-11040
木乍	-11041
cia	-11042
vais	-11043
▁054	-11044
▁48%	-11045
▁csi	-11046
▁pam	-11047
▁sdr	-11048
▁voc	-11049
▁vre	-11050
uchus	-11051
▁1118	-11052
▁1128	-11053
▁1167	-11054
▁1395	-11055
▁1396	-11056
▁caen	-11057
▁ebay	-11058
▁fung	-11059
▁kirk	-11060
▁near	-11061
itions	-11062
▁alone	-11063
▁cinema	-11064
▁ericsson	-11065
▁frontier	-11066
▁gamerankings	-11067
冫牙	-11068
女朱	-11069
250	-11070
▁jh	-11071
⿺⿵	-11072
body	-11073
imir	-11074
ipop	-11075
orpg	-11076
▁005	-11077
▁pdp	-11078
water	-11079
▁1048	-11080
▁1095	-11081
▁1111	-11082
▁1207	-11083
▁1398	-11084
▁1427	-11085
▁dial	-11086
▁expo	-11087
▁rang	-11088
▁chies	-11089
▁close	-11090
▁klein	-11091
▁steel	-11092
▁thumb	-11093
▁venus	-11094
▁fellow	-11095
▁defense	-11096
bas	-11097
bye	-11098
▁qe	-11099
乀丿月	-11100
arin	-11101
▁090	-11102
▁aus	-11103
▁geo	-11104
▁lob	-11105
▁ntv	-11106
▁1071	-11107
▁1221	-11108
▁1297	-11109
▁1348	-11110
▁1419	-11111
▁kang	-11112
▁16000	-11113
▁eagle	-11114
▁pract	-11115
▁argent	-11116
▁philipp	-11117
纟寸	-11118
ieux	-11119
ober	-11120
▁29%	-11121
▁alp	-11122
▁tsa	-11123
▁uci	-11124
⿺⿱⿱	-11125
ivity	-11126
▁1073	-11127
▁1362	-11128
▁1378	-11129
▁avbw	-11130
▁feed	-11131
▁kern	-11132
▁18000	-11133
▁berry	-11134
▁eddie	-11135
▁react	-11136
▁sleep	-11137
▁synth	-11138
▁austin	-11139
▁bureau	-11140
▁mirror	-11141
▁nelson	-11142
▁parker	-11143
▁rachel	-11144
▁protein	-11145
乡葭	-11146
005	-11147
osc	-11148
乡葭阝	-11149
户攵木	-11150
ises	-11151
▁eid	-11152
▁phd	-11153
▁wav	-11154
▁1035	-11155
▁1329	-11156
▁poss	-11157
▁crypt	-11158
▁policy	-11159
▁temper	-11160
虍乎	-11161
金目	-11162
etal	-11163
etch	-11164
uced	-11165
▁dio	-11166
▁era	-11167
▁riv	-11168
▁1461	-11169
▁late	-11170
▁maxi	-11171
▁aaron	-11172
▁adams	-11173
▁higher	-11174
▁personal	-11175
禾干	-11176
erd	-11177
lac	-11178
▁mcg	-11179
▁nut	-11180
▁pda	-11181
andal	-11182
where	-11183
▁drum	-11184
▁gaud	-11185
▁susan	-11186
▁driver	-11187
nn	-11188
▁疋	-11189
othe	-11190
▁018	-11191
▁bmp	-11192
▁ets	-11193
▁mim	-11194
▁rpm	-11195
▁syd	-11196
▁zim	-11197
▁1131	-11198
▁1147	-11199
▁1281	-11200
▁orth	-11201
▁parl	-11202
▁fleet	-11203
▁chiesa	-11204
▁mmorpg	-11205
▁simula	-11206
▁fashion	-11207
ez	-11208
bot	-11209
ppm	-11210
aton	-11211
lace	-11212
olia	-11213
▁job	-11214
▁wrc	-11215
utive	-11216
▁1142	-11217
▁1183	-11218
▁1408	-11219
▁elli	-11220
▁iptv	-11221
▁evans	-11222
▁lantis	-11223
▁vehicle	-11224
▁landkreis	-11225
白巴	-11226
135	-11227
217	-11228
itis	-11229
jang	-11230
▁nos	-11231
▁pok	-11232
▁wiz	-11233
gamer	-11234
▁1386	-11235
▁carn	-11236
▁nerv	-11237
▁vlad	-11238
▁montb	-11239
▁ready	-11240
▁murray	-11241
▁constant	-11242
lia	-11243
▁vy	-11244
凵丨又	-11245
omon	-11246
road	-11247
▁cbd	-11248
▁eur	-11249
▁fnc	-11250
▁gba	-11251
▁pbs	-11252
▁snk	-11253
▁1192	-11254
▁emil	-11255
▁rome	-11256
former	-11257
▁chick	-11258
▁lloyd	-11259
▁singh	-11260
王頁	-11261
𠂆一	-11262
tek	-11263
via	-11264
▁gk	-11265
iman	-11266
type	-11267
▁53%	-11268
▁flu	-11269
▁frs	-11270
▁kok	-11271
▁ppm	-11272
orrow	-11273
ships	-11274
▁1072	-11275
▁1195	-11276
▁1389	-11277
▁1436	-11278
▁1468	-11279
▁danc	-11280
▁mers	-11281
▁surv	-11282
▁canal	-11283
▁melody	-11284
▁paradise	-11285
▁everything	-11286
▁艮	-11287
氵民	-11288
gun	-11289
kel	-11290
▁oo	-11291
agan	-11292
ucci	-11293
utes	-11294
▁56%	-11295
▁hin	-11296
▁1005	-11297
▁1175	-11298
▁1259	-11299
▁4600	-11300
▁beca	-11301
▁dock	-11302
▁para	-11303
▁initi	-11304
▁relig	-11305
▁varia	-11306
▁monkey	-11307
▁shanghai	-11308
▁syndrome	-11309
八月	-11310
金必	-11311
arth	-11312
bras	-11313
ving	-11314
▁88%	-11315
▁duo	-11316
▁oss	-11317
▁unt	-11318
track	-11319
▁1238	-11320
▁1264	-11321
▁cala	-11322
▁ietf	-11323
▁emacs	-11324
▁phoen	-11325
▁gilbert	-11326
亡阝	-11327
321	-11328
90%	-11329
abi	-11330
asse	-11331
html	-11332
iral	-11333
▁67%	-11334
▁sut	-11335
▁1284	-11336
▁1286	-11337
▁cort	-11338
▁dome	-11339
▁mine	-11340
▁rein	-11341
▁twin	-11342
▁wend	-11343
▁animal	-11344
▁import	-11345
▁because	-11346
sea	-11347
iche	-11348
▁afl	-11349
▁bgm	-11350
▁gau	-11351
▁naz	-11352
▁1252	-11353
▁1346	-11354
▁1483	-11355
▁apec	-11356
▁leed	-11357
▁amiga	-11358
▁cctld	-11359
ibility	-11360
▁diction	-11361
▁director	-11362
▁reaction	-11363
▁hollywood	-11364
一隹	-11365
扌丸贝	-11366
▁gtk	-11367
▁jag	-11368
▁pri	-11369
▁sic	-11370
▁wah	-11371
▁1156	-11372
▁1226	-11373
▁1314	-11374
▁1337	-11375
▁extr	-11376
▁loll	-11377
▁mama	-11378
▁sist	-11379
▁alexa	-11380
▁libre	-11381
▁perry	-11382
▁course	-11383
▁boulevard	-11384
艹长	-11385
dal	-11386
gir	-11387
lee	-11388
▁ln	-11389
夫夫車	-11390
load	-11391
▁86%	-11392
▁eve	-11393
etime	-11394
onkey	-11395
stadt	-11396
▁1307	-11397
▁trig	-11398
▁cells	-11399
▁kkbox	-11400
▁lucky	-11401
▁member	-11402
▁chamber	-11403
▁georges	-11404
▁reference	-11405
▁convention	-11406
亻夫	-11407
匚口	-11408
ffic	-11409
▁abl	-11410
▁bye	-11411
▁dft	-11412
▁kem	-11413
▁mev	-11414
▁tac	-11415
▁vod	-11416
丿𠃌攵贝	-11417
▁1019	-11418
▁dang	-11419
▁hipp	-11420
▁igbt	-11421
ective	-11422
▁photo	-11423
▁squad	-11424
itional	-11425
▁reddit	-11426
▁stuart	-11427
▁selection	-11428
▁technical	-11429
eh	-11430
yx	-11431
ocy	-11432
▁rv	-11433
atar	-11434
gest	-11435
▁fad	-11436
▁kak	-11437
▁lai	-11438
▁oil	-11439
▁pcr	-11440
▁spa	-11441
▁uri	-11442
▁1121	-11443
▁1246	-11444
▁beck	-11445
▁nest	-11446
▁pred	-11447
▁14000	-11448
▁things	-11449
▁turner	-11450
▁japanese	-11451
▁regional	-11452
瓦千	-11453
91%	-11454
ivo	-11455
幺芉甘	-11456
ovan	-11457
▁011	-11458
▁93%	-11459
▁94%	-11460
▁dbc	-11461
▁hap	-11462
▁rhe	-11463
▁sax	-11464
丶葭阝食	-11465
icket	-11466
▁boom	-11467
▁mono	-11468
urance	-11469
▁cemet	-11470
▁print	-11471
▁robot	-11472
▁camera	-11473
▁harold	-11474
▁jeremy	-11475
▁though	-11476
▁liberty	-11477
▁nuclear	-11478
▁tomorrow	-11479
yg	-11480
isi	-11481
low	-11482
yll	-11483
abad	-11484
ardi	-11485
ibus	-11486
ured	-11487
▁lyc	-11488
▁ves	-11489
▁1336	-11490
▁1444	-11491
▁1452	-11492
▁alto	-11493
冂二月犬鬼	-11494
▁fresh	-11495
▁upper	-11496
氵丰	-11497
虫且	-11498
讠工	-11499
207	-11500
ilt	-11501
mah	-11502
▁wb	-11503
▁58%	-11504
▁dak	-11505
▁emd	-11506
▁eun	-11507
▁gol	-11508
andro	-11509
▁1054	-11510
▁1143	-11511
▁1411	-11512
▁1441	-11513
▁2026	-11514
▁aero	-11515
▁guid	-11516
▁wide	-11517
diepie	-11518
▁julia	-11519
▁manuel	-11520
▁racing	-11521
▁stefan	-11522
▁forward	-11523
▁hermann	-11524
▁cemetery	-11525
▁imperial	-11526
▁catherine	-11527
vs	-11528
月羊	-11529
艹千	-11530
bin	-11531
rys	-11532
umn	-11533
▁fk	-11534
aign	-11535
▁72%	-11536
▁emm	-11537
▁rup	-11538
▁1013	-11539
▁1096	-11540
▁1124	-11541
▁1261	-11542
▁1291	-11543
▁1322	-11544
▁1324	-11545
▁chat	-11546
▁chel	-11547
▁hash	-11548
istics	-11549
ternal	-11550
▁going	-11551
▁medal	-11552
formula	-11553
▁astron	-11554
▁trinity	-11555
▁database	-11556
▁pewdiepie	-11557
agn	-11558
iley	-11559
inum	-11560
uche	-11561
▁ask	-11562
▁cvt	-11563
▁hog	-11564
▁ssh	-11565
▁1014	-11566
▁1228	-11567
▁1232	-11568
▁1363	-11569
▁1416	-11570
▁1484	-11571
▁2040	-11572
▁lons	-11573
▁seba	-11574
金田	-11575
agh	-11576
一丂瓜	-11577
rell	-11578
▁1357	-11579
▁aver	-11580
▁nand	-11581
▁layer	-11582
▁quart	-11583
▁arnold	-11584
▁volume	-11585
▁console	-11586
▁sunrise	-11587
▁distribution	-11588
且隹	-11589
口皿	-11590
127	-11591
206	-11592
eni	-11593
pen	-11594
van	-11595
𠂉口皿	-11596
enne	-11597
ries	-11598
▁cet	-11599
▁gis	-11600
▁jor	-11601
▁pps	-11602
chell	-11603
ished	-11604
layer	-11605
▁1008	-11606
▁1055	-11607
▁1205	-11608
▁1231	-11609
▁1308	-11610
▁ella	-11611
▁sara	-11612
▁uber	-11613
⿺⿱⿻⿻	-11614
▁colin	-11615
▁label	-11616
▁fighter	-11617
▁georgia	-11618
▁tonight	-11619
▁infinity	-11620
▁philippe	-11621
爿羊	-11622
hof	-11623
ikh	-11624
mut	-11625
▁63%	-11626
▁87%	-11627
▁ada	-11628
▁kop	-11629
▁1194	-11630
▁1248	-11631
▁1486	-11632
▁cyan	-11633
▁lily	-11634
▁mans	-11635
▁piet	-11636
▁trop	-11637
▁webs	-11638
▁agent	-11639
▁could	-11640
▁mario	-11641
▁fisher	-11642
▁newton	-11643
▁powers	-11644
▁survey	-11645
▁problem	-11646
牛毛	-11647
cep	-11648
irs	-11649
▁ao	-11650
▁mj	-11651
▁nj	-11652
erve	-11653
ised	-11654
onex	-11655
onse	-11656
quer	-11657
▁ipo	-11658
▁liu	-11659
▁pfa	-11660
▁vul	-11661
▁1113	-11662
▁1132	-11663
▁1256	-11664
▁1437	-11665
▁barc	-11666
▁crow	-11667
▁fell	-11668
▁mean	-11669
▁momo	-11670
▁said	-11671
▁claud	-11672
▁pride	-11673
▁compos	-11674
▁device	-11675
icularia	-11676
▁nothing	-11677
女册	-11678
酉乍	-11679
aur	-11680
tic	-11681
▁jj	-11682
㪭丿手	-11683
ires	-11684
▁009	-11685
▁41%	-11686
▁66%	-11687
▁tah	-11688
▁1042	-11689
▁1158	-11690
▁1191	-11691
▁1335	-11692
▁5600	-11693
▁riaa	-11694
uation	-11695
▁columbia	-11696
▁toulouse	-11697
金乙	-11698
999	-11699
hop	-11700
phi	-11701
宀八土	-11702
山己见	-11703
anti	-11704
rypt	-11705
▁amo	-11706
▁khz	-11707
▁lol	-11708
▁muk	-11709
▁ord	-11710
▁1017	-11711
▁1103	-11712
▁1176	-11713
▁1325	-11714
▁1366	-11715
▁1417	-11716
▁1443	-11717
▁cern	-11718
▁sans	-11719
▁vick	-11720
▁corps	-11721
▁macau	-11722
▁posix	-11723
▁sales	-11724
borough	-11725
▁bullet	-11726
讠卜	-11727
idt	-11728
▁gj	-11729
月刂见	-11730
amoo	-11731
ught	-11732
▁31%	-11733
▁dvb	-11734
▁gav	-11735
▁rak	-11736
▁vid	-11737
▁1037	-11738
▁1097	-11739
▁1134	-11740
▁male	-11741
▁peng	-11742
▁macro	-11743
▁stern	-11744
▁celebr	-11745
▁watson	-11746
▁maurice	-11747
▁secretary	-11748
nt	-11749
263	-11750
asp	-11751
oga	-11752
var	-11753
口止夫	-11754
𠁣𠃛一	-11755
dale	-11756
etto	-11757
▁048	-11758
▁065	-11759
style	-11760
▁1101	-11761
▁1107	-11762
▁1196	-11763
▁1352	-11764
▁trim	-11765
▁cable	-11766
▁carlo	-11767
▁geoff	-11768
▁please	-11769
▁counter	-11770
▁profile	-11771
▁challenge	-11772
亻千	-11773
月龙	-11774
虫内	-11775
eme	-11776
uca	-11777
born	-11778
▁gdi	-11779
▁gue	-11780
▁hex	-11781
▁pig	-11782
囗⺌日瓦	-11783
土斌攵虫	-11784
士冖一木	-11785
encer	-11786
oshop	-11787
vince	-11788
▁1078	-11789
▁barn	-11790
▁mick	-11791
▁miguel	-11792
▁nations	-11793
▁catholic	-11794
▁utricularia	-11795
fb	-11796
aly	-11797
epp	-11798
omys	-11799
wall	-11800
▁89%	-11801
▁eso	-11802
▁kra	-11803
▁oxy	-11804
▁thy	-11805
▁1065	-11806
▁1327	-11807
▁agre	-11808
▁cold	-11809
▁exid	-11810
▁kurt	-11811
▁luke	-11812
▁mann	-11813
▁rice	-11814
▁sier	-11815
▁frequ	-11816
▁glory	-11817
▁illust	-11818
▁period	-11819
▁tardis	-11820
▁working	-11821
▁charlotte	-11822
▁photoshop	-11823
004	-11824
119	-11825
apy	-11826
覀土阝	-11827
away	-11828
▁aco	-11829
▁dry	-11830
▁gtp	-11831
▁1233	-11832
▁6400	-11833
▁dell	-11834
▁salt	-11835
▁stro	-11836
▁atlas	-11837
▁bound	-11838
▁sandy	-11839
▁title	-11840
▁unity	-11841
▁journey	-11842
▁lollipop	-11843
▁remember	-11844
▁following	-11845
131	-11846
zip	-11847
▁fps	-11848
▁jpg	-11849
▁kre	-11850
▁nay	-11851
▁pvc	-11852
▁wei	-11853
graph	-11854
ually	-11855
▁0001	-11856
▁7200	-11857
▁aiko	-11858
▁sala	-11859
▁shall	-11860
▁words	-11861
▁inside	-11862
▁saturn	-11863
▁extreme	-11864
▁highway	-11865
▁chemical	-11866
▁authority	-11867
▁administration	-11868
del	-11869
㐅乂土	-11870
ingo	-11871
▁ata	-11872
▁fcc	-11873
▁nde	-11874
▁suk	-11875
istan	-11876
▁1027	-11877
▁1049	-11878
▁1068	-11879
▁1106	-11880
▁1146	-11881
▁1174	-11882
▁ting	-11883
▁weap	-11884
duction	-11885
▁ronald	-11886
▁compact	-11887
▁ireland	-11888
▁roberts	-11889
▁physical	-11890
003	-11891
149	-11892
zan	-11893
▁qb	-11894
▁xo	-11895
quin	-11896
text	-11897
▁83%	-11898
▁84%	-11899
▁ari	-11900
▁gad	-11901
▁nah	-11902
▁smg	-11903
▁1273	-11904
▁1294	-11905
▁1310	-11906
▁1347	-11907
▁1349	-11908
▁isab	-11909
▁mint	-11910
▁wine	-11911
▁elite	-11912
▁lower	-11913
▁tyler	-11914
▁article	-11915
▁collins	-11916
▁canadian	-11917
▁province	-11918
tt	-11919
151	-11920
bie	-11921
isen	-11922
life	-11923
▁ars	-11924
▁nir	-11925
▁wai	-11926
▁1034	-11927
▁1474	-11928
▁fuck	-11929
▁seas	-11930
▁ucla	-11931
elling	-11932
▁plate	-11933
▁cortex	-11934
▁making	-11935
▁spider	-11936
▁brother	-11937
▁dynamic	-11938
▁outlook	-11939
▁industry	-11940
火斤	-11941
钅来	-11942
319	-11943
450	-11944
edi	-11945
uin	-11946
cial	-11947
▁dop	-11948
▁hak	-11949
▁irc	-11950
▁1028	-11951
▁1267	-11952
▁1272	-11953
▁1313	-11954
▁1345	-11955
▁bash	-11956
▁btob	-11957
▁sull	-11958
▁navig	-11959
▁sharp	-11960
▁filter	-11961
▁schools	-11962
▁showtime	-11963
180	-11964
aye	-11965
des	-11966
▁pj	-11967
▁vk	-11968
山而页	-11969
hood	-11970
▁022	-11971
▁067	-11972
▁htm	-11973
▁ioc	-11974
▁psi	-11975
▁wag	-11976
arian	-11977
▁1426	-11978
▁5300	-11979
▁buch	-11980
▁atenu	-11981
▁chuck	-11982
▁corre	-11983
▁jalan	-11984
▁sword	-11985
▁xhtml	-11986
▁commod	-11987
▁strike	-11988
▁target	-11989
▁borough	-11990
▁collect	-11991
▁spotify	-11992
▁vietnam	-11993
mf	-11994
ady	-11995
api	-11996
oly	-11997
esse	-11998
▁54%	-11999
▁sag	-12000
▁scp	-12001
annon	-12002
▁1136	-12003
▁1148	-12004
▁1223	-12005
▁1255	-12006
▁5400	-12007
▁6600	-12008
▁hass	-12009
▁isis	-12010
▁prec	-12011
▁chron	-12012
starter	-12013
▁atlantic	-12014
gt	-12015
▁ユ	-12016
lyn	-12017
loss	-12018
mill	-12019
▁024	-12020
▁fen	-12021
▁fus	-12022
etype	-12023
▁1056	-12024
▁1090	-12025
▁1177	-12026
▁1239	-12027
▁3900	-12028
▁beam	-12029
▁hood	-12030
▁lung	-12031
▁push	-12032
▁save	-12033
ifying	-12034
▁cookie	-12035
▁father	-12036
▁electro	-12037
▁phoenix	-12038
▁quarter	-12039
▁starship	-12040
▁knowledge	-12041
▁operations	-12042
口瓜	-12043
扌千	-12044
yer	-12045
erse	-12046
ores	-12047
▁039	-12048
▁etf	-12049
▁hod	-12050
▁mia	-12051
▁ttc	-12052
anner	-12053
illes	-12054
▁1117	-12055
▁1163	-12056
▁1181	-12057
▁1251	-12058
▁hour	-12059
▁liqu	-12060
▁once	-12061
▁border	-12062
▁julius	-12063
▁lincol	-12064
▁johannes	-12065
▁secondary	-12066
▁protection	-12067
▁construction	-12068
220	-12069
303	-12070
pel	-12071
亠父力	-12072
▁019	-12073
▁62%	-12074
▁afc	-12075
▁ffe	-12076
▁rie	-12077
▁0000	-12078
▁1203	-12079
▁1296	-12080
▁1458	-12081
▁1462	-12082
▁attr	-12083
▁owen	-12084
▁colla	-12085
▁heavy	-12086
▁docomo	-12087
▁encore	-12088
▁russian	-12089
▁student	-12090
▁campaign	-12091
▁tournament	-12092
308	-12093
igi	-12094
rim	-12095
aris	-12096
cycl	-12097
ecca	-12098
▁bou	-12099
▁gto	-12100
▁haj	-12101
▁png	-12102
iving	-12103
▁1015	-12104
▁1473	-12105
▁dyna	-12106
▁fitz	-12107
▁guer	-12108
▁kate	-12109
▁felix	-12110
▁therm	-12111
▁combat	-12112
▁kirara	-12113
▁goodbye	-12114
▁lincoln	-12115
▁publishing	-12116
unk	-12117
▁jk	-12118
口耳戈	-12119
ames	-12120
cell	-12121
gang	-12122
▁093	-12123
▁bub	-12124
▁dic	-12125
▁rsa	-12126
ators	-12127
▁1045	-12128
▁1094	-12129
▁1242	-12130
▁1459	-12131
▁5800	-12132
▁gond	-12133
▁mist	-12134
▁omni	-12135
▁cohen	-12136
▁kabup	-12137
▁muham	-12138
▁since	-12139
▁sorry	-12140
▁wings	-12141
▁campus	-12142
▁circus	-12143
▁ferdin	-12144
▁paypal	-12145
▁rubber	-12146
▁gaudens	-12147
▁kickstarter	-12148
酉丁	-12149
akh	-12150
ibe	-12151
neo	-12152
akes	-12153
isan	-12154
▁39%	-12155
▁78%	-12156
▁apt	-12157
▁gec	-12158
▁sdn	-12159
▁unc	-12160
▁1006	-12161
▁1102	-12162
▁1171	-12163
▁1323	-12164
▁1359	-12165
▁1422	-12166
▁bdsm	-12167
▁bush	-12168
▁islam	-12169
▁liner	-12170
▁share	-12171
▁arcade	-12172
▁depend	-12173
▁success	-12174
▁fernando	-12175
▁mitchell	-12176
▁objective	-12177
▁political	-12178
▁dictionary	-12179
▁laboratory	-12180
dd	-12181
宀𡗗	-12182
140	-12183
jun	-12184
web	-12185
▁ij	-12186
opus	-12187
▁diy	-12188
▁gom	-12189
▁imf	-12190
▁lig	-12191
▁mbe	-12192
▁ngt	-12193
▁sri	-12194
▁tul	-12195
▁1186	-12196
▁1263	-12197
▁1431	-12198
▁6800	-12199
▁duck	-12200
▁foss	-12201
▁hugo	-12202
▁idea	-12203
▁json	-12204
▁lucy	-12205
▁pcie	-12206
▁jesus	-12207
▁month	-12208
▁silva	-12209
▁contem	-12210
▁message	-12211
▁quality	-12212
▁kabupaten	-12213
土龙	-12214
言工	-12215
134	-12216
aks	-12217
ared	-12218
ault	-12219
isse	-12220
▁82%	-12221
▁aig	-12222
▁egg	-12223
▁nbl	-12224
▁nsa	-12225
andra	-12226
okawa	-12227
▁1114	-12228
▁1199	-12229
▁9600	-12230
▁hits	-12231
▁schw	-12232
▁shan	-12233
▁error	-12234
▁honor	-12235
▁branch	-12236
▁models	-12237
▁african	-12238
▁telecom	-12239
▁cambridge	-12240
竹巴	-12241
fla	-12242
nas	-12243
pass	-12244
▁dra	-12245
▁myc	-12246
▁rss	-12247
▁yet	-12248
▁1209	-12249
▁1268	-12250
▁1303	-12251
▁1446	-12252
▁1479	-12253
▁anto	-12254
▁benz	-12255
▁buzz	-12256
▁chip	-12257
▁clin	-12258
▁folk	-12259
▁riot	-12260
donald	-12261
▁brave	-12262
▁catch	-12263
▁clock	-12264
▁disco	-12265
▁mason	-12266
▁phenom	-12267
▁points	-12268
▁script	-12269
▁welcome	-12270
尢王	-12271
虫亡	-12272
acht	-12273
anie	-12274
nell	-12275
▁dum	-12276
▁pab	-12277
▁shu	-12278
火火冖糸	-12279
burgh	-12280
▁1202	-12281
▁1447	-12282
▁drug	-12283
▁goes	-12284
▁term	-12285
▁giant	-12286
▁notes	-12287
▁using	-12288
▁transp	-12289
▁finance	-12290
▁postscript	-12291
▁broadcasting	-12292
168	-12293
211	-12294
213	-12295
ako	-12296
▁lj	-12297
plus	-12298
▁037	-12299
▁77%	-12300
▁ate	-12301
▁dix	-12302
▁tcl	-12303
▁uni	-12304
ellar	-12305
erner	-12306
otype	-12307
▁1077	-12308
▁1087	-12309
▁1179	-12310
▁1237	-12311
▁1302	-12312
▁1326	-12313
▁1393	-12314
▁1491	-12315
▁bach	-12316
▁evan	-12317
▁task	-12318
▁tung	-12319
manuel	-12320
▁capit	-12321
▁laser	-12322
▁pitch	-12323
▁sunny	-12324
▁trail	-12325
▁corner	-12326
▁novell	-12327
▁sydney	-12328
▁quantum	-12329
▁terminal	-12330
▁executive	-12331
礻石	-12332
衤氏	-12333
fet	-12334
mor	-12335
丿皿卩	-12336
city	-12337
eppe	-12338
wave	-12339
▁035	-12340
▁056	-12341
▁acm	-12342
▁fix	-12343
▁gif	-12344
▁icc	-12345
▁lut	-12346
▁1247	-12347
▁1262	-12348
▁cogn	-12349
▁gius	-12350
▁niss	-12351
▁pete	-12352
▁emily	-12353
▁kinki	-12354
▁prada	-12355
▁forces	-12356
▁guitar	-12357
▁screen	-12358
▁caroline	-12359
▁franklin	-12360
耒㠯	-12361
208	-12362
228	-12363
▁vu	-12364
enia	-12365
ktop	-12366
lett	-12367
▁lpl	-12368
▁sio	-12369
ected	-12370
▁1104	-12371
▁1151	-12372
▁1463	-12373
▁ahmad	-12374
▁edwin	-12375
▁bandar	-12376
▁however	-12377
230	-12378
aft	-12379
▁pz	-12380
acon	-12381
otic	-12382
▁sof	-12383
▁tic	-12384
▁yun	-12385
aries	-12386
forge	-12387
▁1144	-12388
▁1154	-12389
▁1341	-12390
berger	-12391
▁cliff	-12392
▁random	-12393
▁schwar	-12394
▁sebast	-12395
▁allstar	-12396
▁assembly	-12397
▁networks	-12398
007	-12399
229	-12400
ilo	-12401
mul	-12402
▁uu	-12403
quis	-12404
▁ain	-12405
▁uhf	-12406
court	-12407
istol	-12408
▁1003	-12409
▁1081	-12410
▁1152	-12411
▁1173	-12412
▁1384	-12413
▁1434	-12414
▁bath	-12415
▁choc	-12416
▁goth	-12417
▁marco	-12418
▁africa	-12419
▁fedora	-12420
▁gaming	-12421
▁kadokawa	-12422
▁mountains	-12423
jon	-12424
业㡀甫	-12425
几木刂	-12426
日女阝	-12427
aldi	-12428
▁cun	-12429
▁cyp	-12430
▁1059	-12431
▁1063	-12432
▁disk	-12433
▁emma	-12434
▁neut	-12435
▁wins	-12436
▁adult	-12437
▁elena	-12438
▁petit	-12439
▁snake	-12440
▁wagon	-12441
▁coming	-12442
▁within	-12443
▁beauvais	-12444
田疋	-12445
224	-12446
gus	-12447
icz	-12448
omm	-12449
ovo	-12450
▁hn	-12451
勹日阝	-12452
▁014	-12453
▁crj	-12454
▁icd	-12455
▁jax	-12456
▁peg	-12457
十冖田疋	-12458
child	-12459
dress	-12460
frame	-12461
order	-12462
▁1165	-12463
▁1293	-12464
▁bone	-12465
▁cock	-12466
▁erik	-12467
▁kiha	-12468
▁reed	-12469
▁ruth	-12470
▁format	-12471
▁julian	-12472
▁louise	-12473
▁jennifer	-12474
▁commander	-12475
兆頁	-12476
130	-12477
177	-12478
255	-12479
aii	-12480
▁gx	-12481
▁xa	-12482
人人心	-12483
女又手	-12484
aper	-12485
real	-12486
▁faa	-12487
⿰⿻⿵	-12488
▁1038	-12489
▁1254	-12490
▁1301	-12491
▁bast	-12492
▁beth	-12493
▁dame	-12494
▁dart	-12495
▁fans	-12496
▁flav	-12497
▁frag	-12498
▁temu	-12499
⺌冖口田刂	-12500
▁andrea	-12501
▁doremi	-12502
▁shield	-12503
▁singles	-12504
▁informer	-12505
▁symphony	-12506
hg	-12507
言卜	-12508
ibr	-12509
chus	-12510
ffer	-12511
hill	-12512
okie	-12513
▁iau	-12514
▁kub	-12515
▁sne	-12516
▁yui	-12517
▁zam	-12518
▁1069	-12519
▁1166	-12520
▁1212	-12521
▁1289	-12522
▁drag	-12523
▁mant	-12524
▁swan	-12525
▁tenn	-12526
⿰⿱⿰⿱	-12527
ensive	-12528
▁carbon	-12529
▁leslie	-12530
▁result	-12531
▁chapter	-12532
▁coaster	-12533
▁persona	-12534
▁supreme	-12535
▁aviation	-12536
mt	-12537
rc	-12538
口食	-12539
199	-12540
rem	-12541
勹冫金	-12542
cock	-12543
essa	-12544
ieri	-12545
ults	-12546
▁008	-12547
▁het	-12548
▁lcc	-12549
▁mee	-12550
inois	-12551
▁1145	-12552
▁1288	-12553
▁1311	-12554
▁1318	-12555
▁dian	-12556
▁blade	-12557
▁known	-12558
▁polar	-12559
▁rapid	-12560
▁accord	-12561
▁excell	-12562
▁musical	-12563
▁metropolitan	-12564
pd	-12565
匕十	-12566
土更	-12567
言山	-12568
龙石	-12569
405	-12570
emo	-12571
phe	-12572
enzo	-12573
▁apu	-12574
▁fai	-12575
▁kus	-12576
▁pyr	-12577
▁1009	-12578
▁1012	-12579
▁1309	-12580
▁boyz	-12581
▁loss	-12582
▁ching	-12583
▁might	-12584
▁phant	-12585
▁harvey	-12586
▁played	-12587
arat	-12588
erous	-12589
onica	-12590
rique	-12591
▁1046	-12592
▁1184	-12593
▁fear	-12594
▁gast	-12595
▁ligo	-12596
▁joker	-12597
▁miles	-12598
▁claire	-12599
▁eugene	-12600
▁olympic	-12601
▁computing	-12602
▁experience	-12603
七木	-12604
286	-12605
氵七木	-12606
icks	-12607
talk	-12608
▁068	-12609
▁aec	-12610
▁fsa	-12611
▁hib	-12612
▁jup	-12613
▁phi	-12614
▁1041	-12615
▁1047	-12616
▁1182	-12617
▁1197	-12618
▁1401	-12619
▁brid	-12620
▁even	-12621
▁jtwc	-12622
▁mips	-12623
▁diego	-12624
▁warri	-12625
▁nikola	-12626
▁trance	-12627
亻丁	-12628
口龙	-12629
豕生	-12630
bad	-12631
dan	-12632
uga	-12633
aldo	-12634
atti	-12635
chat	-12636
tery	-12637
▁085	-12638
▁enh	-12639
▁mri	-12640
▁sep	-12641
▁uns	-12642
night	-12643
▁1093	-12644
▁1098	-12645
▁1159	-12646
▁1299	-12647
▁1489	-12648
▁hind	-12649
▁mari	-12650
▁shap	-12651
apping	-12652
▁coach	-12653
▁prism	-12654
▁editor	-12655
▁hammer	-12656
▁rocket	-12657
▁deutsche	-12658
▁malaysia	-12659
▁adventure	-12660
▁programming	-12661
艹乡	-12662
elt	-12663
rab	-12664
▁zz	-12665
anto	-12666
ishi	-12667
▁amg	-12668
▁avc	-12669
▁fol	-12670
▁neu	-12671
▁rav	-12672
▁rey	-12673
⿰⿱⿳	-12674
▁1112	-12675
▁1201	-12676
▁bind	-12677
▁harm	-12678
▁july	-12679
▁sett	-12680
▁thir	-12681
ermont	-12682
▁huang	-12683
▁pretty	-12684
▁jeffrey	-12685
▁products	-12686
▁register	-12687
女为	-12688
137	-12689
257	-12690
323	-12691
step	-12692
▁64%	-12693
▁baz	-12694
▁chs	-12695
▁cie	-12696
▁lak	-12697
▁ned	-12698
▁iris	-12699
▁leaf	-12700
▁pale	-12701
▁pang	-12702
▁pump	-12703
▁trap	-12704
▁umts	-12705
iament	-12706
▁jesse	-12707
▁ridge	-12708
▁scale	-12709
▁foster	-12710
▁reality	-12711
▁scholar	-12712
辶甫	-12713
159	-12714
160	-12715
bla	-12716
orh	-12717
olph	-12718
▁91%	-12719
▁cah	-12720
▁lga	-12721
▁tub	-12722
▁1088	-12723
▁1292	-12724
▁isle	-12725
▁nice	-12726
▁saga	-12727
▁falls	-12728
▁rifle	-12729
▁yonex	-12730
▁custom	-12731
▁players	-12732
▁clermont	-12733
土己	-12734
广鬼	-12735
185	-12736
aea	-12737
enh	-12738
duct	-12739
eria	-12740
teen	-12741
▁cyt	-12742
▁rag	-12743
𠂊田一巴	-12744
ucker	-12745
▁1032	-12746
▁1133	-12747
▁1361	-12748
▁gott	-12749
▁uefa	-12750
▁wiss	-12751
▁array	-12752
▁aster	-12753
▁cream	-12754
▁linear	-12755
▁holiday	-12756
▁languages	-12757
囗寸	-12758
罒不	-12759
156	-12760
▁oy	-12761
虍几食	-12762
▁044	-12763
▁68%	-12764
▁81%	-12765
▁arp	-12766
▁wet	-12767
▁5700	-12768
▁ller	-12769
▁bruno	-12770
▁johan	-12771
▁harper	-12772
▁render	-12773
▁resist	-12774
▁talent	-12775
▁waters	-12776
▁kennedy	-12777
▁spencer	-12778
▁muhammad	-12779
▁agreement	-12780
舟山	-12781
133	-12782
214	-12783
737	-12784
ija	-12785
sey	-12786
▁cep	-12787
itage	-12788
▁1168	-12789
▁8859	-12790
▁chak	-12791
▁dies	-12792
▁exit	-12793
▁hoch	-12794
▁ratp	-12795
▁rece	-12796
▁eight	-12797
▁scala	-12798
▁wayne	-12799
▁license	-12800
bh	-12801
vr	-12802
文寸	-12803
bet	-12804
esia	-12805
iper	-12806
late	-12807
▁74%	-12808
▁eps	-12809
▁lok	-12810
▁lsd	-12811
▁och	-12812
▁1109	-12813
▁kung	-12814
▁loud	-12815
▁span	-12816
anning	-12817
▁behav	-12818
▁meyer	-12819
▁stray	-12820
▁athlet	-12821
▁vorbis	-12822
▁warner	-12823
▁gfriend	-12824
▁illustr	-12825
▁mamamoo	-12826
▁november	-12827
▁alternative	-12828
218	-12829
227	-12830
503	-12831
bur	-12832
ici	-12833
prs	-12834
uni	-12835
㇀⿱	-12836
umer	-12837
▁075	-12838
▁gin	-12839
▁hmv	-12840
▁mph	-12841
▁nih	-12842
▁xiv	-12843
ansas	-12844
itten	-12845
radio	-12846
▁1039	-12847
▁1057	-12848
▁1083	-12849
▁bron	-12850
▁bugs	-12851
▁cape	-12852
▁farm	-12853
▁glen	-12854
▁goal	-12855
▁pearl	-12856
▁stack	-12857
▁called	-12858
▁falcon	-12859
▁gibson	-12860
▁kindle	-12861
▁treaty	-12862
▁terminus	-12863
▁parliament	-12864
▁intelligence	-12865
oz	-12866
155	-12867
188	-12868
216	-12869
256	-12870
bee	-12871
hou	-12872
▁rj	-12873
⿱⿳𭕄	-12874
emon	-12875
wide	-12876
▁aoa	-12877
▁cid	-12878
▁cyn	-12879
▁dad	-12880
▁ghq	-12881
▁hik	-12882
▁mbs	-12883
▁mex	-12884
▁ppp	-12885
▁tip	-12886
▁1312	-12887
▁2029	-12888
▁2035	-12889
▁ajax	-12890
▁amar	-12891
▁gamma	-12892
▁kanon	-12893
▁recep	-12894
▁growth	-12895
▁hearts	-12896
▁giuseppe	-12897
▁interchange	-12898
日巨	-12899
钅卯	-12900
钅女	-12901
006	-12902
161	-12903
leh	-12904
zel	-12905
▁ew	-12906
コ一心	-12907
game	-12908
kell	-12909
▁dob	-12910
▁due	-12911
▁lau	-12912
▁vim	-12913
▁yuk	-12914
𠂊田灬予	-12915
▁grid	-12916
porary	-12917
▁hanna	-12918
▁opent	-12919
▁rosen	-12920
▁gustav	-12921
▁joshua	-12922
▁sexual	-12923
▁extended	-12924
▁straight	-12925
氵为	-12926
iao	-12927
匚王力	-12928
avar	-12929
enty	-12930
erie	-12931
▁028	-12932
▁ado	-12933
▁amr	-12934
▁1315	-12935
▁copy	-12936
▁isra	-12937
▁mund	-12938
▁betty	-12939
▁heter	-12940
▁strat	-12941
▁groups	-12942
▁paralle	-12943
▁harrison	-12944
口艮	-12945
fin	-12946
ply	-12947
▁lx	-12948
ctic	-12949
lain	-12950
▁ict	-12951
▁kob	-12952
lable	-12953
▁1029	-12954
▁1178	-12955
▁6300	-12956
▁gone	-12957
▁sham	-12958
▁wnba	-12959
▁atari	-12960
▁sdram	-12961
▁fischer	-12962
▁laurent	-12963
fm	-12964
138	-12965
iso	-12966
rel	-12967
3000	-12968
inga	-12969
ungs	-12970
uron	-12971
▁cru	-12972
▁dee	-12973
▁orb	-12974
▁sae	-12975
▁tus	-12976
▁zet	-12977
𠂊冫溬言	-12978
mania	-12979
▁1023	-12980
▁1344	-12981
▁elis	-12982
▁above	-12983
▁bourg	-12984
▁josef	-12985
▁ninja	-12986
▁gerald	-12987
▁ladies	-12988
▁carpent	-12989
▁meeting	-12990
▁basilica	-12991
▁industries	-12992
np	-12993
139	-12994
164	-12995
afe	-12996
dia	-12997
hip	-12998
ieg	-12999
扌丸虫	-13000
日十阝	-13001
este	-13002
▁029	-13003
▁092	-13004
▁als	-13005
▁aol	-13006
▁esa	-13007
▁itf	-13008
▁mai	-13009
▁tep	-13010
▁tid	-13011
aland	-13012
oides	-13013
▁1074	-13014
▁1108	-13015
▁cout	-13016
▁else	-13017
▁evil	-13018
▁rare	-13019
▁avbwu	-13020
▁chase	-13021
▁crime	-13022
▁angela	-13023
▁sierra	-13024
▁subject	-13025
▁timothy	-13026
197	-13027
215	-13028
cas	-13029
ecd	-13030
ogy	-13031
rap	-13032
sty	-13033
zig	-13034
尢丶彡	-13035
▁apa	-13036
▁hdr	-13037
囗⺌日刂	-13038
unier	-13039
ustic	-13040
▁1269	-13041
▁1298	-13042
▁craw	-13043
▁crim	-13044
▁hook	-13045
▁hulu	-13046
▁khal	-13047
▁punk	-13048
▁ride	-13049
▁scsi	-13050
▁zepp	-13051
lement	-13052
▁chess	-13053
▁quint	-13054
▁cookies	-13055
▁mystery	-13056
▁popular	-13057
▁rebecca	-13058
▁michelle	-13059
▁phillips	-13060
▁commercial	-13061
▁controller	-13062
qi	-13063
165	-13064
166	-13065
222	-13066
ucl	-13067
ding	-13068
mani	-13069
otto	-13070
▁gut	-13071
▁rez	-13072
▁tha	-13073
ernet	-13074
inter	-13075
▁1432	-13076
▁5100	-13077
▁clim	-13078
▁dunc	-13079
▁edit	-13080
▁nana	-13081
▁upon	-13082
idence	-13083
▁atlus	-13084
▁blake	-13085
▁eidos	-13086
▁horse	-13087
▁julie	-13088
▁latin	-13089
▁encycl	-13090
▁unesco	-13091
▁dancing	-13092
▁identity	-13093
▁presents	-13094
▁commodore	-13095
▁eurogamer	-13096
▁artsvision	-13097
▁championships	-13098
犭白	-13099
302	-13100
306	-13101
oce	-13102
opy	-13103
▁hj	-13104
又又页	-13105
iani	-13106
inda	-13107
ipro	-13108
latz	-13109
▁61%	-13110
▁cim	-13111
▁fid	-13112
▁lik	-13113
▁mab	-13114
▁sob	-13115
erton	-13116
ising	-13117
▁1169	-13118
▁1193	-13119
▁1339	-13120
▁1379	-13121
▁aids	-13122
▁fiba	-13123
▁jade	-13124
▁sexy	-13125
▁sram	-13126
▁35000	-13127
▁click	-13128
▁emerg	-13129
▁incre	-13130
▁harmon	-13131
▁should	-13132
▁baseball	-13133
▁property	-13134
▁variable	-13135
月瓜	-13136
456	-13137
486	-13138
alt	-13139
nos	-13140
▁rz	-13141
mart	-13142
▁cul	-13143
▁gnz	-13144
▁mvc	-13145
▁wis	-13146
break	-13147
▁1338	-13148
▁bean	-13149
▁does	-13150
▁hoff	-13151
▁sinc	-13152
▁todd	-13153
▁blanc	-13154
▁destr	-13155
▁wells	-13156
▁capcom	-13157
▁porter	-13158
▁fiction	-13159
▁approach	-13160
火文	-13161
169	-13162
365	-13163
404	-13164
ghz	-13165
sha	-13166
uya	-13167
▁++	-13168
eton	-13169
horn	-13170
uate	-13171
▁072	-13172
icles	-13173
▁amph	-13174
▁maus	-13175
▁tail	-13176
▁tale	-13177
ampton	-13178
▁chaos	-13179
▁those	-13180
▁trent	-13181
▁liquid	-13182
▁matter	-13183
▁resort	-13184
▁affairs	-13185
▁frances	-13186
▁lovelyz	-13187
▁paradox	-13188
▁nacional	-13189
▁economics	-13190
▁september	-13191
fi	-13192
口申	-13193
603	-13194
▁vx	-13195
宀八兆	-13196
aine	-13197
athy	-13198
cont	-13199
iber	-13200
west	-13201
▁046	-13202
▁dlp	-13203
▁epr	-13204
▁kau	-13205
▁vga	-13206
人一朩田	-13207
▁infl	-13208
▁intr	-13209
▁jake	-13210
▁bible	-13211
▁demon	-13212
▁irish	-13213
plement	-13214
▁adidas	-13215
▁angels	-13216
▁postgr	-13217
▁reason	-13218
▁angeles	-13219
uku	-13220
▁jy	-13221
彑𧰨土	-13222
日巨火	-13223
code	-13224
rock	-13225
ulin	-13226
▁073	-13227
▁cac	-13228
▁doi	-13229
▁ech	-13230
▁pch	-13231
▁pcm	-13232
▁svg	-13233
fried	-13234
odont	-13235
▁1053	-13236
▁1243	-13237
▁2047	-13238
▁hern	-13239
▁nadp	-13240
▁pour	-13241
▁raja	-13242
▁safe	-13243
▁bened	-13244
▁isaac	-13245
isation	-13246
▁calvin	-13247
▁female	-13248
▁hughes	-13249
▁roberto	-13250
▁ferdinand	-13251
132	-13252
162	-13253
esi	-13254
law	-13255
▁hw	-13256
▁zi	-13257
abil	-13258
atha	-13259
hold	-13260
lang	-13261
quet	-13262
▁gat	-13263
▁hil	-13264
▁ktm	-13265
▁rug	-13266
▁sli	-13267
▁sme	-13268
▁tyr	-13269
▁2027	-13270
▁aria	-13271
▁caus	-13272
▁hier	-13273
▁load	-13274
▁pray	-13275
▁till	-13276
▁vend	-13277
schaft	-13278
▁ahmed	-13279
▁blast	-13280
▁craft	-13281
▁cycle	-13282
▁shish	-13283
▁subst	-13284
▁basket	-13285
▁berger	-13286
▁boston	-13287
▁cheung	-13288
▁sophie	-13289
▁circuit	-13290
▁nicolas	-13291
▁sullivan	-13292
▁blackberry	-13293
扌甘	-13294
水皿	-13295
钅了	-13296
509	-13297
lax	-13298
roc	-13299
▁zb	-13300
九朩隹	-13301
aran	-13302
inet	-13303
ivid	-13304
mbps	-13305
ocer	-13306
wind	-13307
▁cdc	-13308
▁lep	-13309
emann	-13310
verse	-13311
▁1064	-13312
▁1222	-13313
▁1353	-13314
▁6200	-13315
▁bard	-13316
▁icon	-13317
▁lich	-13318
▁ohio	-13319
▁semi	-13320
▁skin	-13321
▁sogo	-13322
▁gamep	-13323
▁molec	-13324
▁omega	-13325
▁marina	-13326
▁panzer	-13327
▁santos	-13328
▁sistar	-13329
▁haskell	-13330
▁stories	-13331
▁investig	-13332
辶刀	-13333
261	-13334
508	-13335
iak	-13336
jin	-13337
▁yi	-13338
ayan	-13339
pace	-13340
▁csl	-13341
▁gum	-13342
▁liz	-13343
▁mao	-13344
▁ont	-13345
㇀⿰⿱	-13346
illus	-13347
osaic	-13348
▁1031	-13349
▁1331	-13350
▁1423	-13351
▁abra	-13352
▁dere	-13353
▁joel	-13354
▁lect	-13355
㇇⿱⿱⿱	-13356
▁stard	-13357
▁teams	-13358
▁duncan	-13359
▁franco	-13360
▁marion	-13361
▁address	-13362
▁borland	-13363
▁openbsd	-13364
▁constitution	-13365
山来	-13366
iku	-13367
mos	-13368
udi	-13369
▁xs	-13370
㇇⿵	-13371
▁ged	-13372
▁urs	-13373
rahim	-13374
▁anat	-13375
▁bene	-13376
▁dens	-13377
▁hiro	-13378
▁viva	-13379
▁defin	-13380
▁hands	-13381
▁janet	-13382
▁wrest	-13383
▁vmware	-13384
▁officer	-13385
▁scandal	-13386
▁mercedes	-13387
▁programme	-13388
157	-13389
爫子阝	-13390
arte	-13391
ilar	-13392
oire	-13393
ouri	-13394
▁061	-13395
▁73%	-13396
▁ais	-13397
▁boh	-13398
▁lub	-13399
▁omn	-13400
▁rov	-13401
▁1033	-13402
▁1092	-13403
▁1188	-13404
▁1316	-13405
▁1319	-13406
▁1332	-13407
▁date	-13408
▁febr	-13409
▁homo	-13410
▁pter	-13411
▁rena	-13412
▁troub	-13413
▁killer	-13414
▁bennett	-13415
▁frequency	-13416
▁scientific	-13417
fy	-13418
hk	-13419
竹罒	-13420
146	-13421
152	-13422
习习中	-13423
▁038	-13424
▁066	-13425
▁ecc	-13426
▁els	-13427
▁git	-13428
▁gmt	-13429
▁kod	-13430
▁loh	-13431
▁sbd	-13432
▁wen	-13433
▁1052	-13434
▁biow	-13435
▁enix	-13436
▁mash	-13437
▁xeon	-13438
▁piano	-13439
▁compon	-13440
▁create	-13441
▁genius	-13442
▁glados	-13443
▁nissan	-13444
▁palais	-13445
▁rising	-13446
▁busters	-13447
▁january	-13448
▁perform	-13449
rp	-13450
145	-13451
304	-13452
bul	-13453
▁mq	-13454
aire	-13455
arum	-13456
core	-13457
ithe	-13458
▁021	-13459
▁043	-13460
▁cip	-13461
▁gpa	-13462
▁kis	-13463
▁tav	-13464
chaft	-13465
elius	-13466
▁1061	-13467
▁1079	-13468
▁1149	-13469
▁1306	-13470
▁luna	-13471
▁oppo	-13472
▁pony	-13473
▁swim	-13474
▁denis	-13475
▁deter	-13476
▁lover	-13477
▁naval	-13478
▁neuro	-13479
▁butler	-13480
▁rabbit	-13481
▁verycd	-13482
ographic	-13483
▁governor	-13484
lb	-13485
uw	-13486
yi	-13487
干阝	-13488
方阝	-13489
气亚	-13490
禺页	-13491
米白	-13492
纟甘	-13493
167	-13494
184	-13495
run	-13496
▁jg	-13497
achi	-13498
alli	-13499
arus	-13500
obar	-13501
wire	-13502
▁69%	-13503
▁bau	-13504
▁ola	-13505
▁ong	-13506
▁sue	-13507
▁sys	-13508
▁⿱⿴⿰	-13509
𠃋丿人頁	-13510
aling	-13511
angle	-13512
ively	-13513
▁1343	-13514
▁2028	-13515
▁fail	-13516
▁pend	-13517
▁reve	-13518
▁sons	-13519
▁teng	-13520
▁void	-13521
opedia	-13522
▁pharm	-13523
▁compan	-13524
▁cartoon	-13525
▁horizon	-13526
▁indiana	-13527
▁spirits	-13528
▁verilog	-13529
▁workshop	-13530
匕示	-13531
旡灬	-13532
192	-13533
238	-13534
aze	-13535
cos	-13536
ele	-13537
say	-13538
xxx	-13539
丷夫豕	-13540
𠂆一㔾	-13541
alie	-13542
inos	-13543
▁034	-13544
▁097	-13545
▁gel	-13546
▁iia	-13547
▁sau	-13548
▁smo	-13549
▁thi	-13550
▁ust	-13551
䬎彐水皿	-13552
astic	-13553
brain	-13554
lette	-13555
▁1021	-13556
▁1022	-13557
▁1026	-13558
▁1304	-13559
▁2048	-13560
▁4100	-13561
▁gprs	-13562
▁grim	-13563
▁hous	-13564
▁milk	-13565
▁opus	-13566
dragon	-13567
▁algor	-13568
▁cause	-13569
▁false	-13570
▁grass	-13571
▁lance	-13572
▁demand	-13573
▁impact	-13574
▁lights	-13575
▁nicola	-13576
▁thread	-13577
▁allison	-13578
▁sequence	-13579
▁treasure	-13580
▁associates	-13581
勹匕	-13582
日电	-13583
艹欠	-13584
708	-13585
lov	-13586
omp	-13587
rag	-13588
rog	-13589
▁zk	-13590
匕示頁	-13591
rail	-13592
▁auf	-13593
▁osi	-13594
▁sah	-13595
edded	-13596
uston	-13597
▁1383	-13598
▁diva	-13599
▁fame	-13600
▁gare	-13601
▁luck	-13602
▁proc	-13603
▁zoom	-13604
▁plane	-13605
▁seine	-13606
▁stick	-13607
▁thorn	-13608
▁accept	-13609
▁andreas	-13610
▁bioware	-13611
▁lisieux	-13612
▁rolling	-13613
▁historical	-13614
▁competition	-13615
⿷⿺	-13616
174	-13617
178	-13618
331	-13619
906	-13620
ged	-13621
endi	-13622
ging	-13623
zone	-13624
▁078	-13625
▁dax	-13626
▁dvi	-13627
▁noc	-13628
▁pcb	-13629
尸示寸火	-13630
aguar	-13631
ianus	-13632
uffle	-13633
▁1105	-13634
▁1172	-13635
▁aaaa	-13636
▁bian	-13637
▁hear	-13638
▁nipp	-13639
▁ntsb	-13640
▁mills	-13641
▁noble	-13642
▁marvel	-13643
▁string	-13644
▁werner	-13645
▁gateway	-13646
▁masters	-13647
▁physics	-13648
193	-13649
730	-13650
mura	-13651
orre	-13652
▁099	-13653
▁bmi	-13654
▁nez	-13655
▁tox	-13656
▁tut	-13657
▁vio	-13658
known	-13659
▁1342	-13660
▁golf	-13661
▁joan	-13662
▁spar	-13663
▁tool	-13664
▁17000	-13665
▁alleg	-13666
▁bonus	-13667
▁casey	-13668
▁honda	-13669
▁leung	-13670
▁ordin	-13671
▁reader	-13672
▁reform	-13673
standing	-13674
▁bradley	-13675
▁holland	-13676
▁mercury	-13677
▁picture	-13678
▁december	-13679
▁illinois	-13680
▁institut	-13681
▁relation	-13682
▁response	-13683
▁vladimir	-13684
▁insurance	-13685
▁solutions	-13686
▁qualifying	-13687
009	-13688
143	-13689
gal	-13690
had	-13691
map	-13692
ases	-13693
atis	-13694
uman	-13695
▁071	-13696
▁gmp	-13697
▁lec	-13698
▁pup	-13699
▁voy	-13700
凵丨月木	-13701
▁chia	-13702
▁funk	-13703
▁kend	-13704
▁vevo	-13705
▁among	-13706
▁bryan	-13707
▁chair	-13708
▁separ	-13709
▁realme	-13710
▁verdun	-13711
▁saunier	-13712
口甲	-13713
242	-13714
mud	-13715
八刀手	-13716
▁055	-13717
▁igg	-13718
▁luk	-13719
▁tpp	-13720
arium	-13721
illac	-13722
shock	-13723
▁1245	-13724
▁2758	-13725
▁clean	-13726
▁favor	-13727
▁reach	-13728
▁tales	-13729
▁terra	-13730
▁bleach	-13731
▁clarke	-13732
▁fields	-13733
▁admiral	-13734
▁thomson	-13735
▁scotland	-13736
cw	-13737
忄中	-13738
158	-13739
176	-13740
189	-13741
fil	-13742
gia	-13743
lib	-13744
nan	-13745
isha	-13746
onde	-13747
onte	-13748
stre	-13749
▁023	-13750
▁047	-13751
▁074	-13752
▁096	-13753
▁59%	-13754
▁msc	-13755
▁pah	-13756
▁sms	-13757
人一口刂	-13758
anton	-13759
vania	-13760
▁1036	-13761
▁1164	-13762
▁1244	-13763
▁dust	-13764
▁info	-13765
▁kota	-13766
▁lept	-13767
▁pard	-13768
▁pine	-13769
▁sind	-13770
▁flick	-13771
▁indic	-13772
▁inner	-13773
▁innoc	-13774
▁sanct	-13775
▁units	-13776
▁cancer	-13777
▁getchu	-13778
▁monica	-13779
▁norton	-13780
▁olivia	-13781
▁psycho	-13782
▁recogn	-13783
▁desktop	-13784
▁academic	-13785
▁critical	-13786
▁dynamics	-13787
▁butterfly	-13788
▁democracy	-13789
▁translation	-13790
iw	-13791
金且	-13792
179	-13793
fff	-13794
hev	-13795
kal	-13796
▁yy	-13797
iton	-13798
▁036	-13799
▁alm	-13800
▁cfa	-13801
▁dhl	-13802
▁jvc	-13803
▁laf	-13804
itzer	-13805
mouth	-13806
▁1007	-13807
▁1043	-13808
▁chow	-13809
▁jojo	-13810
▁mons	-13811
▁nina	-13812
▁prob	-13813
▁send	-13814
asonic	-13815
▁rules	-13816
▁hypert	-13817
▁langon	-13818
▁contain	-13819
▁package	-13820
▁equation	-13821
▁released	-13822
254	-13823
357	-13824
370	-13825
802	-13826
anz	-13827
gis	-13828
ugu	-13829
uzz	-13830
▁qw	-13831
abet	-13832
▁cio	-13833
▁cli	-13834
▁gag	-13835
▁hag	-13836
▁lhc	-13837
▁sia	-13838
▁zur	-13839
艹罒冖目	-13840
asaki	-13841
essel	-13842
ipper	-13843
▁1354	-13844
▁door	-13845
▁nied	-13846
omorph	-13847
▁greek	-13848
▁linda	-13849
▁paint	-13850
embourg	-13851
▁jaguar	-13852
▁myself	-13853
▁peters	-13854
▁schema	-13855
▁territ	-13856
▁schmidt	-13857
▁oriental	-13858
彐𧰨	-13859
209	-13860
acc	-13861
coo	-13862
mac	-13863
the	-13864
▁xr	-13865
fect	-13866
ithm	-13867
ophy	-13868
opro	-13869
ylus	-13870
▁032	-13871
▁062	-13872
▁095	-13873
▁76%	-13874
▁dud	-13875
▁dul	-13876
▁ell	-13877
▁mtu	-13878
▁svd	-13879
▁1305	-13880
▁6100	-13881
▁ciel	-13882
▁maya	-13883
▁pula	-13884
▁voip	-13885
▁canyon	-13886
▁edmund	-13887
▁maggie	-13888
▁mosaic	-13889
▁weekly	-13890
▁antoine	-13891
▁railroad	-13892
犭甲	-13893
265	-13894
402	-13895
480	-13896
arr	-13897
reg	-13898
gers	-13899
lier	-13900
▁71%	-13901
▁ira	-13902
▁rst	-13903
▁tud	-13904
amine	-13905
arius	-13906
rical	-13907
▁2150	-13908
▁auch	-13909
▁brew	-13910
▁came	-13911
▁caps	-13912
▁gaba	-13913
▁grac	-13914
▁heath	-13915
▁lines	-13916
▁kaiser	-13917
▁lonely	-13918
▁phosph	-13919
▁october	-13920
▁wallace	-13921
▁weather	-13922
▁heritage	-13923
▁chemistry	-13924
tn	-13925
囗コ	-13926
fta	-13927
hor	-13928
▁wd	-13929
ulum	-13930
▁apr	-13931
▁bry	-13932
▁cms	-13933
▁eup	-13934
▁hst	-13935
▁lng	-13936
▁lup	-13937
▁sek	-13938
▁shi	-13939
𠂊田一方	-13940
acker	-13941
ufact	-13942
▁9500	-13943
▁casa	-13944
▁eden	-13945
▁gddr	-13946
▁hast	-13947
▁navy	-13948
▁norm	-13949
▁pool	-13950
▁abbey	-13951
▁pepper	-13952
▁yamaha	-13953
▁passion	-13954
▁restaur	-13955
▁carolina	-13956
▁truetype	-13957
▁wonderful	-13958
▁snapdragon	-13959
臼人	-13960
280	-13961
roe	-13962
sma	-13963
uns	-13964
▁bv	-13965
▁uw	-13966
▁vg	-13967
odus	-13968
▁049	-13969
▁agn	-13970
▁ctr	-13971
▁gtx	-13972
▁isu	-13973
▁ket	-13974
▁zun	-13975
radar	-13976
recht	-13977
▁1321	-13978
▁1334	-13979
▁dale	-13980
▁soap	-13981
▁temp	-13982
master	-13983
▁bella	-13984
▁buddh	-13985
▁fritz	-13986
▁glise	-13987
▁nitro	-13988
▁bailey	-13989
▁palmer	-13990
▁sounds	-13991
▁formosa	-13992
▁holding	-13993
▁leopard	-13994
▁specific	-13995
▁panasonic	-13996
lc	-13997
mh	-13998
pf	-13999
xa	-14000
口刀	-14001
王干	-14002
232	-14003
458	-14004
teo	-14005
▁gq	-14006
▁hv	-14007
土龰丩	-14008
idad	-14009
oder	-14010
onso	-14011
uted	-14012
▁csp	-14013
▁dow	-14014
▁6700	-14015
▁gior	-14016
▁mead	-14017
▁skyl	-14018
▁compi	-14019
▁ellen	-14020
▁legal	-14021
▁namco	-14022
▁atomic	-14023
▁davies	-14024
▁patric	-14025
▁techno	-14026
▁terror	-14027
▁alberto	-14028
▁ibrahim	-14029
▁monitor	-14030
▁optical	-14031
▁theorem	-14032
▁elements	-14033
▁magnetic	-14034
▁extension	-14035
▁katherine	-14036
▁soundtrack	-14037
sw	-14038
金巴	-14039
351	-14040
ffe	-14041
lio	-14042
oir	-14043
oop	-14044
oor	-14045
宀八果	-14046
豕豕火	-14047
2010	-14048
beat	-14049
enko	-14050
mans	-14051
▁064	-14052
▁hla	-14053
▁ida	-14054
▁orn	-14055
▁rut	-14056
▁zoo	-14057
ijing	-14058
oplan	-14059
▁1317	-14060
▁anci	-14061
▁ndez	-14062
▁agric	-14063
▁amuse	-14064
▁bukit	-14065
▁wales	-14066
▁roland	-14067
▁rounds	-14068
▁twitch	-14069
▁carrier	-14070
▁birthday	-14071
▁manufact	-14072
▁missouri	-14073
▁including	-14074
▁nationale	-14075
▁associated	-14076
▁democratic	-14077
▁integrated	-14078
kr	-14079
186	-14080
225	-14081
▁ym	-14082
ahan	-14083
▁bic	-14084
▁bts	-14085
▁cus	-14086
▁mbk	-14087
▁pax	-14088
▁pes	-14089
ached	-14090
antha	-14091
ersch	-14092
owitz	-14093
▁imac	-14094
▁kyle	-14095
▁ntsc	-14096
▁spee	-14097
▁tune	-14098
▁vide	-14099
▁acfun	-14100
▁chrys	-14101
▁wowow	-14102
lington	-14103
▁aqours	-14104
▁everyd	-14105
▁silent	-14106
▁wizard	-14107
▁grammar	-14108
▁acoustic	-14109
▁parallel	-14110
▁wireless	-14111
▁wolfgang	-14112
亻及	-14113
忄里	-14114
196	-14115
266	-14116
ieh	-14117
lea	-14118
ucc	-14119
achy	-14120
comm	-14121
olds	-14122
rett	-14123
▁057	-14124
▁apc	-14125
▁boo	-14126
▁fft	-14127
▁gle	-14128
▁kee	-14129
▁kul	-14130
▁wed	-14131
丿𠃌攵犬	-14132
drive	-14133
ports	-14134
▁1058	-14135
▁uniq	-14136
▁fever	-14137
▁bandai	-14138
▁chapel	-14139
▁client	-14140
▁stella	-14141
▁sungai	-14142
▁shadows	-14143
▁kentucky	-14144
▁opentype	-14145
▁essential	-14146
▁winchester	-14147
▁observatory	-14148
䱘几	-14149
333	-14150
905	-14151
gpp	-14152
▁bx	-14153
▁wt	-14154
山而頁	-14155
0001	-14156
1200	-14157
eric	-14158
etry	-14159
rine	-14160
▁027	-14161
▁ett	-14162
▁kes	-14163
▁ley	-14164
▁tia	-14165
▁tis	-14166
人一口廾	-14167
▁1089	-14168
▁avai	-14169
▁bagn	-14170
▁bend	-14171
▁grub	-14172
▁kris	-14173
▁wien	-14174
strong	-14175
▁carry	-14176
▁diana	-14177
▁jewel	-14178
▁witch	-14179
▁barbus	-14180
▁kernel	-14181
▁majest	-14182
▁queens	-14183
▁selina	-14184
▁abraham	-14185
▁memories	-14186
▁temperature	-14187
广厶	-14188
金彡	-14189
606	-14190
608	-14191
weg	-14192
▁eq	-14193
atin	-14194
pton	-14195
uver	-14196
▁coe	-14197
▁fes	-14198
▁leh	-14199
▁mec	-14200
▁yas	-14201
▁8800	-14202
▁haus	-14203
▁jing	-14204
▁marg	-14205
▁pico	-14206
▁role	-14207
▁tube	-14208
▁besan	-14209
▁bless	-14210
▁jenny	-14211
▁joyce	-14212
▁manif	-14213
▁noise	-14214
▁tools	-14215
▁troyes	-14216
▁mohammad	-14217
▁resources	-14218
▁wordpress	-14219
605	-14220
ccc	-14221
jar	-14222
olt	-14223
onn	-14224
arta	-14225
ched	-14226
iong	-14227
ondo	-14228
ushi	-14229
▁atf	-14230
▁epa	-14231
▁hai	-14232
▁kud	-14233
▁nil	-14234
▁osp	-14235
▁psa	-14236
▁tie	-14237
etics	-14238
stock	-14239
▁2250	-14240
▁bint	-14241
▁dhcp	-14242
▁mina	-14243
▁mith	-14244
▁nash	-14245
▁sets	-14246
▁adapt	-14247
▁chlor	-14248
▁estab	-14249
▁jamie	-14250
▁jorge	-14251
▁pilot	-14252
▁teddy	-14253
▁write	-14254
imental	-14255
▁100000	-14256
▁charge	-14257
▁cnblue	-14258
▁delphi	-14259
▁libert	-14260
▁murphy	-14261
▁toyota	-14262
▁webkit	-14263
▁brandon	-14264
▁phantom	-14265
▁reading	-14266
▁schwarz	-14267
▁stevens	-14268
▁chandler	-14269
▁regiment	-14270
▁marketing	-14271
▁intelligent	-14272
gf	-14273
木日	-14274
礻禺	-14275
eye	-14276
oso	-14277
oux	-14278
▁ux	-14279
avan	-14280
elis	-14281
ococ	-14282
▁042	-14283
▁gul	-14284
▁lop	-14285
▁nxt	-14286
attan	-14287
ically	-14288
▁blind	-14289
▁cache	-14290
▁names	-14291
▁redmi	-14292
▁tears	-14293
▁desire	-14294
▁gainax	-14295
▁kepler	-14296
▁artists	-14297
▁leopold	-14298
▁lieuten	-14299
▁regular	-14300
▁shuffle	-14301
▁philosophy	-14302
008	-14303
142	-14304
251	-14305
259	-14306
344	-14307
358	-14308
502	-14309
loe	-14310
1917	-14311
main	-14312
nine	-14313
oble	-14314
show	-14315
▁058	-14316
▁coo	-14317
▁jed	-14318
▁rai	-14319
▁1082	-14320
▁1091	-14321
▁abba	-14322
▁aber	-14323
▁alma	-14324
▁apol	-14325
▁fork	-14326
▁gimp	-14327
▁herz	-14328
▁mend	-14329
▁rust	-14330
⿰⿱⿱⿻	-14331
▁annie	-14332
▁jakob	-14333
▁knock	-14334
▁sarre	-14335
▁trick	-14336
issance	-14337
▁heroes	-14338
▁length	-14339
▁destroy	-14340
▁effects	-14341
▁individ	-14342
▁shirley	-14343
▁agricult	-14344
▁dualshock	-14345
182	-14346
198	-14347
288	-14348
505	-14349
ffy	-14350
hat	-14351
ijn	-14352
人彡食	-14353
cott	-14354
ener	-14355
ffff	-14356
iate	-14357
ismo	-14358
most	-14359
oron	-14360
rice	-14361
rill	-14362
▁026	-14363
▁088	-14364
▁agb	-14365
▁bsp	-14366
▁crt	-14367
▁gai	-14368
▁psl	-14369
▁rox	-14370
▁sto	-14371
▁tft	-14372
▁til	-14373
▁diet	-14374
▁iast	-14375
▁lala	-14376
▁lynn	-14377
▁nigel	-14378
▁swiss	-14379
▁tibet	-14380
▁crisis	-14381
▁linked	-14382
▁vernon	-14383
▁charter	-14384
▁initial	-14385
▁reserve	-14386
▁woollim	-14387
▁michigan	-14388
▁worldwide	-14389
▁environmental	-14390
kk	-14391
口卜	-14392
山卯	-14393
144	-14394
hes	-14395
lys	-14396
oyd	-14397
upt	-14398
vas	-14399
▁nz	-14400
▁qi	-14401
丶艮阝	-14402
厶大三	-14403
atum	-14404
gart	-14405
iere	-14406
name	-14407
▁045	-14408
▁beg	-14409
⿱⿰⿻	-14410
▁2049	-14411
▁badm	-14412
▁chop	-14413
▁koch	-14414
▁pern	-14415
▁reyn	-14416
▁scor	-14417
ention	-14418
▁amber	-14419
▁draft	-14420
▁issue	-14421
▁jules	-14422
▁links	-14423
▁toshi	-14424
▁herman	-14425
▁italia	-14426
▁twenty	-14427
▁usenet	-14428
▁airways	-14429
▁evening	-14430
▁gamespy	-14431
▁playing	-14432
▁storage	-14433
▁distance	-14434
▁alexandra	-14435
▁instrument	-14436
▁introduction	-14437
aq	-14438
154	-14439
239	-14440
arp	-14441
erc	-14442
kat	-14443
▁oe	-14444
▁zw	-14445
gypt	-14446
ilon	-14447
ongo	-14448
udio	-14449
▁033	-14450
▁084	-14451
▁091	-14452
▁098	-14453
▁agp	-14454
▁eat	-14455
▁jia	-14456
▁kow	-14457
▁oth	-14458
▁ree	-14459
▁taw	-14460
▁zap	-14461
口口隹頁	-14462
media	-14463
▁chol	-14464
▁larg	-14465
▁mits	-14466
▁peer	-14467
▁purp	-14468
▁60000	-14469
▁aless	-14470
▁bring	-14471
▁fairy	-14472
▁spike	-14473
▁whole	-14474
▁chance	-14475
▁compar	-14476
▁decade	-14477
▁examin	-14478
▁prison	-14479
▁scream	-14480
▁edwards	-14481
▁numbers	-14482
▁similar	-14483
▁relative	-14484
▁automatic	-14485
▁happiness	-14486
nc	-14487
扌束	-14488
礻兆	-14489
艹及	-14490
403	-14491
604	-14492
ahu	-14493
峴灬尺	-14494
ploy	-14495
▁gos	-14496
▁jsp	-14497
▁vix	-14498
ifier	-14499
▁diss	-14500
▁meta	-14501
▁niel	-14502
▁allan	-14503
▁elvis	-14504
▁kitch	-14505
▁morph	-14506
▁scene	-14507
▁seoul	-14508
▁until	-14509
▁montana	-14510
▁fantasia	-14511
▁connection	-14512
▁lieutenant	-14513
cn	-14514
井丶	-14515
土广	-14516
女比	-14517
纟予	-14518
罒衣	-14519
asv	-14520
cmg	-14521
▁vz	-14522
戊𠃌阝	-14523
icia	-14524
imer	-14525
oman	-14526
xton	-14527
▁079	-14528
▁081	-14529
▁arb	-14530
▁hbl	-14531
▁mei	-14532
▁nev	-14533
▁sai	-14534
▁sce	-14535
▁tms	-14536
quest	-14537
▁bras	-14538
▁coal	-14539
▁cruz	-14540
▁gale	-14541
▁tall	-14542
▁ware	-14543
willer	-14544
▁bibli	-14545
▁equip	-14546
▁schne	-14547
roliner	-14548
▁barnes	-14549
▁magnus	-14550
▁applied	-14551
▁capitol	-14552
▁consort	-14553
▁pierrot	-14554
▁several	-14555
▁february	-14556
▁multiple	-14557
▁shishamo	-14558
▁contemporary	-14559
171	-14560
406	-14561
tml	-14562
iffe	-14563
rand	-14564
▁083	-14565
▁lal	-14566
▁mum	-14567
▁paw	-14568
▁piz	-14569
▁une	-14570
▁vos	-14571
▁yar	-14572
▁⿱⿳⿳	-14573
izing	-14574
▁brow	-14575
▁done	-14576
▁impl	-14577
▁myth	-14578
▁spex	-14579
▁trac	-14580
ershot	-14581
▁exhib	-14582
▁grove	-14583
▁jelly	-14584
▁pages	-14585
ylvania	-14586
▁falcom	-14587
▁plasma	-14588
▁tennis	-14589
▁feature	-14590
▁whitney	-14591
▁interest	-14592
▁madhouse	-14593
▁postgres	-14594
▁armstrong	-14595
▁processing	-14596
一𧰨	-14597
气㐅	-14598
虫乍	-14599
言干	-14600
236	-14601
488	-14602
loo	-14603
oba	-14604
shi	-14605
▁wg	-14606
bold	-14607
file	-14608
imal	-14609
tron	-14610
▁bwv	-14611
▁hof	-14612
▁kry	-14613
asser	-14614
elles	-14615
leton	-14616
ornis	-14617
▁1249	-14618
▁aacs	-14619
▁audi	-14620
▁glas	-14621
▁herm	-14622
▁laws	-14623
▁mare	-14624
▁mell	-14625
▁phyl	-14626
▁rfid	-14627
▁yard	-14628
▁yoho	-14629
▁yuen	-14630
▁algol	-14631
▁apink	-14632
▁damon	-14633
▁dirty	-14634
▁lands	-14635
▁lives	-14636
▁natur	-14637
▁lancer	-14638
▁matlab	-14639
▁britain	-14640
▁clement	-14641
▁cluster	-14642
▁maxwell	-14643
▁walking	-14644
▁commerce	-14645
▁spectrum	-14646
▁badminton	-14647
▁directory	-14648
194	-14649
223	-14650
309	-14651
eus	-14652
ocl	-14653
see	-14654
㡀攵目	-14655
田田糸	-14656
anet	-14657
elot	-14658
erto	-14659
hail	-14660
mune	-14661
ocks	-14662
pool	-14663
quar	-14664
ulty	-14665
walk	-14666
▁063	-14667
▁cay	-14668
▁dao	-14669
▁hig	-14670
▁ink	-14671
▁jct	-14672
▁koi	-14673
▁uml	-14674
▁2033	-14675
▁chau	-14676
▁item	-14677
▁koda	-14678
▁sach	-14679
▁stur	-14680
▁vamp	-14681
ements	-14682
▁edgar	-14683
▁except	-14684
▁holmes	-14685
▁magnum	-14686
▁rudolf	-14687
▁burning	-14688
▁chaumont	-14689
▁carpenter	-14690
▁richardson	-14691
万力	-14692
八方	-14693
172	-14694
355	-14695
gom	-14696
uti	-14697
vor	-14698
2500	-14699
ogon	-14700
rant	-14701
▁adp	-14702
▁chn	-14703
▁tad	-14704
▁xav	-14705
ogram	-14706
▁axis	-14707
▁kerr	-14708
▁lass	-14709
▁nadh	-14710
▁porn	-14711
㇇⿱⿰⿱	-14712
kinson	-14713
ousand	-14714
▁events	-14715
▁israel	-14716
▁request	-14717
▁romance	-14718
▁springs	-14719
▁wonders	-14720
bm	-14721
女為	-14722
田攵	-14723
455	-14724
eor	-14725
十廾兀	-14726
白匕旡	-14727
艹冖土	-14728
baum	-14729
▁069	-14730
▁fay	-14731
▁hok	-14732
▁hul	-14733
▁kah	-14734
▁mhc	-14735
▁sou	-14736
icity	-14737
video	-14738
▁apps	-14739
▁byte	-14740
▁dior	-14741
▁fold	-14742
▁glay	-14743
▁gree	-14744
▁lenn	-14745
▁maps	-14746
▁thre	-14747
▁tier	-14748
ellite	-14749
▁adolf	-14750
▁apost	-14751
▁brack	-14752
▁derek	-14753
▁feder	-14754
▁limit	-14755
▁oasis	-14756
▁config	-14757
▁credit	-14758
▁baptist	-14759
▁beijing	-14760
▁millenn	-14761
▁promise	-14762
▁everyday	-14763
▁thousand	-14764
▁mathematica	-14765
yc	-14766
亠呦	-14767
亠臼	-14768
月申	-14769
钅田	-14770
141	-14771
407	-14772
lew	-14773
亠臼𧘇	-14774
尹口頁	-14775
atsu	-14776
borg	-14777
elyn	-14778
girl	-14779
gren	-14780
omat	-14781
opia	-14782
▁aik	-14783
▁aix	-14784
idium	-14785
keley	-14786
▁aeon	-14787
▁canc	-14788
▁crew	-14789
▁dion	-14790
▁goto	-14791
▁wick	-14792
▁chong	-14793
▁civic	-14794
▁daisy	-14795
▁drink	-14796
▁dutch	-14797
▁emper	-14798
▁speak	-14799
▁tempo	-14800
▁wheel	-14801
▁wille	-14802
▁formos	-14803
▁gentle	-14804
▁keroro	-14805
▁produc	-14806
▁secure	-14807
▁cameron	-14808
▁chicken	-14809
▁defence	-14810
▁edonkey	-14811
▁fortune	-14812
▁position	-14813
▁classical	-14814
▁basketball	-14815
▁centroliner	-14816
石朱	-14817
金我	-14818
187	-14819
285	-14820
356	-14821
602	-14822
inx	-14823
lev	-14824
amax	-14825
atra	-14826
eeee	-14827
esto	-14828
ylon	-14829
▁cpr	-14830
▁ler	-14831
▁lug	-14832
▁orc	-14833
▁tao	-14834
▁yao	-14835
sters	-14836
▁bold	-14837
▁budd	-14838
▁gulf	-14839
▁kann	-14840
▁levi	-14841
▁meas	-14842
▁conse	-14843
▁costa	-14844
▁glenn	-14845
▁petro	-14846
▁trial	-14847
▁unter	-14848
▁gloria	-14849
▁remote	-14850
▁carroll	-14851
▁provinc	-14852
▁wolfram	-14853
▁contract	-14854
日𠃓	-14855
隹隹	-14856
375	-14857
dam	-14858
joy	-14859
oha	-14860
冖几心	-14861
夫丷阝	-14862
𠃜目阝	-14863
ilda	-14864
ound	-14865
▁041	-14866
▁059	-14867
▁baa	-14868
▁biz	-14869
▁tik	-14870
endar	-14871
ither	-14872
▁1062	-14873
▁beng	-14874
▁held	-14875
▁kwok	-14876
▁lpga	-14877
▁siri	-14878
▁thai	-14879
▁tiny	-14880
▁vega	-14881
▁vine	-14882
player	-14883
▁concord	-14884
▁regulat	-14885
▁stellar	-14886
▁disorder	-14887
▁monument	-14888
▁elementary	-14889
▁expression	-14890
270	-14891
287	-14892
295	-14893
zon	-14894
立十衣	-14895
羊乚厶	-14896
anco	-14897
dorf	-14898
phus	-14899
rics	-14900
▁077	-14901
▁082	-14902
▁boc	-14903
▁dex	-14904
▁ecm	-14905
▁eia	-14906
▁fah	-14907
▁gew	-14908
▁hcl	-14909
▁hos	-14910
▁ses	-14911
▁tse	-14912
▁txt	-14913
front	-14914
tranz	-14915
▁lith	-14916
▁metz	-14917
▁noah	-14918
▁zion	-14919
▁⿰⿱⿱⿻	-14920
▁cours	-14921
▁prima	-14922
▁amanda	-14923
▁powell	-14924
▁savage	-14925
▁adtranz	-14926
▁tiffany	-14927
▁verizon	-14928
▁geoffrey	-14929
▁junction	-14930
▁ministry	-14931
▁montbard	-14932
▁patricia	-14933
▁elisabeth	-14934
▁mathematics	-14935
eo	-14936
⿳⿶	-14937
276	-14938
bec	-14939
ech	-14940
gor	-14941
jek	-14942
utz	-14943
▁zx	-14944
fare	-14945
fast	-14946
▁aic	-14947
▁cai	-14948
▁foo	-14949
▁hui	-14950
▁ltp	-14951
▁rit	-14952
▁rng	-14953
▁wpa	-14954
丿𠃌攵金	-14955
iling	-14956
▁1084	-14957
▁dhar	-14958
▁doll	-14959
▁flip	-14960
▁hair	-14961
▁iowa	-14962
▁nguy	-14963
▁soon	-14964
schule	-14965
▁coord	-14966
▁derby	-14967
▁floyd	-14968
▁often	-14969
▁weiss	-14970
▁escape	-14971
▁murder	-14972
▁nippon	-14973
▁pietro	-14974
▁zetima	-14975
▁fellows	-14976
▁shannon	-14977
▁spexial	-14978
▁therapy	-14979
▁mohammed	-14980
▁direction	-14981
▁synthesis	-14982
▁enterbrain	-14983
▁initiative	-14984
▁institution	-14985
210	-14986
457	-14987
atz	-14988
eed	-14989
hall	-14990
otes	-14991
▁089	-14992
▁bid	-14993
▁naw	-14994
▁rou	-14995
▁xsl	-14996
㇇⿰⿰	-14997
▁2046	-14998
▁7800	-14999
▁deal	-15000
▁dice	-15001
▁jumo	-15002
▁oecd	-15003
▁puma	-15004
▁suit	-15005
▁witt	-15006
ingham	-15007
▁patri	-15008
▁punch	-15009
▁rider	-15010
▁sight	-15011
▁uncle	-15012
▁whats	-15013
▁eeeeee	-15014
▁groove	-15015
▁kinect	-15016
▁propos	-15017
▁status	-15018
▁newtype	-15019
▁berkeley	-15020
▁mediawiki	-15021
▁gamesradar	-15022
亻求	-15023
钅彡	-15024
191	-15025
352	-15026
504	-15027
855	-15028
enk	-15029
ceed	-15030
sted	-15031
uard	-15032
▁031	-15033
▁076	-15034
▁cvs	-15035
▁dac	-15036
▁dit	-15037
▁dms	-15038
▁jub	-15039
▁rpc	-15040
▁snp	-15041
▁zan	-15042
encia	-15043
enses	-15044
iston	-15045
▁bits	-15046
▁conv	-15047
▁hsbc	-15048
▁labs	-15049
▁manh	-15050
▁wwdc	-15051
▁along	-15052
▁ellis	-15053
▁exist	-15054
▁grade	-15055
▁meego	-15056
▁notre	-15057
▁ouest	-15058
▁pablo	-15059
▁stere	-15060
▁taste	-15061
▁worth	-15062
▁concep	-15063
▁darwin	-15064
▁fergus	-15065
▁geomet	-15066
▁jensen	-15067
▁assault	-15068
▁houston	-15069
▁indones	-15070
▁microsd	-15071
ellschaft	-15072
▁pleasure	-15073
▁question	-15074
▁scottish	-15075
▁cherbourg	-15076
▁electronics	-15077
pb	-15078
271	-15079
284	-15080
409	-15081
706	-15082
806	-15083
uls	-15084
▁qa	-15085
clus	-15086
erno	-15087
mind	-15088
ogne	-15089
oint	-15090
▁atx	-15091
▁dah	-15092
▁sop	-15093
ensor	-15094
heart	-15095
uctor	-15096
▁aclu	-15097
▁duch	-15098
▁lest	-15099
▁nist	-15100
▁ogle	-15101
▁risk	-15102
▁sank	-15103
▁slow	-15104
escent	-15105
▁22000	-15106
▁globe	-15107
▁liver	-15108
▁sampa	-15109
▁torre	-15110
▁albums	-15111
▁ashley	-15112
▁binary	-15113
▁bottom	-15114
▁desert	-15115
▁expans	-15116
▁konami	-15117
▁marian	-15118
▁ancient	-15119
▁bedford	-15120
▁session	-15121
▁fighting	-15122
▁strategic	-15123
nu	-15124
氵内	-15125
米更	-15126
金夫	-15127
门一	-15128
903	-15129
efi	-15130
eti	-15131
udo	-15132
士冖车	-15133
lash	-15134
mons	-15135
▁086	-15136
▁hac	-15137
▁icu	-15138
▁ttl	-15139
▁wak	-15140
▁wrx	-15141
ascar	-15142
▁8086	-15143
▁defe	-15144
▁dent	-15145
▁omar	-15146
▁polo	-15147
▁poor	-15148
▁prev	-15149
▁tres	-15150
▁zach	-15151
▁slash	-15152
▁types	-15153
▁chanel	-15154
▁leader	-15155
▁margin	-15156
▁output	-15157
▁radical	-15158
▁principle	-15159
▁individual	-15160
▁encyclopedia	-15161
𠂉斤	-15162
269	-15163
416	-15164
702	-15165
iat	-15166
tax	-15167
▁fv	-15168
龶夂夫	-15169
crib	-15170
oven	-15171
wser	-15172
▁aab	-15173
▁ack	-15174
▁crc	-15175
▁dil	-15176
▁osm	-15177
▁ski	-15178
▁ssg	-15179
▁zar	-15180
ennes	-15181
ibada	-15182
teron	-15183
▁4900	-15184
▁braz	-15185
▁dors	-15186
▁mbps	-15187
▁phon	-15188
▁symp	-15189
phalus	-15190
▁penns	-15191
▁wendy	-15192
▁dollar	-15193
▁receptor	-15194
▁resource	-15195
▁equipment	-15196
▁sourceforge	-15197
▁thunderbird	-15198
yk	-15199
土垂	-15200
153	-15201
dma	-15202
far	-15203
mec	-15204
冖車阝	-15205
boys	-15206
chia	-15207
lord	-15208
mine	-15209
oris	-15210
rico	-15211
▁emo	-15212
▁ish	-15213
▁ivy	-15214
▁lms	-15215
▁obl	-15216
▁ruf	-15217
▁tna	-15218
▁vig	-15219
▁este	-15220
▁kane	-15221
▁sten	-15222
▁went	-15223
▁ying	-15224
▁gucci	-15225
▁maint	-15226
▁ratio	-15227
▁brooks	-15228
▁flickr	-15229
▁parade	-15230
▁summit	-15231
▁harbour	-15232
▁whatsapp	-15233
▁champions	-15234
▁christine	-15235
▁lightning	-15236
▁smalltalk	-15237
▁transportation	-15238
jd	-15239
氵央	-15240
366	-15241
arh	-15242
jee	-15243
ohn	-15244
zia	-15245
▁jl	-15246
▁xz	-15247
匕火頁	-15248
目八心	-15249
acha	-15250
erne	-15251
feed	-15252
fest	-15253
phin	-15254
unge	-15255
▁79%	-15256
▁acs	-15257
▁bpm	-15258
▁dfa	-15259
▁scb	-15260
▁sik	-15261
inkle	-15262
onder	-15263
▁7400	-15264
▁8300	-15265
▁hess	-15266
▁sana	-15267
estyle	-15268
schild	-15269
▁80000	-15270
▁avran	-15271
▁boris	-15272
▁brass	-15273
▁reven	-15274
▁roche	-15275
▁vegas	-15276
version	-15277
▁hidden	-15278
▁parish	-15279
▁wesley	-15280
________	-15281
▁conduct	-15282
▁gardens	-15283
▁lorenzo	-15284
▁related	-15285
▁powerpoint	-15286
▁applications	-15287
石斤	-15288
门韦	-15289
246	-15290
653	-15291
ijk	-15292
lak	-15293
lic	-15294
▁lw	-15295
▁xu	-15296
二厶刂	-15297
幺芉由	-15298
illi	-15299
▁ams	-15300
▁edm	-15301
▁hes	-15302
▁ibf	-15303
▁lys	-15304
▁nia	-15305
▁seo	-15306
▁siv	-15307
▁ucc	-15308
▁zfc	-15309
aller	-15310
guard	-15311
insky	-15312
ovsky	-15313
ridge	-15314
▁bret	-15315
▁doom	-15316
▁finn	-15317
▁mime	-15318
▁mora	-15319
▁sync	-15320
▁zico	-15321
inator	-15322
▁absol	-15323
▁blair	-15324
▁bunny	-15325
▁irene	-15326
▁mausu	-15327
▁radar	-15328
▁apollo	-15329
▁connor	-15330
▁griffin	-15331
▁consider	-15332
▁midnight	-15333
▁morrison	-15334
▁tactical	-15335
▁innovation	-15336
▁restaurant	-15337
173	-15338
183	-15339
359	-15340
hin	-15341
opt	-15342
pha	-15343
qua	-15344
▁cq	-15345
夂卜日	-15346
anes	-15347
kbps	-15348
otus	-15349
sons	-15350
▁094	-15351
▁ecu	-15352
▁miz	-15353
▁zak	-15354
asing	-15355
block	-15356
kirch	-15357
maker	-15358
place	-15359
▁1051	-15360
▁2160	-15361
▁anno	-15362
▁goss	-15363
▁hann	-15364
▁mord	-15365
▁pere	-15366
▁wear	-15367
▁clann	-15368
▁guild	-15369
▁prior	-15370
▁across	-15371
▁aurora	-15372
▁module	-15373
▁nights	-15374
▁purple	-15375
▁speech	-15376
▁bigorre	-15377
▁madonna	-15378
▁zealand	-15379
▁behavior	-15380
▁positive	-15381
▁jefferson	-15382
cu	-15383
wu	-15384
木角	-15385
163	-15386
181	-15387
705	-15388
abo	-15389
agi	-15390
itr	-15391
ped	-15392
wen	-15393
▁iy	-15394
千口氏	-15395
colm	-15396
▁alv	-15397
▁dcc	-15398
▁fog	-15399
▁kdl	-15400
▁msm	-15401
▁nun	-15402
▁rae	-15403
▁sym	-15404
▁tos	-15405
▁wad	-15406
▁wap	-15407
ption	-15408
ulate	-15409
▁ding	-15410
▁fuse	-15411
▁hawk	-15412
▁zeta	-15413
imedia	-15414
▁buddy	-15415
▁gates	-15416
▁liber	-15417
▁merry	-15418
▁novel	-15419
▁answer	-15420
▁kotaku	-15421
▁marsan	-15422
▁rivers	-15423
▁transm	-15424
▁consult	-15425
▁florida	-15426
▁phillip	-15427
▁unknown	-15428
▁descript	-15429
▁richmond	-15430
▁township	-15431
▁avranches	-15432
▁powershot	-15433
▁manchester	-15434
▁postgresql	-15435
▁resistance	-15436
氵自	-15437
犭广	-15438
368	-15439
465	-15440
fre	-15441
ipa	-15442
pse	-15443
ych	-15444
opal	-15445
thor	-15446
▁087	-15447
▁ipc	-15448
▁kha	-15449
▁nis	-15450
▁pvp	-15451
▁yee	-15452
crete	-15453
ignan	-15454
umann	-15455
uttle	-15456
▁2060	-15457
▁boat	-15458
▁dana	-15459
▁mixt	-15460
▁mori	-15461
▁oled	-15462
▁rage	-15463
▁uefi	-15464
hausen	-15465
ughter	-15466
utical	-15467
ymetal	-15468
▁allow	-15469
▁angle	-15470
▁boost	-15471
▁gecko	-15472
▁orbit	-15473
▁quake	-15474
▁sabah	-15475
▁angelo	-15476
▁lovers	-15477
▁meteor	-15478
▁mojang	-15479
▁nicole	-15480
▁nogent	-15481
▁gravity	-15482
▁langres	-15483
▁malcolm	-15484
▁mirande	-15485
▁rosetta	-15486
▁theodor	-15487
▁polytech	-15488
辶求	-15489
金卜	-15490
289	-15491
296	-15492
bak	-15493
rax	-15494
tar	-15495
▁mz	-15496
1897	-15497
2001	-15498
aeus	-15499
aint	-15500
eces	-15501
hart	-15502
iami	-15503
▁fet	-15504
▁nie	-15505
▁nup	-15506
▁ska	-15507
▁uic	-15508
▁zig	-15509
ilian	-15510
▁7600	-15511
▁alth	-15512
▁berk	-15513
▁emin	-15514
▁evol	-15515
▁hund	-15516
▁lens	-15517
▁leuc	-15518
▁loen	-15519
▁ofdm	-15520
▁rode	-15521
▁seth	-15522
▁smrt	-15523
▁viol	-15524
▁wire	-15525
▁blitz	-15526
▁choco	-15527
▁europ	-15528
▁rotem	-15529
▁annual	-15530
▁conrad	-15531
▁weapon	-15532
▁missing	-15533
▁opteron	-15534
▁darkness	-15535
▁soribada	-15536
▁theodore	-15537
▁babymetal	-15538
▁materials	-15539
▁literature	-15540
▁pennsylvania	-15541
244	-15542
282	-15543
377	-15544
gra	-15545
▁oa	-15546
丷干攵	-15547
白匕卩	-15548
𠁣𠃛言	-15549
4000	-15550
eper	-15551
fall	-15552
imon	-15553
inth	-15554
isto	-15555
mule	-15556
▁aia	-15557
▁bej	-15558
▁cic	-15559
▁dmc	-15560
▁dts	-15561
▁nus	-15562
▁tlc	-15563
ersey	-15564
etric	-15565
group	-15566
▁3001	-15567
▁avro	-15568
▁eval	-15569
▁hala	-15570
▁herr	-15571
▁hole	-15572
▁kumi	-15573
▁leap	-15574
▁mens	-15575
▁musa	-15576
▁nate	-15577
▁sage	-15578
▁spas	-15579
▁turt	-15580
▁45000	-15581
▁banks	-15582
▁britt	-15583
▁chant	-15584
▁crush	-15585
▁egypt	-15586
▁floor	-15587
▁melan	-15588
▁neway	-15589
▁recon	-15590
▁archae	-15591
▁monday	-15592
▁motoro	-15593
▁singer	-15594
▁economy	-15595
▁falling	-15596
▁statist	-15597
▁warrior	-15598
▁mapframe	-15599
▁satellite	-15600
▁resolution	-15601
口乍	-15602
钅衣	-15603
258	-15604
273	-15605
475	-15606
fit	-15607
gle	-15608
▁zd	-15609
eaux	-15610
ento	-15611
ipes	-15612
ippi	-15613
list	-15614
▁alo	-15615
▁ani	-15616
▁cly	-15617
▁diz	-15618
▁edg	-15619
▁efi	-15620
▁kaf	-15621
▁kei	-15622
▁kev	-15623
▁mgm	-15624
▁7300	-15625
▁alta	-15626
▁chad	-15627
▁lamp	-15628
▁pair	-15629
▁panc	-15630
▁rift	-15631
▁sale	-15632
▁arsen	-15633
▁ayumi	-15634
▁freak	-15635
▁moody	-15636
▁shake	-15637
▁trend	-15638
▁volks	-15639
▁americ	-15640
▁deport	-15641
▁salins	-15642
▁clannad	-15643
▁contact	-15644
▁harmony	-15645
▁harvest	-15646
▁bernhard	-15647
▁intermed	-15648
▁problems	-15649
▁religion	-15650
▁shopping	-15651
▁dangerous	-15652
uj	-15653
月彡	-15654
yne	-15655
▁jw	-15656
▁kz	-15657
▁ql	-15658
镸彡兀	-15659
boot	-15660
lair	-15661
▁anc	-15662
▁gne	-15663
▁hoh	-15664
▁img	-15665
▁pim	-15666
▁qew	-15667
enter	-15668
otten	-15669
ulata	-15670
▁2036	-15671
▁gift	-15672
▁miui	-15673
▁seal	-15674
▁slip	-15675
▁tart	-15676
ometer	-15677
▁comet	-15678
▁debut	-15679
▁dress	-15680
▁logan	-15681
▁phila	-15682
▁vreux	-15683
▁woods	-15684
▁figure	-15685
▁forbes	-15686
▁irving	-15687
▁macrom	-15688
▁magdal	-15689
▁viktor	-15690
▁wagner	-15691
▁liberal	-15692
▁maximum	-15693
▁seasons	-15694
▁crawford	-15695
▁download	-15696
▁embedded	-15697
▁emmanuel	-15698
▁motorola	-15699
▁continental	-15700
fz	-15701
土巳	-15702
235	-15703
275	-15704
bir	-15705
uxe	-15706
▁zr	-15707
alon	-15708
idan	-15709
inct	-15710
olan	-15711
otti	-15712
▁ags	-15713
▁ave	-15714
▁kwk	-15715
▁luv	-15716
▁zel	-15717
▁zis	-15718
attle	-15719
iques	-15720
▁9800	-15721
▁blow	-15722
▁hila	-15723
▁tone	-15724
▁typh	-15725
▁vala	-15726
cement	-15727
ischen	-15728
▁chanc	-15729
▁entry	-15730
▁kuala	-15731
▁neigh	-15732
▁porta	-15733
▁romeo	-15734
▁tumbl	-15735
▁bonnie	-15736
▁infant	-15737
▁kansas	-15738
▁native	-15739
▁patrol	-15740
▁quadro	-15741
▁sidney	-15742
▁atlanta	-15743
▁concern	-15744
▁dorothy	-15745
▁emperor	-15746
▁imaging	-15747
▁traffic	-15748
▁determin	-15749
▁historic	-15750
▁pressure	-15751
▁alexandre	-15752
▁important	-15753
▁standards	-15754
廿尺	-15755
387	-15756
408	-15757
607	-15758
988	-15759
nor	-15760
▁uz	-15761
four	-15762
hand	-15763
omed	-15764
shan	-15765
ylie	-15766
▁aek	-15767
▁asm	-15768
▁boe	-15769
▁cmg	-15770
▁ddt	-15771
▁dok	-15772
▁eck	-15773
▁erp	-15774
▁ils	-15775
▁mug	-15776
▁slo	-15777
▁wig	-15778
▁zer	-15779
erver	-15780
otive	-15781
▁baob	-15782
▁dans	-15783
▁disp	-15784
▁herc	-15785
▁lump	-15786
▁mara	-15787
▁punt	-15788
▁scen	-15789
▁susp	-15790
▁turb	-15791
▁vivo	-15792
atives	-15793
system	-15794
▁advis	-15795
▁brett	-15796
▁bulld	-15797
▁forms	-15798
▁frost	-15799
▁given	-15800
▁icoca	-15801
▁johor	-15802
▁paras	-15803
▁split	-15804
▁assess	-15805
▁marcel	-15806
▁reserv	-15807
▁brigade	-15808
▁bristol	-15809
▁chapman	-15810
▁harvard	-15811
▁respons	-15812
▁simpson	-15813
▁internal	-15814
▁practice	-15815
▁functions	-15816
▁treatment	-15817
▁wrestling	-15818
▁liberation	-15819
弋甘	-15820
禾果	-15821
252	-15822
378	-15823
907	-15824
ioc	-15825
raz	-15826
urb	-15827
▁dq	-15828
▁hq	-15829
oney	-15830
▁adj	-15831
▁lus	-15832
▁ols	-15833
▁spd	-15834
brand	-15835
raine	-15836
▁bung	-15837
▁cald	-15838
▁graf	-15839
▁halo	-15840
▁nast	-15841
▁nero	-15842
▁tram	-15843
▁volt	-15844
▁benny	-15845
▁bravo	-15846
▁heinz	-15847
▁raven	-15848
▁ribon	-15849
▁satur	-15850
▁scout	-15851
▁sparc	-15852
▁curtis	-15853
▁ending	-15854
▁frankf	-15855
▁luther	-15856
▁sphere	-15857
▁activex	-15858
▁browser	-15859
▁dynasty	-15860
▁miracle	-15861
▁stardust	-15862
▁beginning	-15863
亻兆	-15864
讠山	-15865
豆工	-15866
钅方	-15867
饣戋	-15868
234	-15869
277	-15870
399	-15871
chr	-15872
fps	-15873
los	-15874
▁eo	-15875
▁wf	-15876
一内阝	-15877
3100	-15878
avia	-15879
ects	-15880
thal	-15881
▁lfa	-15882
▁lid	-15883
▁rpk	-15884
▁rtl	-15885
凵丨王攵	-15886
𠂊田一由	-15887
archy	-15888
basic	-15889
games	-15890
olens	-15891
▁cuda	-15892
▁drew	-15893
▁nept	-15894
▁syfy	-15895
㐅乂木大石	-15896
▁bever	-15897
▁curie	-15898
▁eugen	-15899
▁miche	-15900
▁mixed	-15901
▁paolo	-15902
▁randy	-15903
▁shape	-15904
▁baobab	-15905
▁takara	-15906
▁teresa	-15907
▁deliver	-15908
▁greater	-15909
▁certific	-15910
▁cyanogen	-15911
▁grenoble	-15912
▁reflection	-15913
▁generations	-15914
js	-15915
中皿	-15916
土甘	-15917
氵乐	-15918
148	-15919
298	-15920
506	-15921
993	-15922
tec	-15923
tur	-15924
▁fy	-15925
▁⿷⿸	-15926
1001	-15927
iker	-15928
tale	-15929
unce	-15930
▁eds	-15931
▁giv	-15932
▁itt	-15933
▁kav	-15934
▁kne	-15935
▁mbt	-15936
▁nai	-15937
▁nen	-15938
▁nmr	-15939
▁ops	-15940
▁xyz	-15941
▁yen	-15942
▁yum	-15943
annes	-15944
antin	-15945
▁7100	-15946
▁chir	-15947
▁ecfa	-15948
▁thur	-15949
▁yeah	-15950
▁curry	-15951
▁curve	-15952
▁eleph	-15953
▁prosp	-15954
▁rocky	-15955
▁tsing	-15956
▁fiesta	-15957
▁finder	-15958
▁methyl	-15959
▁nichol	-15960
▁rafael	-15961
▁weight	-15962
▁xavier	-15963
▁auguste	-15964
▁workers	-15965
▁deadline	-15966
▁politics	-15967
▁available	-15968
▁universities	-15969
bt	-15970
立束	-15971
竹见	-15972
376	-15973
395	-15974
477	-15975
704	-15976
777	-15977
iry	-15978
upa	-15979
1500	-15980
adia	-15981
aves	-15982
club	-15983
iale	-15984
lake	-15985
oday	-15986
ovic	-15987
wehr	-15988
▁ait	-15989
▁eta	-15990
▁lcs	-15991
▁lom	-15992
▁mcp	-15993
▁mey	-15994
▁moa	-15995
▁mpl	-15996
▁nix	-15997
▁ort	-15998
▁vag	-15999
▁lara	-16000
▁plug	-16001
▁repl	-16002
▁soar	-16003
▁tina	-16004
▁wade	-16005
厶厶一日戈	-16006
eneuve	-16007
▁alien	-16008
▁dijon	-16009
▁lemon	-16010
▁levin	-16011
▁paulo	-16012
▁pulau	-16013
▁sally	-16014
▁shore	-16015
▁theme	-16016
imation	-16017
▁cities	-16018
▁elliot	-16019
▁jackie	-16020
▁korean	-16021
▁lauren	-16022
▁sprint	-16023
▁thought	-16024
▁webster	-16025
▁chromium	-16026
▁contents	-16027
▁everybody	-16028
▁expansion	-16029
▁quicktime	-16030
▁robertson	-16031
▁libreoffice	-16032
bj	-16033
297	-16034
609	-16035
eau	-16036
▁yh	-16037
八刀廾	-16038
艹冖糸	-16039
alat	-16040
icit	-16041
icum	-16042
uler	-16043
ulla	-16044
vich	-16045
▁cts	-16046
▁eli	-16047
▁ism	-16048
▁jah	-16049
▁mmx	-16050
▁ptr	-16051
▁usc	-16052
ained	-16053
ially	-16054
▁aqua	-16055
▁mbit	-16056
▁sole	-16057
▁tanh	-16058
▁vela	-16059
▁wink	-16060
inique	-16061
struct	-16062
▁aleks	-16063
▁brock	-16064
▁crash	-16065
▁genus	-16066
▁leave	-16067
▁revol	-16068
▁ziers	-16069
jection	-16070
osuchus	-16071
▁broken	-16072
▁tienne	-16073
▁faculty	-16074
▁lambert	-16075
▁letters	-16076
▁opening	-16077
▁website	-16078
▁athletic	-16079
▁according	-16080
▁algorithm	-16081
▁superstar	-16082
▁publications	-16083
虫见	-16084
354	-16085
807	-16086
iji	-16087
opp	-16088
ync	-16089
土口彡	-16090
ably	-16091
ipur	-16092
oter	-16093
▁ded	-16094
▁dsc	-16095
▁evo	-16096
▁iis	-16097
▁mdr	-16098
▁mip	-16099
▁owl	-16100
▁pec	-16101
▁psc	-16102
▁wyn	-16103
▁yau	-16104
athon	-16105
heast	-16106
iplex	-16107
obile	-16108
▁aman	-16109
▁bout	-16110
▁chch	-16111
▁gour	-16112
▁kall	-16113
▁mask	-16114
▁moss	-16115
▁pros	-16116
▁whis	-16117
▁zeit	-16118
lander	-16119
▁32000	-16120
▁bains	-16121
▁coron	-16122
▁named	-16123
▁navar	-16124
▁retro	-16125
▁shirt	-16126
▁wimax	-16127
▁fourth	-16128
▁genome	-16129
▁horace	-16130
▁jerome	-16131
▁patter	-16132
▁biology	-16133
▁eternal	-16134
▁missile	-16135
▁pattern	-16136
▁silicon	-16137
▁tenness	-16138
▁unified	-16139
▁operator	-16140
▁sebastian	-16141
▁皿	-16142
廿丨	-16143
268	-16144
353	-16145
864	-16146
908	-16147
anx	-16148
cue	-16149
ela	-16150
ifa	-16151
jay	-16152
rio	-16153
yar	-16154
木木土	-16155
atur	-16156
gard	-16157
icht	-16158
iese	-16159
ilde	-16160
itus	-16161
wise	-16162
▁anu	-16163
▁dmm	-16164
▁dss	-16165
▁ees	-16166
▁jus	-16167
▁ked	-16168
▁muc	-16169
▁pcl	-16170
▁slc	-16171
▁smt	-16172
▁viz	-16173
廿丨冖巾	-16174
iella	-16175
sonne	-16176
▁2038	-16177
▁7700	-16178
▁9700	-16179
▁adsl	-16180
▁amus	-16181
▁bike	-16182
▁fand	-16183
▁fang	-16184
▁guil	-16185
▁junk	-16186
▁quiz	-16187
▁raff	-16188
▁rene	-16189
▁vera	-16190
▁clara	-16191
▁lynch	-16192
▁mende	-16193
▁rever	-16194
▁riley	-16195
▁santo	-16196
▁schwe	-16197
▁zhang	-16198
avarman	-16199
▁breath	-16200
▁condom	-16201
▁crytek	-16202
▁honour	-16203
▁limoux	-16204
▁oculus	-16205
▁really	-16206
▁travis	-16207
▁betamax	-16208
▁germany	-16209
▁trouble	-16210
▁colorado	-16211
▁enhanced	-16212
▁singular	-16213
▁solution	-16214
▁millennium	-16215
mk	-16216
户衣	-16217
月兆	-16218
爿木	-16219
钅乚	-16220
278	-16221
454	-16222
476	-16223
707	-16224
805	-16225
eek	-16226
nis	-16227
oks	-16228
yst	-16229
力口肉	-16230
囗呦力	-16231
eroy	-16232
onto	-16233
ucks	-16234
▁gev	-16235
▁kro	-16236
▁ldl	-16237
▁pso	-16238
▁qui	-16239
▁siu	-16240
▁spc	-16241
▁usp	-16242
丷干攵皿	-16243
allow	-16244
icher	-16245
iency	-16246
ilion	-16247
oting	-16248
▁8700	-16249
▁beer	-16250
▁bore	-16251
▁boul	-16252
▁henn	-16253
▁join	-16254
▁ones	-16255
▁parc	-16256
▁pert	-16257
▁symm	-16258
erties	-16259
▁arrow	-16260
▁cyrix	-16261
▁enemy	-16262
▁guang	-16263
▁outer	-16264
▁pyram	-16265
▁spice	-16266
▁stark	-16267
▁behind	-16268
▁loving	-16269
▁pseudo	-16270
▁vivian	-16271
▁flowers	-16272
▁giorgio	-16273
▁jenkins	-16274
▁kampung	-16275
▁concepts	-16276
▁destruct	-16277
▁dinosaur	-16278
▁assistant	-16279
▁condition	-16280
▁henderson	-16281
▁molecular	-16282
dx	-16283
rb	-16284
亻王	-16285
比必	-16286
267	-16287
965	-16288
otr	-16289
▁vj	-16290
alus	-16291
asan	-16292
iona	-16293
noon	-16294
omen	-16295
omes	-16296
usse	-16297
▁alx	-16298
▁asa	-16299
▁gia	-16300
▁haf	-16301
▁iga	-16302
▁lsa	-16303
▁mct	-16304
▁sdf	-16305
▁yeh	-16306
丿冂米丂	-16307
ignac	-16308
▁2080	-16309
▁8100	-16310
▁arct	-16311
▁chim	-16312
▁cnet	-16313
▁hyde	-16314
▁stag	-16315
▁tain	-16316
▁thin	-16317
▁toll	-16318
▁trag	-16319
▁verb	-16320
▁yuki	-16321
▁birds	-16322
▁brent	-16323
▁donna	-16324
▁impre	-16325
▁marin	-16326
▁mercy	-16327
▁miami	-16328
▁mouse	-16329
▁sheph	-16330
▁appear	-16331
▁clover	-16332
▁nforce	-16333
▁ticket	-16334
▁trophy	-16335
▁beatles	-16336
▁elliott	-16337
▁gamepro	-16338
▁gardner	-16339
▁macross	-16340
▁montgom	-16341
▁sisters	-16342
▁trident	-16343
▁psychology	-16344
▁villeneuve	-16345
fx	-16346
ll	-16347
口更	-16348
虫毛	-16349
364	-16350
373	-16351
485	-16352
507	-16353
655	-16354
irt	-16355
▁bz	-16356
扌斤虫	-16357
acom	-16358
iros	-16359
ydro	-16360
▁afp	-16361
▁aro	-16362
▁coa	-16363
▁gug	-16364
▁ktx	-16365
acher	-16366
▁alam	-16367
▁alge	-16368
▁cars	-16369
▁dena	-16370
▁eccl	-16371
▁kwan	-16372
▁mage	-16373
▁morg	-16374
▁phoe	-16375
▁poll	-16376
▁wein	-16377
estone	-16378
kirche	-16379
minute	-16380
▁armor	-16381
▁asper	-16382
▁input	-16383
▁loire	-16384
▁marks	-16385
▁pione	-16386
▁rural	-16387
▁theta	-16388
▁trich	-16389
▁twist	-16390
▁voith	-16391
▁weber	-16392
limited	-16393
▁amoled	-16394
▁carmen	-16395
▁dallas	-16396
▁expert	-16397
▁gregor	-16398
▁hotels	-16399
▁jersey	-16400
▁jessie	-16401
▁animals	-16402
▁endless	-16403
▁heights	-16404
▁imagine	-16405
▁madison	-16406
▁pearson	-16407
▁results	-16408
▁ricardo	-16409
▁solomon	-16410
▁activity	-16411
▁florence	-16412
▁strategy	-16413
▁superior	-16414
▁catalogue	-16415
▁manhattan	-16416
▁relations	-16417
uo	-16418
钅我	-16419
283	-16420
kor	-16421
mag	-16422
org	-16423
top	-16424
▁qc	-16425
▁blg	-16426
▁doh	-16427
▁iib	-16428
ently	-16429
wagen	-16430
▁arte	-16431
▁chao	-16432
▁garo	-16433
▁jill	-16434
▁lyon	-16435
▁nach	-16436
▁seng	-16437
▁slam	-16438
▁tort	-16439
▁toys	-16440
lababy	-16441
▁27000	-16442
asaurus	-16443
▁analyt	-16444
▁armani	-16445
▁hannah	-16446
▁mongol	-16447
▁penins	-16448
▁qwerty	-16449
▁tumblr	-16450
pression	-16451
▁chester	-16452
▁mapping	-16453
▁methods	-16454
▁audition	-16455
▁decision	-16456
▁platinum	-16457
▁tennessee	-16458
▁montgomery	-16459
彳且	-16460
角瓜	-16461
170	-16462
274	-16463
279	-16464
388	-16465
afa	-16466
azi	-16467
flo	-16468
gat	-16469
gee	-16470
yal	-16471
▁nw	-16472
一大刂	-16473
enau	-16474
pack	-16475
▁ami	-16476
▁avi	-16477
▁bip	-16478
▁ccr	-16479
▁csf	-16480
▁dsl	-16481
▁hua	-16482
▁lua	-16483
▁mtd	-16484
▁ssa	-16485
十豆口心	-16486
iscus	-16487
isoft	-16488
otech	-16489
▁cave	-16490
▁edin	-16491
▁forg	-16492
▁lgpl	-16493
▁msci	-16494
▁quin	-16495
▁rend	-16496
▁yand	-16497
heimer	-16498
ophone	-16499
▁atrac	-16500
▁delay	-16501
▁digic	-16502
▁inhib	-16503
▁juice	-16504
▁klaus	-16505
▁percy	-16506
▁become	-16507
▁former	-16508
▁hassan	-16509
▁martha	-16510
▁milton	-16511
▁nether	-16512
▁baldwin	-16513
▁buffalo	-16514
▁interpr	-16515
▁variety	-16516
▁anything	-16517
▁anywhere	-16518
▁baptiste	-16519
▁ventures	-16520
▁powerbook	-16521
kl	-16522
石比	-16523
902	-16524
cam	-16525
rew	-16526
uty	-16527
▁gv	-16528
▁pq	-16529
▁ys	-16530
士口力	-16531
akan	-16532
lers	-16533
quel	-16534
shaw	-16535
uria	-16536
word	-16537
▁aip	-16538
▁ccc	-16539
▁cns	-16540
▁ene	-16541
▁esi	-16542
▁kut	-16543
▁meh	-16544
▁mez	-16545
▁mie	-16546
▁pem	-16547
▁pha	-16548
▁tpe	-16549
▁ymc	-16550
emble	-16551
▁hime	-16552
▁isla	-16553
▁mcle	-16554
▁reid	-16555
▁rost	-16556
▁shim	-16557
▁wann	-16558
anthus	-16559
ending	-16560
island	-16561
▁anglo	-16562
▁basin	-16563
▁blink	-16564
▁erich	-16565
▁files	-16566
▁towns	-16567
berland	-16568
▁cannon	-16569
▁fraser	-16570
▁legion	-16571
▁mighty	-16572
▁rescue	-16573
ransport	-16574
▁changes	-16575
▁horipro	-16576
▁mikhail	-16577
▁mohamed	-16578
▁addition	-16579
▁discover	-16580
▁hamasaki	-16581
▁signific	-16582
▁telltale	-16583
▁schneider	-16584
▁properties	-16585
▁instruction	-16586
▁silverlight	-16587
▁wissembourg	-16588
扌专	-16589
扌门	-16590
474	-16591
hab	-16592
iou	-16593
obi	-16594
odo	-16595
ryn	-16596
1903	-16597
icom	-16598
only	-16599
werk	-16600
wing	-16601
▁arx	-16602
▁ico	-16603
▁ims	-16604
▁jug	-16605
▁mls	-16606
▁una	-16607
▁wcw	-16608
acity	-16609
ersen	-16610
lated	-16611
▁duty	-16612
▁pull	-16613
▁tess	-16614
⿰⿱⿱⿱	-16615
▁arist	-16616
▁bitch	-16617
▁caval	-16618
▁filip	-16619
▁luigi	-16620
▁quinn	-16621
▁tango	-16622
ensions	-16623
▁bernay	-16624
▁gerard	-16625
▁icloud	-16626
▁mental	-16627
▁metall	-16628
▁minnes	-16629
▁prepar	-16630
▁impreza	-16631
▁richter	-16632
▁writing	-16633
▁negative	-16634
▁certified	-16635
▁emergency	-16636
▁recording	-16637
▁unlimited	-16638
▁alexandria	-16639
▁excellence	-16640
▁population	-16641
▁conservation	-16642
pu	-16643
口角	-16644
耳冉	-16645
396	-16646
768	-16647
954	-16648
cap	-16649
chy	-16650
ept	-16651
riz	-16652
▁yb	-16653
十又目	-16654
bolt	-16655
estr	-16656
iago	-16657
odle	-16658
▁abi	-16659
▁apl	-16660
▁ctu	-16661
▁ego	-16662
▁fas	-16663
▁iic	-16664
▁miy	-16665
▁mog	-16666
▁nhs	-16667
▁sna	-16668
▁srb	-16669
▁ssr	-16670
olith	-16671
riage	-16672
▁2034	-16673
▁2650	-16674
▁carm	-16675
▁emer	-16676
▁espa	-16677
▁eure	-16678
▁foix	-16679
▁pill	-16680
▁quot	-16681
▁sina	-16682
wealth	-16683
weiler	-16684
▁68000	-16685
▁abstr	-16686
▁alter	-16687
▁expos	-16688
▁hobby	-16689
▁humph	-16690
▁kappa	-16691
▁matth	-16692
▁nexon	-16693
▁resid	-16694
▁carcas	-16695
▁degree	-16696
▁deluxe	-16697
▁improv	-16698
▁regina	-16699
▁balance	-16700
▁blender	-16701
▁celeron	-16702
▁gerhard	-16703
▁objects	-16704
▁isabella	-16705
▁mcdonald	-16706
▁minnesota	-16707
▁navigator	-16708
▁carcassonne	-16709
wb	-16710
火羊	-16711
293	-16712
369	-16713
453	-16714
472	-16715
550	-16716
551	-16717
aho	-16718
bed	-16719
odi	-16720
▁vd	-16721
2008	-16722
anan	-16723
chem	-16724
ogie	-16725
orie	-16726
park	-16727
▁cps	-16728
▁ctc	-16729
▁ere	-16730
▁ifa	-16731
▁ire	-16732
▁kiv	-16733
▁kov	-16734
▁lez	-16735
▁mpc	-16736
▁nfa	-16737
▁nsx	-16738
▁ugc	-16739
▁vat	-16740
icate	-16741
illed	-16742
oland	-16743
▁8400	-16744
▁caes	-16745
▁capp	-16746
▁chok	-16747
▁fips	-16748
▁foll	-16749
▁gplv	-16750
▁ivpp	-16751
▁lago	-16752
▁oste	-16753
▁sort	-16754
▁youb	-16755
▁brien	-16756
▁entre	-16757
▁glock	-16758
▁msnbc	-16759
▁penny	-16760
enstein	-16761
▁divers	-16762
▁hubert	-16763
▁jennie	-16764
▁minute	-16765
▁mosfet	-16766
▁sketch	-16767
▁telesc	-16768
▁anthrop	-16769
▁barrett	-16770
▁jupiter	-16771
▁ranking	-16772
▁testing	-16773
▁griffith	-16774
▁largenti	-16775
▁angelababy	-16776
fd	-16777
艹卯	-16778
253	-16779
466	-16780
468	-16781
478	-16782
479	-16783
blo	-16784
hpa	-16785
jah	-16786
mex	-16787
oti	-16788
vic	-16789
2012	-16790
awak	-16791
grad	-16792
phia	-16793
▁adl	-16794
▁arl	-16795
▁buy	-16796
▁eap	-16797
▁ebs	-16798
▁fow	-16799
▁rcs	-16800
▁ufj	-16801
▁xin	-16802
井一𧘇力	-16803
build	-16804
ethyl	-16805
lator	-16806
ockey	-16807
oming	-16808
ungen	-16809
▁alco	-16810
▁cypr	-16811
▁giul	-16812
▁iran	-16813
▁lvmh	-16814
▁tiss	-16815
▁turk	-16816
engine	-16817
ipping	-16818
prises	-16819
▁21000	-16820
▁crane	-16821
▁konst	-16822
▁mayer	-16823
▁means	-16824
▁shark	-16825
ococcus	-16826
▁edmond	-16827
▁garnet	-16828
▁stanag	-16829
▁zimmer	-16830
▁binding	-16831
▁calling	-16832
▁feeling	-16833
▁miranda	-16834
▁tournon	-16835
▁compress	-16836
▁latitude	-16837
▁sterling	-16838
▁indonesia	-16839
▁leadership	-16840
▁particular	-16841
▁certificate	-16842
▁investments	-16843
王丁	-16844
243	-16845
389	-16846
459	-16847
483	-16848
aff	-16849
dar	-16850
ifl	-16851
lal	-16852
nen	-16853
隹隹牛	-16854
𠂉大匕	-16855
2011	-16856
anya	-16857
atro	-16858
lane	-16859
leen	-16860
▁bma	-16861
▁cfc	-16862
▁cpa	-16863
▁dma	-16864
▁hoc	-16865
▁hoy	-16866
▁igm	-16867
▁sfc	-16868
▁zoe	-16869
antes	-16870
ately	-16871
atore	-16872
▁5900	-16873
▁8200	-16874
▁8600	-16875
▁brah	-16876
▁lynx	-16877
▁marx	-16878
▁pash	-16879
▁shib	-16880
▁tick	-16881
▁vest	-16882
untime	-16883
▁autoc	-16884
▁clamp	-16885
▁diane	-16886
▁fifth	-16887
▁latex	-16888
▁maple	-16889
▁mouth	-16890
▁ricky	-16891
▁shaft	-16892
▁enough	-16893
▁guilla	-16894
▁portal	-16895
▁roguel	-16896
▁soccer	-16897
▁clinton	-16898
▁partner	-16899
▁waiting	-16900
▁warning	-16901
▁augustus	-16902
▁laughing	-16903
▁planning	-16904
▁prestige	-16905
▁evangelion	-16906
▁experiment	-16907
▁experimental	-16908
▁independence	-16909
▁hypertransport	-16910
wy	-16911
xp	-16912
犭贝	-16913
349	-16914
398	-16915
957	-16916
gow	-16917
jam	-16918
lap	-16919
spa	-16920
▁tq	-16921
勹丿牛	-16922
木木日	-16923
1919	-16924
care	-16925
emia	-16926
mbit	-16927
note	-16928
olta	-16929
vaux	-16930
▁dea	-16931
▁fuk	-16932
▁hew	-16933
▁kag	-16934
▁ryo	-16935
▁sdl	-16936
▁wps	-16937
▁yer	-16938
achim	-16939
anium	-16940
inson	-16941
plate	-16942
▁cerv	-16943
▁ctrl	-16944
▁gand	-16945
▁guns	-16946
▁holl	-16947
▁hors	-16948
▁judy	-16949
▁kell	-16950
▁maid	-16951
▁perm	-16952
▁pong	-16953
▁seek	-16954
▁stef	-16955
▁taxi	-16956
▁yong	-16957
▁yves	-16958
▁zard	-16959
▁⿱⿱⿱⿱	-16960
ifolia	-16961
▁alain	-16962
▁below	-16963
▁cisco	-16964
▁goose	-16965
▁kenny	-16966
▁marit	-16967
▁tribe	-16968
uration	-16969
▁column	-16970
▁cotton	-16971
▁entity	-16972
▁fabric	-16973
▁jewish	-16974
▁serial	-16975
▁strept	-16976
▁tablet	-16977
▁telnet	-16978
▁willie	-16979
▁citizen	-16980
▁members	-16981
▁mississ	-16982
▁neutral	-16983
▁purpose	-16984
▁although	-16985
▁altkirch	-16986
▁stephanie	-16987
▁rothschild	-16988
▁includeonly	-16989
▁commonwealth	-16990
竹乍	-16991
艹以	-16992
鬼隹	-16993
241	-16994
709	-16995
803	-16996
daq	-16997
▁zg	-16998
亻隹贝	-16999
2018	-17000
acki	-17001
chel	-17002
emen	-17003
etus	-17004
stea	-17005
uchi	-17006
vill	-17007
▁bmd	-17008
▁cpg	-17009
▁dew	-17010
▁dyl	-17011
▁isi	-17012
▁mca	-17013
▁mcl	-17014
▁tsm	-17015
▁zum	-17016
凵㐅八夂	-17017
口口口阝	-17018
ables	-17019
ibald	-17020
inski	-17021
query	-17022
▁acer	-17023
▁casc	-17024
▁cola	-17025
▁cope	-17026
▁cray	-17027
▁cros	-17028
▁dahl	-17029
▁dino	-17030
▁gett	-17031
▁noel	-17032
▁reef	-17033
▁shak	-17034
▁sylv	-17035
▁twil	-17036
▁yuan	-17037
etimes	-17038
ishing	-17039
saurus	-17040
▁70000	-17041
▁corey	-17042
▁eniac	-17043
▁exped	-17044
▁icann	-17045
▁jonas	-17046
▁lingu	-17047
▁pulse	-17048
▁restr	-17049
▁veloc	-17050
▁berryz	-17051
▁bundes	-17052
▁darren	-17053
▁freddy	-17054
▁option	-17055
▁oxygen	-17056
▁shader	-17057
▁static	-17058
▁tarbes	-17059
▁voyage	-17060
▁winamp	-17061
▁complet	-17062
▁contrib	-17063
▁partido	-17064
▁astronom	-17065
▁breaking	-17066
▁clinical	-17067
▁external	-17068
▁ftisland	-17069
▁reynolds	-17070
▁operating	-17071
▁potential	-17072
▁supercell	-17073
jm	-17074
王兆	-17075
𠂉毛	-17076
342	-17077
955	-17078
fax	-17079
jew	-17080
ods	-17081
pon	-17082
▁uo	-17083
一丁心	-17084
angi	-17085
anor	-17086
arez	-17087
into	-17088
muse	-17089
uela	-17090
▁aph	-17091
▁fec	-17092
▁gta	-17093
▁stg	-17094
▁stl	-17095
▁tvs	-17096
▁ucs	-17097
atops	-17098
onian	-17099
state	-17100
usson	-17101
▁adel	-17102
▁aise	-17103
▁alba	-17104
▁choi	-17105
▁coop	-17106
▁ddos	-17107
▁fuel	-17108
▁hert	-17109
▁jaya	-17110
▁knox	-17111
▁mats	-17112
▁moto	-17113
▁neal	-17114
▁saul	-17115
▁siem	-17116
▁slim	-17117
▁vire	-17118
▁webb	-17119
亠丷冖巾口	-17120
illing	-17121
▁bones	-17122
▁elisa	-17123
[...]
