<pad>	0
<unk>	0
[CLS]	0
[SEP]	0
[MASK]	0
(	0
)	0
”	0
-	0
.	0
–	0
£	0
€	0
▁⿰	-0
▁⿱	-1
cd	-2
cdp	-3
▁⿰⿱	-4
▁,	-5
▁⿸	-6
▁⿱⿱	-7
88	-8
勹丶	-9
▁⿺	-10
▁。	-11
▁⿻	-12
⿱⿱	-13
▁⿱⿰	-14
▁⿵	-15
一八	-16
▁⿴	-17
一口	-18
▁⿳	-19
▁⿹	-20
▁年	-21
▁1	-22
一龰	-23
885	-24
▁⿰⿱⿱	-25
▁、	-26
土寸	-27
▁一	-28
89	-29
一厶	-30
目八	-31
⿱⿰	-32
口口	-33
口丨	-34
⿱⿴	-35
二丨	-36
▁人	-37
十口	-38
▁⿱⿻	-39
日一	-40
66	-41
▁2	-42
丁口	-43
𠘧又	-44
亠口	-45
866	-46
人一	-47
▁⿱⿱⿱	-48
𠂇月	-49
一人	-50
一厶土	-51
一廾	-52
ca	-53
夂口	-54
⿰⿱	-55
人人	-56
▁⿰⿸	-57
口一	-58
⿱⿻	-59
𠁣𠃛	-60
亠丷	-61
戊𠃌	-62
cac	-63
禾口	-64
▁為	-65
一止	-66
丿𠃌	-67
龷八	-68
bb	-69
▁以	-70
一丁	-71
▁月	-72
㐅乂	-73
▁日	-74
▁20	-75
乛亅	-76
甲一	-77
亠土	-78
乀丿	-79
耂日	-80
囗玉	-81
二厶	-82
▁19	-83
⺌日	-84
囗⺌日	-85
▁⿱⿳	-86
▁为	-87
冂口	-88
八厶	-89
丿丿	-90
土也	-91
⿹⿻	-92
bbf	-93
凵丨	-94
一兀	-95
人⺀	-96
八刀	-97
厶口	-98
人丶	-99
▁⿷	-100
⺌冖	-101
▁⿲	-102
幺幺	-103
立口	-104
人一口	-105
⺊一	-106
凵丨凵	-107
䒑土	-108
8665	-109
▁⿸⿸	-110
▁⿵⿰	-111
一大	-112
弓丨	-113
丷干	-114
⺊口	-115
亻也	-116
立口阝	-117
一八斤	-118
䒑自	-119
土厶	-120
▁⿱⿰⿱	-121
𠂊冫	-122
亠口小	-123
⺌冖口	-124
𠂉大	-125
𠂉母	-126
bc	-127
8661	-128
丨丨	-129
日十	-130
夕口	-131
目儿	-132
▁⿺⿱	-133
弓丨丿	-134
耳又	-135
⿳⿰	-136
乚丿	-137
亻乍	-138
止匕	-139
▁⿵⿵	-140
丿士	-141
896	-142
▁生	-143
立日	-144
冂一口	-145
口止	-146
▁⿶	-147
▁⿰⿳	-148
彐一八	-149
一厶土刂	-150
夕夕	-151
力口	-152
▁于	-153
土龰	-154
一卜	-155
儿口	-156
⿱⿳	-157
▁:	-158
小丿	-159
亠父	-160
▁》	-161
▁《	-162
▁⿳𭕄	-163
且一	-164
宀豕	-165
cb	-166
宀八	-167
龶月	-168
亻立	-169
立朩	-170
▁及	-171
▁由	-172
▁⿱⿶	-173
月刂	-174
𠂊小	-175
木木	-176
幺夂	-177
冫欠	-178
冖子	-179
衤皮	-180
▁民	-181
干丷	-182
▁本	-183
亠巾	-184
丿丨	-185
口儿	-186
▁·	-187
囗大	-188
一心	-189
▁3	-190
▁⿶⿳⿰	-191
一止攵	-192
甲一一	-193
人丨	-194
十罒	-195
十罒一心	-196
由八	-197
▁子	-198
且一八	-199
▁201	-200
⺆冫	-201
彐冖	-202
𠃋丿	-203
𠃋丿人	-204
丿糸	-205
▁自	-206
千口	-207
䒑业	-208
宀㠯	-209
禾刂	-210
亠乂	-211
𠂊田	-212
丿尸	-213
廴聿	-214
𠂇巾	-215
冖車	-216
立朩斤	-217
▁「	-218
▁」	-219
亻弋	-220
宀女	-221
井一八	-222
十口儿	-223
cc	-224
▁⿱⿶⿱⿰	-225
廿又	-226
白小	-227
▁也	-228
𠂆一口	-229
bd	-230
匕匕	-231
子攵	-232
丿尸斤	-233
𠂆又	-234
㐅乂子	-235
▁200	-236
一二	-237
日乚	-238
日一寸	-239
䒑土大	-240
匚㐅	-241
77	-242
弋工	-243
歹刂	-244
覀女	-245
▁“	-246
士口	-247
人丶龴	-248
土口	-249
亻寸	-250
爫冖	-251
木目	-252
▁事	-253
耂子攵	-254
冂卄	-255
⿵⿵	-256
日寸	-257
▁山	-258
亠丷一	-259
扌立	-260
▁⿰⿰	-261
▁⿰⿻	-262
▁小	-263
▁入	-264
▁口	-265
884	-266
口八	-267
口王	-268
▁世	-269
▁二	-270
▁4	-271
王里	-272
▁工	-273
▁州	-274
龶𧘇	-275
日月	-276
夕卜	-277
人王	-278
一八月	-279
冖巾	-280
尢丶	-281
コ一	-282
冂刂	-283
牛冂刂	-284
禾斗	-285
王求	-286
▁十	-287
▁5	-288
亻吏	-289
一口田	-290
▁;	-291
𠂒儿	-292
勹巳	-293
忄生	-294
丷八	-295
𠂊田灬	-296
冖车	-297
女攵	-298
立十	-299
一由八	-300
十又	-301
▁重	-302
▁⿰⿹	-303
耂日阝	-304
一巛	-305
一巛工	-306
▁发	-307
𠂒口	-308
𠂊冫寸	-309
刀口	-310
囗口	-311
尸匕	-312
一厶儿	-313
▁⿹⿶	-314
▁士	-315
▁"	-316
幺幺丱	-317
人一朩	-318
▁6	-319
▁比	-320
土土	-321
习习	-322
一八土	-323
一土	-324
▁s	-325
爫冖又	-326
糸言	-327
糸言糸	-328
小丿目	-329
匕日	-330
重力	-331
▁米	-332
⿵⿰	-333
▁目	-334
卩又	-335
艹央	-336
辶文	-337
▁⿲㇇	-338
口木	-339
王丷	-340
⿵⿱	-341
䒑土寸	-342
▁⿰⿱⿰	-343
五口	-344
又寸	-345
口丂	-346
䒑土我	-347
𠁣𠃛日	-348
丿冂口	-349
口贝	-350
辶言	-351
亻丨	-352
▁7	-353
日大	-354
▁长	-355
▁10	-356
亠丷厂	-357
▁a	-358
女口	-359
肀一	-360
⿻⿻	-361
宀八工	-362
龷八巳	-363
▁⿱⿲	-364
𠂇又	-365
⺌冖口田	-366
囗儿	-367
日生	-368
曲豆	-369
幺幺人	-370
儿丨	-371
土龰巳	-372
⿹⿶	-373
▁巴	-374
亠口小彡	-375
立日心	-376
禾女	-377
85	-378
▁⿱⿰⿴	-379
犬灬	-380
𠂊冫犬灬	-381
冎口	-382
ス工	-383
⺌冖口巾	-384
▁女	-385
戈十	-386
⿱⿱⿱	-387
▁東	-388
己攵	-389
一廾刂	-390
▁9	-391
米大	-392
入入	-393
肀一一	-394
𠂊巴	-395
一冉	-396
日一里	-397
▁来	-398
▁8	-399
⿳⿱	-400
丿冂	-401
夂⺀	-402
辶隹	-403
▁心	-404
夂力	-405
大丶	-406
日十月	-407
▁⿵⿱	-408
立女	-409
▁东	-410
釆田	-411
▁t	-412
木丶	-413
er	-414
一巾	-415
▁m	-416
隹又	-417
儿土	-418
甲一戈	-419
丷豕	-420
土儿土	-421
▁c	-422
𠂇口	-423
二厶力	-424
白水	-425
乂丶	-426
目八刂	-427
𠂉丶	-428
力八	-429
禾日	-430
00	-431
冂入	-432
▁手	-433
𫝀口	-434
▁車	-435
亠几	-436
宀丰	-437
上卜	-438
勹虫	-439
𫝀口㐄	-440
方攵	-441
勹口	-442
丿大	-443
门日	-444
in	-445
一廾彡	-446
冂人	-447
木几	-448
⿱⿰⿴	-449
▁12	-450
一业	-451
丿夫	-452
一廾刂土	-453
▁已	-454
丿囗	-455
cbb	-456
龷由八	-457
ee	-458
▁⿱⿴	-459
⿱⿲	-460
止匕二	-461
凵㐅	-462
口口隹	-463
尹口	-464
宀丰口	-465
口心	-466
丷口心	-467
火火	-468
氏丶	-469
⺌兀	-470
隹木	-471
戊一	-472
▁b	-473
or	-474
辶寸	-475
十口攵	-476
▁史	-477
辶井	-478
亠丷冖巾	-479
爫冉	-480
▁199	-481
二人	-482
丿十	-483
丶艮	-484
十豆	-485
▁f	-486
on	-487
▁车	-488
an	-489
且厶	-490
卌一	-491
𠂉卌一	-492
一𫝀	-493
▁身	-494
宀子	-495
䒑未	-496
巳巳	-497
虍几	-498
八口	-499
宀匕	-500
人彡	-501
氵工	-502
口力	-503
王见	-504
▁示	-505
礻土	-506
日乂	-507
𠂉大口	-508
⿰⿳	-509
虍豕	-510
夕寸	-511
宀示	-512
禾重	-513
糸言糸弓	-514
䒑业日	-515
禾中	-516
▁11	-517
覀示	-518
⺌月	-519
几丶	-520
ce	-521
▁⿱⿵⿱	-522
▁p	-523
癶豆	-524
丷夫	-525
𠂉丶皿	-526
氵州	-527
𠂇工	-528
口卩	-529
亻本	-530
刀丿	-531
⺌彐	-532
田一	-533
止𣥂	-534
⺊口戈	-535
ea	-536
𠂉子	-537
幺木	-538
幺白	-539
幺白幺木	-540
刀牛	-541
土羊	-542
日夂	-543
𠂉日夂	-544
𠁣𠃛柬	-545
▁h	-546
龷日	-547
▁d	-548
罒夕	-549
十口月	-550
丿囗夂	-551
丘八	-552
一厶月	-553
亠口冖	-554
𠂉十	-555
氵皮	-556
𠃌口	-557
亻言	-558
弋一止	-559
且一小	-560
コ一亅	-561
▁曲	-562
辶斤	-563
▁非	-564
丿冂米大	-565
阝人	-566
礻申	-567
丆口	-568
米女攵	-569
一白	-570
口龰	-571
戊一口	-572
亠幺	-573
凵㐅禸	-574
▁⿰⿱⿴	-575
▁又	-576
夂朩	-577
人匕	-578
⿱⿴⿱	-579
土儿土丸	-580
宀必	-581
厶厶	-582
尸禹	-583
亻牛	-584
丿囗夂心	-585
亠丷日	-586
二阝	-587
刀二阝	-588
bf	-589
▁片	-590
▁角	-591
女也	-592
心夂	-593
la	-594
木寸	-595
𠂉卌一灬	-596
亻尹	-597
▁18	-598
冖儿	-599
▁/	-600
宀必山	-601
日日	-602
▁⿳⿱	-603
人人龰	-604
歹匕	-605
日木	-606
口口犬	-607
言十	-608
▁未	-609
丩攵	-610
⿸⿴	-611
尸一口	-612
贝刂	-613
▁⿰⿱⿹	-614
土𠃓	-615
肀一一田一	-616
▁⿳⿰	-617
甫寸	-618
日罒	-619
日罒又	-620
木艮	-621
𠂊田一	-622
木子	-623
en	-624
井一八贝	-625
▁白	-626
▁⿱⿱⿰	-627
丁口欠	-628
一口𧘇	-629
纟戋	-630
立月	-631
乚丿十	-632
爫木	-633
纟且	-634
中一	-635
亠八	-636
衤刀	-637
宀八九	-638
▁15	-639
八夂	-640
8964	-641
辶大	-642
立日儿	-643
▁r	-644
身寸	-645
▁且	-646
冖儿木	-647
▁n	-648
二丨凵	-649
▁g	-650
丨丿	-651
扌丁	-652
纟及	-653
勹口攵	-654
厶厶人彡	-655
山而	-656
丷三	-657
亻门	-658
戊一女	-659
禾子	-660
土口𧘇	-661
bcb	-662
士衣	-663
口虫	-664
4⿱	-665
𠂊厂	-666
火火冖	-667
▁⿱⿶⿳⿰	-668
夕㐄	-669
▁书	-670
宀谷	-671
讠十	-672
𠃌丨	-673
刀丿心	-674
甘木	-675
雨田	-676
艹禺	-677
▁言	-678
囗丨	-679
▁广	-680
彳艮	-681
丿虫	-682
丿口	-683
口丿口	-684
▁⿰⿷	-685
▁八	-686
厂生	-687
丿七	-688
▁⿺⿻	-689
⿱⿹	-690
亻隹	-691
▁土	-692
辶束	-693
丷八十	-694
bea	-695
夂彡	-696
▁l	-697
工力	-698
8960	-699
白王	-700
田力	-701
扌隹	-702
勹冫	-703
ar	-704
又土	-705
又又	-706
口十	-707
女子	-708
⿱⿸	-709
▁⿱⿻⿱	-710
犬頁	-711
米犬頁	-712
▁16	-713
▁我	-714
夂几	-715
厶大	-716
宀头	-717
厶大彡	-718
井一冉	-719
▁i	-720
▁0	-721
山一	-722
一氺	-723
一氺丶	-724
▁瓦	-725
八乂	-726
束攵	-727
▁九	-728
宀女木	-729
雨而	-730
▁⿱⿱⿻	-731
辶車	-732
纟隹	-733
▁母	-734
▁⿱⿹	-735
肀一一日	-736
▁17	-737
白丿十	-738
革力	-739
亻白	-740
⿰⿱⿱	-741
▁己	-742
▁田	-743
且力	-744
士口冖	-745
人丶龴頁	-746
扌斤	-747
▁⿱⿺	-748
一内	-749
八人	-750
口夫	-751
辶不	-752
一厶土攵	-753
車凵	-754
工攵	-755
肀口	-756
丿𠃌刂	-757
▁194	-758
亻隹心	-759
䒑自寸	-760
上小	-761
▁w	-762
勹厶	-763
一口田刂	-764
es	-765
丿廾	-766
夂丰	-767
一尢	-768
禾乃	-769
龷八氺	-770
虍豕刂	-771
士心	-772
⿺⿱	-773
夂卜	-774
彑氺	-775
扌丸	-776
𠘧又手	-777
人㔾	-778
⺌冖口土	-779
尹口羊	-780
▁⿱⿵	-781
刀田	-782
上小又	-783
木示	-784
乛头	-785
▁⿻㇀	-786
土龰戉	-787
▁198	-788
𠂉也	-789
▁14	-790
▁⿱⿰⿱⿱	-791
▁门	-792
糸言糸攵	-793
⺌冖口黑	-794
人丶龴页	-795
⺊口灬	-796
士𠃜	-797
▁川	-798
▁195	-799
几㐅	-800
匚儿	-801
▁⿱⿰⿻	-802
囗才	-803
▁13	-804
⿱𭕄	-805
一自	-806
井一八土	-807
巳寸	-808
▁197	-809
扌非	-810
亻专	-811
耂匕	-812
牛冂刂衣	-813
犭犬	-814
阝艮	-815
▁氏	-816
▁央	-817
耂丂	-818
▁乐	-819
亻更	-820
儿言	-821
廿巾	-822
一𧘇	-823
井一𧘇	-824
豆頁	-825
田心	-826
▁⿳⿱⿻	-827
㐅朩	-828
亻象	-829
勹又	-830
ti	-831
囗丨𧰨	-832
▁⿲⿱	-833
一自夂	-834
▁乡	-835
▁甲	-836
彐心	-837
戊一口心	-838
▁才	-839
亻乃	-840
日月皿	-841
▁k	-842
立里	-843
勹口攵言	-844
▁木	-845
丿二丨	-846
刀丫	-847
一丨	-848
▁o	-849
𠂇又丶	-850
⿺⿸	-851
𠂉一	-852
木目心	-853
阝方	-854
一曲	-855
一曲日	-856
丰阝	-857
亠口子	-858
酉己	-859
土土寸	-860
▁牙	-861
▁⿱⿵⿵	-862
氵羊	-863
口耳	-864
气米	-865
氵夬	-866
▁e	-867
冖一	-868
al	-869
讠人	-870
釆大	-871
丿冂釆大	-872
亠口冖丁	-873
▁止	-874
丷酉	-875
厂力	-876
女母	-877
亠父攵	-878
⿸⿱	-879
礻见	-880
讠己	-881
纟内	-882
▁—	-883
彳聿	-884
𡗗氺	-885
冖一豕	-886
𠂇工月	-887
爿戈	-888
爿戈臣	-889
自心	-890
凵㐅禸隹	-891
亻弗	-892
囗大心	-893
艹冖	-894
夂㐄	-895
纟己	-896
扌巴	-897
▁196	-898
米斗	-899
一兀寸	-900
▁193	-901
广隶	-902
扌比	-903
▁for	-904
▁j	-905
cbd	-906
辶由	-907
尸一口刂	-908
▁30	-909
亻我	-910
龶糸	-911
厶虫	-912
龵目	-913
冂儿	-914
冂一	-915
厶八夂	-916
阝日	-917
羊目	-918
▁革	-919
is	-920
弓长	-921
▁承	-922
十冖	-923
十冖糸	-924
比白	-925
礻且	-926
⿰⿹	-927
目廾	-928
䒑山	-929
丨丨比	-930
宀寸	-931
卅冖巾	-932
彐氺	-933
▁专	-934
𠂊冫寸犬	-935
mu	-936
▁_	-937
力力	-938
▁21	-939
▁⿱⿳𭕄	-940
▁z	-941
言己	-942
辶艮	-943
尸口	-944
阝示	-945
氵隹	-946
辶车	-947
白巾	-948
口力刂	-949
氵又	-950
le	-951
禾禾	-952
禾禾止	-953
𠂇厶	-954
户方	-955
一龰頁	-956
艹田	-957
上小又目	-958
爿士衣	-959
𠃊米	-960
七刀	-961
亡月	-962
亻衣	-963
冫欠贝	-964
亡月王	-965
𠂊田灬禾	-966
刀口灬	-967
爫一	-968
8⿷	-969
木又	-970
车专	-971
冫夬	-972
he	-973
𠘧口	-974
丿大口	-975
▁v	-976
口龶	-977
二乚	-978
斤斤	-979
de	-980
䒑亡	-981
𠃊人	-982
▁2010	-983
mula	-984
▁25	-985
立十力	-986
⿱⿵⿱	-987
▁formula	-988
冖方	-989
亠丷冖方	-990
日比	-991
▁2009	-992
▁丹	-993
𠂊亅	-994
口又	-995
冂二	-996
𠂉一乁	-997
⺆冫攵	-998
▁永	-999
口木土	-1000
ro	-1001
阝東	-1002
一亅	-1003
忄夬	-1004
虍豆	-1005
虍豆戈	-1006
▁192	-1007
人一口手	-1008
口又一	-1009
石皮	-1010
耳口王	-1011
口口欠	-1012
un	-1013
it	-1014
一生	-1015
臼儿	-1016
▁2011	-1017
白方攵	-1018
𠂇火	-1019
𠁣𠃛口	-1020
宀八犬	-1021
夂丶	-1022
尹口阝	-1023
人㔾刂	-1024
亻以	-1025
女又	-1026
冫隹	-1027
艹来	-1028
戈刂	-1029
▁皮	-1030
罒乑	-1031
谷卩	-1032
中一贝	-1033
心丿	-1034
工頁	-1035
世木	-1036
一丂	-1037
丷夫㔾	-1038
⺄十	-1039
里予	-1040
十口刂	-1041
耳阝	-1042
㐅㐅	-1043
夫见	-1044
000	-1045
䒑土永	-1046
⿱⿺	-1047
el	-1048
𡗗日	-1049
コ又	-1050
▁久	-1051
ic	-1052
46	-1053
at	-1054
冂丶	-1055
us	-1056
厂干	-1057
扌户	-1058
▁头	-1059
龴疋	-1060
力口木	-1061
▁co	-1062
宀八方	-1063
隹口	-1064
▁飛	-1065
丬士衣	-1066
戈戈	-1067
▁2012	-1068
几攵	-1069
山一几攵	-1070
亠𠃊	-1071
▁22	-1072
コ一女	-1073
二丨刂	-1074
▁⿻⿺	-1075
尢丶丿	-1076
土儿土丸灬	-1077
▁2013	-1078
⿸⿸	-1079
十豆口	-1080
艹乂	-1081
亠丷厂生	-1082
十贝	-1083
土八夂	-1084
▁2016	-1085
⿸⿱⿱	-1086
氵由	-1087
il	-1088
一龰页	-1089
𠂇厶隹	-1090
冖𧘇	-1091
勹缶	-1092
5⿱	-1093
𠂊田一日	-1094
人氺	-1095
口寸	-1096
门口	-1097
▁2014	-1098
宀丁	-1099
𠂉大豆	-1100
勹灬	-1101
𠃌丨一	-1102
ur	-1103
df	-1104
▁2015	-1105
▁2008	-1106
工页	-1107
隹隹又	-1108
▁24	-1109
竹朿	-1110
王王	-1111
▁zh	-1112
𠂉乙	-1113
又戈	-1114
屯頁	-1115
▁23	-1116
𠘧又耳	-1117
辶豕	-1118
am	-1119
木羊	-1120
▁191	-1121
广予	-1122
87	-1123
巾白	-1124
䒑口	-1125
羊䒑口	-1126
王不	-1127
又见	-1128
▁⿰⿳⿱⿻	-1129
肀一一田一刂	-1130
艹非	-1131
氏日	-1132
丬夕	-1133
木木手	-1134
▁2001	-1135
口止巨	-1136
广土	-1137
丿皿	-1138
氵酉	-1139
▁⿱⿸	-1140
▁束	-1141
▁}	-1142
▁{	-1143
牙隹	-1144
亻十	-1145
匚㐅欠	-1146
▁the	-1147
st	-1148
▁末	-1149
宀木	-1150
辶力	-1151
𠂊彐心	-1152
幺大	-1153
▁干	-1154
氵㔾	-1155
⿰⿻	-1156
et	-1157
戊一𣥂	-1158
龶贝	-1159
口口木	-1160
▁2017	-1161
幺幺灬	-1162
丷夫力	-1163
士示	-1164
▁2007	-1165
目八攵	-1166
氵隹十	-1167
纟工	-1168
▁!	-1169
丿之	-1170
士示欠	-1171
▁⿰⿵	-1172
夂田	-1173
人人十	-1174
▁⿱⿰⿷	-1175
羊工	-1176
弓冫	-1177
𠘧又酉	-1178
彐冖巾	-1179
冖隹	-1180
尸毛	-1181
𠂉巾	-1182
囗人	-1183
夫夫	-1184
丰丰	-1185
𠂊田灬日	-1186
丬夕大	-1187
氵聿	-1188
乛耳	-1189
乛耳攵	-1190
夫夫日	-1191
冂㐅	-1192
衤里	-1193
ch	-1194
扌白	-1195
▁2018	-1196
彡頁	-1197
䒑八	-1198
䒑八皿	-1199
户口	-1200
▁见	-1201
金艮	-1202
▁2006	-1203
日小	-1204
車斤	-1205
辶𠂤	-1206
爫子	-1207
广车	-1208
习习白	-1209
丿乚	-1210
▁26	-1211
𠂊贝	-1212
爿犬	-1213
ing	-1214
一厶月攵	-1215
▁臣	-1216
金刂	-1217
▁尺	-1218
木土	-1219
刀金刂	-1220
囗韦	-1221
▁100	-1222
口虫隹	-1223
米女	-1224
895	-1225
▁朱	-1226
扌丸灬	-1227
勹丿	-1228
凵土	-1229
幺幺灬頁	-1230
𠂉母攵	-1231
▁⿹⿻	-1232
歹刂灬	-1233
大口	-1234
𠃑大口	-1235
丷干丸	-1236
▁贝	-1237
▁⿸⿱	-1238
匕月	-1239
⿱⿱⿻	-1240
刀丿丶	-1241
▁31	-1242
口夫隹	-1243
▁st	-1244
▁28	-1245
乡隹	-1246
罒非	-1247
人止	-1248
▁27	-1249
亻二	-1250
大丷	-1251
▁⿱⿰⿸	-1252
王丶	-1253
刀丿丶木	-1254
大丷日小	-1255
几口	-1256
一彑	-1257
戊𠃌皿	-1258
求攵	-1259
艹乙	-1260
予頁	-1261
犭虫	-1262
囗人皿	-1263
亠口子攵	-1264
戈十車	-1265
▁2005	-1266
田皿	-1267
tion	-1268
as	-1269
▁几	-1270
禾必	-1271
舟见	-1272
ol	-1273
▁谷	-1274
文刂	-1275
▁牛	-1276
人人夂	-1277
⿰⿸	-1278
凵田	-1279
日央	-1280
一𣥂	-1281
土止	-1282
⿴⿱	-1283
尸由	-1284
▁in	-1285
▁飞	-1286
匕匕心	-1287
日业	-1288
一乚丿	-1289
一乚丿兀	-1290
土皮	-1291
冂二月	-1292
冂二月犬	-1293
⿰⿱⿵	-1294
▁x	-1295
𠂉大口日	-1296
日皿	-1297
▁29	-1298
土儿土丸力	-1299
木才	-1300
▁an	-1301
ow	-1302
弗贝	-1303
木木示	-1304
▁2000	-1305
耳又乑	-1306
阝东	-1307
⿳⿻	-1308
冖又	-1309
コ一冖又	-1310
亻又	-1311
一丰	-1312
▁>	-1313
子小	-1314
口口口	-1315
辶巛	-1316
ed	-1317
人人一	-1318
月月	-1319
𠂉疋	-1320
⿱⿻⿻	-1321
▁巨	-1322
木及	-1323
ra	-1324
几丶木	-1325
▁<	-1326
▁190	-1327
八大	-1328
冂八大	-1329
雨隹	-1330
白小彡	-1331
山夕	-1332
丷酉寸	-1333
丨又	-1334
臼丨又	-1335
▁u	-1336
冫水	-1337
土土兀	-1338
▁50	-1339
冂二月犬土	-1340
口止艮	-1341
屯页	-1342
夫丷	-1343
木木疋	-1344
ig	-1345
▁2019	-1346
广車	-1347
𠃋丿人刂	-1348
朿刂	-1349
又隹	-1350
▁ch	-1351
口及	-1352
辶禺	-1353
目艮	-1354
爫罒	-1355
日大巾	-1356
干刂	-1357
𠂊厂㔾	-1358
ent	-1359
𠁣𠃛耳	-1360
亻木	-1361
雨彐	-1362
扌戈	-1363
冖几	-1364
王缶	-1365
禾厶	-1366
宀于	-1367
石角	-1368
禾火	-1369
木斤	-1370
冂口攵	-1371
▁2004	-1372
▁of	-1373
不口	-1374
ir	-1375
丶尸	-1376
os	-1377
辶兆	-1378
▁ca	-1379
十廾	-1380
龶母	-1381
▁y	-1382
犭㔾	-1383
田糸	-1384
宀且	-1385
▁耳	-1386
耳耳	-1387
耂匕日	-1388
▁斗	-1389
口隹	-1390
戈廾	-1391
▁⿰⿱⿺	-1392
幺幺斤	-1393
扌甫	-1394
弋丿	-1395
乛工	-1396
乛工一	-1397
士乛工一	-1398
艹两	-1399
山石	-1400
丬犬	-1401
丰寸	-1402
▁40	-1403
木木鬼	-1404
𠂒口非	-1405
木隹	-1406
夕㔾	-1407
𩰋𩰊	-1408
艹重	-1409
8977	-1410
車㔾	-1411
缶夬	-1412
钅艮	-1413
宀八牙	-1414
▁'	-1415
山隹	-1416
▁000	-1417
▁乎	-1418
广大	-1419
中心	-1420
艹隹	-1421
▁|	-1422
艹隹臼	-1423
讠上	-1424
止月	-1425
▁br	-1426
厶又	-1427
爫龴	-1428
▁申	-1429
ac	-1430
大丶心	-1431
戈十车	-1432
子皿	-1433
辶白	-1434
彑𧰨	-1435
十豆寸	-1436
辶米	-1437
𠃌冫	-1438
又又木	-1439
臣又	-1440
勹臼	-1441
om	-1442
女生	-1443
ia	-1444
䒑夫	-1445
口乎	-1446
丷酉大	-1447
id	-1448
阝車	-1449
刀巴	-1450
木白	-1451
冂大	-1452
𠂊冂大	-1453
土丶	-1454
爫缶	-1455
▁2003	-1456
大隹	-1457
▁=	-1458
子乚	-1459
氵气	-1460
火乍	-1461
⺊尸	-1462
比十	-1463
日十韦	-1464
禾女鬼	-1465
止𣥂頁	-1466
夕㐄木	-1467
囗㐅	-1468
丿囗㐅	-1469
勹日	-1470
氵甫	-1471
一丨虫	-1472
▁⿰⿳⿱	-1473
𠂤止	-1474
⿰⿵	-1475
▁厂	-1476
女又力	-1477
月生	-1478
车斤	-1479
土厶卩	-1480
黑犬	-1481
厂㔾	-1482
𡗗禾	-1483
川頁	-1484
▁甘	-1485
丷夫氺	-1486
ut	-1487
丰丰豆	-1488
纟田	-1489
20	-1490
火火冖木	-1491
▁2002	-1492
土攵	-1493
丿土攵	-1494
户隹	-1495
ot	-1496
贝攵	-1497
日大土	-1498
宀玉	-1499
▁⿰⿺	-1500
𠃊米斤	-1501
习习隹	-1502
亡口	-1503
亠口冖豕	-1504
大镸	-1505
亠𧘇	-1506
予页	-1507
⿷⿱	-1508
木灬	-1509
㡀攵	-1510
户口攵	-1511
戈十衣	-1512
亻戈	-1513
隹灬	-1514
▁肉	-1515
黑土	-1516
亠口冖毛	-1517
丨丿彐	-1518
木𠃓	-1519
扌乚	-1520
厂丁	-1521
止𣥂页	-1522
氵九	-1523
氵九木	-1524
▁井	-1525
人人木隹	-1526
十目	-1527
口丩	-1528
阝且	-1529
田月	-1530
im	-1531
ec	-1532
▁al	-1533
扌疌	-1534
大隹寸	-1535
山豆	-1536
王朱	-1537
扌斤口	-1538
心皿	-1539
心皿丁	-1540
凵丨月	-1541
彡页	-1542
门耳	-1543
亠口冖几	-1544
勹甫	-1545
氵也	-1546
▁35	-1547
几丶心	-1548
气羊	-1549
um	-1550
土厶皿	-1551
爫木彡	-1552
亻五	-1553
亻山	-1554
言川	-1555
口未	-1556
火火冖力	-1557
𠂊田一羊	-1558
亠口子阝	-1559
爫工	-1560
爫工彐心	-1561
丷酉大阝	-1562
戈十隹	-1563
▁]	-1564
em	-1565
艹冖力	-1566
扌丸力	-1567
▁60	-1568
女未	-1569
一田	-1570
一田一	-1571
⺌冖口手	-1572
肀一灬	-1573
肀一灬皿	-1574
十豆彡	-1575
▁[	-1576
䒑土食	-1577
王王必	-1578
亻谷	-1579
丨日	-1580
iv	-1581
石更	-1582
龶夂	-1583
大示	-1584
幺力	-1585
礻乚	-1586
丁頁	-1587
果页	-1588
亚日	-1589
田丁	-1590
禾且	-1591
不皿	-1592
糸攵	-1593
山一糸攵	-1594
𠂉母攵糸	-1595
▁ma	-1596
目八才	-1597
衤甫	-1598
▁han	-1599
囗木	-1600
▁⿺⿵	-1601
山豆几	-1602
𠂊田灬羊	-1603
〢又	-1604
▁乙	-1605
▁1999	-1606
䒑土皿	-1607
覀大	-1608
覀大巳	-1609
尸示	-1610
尸示寸	-1611
言寸	-1612
亠口了	-1613
▁1990	-1614
疋虫	-1615
辶千	-1616
九朩	-1617
耂子	-1618
ter	-1619
oo	-1620
川页	-1621
二丨力	-1622
扌巨	-1623
中一㠯	-1624
50	-1625
丿巾	-1626
𠄎丿	-1627
歹刂衣	-1628
尺⺀	-1629
▁?	-1630
丰刀	-1631
木示隶	-1632
▁1998	-1633
串心	-1634
囗禾	-1635
言方	-1636
亻乙	-1637
⿱⿰⿱	-1638
车九	-1639
爿士	-1640
山己	-1641
車欠	-1642
一日	-1643
厶厶一日	-1644
巳廾	-1645
彐火	-1646
▁韦	-1647
歺又	-1648
𠂉力	-1649
亻禺	-1650
▁la	-1651
丁页	-1652
日土	-1653
▁32	-1654
▁80	-1655
乚丿贝	-1656
▁⿱⿰⿳	-1657
土丷	-1658
㇇⿱	-1659
口口隹欠	-1660
⿴⿰	-1661
日干	-1662
▁and	-1663
ul	-1664
彳皮	-1665
纟丑	-1666
ad	-1667
冫中	-1668
▁1997	-1669
ri	-1670
牛攵	-1671
夕㐄阝	-1672
乛水	-1673
乛水一	-1674
土甫	-1675
贝才	-1676
and	-1677
艹罒	-1678
▁丘	-1679
op	-1680
三丨	-1681
𠂉一罒	-1682
▁00	-1683
10	-1684
厶儿	-1685
ation	-1686
扌广	-1687
冖木	-1688
纟东	-1689
▁189	-1690
弓土	-1691
立十土	-1692
彳重	-1693
宀申	-1694
土龰㐅	-1695
亠口子丸	-1696
▁1980	-1697
言果	-1698
▁36	-1699
▁45	-1700
歹匕廾	-1701
車九	-1702
木兆	-1703
巳灬	-1704
𦣞巳灬	-1705
▁70	-1706
𠂊田大	-1707
氵干	-1708
ay	-1709
亻子	-1710
歹朱	-1711
氵冘	-1712
扌斥	-1713
言丁	-1714
木不	-1715
30	-1716
th	-1717
艹人	-1718
艹人朩	-1719
镸彡	-1720
山己几	-1721
▁ar	-1722
讠井	-1723
▁+	-1724
⿳⿳	-1725
厶又乚	-1726
言斥	-1727
口月	-1728
夂口頁	-1729
19	-1730
▁de	-1731
▁90	-1732
一丨犬	-1733
土龰卜	-1734
冂二目	-1735
止匕糸	-1736
ers	-1737
幺𠃌	-1738
歺又食	-1739
工贝	-1740
日子	-1741
口巴	-1742
▁1996	-1743
艹见	-1744
户隹頁	-1745
𠘧又皿	-1746
臣又土	-1747
扌兆	-1748
目儿丶	-1749
十冖子	-1750
幺幺心	-1751
钅中	-1752
40	-1753
▁500	-1754
ag	-1755
礻羊	-1756
车欠	-1757
阝车	-1758
戊一火	-1759
爫臼	-1760
▁1994	-1761
㡀攵巾	-1762
丿厶	-1763
女且	-1764
▁33	-1765
讠方	-1766
又丶	-1767
ie	-1768
▁1995	-1769
48	-1770
工口寸	-1771
虫虫	-1772
丷干犬	-1773
止匕木	-1774
白小頁	-1775
▁sa	-1776
䒑山刂	-1777
亻犬	-1778
亠口子丸灬	-1779
▁th	-1780
讠川	-1781
广由	-1782
ub	-1783
小大	-1784
衤卜	-1785
木攵	-1786
丶丶	-1787
丶丶丶	-1788
口止兆	-1789
木卯	-1790
▁』	-1791
▁『	-1792
辶了	-1793
oc	-1794
匕口	-1795
匕口灬	-1796
艹罒冖	-1797
夂口页	-1798
亻申	-1799
▁187	-1800
▁1993	-1801
▁1992	-1802
▁com	-1803
大电	-1804
罒心	-1805
宀丰罒心	-1806
𠃌丿	-1807
千口攵	-1808
一大阝	-1809
▁瓜	-1810
▁188	-1811
钅戋	-1812
土口隹	-1813
▁186	-1814
ov	-1815
车两	-1816
▁tw	-1817
▁sh	-1818
▁un	-1819
▁1991	-1820
80	-1821
日大㣺	-1822
田一口	-1823
口龶力	-1824
臼工	-1825
龙衣	-1826
八刀頁	-1827
▁to	-1828
𠂒儿贝	-1829
艹罒冖夕	-1830
一史	-1831
氵白	-1832
ind	-1833
車甫	-1834
▁1950	-1835
▁re	-1836
革月	-1837
大寸	-1838
米立	-1839
丨丨一	-1840
▁37	-1841
▁q	-1842
千口乚	-1843
丰阝巾	-1844
8959	-1845
土欠	-1846
丿田	-1847
儿厶	-1848
冖儿干	-1849
11	-1850
匕匕灬	-1851
田田	-1852
▁1970	-1853
▁1949	-1854
氵匚	-1855
王白	-1856
日王	-1857
▁34	-1858
▁sp	-1859
牛也	-1860
凵乚	-1861
凵丨欠	-1862
▁隶	-1863
ard	-1864
金十	-1865
冖见	-1866
廿木	-1867
艹方	-1868
li	-1869
ta	-1870
十冖子力	-1871
忄不	-1872
人人刂	-1873
12	-1874
弓厶	-1875
na	-1876
人干	-1877
▁1988	-1878
勹口攵手	-1879
艹之	-1880
ang	-1881
▁39	-1882
广发	-1883
臣又糸	-1884
re	-1885
▁1989	-1886
臼土	-1887
扌石	-1888
木木幺	-1889
▁hk	-1890
爫子乚	-1891
木彡	-1892
▁on	-1893
土夬	-1894
▁185	-1895
ba	-1896
di	-1897
亻中	-1898
▁300	-1899
▁hans	-1900
▁1945	-1901
▁mar	-1902
25	-1903
灬史	-1904
千臼	-1905
▁1960	-1906
𠂉丶见	-1907
丰刀大	-1908
og	-1909
▁col	-1910
丰丰彐心	-1911
車斤日	-1912
王文	-1913
讠寸	-1914
矛木	-1915
石广	-1916
廿灬	-1917
旡旡	-1918
ine	-1919
▁pro	-1920
旡旡日	-1921
土川	-1922
ik	-1923
▁is	-1924
ph	-1925
▁豆	-1926
凵丨月土	-1927
▁⿳⿳	-1928
21	-1929
竹聿	-1930
勹田	-1931
〢又土	-1932
av	-1933
禾禾日	-1934
一火	-1935
▁1985	-1936
▁55	-1937
谷欠	-1938
王皮	-1939
又欠	-1940
糸言糸心	-1941
疒了	-1942
pp	-1943
▁38	-1944
讠斥	-1945
⺊贝	-1946
戈𠂇	-1947
王文王	-1948
▁mo	-1949
▁1986	-1950
斤欠	-1951
舟皿	-1952
冖牛	-1953
氵永	-1954
▁46	-1955
土方	-1956
口斤	-1957
果頁	-1958
15	-1959
▁1987	-1960
衤由	-1961
宀由	-1962
▁1984	-1963
人丶龴阝	-1964
est	-1965
扌𠃓	-1966
阝月	-1967
ion	-1968
白小心	-1969
工丂	-1970
口一𧘇	-1971
女己	-1972
冂㐅刂	-1973
千口予	-1974
厂㔾页	-1975
▁⿱⿴⿱	-1976
土鬼	-1977
ows	-1978
亠父阝	-1979
土不	-1980
车由	-1981
亻方	-1982
ou	-1983
刀贝	-1984
艹戊	-1985
丿丨刂	-1986
〢又糸	-1987
▁ne	-1988
丘山	-1989
▁43	-1990
▁42	-1991
te	-1992
16	-1993
ess	-1994
▁⿻⿱	-1995
口口丨	-1996
钅十	-1997
日十彡	-1998
▁1982	-1999
ss	-2000
犭言	-2001
犭言犬	-2002
厂里	-2003
土卜	-2004
土卜皿	-2005
▁1983	-2006
▁am	-2007
▁75	-2008
▁47	-2009
𠁣𠃛才	-2010
und	-2011
匕刂	-2012
讠丁	-2013
广木	-2014
17	-2015
忄隹	-2016
▁%	-2017
一八言	-2018
ts	-2019
丷夫刀	-2020
匕頁	-2021
▁or	-2022
▁wind	-2023
45	-2024
大弓	-2025
丷夫手	-2026
▁65	-2027
业䒑夫	-2028
13	-2029
ccdp	-2030
丿言	-2031
▁49	-2032
▁hd	-2033
衤谷	-2034
厂彡頁	-2035
ver	-2036
47	-2037
虍业	-2038
犭火	-2039
ber	-2040
▁fr	-2041
讠果	-2042
氵𠃓	-2043
覀土	-2044
彳氵	-2045
月巴	-2046
60	-2047
犭王	-2048
ly	-2049
▁丈	-2050
几又	-2051
宀丰口刂	-2052
up	-2053
毌贝	-2054
女又心	-2055
▁con	-2056
屯阝	-2057
35	-2058
▁1979	-2059
巛火	-2060
亚心	-2061
▁150	-2062
井一八木	-2063
22	-2064
▁ro	-2065
ap	-2066
彐寸	-2067
⿶⿳⿰	-2068
▁虫	-2069
▁⿻⿵	-2070
扌由	-2071
▁400	-2072
sp	-2073
▁册	-2074
▁1978	-2075
女彐	-2076
▁windows	-2077
由丂	-2078
▁卜	-2079
釆心	-2080
白儿	-2081
37	-2082
18	-2083
876	-2084
王册	-2085
▁en	-2086
由阝	-2087
田一口犬	-2088
辶万	-2089
▁⿰⿱⿱⿱⿰	-2090
口口田一口犬	-2091
𠂊田灬里	-2092
igh	-2093
子瓜	-2094
42	-2095
巛果	-2096
人一朩斗	-2097
▁180	-2098
ip	-2099
门才	-2100
▁ii	-2101
口内	-2102
目八女	-2103
虍心	-2104
▁48	-2105
ak	-2106
ge	-2107
▁le	-2108
一厶廾	-2109
戈十木	-2110
▁1981	-2111
耒毛	-2112
几木	-2113
月贝	-2114
勹米	-2115
卩丶	-2116
𠂎丶	-2117
米且	-2118
土土卜	-2119
爫女	-2120
▁jo	-2121
14	-2122
▁⿰⿱⿻	-2123
纟氏	-2124
90	-2125
▁肃	-2126
23	-2127
▁tr	-2128
ell	-2129
ack	-2130
▁1946	-2131
ue	-2132
ist	-2133
一刂	-2134
丿𠃌攵	-2135
ity	-2136
月永	-2137
氵皮女	-2138
▁at	-2139
ica	-2140
▁1958	-2141
27	-2142
od	-2143
▁⿰⿸⿸	-2144
ab	-2145
▁te	-2146
26	-2147
竹毛	-2148
井一八⺀	-2149
𠂉大巨	-2150
𠃊人欠	-2151
束刂	-2152
ich	-2153
人一朩又	-2154
扌以	-2155
习习立	-2156
if	-2157
匚王	-2158
宀火	-2159
二厶鬼	-2160
丶丶丶皿	-2161
非一	-2162
口口山	-2163
▁64	-2164
尸巾	-2165
尸巾刂	-2166
艹肅	-2167
▁1920	-2168
车甫	-2169
扌夫	-2170
日女	-2171
▁44	-2172
丷八月	-2173
24	-2174
口土	-2175
▁57	-2176
36	-2177
土隹	-2178
uc	-2179
▁56	-2180
歹戋	-2181
一大㣺	-2182
木木石	-2183
ong	-2184
▁85	-2185
▁1930	-2186
ear	-2187
▁ex	-2188
ey	-2189
▁1948	-2190
▁1940	-2191
29	-2192
冖且	-2193
亠幺田	-2194
lay	-2195
▁1975	-2196
扌甲	-2197
▁ph	-2198
bo	-2199
匕页	-2200
又阝	-2201
▁寸	-2202
⿱⿱⿰	-2203
▁66	-2204
▁1937	-2205
ill	-2206
女兆	-2207
辶隶	-2208
垂阝	-2209
礻巳	-2210
𠃜目	-2211
氵王	-2212
▁⿰⿸⿱⿱	-2213
女𦣞	-2214
灬心	-2215
▁120	-2216
28	-2217
▁so	-2218
車由	-2219
犭讠	-2220
犭讠犬	-2221
▁1956	-2222
癶豆阝	-2223
▁ad	-2224
虫朱	-2225
▁兆	-2226
all	-2227
小隹	-2228
艹亡	-2229
𠂊丶	-2230
▁1947	-2231
𠂤十	-2232
ry	-2233
▁par	-2234
33	-2235
𠂊彐	-2236
乛水一灬	-2237
▁pr	-2238
言羊	-2239
亻九	-2240
▁1000	-2241
▁1941	-2242
⺊又	-2243
覀贝	-2244
朿朿	-2245
▁1976	-2246
亻寸肉	-2247
38	-2248
ma	-2249
sh	-2250
39	-2251
木乚	-2252
丷八牛	-2253
▁⿰⿴	-2254
车斤日	-2255
ian	-2256
▁1973	-2257
厂万	-2258
角虫	-2259
土厶力	-2260
ve	-2261
纟屯	-2262
▁1972	-2263
▁bo	-2264
丿二丨刂	-2265
氵欠	-2266
亠丷厂彡页	-2267
▁1966	-2268
▁1955	-2269
▁76	-2270
彳钅	-2271
口贝力	-2272
▁1952	-2273
▁cn	-2274
艹肃	-2275
70	-2276
月刂心	-2277
io	-2278
車車	-2279
木木夕	-2280
竹龙	-2281
49	-2282
32	-2283
▁犬	-2284
八刀页	-2285
丿丿心	-2286
▁600	-2287
人一朩攵	-2288
▁59	-2289
肀月	-2290
止匕角	-2291
▁1974	-2292
釆丂	-2293
丿囗釆丂	-2294
⿹⿻⿱	-2295
大冖牛	-2296
▁1977	-2297
bs	-2298
非心	-2299
▁1968	-2300
ff	-2301
▁ac	-2302
忄亡	-2303
⿹⿱	-2304
乛亅丿	-2305
44	-2306
女乃	-2307
man	-2308
▁1954	-2309
86	-2310
se	-2311
▁頁	-2312
ft	-2313
▁95	-2314
▁77	-2315
▁1938	-2316
▁1965	-2317
▁1964	-2318
▁1939	-2319
彳金	-2320
ord	-2321
火丁	-2322
34	-2323
月几	-2324
▁800	-2325
亻韦	-2326
▁1944	-2327
田田土	-2328
▁1971	-2329
enter	-2330
木朱	-2331
▁179	-2332
▁1959	-2333
氵欠皿	-2334
十廾贝	-2335
田比	-2336
▁gr	-2337
▁jr	-2338
八口𧘇	-2339
牙阝	-2340
ign	-2341
亠里	-2342
亠里𧘇	-2343
▁1969	-2344
亻弋衣	-2345
覀木	-2346
▁yo	-2347
▁1957	-2348
口欠	-2349
王白石	-2350
▁cd	-2351
31	-2352
忄白	-2353
讠内	-2354
▁99	-2355
一中	-2356
一中冖	-2357
ud	-2358
▁1942	-2359
▁1967	-2360
⿱⿵	-2361
75	-2362
十月	-2363
十月丶	-2364
▁sc	-2365
tic	-2366
▁58	-2367
▁nba	-2368
ice	-2369
▁88	-2370
又丶虫	-2371
▁1953	-2372
one	-2373
ps	-2374
石页	-2375
艹禺力	-2376
亻丨攵	-2377
▁⿳⿻	-2378
口屯	-2379
冫欠口	-2380
▁⿻⿻	-2381
コ一丿	-2382
非文	-2383
月刂刀	-2384
乃子	-2385
氵丁	-2386
宀禺	-2387
䒑土女	-2388
▁41	-2389
▁1961	-2390
一丂阝	-2391
八刀皿	-2392
ive	-2393
扌爪	-2394
木卜	-2395
▁1935	-2396
氵中	-2397
九丶	-2398
言刂	-2399
龷八㣺	-2400
▁69	-2401
▁1962	-2402
▁1963	-2403
41	-2404
虫工	-2405
▁1943	-2406
▁as	-2407
▁1936	-2408
㐅乂木	-2409
▁丑	-2410
予象	-2411
㐅乂木大	-2412
土里	-2413
ace	-2414
43	-2415
▁51	-2416
ug	-2417
士冖	-2418
立𧰨	-2419
ate	-2420
▁1951	-2421
⿰⿰	-2422
鬼斗	-2423
▁me	-2424
qu	-2425
▁wh	-2426
▁160	-2427
亻火	-2428
石頁	-2429
▁52	-2430
ith	-2431
止匕隹	-2432
辶韦	-2433
氵女	-2434
ty	-2435
▁goo	-2436
力力月	-2437
艹矛	-2438
扌口	-2439
立十言	-2440
▁sm	-2441
▁se	-2442
日大力	-2443
目隹	-2444
刀牛虫	-2445
一大口	-2446
▁tv	-2447
▁ng	-2448
宀八乙	-2449
▁cr	-2450
金重	-2451
扌皮	-2452
ore	-2453
pe	-2454
ton	-2455
ne	-2456
耒井	-2457
丰刀糸	-2458
艹本	-2459
门王	-2460
纟文	-2461
▁1933	-2462
65	-2463
▁op	-2464
匚儿力	-2465
ect	-2466
▁2020	-2467
⺌月刂	-2468
▁1927	-2469
宀必虫	-2470
亻士	-2471
▁67	-2472
而寸	-2473
一廾瓦	-2474
幺大隹	-2475
亡心	-2476
ock	-2477
▁177	-2478
土贝	-2479
▁舟	-2480
ah	-2481
▁1928	-2482
ant	-2483
ix	-2484
丬士	-2485
讠羊	-2486
䒑土灬	-2487
氵巨	-2488
氵巨木	-2489
▁it	-2490
斤丶	-2491
son	-2492
▁be	-2493
▁54	-2494
水日	-2495
▁1931	-2496
▁bl	-2497
▁79	-2498
〢又贝	-2499
eam	-2500
丘阝	-2501
▁1932	-2502
▁sch	-2503
▁68	-2504
户攵	-2505
ux	-2506
end	-2507
▁ed	-2508
𠁣𠃛王	-2509
▁页	-2510
▁id	-2511
▁ap	-2512
▁97	-2513
钅甫	-2514
▁1934	-2515
口非	-2516
尸水	-2517
▁play	-2518
▁sy	-2519
▁dv	-2520
▁cl	-2521
ens	-2522
▁96	-2523
ib	-2524
ga	-2525
宀八乍	-2526
gle	-2527
且厶心	-2528
▁car	-2529
ment	-2530
▁inter	-2531
▁hant	-2532
⺌贝	-2533
刀口阝	-2534
▁gam	-2535
▁ra	-2536
▁pa	-2537
ook	-2538
▁53	-2539
▁lin	-2540
目目隹	-2541
千口甘	-2542
亠丷厂彡	-2543
56	-2544
ond	-2545
禾刂木	-2546
▁1929	-2547
ight	-2548
▁dr	-2549
▁110	-2550
丿糸心	-2551
亠田	-2552
ina	-2553
▁⿱⿰⿱⿴	-2554
mp	-2555
厂万力	-2556
乃又	-2557
乃又皿	-2558
尸雨	-2559
▁⿸⿱⿱	-2560
int	-2561
目垂	-2562
ick	-2563
▁we	-2564
コ一人	-2565
hn	-2566
▁700	-2567
▁86	-2568
⺌冖口贝	-2569
ern	-2570
▁ht	-2571
83	-2572
𠂉丶金	-2573
▁us	-2574
氵户	-2575
ke	-2576
钅欠	-2577
▁man	-2578
𠁣𠃛虫	-2579
士冖豆	-2580
卩示	-2581
ii	-2582
扌斤言	-2583
▁弓	-2584
▁89	-2585
▁1912	-2586
木干	-2587
冫欠瓦	-2588
金欠	-2589
讠刂	-2590
丿木	-2591
力口贝	-2592
▁87	-2593
𠂤巾	-2594
▁ak	-2595
▁hr	-2596
ll	-2597
ort	-2598
▁my	-2599
▁no	-2600
乀丿口	-2601
▁72	-2602
▁new	-2603
丨丿巾	-2604
82	-2605
亻丨攵心	-2606
▁⿱⿰⿰	-2607
王廾	-2608
ld	-2609
冫欠女	-2610
忄乙	-2611
▁130	-2612
贝贝	-2613
不一	-2614
▁mus	-2615
▁dvd	-2616
▁140	-2617
ance	-2618
ory	-2619
▁爪	-2620
耳又女	-2621
立十月	-2622
▁1925	-2623
自犬	-2624
尸示寸心	-2625
ung	-2626
yle	-2627
▁柬	-2628
▁wor	-2629
▁1924	-2630
81	-2631
▁1919	-2632
99	-2633
饣欠	-2634
▁1918	-2635
▁qu	-2636
匚一	-2637
𠘧又糸	-2638
牛生	-2639
匕禾	-2640
口尺	-2641
忄艮	-2642
ure	-2643
▁google	-2644
84	-2645
▁mon	-2646
月干	-2647
▁1926	-2648
so	-2649
▁mv	-2650
ai	-2651
⿻⿱	-2652
口巾	-2653
55	-2654
月力	-2655
tv	-2656
户月	-2657
▁250	-2658
月非	-2659
▁ip	-2660
厂彡	-2661
62	-2662
扌丑	-2663
小丿力	-2664
▁170	-2665
广比	-2666
▁1922	-2667
▁ge	-2668
亠口𧘇	-2669
礻斤	-2670
lo	-2671
53	-2672
xt	-2673
氵文	-2674
co	-2675
▁ho	-2676
▁1914	-2677
▁63	-2678
戊丶	-2679
▁center	-2680
丿士几	-2681
▁62	-2682
95	-2683
tr	-2684
𠁣𠃛人	-2685
目大	-2686
竹目大	-2687
▁61	-2688
mm	-2689
皮頁	-2690
iss	-2691
人目	-2692
冂一八	-2693
贝贝女	-2694
八刀贝	-2695
1900	-2696
iz	-2697
己心	-2698
57	-2699
▁sao	-2700
衤果	-2701
▁⿸⿸⿸	-2702
ck	-2703
立十讠	-2704
冫欠皿	-2705
▁1913	-2706
▁166	-2707
八厶𧘇	-2708
▁john	-2709
乍心	-2710
59	-2711
ube	-2712
▁ser	-2713
▁⿷⿱	-2714
67	-2715
石专	-2716
▁1917	-2717
dice	-2718
爪巴	-2719
▁1923	-2720
丂戈	-2721
禾丂戈	-2722
丷田一口	-2723
口口隹力	-2724
户攵聿	-2725
to	-2726
▁po	-2727
▁av	-2728
▁back	-2729
▁lov	-2730
▁codice	-2731
68	-2732
69	-2733
▁1921	-2734
艹巴	-2735
▁ist	-2736
ris	-2737
ide	-2738
艹夫	-2739
me	-2740
土龰干	-2741
▁style	-2742
气弗	-2743
木木火	-2744
甘欠	-2745
ans	-2746
一巛工力	-2747
▁comp	-2748
木象	-2749
ial	-2750
身弓	-2751
▁1911	-2752
51	-2753
乀丿寸	-2754
52	-2755
▁3000	-2756
ational	-2757
64	-2758
▁net	-2759
een	-2760
▁wil	-2761
cl	-2762
54	-2763
▁app	-2764
木東	-2765
art	-2766
ary	-2767
▁bb	-2768
▁dna	-2769
▁欠	-2770
ence	-2771
round	-2772
亻为	-2773
隹乃	-2774
𠂇月阝	-2775
辶尺	-2776
92	-2777
广龙	-2778
58	-2779
目民	-2780
span	-2781
ire	-2782
▁colspan	-2783
幺冖牛	-2784
▁met	-2785
▁⿱⿱⿲	-2786
▁istat	-2787
▁1900	-2788
▁can	-2789
口口一	-2790
▁74	-2791
▁sil	-2792
97	-2793
▁尸	-2794
𠂊田一禾	-2795
▁1909	-2796
ier	-2797
土申	-2798
㐅乂木大手	-2799
▁er	-2800
▁肅	-2801
land	-2802
ank	-2803
▁su	-2804
ies	-2805
age	-2806
亻為	-2807
门虫	-2808
▁pl	-2809
氵戋	-2810
▁per	-2811
▁78	-2812
▁73	-2813
▁戊	-2814
夕㔾心	-2815
▁yout	-2816
▁km	-2817
▁bar	-2818
父巴	-2819
犭瓜	-2820
▁el	-2821
eat	-2822
ite	-2823
⿱⿻⿱	-2824
96	-2825
71	-2826
▁one	-2827
車干	-2828
76	-2829
𠘧又月	-2830
▁fo	-2831
缶工	-2832
▁now	-2833
匚非	-2834
▁101	-2835
ky	-2836
目夂	-2837
冂人目夂	-2838
一巛工頁	-2839
九日	-2840
▁mac	-2841
▁ag	-2842
▁71	-2843
78	-2844
▁mic	-2845
98	-2846
▁es	-2847
▁1910	-2848
ley	-2849
72	-2850
93	-2851
▁98	-2852
▁ha	-2853
▁align	-2854
63	-2855
非衣	-2856
口甫	-2857
ish	-2858
61	-2859
亡目	-2860
𠁣𠃛甲	-2861
lar	-2862
▁82	-2863
▁do	-2864
皮页	-2865
人一口皿	-2866
for	-2867
ground	-2868
匚斤	-2869
73	-2870
艮土	-2871
▁bd	-2872
▁ga	-2873
止龰	-2874
疒艮	-2875
又力	-2876
▁ngc	-2877
▁81	-2878
74	-2879
且一八頁	-2880
匚甲	-2881
▁tra	-2882
口口几	-2883
ath	-2884
▁⿵⿱⿱	-2885
厶牛	-2886
▁ps	-2887
▁pc	-2888
米丂	-2889
are	-2890
79	-2891
一八欠	-2892
ead	-2893
丿二丨小	-2894
▁cor	-2895
ivers	-2896
▁900	-2897
人一朩土	-2898
▁1905	-2899
ass	-2900
ust	-2901
▁coun	-2902
▁1915	-2903
ann	-2904
𠁣𠃛月	-2905
ster	-2906
▁1916	-2907
station	-2908
▁str	-2909
▁os	-2910
▁sup	-2911
亻弋黑	-2912
▁background	-2913
丿囗米丂	-2914
扌彐	-2915
iki	-2916
▁1901	-2917
iel	-2918
▁84	-2919
▁em	-2920
94	-2921
▁83	-2922
ere	-2923
ile	-2924
女干	-2925
ok	-2926
va	-2927
ha	-2928
own	-2929
tive	-2930
▁cp	-2931
爿一	-2932
片爿一	-2933
▁love	-2934
ome	-2935
▁color	-2936
▁playstation	-2937
氵谷	-2938
old	-2939
▁ep	-2940
▁you	-2941
les	-2942
ins	-2943
91	-2944
▁1500	-2945
▁gen	-2946
5%	-2947
▁go	-2948
八丂	-2949
且一八页	-2950
use	-2951
▁gro	-2952
▁5000	-2953
▁youtube	-2954
▁sn	-2955
纟千	-2956
▁gu	-2957
立十束	-2958
▁92	-2959
ool	-2960
▁all	-2961
石几	-2962
ys	-2963
▁nh	-2964
▁廿	-2965
▁1903	-2966
▁min	-2967
竹由	-2968
大隹田	-2969
金甫	-2970
户犬	-2971
ara	-2972
pt	-2973
▁text	-2974
▁li	-2975
01	-2976
▁intern	-2977
be	-2978
言隹	-2979
木木彡	-2980
▁sw	-2981
⺌冖口木	-2982
ime	-2983
▁05	-2984
▁res	-2985
▁live	-2986
▁linux	-2987
▁ta	-2988
丰丰彐	-2989
弓瓜	-2990
ico	-2991
▁he	-2992
ms	-2993
▁1906	-2994
▁1908	-2995
book	-2996
宀八力	-2997
口且	-2998
▁1907	-2999
冫欠心	-3000
疋月	-3001
▁face	-3002
ood	-3003
tp	-3004
▁micro	-3005
▁med	-3006
口一心	-3007
立十瓜	-3008
ho	-3009
火火冖虫	-3010
王攵	-3011
ml	-3012
▁91	-3013
ram	-3014
一自戈	-3015
▁univers	-3016
▁cla	-3017
王鬼	-3018
▁ab	-3019
宀牛	-3020
▁360	-3021
⿰⿳⿱	-3022
土立	-3023
▁des	-3024
▁93	-3025
木口	-3026
▁with	-3027
▁da	-3028
▁mat	-3029
纟韦	-3030
▁105	-3031
▁1904	-3032
氵十	-3033
门木	-3034
▁禹	-3035
▁silver	-3036
巛果刂	-3037
▁ste	-3038
▁by	-3039
km	-3040
▁ba	-3041
𠃋丿人力	-3042
竹目大糸	-3043
镸聿	-3044
rom	-3045
▁06	-3046
uk	-3047
非車	-3048
tor	-3049
土及	-3050
女亚	-3051
氏丶阝	-3052
▁dav	-3053
臣卜	-3054
ana	-3055
tc	-3056
ls	-3057
udi	-3058
▁09	-3059
犬廾	-3060
艹犬廾	-3061
▁char	-3062
per	-3063
口电	-3064
氵必	-3065
冂卄頁	-3066
丨丨比土	-3067
幺幺田	-3068
▁har	-3069
丆且	-3070
▁fl	-3071
da	-3072
▁star	-3073
▁super	-3074
▁ty	-3075
艹牙	-3076
▁sec	-3077
丿米	-3078
▁world	-3079
eng	-3080
▁ea	-3081
sa	-3082
lec	-3083
▁iii	-3084
匕禾頁	-3085
enn	-3086
ose	-3087
火户	-3088
▁lo	-3089
bert	-3090
▁di	-3091
丿米丨	-3092
酉州	-3093
▁bro	-3094
氵山	-3095
火东	-3096
▁pe	-3097
耂日灬	-3098
冖果	-3099
彑冖果	-3100
▁94	-3101
ork	-3102
ower	-3103
urn	-3104
dr	-3105
ony	-3106
言永	-3107
文而	-3108
士冖一	-3109
宀臣	-3110
八厶頁	-3111
ium	-3112
mer	-3113
pl	-3114
大田	-3115
木东	-3116
▁her	-3117
lex	-3118
ds	-3119
▁dis	-3120
▁music	-3121
▁mm	-3122
氵世	-3123
▁07	-3124
艹心	-3125
尢力	-3126
ame	-3127
八丂皿	-3128
门甲	-3129
▁bla	-3130
▁bas	-3131
br	-3132
亻丈	-3133
覀米	-3134
uth	-3135
▁air	-3136
der	-3137
gb	-3138
▁akb	-3139
▁01	-3140
▁school	-3141
▁⿰⿱⿳	-3142
stem	-3143
▁350	-3144
人一口頁	-3145
▁nor	-3146
▁cc	-3147
▁na	-3148
▁1898	-3149
olog	-3150
ward	-3151
▁fa	-3152
丘丿	-3153
▁1895	-3154
ata	-3155
▁ms	-3156
▁08	-3157
里予土	-3158
yn	-3159
⿱⿵⿵	-3160
ven	-3161
▁1902	-3162
口止戋	-3163
丷豕土	-3164
火柬	-3165
门人	-3166
扌发	-3167
anc	-3168
iti	-3169
禾隹	-3170
box	-3171
▁ua	-3172
ka	-3173
果𧘇	-3174
亠果𧘇	-3175
羊乚	-3176
亻卜	-3177
▁⿺⿸	-3178
ual	-3179
▁facebook	-3180
oth	-3181
▁⿰⿻⿵	-3182
丨丨一刂	-3183
▁je	-3184
耳火	-3185
▁ver	-3186
pr	-3187
虍几彡	-3188
▁gra	-3189
amp	-3190
宀八缶	-3191
禾刂牛	-3192
犭里	-3193
ical	-3194
6%	-3195
米糸	-3196
▁pet	-3197
耳卯	-3198
扌卜	-3199
eal	-3200
ki	-3201
ale	-3202
中𧘇	-3203
亠中𧘇	-3204
米糸廾	-3205
4%	-3206
鬼未	-3207
月方	-3208
月中	-3209
3%	-3210
eed	-3211
▁ka	-3212
▁rec	-3213
soft	-3214
▁104	-3215
▁system	-3216
纟方	-3217
丿丿丶	-3218
▁vis	-3219
vel	-3220
禺心	-3221
石欠	-3222
▁ass	-3223
▁af	-3224
月𠃓	-3225
▁ww	-3226
ude	-3227
厶厶土	-3228
牛土	-3229
甫方攵	-3230
▁pol	-3231
钅内	-3232
ash	-3233
▁ib	-3234
月豕	-3235
口止止	-3236
▁web	-3237
7%	-3238
凵㐅儿	-3239
▁pla	-3240
千口甫	-3241
2%	-3242
▁dc	-3243
艹户	-3244
▁mc	-3245
▁sur	-3246
cal	-3247
▁up	-3248
mb	-3249
一白弓	-3250
liam	-3251
eet	-3252
丿土攵心	-3253
巛田	-3254
▁ic	-3255
tain	-3256
臣又月	-3257
㡀攵廾	-3258
虍力	-3259
ker	-3260
▁4000	-3261
▁ス	-3262
8%	-3263
▁int	-3264
▁jav	-3265
冫東	-3266
歺又米	-3267
匚巾	-3268
▁108	-3269
dp	-3270
itt	-3271
▁102	-3272
▁jam	-3273
▁bbc	-3274
▁vo	-3275
roid	-3276
▁high	-3277
▁1890	-3278
犭且	-3279
▁106	-3280
▁che	-3281
▁ref	-3282
▁gn	-3283
▁125	-3284
册刂	-3285
歹千	-3286
立口刂	-3287
▁04	-3288
口里	-3289
月重	-3290
▁02	-3291
ler	-3292
女我	-3293
▁103	-3294
▁ss	-3295
▁del	-3296
ited	-3297
icon	-3298
9%	-3299
▁red	-3300
豸艮土	-3301
▁mor	-3302
▁1896	-3303
口木𧘇	-3304
ner	-3305
hz	-3306
氵文刂	-3307
asa	-3308
pa	-3309
▁220	-3310
▁im	-3311
▁gir	-3312
▁1200	-3313
木丈	-3314
▁nowiki	-3315
丘丶	-3316
▁off	-3317
▁mag	-3318
▁mark	-3319
臣人	-3320
礻氏	-3321
▁wal	-3322
▁hy	-3323
口于	-3324
彐一八車	-3325
亻弋贝	-3326
ane	-3327
▁ir	-3328
士冖一禾	-3329
纟丩	-3330
▁william	-3331
ille	-3332
申𠃓	-3333
▁microsoft	-3334
▁1897	-3335
饣虫	-3336
za	-3337
日隹	-3338
▁game	-3339
亠口了灬	-3340
▁cont	-3341
▁val	-3342
覀土瓦	-3343
uch	-3344
彐氺刂	-3345
广户	-3346
1%	-3347
▁iv	-3348
▁not	-3349
月女	-3350
甘阝	-3351
▁1899	-3352
ula	-3353
▁ter	-3354
月土	-3355
ink	-3356
▁team	-3357
亻弋山	-3358
▁115	-3359
氵心	-3360
礻阝	-3361
𠂊田灬由	-3362
𠂊冫寸水	-3363
illa	-3364
▁android	-3365
ike	-3366
▁div	-3367
▁tvb	-3368
ont	-3369
▁mr	-3370
幺月	-3371
幺月乚	-3372
ya	-3373
𠂇火皿	-3374
阝龙	-3375
氵末	-3376
▁ev	-3377
讠隹	-3378
▁107	-3379
疒皮	-3380
丶丶丶匕	-3381
▁enter	-3382
eth	-3383
▁war	-3384
▁san	-3385
▁cb	-3386
▁group	-3387
⺌冖口牙	-3388
05	-3389
▁ec	-3390
▁1889	-3391
▁university	-3392
ise	-3393
ena	-3394
tions	-3395
▁cy	-3396
王厶	-3397
未攵	-3398
▁⿸⿱⿰	-3399
▁international	-3400
▁巾	-3401
▁nhk	-3402
舟白	-3403
▁du	-3404
▁⿳⿲	-3405
宀龙	-3406
▁vi	-3407
▁03	-3408
氵斤	-3409
⿰⿱⿶	-3410
丶丶丶匕彡	-3411
𠂇口心	-3412
ings	-3413
丷夫目	-3414
▁iso	-3415
oss	-3416
ble	-3417
▁prod	-3418
木冖	-3419
木缶	-3420
木缶木冖	-3421
扌末	-3422
一廾阝	-3423
ino	-3424
▁ig	-3425
ks	-3426
ham	-3427
木更	-3428
氵夕	-3429
田皿頁	-3430
▁studi	-3431
艹甘	-3432
九力	-3433
ae	-3434
心心	-3435
iro	-3436
▁109	-3437
▁show	-3438
▁saint	-3439
月夫	-3440
che	-3441
▁ce	-3442
way	-3443
彐一八车	-3444
雨文	-3445
▁111	-3446
▁240	-3447
▁ber	-3448
▁david	-3449
oph	-3450
▁ke	-3451
▁450	-3452
urg	-3453
贝长	-3454
▁⿱⿻⿻	-3455
work	-3456
金隹	-3457
▁50%	-3458
▁open	-3459
fa	-3460
丷十	-3461
dy	-3462
▁lu	-3463
火頁	-3464
门文	-3465
竹立	-3466
ero	-3467
pm	-3468
ult	-3469
冂口月	-3470
▁⿰⿱⿰⿱	-3471
ement	-3472
▁et	-3473
▁10%	-3474
▁1860	-3475
wa	-3476
▁comm	-3477
go	-3478
▁big	-3479
tis	-3480
▁sd	-3481
𠂎卩	-3482
▁mi	-3483
自木	-3484
▁1880	-3485
▁1600	-3486
▁128	-3487
▁112	-3488
ute	-3489
03	-3490
mo	-3491
⿰⿱⿰	-3492
▁she	-3493
▁bu	-3494
▁1894	-3495
▁day	-3496
山我	-3497
lin	-3498
▁cent	-3499
ons	-3500
▁xbox	-3501
ス工页	-3502
▁geor	-3503
▁bra	-3504
▁135	-3505
▁that	-3506
02	-3507
uro	-3508
𠂊冫寸酉	-3509
八厶页	-3510
▁tech	-3511
▁ind	-3512
匕禾页	-3513
羊丑	-3514
▁cm	-3515
▁soc	-3516
▁ins	-3517
▁fin	-3518
▁sol	-3519
▁1800	-3520
𠂊小心	-3521
▁pop	-3522
cm	-3523
门柬	-3524
灬也	-3525
▁bea	-3526
里儿土	-3527
虍文	-3528
▁eng	-3529
▁mil	-3530
▁lim	-3531
▁http	-3532
▁cro	-3533
▁ts	-3534
立十玉	-3535
car	-3536
甲一阝	-3537
彑氺刂	-3538
▁reg	-3539
▁mich	-3540
ari	-3541
▁paul	-3542
▁1870	-3543
▁sam	-3544
td	-3545
▁top	-3546
亠口子丸土	-3547
▁sim	-3548
▁230	-3549
enti	-3550
▁tom	-3551
era	-3552
▁national	-3553
虫丰	-3554
言乍	-3555
𠘧又石	-3556
▁from	-3557
▁county	-3558
▁max	-3559
▁ds	-3560
木乚糸	-3561
▁fc	-3562
巾长	-3563
▁1871	-3564
tit	-3565
▁mk	-3566
▁113	-3567
丬夕水	-3568
▁don	-3569
▁155	-3570
▁rich	-3571
▁gl	-3572
▁1885	-3573
亻朱	-3574
orn	-3575
let	-3576
▁6000	-3577
▁black	-3578
04	-3579
〢又月	-3580
非车	-3581
糸言糸虫	-3582
▁cs	-3583
▁trans	-3584
石水	-3585
月长	-3586
一止心	-3587
las	-3588
▁time	-3589
▁city	-3590
ze	-3591
▁⿰⿹⿶	-3592
▁118	-3593
一龰匕	-3594
fo	-3595
▁games	-3596
酉鬼	-3597
ene	-3598
▁mer	-3599
08	-3600
att	-3601
阝人土	-3602
▁win	-3603
日十戈	-3604
▁酉	-3605
▁20%	-3606
cy	-3607
▁fla	-3608
▁out	-3609
my	-3610
▁sk	-3611
06	-3612
gr	-3613
po	-3614
phone	-3615
iver	-3616
▁kn	-3617
▁rad	-3618
ael	-3619
ald	-3620
木矛木	-3621
▁sun	-3622
▁114	-3623
弋心	-3624
osh	-3625
▁122	-3626
▁was	-3627
ife	-3628
大十	-3629
▁ang	-3630
日立	-3631
que	-3632
▁tri	-3633
erica	-3634
未攵厂里	-3635
str	-3636
▁sal	-3637
𠂇工月土	-3638
口比	-3639
冂人禸	-3640
夂卜口	-3641
▁ur	-3642
tiv	-3643
▁117	-3644
▁ios	-3645
▁type	-3646
▁艮	-3647
▁dj	-3648
厂犬	-3649
▁ko	-3650
竹二	-3651
ese	-3652
▁mp	-3653
▁pat	-3654
衤彡	-3655
爿女	-3656
any	-3657
▁power	-3658
谷欠心	-3659
▁280	-3660
wn	-3661
unt	-3662
▁210	-3663
ita	-3664
八刀山	-3665
山甲	-3666
▁116	-3667
▁rock	-3668
ject	-3669
▁org	-3670
木果	-3671
bl	-3672
艹斤	-3673
ark	-3674
osa	-3675
▁sing	-3676
▁bet	-3677
▁king	-3678
itter	-3679
ital	-3680
钅隹	-3681
一儿	-3682
▁alex	-3683
扌予	-3684
▁james	-3685
父斤	-3686
▁sl	-3687
▁1884	-3688
▁are	-3689
▁1892	-3690
▁utc	-3691
fc	-3692
几丶革	-3693
ics	-3694
▁fir	-3695
por	-3696
▁1886	-3697
▁america	-3698
艹内	-3699
line	-3700
▁jun	-3701
木冘	-3702
▁java	-3703
口米	-3704
木矛木心	-3705
can	-3706
▁vol	-3707
bi	-3708
戈十口	-3709
钅月	-3710
女女	-3711
▁inc	-3712
饣几	-3713
ス工力	-3714
▁123	-3715
▁kh	-3716
▁jap	-3717
▁dir	-3718
▁class	-3719
▁oricon	-3720
▁1888	-3721
宀八弓	-3722
ior	-3723
▁only	-3724
▁ben	-3725
07	-3726
pg	-3727
▁1893	-3728
▁mod	-3729
▁rna	-3730
コ儿	-3731
ini	-3732
ott	-3733
白コ儿	-3734
▁1887	-3735
工水	-3736
⿻⿵	-3737
▁thom	-3738
▁90%	-3739
礻也	-3740
▁ibm	-3741
革巴	-3742
ology	-3743
mun	-3744
丿丿皿	-3745
豆寸	-3746
▁750	-3747
▁michael	-3748
▁kar	-3749
木隶	-3750
艹朱	-3751
▁cpu	-3752
▁record	-3753
▁320	-3754
▁robert	-3755
ield	-3756
▁sar	-3757
del	-3758
ict	-3759
▁260	-3760
▁iphone	-3761
▁80%	-3762
▁free	-3763
▁121	-3764
▁127	-3765
by	-3766
berg	-3767
▁bm	-3768
▁ol	-3769
▁bel	-3770
▁2500	-3771
▁bi	-3772
▁1876	-3773
ther	-3774
itch	-3775
竹目大厶	-3776
▁1861	-3777
▁ve	-3778
ama	-3779
▁fe	-3780
▁145	-3781
▁phil	-3782
▁129	-3783
车干	-3784
▁ef	-3785
虫我	-3786
▁techn	-3787
火巨	-3788
gh	-3789
礻必	-3790
▁1850	-3791
冫东	-3792
金金	-3793
▁spec	-3794
ase	-3795
▁wat	-3796
▁rom	-3797
止止	-3798
▁cap	-3799
▁bus	-3800
▁hot	-3801
fe	-3802
vice	-3803
net	-3804
▁life	-3805
fer	-3806
▁best	-3807
▁lea	-3808
ius	-3809
ism	-3810
ora	-3811
ave	-3812
辶豆	-3813
clude	-3814
yl	-3815
▁dan	-3816
十豆口灬	-3817
▁1883	-3818
ja	-3819
▁550	-3820
又艮	-3821
父卩	-3822
cen	-3823
▁30%	-3824
▁hol	-3825
▁gdp	-3826
▁si	-3827
▁1868	-3828
▁119	-3829
虍隹	-3830
▁boy	-3831
fr	-3832
ump	-3833
火火冖玉	-3834
▁colle	-3835
▁1891	-3836
ste	-3837
fs	-3838
▁park	-3839
钅甲	-3840
⿱⿰⿹	-3841
▁⿰⿰⿴	-3842
100	-3843
▁chr	-3844
▁dream	-3845
▁japan	-3846
氵弗	-3847
ild	-3848
tainment	-3849
▁club	-3850
▁fil	-3851
亡女	-3852
min	-3853
▁124	-3854
礻乍	-3855
金柬	-3856
▁produc	-3857
ily	-3858
▁mg	-3859
hel	-3860
▁entertainment	-3861
小土	-3862
▁oh	-3863
▁126	-3864
▁1862	-3865
▁media	-3866
09	-3867
▁fm	-3868
▁arch	-3869
攵灬	-3870
𠂊彐攵灬	-3871
▁tour	-3872
凵丨阝	-3873
++	-3874
▁jack	-3875
▁144	-3876
▁巳	-3877
▁650	-3878
白七	-3879
zz	-3880
女方	-3881
言朱	-3882
口夫艮	-3883
ange	-3884
▁133	-3885
▁1877	-3886
耒禺	-3887
▁sg	-3888
▁der	-3889
ors	-3890
▁hen	-3891
▁dra	-3892
tra	-3893
▁vir	-3894
▁1848	-3895
▁137	-3896
▁rev	-3897
▁1867	-3898
▁gener	-3899
▁cat	-3900
▁end	-3901
石夕	-3902
▁ja	-3903
▁acc	-3904
▁1873	-3905
▁twitter	-3906
▁van	-3907
xy	-3908
iet	-3909
𠁣𠃛文	-3910
▁sci	-3911
金丑	-3912
▁⿻⿹	-3913
▁nat	-3914
▁175	-3915
ano	-3916
▁dd	-3917
▁sky	-3918
▁apple	-3919
its	-3920
tin	-3921
土文	-3922
erson	-3923
▁1879	-3924
ko	-3925
200	-3926
木木毛	-3927
led	-3928
𠁣𠃛木	-3929
ull	-3930
▁40%	-3931
fl	-3932
▁1864	-3933
罒方	-3934
▁wr	-3935
wan	-3936
▁165	-3937
一也	-3938
▁tim	-3939
▁fire	-3940
ger	-3941
▁1865	-3942
▁1878	-3943
form	-3944
ws	-3945
cri	-3946
uss	-3947
▁270	-3948
▁1875	-3949
▁award	-3950
▁house	-3951
▁1882	-3952
▁152	-3953
禾几	-3954
eas	-3955
▁737	-3956
女口心	-3957
ution	-3958
ision	-3959
▁assoc	-3960
竹本	-3961
▁1840	-3962
▁gar	-3963
▁1881	-3964
▁乍	-3965
▁ok	-3966
▁mel	-3967
iation	-3968
火土	-3969
oll	-3970
▁aut	-3971
▁dem	-3972
▁8000	-3973
▁intel	-3974
人斗	-3975
ugh	-3976
臣又豆	-3977
▁unix	-3978
艹巨	-3979
〢又立	-3980
▁dist	-3981
▁road	-3982
𠂊田一里	-3983
央皿	-3984
ct	-3985
vin	-3986
▁chris	-3987
虫文	-3988
urs	-3989
▁first	-3990
▁154	-3991
yth	-3992
▁sub	-3993
▁ul	-3994
▁imp	-3995
▁this	-3996
▁132	-3997
▁1874	-3998
▁禺	-3999
▁ger	-4000
▁bill	-4001
▁hel	-4002
艹甫	-4003
▁lou	-4004
丹彡	-4005
氵立	-4006
▁richard	-4007
阝禺	-4008
▁college	-4009
金丁	-4010
千口刂	-4011
ritic	-4012
rol	-4013
朿⺀	-4014
▁george	-4015
▁rep	-4016
▁pub	-4017
𠂊彐阝	-4018
undam	-4019
ua	-4020
宀丰口谷	-4021
火页	-4022
we	-4023
凵丨隹	-4024
▁70%	-4025
𠂊田灬屯	-4026
▁7000	-4027
▁aa	-4028
▁art	-4029
▁west	-4030
gin	-4031
▁les	-4032
▁mem	-4033
言柬	-4034
▁wii	-4035
氵木	-4036
丿廾土	-4037
▁330	-4038
▁pan	-4039
▁1872	-4040
ert	-4041
▁gi	-4042
▁fam	-4043
▁1863	-4044
▁fri	-4045
比土	-4046
▁cha	-4047
▁euro	-4048
亻鬼	-4049
㐅朩刂	-4050
▁www	-4051
▁sir	-4052
ien	-4053
日大日	-4054
▁adv	-4055
▁gt	-4056
▁5%	-4057
▁1400	-4058
▁hall	-4059
𠂉一罒金	-4060
匚隹	-4061
求衣	-4062
▁sr	-4063
▁rem	-4064
bn	-4065
uck	-4066
一攵	-4067
阝井	-4068
▁pal	-4069
▁cv	-4070
▁abc	-4071
▁138	-4072
▁nt	-4073
▁north	-4074
ett	-4075
▁mtv	-4076
ake	-4077
𠂉大隹	-4078
include	-4079
▁est	-4080
▁⿰⿱⿱⿱	-4081
木巨	-4082
▁atp	-4083
扌乃	-4084
ura	-4085
口肃	-4086
▁bs	-4087
▁sum	-4088
▁139	-4089
▁ju	-4090
木木非	-4091
▁156	-4092
▁metac	-4093
▁studio	-4094
▁1866	-4095
ira	-4096
月刂灬	-4097
▁158	-4098
▁charles	-4099
▁1300	-4100
一丂頁	-4101
讠柬	-4102
ery	-4103
▁gp	-4104
▁cal	-4105
氵且	-4106
▁mid	-4107
扌丸土	-4108
▁pri	-4109
▁lang	-4110
▁led	-4111
▁1869	-4112
no	-4113
氵目	-4114
人彡戈	-4115
山谷	-4116
▁south	-4117
讠朱	-4118
▁100%	-4119
▁136	-4120
▁60%	-4121
▁street	-4122
▁env	-4123
▁ear	-4124
▁html	-4125
▁project	-4126
iew	-4127
▁131	-4128
▁service	-4129
▁ram	-4130
▁china	-4131
▁may	-4132
▁good	-4133
▁land	-4134
ates	-4135
▁over	-4136
▁gundam	-4137
ware	-4138
木甘	-4139
▁wa	-4140
ani	-4141
ella	-4142
▁148	-4143
▁metacritic	-4144
隹十	-4145
▁rh	-4146
田八夂	-4147
▁ever	-4148
石石	-4149
▁log	-4150
▁if	-4151
艹于	-4152
urt	-4153
ima	-4154
王王比	-4155
龙土	-4156
oma	-4157
丿丿丶心	-4158
▁jose	-4159
ning	-4160
ensis	-4161
ous	-4162
rop	-4163
▁kbs	-4164
氵发	-4165
▁miss	-4166
▁lee	-4167
▁134	-4168
▁kg	-4169
▁thomas	-4170
木鬼	-4171
▁peter	-4172
ob	-4173
▁tc	-4174
⿱⿻⿹	-4175
囗口禾	-4176
金内	-4177
▁ob	-4178
王王巴	-4179
▁ray	-4180
▁sea	-4181
gory	-4182
▁205	-4183
eder	-4184
▁gold	-4185
able	-4186
itz	-4187
丷干丸土	-4188
扌止	-4189
▁sony	-4190
▁christ	-4191
口龶阝	-4192
unes	-4193
火言	-4194
▁office	-4195
▁168	-4196
▁records	-4197
▁1830	-4198
mus	-4199
▁146	-4200
icode	-4201
press	-4202
0⿱	-4203
▁long	-4204
eep	-4205
▁1700	-4206
▁141	-4207
▁limited	-4208
▁unicode	-4209
火言火	-4210
ular	-4211
▁147	-4212
▁will	-4213
▁ele	-4214
▁ah	-4215
丬夕酉	-4216
▁380	-4217
▁arm	-4218
▁冉	-4219
人示	-4220
火言火又	-4221
示示	-4222
▁ltd	-4223
▁153	-4224
▁line	-4225
ander	-4226
▁news	-4227
gon	-4228
▁mov	-4229
ns	-4230
▁ni	-4231
▁but	-4232
▁tem	-4233
▁1100	-4234
▁hear	-4235
▁fun	-4236
月工	-4237
▁prin	-4238
▁fi	-4239
▁mu	-4240
vo	-4241
ents	-4242
ville	-4243
▁real	-4244
▁company	-4245
丬女	-4246
▁1853	-4247
▁dig	-4248
ple	-4249
▁256	-4250
艹鬼	-4251
ope	-4252
▁747	-4253
▁sbs	-4254
言内	-4255
ny	-4256
氵于	-4257
ball	-4258
▁mbc	-4259
口肅	-4260
ada	-4261
▁1858	-4262
pc	-4263
hc	-4264
uce	-4265
▁bur	-4266
耳心	-4267
▁151	-4268
▁tor	-4269
eak	-4270
▁chin	-4271
▁211	-4272
木丂	-4273
earch	-4274
▁wid	-4275
▁lis	-4276
千口自心	-4277
▁il	-4278
▁squ	-4279
▁nasa	-4280
eek	-4281
𠂊冫寸木	-4282
▁cons	-4283
▁143	-4284
▁420	-4285
▁lam	-4286
ling	-4287
▁1859	-4288
ql	-4289
讠乍	-4290
idge	-4291
一兀頁	-4292
▁bal	-4293
▁fer	-4294
▁sig	-4295
ator	-4296
ush	-4297
▁kr	-4298
竹生	-4299
▁tal	-4300
忄束	-4301
目八力	-4302
▁25%	-4303
▁mal	-4304
▁form	-4305
竹干	-4306
弓丨丿刂	-4307
▁⿺⿱⿱	-4308
cation	-4309
户攵口	-4310
ui	-4311
▁1854	-4312
bor	-4313
釆由	-4314
▁ann	-4315
▁hs	-4316
▁203	-4317
▁臼	-4318
▁1857	-4319
▁camp	-4320
▁roy	-4321
▁elec	-4322
▁ast	-4323
▁225	-4324
▁act	-4325
匕水	-4326
氵及	-4327
▁mont	-4328
▁amd	-4329
▁jon	-4330
▁direct	-4331
act	-4332
▁gnu	-4333
az	-4334
▁nov	-4335
▁pres	-4336
▁hal	-4337
▁american	-4338
gen	-4339
▁ri	-4340
土丹	-4341
日未	-4342
丿皿乑	-4343
金由	-4344
▁167	-4345
▁instit	-4346
▁ham	-4347
金巨	-4348
士冖业	-4349
▁inf	-4350
口永	-4351
▁sin	-4352
cript	-4353
▁blue	-4354
ated	-4355
▁157	-4356
▁por	-4357
▁girls	-4358
▁api	-4359
▁mob	-4360
亠田久	-4361
▁key	-4362
sch	-4363
▁nav	-4364
com	-4365
▁173	-4366
▁az	-4367
▁235	-4368
▁mad	-4369
▁cate	-4370
▁163	-4371
▁green	-4372
▁202	-4373
禾火心	-4374
牛冂刂手	-4375
tif	-4376
▁east	-4377
sm	-4378
▁149	-4379
木己	-4380
▁301	-4381
▁alb	-4382
▁340	-4383
纟申	-4384
▁men	-4385
101	-4386
bal	-4387
▁ti	-4388
▁215	-4389
▁214	-4390
▁1856	-4391
▁hor	-4392
▁who	-4393
mann	-4394
▁law	-4395
▁pra	-4396
木册	-4397
001	-4398
onic	-4399
do	-4400
ota	-4401
▁mb	-4402
▁pp	-4403
艹止	-4404
▁cra	-4405
▁mas	-4406
▁home	-4407
阝皮	-4408
lic	-4409
▁xp	-4410
▁mul	-4411
gue	-4412
▁kong	-4413
勹二	-4414
▁162	-4415
▁cur	-4416
▁bit	-4417
▁song	-4418
▁chem	-4419
▁soft	-4420
▁isbn	-4421
▁dos	-4422
▁tai	-4423
▁hum	-4424
禾儿	-4425
▁pre	-4426
石申	-4427
▁ru	-4428
▁jul	-4429
▁1851	-4430
▁girl	-4431
gy	-4432
⿱⿱⿴⿱	-4433
丿囗㐅儿	-4434
▁1847	-4435
▁far	-4436
▁hong	-4437
▁lar	-4438
▁ai	-4439
▁159	-4440
▁lib	-4441
𠘧又金	-4442
▁young	-4443
▁208	-4444
▁tro	-4445
𡗗臼	-4446
▁name	-4447
▁network	-4448
金屯	-4449
▁def	-4450
▁ign	-4451
▁onlyinclude	-4452
饣我	-4453
▁von	-4454
▁480	-4455
▁bab	-4456
丷干臼	-4457
▁⿱⿰⿻⿱	-4458
▁178	-4459
ci	-4460
▁ret	-4461
▁association	-4462
▁1855	-4463
爫寸	-4464
▁ova	-4465
▁thr	-4466
0%	-4467
女户	-4468
ney	-4469
▁space	-4470
▁850	-4471
lat	-4472
▁disc	-4473
▁inst	-4474
mi	-4475
▁vic	-4476
▁how	-4477
▁var	-4478
▁itunes	-4479
▁band	-4480
▁207	-4481
▁nbc	-4482
土斤	-4483
▁category	-4484
urch	-4485
▁15%	-4486
▁142	-4487
▁ros	-4488
ury	-4489
▁leg	-4490
▁183	-4491
角斗	-4492
▁jean	-4493
▁champ	-4494
vid	-4495
▁176	-4496
ester	-4497
▁hist	-4498
ford	-4499
▁batt	-4500
▁209	-4501
rey	-4502
艹末	-4503
▁tbs	-4504
urus	-4505
▁two	-4506
▁post	-4507
木戋	-4508
束欠	-4509
广里	-4510
▁370	-4511
▁om	-4512
弓米	-4513
▁va	-4514
弓米弓	-4515
▁town	-4516
ello	-4517
▁gb	-4518
▁gala	-4519
orts	-4520
ron	-4521
▁410	-4522
cher	-4523
▁1852	-4524
gram	-4525
▁oper	-4526
▁river	-4527
als	-4528
cade	-4529
▁206	-4530
▁ice	-4531
▁white	-4532
钅垂	-4533
▁die	-4534
star	-4535
▁hi	-4536
▁1841	-4537
丿丿刂	-4538
ship	-4539
▁ze	-4540
▁bank	-4541
钅里	-4542
gbt	-4543
艮心	-4544
▁under	-4545
si	-4546
▁frank	-4547
eau	-4548
▁171	-4549
▁290	-4550
▁1849	-4551
▁part	-4552
▁169	-4553
▁doc	-4554
▁has	-4555
▁ly	-4556
burg	-4557
▁1846	-4558
▁ll	-4559
▁pas	-4560
▁164	-4561
人目又	-4562
钅由	-4563
▁bor	-4564
▁pag	-4565
wood	-4566
▁run	-4567
▁tur	-4568
▁ki	-4569
▁430	-4570
川一	-4571
▁172	-4572
▁310	-4573
金垂	-4574
▁usb	-4575
▁science	-4576
▁204	-4577
▁fran	-4578
▁state	-4579
日文	-4580
白鬼	-4581
den	-4582
▁great	-4583
ded	-4584
▁221	-4585
▁grand	-4586
▁syn	-4587
▁internet	-4588
▁1%	-4589
▁cg	-4590
厶廾	-4591
▁rob	-4592
▁tar	-4593
▁dom	-4594
▁stand	-4595
▁island	-4596
女又弓	-4597
ters	-4598
ids	-4599
▁182	-4600
xx	-4601
▁td	-4602
▁cbs	-4603
▁au	-4604
革斤	-4605
▁bay	-4606
▁width	-4607
钅丁	-4608
▁book	-4609
▁bon	-4610
▁cho	-4611
ji	-4612
cess	-4613
▁cctv	-4614
tian	-4615
▁1844	-4616
ody	-4617
▁223	-4618
▁bc	-4619
▁161	-4620
ction	-4621
▁ceo	-4622
▁1815	-4623
▁1820	-4624
▁alph	-4625
▁hill	-4626
▁year	-4627
▁your	-4628
ddf	-4629
tics	-4630
子皿力	-4631
han	-4632
▁cas	-4633
▁code	-4634
▁server	-4635
ral	-4636
▁184	-4637
500	-4638
▁dep	-4639
▁218	-4640
▁night	-4641
▁united	-4642
犬犬	-4643
▁inv	-4644
▁glo	-4645
▁joseph	-4646
▁1843	-4647
ret	-4648
ough	-4649
▁246	-4650
囗甫	-4651
而女	-4652
▁ry	-4653
▁1845	-4654
▁vii	-4655
▁217	-4656
▁commun	-4657
土于	-4658
▁222	-4659
▁sen	-4660
▁enviro	-4661
▁dec	-4662
▁let	-4663
▁tu	-4664
▁10000	-4665
zy	-4666
木工	-4667
rew	-4668
一大虫	-4669
ations	-4670
▁181	-4671
▁212	-4672
ucn	-4673
▁store	-4674
▁sv	-4675
▁hu	-4676
忄鬼	-4677
更生	-4678
▁md	-4679
▁dar	-4680
▁1812	-4681
▁henry	-4682
▁401	-4683
gaz	-4684
dition	-4685
扌弗	-4686
▁iucn	-4687
▁216	-4688
ison	-4689
olf	-4690
氵兆	-4691
巳八夂	-4692
止自	-4693
▁238	-4694
▁911	-4695
止自巳八夂	-4696
jo	-4697
▁plan	-4698
ach	-4699
pper	-4700
▁gal	-4701
board	-4702
▁cast	-4703
▁sel	-4704
▁prof	-4705
▁440	-4706
▁1842	-4707
虫牙	-4708
lam	-4709
▁spr	-4710
▁way	-4711
▁174	-4712
▁cry	-4713
▁ia	-4714
▁213	-4715
▁ara	-4716
▁rpg	-4717
edia	-4718
lan	-4719
▁ny	-4720
矛攵	-4721
▁285	-4722
⺌冖口衣	-4723
oto	-4724
ural	-4725
ideo	-4726
亻隹月	-4727
▁228	-4728
▁manag	-4729
▁xx	-4730
▁general	-4731
钅丑	-4732
𠘧又木	-4733
annel	-4734
▁radio	-4735
钅刂	-4736
▁cross	-4737
ida	-4738
▁smith	-4739
tps	-4740
▁1814	-4741
㐅乂玉	-4742
▁litt	-4743
▁engine	-4744
▁rea	-4745
▁sat	-4746
米子	-4747
▁db	-4748
八厶儿	-4749
ures	-4750
▁angel	-4751
cs	-4752
▁1789	-4753
▁jump	-4754
▁ae	-4755
ni	-4756
日乍	-4757
ric	-4758
丷丨	-4759
▁rt	-4760
▁sha	-4761
▁heart	-4762
▁pv	-4763
▁jan	-4764
ops	-4765
▁battle	-4766
▁sta	-4767
丿乀	-4768
ola	-4769
▁production	-4770
ye	-4771
犭艮	-4772
▁num	-4773
▁jac	-4774
▁mir	-4775
▁266	-4776
rie	-4777
口犬	-4778
▁model	-4779
ces	-4780
ona	-4781
▁bir	-4782
▁section	-4783
▁work	-4784
▁party	-4785
▁carl	-4786
▁magaz	-4787
ington	-4788
▁https	-4789
▁mobile	-4790
pan	-4791
丷酉犬	-4792
raph	-4793
▁church	-4794
▁crh	-4795
金甲	-4796
▁219	-4797
idae	-4798
⿸⿸⿸	-4799
▁plus	-4800
木方	-4801
氵朱	-4802
▁franc	-4803
▁martin	-4804
𠂇月土	-4805
▁255	-4806
▁league	-4807
耳止	-4808
▁fes	-4809
丨丨比灬	-4810
rpm	-4811
rich	-4812
▁ado	-4813
木丶刂	-4814
▁sports	-4815
言且	-4816
▁snh	-4817
ato	-4818
▁comic	-4819
▁265	-4820
火田	-4821
gan	-4822
▁his	-4823
▁pt	-4824
▁asia	-4825
▁louis	-4826
▁core	-4827
▁edu	-4828
▁magazine	-4829
衤寸	-4830
▁dm	-4831
▁steam	-4832
艹我	-4833
cast	-4834
omo	-4835
言牙	-4836
▁cam	-4837
▁pass	-4838
gar	-4839
▁box	-4840
▁1792	-4841
一乚	-4842
erv	-4843
一乚丶	-4844
▁expl	-4845
忄斤	-4846
▁online	-4847
丬夕木	-4848
▁light	-4849
▁research	-4850
▁god	-4851
▁lgbt	-4852
艹艮	-4853
▁den	-4854
▁vs	-4855
▁foot	-4856
cha	-4857
▁277	-4858
▁275	-4859
▁jim	-4860
ets	-4861
201	-4862
▁cir	-4863
宀石	-4864
▁wwe	-4865
▁xml	-4866
宀一	-4867
▁610	-4868
▁pier	-4869
eee	-4870
▁1835	-4871
▁0%	-4872
▁mol	-4873
▁just	-4874
▁little	-4875
▁master	-4876
day	-4877
well	-4878
立十木	-4879
黑攵	-4880
▁cu	-4881
山一黑攵	-4882
▁channel	-4883
氵虫	-4884
一兀页	-4885
▁wi	-4886
▁aug	-4887
peg	-4888
▁mur	-4889
▁station	-4890
▁societ	-4891
乙水	-4892
▁ns	-4893
▁365	-4894
▁sti	-4895
▁fn	-4896
▁luc	-4897
▁1832	-4898
hr	-4899
爿士大	-4900
酉禾	-4901
▁bad	-4902
▁poly	-4903
亻两	-4904
une	-4905
▁fox	-4906
▁mit	-4907
▁moz	-4908
阝千	-4909
▁fu	-4910
▁tg	-4911
▁sem	-4912
velop	-4913
▁port	-4914
日斤	-4915
▁rs	-4916
▁like	-4917
▁corpor	-4918
▁dl	-4919
▁special	-4920
reg	-4921
ten	-4922
▁pu	-4923
山民	-4924
▁mary	-4925
▁3500	-4926
field	-4927
hi	-4928
▁コ	-4929
▁aw	-4930
女口糸	-4931
▁1839	-4932
▁muse	-4933
▁junior	-4934
iller	-4935
▁pi	-4936
▁001	-4937
▁75%	-4938
aya	-4939
▁champion	-4940
▁what	-4941
永日	-4942
▁720	-4943
▁institute	-4944
▁305	-4945
▁640	-4946
aga	-4947
▁wo	-4948
𠂊田一刂	-4949
inal	-4950
▁950	-4951
▁cin	-4952
▁1793	-4953
讠韦	-4954
▁560	-4955
ili	-4956
301	-4957
艹冖火	-4958
▁rub	-4959
▁rel	-4960
pi	-4961
▁non	-4962
tical	-4963
▁bh	-4964
▁ut	-4965
▁ace	-4966
▁sound	-4967
eel	-4968
▁victor	-4969
▁kw	-4970
艹冖玉	-4971
▁hea	-4972
▁1821	-4973
▁lg	-4974
▁ot	-4975
▁have	-4976
cat	-4977
ider	-4978
▁program	-4979
▁1795	-4980
▁design	-4981
▁226	-4982
▁pala	-4983
业阝	-4984
▁journ	-4985
毛毛	-4986
▁777	-4987
▁after	-4988
▁visual	-4989
火𠃓	-4990
▁sand	-4991
▁edward	-4992
▁cf	-4993
金里	-4994
▁239	-4995
▁249	-4996
▁society	-4997
onom	-4998
▁1836	-4999
tim	-5000
▁1838	-5001
贝戋	-5002
▁229	-5003
▁288	-5004
▁small	-5005
▁express	-5006
▁540	-5007
▁video	-5008
厂人	-5009
钅屯	-5010
▁mt	-5011
lip	-5012
▁224	-5013
▁vista	-5014
▁501	-5015
目兆	-5016
▁520	-5017
▁lan	-5018
▁1824	-5019
▁develop	-5020
▁chi	-5021
▁tak	-5022
pn	-5023
▁place	-5024
▁ya	-5025
▁low	-5026
氵屯	-5027
石乐	-5028
wor	-5029
▁1825	-5030
▁gla	-5031
▁data	-5032
▁pm	-5033
cil	-5034
port	-5035
▁htc	-5036
▁2021	-5037
▁⿴⿱	-5038
face	-5039
▁232	-5040
▁1644	-5041
▁1801	-5042
▁down	-5043
▁happ	-5044
ely	-5045
▁dor	-5046
▁hbo	-5047
衤末	-5048
▁234	-5049
▁word	-5050
▁ieee	-5051
win	-5052
▁tel	-5053
ocket	-5054
▁245	-5055
▁galaxy	-5056
灬川	-5057
▁oc	-5058
▁325	-5059
亻田	-5060
▁601	-5061
▁nam	-5062
▁tele	-5063
300	-5064
▁227	-5065
▁311	-5066
▁cer	-5067
zo	-5068
人人攵	-5069
▁262	-5070
▁pac	-5071
▁2022	-5072
▁anti	-5073
▁prot	-5074
mar	-5075
士口頁	-5076
▁530	-5077
bus	-5078
▁ml	-5079
▁1806	-5080
▁680	-5081
▁maj	-5082
▁580	-5083
▁next	-5084
sta	-5085
▁308	-5086
丿𠃌攵虫	-5087
匕水页	-5088
▁hon	-5089
▁251	-5090
▁get	-5091
月寸	-5092
con	-5093
esh	-5094
▁yu	-5095
▁advance	-5096
𠂊彐隹	-5097
▁moon	-5098
ote	-5099
▁1837	-5100
▁jer	-5101
▁mach	-5102
口丁	-5103
yp	-5104
▁bil	-5105
ister	-5106
uld	-5107
▁1831	-5108
iga	-5109
▁rap	-5110
▁francis	-5111
口王阝	-5112
rome	-5113
igo	-5114
▁233	-5115
▁steph	-5116
▁rog	-5117
off	-5118
习习欠	-5119
▁final	-5120
▁asp	-5121
▁460	-5122
▁anim	-5123
▁union	-5124
gs	-5125
辶于	-5126
囗口阝	-5127
time	-5128
▁aga	-5129
▁mos	-5130
▁taiwan	-5131
𦣞页	-5132
▁hard	-5133
▁stra	-5134
tl	-5135
囗口示	-5136
▁aus	-5137
▁9000	-5138
▁second	-5139
▁385	-5140
oro	-5141
▁390	-5142
▁pay	-5143
ional	-5144
▁1833	-5145
▁chinese	-5146
亠口小頁	-5147
db	-5148
▁皿	-5149
▁bern	-5150
▁brown	-5151
▁307	-5152
▁set	-5153
vi	-5154
▁more	-5155
𠂊⺀	-5156
ami	-5157
▁level	-5158
亡民	-5159
max	-5160
𠂊⺀火	-5161
force	-5162
cle	-5163
▁maria	-5164
▁mozilla	-5165
eck	-5166
▁dh	-5167
▁mini	-5168
ros	-5169
▁sql	-5170
olution	-5171
ng	-5172
▁emp	-5173
▁found	-5174
kg	-5175
cas	-5176
▁fal	-5177
▁kir	-5178
stein	-5179
▁royal	-5180
uri	-5181
丿囗㐅比	-5182
氵亡	-5183
𠁣𠃛心	-5184
▁1810	-5185
▁fly	-5186
▁peop	-5187
je	-5188
▁ren	-5189
▁explor	-5190
cho	-5191
ves	-5192
宀八巾	-5193
▁pap	-5194
灬阝	-5195
金玉	-5196
𦣞頁	-5197
lix	-5198
▁620	-5199
ette	-5200
ights	-5201
矛攵女	-5202
501	-5203
▁film	-5204
▁1776	-5205
釆田阝	-5206
火夬	-5207
▁ash	-5208
▁control	-5209
fox	-5210
iter	-5211
立十刀	-5212
▁cup	-5213
▁ax	-5214
▁bat	-5215
▁gov	-5216
▁95%	-5217
▁arr	-5218
▁adobe	-5219
一由	-5220
yr	-5221
▁mot	-5222
▁corporation	-5223
uel	-5224
▁inde	-5225
▁flash	-5226
eter	-5227
▁stor	-5228
ition	-5229
▁ku	-5230
▁236	-5231
▁global	-5232
▁square	-5233
匚㐅瓦	-5234
▁630	-5235
▁243	-5236
▁equ	-5237
▁orig	-5238
▁left	-5239
▁1790	-5240
▁1834	-5241
▁electr	-5242
▁vr	-5243
▁1822	-5244
▁eric	-5245
▁technology	-5246
lish	-5247
▁distr	-5248
▁237	-5249
▁nm	-5250
▁242	-5251
▁1826	-5252
尸九	-5253
▁summer	-5254
一八石	-5255
▁303	-5256
▁510	-5257
▁512	-5258
▁mvp	-5259
扌斗	-5260
▁2%	-5261
▁802	-5262
▁had	-5263
ection	-5264
▁289	-5265
▁1799	-5266
400	-5267
ila	-5268
▁sf	-5269
▁um	-5270
▁liv	-5271
ift	-5272
vidia	-5273
口牙	-5274
▁dam	-5275
▁digital	-5276
▁mix	-5277
▁pen	-5278
舟甲	-5279
uct	-5280
▁252	-5281
厶口心	-5282
▁tan	-5283
▁eli	-5284
▁nvidia	-5285
ython	-5286
▁arts	-5287
▁which	-5288
lection	-5289
扌母	-5290
日广	-5291
380	-5292
our	-5293
戊一小	-5294
▁315	-5295
ender	-5296
kin	-5297
zer	-5298
▁ing	-5299
▁conc	-5300
iff	-5301
other	-5302
nt	-5303
▁pg	-5304
ache	-5305
ious	-5306
ness	-5307
bel	-5308
val	-5309
▁firefox	-5310
hd	-5311
over	-5312
▁254	-5313
▁call	-5314
▁960	-5315
▁jas	-5316
▁son	-5317
ility	-5318
▁241	-5319
龷由八阝	-5320
iness	-5321
▁prem	-5322
agram	-5323
▁1791	-5324
▁comput	-5325
礻止	-5326
▁244	-5327
▁ken	-5328
▁touch	-5329
人人頁	-5330
▁exp	-5331
antas	-5332
ental	-5333
▁york	-5334
▁daniel	-5335
▁1828	-5336
▁vers	-5337
女疌	-5338
▁1804	-5339
▁1813	-5340
▁press	-5341
▁festiv	-5342
𠂉生	-5343
▁hold	-5344
bra	-5345
lor	-5346
▁ub	-5347
▁318	-5348
▁1829	-5349
▁last	-5350
▁qq	-5351
ito	-5352
ume	-5353
▁287	-5354
▁sign	-5355
cus	-5356
▁bbs	-5357
▁kl	-5358
▁pos	-5359
▁pin	-5360
▁cnn	-5361
▁fif	-5362
401	-5363
ease	-5364
▁1823	-5365
▁netf	-5366
▁again	-5367
▁pd	-5368
▁338	-5369
▁jt	-5370
ox	-5371
▁1819	-5372
▁social	-5373
▁nu	-5374
▁chil	-5375
▁software	-5376
row	-5377
▁gm	-5378
▁phone	-5379
刀口力	-5380
▁312	-5381
▁618	-5382
▁bey	-5383
𠂊小玉	-5384
▁build	-5385
out	-5386
ascript	-5387
尸米	-5388
▁apg	-5389
▁see	-5390
▁1818	-5391
▁253	-5392
▁1802	-5393
▁adam	-5394
▁269	-5395
▁302	-5396
▁470	-5397
▁hp	-5398
▁1816	-5399
▁beat	-5400
▁alexander	-5401
▁3%	-5402
ansp	-5403
▁247	-5404
▁nad	-5405
▁tam	-5406
二贝	-5407
▁rain	-5408
cr	-5409
▁ct	-5410
▁dance	-5411
▁switch	-5412
𠂊彐皮	-5413
▁264	-5414
▁ban	-5415
▁304	-5416
▁festival	-5417
key	-5418
▁231	-5419
▁1775	-5420
▁head	-5421
▁europe	-5422
▁ff	-5423
▁cell	-5424
▁netflix	-5425
kh	-5426
夂月	-5427
ipp	-5428
una	-5429
▁nd	-5430
▁258	-5431
糸言糸金	-5432
bar	-5433
▁fx	-5434
丰寸灬	-5435
▁1780	-5436
竹尹	-5437
▁323	-5438
▁rail	-5439
▁people	-5440
▁273	-5441
ipe	-5442
▁vin	-5443
癶豆几	-5444
▁psy	-5445
▁force	-5446
▁football	-5447
▁rd	-5448
▁1794	-5449
▁series	-5450
▁chan	-5451
▁268	-5452
▁viv	-5453
▁matt	-5454
氵金	-5455
▁257	-5456
▁263	-5457
▁main	-5458
oud	-5459
▁uss	-5460
▁public	-5461
els	-5462
nes	-5463
⺊尸页	-5464
▁248	-5465
▁lady	-5466
▁explorer	-5467
火山	-5468
aka	-5469
ema	-5470
▁1807	-5471
▁acade	-5472
ges	-5473
▁346	-5474
▁1796	-5475
▁beta	-5476
▁astro	-5477
▁lond	-5478
▁point	-5479
▁pk	-5480
木由	-5481
▁4500	-5482
▁langu	-5483
▁yg	-5484
▁1805	-5485
▁hello	-5486
▁were	-5487
▁instagram	-5488
▁old	-5489
▁1650	-5490
▁mun	-5491
▁gard	-5492
▁scott	-5493
▁management	-5494
䒑未阝	-5495
▁272	-5496
▁299	-5497
▁1645	-5498
▁1809	-5499
▁christian	-5500
▁295	-5501
▁306	-5502
▁yah	-5503
▁wood	-5504
▁district	-5505
王民	-5506
ule	-5507
木且	-5508
▁billboard	-5509
2000	-5510
▁279	-5511
▁tcp	-5512
▁1750	-5513
▁block	-5514
▁queen	-5515
cent	-5516
▁701	-5517
▁fair	-5518
▁wan	-5519
▁1803	-5520
▁pdf	-5521
𠂊田灬比	-5522
ograph	-5523
col	-5524
▁276	-5525
▁gil	-5526
▁2100	-5527
竹及	-5528
▁clar	-5529
彳方	-5530
ird	-5531
rick	-5532
▁bug	-5533
▁2400	-5534
▁ipad	-5535
▁pagasa	-5536
▁python	-5537
hs	-5538
▁eb	-5539
play	-5540
ston	-5541
▁dol	-5542
▁1798	-5543
get	-5544
▁589	-5545
▁emu	-5546
▁1817	-5547
▁mode	-5548
▁water	-5549
▁awards	-5550
▁ker	-5551
▁family	-5552
▁767	-5553
▁1808	-5554
▁286	-5555
▁386	-5556
▁425	-5557
▁eff	-5558
▁kin	-5559
▁read	-5560
▁baby	-5561
ization	-5562
▁fut	-5563
inger	-5564
▁perf	-5565
uz	-5566
▁bf	-5567
▁cle	-5568
▁psp	-5569
▁und	-5570
▁978	-5571
▁stan	-5572
gi	-5573
人一口龙	-5574
▁1788	-5575
▁780	-5576
▁nca	-5577
▁wom	-5578
▁france	-5579
八厶瓦	-5580
▁1787	-5581
▁museum	-5582
raft	-5583
▁cw	-5584
▁stud	-5585
▁council	-5586
▁dev	-5587
▁shin	-5588
▁vl	-5589
▁820	-5590
▁hop	-5591
▁mess	-5592
▁javascript	-5593
och	-5594
▁deb	-5595
ren	-5596
▁296	-5597
▁din	-5598
▁sor	-5599
omb	-5600
▁sca	-5601
▁dea	-5602
▁gps	-5603
▁doub	-5604
ication	-5605
▁journal	-5606
▁660	-5607
▁andr	-5608
▁kon	-5609
rad	-5610
▁np	-5611
▁mnet	-5612
eme	-5613
▁pie	-5614
isc	-5615
▁fac	-5616
▁some	-5617
▁gun	-5618
▁ske	-5619
uf	-5620
elle	-5621
▁stad	-5622
mon	-5623
▁357	-5624
▁its	-5625
▁mike	-5626
▁central	-5627
iko	-5628
⿶⿱⿰	-5629
▁gh	-5630
▁earth	-5631
彳非	-5632
rise	-5633
▁742	-5634
▁bul	-5635
丿𠃌攵灬	-5636
▁note	-5637
▁multi	-5638
▁ven	-5639
▁london	-5640
耳冘	-5641
ova	-5642
▁801	-5643
▁bou	-5644
▁1580	-5645
▁1592	-5646
▁market	-5647
▁mis	-5648
▁271	-5649
yd	-5650
▁1783	-5651
▁ipod	-5652
kb	-5653
肀二	-5654
ats	-5655
▁335	-5656
▁blu	-5657
▁tvbs	-5658
▁710	-5659
▁anton	-5660
匚久	-5661
cel	-5662
ips	-5663
▁278	-5664
▁2600	-5665
▁centre	-5666
▁kel	-5667
▁1550	-5668
vision	-5669
▁ld	-5670
▁333	-5671
▁670	-5672
一户	-5673
▁259	-5674
▁sche	-5675
▁mig	-5676
▁soul	-5677
▁well	-5678
▁zero	-5679
▁730	-5680
▁leon	-5681
火虫	-5682
▁od	-5683
日大手	-5684
▁298	-5685
▁313	-5686
▁frame	-5687
▁570	-5688
▁281	-5689
▁485	-5690
一夕	-5691
ering	-5692
▁story	-5693
▁375	-5694
▁901	-5695
▁som	-5696
▁eg	-5697
儿丨皿	-5698
口止果	-5699
▁conn	-5700
金肅	-5701
▁415	-5702
▁alpha	-5703
▁say	-5704
kt	-5705
民攵	-5706
320	-5707
▁590	-5708
▁andrew	-5709
ray	-5710
▁274	-5711
▁319	-5712
▁hom	-5713
▁sho	-5714
▁dark	-5715
久火	-5716
vis	-5717
豸艮心	-5718
▁abb	-5719
▁bud	-5720
▁hit	-5721
▁mah	-5722
▁1568	-5723
▁album	-5724
▁ipv	-5725
▁rb	-5726
丿士贝	-5727
民攵心	-5728
ions	-5729
▁basic	-5730
▁secret	-5731
▁324	-5732
▁kan	-5733
nd	-5734
▁mak	-5735
▁kit	-5736
46⿱	-5737
▁dun	-5738
▁joh	-5739
▁cult	-5740
▁jeff	-5741
王久	-5742
钅本	-5743
osp	-5744
▁1827	-5745
▁they	-5746
一川	-5747
▁2300	-5748
▁gran	-5749
▁human	-5750
ines	-5751
▁link	-5752
▁friend	-5753
ban	-5754
▁dt	-5755
▁621	-5756
▁85%	-5757
▁ten	-5758
▁meth	-5759
▁kim	-5760
▁lum	-5761
▁lord	-5762
▁sus	-5763
丷干丸手	-5764
▁begin	-5765
men	-5766
res	-5767
▁ls	-5768
oh	-5769
til	-5770
▁cop	-5771
▁dy	-5772
▁757	-5773
▁760	-5774
▁aaa	-5775
▁drive	-5776
ful	-5777
⿱⿶⿱⿰	-5778
▁train	-5779
▁282	-5780
ities	-5781
▁four	-5782
mhz	-5783
▁dur	-5784
▁2200	-5785
war	-5786
▁267	-5787
▁bob	-5788
▁joe	-5789
uv	-5790
木木阝	-5791
忄冘	-5792
▁787	-5793
▁pack	-5794
anda	-5795
sson	-5796
▁293	-5797
▁kiss	-5798
▁lake	-5799
▁russ	-5800
▁284	-5801
▁vel	-5802
弓也	-5803
dren	-5804
▁round	-5805
▁327	-5806
禾央	-5807
▁283	-5808
▁ath	-5809
▁tea	-5810
▁base	-5811
▁fantas	-5812
formation	-5813
▁261	-5814
▁asc	-5815
▁mik	-5816
▁sund	-5817
▁edition	-5818
▁309	-5819
气山	-5820
eta	-5821
▁322	-5822
▁525	-5823
▁tex	-5824
zen	-5825
mond	-5826
▁transp	-5827
▁316	-5828
▁development	-5829
umb	-5830
▁314	-5831
▁shar	-5832
▁⿺⿱⿻⿻	-5833
▁att	-5834
▁php	-5835
▁systems	-5836
尸比	-5837
▁children	-5838
▁mx	-5839
ency	-5840
▁nar	-5841
▁dragon	-5842
tia	-5843
日一頁	-5844
ied	-5845
▁980	-5846
▁supp	-5847
▁328	-5848
▁ncaa	-5849
▁bg	-5850
▁unit	-5851
▁412	-5852
▁dim	-5853
宀心	-5854
iana	-5855
itor	-5856
▁366	-5857
▁903	-5858
heim	-5859
▁1582	-5860
言夬	-5861
ast	-5862
▁345	-5863
zi	-5864
46⿹	-5865
▁830	-5866
▁ent	-5867
▁1553	-5868
▁amaz	-5869
iii	-5870
▁355	-5871
氵耳	-5872
▁1080	-5873
lad	-5874
▁321	-5875
▁377	-5876
▁1811	-5877
▁sour	-5878
▁331	-5879
▁anth	-5880
▁austr	-5881
▁shell	-5882
口垂	-5883
女予	-5884
金川	-5885
▁490	-5886
▁tay	-5887
由月	-5888
▁hiv	-5889
table	-5890
▁1571	-5891
▁every	-5892
oe	-5893
cam	-5894
▁317	-5895
▁417	-5896
▁hay	-5897
▁1570	-5898
▁mass	-5899
oug	-5900
▁iec	-5901
▁sla	-5902
ror	-5903
𠂉大聿	-5904
less	-5905
▁359	-5906
▁fried	-5907
▁416	-5908
▁rows	-5909
▁bell	-5910
▁1583	-5911
▁toky	-5912
sy	-5913
▁ay	-5914
vers	-5915
▁indi	-5916
▁uc	-5917
▁fel	-5918
▁ron	-5919
alia	-5920
▁334	-5921
▁860	-5922
▁rfc	-5923
▁405	-5924
▁fan	-5925
▁pur	-5926
▁voice	-5927
艹韦	-5928
▁1565	-5929
习习隹戈	-5930
▁prim	-5931
house	-5932
▁happy	-5933
uber	-5934
▁nas	-5935
▁dest	-5936
▁there	-5937
▁produce	-5938
ides	-5939
▁387	-5940
lation	-5941
901	-5942
itan	-5943
▁758	-5944
▁hat	-5945
▁1770	-5946
▁zone	-5947
▁583	-5948
白田	-5949
▁fifa	-5950
▁abd	-5951
▁mom	-5952
▁wond	-5953
▁rowspan	-5954
cer	-5955
▁kde	-5956
▁1648	-5957
anga	-5958
▁326	-5959
▁1777	-5960
▁list	-5961
▁lor	-5962
▁beyond	-5963
▁person	-5964
bsd	-5965
不一阝	-5966
▁407	-5967
▁cli	-5968
▁got	-5969
▁our	-5970
▁count	-5971
▁history	-5972
ran	-5973
tica	-5974
ealth	-5975
▁ee	-5976
▁three	-5977
▁works	-5978
ible	-5979
▁organ	-5980
hp	-5981
二丨心	-5982
mail	-5983
▁fra	-5984
扌龙	-5985
wer	-5986
▁ci	-5987
▁ye	-5988
立日欠	-5989
▁pea	-5990
▁villa	-5991
dle	-5992
▁uk	-5993
esis	-5994
▁marie	-5995
▁348	-5996
▁dia	-5997
▁govern	-5998
ali	-5999
▁rp	-6000
▁emi	-6001
▁1784	-6002
▁1785	-6003
▁arth	-6004
于皿	-6005
▁344	-6006
▁1778	-6007
ode	-6008
▁880	-6009
▁jyp	-6010
▁meg	-6011
isa	-6012
士口页	-6013
▁ill	-6014
▁1640	-6015
▁card	-6016
▁og	-6017
chen	-6018
▁356	-6019
▁nex	-6020
▁steve	-6021
▁gy	-6022
▁707	-6023
▁stephen	-6024
▁education	-6025
方土	-6026
lab	-6027
方方土	-6028
▁404	-6029
▁their	-6030
ria	-6031
core	-6032
▁354	-6033
▁740	-6034
▁1661	-6035
▁edge	-6036
▁operation	-6037
stra	-6038
▁607	-6039
革央	-6040
des	-6041
▁tab	-6042
▁411	-6043
▁tokyo	-6044
▁math	-6045
▁business	-6046
▁690	-6047
▁1577	-6048
▁fore	-6049
▁gall	-6050
rib	-6051
▁1797	-6052
uction	-6053
ques	-6054
▁421	-6055
▁535	-6056
▁other	-6057
▁291	-6058
▁fall	-6059
▁solo	-6060
▁court	-6061
5⿹	-6062
ken	-6063
▁bmw	-6064
▁scr	-6065
▁audi	-6066
ij	-6067
▁ft	-6068
atus	-6069
小丿女	-6070
▁virt	-6071
▁cook	-6072
▁know	-6073
▁bridge	-6074
nm	-6075
▁921	-6076
▁rac	-6077
▁1586	-6078
elf	-6079
▁ted	-6080
athan	-6081
▁crea	-6082
olo	-6083
▁ey	-6084
▁dog	-6085
▁side	-6086
▁spir	-6087
门心	-6088
▁za	-6089
刀丿止	-6090
▁297	-6091
▁abo	-6092
▁ghz	-6093
▁samu	-6094
勹口灬	-6095
▁445	-6096
▁930	-6097
die	-6098
lie	-6099
▁2030	-6100
▁ball	-6101
▁840	-6102
▁1521	-6103
▁1646	-6104
▁profess	-6105
mal	-6106
rix	-6107
立十子	-6108
▁388	-6109
▁403	-6110
𠂊冫寸大	-6111
▁343	-6112
▁bin	-6113
▁feat	-6114
▁true	-6115
亻非	-6116
oli	-6117
cape	-6118
▁384	-6119
▁tre	-6120
木王	-6121
801	-6122
chi	-6123
火火木	-6124
▁aven	-6125
▁test	-6126
▁process	-6127
▁810	-6128
▁985	-6129
▁wta	-6130
▁shad	-6131
gu	-6132
耳𠃊	-6133
▁kor	-6134
▁saf	-6135
▁1786	-6136
utv	-6137
▁xm	-6138
ific	-6139
▁329	-6140
▁1760	-6141
▁johnson	-6142
▁007	-6143
▁mmc	-6144
▁ton	-6145
▁alan	-6146
▁chap	-6147
扌八	-6148
par	-6149
▁bak	-6150
▁rat	-6151
▁feder	-6152
din	-6153
ots	-6154
▁ie	-6155
▁nc	-6156
▁libr	-6157
ission	-6158
▁292	-6159
▁402	-6160
▁413	-6161
▁465	-6162
▁870	-6163
▁los	-6164
𠂊田灬刂	-6165
ector	-6166
▁qual	-6167
600	-6168
ago	-6169
▁fbi	-6170
言非	-6171
▁395	-6172
▁8%	-6173
chan	-6174
▁jess	-6175
▁brand	-6176
▁field	-6177
▁order	-6178
▁py	-6179
凵丨皮	-6180
木木女	-6181
▁352	-6182
▁pun	-6183
▁right	-6184
木乐	-6185
▁419	-6186
▁dat	-6187
▁2700	-6188
▁yahoo	-6189
▁number	-6190
601	-6191
▁6%	-6192
▁rx	-6193
厶口火	-6194
▁conf	-6195
▁294	-6196
ved	-6197
▁ky	-6198
ects	-6199
▁466	-6200
▁pierre	-6201
uma	-6202
▁1368	-6203
▁aim	-6204
▁kk	-6205
▁cher	-6206
▁prince	-6207
▁528	-6208
▁rose	-6209
▁581	-6210
▁start	-6211
ex	-6212
▁jay	-6213
▁viutv	-6214
▁indust	-6215
▁gpl	-6216
▁via	-6217
sen	-6218
amin	-6219
▁999	-6220
▁fre	-6221
red	-6222
utc	-6223
▁las	-6224
▁1781	-6225
▁broad	-6226
钅白	-6227
▁single	-6228
▁389	-6229
▁sna	-6230
osaurus	-6231
▁language	-6232
rod	-6233
lion	-6234
▁502	-6235
▁ant	-6236
▁beau	-6237
▁336	-6238
bit	-6239
▁367	-6240
▁ess	-6241
ration	-6242
▁bang	-6243
▁dead	-6244
▁boss	-6245
甲一斤	-6246
▁358	-6247
▁track	-6248
kw	-6249
▁mpeg	-6250
▁342	-6251
▁raw	-6252
▁ring	-6253
▁take	-6254
ming	-6255
▁442	-6256
ellow	-6257
▁1636	-6258
艹耳	-6259
▁bt	-6260
▁627	-6261
▁js	-6262
untu	-6263
▁econom	-6264
af	-6265
▁505	-6266
▁555	-6267
▁625	-6268
▁1590	-6269
▁standard	-6270
讠且	-6271
vent	-6272
▁ern	-6273
▁refer	-6274
▁information	-6275
▁7%	-6276
夂口隹	-6277
▁pon	-6278
冖水	-6279
▁337	-6280
pot	-6281
子子	-6282
幺大谷	-6283
rent	-6284
▁339	-6285
▁1559	-6286
▁hotel	-6287
▁august	-6288
▁common	-6289
▁⿰⿱⿵	-6290
▁ascii	-6291
▁states	-6292
▁4%	-6293
𠘧又缶	-6294
▁phys	-6295
▁turn	-6296
▁appli	-6297
扌夬	-6298
med	-6299
iger	-6300
山及	-6301
石见	-6302
十罒心	-6303
幺小	-6304
acy	-6305
eno	-6306
▁645	-6307
▁imax	-6308
▁kenn	-6309
▁moun	-6310
▁speed	-6311
▁970	-6312
冂二目力	-6313
▁lind	-6314
▁ruby	-6315
▁times	-6316
▁lr	-6317
▁406	-6318
▁dal	-6319
▁academy	-6320
ika	-6321
▁hun	-6322
人人龰耳	-6323
▁1610	-6324
▁anal	-6325
▁liber	-6326
人示田	-6327
▁bag	-6328
▁bre	-6329
▁map	-6330
itish	-6331
▁foundation	-6332
ites	-6333
▁sant	-6334
▁sport	-6335
▁nr	-6336
糸言糸山	-6337
▁source	-6338
▁1643	-6339
▁santa	-6340
▁stage	-6341
▁virgin	-6342
▁geforce	-6343
eri	-6344
oop	-6345
▁619	-6346
▁ari	-6347
▁gon	-6348
▁mhz	-6349
▁1622	-6350
▁double	-6351
▁british	-6352
▁eos	-6353
▁tol	-6354
▁1642	-6355
▁gear	-6356
▁399	-6357
刀丿丶米	-6358
▁laur	-6359
▁io	-6360
▁dyn	-6361
▁gs	-6362
▁rc	-6363
▁brt	-6364
mph	-6365
▁1680	-6366
▁347	-6367
▁414	-6368
▁447	-6369
幺幺土	-6370
▁pot	-6371
▁1730	-6372
▁jud	-6373
▁1763	-6374
ih	-6375
ado	-6376
hed	-6377
▁418	-6378
▁pow	-6379
▁williams	-6380
▁515	-6381
▁727	-6382
▁row	-6383
𠂆万	-6384
𭕄⿻	-6385
扌丸手	-6386
▁gor	-6387
▁rot	-6388
▁simon	-6389
▁studios	-6390
mad	-6391
▁585	-6392
▁jos	-6393
▁also	-6394
▁hero	-6395
▁access	-6396
▁2800	-6397
▁mytv	-6398
bin	-6399
tist	-6400
▁fort	-6401
esa	-6402
▁617	-6403
▁sug	-6404
ument	-6405
▁1723	-6406
▁chen	-6407
▁hyper	-6408
▁1562	-6409
▁1620	-6410
▁1683	-6411
▁flor	-6412
▁arthur	-6413
▁johann	-6414
▁351	-6415
亻瓦	-6416
工口	-6417
lah	-6418
ols	-6419
▁ali	-6420
▁1517	-6421
▁kill	-6422
▁ross	-6423
ident	-6424
▁1547	-6425
▁chang	-6426
大力	-6427
▁hm	-6428
▁rf	-6429
▁kat	-6430
▁sts	-6431
▁kids	-6432
▁made	-6433
▁opera	-6434
ogue	-6435
▁sas	-6436
erial	-6437
▁ther	-6438
▁when	-6439
pro	-6440
van	-6441
▁ox	-6442
匚儿戈	-6443
▁civ	-6444
▁15000	-6445
▁mam	-6446
▁phot	-6447
▁wolf	-6448
▁major	-6449
▁lv	-6450
▁lost	-6451
▁wild	-6452
▁jackson	-6453
丿大山	-6454
▁flo	-6455
▁nick	-6456
ize	-6457
▁1556	-6458
▁seed	-6459
▁socket	-6460
▁1625	-6461
works	-6462
▁tower	-6463
▁where	-6464
cell	-6465
▁622	-6466
▁639	-6467
▁cba	-6468
▁eth	-6469
▁mba	-6470
▁1782	-6471
▁wiki	-6472
uts	-6473
▁abs	-6474
▁rue	-6475
▁fred	-6476
▁jones	-6477
▁uh	-6478
▁615	-6479
▁1772	-6480
dom	-6481
▁bsd	-6482
▁gw	-6483
▁920	-6484
▁arc	-6485
▁boys	-6486
har	-6487
▁770	-6488
▁gab	-6489
▁lot	-6490
▁lte	-6491
▁cham	-6492
▁sunday	-6493
疒且	-6494
▁353	-6495
▁nik	-6496
▁file	-6497
▁arg	-6498
亠口小页	-6499
▁mill	-6500
▁view	-6501
▁427	-6502
▁gog	-6503
▁days	-6504
▁eleven	-6505
▁surface	-6506
亻里	-6507
▁cos	-6508
▁wall	-6509
▁collection	-6510
▁ik	-6511
▁35%	-6512
▁332	-6513
𠂊田一非	-6514
▁1574	-6515
▁1598	-6516
▁mega	-6517
uy	-6518
艹弓	-6519
▁css	-6520
▁nmb	-6521
▁529	-6522
▁kam	-6523
▁yes	-6524
▁1511	-6525
▁nicon	-6526
fred	-6527
𠂊田灬兆	-6528
▁1628	-6529
▁break	-6530
▁apache	-6531
ril	-6532
▁aff	-6533
roll	-6534
▁irt	-6535
▁gene	-6536
au	-6537
文糸	-6538
疒久	-6539
330	-6540
▁tf	-6541
▁383	-6542
▁gre	-6543
▁six	-6544
▁magic	-6545
tie	-6546
uit	-6547
ments	-6548
▁1662	-6549
▁virtual	-6550
▁432	-6551
▁537	-6552
▁605	-6553
▁885	-6554
light	-6555
▁voca	-6556
gam	-6557
mes	-6558
tice	-6559
▁341	-6560
▁371	-6561
▁wel	-6562
▁into	-6563
▁division	-6564
工阝	-6565
ches	-6566
▁gpu	-6567
▁ener	-6568
▁gang	-6569
▁sars	-6570
ove	-6571
▁cj	-6572
▁kd	-6573
▁hip	-6574
▁most	-6575
▁action	-6576
▁albert	-6577
▁niconico	-6578
疒巴	-6579
▁1630	-6580
▁golden	-6581
▁interac	-6582
nia	-6583
車斤土	-6584
▁1573	-6585
▁1660	-6586
▁karl	-6587
▁walter	-6588
bang	-6589
▁361	-6590
▁pict	-6591
▁20000	-6592
▁lp	-6593
贝贝缶	-6594
▁435	-6595
▁1755	-6596
▁tony	-6597
束頁	-6598
aro	-6599
▁533	-6600
▁1779	-6601
▁2025	-6602
▁rand	-6603
▁never	-6604
elli	-6605
▁408	-6606
▁mys	-6607
ference	-6608
目来	-6609
▁lew	-6610
▁blood	-6611
▁548	-6612
▁910	-6613
▁940	-6614
▁ext	-6615
▁inn	-6616
▁walk	-6617
▁eva	-6618
▁mcc	-6619
▁than	-6620
▁kt	-6621
▁hkt	-6622
▁auto	-6623
▁make	-6624
彳弗	-6625
酉干	-6626
钅重	-6627
loid	-6628
▁546	-6629
▁577	-6630
▁3200	-6631
bby	-6632
⿱⿶⿳⿰	-6633
abeth	-6634
worth	-6635
▁fish	-6636
▁about	-6637
tier	-6638
▁45%	-6639
▁tun	-6640
▁cosp	-6641
▁fs	-6642
iano	-6643
▁398	-6644
▁409	-6645
▁ave	-6646
▁1560	-6647
▁1621	-6648
▁549	-6649
▁705	-6650
▁1774	-6651
▁computer	-6652
ief	-6653
kins	-6654
▁527	-6655
▁536	-6656
▁ped	-6657
usion	-6658
gl	-6659
口龶见	-6660
▁ddr	-6661
ember	-6662
▁nico	-6663
▁graph	-6664
▁championship	-6665
atory	-6666
▁1490	-6667
▁⿰⿱𭕄⿻	-6668
change	-6669
人人耳	-6670
▁518	-6671
▁avenue	-6672
800	-6673
木木米	-6674
▁iss	-6675
▁talk	-6676
▁smart	-6677
▁depart	-6678
▁tm	-6679
𠂊口比	-6680
▁1649	-6681
bro	-6682
日大阝	-6683
▁sega	-6684
ective	-6685
▁player	-6686
▁season	-6687
wh	-6688
▁samuel	-6689
金白	-6690
▁bac	-6691
▁cour	-6692
ench	-6693
▁448	-6694
▁511	-6695
▁pix	-6696
▁future	-6697
▁wonder	-6698
⿳𭕄	-6699
亻羊	-6700
▁446	-6701
iction	-6702
▁committ	-6703
dm	-6704
▁hyd	-6705
▁yam	-6706
▁infin	-6707
▁library	-6708
cept	-6709
▁545	-6710
▁547	-6711
豸里	-6712
oda	-6713
▁523	-6714
▁790	-6715
▁aur	-6716
ather	-6717
▁1637	-6718
▁anna	-6719
▁mart	-6720
▁alice	-6721
240	-6722
bon	-6723
▁lc	-6724
▁499	-6725
▁bah	-6726
▁1765	-6727
▁rade	-6728
▁chrome	-6729
alk	-6730
yer	-6731
𠘧又心	-6732
▁611	-6733
▁theory	-6734
▁english	-6735
亚土	-6736
her	-6737
umi	-6738
乡隹瓦	-6739
▁516	-6740
▁cel	-6741
▁1624	-6742
▁hx	-6743
▁477	-6744
▁amp	-6745
▁bes	-6746
▁seven	-6747
▁487	-6748
▁612	-6749
▁memor	-6750
▁cosplay	-6751
▁1585	-6752
issement	-6753
▁ori	-6754
▁1535	-6755
▁1541	-6756
▁function	-6757
rd	-6758
十口儿刂	-6759
▁1634	-6760
▁metal	-6761
木石	-6762
cht	-6763
iny	-6764
▁qs	-6765
▁tl	-6766
▁1627	-6767
▁1720	-6768
▁robin	-6769
钅玉	-6770
bour	-6771
▁12%	-6772
▁std	-6773
▁vita	-6774
gn	-6775
▁pf	-6776
▁396	-6777
▁476	-6778
▁cole	-6779
▁439	-6780
▁506	-6781
▁georg	-6782
▁taylor	-6783
inae	-6784
▁479	-6785
▁tap	-6786
▁cali	-6787
▁here	-6788
tern	-6789
▁455	-6790
▁capital	-6791
▁556	-6792
▁dns	-6793
▁1748	-6794
▁kevin	-6795
▁christoph	-6796
ees	-6797
oni	-6798
tex	-6799
▁alt	-6800
▁paris	-6801
日卯	-6802
▁brian	-6803
▁exper	-6804
▁bot	-6805
▁sex	-6806
▁wea	-6807
▁422	-6808
▁433	-6809
▁stadium	-6810
▁european	-6811
广羊	-6812
ando	-6813
▁kal	-6814
丨丨比阝	-6815
▁enterp	-6816
舟方	-6817
don	-6818
▁vit	-6819
▁death	-6820
▁ck	-6821
▁626	-6822
▁fab	-6823
▁1250	-6824
▁1629	-6825
▁theat	-6826
▁arrond	-6827
ety	-6828
▁522	-6829
▁nfl	-6830
▁1736	-6831
▁lead	-6832
▁week	-6833
▁675	-6834
▁1724	-6835
王耳	-6836
▁364	-6837
▁451	-6838
▁1647	-6839
▁mind	-6840
▁arrondissement	-6841
of	-6842
巾隹	-6843
▁1631	-6844
▁board	-6845
ners	-6846
▁jus	-6847
▁1769	-6848
爫见	-6849
讠非	-6850
▁method	-6851
bu	-6852
yan	-6853
▁ati	-6854
▁parad	-6855
▁contin	-6856
ological	-6857
▁mw	-6858
▁rr	-6859
▁349	-6860
▁368	-6861
▁519	-6862
▁aqu	-6863
back	-6864
▁486	-6865
▁567	-6866
▁1529	-6867
▁dohc	-6868
▁patrick	-6869
▁475	-6870
enger	-6871
▁1727	-6872
▁full	-6873
▁369	-6874
▁deep	-6875
▁ubuntu	-6876
ori	-6877
▁376	-6878
▁area	-6879
辶十	-6880
▁eu	-6881
▁372	-6882
▁552	-6883
▁925	-6884
▁ala	-6885
▁ell	-6886
▁doug	-6887
▁plat	-6888
▁ow	-6889
禾几页	-6890
▁423	-6891
▁443	-6892
▁1616	-6893
▁mars	-6894
▁pers	-6895
▁framework	-6896
yo	-6897
mas	-6898
口口頁	-6899
bach	-6900
▁378	-6901
▁397	-6902
▁685	-6903
人一口页	-6904
▁services	-6905
口夫欠	-6906
ense	-6907
▁508	-6908
▁five	-6909
▁priv	-6910
▁373	-6911
▁426	-6912
▁ale	-6913
土儿土丸𧘇	-6914
疒豆	-6915
fri	-6916
人人艮	-6917
pson	-6918
▁517	-6919
▁1651	-6920
▁secur	-6921
▁stone	-6922
▁radeon	-6923
一尸	-6924
pur	-6925
imax	-6926
▁363	-6927
▁pak	-6928
▁transport	-6929
▁sb	-6930
stal	-6931
▁1771	-6932
ogen	-6933
▁362	-6934
▁613	-6935
糸言糸木	-6936
ding	-6937
▁538	-6938
▁pad	-6939
▁reference	-6940
▁381	-6941
▁ris	-6942
コ一人贝	-6943
▁original	-6944
109	-6945
tha	-6946
𠃊目八	-6947
▁614	-6948
▁99%	-6949
▁990	-6950
▁1740	-6951
▁1745	-6952
▁garden	-6953
▁wilson	-6954
aki	-6955
▁df	-6956
▁51%	-6957
▁tgv	-6958
gress	-6959
▁wing	-6960
▁movie	-6961
dc	-6962
sk	-6963
▁rober	-6964
▁453	-6965
▁nich	-6966
▁spring	-6967
▁theatre	-6968
iva	-6969
▁kv	-6970
ipei	-6971
▁586	-6972
▁655	-6973
▁lyn	-6974
▁usa	-6975
▁5500	-6976
▁friedrich	-6977
戋皿	-6978
目疌	-6979
▁436	-6980
▁any	-6981
▁hey	-6982
▁lie	-6983
▁mes	-6984
▁1689	-6985
▁1762	-6986
▁1773	-6987
口亚	-6988
uer	-6989
阝鬼	-6990
hen	-6991
kia	-6992
▁lm	-6993
▁489	-6994
▁pia	-6995
▁stop	-6996
▁ix	-6997
▁xi	-6998
▁526	-6999
▁pci	-7000
▁burn	-7001
cf	-7002
vey	-7003
▁18%	-7004
▁jet	-7005
▁1487	-7006
▁magn	-7007
▁428	-7008
▁dif	-7009
▁1618	-7010
▁1619	-7011
▁907	-7012
▁sher	-7013
▁offic	-7014
nam	-7015
▁que	-7016
▁1493	-7017
▁1545	-7018
▁committee	-7019
口頁	-7020
rac	-7021
▁717	-7022
anger	-7023
▁hand	-7024
▁lisa	-7025
▁won	-7026
▁1615	-7027
▁1757	-7028
▁lisp	-7029
▁stri	-7030
▁very	-7031
__	-7032
ages	-7033
▁joy	-7034
▁pse	-7035
▁1670	-7036
▁wave	-7037
▁penti	-7038
▁modern	-7039
▁mission	-7040
缶本	-7041
odon	-7042
▁1544	-7043
▁jenn	-7044
▁repub	-7045
▁building	-7046
覀示瓜	-7047
▁715	-7048
▁1735	-7049
5⿸	-7050
束力	-7051
▁534	-7052
▁635	-7053
▁kom	-7054
bourg	-7055
▁1505	-7056
▁health	-7057
▁pacific	-7058
王申	-7059
▁616	-7060
ating	-7061
▁cz	-7062
▁457	-7063
▁gsm	-7064
▁1538	-7065
▁lucas	-7066
▁taipei	-7067
▁606	-7068
▁been	-7069
讠牙	-7070
▁gc	-7071
▁gem	-7072
▁1502	-7073
▁12000	-7074
uty	-7075
▁dp	-7076
▁495	-7077
▁636	-7078
▁cube	-7079
ries	-7080
▁488	-7081
▁539	-7082
▁det	-7083
▁fat	-7084
▁fis	-7085
▁1603	-7086
▁6500	-7087
▁auth	-7088
▁women	-7089
oco	-7090
▁tt	-7091
山豆頁	-7092
未攵厂	-7093
▁392	-7094
▁age	-7095
▁michel	-7096
▁tb	-7097
ress	-7098
▁532	-7099
匚儿斗	-7100
view	-7101
▁815	-7102
▁jar	-7103
▁1688	-7104
▁alfred	-7105
钅目	-7106
▁bmt	-7107
▁bow	-7108
rough	-7109
▁379	-7110
▁smk	-7111
▁wik	-7112
▁1609	-7113
▁3600	-7114
金甘	-7115
匕水頁	-7116
ways	-7117
▁lil	-7118
▁sav	-7119
▁tas	-7120
▁1450	-7121
▁2023	-7122
hl	-7123
日兆	-7124
▁fda	-7125
▁587	-7126
▁hav	-7127
▁kab	-7128
▁mrna	-7129
uan	-7130
case	-7131
▁628	-7132
▁98%	-7133
▁neo	-7134
▁pit	-7135
▁ral	-7136
▁tot	-7137
▁nord	-7138
dd	-7139
sl	-7140
lace	-7141
▁553	-7142
▁65%	-7143
▁obs	-7144
▁stars	-7145
▁pentium	-7146
▁vocaloid	-7147
朱阝	-7148
革末	-7149
▁vv	-7150
▁454	-7151
▁524	-7152
▁624	-7153
▁711	-7154
▁haw	-7155
▁sid	-7156
▁1370	-7157
▁come	-7158
▁roman	-7159
▁9%	-7160
戈戈皿	-7161
▁825	-7162
▁him	-7163
▁1725	-7164
▁parti	-7165
谷阝	-7166
▁431	-7167
▁dynam	-7168
▁374	-7169
▁1667	-7170
ential	-7171
leg	-7172
uki	-7173
▁424	-7174
▁762	-7175
▁nan	-7176
火火冖火	-7177
▁513	-7178
▁554	-7179
龙耳	-7180
▁xe	-7181
▁623	-7182
▁rol	-7183
▁perl	-7184
▁valley	-7185
▁gamespot	-7186
尢丶山	-7187
inus	-7188
iron	-7189
▁629	-7190
▁721	-7191
▁money	-7192
bat	-7193
lev	-7194
▁rn	-7195
tdown	-7196
▁prop	-7197
▁marsh	-7198
▁ultra	-7199
700	-7200
hard	-7201
▁gas	-7202
▁1635	-7203
▁1759	-7204
dor	-7205
oom	-7206
▁503	-7207
▁watch	-7208
八刀阝	-7209
▁394	-7210
▁1623	-7211
▁1764	-7212
▁freder	-7213
mg	-7214
rian	-7215
▁713	-7216
▁1578	-7217
▁1659	-7218
▁sail	-7219
▁active	-7220
utt	-7221
䒑土水	-7222
iday	-7223
▁637	-7224
▁1457	-7225
▁1466	-7226
▁1756	-7227
目丁	-7228
ias	-7229
▁gd	-7230
usta	-7231
▁nec	-7232
▁1569	-7233
▁gate	-7234
王韦	-7235
▁mand	-7236
ht	-7237
helm	-7238
▁551	-7239
inder	-7240
▁pink	-7241
▁mount	-7242
acs	-7243
▁393	-7244
▁531	-7245
▁1050	-7246
▁alli	-7247
▁inte	-7248
▁jason	-7249
扌工	-7250
来贝	-7251
nel	-7252
▁dx	-7253
▁926	-7254
▁1768	-7255
▁body	-7256
▁wester	-7257
一虫	-7258
▁ek	-7259
口止八	-7260
down	-7261
凵丨一虫	-7262
▁archive	-7263
▁438	-7264
▁494	-7265
▁kid	-7266
▁lud	-7267
▁1752	-7268
▁468	-7269
▁576	-7270
▁688	-7271
▁did	-7272
▁opp	-7273
▁afri	-7274
▁anne	-7275
▁espn	-7276
▁motor	-7277
▁890	-7278
▁shop	-7279
wr	-7280
钅贝	-7281
▁050	-7282
▁55%	-7283
▁dip	-7284
𠂊田灬非	-7285
▁1150	-7286
▁front	-7287
▁harris	-7288
▁portable	-7289
▁712	-7290
▁735	-7291
▁bol	-7292
▁1567	-7293
▁index	-7294
▁ville	-7295
cia	-7296
lon	-7297
日一页	-7298
▁642	-7299
▁805	-7300
▁1652	-7301
▁gnome	-7302
金土	-7303
nie	-7304
host	-7305
ival	-7306
▁458	-7307
▁lcd	-7308
▁1733	-7309
㐅刂	-7310
▁pb	-7311
木木糸	-7312
▁542	-7313
▁588	-7314
▁1260	-7315
▁eliz	-7316
▁fern	-7317
亠丷厂生刂	-7318
▁energy	-7319
▁species	-7320
fi	-7321
木斥	-7322
ade	-7323
艹冖虫	-7324
▁504	-7325
▁575	-7326
▁fro	-7327
thers	-7328
▁1758	-7329
▁hell	-7330
▁think	-7331
▁fantasy	-7332
chy	-7333
▁604	-7334
▁cia	-7335
aster	-7336
▁roll	-7337
▁roger	-7338
hema	-7339
▁509	-7340
▁521	-7341
▁lab	-7342
▁1601	-7343
▁fact	-7344
▁fami	-7345
▁lewis	-7346
▁sweet	-7347
扌柬	-7348
fel	-7349
▁1632	-7350
▁smap	-7351
hu	-7352
gie	-7353
▁resp	-7354
▁harry	-7355
一由心	-7356
▁452	-7357
▁544	-7358
▁acid	-7359
口自	-7360
月月刂	-7361
▁716	-7362
▁struct	-7363
▁termin	-7364
冂丨	-7365
ost	-7366
止匕石	-7367
agne	-7368
▁ran	-7369
oy	-7370
▁msn	-7371
▁nin	-7372
▁countdown	-7373
囗屯	-7374
禾儿頁	-7375
▁7500	-7376
▁lock	-7377
▁castle	-7378
oa	-7379
火韦	-7380
gra	-7381
ater	-7382
▁429	-7383
▁962	-7384
▁tvn	-7385
▁1664	-7386
▁1728	-7387
▁planet	-7388
cep	-7389
ears	-7390
▁das	-7391
▁1369	-7392
▁blog	-7393
▁complex	-7394
火火阝	-7395
▁cad	-7396
▁ccd	-7397
▁1604	-7398
▁1654	-7399
▁poem	-7400
ues	-7401
▁936	-7402
▁ost	-7403
▁adhd	-7404
▁look	-7405
▁tell	-7406
▁freed	-7407
▁565	-7408
▁566	-7409
八刀心	-7410
▁472	-7411
▁725	-7412
▁1575	-7413
▁1655	-7414
▁1729	-7415
▁foll	-7416
▁vt	-7417
▁382	-7418
▁632	-7419
▁case	-7420
▁being	-7421
▁version	-7422
镸彡毛	-7423
▁391	-7424
▁755	-7425
▁ful	-7426
▁kur	-7427
ether	-7428
▁snow	-7429
▁437	-7430
▁765	-7431
▁npc	-7432
▁1767	-7433
▁march	-7434
▁ue	-7435
▁1589	-7436
▁1595	-7437
ku	-7438
▁kb	-7439
ancy	-7440
tran	-7441
▁vor	-7442
ennis	-7443
▁1572	-7444
▁anthony	-7445
▁557	-7446
▁634	-7447
▁bun	-7448
▁kle	-7449
▁1584	-7450
▁1613	-7451
𠃊目	-7452
fan	-7453
▁507	-7454
▁514	-7455
▁648	-7456
▁spect	-7457
ain	-7458
▁jp	-7459
alis	-7460
▁646	-7461
peria	-7462
▁1701	-7463
met	-7464
▁isa	-7465
▁pascal	-7466
火欠	-7467
ties	-7468
▁686	-7469
▁785	-7470
▁1684	-7471
▁juan	-7472
▁wong	-7473
▁ois	-7474
▁1540	-7475
▁food	-7476
▁nokia	-7477
fly	-7478
▁dk	-7479
𠃊目小	-7480
▁1612	-7481
▁cash	-7482
▁mira	-7483
wi	-7484
bas	-7485
宀八串	-7486
ique	-7487
▁lem	-7488
▁1626	-7489
▁cath	-7490
▁hein	-7491
▁machine	-7492
ala	-7493
▁bp	-7494
▁vip	-7495
▁enterprise	-7496
▁christopher	-7497
ulu	-7498
⺊口乚	-7499
ones	-7500
▁vcd	-7501
▁1638	-7502
▁1685	-7503
▁avex	-7504
▁philipp	-7505
▁holdings	-7506
▁commission	-7507
▁interactive	-7508
▁687	-7509
▁hosp	-7510
▁davis	-7511
▁alexand	-7512
目于	-7513
▁lol	-7514
▁658	-7515
▁fem	-7516
▁nig	-7517
▁1350	-7518
▁1469	-7519
女又巾	-7520
▁493	-7521
▁835	-7522
▁classic	-7523
门隹	-7524
▁13%	-7525
▁467	-7526
▁603	-7527
▁945	-7528
▁ufo	-7529
▁1478	-7530
▁1721	-7531
▁1751	-7532
▁1766	-7533
▁report	-7534
钅甘	-7535
imo	-7536
ole	-7537
𠂇巾阝	-7538
▁561	-7539
▁1614	-7540
▁1713	-7541
▁3166	-7542
▁engineering	-7543
zh	-7544
ars	-7545
ois	-7546
▁444	-7547
▁sac	-7548
berry	-7549
▁path	-7550
▁rank	-7551
▁xperia	-7552
cip	-7553
ifi	-7554
vet	-7555
▁541	-7556
▁nuc	-7557
▁concert	-7558
tes	-7559
uda	-7560
▁mn	-7561
一由寸	-7562
oper	-7563
▁464	-7564
▁638	-7565
▁689	-7566
▁cit	-7567
▁hms	-7568
▁ryan	-7569
intosh	-7570
▁metro	-7571
▁miller	-7572
忄千	-7573
rot	-7574
▁aer	-7575
▁ans	-7576
▁wilhelm	-7577
氵里	-7578
bol	-7579
hol	-7580
atan	-7581
▁651	-7582
▁667	-7583
▁986	-7584
▁1754	-7585
▁philip	-7586
264	-7587
ango	-7588
▁456	-7589
▁647	-7590
▁912	-7591
▁tag	-7592
▁1587	-7593
▁elizabeth	-7594
bes	-7595
一丂页	-7596
endo	-7597
▁nak	-7598
▁rod	-7599
▁mail	-7600
女丑	-7601
kan	-7602
▁484	-7603
▁722	-7604
▁based	-7605
▁const	-7606
▁gamec	-7607
lect	-7608
▁492	-7609
▁845	-7610
▁965	-7611
tig	-7612
八刀木	-7613
▁975	-7614
▁1561	-7615
▁coll	-7616
▁rick	-7617
▁archit	-7618
350	-7619
agon	-7620
▁684	-7621
▁tnt	-7622
▁1639	-7623
▁sens	-7624
▁directx	-7625
▁ks	-7626
bers	-7627
▁441	-7628
▁731	-7629
▁937	-7630
▁1280	-7631
▁1526	-7632
lus	-7633
▁cx	-7634
▁498	-7635
▁itv	-7636
ature	-7637
▁1761	-7638
▁jane	-7639
▁peace	-7640
▁showcase	-7641
irs	-7642
一八糸	-7643
丷夫己	-7644
osph	-7645
▁929	-7646
▁cis	-7647
▁ica	-7648
eater	-7649
▁1658	-7650
▁1753	-7651
▁gian	-7652
▁arena	-7653
▁memory	-7654
▁department	-7655
110	-7656
tech	-7657
▁559	-7658
▁568	-7659
▁1496	-7660
▁allen	-7661
▁482	-7662
▁496	-7663
▁668	-7664
▁gamer	-7665
uff	-7666
▁719	-7667
▁arn	-7668
▁room	-7669
▁amazon	-7670
atch	-7671
▁633	-7672
▁gri	-7673
▁wash	-7674
▁yosh	-7675
▁califor	-7676
门三	-7677
erm	-7678
phy	-7679
▁ud	-7680
扌丸𧘇	-7681
▁918	-7682
▁maur	-7683
▁bigbang	-7684
▁natural	-7685
▁generation	-7686
hew	-7687
▁915	-7688
▁bec	-7689
▁oce	-7690
▁oly	-7691
▁tit	-7692
▁piece	-7693
▁short	-7694
▁government	-7695
oche	-7696
pend	-7697
▁aba	-7698
scape	-7699
▁3300	-7700
▁marc	-7701
▁vice	-7702
▁extra	-7703
▁histor	-7704
via	-7705
▁596	-7706
未攵厂牛	-7707
▁1707	-7708
▁1732	-7709
▁ling	-7710
▁rela	-7711
▁scot	-7712
▁macos	-7713
▁prime	-7714
enz	-7715
▁969	-7716
▁scan	-7717
▁turbo	-7718
oi	-7719
ils	-7720
▁lat	-7721
▁1593	-7722
▁advanced	-7723
▁victoria	-7724
钅巴	-7725
▁863	-7726
▁1588	-7727
▁1690	-7728
▁atom	-7729
▁sain	-7730
bis	-7731
䒑土心	-7732
▁483	-7733
▁mut	-7734
▁sud	-7735
▁dash	-7736
▁diam	-7737
▁stat	-7738
▁twins	-7739
▁nk	-7740
▁562	-7741
▁598	-7742
▁pga	-7743
羊䒑口阝	-7744
▁1475	-7745
▁barb	-7746
▁brun	-7747
▁howard	-7748
纟非	-7749
▁rg	-7750
▁zen	-7751
▁gord	-7752
▁then	-7753
▁perfect	-7754
▁hospital	-7755
▁universal	-7756
zan	-7757
igan	-7758
▁469	-7759
▁682	-7760
▁973	-7761
music	-7762
▁cass	-7763
▁imag	-7764
▁khan	-7765
lu	-7766
豸才	-7767
▁704	-7768
▁706	-7769
▁947	-7770
𠂉大巨木	-7771
▁1520	-7772
▁1607	-7773
▁pseud	-7774
▁invest	-7775
王玉	-7776
ppe	-7777
ione	-7778
▁449	-7779
▁751	-7780
▁846	-7781
▁vhs	-7782
▁fron	-7783
石本	-7784
ista	-7785
▁471	-7786
▁602	-7787
▁729	-7788
▁876	-7789
▁597	-7790
▁718	-7791
▁nap	-7792
▁pul	-7793
▁1657	-7794
▁review	-7795
业㡀	-7796
mark	-7797
▁677	-7798
▁759	-7799
▁sad	-7800
▁1710	-7801
▁fast	-7802
▁gram	-7803
py	-7804
zzo	-7805
▁766	-7806
▁905	-7807
▁rca	-7808
▁dear	-7809
▁elect	-7810
▁formation	-7811
mw	-7812
金戉	-7813
bow	-7814
▁ws	-7815
▁14%	-7816
▁434	-7817
▁573	-7818
▁eug	-7819
▁gaon	-7820
▁lear	-7821
山由	-7822
灬又	-7823
lis	-7824
▁kc	-7825
▁wu	-7826
▁1460	-7827
▁rest	-7828
▁symb	-7829
▁clark	-7830
辶入	-7831
gas	-7832
rin	-7833
usa	-7834
▁681	-7835
under	-7836
▁1453	-7837
▁1611	-7838
▁1726	-7839
▁catal	-7840
▁vision	-7841
𠁣𠃛隹	-7842
bell	-7843
▁571	-7844
▁tac	-7845
𠂊田灬方	-7846
▁1555	-7847
▁1737	-7848
▁bios	-7849
▁hart	-7850
hal	-7851
▁478	-7852
▁756	-7853
▁812	-7854
▁nac	-7855
enberg	-7856
tz	-7857
▁bos	-7858
▁exo	-7859
▁1530	-7860
▁nova	-7861
▁western	-7862
▁mountain	-7863
▁youtuber	-7864
乃小	-7865
▁atm	-7866
▁ria	-7867
▁1524	-7868
▁artist	-7869
▁gamecube	-7870
口木火	-7871
card	-7872
▁ras	-7873
▁scope	-7874
▁studies	-7875
▁aq	-7876
▁666	-7877
▁obj	-7878
▁1679	-7879
▁exile	-7880
▁attack	-7881
冂一谷	-7882
▁738	-7883
▁813	-7884
▁atr	-7885
▁rud	-7886
▁tes	-7887
▁1380	-7888
▁1430	-7889
▁1532	-7890
▁1717	-7891
▁1718	-7892
冂一谷又土	-7893
口言	-7894
艹且	-7895
dez	-7896
omy	-7897
hedr	-7898
▁esp	-7899
人一口阝	-7900
▁1130	-7901
▁1454	-7902
▁penn	-7903
氵巳	-7904
113	-7905
agar	-7906
more	-7907
▁847	-7908
▁1525	-7909
▁1675	-7910
701	-7911
bda	-7912
▁nv	-7913
anni	-7914
▁1697	-7915
▁1715	-7916
▁hack	-7917
▁viii	-7918
ax	-7919
文口	-7920
灬大	-7921
石隹	-7922
车乚	-7923
▁qt	-7924
etta	-7925
head	-7926
▁609	-7927
▁alg	-7928
▁fig	-7929
▁1492	-7930
▁1681	-7931
▁pear	-7932
rt	-7933
山见	-7934
ogo	-7935
▁fol	-7936
丨丨比米	-7937
▁1633	-7938
▁1747	-7939
▁gary	-7940
▁lion	-7941
▁459	-7942
▁817	-7943
▁935	-7944
▁ncc	-7945
craft	-7946
▁1481	-7947
▁1666	-7948
▁1742	-7949
▁frances	-7950
▁revolution	-7951
du	-7952
大火	-7953
cci	-7954
▁923	-7955
▁cris	-7956
▁pent	-7957
▁guide	-7958
▁storm	-7959
口贝阝	-7960
ophy	-7961
▁11%	-7962
▁16%	-7963
▁hem	-7964
▁1523	-7965
▁1591	-7966
▁caro	-7967
▁kick	-7968
▁table	-7969
必皿	-7970
ians	-7971
olis	-7972
▁927	-7973
▁997	-7974
▁ges	-7975
▁henri	-7976
▁match	-7977
▁triple	-7978
▁antonio	-7979
▁security	-7980
钅不	-7981
uto	-7982
口口瓦	-7983
木木止	-7984
ysis	-7985
▁ide	-7986
▁1581	-7987
▁1653	-7988
▁1731	-7989
▁kara	-7990
dal	-7991
bury	-7992
▁558	-7993
▁702	-7994
▁821	-7995
▁nf	-7996
▁boo	-7997
▁cac	-7998
▁1641	-7999
▁andy	-8000
lim	-8001
▁nl	-8002
▁463	-8003
▁563	-8004
▁dlc	-8005
▁dsp	-8006
▁olymp	-8007
一未	-8008
疒羊	-8009
oon	-8010
▁bj	-8011
口止重	-8012
haus	-8013
ross	-8014
▁497	-8015
▁543	-8016
▁572	-8017
▁1738	-8018
vy	-8019
阝垂	-8020
fore	-8021
▁17%	-8022
▁726	-8023
▁rim	-8024
乛耳攵心	-8025
▁1672	-8026
▁tree	-8027
ension	-8028
丿丿火	-8029
oshi	-8030
▁461	-8031
▁579	-8032
▁643	-8033
▁⿰⿰⿱	-8034
▁cool	-8035
bridge	-8036
竹世	-8037
𠂉丹	-8038
▁__	-8039
𠂇子攵	-8040
iner	-8041
▁708	-8042
▁hur	-8043
▁1564	-8044
▁1714	-8045
▁1739	-8046
▁dick	-8047
▁self	-8048
▁xiii	-8049
▁plaza	-8050
▁california	-8051
𠂉𠃓	-8052
▁sis	-8053
▁1722	-8054
▁logo	-8055
▁airport	-8056
ulus	-8057
▁want	-8058
▁naver	-8059
▁donald	-8060
▁through	-8061
月井	-8062
zar	-8063
1000	-8064
lass	-8065
▁714	-8066
▁mall	-8067
▁johnny	-8068
▁875	-8069
▁chu	-8070
▁pil	-8071
▁1699	-8072
▁vent	-8073
▁camer	-8074
ulation	-8075
民日	-8076
▁733	-8077
▁hud	-8078
acter	-8079
▁1734	-8080
▁moham	-8081
▁singap	-8082
▁582	-8083
▁745	-8084
▁816	-8085
▁823	-8086
▁902	-8087
▁sap	-8088
▁greg	-8089
▁commer	-8090
▁princip	-8091
▁macintosh	-8092
aw	-8093
kn	-8094
mc	-8095
ales	-8096
wick	-8097
▁826	-8098
▁dual	-8099
▁civil	-8100
▁command	-8101
▁forever	-8102
▁mathema	-8103
▁premium	-8104
anny	-8105
▁49%	-8106
▁656	-8107
▁865	-8108
▁tog	-8109
▁cccc	-8110
▁wanna	-8111
▁carlos	-8112
雨非	-8113
105	-8114
▁481	-8115
▁574	-8116
▁649	-8117
▁919	-8118
▁hxd	-8119
▁kad	-8120
▁sie	-8121
▁tin	-8122
eland	-8123
▁1563	-8124
▁whit	-8125
▁delta	-8126
kar	-8127
uis	-8128
▁tp	-8129
日一毛	-8130
▁811	-8131
▁put	-8132
▁sul	-8133
▁1599	-8134
▁chart	-8135
▁democ	-8136
▁openg	-8137
▁another	-8138
王禹	-8139
石木	-8140
▁808	-8141
▁971	-8142
▁cut	-8143
▁1514	-8144
▁bass	-8145
▁25000	-8146
▁asian	-8147
▁living	-8148
▁perfor	-8149
▁796	-8150
▁933	-8151
▁996	-8152
▁1709	-8153
▁1744	-8154
▁army	-8155
▁page	-8156
▁years	-8157
▁middle	-8158
虫斗	-8159
25%	-8160
▁657	-8161
▁659	-8162
▁788	-8163
▁877	-8164
▁939	-8165
▁wol	-8166
▁1605	-8167
▁1665	-8168
▁medium	-8169
▁support	-8170
vc	-8171
wc	-8172
mur	-8173
▁474	-8174
▁938	-8175
iment	-8176
▁1602	-8177
▁return	-8178
arc	-8179
icy	-8180
覀示刂	-8181
acle	-8182
▁786	-8183
ilton	-8184
▁fate	-8185
▁hugh	-8186
▁quad	-8187
ography	-8188
▁orange	-8189
▁against	-8190
▁francisco	-8191
town	-8192
▁818	-8193
▁lun	-8194
▁cdma	-8195
▁shah	-8196
▁step	-8197
▁friends	-8198
▁independ	-8199
▁dreamcast	-8200
tio	-8201
▁ou	-8202
ized	-8203
▁473	-8204
▁988	-8205
▁kay	-8206
world	-8207
▁1576	-8208
▁dota	-8209
▁local	-8210
▁sailor	-8211
▁ji	-8212
▁768	-8213
▁775	-8214
▁819	-8215
▁eye	-8216
▁fit	-8217
▁1542	-8218
▁1566	-8219
▁1673	-8220
▁dave	-8221
▁labor	-8222
▁ocean	-8223
▁german	-8224
ications	-8225
▁anderson	-8226
hip	-8227
▁hl	-8228
▁569	-8229
▁578	-8230
▁908	-8231
▁951	-8232
▁etc	-8233
▁kol	-8234
angel	-8235
utsch	-8236
▁1687	-8237
▁1749	-8238
▁spin	-8239
▁ccccff	-8240
cp	-8241
ween	-8242
▁33%	-8243
▁888	-8244
▁ghost	-8245
▁bernard	-8246
▁television	-8247
icus	-8248
▁595	-8249
▁761	-8250
▁ach	-8251
▁zip	-8252
▁atlan	-8253
▁audio	-8254
▁follow	-8255
丷田	-8256
▁hg	-8257
▁pn	-8258
丷田日	-8259
口寸灬	-8260
ifer	-8261
▁748	-8262
▁842	-8263
▁jes	-8264
▁wir	-8265
▁⿱⿳⿳	-8266
▁1001	-8267
▁1741	-8268
▁epic	-8269
▁palm	-8270
▁these	-8271
▁margar	-8272
▁country	-8273
▁community	-8274
▁746	-8275
▁jal	-8276
space	-8277
▁1669	-8278
▁sams	-8279
▁azure	-8280
▁image	-8281
▁medical	-8282
46⿷	-8283
▁wm	-8284
aker	-8285
▁741	-8286
▁leo	-8287
order	-8288
ido	-8289
▁fp	-8290
▁lt	-8291
夫丷页	-8292
ules	-8293
▁692	-8294
▁bom	-8295
▁dee	-8296
▁guy	-8297
▁jag	-8298
▁kra	-8299
▁pod	-8300
office	-8301
▁freebsd	-8302
非虫	-8303
arts	-8304
▁608	-8305
▁653	-8306
▁661	-8307
▁709	-8308
▁884	-8309
▁928	-8310
▁hub	-8311
▁1180	-8312
▁1536	-8313
▁songs	-8314
▁associ	-8315
▁exchange	-8316
ev	-8317
▁wp	-8318
body	-8319
▁ner	-8320
▁use	-8321
弋一止贝	-8322
ament	-8323
▁wang	-8324
▁honey	-8325
▁twice	-8326
▁singapore	-8327
女臣	-8328
310	-8329
▁ez	-8330
▁822	-8331
▁957	-8332
▁tax	-8333
▁1617	-8334
▁1656	-8335
▁giov	-8336
▁orch	-8337
▁scar	-8338
▁bruce	-8339
▁intell	-8340
▁legend	-8341
▁dw	-8342
phal	-8343
▁pel	-8344
istry	-8345
▁bing	-8346
▁circ	-8347
▁coco	-8348
▁easy	-8349
▁gaga	-8350
vention	-8351
▁pictures	-8352
▁conference	-8353
耒巴	-8354
greg	-8355
reis	-8356
▁641	-8357
▁662	-8358
▁1127	-8359
▁2024	-8360
▁demo	-8361
▁hope	-8362
▁monster	-8363
禺頁	-8364
uka	-8365
▁aj	-8366
▁644	-8367
▁kent	-8368
▁carol	-8369
▁canada	-8370
▁debian	-8371
▁village	-8372
340	-8373
kes	-8374
ashi	-8375
onia	-8376
▁698	-8377
▁886	-8378
stone	-8379
odes	-8380
▁914	-8381
▁add	-8382
▁stu	-8383
▁bran	-8384
▁josh	-8385
阝止	-8386
立十糸	-8387
orph	-8388
▁895	-8389
▁948	-8390
▁kai	-8391
tiful	-8392
▁1519	-8393
▁1537	-8394
▁1597	-8395
▁drama	-8396
▁initi	-8397
wd	-8398
iri	-8399
▁sq	-8400
uary	-8401
▁979	-8402
estra	-8403
▁jimmy	-8404
▁lamigo	-8405
▁walker	-8406
edy	-8407
▁ug	-8408
▁599	-8409
▁724	-8410
▁1230	-8411
▁1676	-8412
▁urban	-8413
107	-8414
gio	-8415
▁652	-8416
▁728	-8417
▁ats	-8418
▁beh	-8419
▁1558	-8420
▁eyes	-8421
▁ster	-8422
▁activ	-8423
▁author	-8424
ju	-8425
mic	-8426
wart	-8427
▁593	-8428
▁raid	-8429
▁sequ	-8430
▁30000	-8431
▁lambda	-8432
▁object	-8433
土丘	-8434
▁bis	-8435
▁ian	-8436
▁admin	-8437
▁kelly	-8438
▁temple	-8439
歹央	-8440
120	-8441
▁rm	-8442
▁xy	-8443
▁564	-8444
▁754	-8445
lines	-8446
▁1522	-8447
▁1674	-8448
▁1712	-8449
▁change	-8450
▁spirit	-8451
▁window	-8452
勹言	-8453
艹果	-8454
金皮	-8455
oka	-8456
▁vf	-8457
冖车阝	-8458
aria	-8459
▁491	-8460
▁839	-8461
▁955	-8462
▁dub	-8463
shire	-8464
sters	-8465
▁maca	-8466
▁gordon	-8467
▁winter	-8468
▁netscape	-8469
火乐	-8470
02%	-8471
103	-8472
▁594	-8473
▁827	-8474
▁946	-8475
▁exe	-8476
▁ober	-8477
金本	-8478
冂卄禾	-8479
lete	-8480
olic	-8481
▁896	-8482
▁kun	-8483
▁benn	-8484
▁root	-8485
▁score	-8486
▁identi	-8487
▁nature	-8488
alo	-8489
▁pw	-8490
ilog	-8491
▁1527	-8492
▁trin	-8493
▁texas	-8494
▁search	-8495
pd	-8496
▁683	-8497
▁tet	-8498
rence	-8499
▁1371	-8500
▁ward	-8501
▁steven	-8502
▁factory	-8503
▁evolution	-8504
▁mf	-8505
lica	-8506
▁bee	-8507
▁teau	-8508
▁quick	-8509
▁hunter	-8510
▁wright	-8511
钅必	-8512
eda	-8513
put	-8514
othy	-8515
▁736	-8516
▁toy	-8517
▁1746	-8518
▁benj	-8519
▁jord	-8520
▁kind	-8521
▁prote	-8522
▁trust	-8523
▁proper	-8524
▁between	-8525
▁culture	-8526
▁partners	-8527
▁beautiful	-8528
lem	-8529
arch	-8530
▁676	-8531
▁934	-8532
▁1220	-8533
▁1277	-8534
▁1435	-8535
▁1579	-8536
▁1606	-8537
▁cover	-8538
▁yellow	-8539
▁perfume	-8540
ru	-8541
米果	-8542
amo	-8543
emb	-8544
het	-8545
lyn	-8546
▁866	-8547
▁881	-8548
▁pip	-8549
overy	-8550
point	-8551
▁nation	-8552
ente	-8553
stad	-8554
▁584	-8555
▁798	-8556
▁gay	-8557
▁sdk	-8558
▁factor	-8559
▁sevent	-8560
▁environ	-8561
▁matthew	-8562
▁frederick	-8563
ici	-8564
imi	-8565
ype	-8566
▁ej	-8567
▁723	-8568
▁789	-8569
iting	-8570
▁fund	-8571
▁trade	-8572
▁opengl	-8573
▁jacques	-8574
▁samsung	-8575
日火	-8576
氵日	-8577
里灬	-8578
116	-8579
▁vp	-8580
▁xl	-8581
illy	-8582
▁016	-8583
▁fur	-8584
▁hug	-8585
▁nit	-8586
▁1472	-8587
▁cycl	-8588
▁midi	-8589
chester	-8590
日方	-8591
kir	-8592
pal	-8593
▁oz	-8594
▁824	-8595
▁hab	-8596
火火冖水	-8597
▁3800	-8598
▁brad	-8599
▁alliance	-8600
▁px	-8601
▁gui	-8602
▁imm	-8603
▁1512	-8604
▁idol	-8605
vs	-8606
00%	-8607
pie	-8608
wig	-8609
▁917	-8610
▁kap	-8611
alian	-8612
▁grow	-8613
▁stay	-8614
月甫	-8615
▁806	-8616
▁855	-8617
▁913	-8618
▁968	-8619
▁977	-8620
▁ein	-8621
▁ibn	-8622
▁plc	-8623
▁1440	-8624
▁1702	-8625
▁republic	-8626
adi	-8627
▁sz	-8628
▁xf	-8629
▁tru	-8630
糸言糸手	-8631
▁boot	-8632
▁used	-8633
氵来	-8634
讠夬	-8635
emy	-8636
▁mh	-8637
bank	-8638
▁809	-8639
▁916	-8640
▁981	-8641
▁url	-8642
▁1711	-8643
▁bomb	-8644
▁flight	-8645
▁forest	-8646
104	-8647
▁nom	-8648
▁1066	-8649
▁1464	-8650
▁1508	-8651
▁daily	-8652
▁display	-8653
ras	-8654
enne	-8655
▁669	-8656
▁749	-8657
▁833	-8658
▁reb	-8659
▁1276	-8660
▁1510	-8661
▁would	-8662
▁blackp	-8663
ono	-8664
▁592	-8665
▁995	-8666
▁oem	-8667
▁rou	-8668
▁extr	-8669
▁flow	-8670
▁fight	-8671
▁differ	-8672
▁douglas	-8673
▁princess	-8674
▁sj	-8675
口口页	-8676
dies	-8677
▁843	-8678
▁922	-8679
▁acp	-8680
凵丨凵示	-8681
▁1546	-8682
motion	-8683
▁brook	-8684
▁shinee	-8685
ios	-8686
▁hz	-8687
▁iu	-8688
▁771	-8689
▁apm	-8690
▁hag	-8691
▁moore	-8692
▁sarah	-8693
钅川	-8694
33%	-8695
inn	-8696
tus	-8697
▁nn	-8698
▁462	-8699
▁732	-8700
▁nel	-8701
▁mate	-8702
▁wifi	-8703
▁canon	-8704
▁creek	-8705
▁agency	-8706
▁781	-8707
▁828	-8708
▁904	-8709
▁aust	-8710
▁prom	-8711
▁teen	-8712
▁books	-8713
▁malay	-8714
▁financ	-8715
▁kingdom	-8716
bw	-8717
aku	-8718
zza	-8719
iler	-8720
▁838	-8721
▁882	-8722
▁caf	-8723
▁1024	-8724
▁1385	-8725
▁1663	-8726
▁jpeg	-8727
▁remix	-8728
▁valve	-8729
▁russell	-8730
▁christmas	-8731
▁wc	-8732
▁739	-8733
▁1703	-8734
▁such	-8735
▁clear	-8736
▁total	-8737
▁jonathan	-8738
kit	-8739
oria	-8740
▁020	-8741
▁784	-8742
▁uni	-8743
ecture	-8744
▁still	-8745
▁technolog	-8746
75%	-8747
ree	-8748
▁tn	-8749
▁691	-8750
▁occ	-8751
▁1682	-8752
easure	-8753
▁before	-8754
虫冉	-8755
ati	-8756
▁803	-8757
▁976	-8758
▁rav	-8759
▁tee	-8760
▁creative	-8761
03%	-8762
▁fd	-8763
▁kp	-8764
▁wy	-8765
itar	-8766
ocus	-8767
onda	-8768
ving	-8769
▁699	-8770
▁829	-8771
▁924	-8772
▁iris	-8773
▁iron	-8774
▁skype	-8775
▁tourn	-8776
▁brothers	-8777
102	-8778
anth	-8779
▁763	-8780
▁amx	-8781
▁sak	-8782
▁sed	-8783
▁syl	-8784
𠂊田灬工	-8785
▁shir	-8786
▁benjamin	-8787
▁noinclude	-8788
gro	-8789
var	-8790
▁bn	-8791
夫夫车	-8792
▁836	-8793
▁97%	-8794
▁iup	-8795
▁1499	-8796
▁1552	-8797
▁1668	-8798
▁1719	-8799
▁wise	-8800
▁doctor	-8801
▁administ	-8802
rs	-8803
123	-8804
cad	-8805
rap	-8806
ying	-8807
▁1040	-8808
▁sola	-8809
▁diamond	-8810
cap	-8811
▁lf	-8812
▁acg	-8813
▁aps	-8814
▁obe	-8815
▁1506	-8816
▁bart	-8817
▁crystal	-8818
▁premier	-8819
饣耳	-8820
01%	-8821
▁zu	-8822
习习廾	-8823
bber	-8824
▁ipa	-8825
▁tat	-8826
▁1420	-8827
▁hydro	-8828
▁lovel	-8829
iah	-8830
oid	-8831
bird	-8832
▁961	-8833
mance	-8834
▁1070	-8835
▁1557	-8836
▁born	-8837
▁coup	-8838
▁nint	-8839
▁pont	-8840
▁user	-8841
▁beach	-8842
▁pixel	-8843
▁yours	-8844
▁uv	-8845
otte	-8846
▁663	-8847
▁672	-8848
▁837	-8849
▁1705	-8850
dn	-8851
土隶	-8852
aru	-8853
jan	-8854
mum	-8855
▁ei	-8856
▁695	-8857
▁703	-8858
▁942	-8859
▁987	-8860
▁pav	-8861
▁child	-8862
▁constr	-8863
▁powers	-8864
▁without	-8865
钅朱	-8866
05%	-8867
ted	-8868
▁783	-8869
▁1340	-8870
▁1415	-8871
▁1596	-8872
▁burg	-8873
▁gray	-8874
▁southern	-8875
pad	-8876
icip	-8877
▁989	-8878
▁jak	-8879
▁1125	-8880
▁1516	-8881
▁jtbc	-8882
▁tang	-8883
▁publish	-8884
▁memorial	-8885
yon	-8886
ists	-8887
▁887	-8888
▁ana	-8889
▁ark	-8890
ample	-8891
▁1275	-8892
▁billy	-8893
▁heaven	-8894
▁moment	-8895
▁together	-8896
dh	-8897
wo	-8898
14%	-8899
gate	-8900
▁744	-8901
▁psv	-8902
lands	-8903
▁1390	-8904
▁1451	-8905
▁ford	-8906
▁cinem	-8907
▁washington	-8908
15%	-8909
900	-8910
illi	-8911
▁849	-8912
▁rif	-8913
▁sit	-8914
▁1330	-8915
▁lumia	-8916
▁morris	-8917
▁proble	-8918
▁897	-8919
ibili	-8920
▁1528	-8921
▁1543	-8922
▁berg	-8923
▁provin	-8924
▁spacex	-8925
▁thunder	-8926
▁blackpink	-8927
rum	-8928
uba	-8929
▁678	-8930
▁ips	-8931
▁1442	-8932
▁1513	-8933
▁1549	-8934
▁1678	-8935
▁franz	-8936
▁psych	-8937
▁youth	-8938
ination	-8939
▁electric	-8940
几止	-8941
band	-8942
▁591	-8943
▁679	-8944
▁tma	-8945
▁yan	-8946
▁quar	-8947
▁grace	-8948
▁margaret	-8949
111	-8950
150	-8951
ser	-8952
口止石	-8953
izon	-8954
▁952	-8955
▁ree	-8956
▁wow	-8957
▁soph	-8958
▁april	-8959
▁jacob	-8960
▁morning	-8961
一阝	-8962
08%	-8963
aha	-8964
▁hc	-8965
▁631	-8966
▁752	-8967
▁gym	-8968
▁nts	-8969
▁1716	-8970
▁solid	-8971
▁effect	-8972
▁freedom	-8973
▁bilibili	-8974
▁virginia	-8975
言斤	-8976
金朱	-8977
lav	-8978
zel	-8979
▁uf	-8980
anti	-8981
𠂊田一屯	-8982
▁1382	-8983
▁need	-8984
▁environment	-8985
hai	-8986
▁966	-8987
▁982	-8988
▁dll	-8989
▁saw	-8990
▁1554	-8991
▁4800	-8992
▁include	-8993
▁intellig	-8994
大車	-8995
弓耳	-8996
ced	-8997
▁vm	-8998
山大車	-8999
feld	-9000
▁lex	-9001
▁1686	-9002
▁8500	-9003
▁advent	-9004
▁distrib	-9005
▁municip	-9006
▁nintendo	-9007
▁professional	-9008
04%	-9009
arm	-9010
hem	-9011
oul	-9012
▁fw	-9013
eyer	-9014
rier	-9015
▁amb	-9016
▁nem	-9017
lement	-9018
▁minor	-9019
▁sigma	-9020
▁partic	-9021
▁travel	-9022
99%	-9023
det	-9024
aten	-9025
▁23%	-9026
▁743	-9027
▁lip	-9028
▁rio	-9029
▁brea	-9030
▁buff	-9031
▁poin	-9032
▁appro	-9033
户非	-9034
190	-9035
▁002	-9036
▁gim	-9037
▁1594	-9038
▁kris	-9039
▁nike	-9040
▁mother	-9041
▁primary	-9042
▁analysis	-9043
虫甘	-9044
189	-9045
▁kot	-9046
▁1534	-9047
▁3700	-9048
▁sang	-9049
ything	-9050
▁oliver	-9051
▁england	-9052
車乚	-9053
low	-9054
▁vc	-9055
rial	-9056
riel	-9057
▁883	-9058
▁vas	-9059
eller	-9060
▁1010	-9061
▁1691	-9062
▁1692	-9063
▁race	-9064
▁sciences	-9065
口黑	-9066
iser	-9067
▁673	-9068
▁852	-9069
▁1170	-9070
▁2050	-9071
▁bish	-9072
▁dean	-9073
▁host	-9074
▁them	-9075
▁qualif	-9076
nh	-9077
67%	-9078
▁hid	-9079
▁coff	-9080
▁requ	-9081
▁shot	-9082
▁thor	-9083
▁abdul	-9084
▁della	-9085
▁stock	-9086
▁french	-9087
▁norman	-9088
▁technologies	-9089
sd	-9090
eco	-9091
kien	-9092
▁889	-9093
▁rex	-9094
▁riv	-9095
▁spy	-9096
▁1270	-9097
▁1320	-9098
▁guard	-9099
▁instr	-9100
▁staff	-9101
▁movement	-9102
气川	-9103
虫丘	-9104
11%	-9105
125	-9106
elo	-9107
omer	-9108
▁004	-9109
▁792	-9110
▁814	-9111
▁cri	-9112
▁lac	-9113
▁nic	-9114
▁1445	-9115
▁tiger	-9116
▁leonard	-9117
95%	-9118
▁iz	-9119
▁664	-9120
▁862	-9121
▁864	-9122
▁utf	-9123
▁1433	-9124
▁value	-9125
lag	-9126
▁zi	-9127
▁906	-9128
▁998	-9129
▁bap	-9130
▁1240	-9131
▁1677	-9132
▁1704	-9133
▁ming	-9134
▁belie	-9135
▁charlie	-9136
▁material	-9137
二女	-9138
几歹	-9139
106	-9140
镸彡冉	-9141
osis	-9142
sten	-9143
▁804	-9144
▁aks	-9145
▁dsm	-9146
▁ntt	-9147
▁1234	-9148
▁1694	-9149
▁sncf	-9150
▁bobby	-9151
▁graham	-9152
▁rainbow	-9153
96%	-9154
▁bw	-9155
▁zo	-9156
▁693	-9157
▁949	-9158
▁967	-9159
▁jin	-9160
▁seg	-9161
▁cafe	-9162
▁even	-9163
▁exec	-9164
▁iata	-9165
▁candy	-9166
▁study	-9167
203	-9168
▁696	-9169
▁lon	-9170
▁oak	-9171
▁1030	-9172
▁1480	-9173
▁cost	-9174
▁present	-9175
▁lawrence	-9176
▁financial	-9177
▁promotion	-9178
hy	-9179
base	-9180
▁665	-9181
▁909	-9182
▁943	-9183
▁ade	-9184
▁beca	-9185
▁scho	-9186
▁worms	-9187
▁running	-9188
▁performance	-9189
▁productions	-9190
犭弗	-9191
艹氏	-9192
13%	-9193
16%	-9194
edo	-9195
idi	-9196
lard	-9197
▁779	-9198
▁794	-9199
▁807	-9200
▁851	-9201
▁aar	-9202
▁why	-9203
▁mala	-9204
▁jordan	-9205
木巴	-9206
cop	-9207
uru	-9208
wal	-9209
toon	-9210
▁gig	-9211
color	-9212
▁1743	-9213
▁mong	-9214
▁wars	-9215
▁plant	-9216
▁ground	-9217
▁justin	-9218
▁velvet	-9219
▁giovanni	-9220
▁thompson	-9221
06%	-9222
115	-9223
85%	-9224
cin	-9225
▁jb	-9226
▁734	-9227
▁844	-9228
▁972	-9229
▁clo	-9230
▁1278	-9231
▁1533	-9232
▁1696	-9233
▁ange	-9234
▁sent	-9235
▁reich	-9236
▁tommy	-9237
目目	-9238
21%	-9239
24%	-9240
27%	-9241
ete	-9242
hib	-9243
ulo	-9244
▁874	-9245
▁959	-9246
▁kil	-9247
▁1190	-9248
▁1608	-9249
▁4200	-9250
▁chun	-9251
▁give	-9252
▁oliv	-9253
▁police	-9254
▁roberts	-9255
木柬	-9256
121	-9257
▁dn	-9258
目八阝	-9259
立十手	-9260
▁dag	-9261
▁away	-9262
▁feel	-9263
▁lane	-9264
王己	-9265
▁694	-9266
▁753	-9267
▁831	-9268
▁898	-9269
▁amc	-9270
▁giv	-9271
▁rid	-9272
▁1011	-9273
▁1360	-9274
▁1515	-9275
▁hamilton	-9276
▁messenger	-9277
px	-9278
豕豕	-9279
18%	-9280
orm	-9281
pes	-9282
lock	-9283
type	-9284
▁fed	-9285
▁nes	-9286
▁1376	-9287
▁mort	-9288
▁baron	-9289
▁later	-9290
▁deutsch	-9291
▁tolkien	-9292
17%	-9293
23%	-9294
omi	-9295
pin	-9296
▁030	-9297
▁adm	-9298
▁rgb	-9299
▁1140	-9300
▁ifpi	-9301
▁sainte	-9302
nik	-9303
oke	-9304
▁956	-9305
▁cem	-9306
▁1279	-9307
▁3400	-9308
▁echo	-9309
▁less	-9310
▁sara	-9311
▁chung	-9312
▁cyber	-9313
▁cinema	-9314
▁destiny	-9315
gg	-9316
07%	-9317
rah	-9318
ski	-9319
乀丿虫	-9320
ledge	-9321
▁1693	-9322
▁charl	-9323
▁century	-9324
▁application	-9325
42%	-9326
▁jd	-9327
▁010	-9328
▁654	-9329
▁944	-9330
▁983	-9331
▁1404	-9332
▁1470	-9333
▁earl	-9334
friend	-9335
▁democra	-9336
isk	-9337
▁oe	-9338
▁017	-9339
▁848	-9340
▁jew	-9341
▁woo	-9342
ality	-9343
▁1708	-9344
▁keep	-9345
▁rights	-9346
▁scheme	-9347
虫虫皿	-9348
▁052	-9349
▁bmg	-9350
▁cab	-9351
▁hyp	-9352
▁jen	-9353
▁lux	-9354
▁vie	-9355
▁1403	-9356
▁1548	-9357
▁ferr	-9358
▁pick	-9359
▁vocal	-9360
▁justice	-9361
uh	-9362
32%	-9363
▁22%	-9364
▁869	-9365
▁bam	-9366
▁rig	-9367
▁1388	-9368
▁1695	-9369
▁bird	-9370
▁care	-9371
▁duke	-9372
▁normal	-9373
▁universit	-9374
▁references	-9375
讠几	-9376
12%	-9377
▁tk	-9378
load	-9379
omet	-9380
room	-9381
▁797	-9382
▁cbe	-9383
▁vvv	-9384
▁1204	-9385
▁mack	-9386
▁nine	-9387
▁ping	-9388
▁maker	-9389
▁third	-9390
▁device	-9391
▁rapper	-9392
117	-9393
ben	-9394
uli	-9395
火火刂	-9396
▁899	-9397
▁alf	-9398
▁dod	-9399
▁40000	-9400
▁coast	-9401
▁korea	-9402
土亚	-9403
ahl	-9404
▁vb	-9405
𠂒口阝	-9406
king	-9407
▁rus	-9408
▁sou	-9409
▁tls	-9410
▁upd	-9411
目目隹又	-9412
▁1135	-9413
▁2900	-9414
▁iupac	-9415
▁kitty	-9416
▁symph	-9417
▁thing	-9418
▁northern	-9419
王月	-9420
竹艮	-9421
▁tz	-9422
竹艮皿	-9423
orum	-9424
ring	-9425
▁841	-9426
▁891	-9427
▁993	-9428
▁dei	-9429
丰丰豆阝	-9430
owski	-9431
▁philos	-9432
氵尺	-9433
58%	-9434
▁782	-9435
▁892	-9436
▁958	-9437
▁992	-9438
eless	-9439
▁1392	-9440
▁1706	-9441
▁clos	-9442
hedral	-9443
▁railway	-9444
冂口木	-9445
▁932	-9446
▁much	-9447
▁phen	-9448
▁nexus	-9449
▁legacy	-9450
木比	-9451
122	-9452
98%	-9453
▁24%	-9454
▁mee	-9455
▁yang	-9456
▁check	-9457
▁terra	-9458
▁metrop	-9459
▁origin	-9460
▁federation	-9461
土艮	-9462
戊臣	-9463
77%	-9464
▁dz	-9465
brid	-9466
ilia	-9467
▁080	-9468
▁ens	-9469
▁rib	-9470
▁1551	-9471
▁50000	-9472
▁grant	-9473
▁motion	-9474
▁observ	-9475
▁release	-9476
衤夬	-9477
19%	-9478
▁qf	-9479
▁769	-9480
▁nag	-9481
▁1129	-9482
▁bear	-9483
▁half	-9484
▁lice	-9485
▁piet	-9486
▁while	-9487
▁yoshiki	-9488
▁animation	-9489
82%	-9490
▁fb	-9491
▁gg	-9492
▁ui	-9493
lier	-9494
▁1206	-9495
▁kath	-9496
▁shap	-9497
▁craig	-9498
▁today	-9499
▁private	-9500
22%	-9501
ario	-9502
late	-9503
utch	-9504
▁697	-9505
▁ctv	-9506
▁jst	-9507
▁1539	-9508
▁clin	-9509
▁gent	-9510
▁holly	-9511
▁prize	-9512
▁smile	-9513
▁theod	-9514
▁robinson	-9515
34%	-9516
rik	-9517
▁21%	-9518
▁764	-9519
▁954	-9520
▁lay	-9521
▁own	-9522
pping	-9523
▁leop	-9524
▁luis	-9525
▁pure	-9526
▁alter	-9527
▁jerry	-9528
▁liter	-9529
▁beauty	-9530
▁flower	-9531
▁flying	-9532
28%	-9533
boy	-9534
小丿衣	-9535
bson	-9536
▁cot	-9537
itary	-9538
▁1406	-9539
▁hunt	-9540
▁meet	-9541
▁node	-9542
▁event	-9543
▁dennis	-9544
石𠃓	-9545
35%	-9546
386	-9547
bed	-9548
hic	-9549
▁674	-9550
▁atv	-9551
▁cum	-9552
▁australia	-9553
asi	-9554
rov	-9555
▁963	-9556
丨丨比几	-9557
▁hend	-9558
▁otto	-9559
▁saab	-9560
▁sever	-9561
▁gogoro	-9562
▁gallery	-9563
▁president	-9564
矛𧘇	-9565
钅皮	-9566
pres	-9567
▁bib	-9568
▁hir	-9569
▁tha	-9570
▁wer	-9571
▁1120	-9572
▁ansi	-9573
▁sohc	-9574
▁wish	-9575
▁vogue	-9576
ppa	-9577
氵𠃓火	-9578
目八缶	-9579
▁pho	-9580
▁vpn	-9581
▁1448	-9582
▁both	-9583
▁grey	-9584
▁tong	-9585
▁palazzo	-9586
▁electronic	-9587
bab	-9588
bur	-9589
mod	-9590
力口衣	-9591
side	-9592
▁671	-9593
▁too	-9594
▁1356	-9595
▁corp	-9596
▁pret	-9597
▁lovelive	-9598
47%	-9599
65%	-9600
emi	-9601
wiki	-9602
▁015	-9603
▁931	-9604
▁ecc	-9605
▁pom	-9606
▁yak	-9607
▁1067	-9608
▁1215	-9609
▁doma	-9610
▁early	-9611
▁oracle	-9612
▁shadow	-9613
xa	-9614
37%	-9615
38%	-9616
oux	-9617
ythm	-9618
▁893	-9619
▁dre	-9620
▁gap	-9621
▁lev	-9622
cloud	-9623
▁buck	-9624
▁icao	-9625
▁past	-9626
▁wool	-9627
53%	-9628
87%	-9629
kov	-9630
code	-9631
▁894	-9632
▁sco	-9633
▁xen	-9634
▁andre	-9635
▁emule	-9636
▁india	-9637
▁keith	-9638
▁manga	-9639
▁sense	-9640
▁pocket	-9641
▁broadcast	-9642
山山	-9643
疒山	-9644
钅巨	-9645
86%	-9646
▁gf	-9647
▁hb	-9648
亠矛𧘇	-9649
▁774	-9650
▁941	-9651
▁isp	-9652
▁chall	-9653
▁gmail	-9654
▁grande	-9655
▁discovery	-9656
白匕	-9657
竹戋	-9658
52%	-9659
ount	-9660
▁27%	-9661
▁878	-9662
▁dio	-9663
▁eco	-9664
▁len	-9665
▁sce	-9666
▁1295	-9667
▁1671	-9668
▁carp	-9669
▁crazy	-9670
▁sugar	-9671
▁circle	-9672
▁integr	-9673
▁campbell	-9674
66%	-9675
log	-9676
alle	-9677
▁854	-9678
▁amu	-9679
▁kas	-9680
▁sli	-9681
▁1439	-9682
▁1509	-9683
▁animax	-9684
▁heinrich	-9685
干干	-9686
▁795	-9687
▁amy	-9688
▁jol	-9689
▁tow	-9690
▁1225	-9691
▁1413	-9692
▁cond	-9693
▁peri	-9694
▁element	-9695
▁cathedral	-9696
202	-9697
29%	-9698
30%	-9699
erg	-9700
mit	-9701
yes	-9702
tric	-9703
▁776	-9704
▁791	-9705
108	-9706
126	-9707
226	-9708
▁eh	-9709
▁rk	-9710
eaux	-9711
▁26%	-9712
▁udp	-9713
▁wit	-9714
▁3100	-9715
▁bour	-9716
▁find	-9717
▁fine	-9718
▁horn	-9719
timate	-9720
utions	-9721
▁domin	-9722
▁excel	-9723
▁medic	-9724
▁suite	-9725
▁swing	-9726
▁protoc	-9727
王页	-9728
49%	-9729
▁868	-9730
▁984	-9731
▁dro	-9732
shine	-9733
▁1494	-9734
▁astr	-9735
▁chief	-9736
▁creat	-9737
禾末	-9738
44%	-9739
48%	-9740
立十纟	-9741
▁832	-9742
▁834	-9743
▁ata	-9744
▁ces	-9745
▁sip	-9746
井一八言	-9747
anche	-9748
▁1020	-9749
▁1185	-9750
▁brit	-9751
▁font	-9752
▁ship	-9753
▁trna	-9754
▁artic	-9755
▁retrie	-9756
zj	-9757
57%	-9758
93%	-9759
agen	-9760
▁pir	-9761
osaur	-9762
▁carr	-9763
▁sata	-9764
ipedia	-9765
▁anime	-9766
▁crown	-9767
camatan	-9768
▁empire	-9769
▁politi	-9770
▁senior	-9771
▁stream	-9772
▁kenneth	-9773
97%	-9774
▁dg	-9775
▁799	-9776
▁964	-9777
▁bio	-9778
▁fia	-9779
liner	-9780
▁1375	-9781
▁1407	-9782
▁bond	-9783
▁null	-9784
▁cinemas	-9785
▁kecamatan	-9786
kv	-9787
rh	-9788
人工	-9789
水水	-9790
20%	-9791
36%	-9792
ffe	-9793
rid	-9794
▁fg	-9795
▁kj	-9796
mund	-9797
▁atc	-9798
▁sab	-9799
▁tum	-9800
▁1060	-9801
▁1399	-9802
▁1498	-9803
▁ivan	-9804
▁ntfs	-9805
▁marine	-9806
▁simple	-9807
yt	-9808
毛求	-9809
礻韦	-9810
45%	-9811
▁867	-9812
▁afi	-9813
▁ves	-9814
▁1290	-9815
▁colon	-9816
▁annivers	-9817
▁rockstar	-9818
▁interface	-9819
▁transform	-9820
ek	-9821
yu	-9822
26%	-9823
39%	-9824
40%	-9825
92%	-9826
▁nx	-9827
irus	-9828
ping	-9829
tima	-9830
▁96%	-9831
▁991	-9832
▁gaz	-9833
▁jis	-9834
▁mud	-9835
▁1189	-9836
▁gree	-9837
▁winner	-9838
▁bgcolor	-9839
▁character	-9840
钅戉	-9841
360	-9842
50%	-9843
▁rw	-9844
▁858	-9845
▁mta	-9846
illes	-9847
▁1214	-9848
▁1698	-9849
▁para	-9850
▁plas	-9851
▁cooper	-9852
88%	-9853
rus	-9854
1911	-9855
▁bog	-9856
▁ich	-9857
▁1501	-9858
▁cmos	-9859
▁trax	-9860
▁ralph	-9861
▁woman	-9862
▁canton	-9863
▁ernest	-9864
▁hudson	-9865
▁aircraft	-9866
▁economic	-9867
▁training	-9868
56%	-9869
iso	-9870
0000	-9871
dium	-9872
tium	-9873
▁012	-9874
▁772	-9875
▁aes	-9876
▁llo	-9877
▁1137	-9878
▁1531	-9879
▁price	-9880
▁seventeen	-9881
63%	-9882
aco	-9883
ards	-9884
▁778	-9885
▁mck	-9886
illon	-9887
▁1138	-9888
▁1449	-9889
▁danc	-9890
▁hous	-9891
▁million	-9892
46%	-9893
62%	-9894
69%	-9895
▁yf	-9896
▁872	-9897
▁barr	-9898
▁jazz	-9899
▁basil	-9900
▁shang	-9901
▁around	-9902
▁contra	-9903
▁nathan	-9904
▁strong	-9905
▁anniversary	-9906
一又	-9907
王龙	-9908
目冘	-9909
fun	-9910
▁gul	-9911
▁ome	-9912
dford	-9913
▁1425	-9914
▁1488	-9915
▁merc	-9916
ighter	-9917
▁barry	-9918
▁films	-9919
二儿	-9920
虫皿	-9921
mel	-9922
▁lz	-9923
asia	-9924
▁28%	-9925
▁aux	-9926
𠂊田灬弗	-9927
▁1160	-9928
▁1421	-9929
▁bull	-9930
▁bund	-9931
▁gith	-9932
▁titan	-9933
▁strate	-9934
▁stewart	-9935
09%	-9936
81%	-9937
ants	-9938
lear	-9939
▁060	-9940
▁974	-9941
▁cec	-9942
▁1328	-9943
▁1504	-9944
▁imdb	-9945
▁joan	-9946
▁powerpc	-9947
41%	-9948
59%	-9949
68%	-9950
73%	-9951
89%	-9952
jet	-9953
owa	-9954
▁fav	-9955
▁mcd	-9956
▁tec	-9957
▁1412	-9958
▁flag	-9959
▁many	-9960
▁visa	-9961
▁faith	-9962
▁susan	-9963
▁vehic	-9964
▁github	-9965
▁hybrid	-9966
jn	-9967
43%	-9968
oca	-9969
ores	-9970
▁ric	-9971
▁wav	-9972
一厶土阝	-9973
▁1265	-9974
▁1364	-9975
▁1503	-9976
▁stein	-9977
54%	-9978
bla	-9979
ige	-9980
iza	-9981
ting	-9982
▁879	-9983
▁hus	-9984
▁nim	-9985
▁1219	-9986
▁bent	-9987
▁calc	-9988
▁draw	-9989
▁hang	-9990
▁scri	-9991
▁mechan	-9992
ification	-9993
爿未	-9994
王几	-9995
iae	-9996
▁wn	-9997
▁003	-9998
▁emo	-9999
▁rin	-10000
▁ssl	-10001
▁xxx	-10002
▁epis	-10003
▁macb	-10004
▁terr	-10005
▁melon	-10006
▁continu	-10007
▁example	-10008
▁fortran	-10009
▁stanley	-10010
▁communications	-10011
氵龙	-10012
白木	-10013
虫乚	-10014
55%	-10015
84%	-10016
冂丶阝	-10017
▁040	-10018
▁42%	-10019
▁43%	-10020
▁rer	-10021
▁spo	-10022
▁wes	-10023
丷八白木	-10024
lipse	-10025
▁soho	-10026
▁sult	-10027
▁baker	-10028
▁cloud	-10029
▁paper	-10030
▁shoot	-10031
torrent	-10032
▁lucasarts	-10033
uta	-10034
▁vh	-10035
link	-10036
▁36%	-10037
▁psr	-10038
▁rip	-10039
▁tank	-10040
▁aggreg	-10041
▁angela	-10042
sc	-10043
丿干	-10044
女以	-10045
71%	-10046
cch	-10047
ket	-10048
▁853	-10049
▁994	-10050
▁rah	-10051
▁tir	-10052
▁1424	-10053
▁prix	-10054
▁trip	-10055
ecraft	-10056
▁larry	-10057
▁logic	-10058
▁professor	-10059
dl	-10060
70%	-10061
72%	-10062
dit	-10063
gel	-10064
igne	-10065
▁873	-10066
▁gmb	-10067
▁ufc	-10068
▁chal	-10069
▁monte	-10070
▁signal	-10071
▁electron	-10072
竹肅	-10073
艹豆	-10074
76%	-10075
mat	-10076
▁lap	-10077
uster	-10078
uther	-10079
▁arms	-10080
▁cosm	-10081
▁idea	-10082
▁june	-10083
▁⿰⿱⿱⿻	-10084
▁beast	-10085
▁chand	-10086
▁chica	-10087
▁shock	-10088
su	-10089
231	-10090
31%	-10091
abe	-10092
dio	-10093
▁xd	-10094
▁cre	-10095
▁1110	-10096
▁1394	-10097
▁1507	-10098
▁corn	-10099
▁same	-10100
▁trea	-10101
▁suica	-10102
▁during	-10103
▁scienti	-10104
▁yourself	-10105
气乃	-10106
79%	-10107
sty	-10108
▁ih	-10109
isch	-10110
life	-10111
▁070	-10112
▁19%	-10113
▁773	-10114
▁859	-10115
▁hin	-10116
▁sib	-10117
▁sse	-10118
人人龰心	-10119
▁brain	-10120
▁ernst	-10121
▁hills	-10122
▁dreams	-10123
▁region	-10124
▁captain	-10125
钅土	-10126
▁013	-10127
▁793	-10128
▁nhl	-10129
▁1086	-10130
▁1402	-10131
▁kamp	-10132
▁site	-10133
▁spar	-10134
▁forum	-10135
▁phase	-10136
▁smack	-10137
▁resour	-10138
木予	-10139
51%	-10140
iden	-10141
▁ptt	-10142
istic	-10143
▁1115	-10144
▁hide	-10145
▁bishop	-10146
▁marcus	-10147
▁vincent	-10148
礻乃	-10149
iac	-10150
▁hh	-10151
土土阝	-10152
▁agm	-10153
ische	-10154
opter	-10155
▁1085	-10156
▁1227	-10157
▁1409	-10158
▁1465	-10159
▁each	-10160
▁emba	-10161
▁rate	-10162
▁canad	-10163
▁infor	-10164
▁carter	-10165
▁myster	-10166
▁raymond	-10167
gp	-10168
64%	-10169
lich	-10170
peti	-10171
utes	-10172
▁857	-10173
▁ole	-10174
▁vik	-10175
▁mang	-10176
▁montb	-10177
▁range	-10178
广阝	-10179
khz	-10180
mid	-10181
uen	-10182
勹巳刂	-10183
iles	-10184
▁006	-10185
▁fen	-10186
uring	-10187
▁1471	-10188
▁dawn	-10189
▁gangan	-10190
▁official	-10191
▁sunshine	-10192
口我	-10193
火屯	-10194
▁iq	-10195
▁qr	-10196
cial	-10197
▁dot	-10198
▁ktv	-10199
▁nog	-10200
▁ple	-10201
▁1387	-10202
▁1497	-10203
▁1518	-10204
▁glad	-10205
▁roth	-10206
othing	-10207
▁certif	-10208
▁repres	-10209
▁gabriel	-10210
▁islands	-10211
疒𠃓	-10212
uil	-10213
口止皮	-10214
▁953	-10215
▁csm	-10216
▁gol	-10217
▁mlb	-10218
▁holy	-10219
▁incl	-10220
▁salv	-10221
▁terry	-10222
▁greatest	-10223
▁independent	-10224
60%	-10225
78%	-10226
▁bk	-10227
news	-10228
▁lok	-10229
▁1155	-10230
▁gmbh	-10231
▁temp	-10232
▁alive	-10233
▁griff	-10234
▁butter	-10235
▁morgan	-10236
▁complete	-10237
口甘	-10238
80%	-10239
uti	-10240
uve	-10241
儿丨金	-10242
mers	-10243
tify	-10244
▁38%	-10245
▁sns	-10246
▁1217	-10247
▁1377	-10248
▁rush	-10249
▁pedro	-10250
▁sonic	-10251
▁varia	-10252
▁herbert	-10253
口人	-10254
𠂇冂	-10255
205	-10256
orp	-10257
sky	-10258
dale	-10259
▁32%	-10260
糸言糸子	-10261
▁1099	-10262
▁vern	-10263
▁11000	-10264
itation	-10265
▁knight	-10266
aa	-10267
112	-10268
129	-10269
249	-10270
61%	-10271
rim	-10272
sia	-10273
龶月见	-10274
road	-10275
▁kok	-10276
▁lav	-10277
▁lia	-10278
▁1213	-10279
▁1495	-10280
▁5200	-10281
▁shel	-10282
▁wake	-10283
▁always	-10284
▁theater	-10285
彳来	-10286
chu	-10287
ovi	-10288
eman	-10289
fort	-10290
▁051	-10291
▁lod	-10292
▁1122	-10293
▁1211	-10294
▁size	-10295
▁tard	-10296
▁johan	-10297
▁claude	-10298
▁safari	-10299
艹必	-10300
kel	-10301
▁lb	-10302
▁025	-10303
▁856	-10304
▁hil	-10305
▁ngo	-10306
▁pid	-10307
▁tok	-10308
kreis	-10309
▁1142	-10310
▁1210	-10311
▁rule	-10312
▁vict	-10313
▁provid	-10314
▁concept	-10315
124	-10316
74%	-10317
▁tx	-10318
士示隶	-10319
enge	-10320
▁cbc	-10321
▁kos	-10322
𠂊田灬身	-10323
▁citi	-10324
▁insp	-10325
▁architecture	-10326
▁communication	-10327
ef	-10328
竹肃	-10329
fish	-10330
▁aub	-10331
▁hed	-10332
▁1016	-10333
▁1075	-10334
▁friday	-10335
冂山	-10336
83%	-10337
▁871	-10338
▁cow	-10339
▁kee	-10340
▁sph	-10341
▁⿱⿳⿻	-10342
tains	-10343
▁1161	-10344
▁1216	-10345
▁1274	-10346
▁1367	-10347
▁1485	-10348
亠丷厂彡頁	-10349
enburg	-10350
▁matrix	-10351
▁alphago	-10352
▁gregory	-10353
▁organization	-10354
lap	-10355
rat	-10356
▁ov	-10357
each	-10358
ichi	-10359
onna	-10360
plus	-10361
▁cub	-10362
▁sbl	-10363
opsis	-10364
▁1224	-10365
▁cele	-10366
▁grav	-10367
▁risc	-10368
▁bloom	-10369
▁laura	-10370
▁vector	-10371
▁evangel	-10372
▁cultural	-10373
▁document	-10374
▁smackdown	-10375
233	-10376
厶口阝	-10377
____	-10378
olas	-10379
▁44%	-10380
▁dup	-10381
▁lit	-10382
▁mrs	-10383
▁raj	-10384
▁spl	-10385
▁1266	-10386
▁1285	-10387
▁gonz	-10388
▁hung	-10389
▁stem	-10390
▁choice	-10391
▁chicago	-10392
▁eclipse	-10393
▁jessica	-10394
▁graphics	-10395
94%	-10396
far	-10397
issa	-10398
orus	-10399
▁cgi	-10400
▁itu	-10401
▁jur	-10402
▁wto	-10403
ances	-10404
ields	-10405
▁1374	-10406
▁assist	-10407
▁chiang	-10408
▁solaris	-10409
▁minecraft	-10410
▁丶	-10411
▁mpa	-10412
▁try	-10413
丷干丸虫	-10414
▁1253	-10415
▁chrom	-10416
▁joint	-10417
▁retrieved	-10418
307	-10419
乡隹土	-10420
人人且	-10421
▁1025	-10422
▁dong	-10423
▁wasp	-10424
▁cheng	-10425
▁genie	-10426
▁gusta	-10427
▁mysql	-10428
▁fusion	-10429
▁someth	-10430
▁transit	-10431
▁represent	-10432
tb	-10433
月甲	-10434
金衣	-10435
一八皮	-10436
bble	-10437
ever	-10438
▁bmp	-10439
▁bod	-10440
▁esc	-10441
▁fle	-10442
▁spa	-10443
一中冖石	-10444
丨丨比金	-10445
ovich	-10446
▁1410	-10447
▁1438	-10448
▁chat	-10449
▁mond	-10450
▁alber	-10451
ability	-10452
▁columb	-10453
▁ludwig	-10454
▁warren	-10455
山鬼	-10456
136	-10457
bee	-10458
omp	-10459
aman	-10460
come	-10461
pher	-10462
▁aud	-10463
▁sos	-10464
▁tig	-10465
▁1381	-10466
▁1405	-10467
▁pled	-10468
▁sean	-10469
stream	-10470
▁conso	-10471
▁helen	-10472
艹虫	-10473
金不	-10474
305	-10475
inc	-10476
nar	-10477
set	-10478
dell	-10479
▁geo	-10480
▁wwf	-10481
▁1429	-10482
▁1477	-10483
▁ikon	-10484
▁loop	-10485
▁nano	-10486
▁photo	-10487
▁rhythm	-10488
10%	-10489
195	-10490
204	-10491
enda	-10492
till	-10493
▁abu	-10494
▁cox	-10495
▁dsi	-10496
▁nfc	-10497
▁1126	-10498
▁1397	-10499
▁1476	-10500
▁lite	-10501
▁glass	-10502
▁oscar	-10503
▁estate	-10504
▁eastern	-10505
▁foreign	-10506
▁macbook	-10507
▁platform	-10508
▁progress	-10509
▁municipal	-10510
▁wikipedia	-10511
iy	-10512
lr	-10513
opa	-10514
八刀土	-10515
wich	-10516
▁52%	-10517
▁aac	-10518
▁bai	-10519
▁cfm	-10520
ected	-10521
inary	-10522
▁must	-10523
▁nato	-10524
▁truth	-10525
▁federal	-10526
▁myspace	-10527
▁ultimate	-10528
vm	-10529
亻巨	-10530
umo	-10531
ined	-10532
vest	-10533
▁861	-10534
▁bae	-10535
▁gan	-10536
▁nds	-10537
▁1116	-10538
▁elli	-10539
▁rise	-10540
▁autom	-10541
▁datab	-10542
▁bittorrent	-10543
扌垂	-10544
tek	-10545
▁aeg	-10546
▁nos	-10547
ience	-10548
stand	-10549
▁1235	-10550
▁sept	-10551
▁birth	-10552
▁shift	-10553
▁thank	-10554
▁disney	-10555
▁oxford	-10556
▁sultan	-10557
▁learning	-10558
▁australian	-10559
扌东	-10560
etf	-10561
▁wz	-10562
重力灬	-10563
asis	-10564
shop	-10565
▁34%	-10566
▁47%	-10567
▁92%	-10568
▁cct	-10569
▁drm	-10570
▁maz	-10571
▁tib	-10572
ccess	-10573
▁1139	-10574
▁clay	-10575
▁cust	-10576
▁flex	-10577
▁help	-10578
▁amazing	-10579
▁manager	-10580
一隹	-10581
犭九	-10582
艹目	-10583
钅乙	-10584
002	-10585
dem	-10586
▁zf	-10587
▁1241	-10588
▁affa	-10589
▁arab	-10590
▁unif	-10591
bourne	-10592
▁better	-10593
▁cherry	-10594
▁lovely	-10595
▁palace	-10596
▁genesis	-10597
▁airlines	-10598
▁students	-10599
廴由	-10600
esp	-10601
tob	-10602
▁zn	-10603
木斤白	-10604
▁ssd	-10605
▁xii	-10606
ienne	-10607
▁1355	-10608
▁1456	-10609
▁bahn	-10610
▁beck	-10611
▁cnbc	-10612
▁fash	-10613
▁danny	-10614
▁devil	-10615
▁route	-10616
▁piazza	-10617
▁content	-10618
▁nicholas	-10619
▁convention	-10620
had	-10621
the	-10622
burn	-10623
east	-10624
ived	-10625
tius	-10626
wald	-10627
▁37%	-10628
▁ads	-10629
▁elf	-10630
▁ftp	-10631
▁nab	-10632
▁tsa	-10633
ensen	-10634
▁1351	-10635
▁1389	-10636
▁1428	-10637
▁joey	-10638
▁near	-10639
▁rosa	-10640
▁spot	-10641
▁vill	-10642
script	-10643
▁beats	-10644
▁lotus	-10645
▁congress	-10646
▁protocol	-10647
▁transfer	-10648
oly	-10649
▁iw	-10650
▁jf	-10651
丷夫言	-10652
八厶心	-10653
char	-10654
fire	-10655
gins	-10656
html	-10657
▁vil	-10658
▁1455	-10659
▁mile	-10660
▁proc	-10661
▁viet	-10662
▁assemb	-10663
▁combin	-10664
▁medicine	-10665
▁investment	-10666
舟中	-10667
ieu	-10668
ania	-10669
▁053	-10670
▁pew	-10671
ength	-10672
ingen	-10673
▁1119	-10674
▁neil	-10675
▁vvvf	-10676
▁kings	-10677
▁athlon	-10678
▁pledis	-10679
▁current	-10680
fy	-10681
米巴	-10682
chin	-10683
ured	-10684
▁ddg	-10685
▁kla	-10686
▁llc	-10687
▁pam	-10688
▁1002	-10689
▁1004	-10690
▁1208	-10691
▁4400	-10692
▁aero	-10693
▁drop	-10694
▁karen	-10695
▁large	-10696
▁param	-10697
▁believe	-10698
金卯	-10699
262	-10700
▁sx	-10701
车斤土	-10702
▁46%	-10703
▁eld	-10704
▁era	-10705
▁gcc	-10706
▁pda	-10707
umont	-10708
▁1187	-10709
▁1229	-10710
▁1287	-10711
▁1333	-10712
▁1373	-10713
▁4700	-10714
▁hipp	-10715
▁focus	-10716
▁maxim	-10717
▁victory	-10718
▁universe	-10719
▁structure	-10720
▁nb	-10721
耳耳頁	-10722
illo	-10723
▁sov	-10724
▁tsh	-10725
water	-10726
▁1044	-10727
▁1162	-10728
▁1271	-10729
▁1467	-10730
▁disp	-10731
▁prac	-10732
▁rodr	-10733
▁sala	-10734
▁gross	-10735
▁shine	-10736
▁coffee	-10737
▁domain	-10738
▁letter	-10739
▁mirror	-10740
▁allmusic	-10741
▁aggregate	-10742
▁francesco	-10743
▁industrial	-10744
▁cinemascore	-10745
▁毌	-10746
口羊	-10747
▁rl	-10748
幺幺子	-10749
idas	-10750
uten	-10751
▁ore	-10752
▁1123	-10753
▁1414	-10754
▁1482	-10755
▁4300	-10756
▁beam	-10757
▁cann	-10758
olitan	-10759
▁13000	-10760
▁blues	-10761
▁nancy	-10762
▁virus	-10763
▁indian	-10764
▁openoffice	-10765
gun	-10766
pha	-10767
ador	-10768
blue	-10769
▁ada	-10770
▁buk	-10771
▁eif	-10772
▁gur	-10773
ative	-10774
▁1071	-10775
▁1111	-10776
▁1153	-10777
▁1167	-10778
▁1236	-10779
▁1257	-10780
▁1358	-10781
▁1365	-10782
▁1427	-10783
▁wide	-10784
▁serge	-10785
▁swift	-10786
▁rogers	-10787
▁disease	-10788
▁symbian	-10789
▁military	-10790
▁fh	-10791
▁xv	-10792
白丿十阝	-10793
▁1141	-10794
▁1282	-10795
▁bott	-10796
▁move	-10797
ularia	-10798
▁chain	-10799
▁update	-10800
fic	-10801
lac	-10802
▁oo	-10803
ched	-10804
flow	-10805
▁fuj	-10806
▁1372	-10807
▁elle	-10808
▁pred	-10809
▁rein	-10810
▁venus	-10811
▁comics	-10812
▁episode	-10813
▁infinite	-10814
▁marshall	-10815
▁orchestra	-10816
酉甘	-10817
114	-10818
ppm	-10819
乀丿月	-10820
esco	-10821
tile	-10822
▁vog	-10823
▁1157	-10824
▁1391	-10825
▁hdmi	-10826
▁rrna	-10827
▁synd	-10828
▁tiff	-10829
▁colum	-10830
▁klein	-10831
▁laugh	-10832
▁policy	-10833
▁safety	-10834
▁barbara	-10835
▁constit	-10836
▁something	-10837
128	-10838
aly	-10839
ims	-10840
izer	-10841
vais	-10842
▁57%	-10843
▁csi	-10844
▁duc	-10845
▁1042	-10846
▁1259	-10847
▁expo	-10848
▁anders	-10849
▁centro	-10850
▁defense	-10851
▁gamerank	-10852
木乍	-10853
nas	-10854
tik	-10855
▁xt	-10856
text	-10857
tron	-10858
▁054	-10859
▁48%	-10860
▁flu	-10861
uchus	-10862
▁1283	-10863
▁dial	-10864
▁ebay	-10865
▁alone	-10866
▁parker	-10867
▁screen	-10868
▁temper	-10869
▁ericsson	-10870
▁gamerankings	-10871
冫牙	-10872
女朱	-10873
bye	-10874
orpg	-10875
unch	-10876
▁005	-10877
▁sag	-10878
▁suv	-10879
itive	-10880
▁1297	-10881
▁1362	-10882
▁1419	-10883
▁caen	-10884
▁cara	-10885
▁dipl	-10886
▁maxi	-10887
▁mono	-10888
▁prec	-10889
▁16000	-10890
▁chies	-10891
▁close	-10892
▁eagle	-10893
▁macro	-10894
▁bureau	-10895
▁chance	-10896
▁fellow	-10897
bot	-10898
dex	-10899
enix	-10900
ires	-10901
▁090	-10902
▁cbd	-10903
▁daw	-10904
▁nct	-10905
▁ntv	-10906
▁nur	-10907
▁pdp	-10908
▁uci	-10909
▁1018	-10910
▁1221	-10911
▁1258	-10912
▁1281	-10913
▁1418	-10914
▁kang	-10915
▁kirk	-10916
▁ready	-10917
▁synth	-10918
纟寸	-10919
ged	-10920
▁hf	-10921
iola	-10922
jang	-10923
▁066	-10924
▁29%	-10925
▁ets	-10926
▁rst	-10927
▁sep	-10928
gamer	-10929
▁1073	-10930
▁1147	-10931
▁1207	-10932
▁avbw	-10933
▁18000	-10934
▁berry	-10935
▁eddie	-10936
▁austin	-10937
▁nelson	-10938
▁rachel	-10939
▁valent	-10940
▁protein	-10941
▁frontier	-10942
kk	-10943
175	-10944
250	-10945
凵丨又	-10946
户攵木	-10947
bras	-10948
idea	-10949
ivan	-10950
▁phd	-10951
▁thy	-10952
▁1035	-10953
▁1329	-10954
▁adrian	-10955
▁personal	-10956
虍乎	-10957
金目	-10958
imir	-10959
▁hap	-10960
▁pic	-10961
▁corr	-10962
▁kern	-10963
▁aaron	-10964
▁adams	-10965
▁belle	-10966
▁thumb	-10967
▁higher	-10968
vd	-10969
▁疋	-10970
禾干	-10971
nah	-10972
itas	-10973
▁ced	-10974
▁ion	-10975
▁mcg	-10976
▁wah	-10977
where	-10978
▁1183	-10979
▁1461	-10980
▁drum	-10981
▁fung	-10982
▁poss	-10983
▁driver	-10984
▁competi	-10985
▁fashion	-10986
▁product	-10987
005	-10988
▁tj	-10989
anus	-10990
ares	-10991
omon	-10992
▁jor	-10993
▁kha	-10994
▁rpm	-10995
▁wiz	-10996
▁zim	-10997
▁rang	-10998
▁fleet	-10999
▁innov	-11000
▁chiesa	-11001
▁mmorpg	-11002
▁simula	-11003
▁wrc	-11004
arian	-11005
stadt	-11006
utive	-11007
▁1131	-11008
▁1192	-11009
▁1408	-11010
▁harm	-11011
▁heat	-11012
▁iptv	-11013
▁late	-11014
▁orth	-11015
▁twin	-11016
▁evans	-11017
▁opens	-11018
▁lantis	-11019
▁vehicle	-11020
▁minister	-11021
▁landkreis	-11022
白巴	-11023
gus	-11024
iral	-11025
▁gba	-11026
▁ppm	-11027
▁wee	-11028
▁1049	-11029
▁1072	-11030
▁1337	-11031
▁mers	-11032
▁label	-11033
217	-11034
isy	-11035
mah	-11036
nic	-11037
ours	-11038
▁fnc	-11039
▁het	-11040
▁nut	-11041
▁pbs	-11042
▁rie	-11043
▁snk	-11044
▁syd	-11045
▁ups	-11046
orrow	-11047
tives	-11048
▁1386	-11049
▁1395	-11050
▁1398	-11051
▁chick	-11052
▁singh	-11053
▁steel	-11054
▁murray	-11055
氵民	-11056
王頁	-11057
𠂆一	-11058
olia	-11059
onse	-11060
▁53%	-11061
▁aid	-11062
▁frs	-11063
▁lag	-11064
▁1128	-11065
▁1175	-11066
▁1346	-11067
▁1366	-11068
▁1483	-11069
▁emil	-11070
▁surv	-11071
ession	-11072
ternal	-11073
▁argent	-11074
▁cather	-11075
▁melody	-11076
▁paradise	-11077
▁shanghai	-11078
▁everything	-11079
▁yi	-11080
ante	-11081
ffer	-11082
tery	-11083
▁56%	-11084
▁duo	-11085
▁eur	-11086
▁lai	-11087
▁nod	-11088
arius	-11089
▁1077	-11090
▁1156	-11091
▁4600	-11092
▁dock	-11093
▁rabb	-11094
▁rome	-11095
▁sham	-11096
▁canal	-11097
▁relig	-11098
▁introd	-11099
▁monkey	-11100
▁african	-11101
▁syndrome	-11102
亡阝	-11103
八月	-11104
金必	-11105
eni	-11106
▁gk	-11107
ardo	-11108
look	-11109
▁88%	-11110
▁bgm	-11111
▁oss	-11112
chell	-11113
lated	-11114
▁1005	-11115
▁1252	-11116
▁1284	-11117
▁1436	-11118
▁ietf	-11119
▁sist	-11120
▁trig	-11121
▁uber	-11122
▁alexa	-11123
▁emacs	-11124
▁lloyd	-11125
enc	-11126
phi	-11127
roy	-11128
▁qe	-11129
▁vy	-11130
▁67%	-11131
▁dhc	-11132
▁wen	-11133
▁1095	-11134
▁1264	-11135
▁1307	-11136
▁dome	-11137
▁mama	-11138
▁amiga	-11139
▁animal	-11140
▁orient	-11141
▁select	-11142
▁stefan	-11143
▁because	-11144
▁conserv	-11145
▁liberty	-11146
90%	-11147
uar	-11148
▁afl	-11149
▁eid	-11150
▁gav	-11151
▁mim	-11152
▁rum	-11153
▁1048	-11154
▁1348	-11155
▁alto	-11156
▁apec	-11157
▁jaco	-11158
▁mine	-11159
▁supr	-11160
▁cctld	-11161
▁kkbox	-11162
▁lucky	-11163
▁medal	-11164
▁squad	-11165
▁boulev	-11166
▁diction	-11167
▁electro	-11168
▁georges	-11169
▁director	-11170
▁reaction	-11171
▁hollywood	-11172
▁technical	-11173
118	-11174
321	-11175
扌丸贝	-11176
atar	-11177
▁018	-11178
▁gtk	-11179
▁kem	-11180
▁uri	-11181
▁1118	-11182
▁1233	-11183
▁1286	-11184
▁nerv	-11185
▁perry	-11186
osition	-11187
▁course	-11188
▁nuclear	-11189
艹长	-11190
enu	-11191
夫夫車	-11192
enet	-11193
▁86%	-11194
▁sod	-11195
▁tau	-11196
▁tul	-11197
track	-11198
▁meta	-11199
▁momo	-11200
▁cells	-11201
▁libre	-11202
▁licen	-11203
▁member	-11204
亻夫	-11205
匚口	-11206
阝食	-11207
135	-11208
oga	-11209
▁jn	-11210
▁lh	-11211
▁bye	-11212
▁dbc	-11213
▁eve	-11214
▁kum	-11215
▁wed	-11216
丿𠃌攵贝	-11217
▁1019	-11218
▁1378	-11219
▁dang	-11220
▁gaud	-11221
▁igbt	-11222
▁trib	-11223
▁reddit	-11224
▁stuart	-11225
tt	-11226
瓦千	-11227
▁ao	-11228
cock	-11229
icar	-11230
▁cyp	-11231
▁dft	-11232
▁enc	-11233
▁pcr	-11234
▁psi	-11235
▁sax	-11236
▁1121	-11237
▁1177	-11238
▁1246	-11239
▁aver	-11240
▁14000	-11241
▁camera	-11242
▁jeremy	-11243
▁things	-11244
▁turner	-11245
▁chamber	-11246
▁japanese	-11247
▁regional	-11248
▁tomorrow	-11249
vens	-11250
▁93%	-11251
▁94%	-11252
▁ars	-11253
▁mev	-11254
▁1054	-11255
▁1218	-11256
▁1226	-11257
▁1357	-11258
▁1396	-11259
▁emer	-11260
▁stro	-11261
▁tool	-11262
urance	-11263
▁cemet	-11264
▁harold	-11265
▁though	-11266
▁boulevard	-11267
讠工	-11268
160	-11269
call	-11270
ovan	-11271
▁011	-11272
▁dum	-11273
▁gis	-11274
▁gly	-11275
▁ico	-11276
▁oil	-11277
andro	-11278
ports	-11279
▁1143	-11280
▁1195	-11281
▁1238	-11282
▁1256	-11283
▁1314	-11284
▁1452	-11285
▁1468	-11286
▁diff	-11287
冂二月犬鬼	-11288
▁lance	-11289
▁upper	-11290
▁georgia	-11291
氵丰	-11292
艹千	-11293
虫且	-11294
hof	-11295
zip	-11296
▁ln	-11297
edit	-11298
igny	-11299
▁58%	-11300
▁72%	-11301
▁chc	-11302
▁dak	-11303
▁fib	-11304
▁gif	-11305
▁hog	-11306
▁pfa	-11307
▁wei	-11308
▁1411	-11309
▁1441	-11310
▁1459	-11311
▁ella	-11312
▁mean	-11313
diepie	-11314
▁julia	-11315
▁manuel	-11316
▁racing	-11317
▁cemetery	-11318
▁imperial	-11319
▁physical	-11320
▁catherine	-11321
月羊	-11322
127	-11323
370	-11324
91%	-11325
ava	-11326
oko	-11327
pon	-11328
▁xb	-11329
crip	-11330
▁ard	-11331
▁emd	-11332
▁eun	-11333
▁gau	-11334
▁sri	-11335
icket	-11336
▁1013	-11337
▁1261	-11338
▁1291	-11339
▁1322	-11340
▁1336	-11341
▁1484	-11342
▁boom	-11343
▁lons	-11344
▁nest	-11345
▁vlad	-11346
titude	-11347
▁going	-11348
▁quant	-11349
▁sharp	-11350
▁import	-11351
▁trinity	-11352
▁columbia	-11353
▁database	-11354
▁pewdiepie	-11355
207	-11356
lib	-11357
uke	-11358
▁xc	-11359
▁abl	-11360
▁cvt	-11361
▁ssh	-11362
▁1205	-11363
▁1231	-11364
▁1232	-11365
▁1363	-11366
▁1416	-11367
▁2040	-11368
▁layer	-11369
且隹	-11370
金田	-11371
149	-11372
apa	-11373
jax	-11374
nos	-11375
ppy	-11376
rel	-11377
rio	-11378
▁xa	-11379
一丂瓜	-11380
aign	-11381
etch	-11382
tick	-11383
▁ask	-11384
▁emm	-11385
▁fee	-11386
▁vod	-11387
onkey	-11388
▁1417	-11389
▁1444	-11390
▁volume	-11391
▁fighter	-11392
▁hermann	-11393
▁sunrise	-11394
▁constant	-11395
▁distribution	-11396
口皿	-11397
151	-11398
206	-11399
▁kf	-11400
𠂉口皿	-11401
endy	-11402
lain	-11403
rame	-11404
tors	-11405
▁ald	-11406
▁eso	-11407
▁liu	-11408
▁1017	-11409
▁1055	-11410
▁1308	-11411
▁1359	-11412
▁2026	-11413
▁cand	-11414
▁cord	-11415
▁dram	-11416
▁feed	-11417
▁hash	-11418
▁colin	-11419
▁disco	-11420
borough	-11421
formula	-11422
▁lollip	-11423
▁newton	-11424
▁console	-11425
▁tonight	-11426
▁infinity	-11427
▁philippe	-11428
▁selection	-11429
爿羊	-11430
aci	-11431
lys	-11432
uin	-11433
▁fk	-11434
▁rv	-11435
dorf	-11436
igen	-11437
▁009	-11438
▁63%	-11439
▁87%	-11440
▁ela	-11441
▁hoo	-11442
▁kaz	-11443
▁khz	-11444
▁oct	-11445
▁rag	-11446
▁vul	-11447
mania	-11448
▁1076	-11449
▁1194	-11450
▁1199	-11451
▁lily	-11452
▁said	-11453
▁samp	-11454
▁could	-11455
▁fresh	-11456
▁mario	-11457
▁pride	-11458
▁fisher	-11459
▁survey	-11460
牛毛	-11461
酉乍	-11462
bil	-11463
isi	-11464
lio	-11465
▁jh	-11466
▁jj	-11467
erve	-11468
lips	-11469
onex	-11470
▁41%	-11471
▁ate	-11472
▁ipo	-11473
▁1103	-11474
▁1113	-11475
▁1132	-11476
▁1324	-11477
▁1437	-11478
▁crow	-11479
▁fell	-11480
▁prov	-11481
▁rout	-11482
▁verd	-11483
▁agent	-11484
▁toulo	-11485
▁nothing	-11486
丿手	-11487
女册	-11488
金乙	-11489
cco	-11490
edi	-11491
sha	-11492
chus	-11493
elin	-11494
iman	-11495
▁31%	-11496
▁66%	-11497
▁cul	-11498
▁tah	-11499
eased	-11500
▁1008	-11501
▁1191	-11502
▁1335	-11503
▁5600	-11504
▁cern	-11505
▁flat	-11506
▁jung	-11507
▁riaa	-11508
▁save	-11509
▁shan	-11510
▁sales	-11511
▁maurice	-11512
▁toulouse	-11513
攵虫	-11514
oku	-11515
宀八土	-11516
山己见	-11517
rell	-11518
▁dry	-11519
▁wag	-11520
▁1027	-11521
▁1037	-11522
▁1097	-11523
▁1325	-11524
▁chee	-11525
▁peak	-11526
▁vick	-11527
▁macau	-11528
▁posix	-11529
▁utric	-11530
▁counter	-11531
▁experience	-11532
讠卜	-11533
119	-11534
etz	-11535
eus	-11536
▁nj	-11537
月刂见	-11538
erse	-11539
ised	-11540
▁dvb	-11541
▁kop	-11542
▁1059	-11543
▁1242	-11544
▁1327	-11545
▁1349	-11546
▁1486	-11547
▁peng	-11548
▁sans	-11549
▁vall	-11550
▁webs	-11551
roller	-11552
▁stern	-11553
▁bullet	-11554
▁watson	-11555
▁secretary	-11556
pat	-11557
▁gj	-11558
口止夫	-11559
𠁣𠃛一	-11560
onne	-11561
pler	-11562
▁065	-11563
▁gdi	-11564
▁gue	-11565
▁muk	-11566
ening	-11567
layer	-11568
▁1101	-11569
▁1107	-11570
▁1352	-11571
▁1443	-11572
▁geoff	-11573
▁telec	-11574
▁please	-11575
▁nations	-11576
▁profile	-11577
▁working	-11578
▁challenge	-11579
▁different	-11580
亻千	-11581
月龙	-11582
虫内	-11583
gir	-11584
jun	-11585
▁mj	-11586
amoo	-11587
esse	-11588
ieux	-11589
▁dad	-11590
▁fai	-11591
▁gad	-11592
▁pok	-11593
▁rab	-11594
囗⺌日瓦	-11595
士冖一木	-11596
cated	-11597
eline	-11598
oshop	-11599
▁cyan	-11600
▁mans	-11601
▁mick	-11602
▁sier	-11603
▁carlo	-11604
▁berlin	-11605
▁inside	-11606
▁miguel	-11607
▁statis	-11608
▁utricularia	-11609
ahn	-11610
kon	-11611
rys	-11612
▁xs	-11613
ecca	-11614
ingo	-11615
▁89%	-11616
▁fps	-11617
▁oxy	-11618
▁rak	-11619
▁zam	-11620
tique	-11621
▁1065	-11622
▁1198	-11623
▁crim	-11624
▁exid	-11625
▁luke	-11626
▁luna	-11627
▁rice	-11628
▁trim	-11629
▁cable	-11630
▁frequ	-11631
▁glory	-11632
▁tardis	-11633
▁brother	-11634
▁charlotte	-11635
▁photoshop	-11636
004	-11637
bbs	-11638
▁wb	-11639
覀土阝	-11640
ardi	-11641
talk	-11642
▁fcc	-11643
▁gtp	-11644
▁vid	-11645
ragon	-11646
sport	-11647
▁0001	-11648
▁1289	-11649
▁6400	-11650
▁lanc	-11651
▁atlas	-11652
▁sandy	-11653
▁title	-11654
▁unity	-11655
▁africa	-11656
ditional	-11657
▁extreme	-11658
▁forward	-11659
▁journey	-11660
▁lollipop	-11661
▁oriental	-11662
▁province	-11663
▁remember	-11664
▁starship	-11665
▁following	-11666
▁political	-11667
eto	-11668
iev	-11669
vor	-11670
zon	-11671
㐅乂土	-11672
abad	-11673
cycl	-11674
ired	-11675
wall	-11676
▁jpg	-11677
▁pig	-11678
▁pvc	-11679
▁1124	-11680
▁1146	-11681
▁1267	-11682
▁1313	-11683
▁7200	-11684
▁aiko	-11685
▁dell	-11686
▁words	-11687
▁saturn	-11688
▁highway	-11689
▁atlantic	-11690
▁authority	-11691
▁administration	-11692
mf	-11693
003	-11694
ikh	-11695
born	-11696
itis	-11697
▁bed	-11698
▁dic	-11699
▁rsa	-11700
istan	-11701
▁1069	-11702
▁1166	-11703
▁1174	-11704
▁ting	-11705
▁magne	-11706
▁shall	-11707
▁tyler	-11708
▁catholic	-11709
180	-11710
▁jc	-11711
▁83%	-11712
▁84%	-11713
▁mia	-11714
▁smg	-11715
▁1056	-11716
▁1134	-11717
▁1272	-11718
▁1310	-11719
▁buzz	-11720
▁isab	-11721
▁wine	-11722
▁lower	-11723
▁article	-11724
▁collins	-11725
▁ireland	-11726
▁problem	-11727
▁canadian	-11728
火斤	-11729
bah	-11730
lea	-11731
etti	-11732
ives	-11733
omys	-11734
othe	-11735
▁fus	-11736
▁vre	-11737
▁1294	-11738
▁1347	-11739
▁1474	-11740
▁cold	-11741
▁dyna	-11742
▁esta	-11743
▁isis	-11744
▁ucla	-11745
▁elite	-11746
▁sleep	-11747
▁cortex	-11748
▁making	-11749
▁spider	-11750
▁target	-11751
▁alterna	-11752
▁outlook	-11753
▁spotify	-11754
▁industry	-11755
钅来	-11756
arma	-11757
ceae	-11758
▁dab	-11759
▁dop	-11760
▁nah	-11761
▁nay	-11762
▁1102	-11763
▁1273	-11764
▁1345	-11765
▁btob	-11766
▁navig	-11767
▁arnold	-11768
▁filter	-11769
▁ronald	-11770
▁gilbert	-11771
▁schools	-11772
▁showtime	-11773
131	-11774
山而页	-11775
arin	-11776
▁022	-11777
▁067	-11778
▁54%	-11779
▁hak	-11780
▁htm	-11781
lable	-11782
▁1106	-11783
▁5300	-11784
▁5400	-11785
▁buch	-11786
▁carn	-11787
▁kurt	-11788
▁lamb	-11789
▁nand	-11790
▁atenu	-11791
▁chuck	-11792
▁heavy	-11793
▁jalan	-11794
▁xhtml	-11795
▁strike	-11796
▁borough	-11797
▁vietnam	-11798
▁pj	-11799
quin	-11800
▁sic	-11801
▁1223	-11802
▁1248	-11803
▁1426	-11804
▁6600	-11805
▁fear	-11806
▁hass	-11807
▁pand	-11808
▁push	-11809
▁ultr	-11810
omatic	-11811
▁spark	-11812
starter	-11813
▁compact	-11814
▁ユ	-11815
319	-11816
450	-11817
jar	-11818
mor	-11819
▁etf	-11820
▁rug	-11821
▁1014	-11822
▁1090	-11823
▁1239	-11824
▁1255	-11825
▁3900	-11826
▁corps	-11827
▁paint	-11828
▁quest	-11829
▁cookie	-11830
▁father	-11831
▁phoenix	-11832
▁quarter	-11833
▁operations	-11834
gt	-11835
口瓜	-11836
扌千	-11837
303	-11838
aye	-11839
igi	-11840
hill	-11841
▁019	-11842
▁039	-11843
▁moo	-11844
▁orb	-11845
encer	-11846
▁1169	-11847
▁1181	-11848
▁1251	-11849
▁1462	-11850
▁1473	-11851
▁bald	-11852
▁disk	-11853
▁hour	-11854
▁kate	-11855
▁liqu	-11856
▁once	-11857
▁solar	-11858
▁border	-11859
▁encore	-11860
▁julius	-11861
▁lincol	-11862
▁johannes	-11863
▁knowledge	-11864
▁secondary	-11865
gal	-11866
unk	-11867
▁vu	-11868
亠父力	-11869
ande	-11870
chat	-11871
hell	-11872
▁62%	-11873
▁ffe	-11874
▁gto	-11875
▁kaw	-11876
▁scp	-11877
▁sut	-11878
▁ttc	-11879
▁wai	-11880
▁0000	-11881
▁1117	-11882
▁1159	-11883
▁1171	-11884
▁hook	-11885
▁term	-11886
tional	-11887
▁theor	-11888
▁andrea	-11889
▁docomo	-11890
▁period	-11891
▁russian	-11892
▁campaign	-11893
▁protection	-11894
▁tournament	-11895
fm	-11896
qi	-11897
cem	-11898
neo	-11899
tah	-11900
口耳戈	-11901
▁048	-11902
▁pau	-11903
▁png	-11904
▁roc	-11905
▁thi	-11906
▁1015	-11907
▁1078	-11908
▁1163	-11909
▁fitz	-11910
▁guer	-11911
▁mann	-11912
utsche	-11913
▁agree	-11914
▁crist	-11915
▁felix	-11916
▁muham	-11917
▁print	-11918
▁silva	-11919
▁since	-11920
▁sword	-11921
▁kirara	-11922
▁goodbye	-11923
▁lincoln	-11924
▁student	-11925
▁fernando	-11926
▁mitchell	-11927
▁publishing	-11928
850	-11929
fin	-11930
mos	-11931
ocy	-11932
gang	-11933
nell	-11934
▁093	-11935
▁afc	-11936
▁fad	-11937
火火冖糸	-11938
▁1045	-11939
▁1136	-11940
▁1431	-11941
▁1479	-11942
▁5800	-11943
▁brig	-11944
▁bush	-11945
▁omni	-11946
▁owen	-11947
▁pain	-11948
ctions	-11949
▁cohen	-11950
▁kabup	-11951
▁sorry	-11952
▁wings	-11953
▁arcade	-11954
▁campus	-11955
▁circus	-11956
▁ferdin	-11957
▁includ	-11958
▁paypal	-11959
▁gaudens	-11960
▁kickstarter	-11961
酉丁	-11962
263	-11963
fet	-11964
loy	-11965
city	-11966
ustr	-11967
▁39%	-11968
▁78%	-11969
▁diy	-11970
▁fon	-11971
▁lep	-11972
▁lif	-11973
▁sdn	-11974
▁til	-11975
▁1006	-11976
▁1094	-11977
▁1203	-11978
▁1422	-11979
▁bdsm	-11980
▁lucy	-11981
▁riot	-11982
▁serv	-11983
▁error	-11984
▁honor	-11985
▁islam	-11986
▁liner	-11987
▁share	-11988
▁combat	-11989
▁contem	-11990
▁depend	-11991
▁linear	-11992
▁account	-11993
▁success	-11994
▁objective	-11995
▁dictionary	-11996
▁laboratory	-11997
宀𡗗	-11998
言工	-11999
270	-12000
999	-12001
▁hn	-12002
eria	-12003
lash	-12004
last	-12005
▁82%	-12006
▁aig	-12007
▁ape	-12008
▁cun	-12009
▁gat	-12010
▁irc	-12011
▁mbe	-12012
▁ngt	-12013
▁nsa	-12014
▁1087	-12015
▁1154	-12016
▁1263	-12017
▁6800	-12018
▁hugo	-12019
▁json	-12020
▁pcie	-12021
▁ques	-12022
▁jesus	-12023
▁month	-12024
▁rubber	-12025
▁message	-12026
▁quality	-12027
▁sequence	-12028
▁kabupaten	-12029
土龙	-12030
尢王	-12031
140	-12032
211	-12033
220	-12034
cos	-12035
▁jk	-12036
eror	-12037
mour	-12038
tiva	-12039
▁024	-12040
▁icd	-12041
▁imf	-12042
▁jel	-12043
▁nbl	-12044
▁yun	-12045
graph	-12046
okawa	-12047
▁1034	-12048
▁1209	-12049
▁1323	-12050
▁1489	-12051
▁9600	-12052
▁fuck	-12053
▁hits	-12054
▁brave	-12055
▁models	-12056
▁points	-12057
▁finance	-12058
▁telecom	-12059
▁cambridge	-12060
fb	-12061
竹巴	-12062
213	-12063
lak	-12064
web	-12065
aser	-12066
erie	-12067
rael	-12068
▁alo	-12069
▁hex	-12070
▁nir	-12071
▁rss	-12072
▁shu	-12073
dress	-12074
▁1088	-12075
▁1179	-12076
▁1228	-12077
▁1303	-12078
▁1447	-12079
▁trop	-12080
manuel	-12081
▁clock	-12082
▁prada	-12083
▁phenom	-12084
▁welcome	-12085
▁chemical	-12086
虫亡	-12087
134	-12088
bet	-12089
utz	-12090
anto	-12091
gest	-12092
tish	-12093
wave	-12094
▁77%	-12095
▁ioc	-12096
burgh	-12097
istol	-12098
otype	-12099
▁1302	-12100
▁1393	-12101
▁anto	-12102
▁drug	-12103
▁goes	-12104
▁rece	-12105
▁notes	-12106
▁using	-12107
▁branch	-12108
▁dynamic	-12109
▁terminal	-12110
▁postscript	-12111
▁broadcasting	-12112
rp	-12113
230	-12114
lal	-12115
elia	-12116
lett	-12117
▁dix	-12118
▁rup	-12119
annon	-12120
▁1096	-12121
▁1148	-12122
▁1158	-12123
▁1202	-12124
▁1237	-12125
▁1247	-12126
▁1299	-12127
▁1458	-12128
▁1463	-12129
▁1491	-12130
▁evan	-12131
▁grim	-12132
▁sanc	-12133
▁shaw	-12134
▁task	-12135
berger	-12136
▁capit	-12137
▁laser	-12138
▁pitch	-12139
▁sunny	-12140
▁trail	-12141
▁corner	-12142
▁guitar	-12143
▁novell	-12144
▁sydney	-12145
▁quantum	-12146
▁caroline	-12147
▁franklin	-12148
▁executive	-12149
礻石	-12150
衤氏	-12151
jon	-12152
丿皿卩	-12153
udio	-12154
▁035	-12155
▁acm	-12156
▁fix	-12157
▁tcl	-12158
onald	-12159
ually	-12160
▁1262	-12161
▁lung	-12162
▁nice	-12163
▁niss	-12164
▁pete	-12165
▁emily	-12166
▁kinki	-12167
▁forces	-12168
▁reason	-12169
▁chronic	-12170
耒㠯	-12171
beat	-12172
cale	-12173
ktop	-12174
▁gel	-12175
▁gom	-12176
▁lpl	-12177
▁ott	-12178
▁pab	-12179
▁rey	-12180
▁uns	-12181
andra	-12182
erner	-12183
ucker	-12184
▁1003	-12185
▁1133	-12186
▁1151	-12187
▁1293	-12188
▁1341	-12189
▁1384	-12190
▁benz	-12191
▁kiha	-12192
▁mint	-12193
▁pang	-12194
▁ahmad	-12195
▁edwin	-12196
▁petit	-12197
▁however	-12198
229	-12199
bul	-12200
▁ij	-12201
▁pz	-12202
▁qb	-12203
ames	-12204
athy	-12205
essa	-12206
▁alc	-12207
▁icc	-12208
▁pcm	-12209
▁uhf	-12210
▁1063	-12211
▁1152	-12212
▁1186	-12213
▁1288	-12214
▁cald	-12215
▁emma	-12216
▁male	-12217
▁pere	-12218
▁marco	-12219
▁bandar	-12220
▁random	-12221
▁schwar	-12222
▁allstar	-12223
▁assembly	-12224
▁networks	-12225
199	-12226
dif	-12227
pen	-12228
lian	-12229
▁037	-12230
▁056	-12231
▁lad	-12232
▁lig	-12233
▁ord	-12234
▁phi	-12235
▁1046	-12236
▁1081	-12237
▁1173	-12238
▁1446	-12239
▁mood	-12240
▁tung	-12241
▁wins	-12242
▁blade	-12243
▁elena	-12244
▁snake	-12245
▁fedora	-12246
▁gaming	-12247
▁kadokawa	-12248
▁mountains	-12249
田疋	-12250
168	-12251
308	-12252
thy	-12253
业㡀甫	-12254
几木刂	-12255
勹日阝	-12256
日女阝	-12257
▁ain	-12258
▁kus	-12259
▁liz	-12260
▁peg	-12261
十冖田疋	-12262
▁1434	-12263
▁bone	-12264
▁quin	-12265
▁adult	-12266
▁giant	-12267
▁giuse	-12268
▁melan	-12269
▁wagon	-12270
▁coming	-12271
▁commod	-12272
▁script	-12273
▁within	-12274
▁beauvais	-12275
▁jennifer	-12276
007	-12277
lia	-12278
女又手	-12279
▁crj	-12280
▁faa	-12281
▁foo	-12282
inois	-12283
▁1104	-12284
▁1144	-12285
▁1165	-12286
▁1254	-12287
▁schw	-12288
▁mason	-12289
▁louise	-12290
▁informer	-12291
▁commander	-12292
cu	-12293
兆頁	-12294
208	-12295
api	-12296
yah	-12297
▁gx	-12298
人人心	-12299
step	-12300
▁046	-12301
▁amr	-12302
▁hod	-12303
▁sue	-12304
▁vib	-12305
▁yui	-12306
▁1009	-12307
▁1326	-12308
▁adap	-12309
▁dame	-12310
▁erik	-12311
▁fans	-12312
▁neut	-12313
▁ruth	-12314
▁temu	-12315
⺌冖口田刂	-12316
tended	-12317
uation	-12318
▁bound	-12319
▁collec	-12320
▁doremi	-12321
▁format	-12322
▁julian	-12323
▁result	-12324
▁chapter	-12325
▁persona	-12326
▁singles	-12327
▁symphony	-12328
hg	-12329
言卜	-12330
224	-12331
勹冫金	-12332
umer	-12333
▁cet	-12334
▁iau	-12335
onica	-12336
▁1028	-12337
▁1182	-12338
▁1212	-12339
▁1301	-12340
▁dian	-12341
▁hood	-12342
▁octa	-12343
▁tenn	-12344
ensive	-12345
▁miles	-12346
▁treat	-12347
▁carbon	-12348
▁leslie	-12349
▁trance	-12350
▁coaster	-12351
▁connect	-12352
▁supreme	-12353
▁aviation	-12354
七木	-12355
口食	-12356
130	-12357
mut	-12358
ogn	-12359
omm	-12360
oso	-12361
ovo	-12362
▁xo	-12363
氵七木	-12364
enia	-12365
esto	-12366
midt	-12367
▁pyr	-12368
▁1145	-12369
▁1269	-12370
▁1296	-12371
▁1311	-12372
▁gond	-12373
▁spor	-12374
▁cliff	-12375
▁joker	-12376
▁known	-12377
▁nucle	-12378
▁excell	-12379
▁pretty	-12380
▁metropolitan	-12381
匕十	-12382
土更	-12383
言山	-12384
龙石	-12385
133	-12386
470	-12387
bad	-12388
dia	-12389
rag	-12390
iant	-12391
opus	-12392
rock	-12393
zone	-12394
▁gec	-12395
▁loc	-12396
▁shi	-12397
▁1012	-12398
▁1176	-12399
▁1309	-12400
▁bash	-12401
▁cock	-12402
▁punk	-12403
▁reed	-12404
▁saga	-12405
idence	-12406
▁catch	-12407
▁ching	-12408
▁cream	-12409
▁marqu	-12410
▁rapid	-12411
▁harvey	-12412
▁played	-12413
▁shield	-12414
亻丁	-12415
255	-12416
apy	-12417
▁008	-12418
▁apu	-12419
▁enh	-12420
▁fsa	-12421
▁kis	-12422
▁kub	-12423
▁mri	-12424
▁nee	-12425
▁rhe	-12426
▁wet	-12427
erous	-12428
mouth	-12429
▁1041	-12430
▁1184	-12431
▁amar	-12432
▁cape	-12433
▁ligo	-12434
▁loss	-12435
▁salt	-12436
▁bright	-12437
▁eugene	-12438
▁olympic	-12439
▁computing	-12440
ei	-12441
323	-12442
hot	-12443
riz	-12444
mont	-12445
rica	-12446
urst	-12447
▁exc	-12448
▁neu	-12449
▁sof	-12450
▁yar	-12451
aries	-12452
▁1401	-12453
▁beth	-12454
▁brid	-12455
▁jtwc	-12456
▁mips	-12457
▁sull	-12458
cephal	-12459
▁coach	-12460
▁diego	-12461
▁warri	-12462
▁accord	-12463
▁claire	-12464
▁conver	-12465
▁nikola	-12466
▁rocket	-12467
口龙	-12468
豕生	-12469
405	-12470
tar	-12471
uga	-12472
loss	-12473
ucky	-12474
ults	-12475
▁085	-12476
▁cie	-12477
▁fas	-12478
child	-12479
forge	-12480
▁1093	-12481
▁1196	-12482
▁1201	-12483
▁enti	-12484
▁glen	-12485
▁khal	-12486
▁soci	-12487
▁jesse	-12488
▁editor	-12489
▁hammer	-12490
▁waters	-12491
▁deutsche	-12492
▁malaysia	-12493
▁adventure	-12494
▁programming	-12495
▁construction	-12496
艹乡	-12497
tab	-12498
▁zz	-12499
isen	-12500
ishi	-12501
▁aec	-12502
▁avc	-12503
itten	-12504
▁1032	-12505
▁1112	-12506
▁1114	-12507
▁1149	-12508
▁1197	-12509
▁dart	-12510
▁july	-12511
▁load	-12512
▁symp	-12513
elling	-12514
▁aster	-12515
▁betty	-12516
▁gerald	-12517
▁stella	-12518
▁jeffrey	-12519
▁products	-12520
女为	-12521
159	-12522
257	-12523
agn	-12524
icz	-12525
xin	-12526
▁uu	-12527
care	-12528
cope	-12529
eady	-12530
▁64%	-12531
night	-12532
▁1047	-12533
▁1292	-12534
▁bind	-12535
▁duck	-12536
▁hoch	-12537
▁pump	-12538
▁raja	-12539
▁ratp	-12540
▁umts	-12541
caster	-12542
▁huang	-12543
▁ridge	-12544
▁scale	-12545
▁cornel	-12546
▁foster	-12547
▁reality	-12548
ep	-12549
jk	-12550
辶甫	-12551
uni	-12552
olph	-12553
▁91%	-12554
▁amg	-12555
▁arp	-12556
▁hai	-12557
▁lga	-12558
▁pes	-12559
▁sey	-12560
▁ski	-12561
▁smo	-12562
ished	-12563
▁1033	-12564
▁1068	-12565
▁1109	-12566
▁alco	-12567
▁aria	-12568
▁bord	-12569
▁bron	-12570
▁chak	-12571
▁chip	-12572
▁choc	-12573
▁isle	-12574
▁⿱⿱⿱⿱	-12575
ermont	-12576
▁krist	-12577
▁rifle	-12578
▁yonex	-12579
▁custom	-12580
▁parliam	-12581
▁players	-12582
▁spencer	-12583
土己	-12584
广鬼	-12585
137	-12586
228	-12587
▁qa	-12588
atha	-12589
pass	-12590
ungs	-12591
▁81%	-12592
▁chs	-12593
▁haj	-12594
▁inj	-12595
𠂊田一巴	-12596
▁1361	-12597
▁uefa	-12598
▁wiss	-12599
▁zepp	-12600
▁eight	-12601
▁falls	-12602
▁harper	-12603
▁holiday	-12604
▁languages	-12605
eb	-12606
kr	-12607
mt	-12608
囗寸	-12609
罒不	-12610
舟山	-12611
dec	-12612
uya	-12613
虍几食	-12614
ento	-12615
ilus	-12616
kell	-12617
stan	-12618
▁68%	-12619
▁lcc	-12620
▁raz	-12621
▁5700	-12622
▁bach	-12623
▁hind	-12624
▁ller	-12625
▁span	-12626
▁thir	-12627
▁brows	-12628
▁bruno	-12629
▁wayne	-12630
▁hearts	-12631
▁render	-12632
▁kennedy	-12633
▁clermont	-12634
▁muhammad	-12635
▁phillips	-12636
▁commercial	-12637
ogy	-12638
▁044	-12639
▁74%	-12640
▁egg	-12641
▁gin	-12642
▁jup	-12643
itage	-12644
▁8859	-12645
▁dies	-12646
▁gamma	-12647
▁meyer	-12648
▁piano	-12649
文寸	-12650
139	-12651
▁oy	-12652
anne	-12653
asse	-12654
hood	-12655
rice	-12656
wide	-12657
▁amo	-12658
▁aoa	-12659
▁apa	-12660
▁eps	-12661
▁jab	-12662
▁mai	-12663
ansas	-12664
▁1083	-12665
▁nana	-12666
▁pale	-12667
▁behav	-12668
▁vorbis	-12669
▁warner	-12670
▁gfriend	-12671
▁license	-12672
▁mamamoo	-12673
▁scholar	-12674
▁november	-12675
▁relation	-12676
▁alternative	-12677
▁intelligence	-12678
161	-12679
256	-12680
caf	-12681
dae	-12682
gis	-12683
iao	-12684
jin	-12685
▁075	-12686
▁dou	-12687
▁mph	-12688
▁pcb	-12689
▁xiv	-12690
▁1039	-12691
▁1057	-12692
▁1312	-12693
▁1315	-12694
▁bugs	-12695
▁clim	-12696
▁farm	-12697
▁incr	-12698
▁leaf	-12699
▁kanon	-12700
▁latin	-12701
▁stack	-12702
▁called	-12703
▁falcon	-12704
▁gibson	-12705
▁kindle	-12706
▁resist	-12707
▁treaty	-12708
▁terminus	-12709
▁parliament	-12710
fx	-12711
216	-12712
⿱⿳𭕄	-12713
inga	-12714
west	-12715
▁cyn	-12716
▁due	-12717
▁ghq	-12718
▁hik	-12719
▁mbs	-12720
▁mex	-12721
▁tav	-12722
eston	-12723
▁1268	-12724
▁2029	-12725
▁2035	-12726
▁ajax	-12727
▁inves	-12728
▁pearl	-12729
▁sebas	-12730
ception	-12731
▁growth	-12732
▁sexual	-12733
▁fiction	-12734
▁giuseppe	-12735
bh	-12736
日巨	-12737
钅卯	-12738
钅女	-12739
188	-12740
197	-12741
222	-12742
dan	-12743
ilo	-12744
lif	-12745
rea	-12746
コ一心	-12747
匚王力	-12748
game	-12749
iper	-12750
olin	-12751
olla	-12752
vier	-12753
▁028	-12754
▁hmv	-12755
▁ira	-12756
▁lau	-12757
▁ned	-12758
▁ppp	-12759
𠂊田灬予	-12760
court	-12761
style	-12762
▁1342	-12763
▁bene	-12764
▁elis	-12765
porary	-12766
▁bourg	-12767
▁merce	-12768
▁opent	-12769
▁sdram	-12770
ibility	-12771
▁joshua	-12772
▁talent	-12773
▁extended	-12774
氵为	-12775
006	-12776
227	-12777
zig	-12778
3000	-12779
▁bao	-12780
▁esa	-12781
▁och	-12782
▁zoo	-12783
frame	-12784
▁gone	-12785
▁grid	-12786
▁mist	-12787
▁wnba	-12788
▁hands	-12789
▁paralle	-12790
▁basilica	-12791
▁harrison	-12792
yx	-12793
口艮	-12794
gai	-12795
gic	-12796
lai	-12797
nis	-12798
orh	-12799
zzi	-12800
▁rj	-12801
▁021	-12802
▁tus	-12803
aceae	-12804
▁1023	-12805
▁1029	-12806
▁1188	-12807
▁6300	-12808
▁abra	-12809
▁bean	-12810
▁inno	-12811
▁pant	-12812
▁rena	-12813
▁atari	-12814
▁rosen	-12815
▁groups	-12816
▁sierra	-12817
▁fischer	-12818
▁register	-12819
犭白	-12820
132	-12821
169	-12822
302	-12823
upt	-12824
wen	-12825
▁lx	-12826
扌丸虫	-12827
enty	-12828
osed	-12829
uron	-12830
▁092	-12831
▁ble	-12832
▁gli	-12833
▁nih	-12834
anner	-12835
eaker	-12836
▁cout	-12837
▁else	-12838
▁exit	-12839
▁sett	-12840
▁skin	-12841
▁above	-12842
▁analy	-12843
▁ninja	-12844
▁prism	-12845
▁ladies	-12846
▁meeting	-12847
▁rebecca	-12848
▁eurogamer	-12849
▁industries	-12850
156	-12851
170	-12852
len	-12853
日十阝	-12854
horn	-12855
inda	-12856
▁014	-12857
▁029	-12858
▁als	-12859
▁aol	-12860
▁cav	-12861
▁itf	-12862
▁lsd	-12863
▁psa	-12864
囗⺌日刂	-12865
▁1021	-12866
▁1074	-12867
▁1108	-12868
▁1318	-12869
▁evil	-12870
▁hulu	-12871
▁kung	-12872
▁rare	-12873
▁semi	-12874
▁teng	-12875
▁array	-12876
▁avbwu	-12877
▁chase	-12878
▁click	-12879
▁josef	-12880
▁cookies	-12881
▁timothy	-12882
yg	-12883
155	-12884
306	-12885
503	-12886
737	-12887
尢丶彡	-12888
ibus	-12889
▁alp	-12890
▁cru	-12891
▁hdr	-12892
▁sys	-12893
▁yet	-12894
▁1344	-12895
▁1379	-12896
▁5100	-12897
▁bath	-12898
▁copy	-12899
▁craw	-12900
▁scsi	-12901
▁shak	-12902
▁todd	-12903
▁chess	-12904
▁stray	-12905
▁dancing	-12906
▁mystery	-12907
▁michelle	-12908
▁controller	-12909
hk	-12910
prs	-12911
▁rz	-12912
aldo	-12913
iton	-12914
latz	-12915
mani	-12916
mart	-12917
▁apt	-12918
▁lik	-12919
▁sio	-12920
▁vim	-12921
endor	-12922
matic	-12923
▁1089	-12924
▁1193	-12925
▁1432	-12926
▁homo	-12927
▁proj	-12928
▁seat	-12929
▁stre	-12930
▁upon	-12931
tivity	-12932
▁atlus	-12933
▁augus	-12934
▁blake	-12935
▁eidos	-12936
▁horse	-12937
▁julie	-12938
▁regula	-12939
▁unesco	-12940
▁identity	-12941
▁presents	-12942
▁commodore	-12943
▁artsvision	-12944
▁championships	-12945
165	-12946
286	-12947
asp	-12948
eah	-12949
又又页	-12950
cdma	-12951
hold	-12952
wind	-12953
▁61%	-12954
▁nou	-12955
itude	-12956
rique	-12957
uctor	-12958
▁1339	-12959
▁aids	-12960
▁fiba	-12961
▁sexy	-12962
▁sram	-12963
▁viva	-12964
▁35000	-12965
▁encycl	-12966
▁lights	-12967
▁baseball	-12968
▁property	-12969
▁variable	-12970
▁interchange	-12971
月瓜	-12972
162	-12973
215	-12974
law	-12975
▁lj	-12976
apur	-12977
eron	-12978
isse	-12979
rypt	-12980
▁eat	-12981
▁edi	-12982
▁els	-12983
▁gnz	-12984
▁mvc	-12985
▁pax	-12986
▁tep	-12987
▁yuk	-12988
▁cryp	-12989
▁does	-12990
▁goth	-12991
▁maus	-12992
▁ride	-12993
▁wells	-12994
▁capcom	-12995
▁porter	-12996
▁approach	-12997
▁astronom	-12998
▁economics	-12999
▁translation	-13000
口申	-13001
火文	-13002
164	-13003
ghz	-13004
hop	-13005
▁++	-13006
pent	-13007
▁072	-13008
▁ais	-13009
▁git	-13010
▁lak	-13011
▁tid	-13012
▁vga	-13013
break	-13014
ching	-13015
ookie	-13016
▁hoff	-13017
▁jade	-13018
▁safe	-13019
▁bella	-13020
▁chaos	-13021
▁crime	-13022
▁mccar	-13023
▁omega	-13024
▁duncan	-13025
▁marina	-13026
▁should	-13027
▁sounds	-13028
▁affairs	-13029
▁angeles	-13030
▁lovelyz	-13031
▁paradox	-13032
▁nacional	-13033
▁september	-13034
los	-13035
mia	-13036
rif	-13037
▁vx	-13038
宀八兆	-13039
abil	-13040
atra	-13041
▁dlp	-13042
▁piz	-13043
人一朩田	-13044
▁1064	-13045
▁infl	-13046
▁jake	-13047
▁poli	-13048
▁pour	-13049
▁tail	-13050
▁tale	-13051
ampton	-13052
▁destr	-13053
▁quart	-13054
▁santi	-13055
▁those	-13056
▁adidas	-13057
▁hughes	-13058
▁matter	-13059
▁ferdinand	-13060
138	-13061
770	-13062
彑𧰨土	-13063
日巨火	-13064
ided	-13065
vard	-13066
▁073	-13067
▁atl	-13068
▁doi	-13069
▁koh	-13070
▁lyc	-13071
▁mao	-13072
fried	-13073
▁1098	-13074
▁1243	-13075
▁caus	-13076
▁folk	-13077
▁goal	-13078
▁hern	-13079
▁nadp	-13080
▁sogo	-13081
▁bible	-13082
▁isaac	-13083
isation	-13084
▁basket	-13085
▁calvin	-13086
▁female	-13087
▁palais	-13088
▁panzer	-13089
▁psycho	-13090
▁musical	-13091
▁nicolas	-13092
▁roberto	-13093
▁historical	-13094
水皿	-13095
152	-13096
214	-13097
bre	-13098
jah	-13099
leh	-13100
eech	-13101
lang	-13102
ound	-13103
▁cdc	-13104
▁ktm	-13105
unier	-13106
▁1038	-13107
▁1222	-13108
▁1353	-13109
▁2027	-13110
▁6200	-13111
▁boyz	-13112
▁bret	-13113
▁gott	-13114
▁hier	-13115
▁swan	-13116
▁tune	-13117
▁ahmed	-13118
▁demon	-13119
▁molec	-13120
▁shish	-13121
▁teams	-13122
▁angels	-13123
▁berger	-13124
▁boston	-13125
▁cheung	-13126
▁sophie	-13127
▁circuit	-13128
▁sullivan	-13129
▁agreement	-13130
▁blackberry	-13131
扌甘	-13132
钅了	-13133
192	-13134
261	-13135
404	-13136
509	-13137
九朩隹	-13138
mbps	-13139
scha	-13140
tres	-13141
▁hua	-13142
▁ims	-13143
▁sbd	-13144
▁sia	-13145
▁sme	-13146
▁tyr	-13147
▁vio	-13148
▁amph	-13149
▁buil	-13150
▁date	-13151
▁icon	-13152
▁info	-13153
▁lich	-13154
▁till	-13155
anning	-13156
▁cycle	-13157
▁santos	-13158
▁sistar	-13159
▁techno	-13160
▁haskell	-13161
▁stories	-13162
hm	-13163
辶刀	-13164
365	-13165
爫子阝	-13166
aran	-13167
emon	-13168
icks	-13169
ipro	-13170
▁cfa	-13171
▁epr	-13172
lette	-13173
osaic	-13174
▁1031	-13175
▁1053	-13176
▁1092	-13177
▁1316	-13178
▁1331	-13179
▁1332	-13180
▁1423	-13181
▁dere	-13182
▁joel	-13183
▁ohio	-13184
▁acous	-13185
▁irish	-13186
▁neuro	-13187
▁stard	-13188
▁troub	-13189
▁franco	-13190
▁marion	-13191
▁address	-13192
▁borland	-13193
▁openbsd	-13194
▁popular	-13195
▁mercedes	-13196
▁constitution	-13197
山来	-13198
157	-13199
486	-13200
ayan	-13201
uche	-13202
▁73%	-13203
▁cog	-13204
▁csl	-13205
▁ech	-13206
▁ged	-13207
▁phy	-13208
rical	-13209
tober	-13210
▁gaba	-13211
▁hiro	-13212
▁decem	-13213
▁janet	-13214
▁wrest	-13215
▁vmware	-13216
▁officer	-13217
▁scandal	-13218
▁programme	-13219
193	-13220
777	-13221
kal	-13222
raw	-13223
sey	-13224
zia	-13225
▁hw	-13226
gers	-13227
roph	-13228
▁068	-13229
▁cid	-13230
▁gum	-13231
▁isu	-13232
▁rov	-13233
▁suz	-13234
etype	-13235
▁1079	-13236
▁2047	-13237
▁sons	-13238
master	-13239
▁blast	-13240
▁naval	-13241
▁trent	-13242
▁killer	-13243
▁liquid	-13244
▁frequency	-13245
竹罒	-13246
331	-13247
uku	-13248
习习中	-13249
cens	-13250
ging	-13251
inax	-13252
ulin	-13253
▁061	-13254
▁gmt	-13255
▁gpa	-13256
▁osi	-13257
▁xav	-13258
amine	-13259
icate	-13260
icial	-13261
times	-13262
▁1052	-13263
▁1168	-13264
▁1319	-13265
▁biow	-13266
▁enix	-13267
▁xeon	-13268
ements	-13269
▁lover	-13270
▁plane	-13271
▁compan	-13272
▁compon	-13273
▁genius	-13274
▁glados	-13275
▁nissan	-13276
▁rising	-13277
▁busters	-13278
▁january	-13279
▁critical	-13280
▁straight	-13281
vr	-13282
气亚	-13283
禺页	-13284
870	-13285
gia	-13286
▁mq	-13287
wire	-13288
▁043	-13289
▁adi	-13290
▁emb	-13291
▁gmp	-13292
▁svg	-13293
▁tip	-13294
▁tub	-13295
▁ucs	-13296
▁⿱⿴⿰	-13297
▁1061	-13298
▁1172	-13299
▁maya	-13300
▁oppo	-13301
▁pony	-13302
▁robb	-13303
▁swim	-13304
▁athle	-13305
▁denis	-13306
▁deter	-13307
▁butler	-13308
▁verycd	-13309
▁leaders	-13310
▁governor	-13311
aj	-13312
匕示	-13313
干阝	-13314
方阝	-13315
米白	-13316
纟甘	-13317
009	-13318
209	-13319
304	-13320
roe	-13321
彐水皿	-13322
ppon	-13323
uman	-13324
▁69%	-13325
▁boe	-13326
▁cus	-13327
▁gag	-13328
▁nun	-13329
▁ong	-13330
𠃋丿人頁	-13331
brain	-13332
idual	-13333
▁1245	-13334
▁1306	-13335
▁1317	-13336
▁1343	-13337
▁fail	-13338
▁febr	-13339
▁mash	-13340
▁simp	-13341
▁void	-13342
▁bibli	-13343
▁grass	-13344
▁create	-13345
▁israel	-13346
▁cartoon	-13347
▁horizon	-13348
▁indiana	-13349
▁spirits	-13350
▁verilog	-13351
▁weather	-13352
▁workshop	-13353
旡灬	-13354
143	-13355
167	-13356
abi	-13357
say	-13358
xxx	-13359
▁ew	-13360
▁qi	-13361
丷夫豕	-13362
匕示頁	-13363
𠂆一㔾	-13364
ault	-13365
mura	-13366
▁099	-13367
▁bmi	-13368
▁cio	-13369
▁deg	-13370
▁iia	-13371
▁sau	-13372
▁umb	-13373
angle	-13374
▁1022	-13375
▁chia	-13376
▁cres	-13377
▁dens	-13378
▁diva	-13379
▁funk	-13380
▁gprs	-13381
▁opus	-13382
opedia	-13383
▁algor	-13384
▁cause	-13385
▁false	-13386
▁noble	-13387
cations	-13388
▁impact	-13389
▁rabbit	-13390
▁admiral	-13391
▁allison	-13392
▁stephan	-13393
▁associates	-13394
▁scientific	-13395
勹匕	-13396
日电	-13397
艹欠	-13398
akh	-13399
def	-13400
eli	-13401
▁zk	-13402
ally	-13403
ener	-13404
lies	-13405
▁auf	-13406
▁rez	-13407
▁tpp	-13408
arium	-13409
ifica	-13410
illus	-13411
▁4100	-13412
▁aaaa	-13413
▁caps	-13414
▁fame	-13415
▁gare	-13416
▁kala	-13417
▁zoom	-13418
▁bryan	-13419
▁rebel	-13420
▁seine	-13421
▁werner	-13422
▁bioware	-13423
▁gateway	-13424
▁lisieux	-13425
▁masters	-13426
▁perform	-13427
▁rolling	-13428
▁treasure	-13429
▁competition	-13430
rc	-13431
⿷⿺	-13432
184	-13433
lov	-13434
top	-13435
vas	-13436
ager	-13437
eads	-13438
rium	-13439
▁049	-13440
▁dvi	-13441
▁sae	-13442
尸示寸火	-13443
▁1105	-13444
▁1178	-13445
▁1304	-13446
▁anat	-13447
▁bian	-13448
▁casa	-13449
▁driv	-13450
▁foss	-13451
▁kota	-13452
▁ntsb	-13453
▁pica	-13454
▁wait	-13455
▁honda	-13456
▁marty	-13457
▁mills	-13458
▁marvel	-13459
▁reader	-13460
▁andreas	-13461
▁physics	-13462
▁picture	-13463
▁investig	-13464
pf	-13465
145	-13466
179	-13467
map	-13468
ucl	-13469
oman	-13470
▁023	-13471
▁074	-13472
▁097	-13473
▁nez	-13474
▁pcc	-13475
▁tia	-13476
known	-13477
vania	-13478
▁1298	-13479
▁1383	-13480
▁alta	-13481
▁aqua	-13482
▁golf	-13483
▁milk	-13484
▁pico	-13485
▁17000	-13486
▁bonus	-13487
▁casey	-13488
▁clean	-13489
▁heter	-13490
▁imper	-13491
▁leung	-13492
▁ordin	-13493
ographic	-13494
standing	-13495
▁bradley	-13496
▁enhance	-13497
▁mercury	-13498
▁december	-13499
▁illinois	-13500
▁railroad	-13501
▁response	-13502
▁insurance	-13503
▁philosoph	-13504
▁solutions	-13505
▁qualifying	-13506
lc	-13507
八刀手	-13508
alie	-13509
ocer	-13510
taur	-13511
▁071	-13512
▁089	-13513
▁eti	-13514
▁typ	-13515
▁voy	-13516
▁wis	-13517
凵丨月木	-13518
▁cort	-13519
▁macd	-13520
▁madr	-13521
▁ment	-13522
▁pula	-13523
▁vevo	-13524
▁among	-13525
▁chair	-13526
▁robot	-13527
▁tales	-13528
▁cancer	-13529
▁demand	-13530
▁monica	-13531
▁peters	-13532
▁realme	-13533
▁string	-13534
▁verdun	-13535
▁saunier	-13536
▁vladimir	-13537
sw	-13538
口甲	-13539
265	-13540
iku	-13541
shi	-13542
tak	-13543
uted	-13544
▁034	-13545
▁055	-13546
▁59%	-13547
▁dax	-13548
▁dul	-13549
▁igg	-13550
▁sek	-13551
人一口刂	-13552
shock	-13553
tista	-13554
▁1338	-13555
▁dana	-13556
▁frag	-13557
▁gill	-13558
▁thorn	-13559
▁clarke	-13560
▁fields	-13561
▁bennett	-13562
▁thomson	-13563
▁democracy	-13564
tf	-13565
忄中	-13566
174	-13567
218	-13568
357	-13569
hes	-13570
anna	-13571
▁mei	-13572
▁sms	-13573
▁spe	-13574
▁sto	-13575
▁tut	-13576
itzer	-13577
▁1164	-13578
▁2028	-13579
▁2150	-13580
▁bert	-13581
▁chow	-13582
▁jojo	-13583
▁nina	-13584
▁pter	-13585
▁simi	-13586
▁subs	-13587
ceptor	-13588
▁flick	-13589
▁inner	-13590
▁nitro	-13591
▁units	-13592
▁getchu	-13593
▁norton	-13594
▁olivia	-13595
▁desktop	-13596
▁dynamics	-13597
▁scotland	-13598
▁butterfly	-13599
金且	-13600
730	-13601
bak	-13602
ept	-13603
mud	-13604
▁xr	-13605
aris	-13606
este	-13607
oder	-13608
odus	-13609
quet	-13610
sted	-13611
▁dhl	-13612
▁hos	-13613
▁jvc	-13614
▁msc	-13615
▁pah	-13616
▁zur	-13617
uffle	-13618
▁1043	-13619
▁1354	-13620
▁lara	-13621
▁mant	-13622
▁mons	-13623
▁pola	-13624
▁phant	-13625
▁rules	-13626
▁snapd	-13627
▁langon	-13628
▁schema	-13629
▁holland	-13630
▁optical	-13631
▁package	-13632
▁academic	-13633
▁equation	-13634
▁released	-13635
▁democratic	-13636
225	-13637
460	-13638
875	-13639
▁jg	-13640
▁vg	-13641
rain	-13642
tial	-13643
waii	-13644
▁047	-13645
▁dri	-13646
▁luk	-13647
▁ont	-13648
▁wim	-13649
▁zun	-13650
艹罒冖目	-13651
asaki	-13652
illac	-13653
rahim	-13654
▁1007	-13655
▁2758	-13656
▁door	-13657
▁pool	-13658
▁linda	-13659
▁lines	-13660
▁loren	-13661
▁panas	-13662
embourg	-13663
▁jaguar	-13664
▁kather	-13665
▁maggie	-13666
▁myself	-13667
▁antoine	-13668
▁laurent	-13669
彐𧰨	-13670
351	-13671
402	-13672
480	-13673
ako	-13674
eem	-13675
▁yy	-13676
enna	-13677
gres	-13678
idad	-13679
isha	-13680
quar	-13681
rail	-13682
uced	-13683
▁032	-13684
▁062	-13685
▁71%	-13686
▁76%	-13687
▁gee	-13688
▁ket	-13689
▁mtu	-13690
▁svd	-13691
▁urs	-13692
ellar	-13693
▁1036	-13694
▁1244	-13695
▁2033	-13696
▁6100	-13697
▁ciel	-13698
▁voip	-13699
▁bleach	-13700
▁canyon	-13701
▁edmund	-13702
▁kaiser	-13703
▁mosaic	-13704
▁pepper	-13705
▁phosph	-13706
▁weekly	-13707
▁cluster	-13708
▁chemistry	-13709
▁豸	-13710
犭甲	-13711
232	-13712
aps	-13713
iam	-13714
phe	-13715
teo	-13716
abet	-13717
hall	-13718
phin	-13719
▁036	-13720
▁alm	-13721
▁ida	-13722
▁kre	-13723
▁kul	-13724
souri	-13725
▁1305	-13726
▁auch	-13727
▁came	-13728
▁clou	-13729
▁dale	-13730
▁eden	-13731
▁mead	-13732
▁lonely	-13733
▁sister	-13734
▁yamaha	-13735
▁alberto	-13736
▁october	-13737
▁schmidt	-13738
▁wallace	-13739
▁heritage	-13740
▁integrated	-13741
囗コ	-13742
176	-13743
280	-13744
dam	-13745
kat	-13746
loe	-13747
tir	-13748
▁bv	-13749
▁vk	-13750
▁042	-13751
▁095	-13752
▁cim	-13753
▁cms	-13754
▁hst	-13755
▁ley	-13756
▁lng	-13757
▁lub	-13758
▁yas	-13759
𠂊田一方	-13760
metal	-13761
radar	-13762
▁9500	-13763
▁aber	-13764
▁acqu	-13765
▁cart	-13766
▁gddr	-13767
▁purp	-13768
omorph	-13769
▁abbey	-13770
▁lands	-13771
▁separ	-13772
▁grammar	-13773
▁passion	-13774
▁restaur	-13775
▁carolina	-13776
▁truetype	-13777
▁wonderful	-13778
▁snapdragon	-13779
js	-13780
臼人	-13781
金巴	-13782
158	-13783
906	-13784
▁gq	-13785
宀八果	-13786
onso	-13787
▁096	-13788
▁gtx	-13789
▁lup	-13790
▁sai	-13791
▁tic	-13792
cence	-13793
▁1026	-13794
▁1321	-13795
▁1334	-13796
▁apol	-13797
▁brew	-13798
▁gior	-13799
▁lamp	-13800
▁luck	-13801
▁navy	-13802
▁soap	-13803
▁fritz	-13804
▁glise	-13805
▁heath	-13806
▁indiv	-13807
▁manuf	-13808
▁bailey	-13809
▁palmer	-13810
▁formosa	-13811
▁holding	-13812
▁leopard	-13813
▁katherine	-13814
口刀	-13815
王干	-13816
238	-13817
emo	-13818
lew	-13819
tid	-13820
ugu	-13821
▁eo	-13822
▁ym	-13823
土龰丩	-13824
2010	-13825
arte	-13826
mans	-13827
▁bry	-13828
▁coe	-13829
▁csp	-13830
▁gou	-13831
▁tie	-13832
ijing	-13833
▁6700	-13834
▁anci	-13835
▁edit	-13836
▁pard	-13837
▁pend	-13838
▁agric	-13839
▁buddh	-13840
▁namco	-13841
▁petro	-13842
▁atomic	-13843
▁davies	-13844
▁kernel	-13845
▁terror	-13846
▁ibrahim	-13847
▁monitor	-13848
▁theorem	-13849
▁algorith	-13850
▁elements	-13851
▁institut	-13852
▁extension	-13853
▁panasonic	-13854
▁soundtrack	-13855
ao	-13856
cn	-13857
166	-13858
177	-13859
333	-13860
anz	-13861
ocl	-13862
▁wd	-13863
豕豕火	-13864
arat	-13865
opro	-13866
▁064	-13867
▁bts	-13868
▁coo	-13869
▁dac	-13870
▁dow	-13871
▁epa	-13872
▁hla	-13873
▁kes	-13874
▁tis	-13875
itain	-13876
recht	-13877
▁2048	-13878
▁bard	-13879
▁ndez	-13880
▁amuse	-13881
▁bukit	-13882
▁crypt	-13883
▁legal	-13884
▁wales	-13885
▁gustav	-13886
▁roland	-13887
▁rounds	-13888
▁twitch	-13889
▁illustr	-13890
▁acoustic	-13891
▁birthday	-13892
▁magnetic	-13893
▁missouri	-13894
▁including	-13895
▁nationale	-13896
▁associated	-13897
508	-13898
603	-13899
bia	-13900
hat	-13901
tec	-13902
▁hv	-13903
inos	-13904
mill	-13905
uala	-13906
ulum	-13907
▁038	-13908
▁agn	-13909
▁mbk	-13910
attan	-13911
iland	-13912
owitz	-13913
radio	-13914
▁1249	-13915
▁2049	-13916
▁degr	-13917
▁fold	-13918
▁imac	-13919
▁ntsc	-13920
▁acfun	-13921
▁gradu	-13922
▁wowow	-13923
▁aqours	-13924
▁patric	-13925
▁wizard	-13926
▁wireless	-13927
▁wolfgang	-13928
亻及	-13929
忄里	-13930
186	-13931
esi	-13932
iad	-13933
kas	-13934
0001	-13935
etry	-13936
▁078	-13937
▁079	-13938
▁apr	-13939
▁nis	-13940
▁osp	-13941
▁tox	-13942
丿𠃌攵犬	-13943
oplan	-13944
▁casp	-13945
▁gimp	-13946
▁uniq	-13947
schaft	-13948
▁fever	-13949
▁jewel	-13950
▁joyce	-13951
▁noise	-13952
▁bandai	-13953
▁chapel	-13954
▁silent	-13955
▁sungai	-13956
▁carrier	-13957
▁shadows	-13958
▁kentucky	-13959
▁manufact	-13960
▁opentype	-13961
▁parallel	-13962
▁winchester	-13963
▁observatory	-13964
▁temperature	-13965
178	-13966
196	-13967
458	-13968
gpp	-13969
▁bx	-13970
山而頁	-13971
1200	-13972
ared	-13973
main	-13974
tism	-13975
ushi	-13976
▁033	-13977
▁fft	-13978
▁kud	-13979
▁wad	-13980
人一口廾	-13981
ators	-13982
drive	-13983
▁1082	-13984
▁8800	-13985
▁avai	-13986
▁bagn	-13987
▁haus	-13988
▁mare	-13989
▁sind	-13990
▁trap	-13991
▁wien	-13992
strong	-13993
▁carry	-13994
▁diana	-13995
▁favor	-13996
▁revol	-13997
▁witch	-13998
▁barbus	-13999
▁client	-14000
▁selina	-14001
▁abraham	-14002
▁memories	-14003
gf	-14004
mh	-14005
tn	-14006
yi	-14007
广厶	-14008
金彡	-14009
254	-14010
onn	-14011
tai	-14012
weg	-14013
▁eq	-14014
phus	-14015
▁057	-14016
▁088	-14017
▁jia	-14018
▁kod	-14019
▁lop	-14020
▁pou	-14021
stock	-14022
▁2250	-14023
▁jing	-14024
▁mast	-14025
▁role	-14026
▁tess	-14027
▁tube	-14028
▁vide	-14029
▁besan	-14030
▁bless	-14031
▁jenny	-14032
▁kitch	-14033
▁manif	-14034
▁soldi	-14035
▁tools	-14036
▁italia	-14037
▁murphy	-14038
▁toyota	-14039
▁troyes	-14040
▁brandon	-14041
▁mohammad	-14042
▁resources	-14043
▁wordpress	-14044
259	-14045
has	-14046
aldi	-14047
gart	-14048
ondo	-14049
oter	-14050
▁cod	-14051
▁alma	-14052
▁mith	-14053
▁send	-14054
▁sets	-14055
▁colla	-14056
▁jamie	-14057
▁jorge	-14058
▁teddy	-14059
▁100000	-14060
▁cnblue	-14061
▁delphi	-14062
▁reform	-14063
▁webkit	-14064
▁phantom	-14065
▁publica	-14066
▁reading	-14067
▁chandler	-14068
▁regiment	-14069
▁marketing	-14070
木日	-14071
礻禺	-14072
008	-14073
456	-14074
▁ux	-14075
ffff	-14076
tivo	-14077
▁027	-14078
▁gai	-14079
▁gha	-14080
▁naz	-14081
▁nxt	-14082
▁orn	-14083
▁roo	-14084
▁tud	-14085
ersch	-14086
▁1091	-14087
▁chol	-14088
▁guil	-14089
▁mina	-14090
▁nash	-14091
▁sinc	-14092
▁ellen	-14093
▁pilot	-14094
▁redmi	-14095
▁tears	-14096
▁toshi	-14097
▁gainax	-14098
▁herman	-14099
▁marian	-14100
▁artists	-14101
▁leopold	-14102
▁lieuten	-14103
▁schwarz	-14104
▁shuffle	-14105
▁stevens	-14106
▁storage	-14107
▁woollim	-14108
▁agricult	-14109
▁consider	-14110
▁michigan	-14111
▁philosophy	-14112
▁intelligent	-14113
uw	-14114
154	-14115
171	-14116
182	-14117
ffy	-14118
mul	-14119
wei	-14120
enau	-14121
enko	-14122
free	-14123
most	-14124
nine	-14125
oron	-14126
ssen	-14127
▁pch	-14128
▁tft	-14129
media	-14130
▁baba	-14131
▁herz	-14132
▁lala	-14133
▁lynn	-14134
minton	-14135
▁cache	-14136
▁knock	-14137
▁lives	-14138
▁montr	-14139
▁trick	-14140
issance	-14141
▁charge	-14142
▁heroes	-14143
▁kepler	-14144
▁length	-14145
▁effects	-14146
▁playing	-14147
▁shirley	-14148
▁distance	-14149
▁position	-14150
▁dualshock	-14151
lb	-14152
fen	-14153
fil	-14154
fit	-14155
loo	-14156
oft	-14157
run	-14158
▁vz	-14159
人彡食	-14160
arum	-14161
cann	-14162
esty	-14163
ught	-14164
▁026	-14165
▁agb	-14166
▁dah	-14167
▁gos	-14168
▁ler	-14169
▁psl	-14170
▁zea	-14171
chaft	-14172
emont	-14173
▁deal	-14174
▁iast	-14175
▁maps	-14176
▁mits	-14177
uments	-14178
▁annie	-14179
▁jules	-14180
▁nigel	-14181
▁crisis	-14182
▁establ	-14183
▁nicola	-14184
▁vernon	-14185
▁charter	-14186
▁evening	-14187
▁gamespy	-14188
▁reserve	-14189
▁worldwide	-14190
▁environmental	-14191
口卜	-14192
山卯	-14193
251	-14194
▁zw	-14195
丶艮阝	-14196
厶大三	-14197
1917	-14198
borg	-14199
cott	-14200
ocks	-14201
ongo	-14202
uter	-14203
▁045	-14204
▁bsp	-14205
▁crt	-14206
▁raf	-14207
ticus	-14208
▁blan	-14209
▁capp	-14210
▁diet	-14211
▁drag	-14212
▁reyn	-14213
▁allan	-14214
▁issue	-14215
▁links	-14216
▁linked	-14217
▁plasma	-14218
▁queens	-14219
▁twenty	-14220
▁usenet	-14221
▁airways	-14222
▁numbers	-14223
▁alexandra	-14224
fd	-14225
855	-14226
dev	-14227
pet	-14228
uca	-14229
upp	-14230
zin	-14231
▁hj	-14232
boys	-14233
orre	-14234
rett	-14235
▁069	-14236
▁084	-14237
▁091	-14238
▁dud	-14239
▁egy	-14240
▁fos	-14241
▁rai	-14242
▁vac	-14243
▁xtr	-14244
口口隹頁	-14245
maker	-14246
▁fork	-14247
▁koch	-14248
▁peer	-14249
▁pern	-14250
▁vari	-14251
bility	-14252
willer	-14253
▁60000	-14254
▁aless	-14255
▁amber	-14256
▁bring	-14257
▁elvis	-14258
▁fairy	-14259
▁greek	-14260
▁scene	-14261
▁spike	-14262
▁whole	-14263
▁accept	-14264
▁decade	-14265
▁prison	-14266
▁contain	-14267
▁convers	-14268
▁edwards	-14269
▁montana	-14270
▁relative	-14271
▁happiness	-14272
万力	-14273
井丶	-14274
扌束	-14275
灬尺	-14276
礻兆	-14277
艹及	-14278
223	-14279
boo	-14280
wak	-14281
baby	-14282
iong	-14283
▁agp	-14284
▁apc	-14285
▁jsp	-14286
▁kow	-14287
▁lec	-14288
▁une	-14289
▁vix	-14290
▁vos	-14291
▁zar	-14292
▁chop	-14293
▁gand	-14294
▁goto	-14295
▁kyle	-14296
▁niel	-14297
▁sten	-14298
▁chlor	-14299
▁draft	-14300
▁morph	-14301
▁seoul	-14302
▁until	-14303
▁appear	-14304
▁examin	-14305
▁indica	-14306
▁scream	-14307
▁baptist	-14308
▁fantasia	-14309
▁lieutenant	-14310
土广	-14311
女比	-14312
纟予	-14313
罒衣	-14314
144	-14315
403	-14316
802	-14317
ape	-14318
cmg	-14319
ieh	-14320
▁nz	-14321
戊𠃌阝	-14322
ithe	-14323
lean	-14324
wara	-14325
▁058	-14326
▁083	-14327
▁dit	-14328
▁hbl	-14329
▁hof	-14330
▁scb	-14331
▁tms	-14332
inson	-14333
keley	-14334
▁dhcp	-14335
▁glas	-14336
▁laws	-14337
▁loud	-14338
▁mara	-14339
▁tiny	-14340
▁ware	-14341
▁yuen	-14342
▁alleg	-14343
▁equip	-14344
▁jelly	-14345
▁barnes	-14346
▁compos	-14347
▁critic	-14348
▁magnus	-14349
▁applied	-14350
▁identif	-14351
▁pierrot	-14352
▁several	-14353
▁february	-14354
▁interest	-14355
▁multiple	-14356
▁shishamo	-14357
▁specific	-14358
▁mathematica	-14359
▁contemporary	-14360
▁introduction	-14361
八方	-14362
deo	-14363
haw	-14364
jee	-14365
kie	-14366
▁vn	-14367
▁wg	-14368
amer	-14369
baum	-14370
endi	-14371
▁059	-14372
▁081	-14373
▁bwv	-14374
▁gut	-14375
▁lug	-14376
▁pep	-14377
▁rts	-14378
▁ska	-14379
insky	-14380
quest	-14381
▁coal	-14382
▁larg	-14383
▁myth	-14384
▁scor	-14385
▁snap	-14386
▁spex	-14387
▁stur	-14388
▁damon	-14389
▁exhib	-14390
▁grove	-14391
▁tibet	-14392
▁desire	-14393
▁falcom	-14394
▁lancer	-14395
▁tennis	-14396
▁capitol	-14397
▁feature	-14398
▁whitney	-14399
▁madhouse	-14400
▁postgres	-14401
▁armstrong	-14402
▁badminton	-14403
▁carpenter	-14404
▁processing	-14405
qa	-14406
tu	-14407
一𧰨	-14408
气㐅	-14409
虫乍	-14410
言干	-14411
172	-14412
ail	-14413
mac	-14414
uls	-14415
㡀攵目	-14416
ader	-14417
hail	-14418
rill	-14419
teen	-14420
walk	-14421
▁098	-14422
▁ett	-14423
▁hig	-14424
▁oth	-14425
▁tos	-14426
▁wak	-14427
▁aacs	-14428
▁abba	-14429
▁cruz	-14430
▁diss	-14431
▁done	-14432
▁kore	-14433
▁mund	-14434
▁rfid	-14435
▁yard	-14436
▁yoho	-14437
hausen	-14438
player	-14439
▁algol	-14440
▁apink	-14441
▁caval	-14442
▁dirty	-14443
▁speak	-14444
ylvania	-14445
▁matlab	-14446
▁britain	-14447
▁similar	-14448
▁walking	-14449
▁commerce	-14450
▁spectrum	-14451
▁directory	-14452
141	-14453
355	-14454
406	-14455
407	-14456
502	-14457
905	-14458
agh	-14459
eae	-14460
rog	-14461
tle	-14462
田田糸	-14463
艹冖土	-14464
atum	-14465
bold	-14466
camp	-14467
emen	-14468
ieri	-14469
lade	-14470
mune	-14471
ogon	-14472
ulty	-14473
▁adp	-14474
▁biz	-14475
▁chn	-14476
▁gob	-14477
▁haz	-14478
▁kav	-14479
▁koi	-14480
▁tad	-14481
▁dice	-14482
▁guin	-14483
▁item	-14484
▁koda	-14485
▁levi	-14486
▁tier	-14487
▁vamp	-14488
▁whee	-14489
kinson	-14490
▁blanc	-14491
▁brack	-14492
▁chrys	-14493
▁edgar	-14494
▁porta	-14495
▁holmes	-14496
▁keroro	-14497
▁magnum	-14498
▁burning	-14499
▁defence	-14500
▁maxwell	-14501
▁chaumont	-14502
▁richardson	-14503
356	-14504
asv	-14505
fol	-14506
lik	-14507
pus	-14508
rup	-14509
2500	-14510
ican	-14511
ouch	-14512
pool	-14513
▁ctr	-14514
▁laf	-14515
▁noc	-14516
asser	-14517
ogram	-14518
ornis	-14519
▁axis	-14520
▁boun	-14521
▁cala	-14522
▁lenn	-14523
▁mete	-14524
▁nadh	-14525
▁porn	-14526
▁tall	-14527
▁embed	-14528
▁modif	-14529
▁plate	-14530
▁traff	-14531
ression	-14532
▁events	-14533
▁rudolf	-14534
▁balance	-14535
▁request	-14536
▁romance	-14537
▁springs	-14538
▁wonders	-14539
女為	-14540
田攵	-14541
joy	-14542
pel	-14543
ulf	-14544
十廾兀	-14545
白匕旡	-14546
girl	-14547
mine	-14548
name	-14549
omed	-14550
vely	-14551
▁063	-14552
▁atf	-14553
▁dao	-14554
▁hul	-14555
▁jct	-14556
▁kry	-14557
▁mhc	-14558
▁uml	-14559
tress	-14560
video	-14561
▁1058	-14562
▁bras	-14563
▁byte	-14564
▁crew	-14565
▁glay	-14566
▁kaka	-14567
ellite	-14568
ousand	-14569
▁adolf	-14570
▁apost	-14571
▁argon	-14572
▁costa	-14573
▁derek	-14574
▁oasis	-14575
▁prima	-14576
▁tempo	-14577
▁celebr	-14578
▁config	-14579
▁credit	-14580
▁beijing	-14581
▁initial	-14582
▁millenn	-14583
▁promise	-14584
▁everyday	-14585
▁thousand	-14586
▁classical	-14587
▁basketball	-14588
亠臼	-14589
月申	-14590
石朱	-14591
钅田	-14592
309	-14593
465	-14594
erc	-14595
nap	-14596
亠臼𧘇	-14597
尹口頁	-14598
amax	-14599
otes	-14600
▁aix	-14601
▁baa	-14602
▁gea	-14603
▁hes	-14604
▁rox	-14605
▁sah	-14606
▁tao	-14607
▁zel	-14608
canth	-14609
▁aeon	-14610
▁apps	-14611
▁dion	-14612
▁dior	-14613
▁fies	-14614
▁siri	-14615
▁wick	-14616
▁chong	-14617
▁civic	-14618
▁daisy	-14619
▁formos	-14620
▁gentle	-14621
▁gloria	-14622
lication	-14623
▁cameron	-14624
▁chicken	-14625
▁edonkey	-14626
▁fortune	-14627
▁centroliner	-14628
金我	-14629
隹隹	-14630
352	-14631
fff	-14632
liz	-14633
yar	-14634
▁oa	-14635
agan	-14636
erno	-14637
icia	-14638
olds	-14639
stro	-14640
▁leh	-14641
▁lhc	-14642
▁pps	-14643
▁ses	-14644
▁tik	-14645
ighty	-14646
ither	-14647
▁gulf	-14648
▁held	-14649
▁ital	-14650
▁pati	-14651
▁sana	-14652
▁vega	-14653
▁conse	-14654
▁dutch	-14655
▁glenn	-14656
▁quint	-14657
▁swiss	-14658
▁remote	-14659
▁carroll	-14660
▁members	-14661
▁wolfram	-14662
▁automatic	-14663
wy	-14664
日𠃓	-14665
194	-14666
kor	-14667
vie	-14668
冖几心	-14669
夫丷阝	-14670
羊乚厶	-14671
𠃜目阝	-14672
atsu	-14673
fare	-14674
pora	-14675
▁041	-14676
▁aro	-14677
▁ecm	-14678
▁fah	-14679
▁hui	-14680
▁hut	-14681
▁mum	-14682
▁nie	-14683
endar	-14684
▁1062	-14685
▁1084	-14686
▁2060	-14687
▁anno	-14688
▁hess	-14689
▁kerr	-14690
▁kwok	-14691
▁lpga	-14692
▁meas	-14693
▁thai	-14694
ingham	-14695
▁angle	-14696
▁blind	-14697
▁craft	-14698
▁overs	-14699
▁pages	-14700
▁rider	-14701
▁murder	-14702
▁secure	-14703
▁disorder	-14704
▁ministry	-14705
▁elementary	-14706
▁expression	-14707
198	-14708
tax	-14709
立十衣	-14710
lake	-14711
lare	-14712
tale	-14713
word	-14714
▁077	-14715
▁082	-14716
▁aik	-14717
▁dex	-14718
▁diz	-14719
▁eia	-14720
▁fay	-14721
▁kei	-14722
tranz	-14723
▁eeee	-14724
▁lith	-14725
▁nguy	-14726
▁noah	-14727
▁soon	-14728
▁cours	-14729
▁floyd	-14730
▁amanda	-14731
▁defini	-14732
▁pietro	-14733
▁powell	-14734
▁savage	-14735
▁adtranz	-14736
▁experim	-14737
▁therapy	-14738
▁verizon	-14739
▁geoffrey	-14740
▁mohammed	-14741
▁montbard	-14742
▁patricia	-14743
▁synthesis	-14744
▁gamesradar	-14745
▁mathematics	-14746
⿳⿶	-14747
210	-14748
239	-14749
358	-14750
gom	-14751
hev	-14752
hor	-14753
tel	-14754
udo	-14755
▁jy	-14756
▁zx	-14757
ilon	-14758
rete	-14759
▁dcc	-14760
▁ltp	-14761
▁rng	-14762
▁txt	-14763
▁wpa	-14764
▁zan	-14765
丿𠃌攵金	-14766
▁2160	-14767
▁bala	-14768
▁barn	-14769
▁capt	-14770
▁hann	-14771
▁iowa	-14772
▁mora	-14773
▁smar	-14774
▁coord	-14775
▁derby	-14776
▁hutch	-14777
▁often	-14778
▁weiss	-14779
▁escape	-14780
▁nippon	-14781
▁parade	-14782
▁resort	-14783
▁zetima	-14784
▁fellows	-14785
▁shannon	-14786
▁spexial	-14787
▁tiffany	-14788
▁elisabeth	-14789
▁enterbrain	-14790
▁initiative	-14791
▁institution	-14792
153	-14793
173	-14794
409	-14795
chs	-14796
upa	-14797
chel	-14798
mons	-14799
ucks	-14800
▁beg	-14801
▁ina	-14802
▁ola	-14803
▁ops	-14804
▁rae	-14805
▁xsl	-14806
group	-14807
▁2046	-14808
▁7800	-14809
▁bold	-14810
▁doll	-14811
▁hair	-14812
▁jumo	-14813
▁metz	-14814
▁oecd	-14815
▁puma	-14816
▁rear	-14817
▁suit	-14818
▁wear	-14819
▁eeeeee	-14820
▁groove	-14821
▁height	-14822
▁marcel	-14823
▁status	-14824
▁newtype	-14825
▁berkeley	-14826
▁question	-14827
▁mediawiki	-14828
wu	-14829
亻求	-14830
钅彡	-14831
191	-14832
359	-14833
416	-14834
cor	-14835
anta	-14836
cont	-14837
iste	-14838
rico	-14839
sapp	-14840
tide	-14841
tila	-14842
▁031	-14843
▁cvs	-14844
▁dil	-14845
▁dms	-14846
▁roh	-14847
▁rpc	-14848
▁snp	-14849
▁bits	-14850
▁hsbc	-14851
▁kane	-14852
▁labs	-14853
▁omar	-14854
▁wwdc	-14855
▁zion	-14856
▁22000	-14857
▁along	-14858
▁globe	-14859
▁grade	-14860
▁meego	-14861
▁notre	-14862
▁ouest	-14863
▁pablo	-14864
▁stere	-14865
▁taste	-14866
▁tetra	-14867
▁fergus	-14868
▁geomet	-14869
▁jensen	-14870
▁openss	-14871
▁ancient	-14872
▁citizen	-14873
▁houston	-14874
▁indones	-14875
▁microsd	-14876
ellschaft	-14877
▁pleasure	-14878
▁scottish	-14879
▁cherbourg	-14880
▁electronics	-14881
nn	-14882
pb	-14883
183	-14884
bec	-14885
oun	-14886
uge	-14887
atin	-14888
rics	-14889
shaw	-14890
▁ack	-14891
▁ams	-14892
▁atx	-14893
▁crc	-14894
▁kak	-14895
▁nev	-14896
▁omn	-14897
▁tiz	-14898
onder	-14899
▁aclu	-14900
▁chim	-14901
▁duch	-14902
▁guid	-14903
▁leed	-14904
▁nega	-14905
▁nist	-14906
▁ogle	-14907
▁polo	-14908
▁risk	-14909
▁slow	-14910
▁vine	-14911
▁exist	-14912
▁sampa	-14913
▁albums	-14914
▁ashley	-14915
▁binary	-14916
▁darwin	-14917
▁expans	-14918
▁kinect	-14919
▁konami	-14920
▁nights	-14921
▁session	-14922
▁fighting	-14923
▁strategic	-14924
iu	-14925
氵内	-14926
米更	-14927
金夫	-14928
门一	-14929
276	-14930
fts	-14931
士冖车	-14932
eler	-14933
opia	-14934
real	-14935
▁ani	-14936
▁cpr	-14937
▁ees	-14938
▁eta	-14939
▁gia	-14940
▁icu	-14941
▁nia	-14942
▁siv	-14943
▁tse	-14944
▁wrx	-14945
teron	-14946
▁8086	-14947
▁gale	-14948
▁manh	-14949
▁mime	-14950
▁poor	-14951
▁rafa	-14952
▁spas	-14953
▁sync	-14954
▁liver	-14955
▁reach	-14956
▁roche	-14957
▁slash	-14958
▁types	-14959
▁wendy	-14960
▁chanel	-14961
▁leader	-14962
▁margin	-14963
▁output	-14964
▁presid	-14965
▁download	-14966
▁township	-14967
▁principle	-14968
▁individual	-14969
▁encyclopedia	-14970
土垂	-14971
𠂉斤	-14972
505	-14973
665	-14974
bir	-14975
eye	-14976
inx	-14977
oki	-14978
▁fv	-14979
龶夂夫	-14980
ahan	-14981
anet	-14982
eets	-14983
itus	-14984
lord	-14985
ylon	-14986
▁arb	-14987
▁bid	-14988
▁ibf	-14989
▁lus	-14990
▁sop	-14991
▁ssg	-14992
ensor	-14993
ibada	-14994
▁4900	-14995
▁dors	-14996
▁herm	-14997
▁tran	-14998
▁ying	-14999
▁choco	-15000
▁ellis	-15001
▁penns	-15002
▁schne	-15003
▁teles	-15004
▁torre	-15005
▁wheel	-15006
▁write	-15007
lington	-15008
▁bottom	-15009
▁dollar	-15010
▁deliver	-15011
▁receptor	-15012
▁resource	-15013
▁equipment	-15014
▁sourceforge	-15015
▁thunderbird	-15016
163	-15017
271	-15018
375	-15019
455	-15020
457	-15021
660	-15022
冖車阝	-15023
目八心	-15024
cker	-15025
gren	-15026
pers	-15027
▁bri	-15028
▁dfa	-15029
▁ivy	-15030
▁lms	-15031
▁nil	-15032
▁seo	-15033
▁tna	-15034
▁tod	-15035
▁ttl	-15036
erver	-15037
inkle	-15038
iston	-15039
itory	-15040
izing	-15041
▁bend	-15042
▁beng	-15043
▁dust	-15044
▁flip	-15045
▁lens	-15046
▁mbps	-15047
▁sina	-15048
▁vend	-15049
icient	-15050
▁bened	-15051
▁boris	-15052
▁carca	-15053
▁gucci	-15054
▁novel	-15055
▁ports	-15056
▁radar	-15057
▁ratio	-15058
▁reven	-15059
▁unter	-15060
▁brooks	-15061
▁flickr	-15062
▁summit	-15063
▁bedford	-15064
▁harbour	-15065
▁lorenzo	-15066
▁whatsapp	-15067
▁champions	-15068
▁christine	-15069
▁lightning	-15070
▁smalltalk	-15071
▁transportation	-15072
氵央	-15073
429	-15074
ams	-15075
chn	-15076
cue	-15077
hav	-15078
▁xz	-15079
匕火頁	-15080
idel	-15081
mitt	-15082
ogne	-15083
▁086	-15084
▁79%	-15085
▁bpm	-15086
▁cah	-15087
▁ego	-15088
▁laz	-15089
▁lut	-15090
▁miz	-15091
▁vig	-15092
ernet	-15093
kirch	-15094
▁7400	-15095
▁8300	-15096
▁fuse	-15097
▁hawk	-15098
▁lept	-15099
▁musa	-15100
▁80000	-15101
▁avran	-15102
▁brass	-15103
▁vegas	-15104
▁aurora	-15105
▁harmon	-15106
▁hidden	-15107
▁parish	-15108
▁thread	-15109
▁wesley	-15110
________	-15111
▁gardens	-15112
▁related	-15113
▁applications	-15114
石斤	-15115
门韦	-15116
295	-15117
atz	-15118
fta	-15119
zil	-15120
▁jl	-15121
▁qc	-15122
二厶刂	-15123
𠁣𠃛言	-15124
lift	-15125
thal	-15126
thor	-15127
▁abi	-15128
▁acs	-15129
▁cip	-15130
▁edm	-15131
▁fog	-15132
▁gew	-15133
▁job	-15134
▁mea	-15135
▁mug	-15136
▁pso	-15137
▁rho	-15138
▁zak	-15139
▁zfc	-15140
annad	-15141
block	-15142
brand	-15143
guard	-15144
leton	-15145
▁1051	-15146
▁alas	-15147
▁mana	-15148
▁nero	-15149
▁sank	-15150
▁seam	-15151
▁vene	-15152
▁went	-15153
▁zach	-15154
▁zico	-15155
▁absol	-15156
▁blair	-15157
▁bunny	-15158
▁mausu	-15159
▁saman	-15160
▁selec	-15161
▁volks	-15162
▁apollo	-15163
▁connor	-15164
▁speech	-15165
▁griffin	-15166
▁regular	-15167
▁zealand	-15168
▁midnight	-15169
▁morrison	-15170
▁tactical	-15171
▁innovation	-15172
▁powerpoint	-15173
▁restaurant	-15174
236	-15175
▁lw	-15176
▁xu	-15177
夂卜日	-15178
anes	-15179
atti	-15180
bine	-15181
comm	-15182
kbps	-15183
otus	-15184
unge	-15185
▁094	-15186
▁aia	-15187
▁asa	-15188
▁ecu	-15189
▁jax	-15190
▁jub	-15191
▁ota	-15192
▁sik	-15193
▁sty	-15194
▁yee	-15195
ulata	-15196
vious	-15197
▁mari	-15198
▁chcoo	-15199
▁irene	-15200
▁jakob	-15201
▁scala	-15202
▁across	-15203
▁kotaku	-15204
▁bigorre	-15205
▁madonna	-15206
▁behavior	-15207
▁positive	-15208
▁jefferson	-15209
▁manchester	-15210
bj	-15211
fu	-15212
木角	-15213
181	-15214
332	-15215
666	-15216
hyd	-15217
nan	-15218
qua	-15219
▁cq	-15220
千口氏	-15221
bern	-15222
iani	-15223
oven	-15224
▁aph	-15225
▁dus	-15226
▁ish	-15227
▁kdl	-15228
▁lys	-15229
▁msm	-15230
▁pvp	-15231
▁sma	-15232
▁vag	-15233
▁wap	-15234
▁zap	-15235
ianus	-15236
idium	-15237
▁flav	-15238
▁mori	-15239
▁phra	-15240
▁zeta	-15241
▁buddy	-15242
▁dress	-15243
▁floor	-15244
▁gates	-15245
▁limit	-15246
▁merry	-15247
▁tribe	-15248
▁answer	-15249
▁marsan	-15250
▁module	-15251
▁purple	-15252
▁rivers	-15253
▁clement	-15254
▁florida	-15255
▁unknown	-15256
▁richmond	-15257
▁avranches	-15258
▁powershot	-15259
▁postgresql	-15260
▁resistance	-15261
氵自	-15262
犭广	-15263
235	-15264
269	-15265
606	-15266
gor	-15267
▁zd	-15268
colm	-15269
pack	-15270
▁ami	-15271
▁dts	-15272
▁evo	-15273
▁nup	-15274
front	-15275
ovsky	-15276
tidae	-15277
umann	-15278
uttle	-15279
▁alth	-15280
▁boat	-15281
▁chad	-15282
▁chao	-15283
▁chas	-15284
▁ding	-15285
▁evol	-15286
▁goss	-15287
▁oled	-15288
▁rage	-15289
▁rico	-15290
▁uefi	-15291
transp	-15292
ughter	-15293
▁allow	-15294
▁gecko	-15295
▁punch	-15296
▁quake	-15297
osuchus	-15298
▁angelo	-15299
▁archae	-15300
▁lovers	-15301
▁mojang	-15302
▁nicole	-15303
▁nogent	-15304
▁pseudo	-15305
cription	-15306
▁gravity	-15307
▁langres	-15308
▁mirande	-15309
▁radical	-15310
▁rosetta	-15311
▁polytech	-15312
辶求	-15313
金卜	-15314
钅衣	-15315
605	-15316
653	-15317
903	-15318
arn	-15319
fax	-15320
yal	-15321
▁mz	-15322
4000	-15323
ccus	-15324
iate	-15325
mith	-15326
omen	-15327
sons	-15328
tige	-15329
▁076	-15330
▁hok	-15331
▁ipc	-15332
▁lal	-15333
▁osm	-15334
▁tlc	-15335
▁zee	-15336
▁zig	-15337
▁7600	-15338
▁emin	-15339
▁kumi	-15340
▁lass	-15341
▁lest	-15342
▁loen	-15343
▁ofdm	-15344
▁smrt	-15345
▁sold	-15346
▁viol	-15347
▁banks	-15348
▁rotem	-15349
▁sabah	-15350
▁sight	-15351
▁annual	-15352
▁defeat	-15353
▁weapon	-15354
▁economy	-15355
▁malcolm	-15356
▁missing	-15357
▁opteron	-15358
▁theodor	-15359
▁darkness	-15360
▁soribada	-15361
▁theodore	-15362
▁babymetal	-15363
▁materials	-15364
▁literature	-15365
▁pennsylvania	-15366
pu	-15367
252	-15368
426	-15369
cro	-15370
enf	-15371
nor	-15372
▁vd	-15373
丷干攵	-15374
白匕卩	-15375
clus	-15376
four	-15377
isto	-15378
lair	-15379
mule	-15380
rine	-15381
▁087	-15382
▁adj	-15383
▁aic	-15384
▁dmc	-15385
▁efi	-15386
▁gne	-15387
▁hee	-15388
▁jug	-15389
▁slo	-15390
▁ssa	-15391
basic	-15392
eeper	-15393
emble	-15394
encia	-15395
ersey	-15396
igade	-15397
▁3001	-15398
▁7300	-15399
▁avro	-15400
▁eval	-15401
▁hole	-15402
▁mell	-15403
▁nate	-15404
▁sage	-15405
▁seth	-15406
▁warp	-15407
kirche	-15408
schild	-15409
schule	-15410
▁45000	-15411
▁crush	-15412
▁neway	-15413
▁recon	-15414
▁uncle	-15415
▁forbes	-15416
▁garnet	-15417
▁libert	-15418
▁monday	-15419
▁singer	-15420
▁clannad	-15421
▁falling	-15422
▁historic	-15423
▁mapframe	-15424
▁satellite	-15425
▁connection	-15426
口乍	-15427
282	-15428
428	-15429
bay	-15430
qui	-15431
tur	-15432
▁jw	-15433
esia	-15434
hart	-15435
olan	-15436
rant	-15437
umin	-15438
▁ags	-15439
▁cly	-15440
▁mgm	-15441
▁nus	-15442
▁pis	-15443
▁rit	-15444
estic	-15445
tiste	-15446
▁abcd	-15447
▁allo	-15448
▁ango	-15449
▁finn	-15450
▁halo	-15451
▁herr	-15452
▁plug	-15453
▁suff	-15454
厶厶一日戈	-15455
tility	-15456
▁advis	-15457
▁arsen	-15458
▁ayumi	-15459
▁moody	-15460
▁natur	-15461
▁shake	-15462
▁strat	-15463
▁europa	-15464
▁meteor	-15465
▁salins	-15466
▁assault	-15467
▁eternal	-15468
▁harmony	-15469
▁harvest	-15470
▁subject	-15471
▁warrior	-15472
▁bernhard	-15473
▁emmanuel	-15474
▁intermed	-15475
▁problems	-15476
▁religion	-15477
▁shopping	-15478
▁dangerous	-15479
jd	-15480
oz	-15481
月彡	-15482
284	-15483
475	-15484
chr	-15485
ecy	-15486
hon	-15487
uxe	-15488
镸彡兀	-15489
angu	-15490
opal	-15491
otto	-15492
pret	-15493
quer	-15494
ylie	-15495
▁kah	-15496
▁kev	-15497
▁qew	-15498
ignan	-15499
otten	-15500
▁2036	-15501
▁chau	-15502
▁doom	-15503
▁hund	-15504
▁join	-15505
▁kend	-15506
▁miui	-15507
▁pair	-15508
▁shim	-15509
▁sung	-15510
ometer	-15511
▁aleks	-15512
▁blitz	-15513
▁comet	-15514
▁debut	-15515
▁romeo	-15516
▁vreux	-15517
▁woods	-15518
mission	-15519
▁bonnie	-15520
▁figure	-15521
▁irving	-15522
▁kansas	-15523
▁magdal	-15524
▁takara	-15525
▁viktor	-15526
▁wagner	-15527
▁maximum	-15528
▁seasons	-15529
▁crawford	-15530
▁embedded	-15531
▁monument	-15532
▁motorola	-15533
▁pressure	-15534
▁continental	-15535
kl	-15536
▁囗	-15537
土巳	-15538
mol	-15539
tml	-15540
▁fy	-15541
1897	-15542
2001	-15543
fect	-15544
ilis	-15545
▁bej	-15546
▁dss	-15547
▁ere	-15548
▁erp	-15549
▁kwk	-15550
▁meh	-15551
▁usp	-15552
▁zer	-15553
▁zis	-15554
▁9800	-15555
▁bint	-15556
▁blow	-15557
▁dans	-15558
▁dias	-15559
▁drew	-15560
▁rift	-15561
▁robo	-15562
▁tone	-15563
▁turt	-15564
▁typh	-15565
▁vivo	-15566
▁wire	-15567
▁entry	-15568
▁neigh	-15569
▁spice	-15570
▁curtis	-15571
▁macrom	-15572
▁native	-15573
▁quadro	-15574
▁sidney	-15575
▁atlanta	-15576
▁concern	-15577
▁dorothy	-15578
▁emperor	-15579
▁imaging	-15580
▁traffic	-15581
▁junction	-15582
▁alexandre	-15583
▁important	-15584
▁standards	-15585
廿尺	-15586
弋甘	-15587
242	-15588
353	-15589
775	-15590
883	-15591
enk	-15592
hua	-15593
yak	-15594
▁hq	-15595
▁kz	-15596
3100	-15597
itri	-15598
wski	-15599
▁aek	-15600
▁cmg	-15601
▁cts	-15602
▁ddt	-15603
▁ils	-15604
▁joo	-15605
▁lcs	-15606
▁mca	-15607
▁rut	-15608
▁wig	-15609
elles	-15610
▁bree	-15611
▁gift	-15612
▁henn	-15613
▁maha	-15614
▁boost	-15615
▁bulld	-15616
▁forms	-15617
▁given	-15618
▁icoca	-15619
▁johor	-15620
▁kuala	-15621
▁logan	-15622
▁patri	-15623
▁retro	-15624
▁riley	-15625
▁assess	-15626
▁concep	-15627
▁desert	-15628
▁bristol	-15629
▁chapman	-15630
▁harvard	-15631
▁respons	-15632
▁determin	-15633
▁internal	-15634
▁practice	-15635
▁functions	-15636
▁treatment	-15637
▁wrestling	-15638
▁difference	-15639
禾果	-15640
钅方	-15641
888	-15642
agi	-15643
▁zb	-15644
hand	-15645
itia	-15646
list	-15647
▁img	-15648
▁kro	-15649
▁mcp	-15650
▁pha	-15651
▁rpk	-15652
aller	-15653
antin	-15654
▁init	-15655
▁mati	-15656
▁moto	-15657
▁pine	-15658
▁tram	-15659
▁verb	-15660
saurus	-15661
▁benny	-15662
▁bravo	-15663
▁greno	-15664
▁mixed	-15665
▁rever	-15666
▁ribon	-15667
▁ricar	-15668
▁satur	-15669
▁scout	-15670
▁sparc	-15671
▁split	-15672
▁ending	-15673
▁frankf	-15674
▁jacobs	-15675
▁lauren	-15676
▁luther	-15677
▁sphere	-15678
▁activex	-15679
▁brigade	-15680
▁browser	-15681
▁dynasty	-15682
▁miracle	-15683
▁replace	-15684
▁simpson	-15685
▁stardust	-15686
▁beginning	-15687
yk	-15688
亻兆	-15689
讠山	-15690
豆工	-15691
饣戋	-15692
338	-15693
fps	-15694
opo	-15695
▁dq	-15696
▁zr	-15697
▁⿷⿸	-15698
一内阝	-15699
1500	-15700
idan	-15701
idon	-15702
phia	-15703
tham	-15704
ulla	-15705
vich	-15706
▁asm	-15707
▁dma	-15708
▁jum	-15709
▁lfa	-15710
▁nen	-15711
▁nio	-15712
▁ols	-15713
▁pim	-15714
▁una	-15715
▁yen	-15716
凵丨王攵	-15717
𠂊田一由	-15718
▁cuda	-15719
▁herc	-15720
▁lips	-15721
▁soar	-15722
▁socc	-15723
▁syfy	-15724
▁vela	-15725
㐅乂木大石	-15726
ishing	-15727
▁bever	-15728
▁curie	-15729
▁curve	-15730
▁eugen	-15731
▁frost	-15732
▁paolo	-15733
▁randy	-15734
▁baobab	-15735
▁fiesta	-15736
▁fuller	-15737
▁infant	-15738
▁patrol	-15739
▁teresa	-15740
▁auguste	-15741
▁contact	-15742
▁greater	-15743
▁cyanogen	-15744
▁grenoble	-15745
▁politics	-15746
▁potential	-15747
▁liberation	-15748
▁generations	-15749
中皿	-15750
土甘	-15751
氵乐	-15752
258	-15753
399	-15754
flo	-15755
acty	-15756
atta	-15757
club	-15758
ises	-15759
ride	-15760
uria	-15761
wehr	-15762
▁cyc	-15763
▁eds	-15764
▁gus	-15765
▁lic	-15766
▁moa	-15767
▁nmr	-15768
▁orc	-15769
▁rtl	-15770
▁sdf	-15771
annes	-15772
archy	-15773
flops	-15774
iling	-15775
olens	-15776
raine	-15777
▁7100	-15778
▁aval	-15779
▁ecfa	-15780
▁lump	-15781
▁nept	-15782
▁tina	-15783
▁wade	-15784
▁alien	-15785
▁camel	-15786
▁curry	-15787
▁eleph	-15788
▁heinz	-15789
▁phila	-15790
▁prosp	-15791
▁rocky	-15792
▁tsing	-15793
▁tumbl	-15794
▁broken	-15795
▁finder	-15796
▁multim	-15797
▁nichol	-15798
▁xavier	-15799
▁workers	-15800
▁deadline	-15801
▁available	-15802
▁universities	-15803
fz	-15804
立束	-15805
竹见	-15806
296	-15807
856	-15808
857	-15809
anx	-15810
eac	-15811
fon	-15812
vic	-15813
yne	-15814
▁ql	-15815
cate	-15816
inth	-15817
oday	-15818
ovic	-15819
uler	-15820
▁ait	-15821
▁alv	-15822
▁ism	-15823
▁jah	-15824
▁mbt	-15825
▁nix	-15826
▁rdf	-15827
enses	-15828
▁aman	-15829
▁hers	-15830
▁norm	-15831
▁tear	-15832
eneuve	-15833
▁clara	-15834
▁dijon	-15835
▁impro	-15836
▁levin	-15837
▁paulo	-15838
▁pulau	-15839
▁sally	-15840
▁cities	-15841
▁conrad	-15842
▁descri	-15843
▁hotels	-15844
▁jackie	-15845
▁korean	-15846
▁methyl	-15847
▁missile	-15848
▁webster	-15849
▁chromium	-15850
▁contents	-15851
▁everybody	-15852
▁expansion	-15853
▁quicktime	-15854
▁libreoffice	-15855
373	-15856
608	-15857
jam	-15858
▁uz	-15859
八刀廾	-15860
艹冖糸	-15861
1001	-15862
boot	-15863
otti	-15864
shan	-15865
tico	-15866
tree	-15867
wise	-15868
▁anu	-15869
▁hcl	-15870
▁mdr	-15871
▁mey	-15872
▁miu	-15873
▁mmx	-15874
▁nai	-15875
▁wyn	-15876
games	-15877
lican	-15878
rison	-15879
▁bike	-15880
▁gour	-15881
▁guns	-15882
▁hast	-15883
▁marg	-15884
▁mbit	-15885
▁quiz	-15886
▁yuri	-15887
inique	-15888
▁brock	-15889
▁crash	-15890
▁genus	-15891
▁hydra	-15892
▁leave	-15893
▁navar	-15894
▁santo	-15895
▁ziers	-15896
▁horace	-15897
▁rafael	-15898
▁tienne	-15899
▁faculty	-15900
▁letters	-15901
▁opening	-15902
▁tenness	-15903
▁thought	-15904
▁website	-15905
▁athletic	-15906
▁according	-15907
▁direction	-15908
▁sebastian	-15909
▁superstar	-15910
▁publications	-15911
虫见	-15912
275	-15913
550	-15914
raf	-15915
tag	-15916
土口彡	-15917
anan	-15918
eaks	-15919
etto	-15920
icom	-15921
plex	-15922
▁ama	-15923
▁cfc	-15924
▁gev	-15925
▁iga	-15926
▁iis	-15927
▁ldl	-15928
▁oma	-15929
▁psc	-15930
▁spd	-15931
▁usc	-15932
▁viz	-15933
▁xyz	-15934
athon	-15935
▁adri	-15936
▁beer	-15937
▁boul	-15938
▁camb	-15939
▁cari	-15940
▁giul	-15941
▁gren	-15942
▁jaya	-15943
▁mens	-15944
▁scen	-15945
▁slip	-15946
▁thin	-15947
▁whis	-15948
▁zeit	-15949
lander	-15950
system	-15951
▁32000	-15952
▁atrac	-15953
▁bains	-15954
▁britt	-15955
▁conca	-15956
▁moder	-15957
▁named	-15958
▁shirt	-15959
▁stick	-15960
▁wimax	-15961
▁fourth	-15962
▁genome	-15963
▁jerome	-15964
▁nieder	-15965
▁patter	-15966
▁biology	-15967
▁pattern	-15968
▁silicon	-15969
▁unified	-15970
▁operator	-15971
▁robertson	-15972
▁resolution	-15973
eo	-15974
fp	-15975
廿丨	-15976
273	-15977
alt	-15978
ceu	-15979
dha	-15980
pps	-15981
rai	-15982
rit	-15983
tiz	-15984
ync	-15985
木木土	-15986
cchi	-15987
eric	-15988
vaux	-15989
▁dmm	-15990
▁eck	-15991
▁elo	-15992
▁gta	-15993
▁gug	-15994
▁ked	-15995
▁mie	-15996
▁slc	-15997
▁smt	-15998
▁yum	-15999
廿丨冖巾	-16000
▁2080	-16001
▁7700	-16002
▁8700	-16003
▁9700	-16004
▁adsl	-16005
▁amus	-16006
▁dena	-16007
▁mask	-16008
▁moss	-16009
▁pros	-16010
▁tanh	-16011
▁vera	-16012
▁attra	-16013
▁cyrix	-16014
▁donna	-16015
▁mouse	-16016
▁zhang	-16017
omotive	-16018
▁chakra	-16019
▁condom	-16020
▁crytek	-16021
▁elliot	-16022
▁honour	-16023
▁limoux	-16024
▁oculus	-16025
▁really	-16026
▁sprint	-16027
▁supers	-16028
▁travis	-16029
▁betamax	-16030
▁flowers	-16031
▁germany	-16032
▁trouble	-16033
▁colorado	-16034
▁contract	-16035
▁solution	-16036
▁molecular	-16037
▁millennium	-16038
▁transition	-16039
户衣	-16040
月兆	-16041
爿木	-16042
钅乚	-16043
378	-16044
408	-16045
avi	-16046
bie	-16047
ipa	-16048
▁ys	-16049
力口肉	-16050
pple	-16051
▁coa	-16052
▁dai	-16053
▁dha	-16054
▁ene	-16055
▁fet	-16056
▁lez	-16057
▁lsa	-16058
▁ptr	-16059
▁roe	-16060
▁smi	-16061
▁spc	-16062
丷干攵皿	-16063
allow	-16064
iency	-16065
oting	-16066
ulate	-16067
▁alle	-16068
▁cnet	-16069
▁deca	-16070
▁fang	-16071
▁hyde	-16072
▁quan	-16073
▁rene	-16074
▁sole	-16075
▁tart	-16076
▁trem	-16077
minute	-16078
▁enemy	-16079
▁europ	-16080
▁guang	-16081
▁juice	-16082
▁lynch	-16083
▁marin	-16084
▁miami	-16085
▁outer	-16086
▁pyram	-16087
▁schwe	-16088
▁shore	-16089
▁worth	-16090
▁behind	-16091
▁breath	-16092
▁loving	-16093
▁vivian	-16094
▁gamepro	-16095
▁giorgio	-16096
▁jenkins	-16097
▁kampung	-16098
▁concepts	-16099
▁dinosaur	-16100
▁enhanced	-16101
▁condition	-16102
▁henderson	-16103
np	-16104
亻王	-16105
比必	-16106
368	-16107
369	-16108
376	-16109
iry	-16110
▁yh	-16111
gard	-16112
noon	-16113
oney	-16114
pped	-16115
▁alx	-16116
▁esr	-16117
▁idf	-16118
▁mec	-16119
▁muc	-16120
▁siu	-16121
▁unc	-16122
▁xin	-16123
▁yau	-16124
丿冂米丂	-16125
leigh	-16126
liffe	-16127
store	-16128
tinum	-16129
▁8100	-16130
▁fand	-16131
▁kwan	-16132
▁leuc	-16133
▁ones	-16134
▁slam	-16135
▁tara	-16136
▁writ	-16137
▁yuki	-16138
▁arrow	-16139
▁birds	-16140
▁brent	-16141
▁cardi	-16142
▁diane	-16143
▁marks	-16144
▁mercy	-16145
▁paras	-16146
▁carmen	-16147
▁clover	-16148
▁dallas	-16149
▁mental	-16150
▁nforce	-16151
▁trophy	-16152
▁beatles	-16153
▁consult	-16154
▁elliott	-16155
▁gardner	-16156
▁macross	-16157
▁montgom	-16158
▁sisters	-16159
▁manhattan	-16160
▁relations	-16161
▁psychology	-16162
▁villeneuve	-16163
口更	-16164
虫毛	-16165
468	-16166
892	-16167
ela	-16168
elt	-16169
pla	-16170
umn	-16171
▁bz	-16172
▁vj	-16173
扌斤虫	-16174
ades	-16175
alli	-16176
boro	-16177
cour	-16178
ened	-16179
eroy	-16180
feed	-16181
gles	-16182
icum	-16183
iers	-16184
iros	-16185
quel	-16186
▁afp	-16187
▁ccc	-16188
▁iba	-16189
▁ifa	-16190
▁kou	-16191
▁ktx	-16192
▁yeh	-16193
eness	-16194
etric	-16195
gency	-16196
icher	-16197
ilion	-16198
▁alge	-16199
▁phoe	-16200
▁qwer	-16201
▁stag	-16202
▁volt	-16203
▁wein	-16204
▁coron	-16205
▁erich	-16206
▁input	-16207
▁loire	-16208
▁maple	-16209
▁miche	-16210
▁miner	-16211
▁optim	-16212
▁pione	-16213
▁rural	-16214
▁theta	-16215
▁trich	-16216
▁voith	-16217
▁weber	-16218
berland	-16219
limited	-16220
▁amoled	-16221
▁jersey	-16222
▁jessie	-16223
▁ticket	-16224
▁weight	-16225
▁animals	-16226
▁concord	-16227
▁endless	-16228
▁heights	-16229
▁imagine	-16230
▁madison	-16231
▁pearson	-16232
▁results	-16233
▁ricardo	-16234
▁solomon	-16235
▁trident	-16236
▁activity	-16237
▁florence	-16238
▁strategy	-16239
▁superior	-16240
▁assistant	-16241
▁catalogue	-16242
dx	-16243
wb	-16244
xp	-16245
钅我	-16246
244	-16247
354	-16248
469	-16249
495	-16250
604	-16251
887	-16252
899	-16253
bau	-16254
iph	-16255
iya	-16256
jay	-16257
lei	-16258
pod	-16259
anor	-16260
fest	-16261
fton	-16262
iere	-16263
omes	-16264
yang	-16265
▁avi	-16266
▁bip	-16267
▁blg	-16268
▁lom	-16269
▁luv	-16270
▁opt	-16271
▁owl	-16272
▁ppt	-16273
▁ruf	-16274
▁zoe	-16275
antes	-16276
count	-16277
isoft	-16278
ppers	-16279
▁cars	-16280
▁cogn	-16281
▁dela	-16282
▁indo	-16283
▁leap	-16284
▁lect	-16285
▁lyon	-16286
▁opti	-16287
▁shor	-16288
▁toys	-16289
▁yeah	-16290
▁27000	-16291
▁armor	-16292
▁klaus	-16293
▁leeds	-16294
▁armani	-16295
▁nether	-16296
▁penins	-16297
▁qwerty	-16298
▁tumblr	-16299
cephalus	-16300
▁chester	-16301
▁mapping	-16302
▁methods	-16303
transport	-16304
▁audition	-16305
▁decision	-16306
▁platinum	-16307
▁tennessee	-16308
▁montgomery	-16309
mk	-16310
彳且	-16311
角瓜	-16312
364	-16313
476	-16314
483	-16315
497	-16316
602	-16317
853	-16318
889	-16319
907	-16320
eap	-16321
kos	-16322
一大刂	-16323
士口力	-16324
1903	-16325
fall	-16326
imal	-16327
iona	-16328
osus	-16329
reza	-16330
▁cns	-16331
▁csf	-16332
▁dsl	-16333
▁esi	-16334
▁fug	-16335
▁iib	-16336
▁ine	-16337
▁isc	-16338
▁kri	-16339
▁lid	-16340
▁mip	-16341
▁mtd	-16342
▁qui	-16343
十豆口心	-16344
atore	-16345
enade	-16346
power	-16347
wagen	-16348
▁grub	-16349
▁lgpl	-16350
▁msci	-16351
▁raph	-16352
▁seng	-16353
▁symm	-16354
estone	-16355
heimer	-16356
ically	-16357
ophone	-16358
tively	-16359
▁basin	-16360
▁delay	-16361
▁inhib	-16362
▁percy	-16363
▁twist	-16364
▁become	-16365
▁former	-16366
▁hannah	-16367
▁hassan	-16368
▁inform	-16369
▁legion	-16370
▁martha	-16371
▁milton	-16372
▁tablet	-16373
▁baldwin	-16374
▁buffalo	-16375
▁destruc	-16376
▁liberal	-16377
▁variety	-16378
▁anything	-16379
▁anywhere	-16380
▁baptiste	-16381
▁singular	-16382
▁ventures	-16383
▁powerbook	-16384
石比	-16385
142	-16386
234	-16387
459	-16388
461	-16389
504	-16390
667	-16391
890	-16392
how	-16393
hpa	-16394
leb	-16395
mag	-16396
mex	-16397
xis	-16398
▁gv	-16399
▁pq	-16400
erto	-16401
oles	-16402
shot	-16403
ture	-16404
wing	-16405
▁aip	-16406
▁dsc	-16407
▁eis	-16408
▁kut	-16409
▁lua	-16410
▁srb	-16411
olith	-16412
rises	-16413
sburg	-16414
▁bess	-16415
▁edin	-16416
▁forg	-16417
▁isla	-16418
▁noir	-16419
▁phon	-16420
▁tres	-16421
struct	-16422
sworth	-16423
weiler	-16424
▁anglo	-16425
▁claud	-16426
▁indie	-16427
▁mende	-16428
ensions	-16429
▁abstra	-16430
▁cannon	-16431
▁fraser	-16432
▁gregor	-16433
▁mighty	-16434
▁rescue	-16435
▁changes	-16436
▁horipro	-16437
▁mikhail	-16438
▁mohamed	-16439
▁stellar	-16440
▁discover	-16441
▁hamasaki	-16442
▁telltale	-16443
▁schneider	-16444
▁significa	-16445
▁properties	-16446
▁silverlight	-16447
▁wissembourg	-16448
扌专	-16449
扌门	-16450
耳冉	-16451
395	-16452
454	-16453
472	-16454
774	-16455
776	-16456
858	-16457
864	-16458
tap	-16459
unn	-16460
ills	-16461
only	-16462
▁arx	-16463
▁kag	-16464
▁kiv	-16465
▁mls	-16466
▁neg	-16467
▁ssr	-16468
▁tpe	-16469
▁wcw	-16470
acity	-16471
riage	-16472
taine	-16473
▁2650	-16474
▁8200	-16475
▁8400	-16476
▁arte	-16477
▁cron	-16478
▁duty	-16479
▁eure	-16480
▁gibb	-16481
▁hime	-16482
▁lago	-16483
▁scha	-16484
▁webb	-16485
▁bitch	-16486
▁brett	-16487
▁freak	-16488
▁humph	-16489
▁immun	-16490
▁luigi	-16491
▁nexon	-16492
▁quinn	-16493
▁raven	-16494
▁tango	-16495
▁bernay	-16496
▁finger	-16497
▁gerard	-16498
▁icloud	-16499
▁minnes	-16500
▁mongol	-16501
▁impreza	-16502
▁objects	-16503
▁richter	-16504
▁writing	-16505
▁negative	-16506
▁certified	-16507
▁emergency	-16508
▁recording	-16509
▁unlimited	-16510
▁alexandria	-16511
▁excellence	-16512
▁population	-16513
▁conservation	-16514
口角	-16515
187	-16516
453	-16517
479	-16518
993	-16519
dek	-16520
十又目	-16521
bolt	-16522
ffen	-16523
ient	-16524
▁ame	-16525
▁bia	-16526
▁cay	-16527
▁cpa	-16528
▁ctu	-16529
▁iic	-16530
▁mog	-16531
▁nhs	-16532
ately	-16533
ersen	-16534
▁alam	-16535
▁alba	-16536
▁amor	-16537
▁ante	-16538
▁carm	-16539
▁cats	-16540
▁espa	-16541
▁evel	-16542
▁fest	-16543
▁foix	-16544
▁graf	-16545
▁hors	-16546
▁kira	-16547
▁raff	-16548
▁trav	-16549
ssonne	-16550
▁68000	-16551
▁chels	-16552
▁files	-16553
▁hobby	-16554
▁kappa	-16555
▁matth	-16556
▁penny	-16557
▁plain	-16558
▁prior	-16559
▁stark	-16560
▁theme	-16561
▁towns	-16562
▁cotton	-16563
▁degree	-16564
▁deluxe	-16565
▁regina	-16566
▁blender	-16567
▁celeron	-16568
▁gerhard	-16569
▁isabella	-16570
▁algorithm	-16571
▁minnesota	-16572
▁navigator	-16573
▁carcassonne	-16574
mn	-16575
▁隹	-16576
火羊	-16577
艹卯	-16578
464	-16579
474	-16580
507	-16581
551	-16582
852	-16583
902	-16584
hun	-16585
odo	-16586
opp	-16587
otr	-16588
sex	-16589
vir	-16590
cend	-16591
eart	-16592
garh	-16593
inan	-16594
oire	-16595
sing	-16596
zens	-16597
▁aca	-16598
▁adl	-16599
▁arl	-16600
▁bau	-16601
▁bic	-16602
▁csa	-16603
▁edg	-16604
▁gib	-16605
▁hoy	-16606
▁mez	-16607
▁nfa	-16608
▁nsx	-16609
▁ugc	-16610
▁yer	-16611
▁ymc	-16612
books	-16613
ethyl	-16614
itsch	-16615
▁2034	-16616
▁dino	-16617
▁fips	-16618
▁garo	-16619
▁gplv	-16620
▁ivpp	-16621
▁poll	-16622
▁sale	-16623
▁shen	-16624
▁turk	-16625
▁youb	-16626
wealth	-16627
▁artif	-16628
▁brien	-16629
▁crane	-16630
▁glock	-16631
▁jonas	-16632
▁msnbc	-16633
▁takes	-16634
▁trace	-16635
uration	-16636
▁divers	-16637
▁hubert	-16638
▁jennie	-16639
▁minute	-16640
▁mosfet	-16641
▁prepar	-16642
▁stanag	-16643
▁anthrop	-16644
▁clinton	-16645
▁feeling	-16646
▁jupiter	-16647
▁ranking	-16648
▁testing	-16649
▁griffith	-16650
▁largenti	-16651
▁laughing	-16652
▁angelababy	-16653
▁experimental	-16654
148	-16655
253	-16656
297	-16657
fal	-16658
spa	-16659
tae	-16660
▁nw	-16661
2008	-16662
2011	-16663
imon	-16664
inet	-16665
ippi	-16666
mbit	-16667
rows	-16668
▁aed	-16669
▁alr	-16670
▁cps	-16671
▁ebs	-16672
▁fow	-16673
▁gru	-16674
▁ire	-16675
▁lob	-16676
▁mpc	-16677
▁rcs	-16678
▁reh	-16679
▁ufj	-16680
▁uic	-16681
▁xxi	-16682
井一𧘇力	-16683
inski	-16684
ockey	-16685
oland	-16686
oming	-16687
▁intr	-16688
▁iran	-16689
▁lvmh	-16690
▁mica	-16691
▁parc	-16692
▁pull	-16693
▁tata	-16694
▁tick	-16695
▁21000	-16696
▁leigh	-16697
▁mayer	-16698
▁means	-16699
ococcus	-16700
▁edmond	-16701
▁shader	-16702
▁soccer	-16703
▁zimmer	-16704
▁barrett	-16705
▁binding	-16706
▁calling	-16707
▁lambert	-16708
▁miranda	-16709
▁tournon	-16710
▁external	-16711
▁latitude	-16712
▁sterling	-16713
▁indonesia	-16714
▁leadership	-16715
▁certificate	-16716
▁investments	-16717
王丁	-16718
427	-16719
898	-16720
aho	-16721
enh	-16722
roc	-16723
▁zy	-16724
隹隹牛	-16725
𠂉大匕	-16726
2012	-16727
aper	-16728
isla	-16729
ocom	-16730
orie	-16731
▁bma	-16732
▁bmd	-16733
▁buy	-16734
▁igm	-16735
▁ink	-16736
▁kov	-16737
▁ryo	-16738
▁sfc	-16739
iplex	-16740
state	-16741
▁5900	-16742
▁8600	-16743
▁caes	-16744
▁cave	-16745
▁chro	-16746
▁pong	-16747
▁taxi	-16748
▁toll	-16749
▁yuan	-16750
▁zard	-16751
▁clamp	-16752
▁compi	-16753
▁dolce	-16754
▁fifth	-16755
▁latex	-16756
▁mouth	-16757
▁ricky	-16758
▁volvo	-16759
asaurus	-16760
▁enough	-16761
▁guilla	-16762
▁portal	-16763
▁roguel	-16764
▁sketch	-16765
▁christi	-16766
▁partner	-16767
▁waiting	-16768
▁warning	-16769
▁augustus	-16770
▁mcdonald	-16771
▁planning	-16772
▁evangelion	-16773
▁independence	-16774
▁hypertransport	-16775
犭贝	-16776
506	-16777
805	-16778
bba	-16779
bek	-16780
bid	-16781
gow	-16782
ifa	-16783
▁tq	-16784
▁wt	-16785
▁zg	-16786
勹丿牛	-16787
木木日	-16788
jack	-16789
note	-16790
▁ctc	-16791
▁hew	-16792
▁ini	-16793
▁pus	-16794
▁sdl	-16795
▁stg	-16796
▁unt	-16797
▁wps	-16798
▁zum	-16799
anium	-16800
icity	-16801
tisan	-16802
ungen	-16803
▁acer	-16804
▁berk	-16805
▁cola	-16806
▁ctrl	-16807
▁jill	-16808
▁judy	-16809
▁klee	-16810
▁lynx	-16811
▁neal	-16812
▁yong	-16813
▁yves	-16814
▁alain	-16815
▁below	-16816
▁cisco	-16817
▁depor	-16818
▁eniac	-16819
▁entre	-16820
▁ether	-16821
▁goose	-16822
▁incor	-16823
▁kenny	-16824
osphere	-16825
tisland	-16826
▁banana	-16827
▁entity	-16828
▁hollow	-16829
▁micros	-16830
▁pharma	-16831
▁serial	-16832
▁static	-16833
▁telnet	-16834
▁willie	-16835
▁andrews	-16836
▁italian	-16837
▁mississ	-16838
▁neutral	-16839
▁purpose	-16840
▁although	-16841
▁altkirch	-16842
▁prestige	-16843
▁stephanie	-16844
▁experiment	-16845
▁particular	-16846
▁includeonly	-16847
▁commonwealth	-16848
jm	-16849
竹乍	-16850
艹以	-16851
鬼隹	-16852
272	-16853
279	-16854
298	-16855
807	-16856
859	-16857
agu	-16858
daq	-16859
tan	-16860
two	-16861
zni	-16862
▁yb	-16863
亻隹贝	-16864
1919	-16865
aton	-16866
copy	-16867
corn	-16868
inux	-16869
kers	-16870
park	-16871
toid	-16872
witz	-16873
▁ccr	-16874
▁cen	-16875
▁cpg	-16876
▁ded	-16877
▁dyl	-16878
▁eas	-16879
▁gsh	-16880
▁hpa	-16881
▁isi	-16882
▁mcb	-16883
▁niv	-16884
▁ppi	-16885
▁rar	-16886
▁tvs	-16887
▁uta	-16888
凵㐅八夂	-16889
口口口阝	-16890
borne	-16891
illed	-16892
query	-16893
▁aise	-16894
▁brie	-16895
▁dahl	-16896
▁este	-16897
▁hila	-16898
▁noel	-16899
▁pash	-16900
▁plum	-16901
▁reac	-16902
▁reef	-16903
▁reid	-16904
▁rust	-16905
▁siem	-16906
▁twil	-16907
▁yoko	-16908
亠丷冖巾口	-16909
▁70000	-16910
▁blink	-16911
▁corey	-16912
▁digic	-16913
▁icann	-16914
▁parks	-16915
▁pulse	-16916
▁berryz	-16917
▁column	-16918
▁consor	-16919
▁darren	-16920
▁freddy	-16921
▁jewish	-16922
▁nebras	-16923
▁option	-16924
▁oxygen	-16925
▁probab	-16926
▁tarbes	-16927
▁ultras	-16928
▁voyage	-16929
▁winamp	-16930
▁contrib	-16931
▁partido	-16932
▁breaking	-16933
▁ftisland	-16934
▁graduate	-16935
▁reynolds	-16936
▁operating	-16937
▁supercell	-16938
qq	-16939
王兆	-16940
𠂉毛	-16941
274	-16942
424	-16943
ryn	-16944
▁uo	-16945
一丁心	-16946
2018	-16947
chem	-16948
emia	-16949
into	-16950
onto	-16951
werk	-16952
▁aws	-16953
▁fuk	-16954
▁ict	-16955
▁nhc	-16956
▁pcl	-16957
▁pem	-16958
▁suk	-16959
atops	-16960
oodle	-16961
▁acro	-16962
▁adel	-16963
▁choi	-16964
▁cope	-16965
▁ddos	-16966
▁fuel	-16967
▁hamp	-16968
▁hina	-16969
▁knox	-16970
▁marx	-16971
▁morg	-16972
▁peti	-16973
▁slim	-16974
▁witt	-16975
▁chron	-16976
▁elias	-16977
▁elisa	-16978
▁flora	-16979
▁metra	-16980
▁minas	-16981
▁platy	-16982
▁ponte	-16983
▁shaft	-16984
▁treas	-16985
▁announ	-16986
▁benson	-16987
▁castel	-16988
▁finals	-16989
▁priest	-16990
▁proton	-16991
▁rather	-16992
▁trevor	-16993
▁tunnel	-16994
▁violet	-16995
▁freeman	-16996
▁neoplan	-16997
▁percent	-16998
▁tracker	-16999
▁clinical	-17000
▁roguelike	-17001
▁wonderswan	-17002
uo	-17003
口丫	-17004
夂糸	-17005
广心	-17006
212	-17007
wat	-17008
yat	-17009
andi	-17010
asan	-17011
bone	-17012
cing	-17013
dian	-17014
kong	-17015
olta	-17016
onga	-17017
ynos	-17018
▁jea	-17019
▁kip	-17020
▁myc	-17021
▁stl	-17022
antan	-17023
entin	-17024
ignac	-17025
ystem	-17026
▁2032	-17027
▁chit	-17028
▁chok	-17029
▁foun	-17030
▁kell	-17031
▁lime	-17032
▁saml	-17033
▁saul	-17034
▁sauv	-17035
▁stal	-17036
▁bones	-17037
▁cecil	-17038
▁chloe	-17039
▁geass	-17040
▁guild	-17041
▁salon	-17042
▁veloc	-17043
▁barcel	-17044
▁eduard	-17045
▁labour	-17046
▁weaver	-17047
▁certain	-17048
▁segment	-17049
▁various	-17050
▁youbike	-17051
▁christina	-17052
▁coutances	-17053
▁crossfire	-17054
uj	-17055
vb	-17056
267	-17057
471	-17058
cet	-17059
sel	-17060
sts	-17061
▁wf	-17062
alus	-17063
arez	-17064
chia	-17065
chor	-17066
geon	-17067
icht	-17068
lane	-17069
quez	-17070
uela	-17071
zzle	-17072
▁dew	-17073
▁dtv	-17074
▁eap	-17075
▁hib	-17076
▁jkt	-17077
▁koo	-17078
▁neb	-17079
▁nii	-17080
▁poo	-17081
▁pwm	-17082
冂一口且	-17083
工口寸阝	-17084
emann	-17085
enton	-17086
ified	-17087
olate	-17088
reich	-17089
tilla	-17090
▁4217	-17091
▁flea	-17092
▁flet	-17093
▁maid	-17094
▁mein	-17095
▁rash	-17096
▁sohr	-17097
▁suse	-17098
[...]
