<pad>	0
<unk>	0
[CLS]	0
[SEP]	0
[MASK]	0
(	0
)	0
”	0
-	0
.	0
–	0
£	0
€	0
▁⿰	-0
⿰	-1
▁⿱	-2
⿱	-3
cd	-4
cdp	-5
▁,	-6
88	-7
⿱⿱	-8
勹丶	-9
▁。	-10
▁⿸	-11
▁⿰⿱	-12
⿰⿱	-13
⿱⿱	-14
▁⿱⿱	-15
⿸	-16
一八	-17
▁⿺	-18
▁⿻	-19
一口	-20
⿺	-21
▁1	-22
一龰	-23
885	-24
▁、	-25
▁年	-26
⿱⿰	-27
土寸	-28
⿻	-29
89	-30
⿵	-31
一厶	-32
▁⿱⿰	-33
目八	-34
⿴	-35
▁⿵	-36
⿱⿰	-37
口口	-38
▁⿹	-39
口丨	-40
⿱⿴	-41
二丨	-42
十口	-43
日一	-44
66	-45
▁2	-46
丁口	-47
▁一	-48
⿳	-49
𠘧又	-50
亠口	-51
866	-52
人一	-53
⿰⿱⿱	-54
𠂇月	-55
▁⿳	-56
一人	-57
▁⿴	-58
一厶土	-59
一廾	-60
ca	-61
夂口	-62
⿰⿱	-63
人人	-64
口一	-65
⿱⿻	-66
𠁣𠃛	-67
亠丷	-68
戊𠃌	-69
cac	-70
⿹	-71
禾口	-72
一止	-73
丿𠃌	-74
龷八	-75
⿱⿻	-76
bb	-77
一丁	-78
▁人	-79
㐅乂	-80
▁20	-81
乛亅	-82
甲一	-83
亠土	-84
▁月	-85
耂日	-86
乀丿	-87
囗玉	-88
二厶	-89
▁19	-90
▁⿰⿱⿱	-91
⺌日	-92
囗⺌日	-93
冂口	-94
八厶	-95
丿丿	-96
▁日	-97
土也	-98
⿹⿻	-99
bbf	-100
凵丨	-101
一兀	-102
人⺀	-103
八刀	-104
厶口	-105
人丶	-106
⺌冖	-107
幺幺	-108
立口	-109
人一口	-110
⺊一	-111
凵丨凵	-112
䒑土	-113
8665	-114
一大	-115
弓丨	-116
⺊口	-117
丷干	-118
▁⿱⿱⿱	-119
亻也	-120
立口阝	-121
一八斤	-122
䒑自	-123
土厶	-124
𠂊冫	-125
▁以	-126
亠口小	-127
⺌冖口	-128
𠂉大	-129
𠂉母	-130
bc	-131
8661	-132
丨丨	-133
▁⿰⿸	-134
▁為	-135
日十	-136
夕口	-137
目儿	-138
⿱⿱⿱	-139
弓丨丿	-140
耳又	-141
⿳⿰	-142
乚丿	-143
▁⿱⿻	-144
亻乍	-145
止匕	-146
丿士	-147
896	-148
立日	-149
冂一口	-150
口止	-151
⿶⿳⿰	-152
彐一八	-153
一厶土刂	-154
夕夕	-155
力口	-156
土龰	-157
⿷	-158
一卜	-159
儿口	-160
⿱⿳	-161
▁:	-162
小丿	-163
亠父	-164
▁》	-165
▁《	-166
且一	-167
⿰⿸	-168
宀豕	-169
cb	-170
宀八	-171
龶月	-172
亻立	-173
立朩	-174
月刂	-175
𠂊小	-176
木木	-177
幺夂	-178
冫欠	-179
冖子	-180
衤皮	-181
干丷	-182
亠巾	-183
▁为	-184
丿丨	-185
口儿	-186
▁·	-187
囗大	-188
一心	-189
▁3	-190
甲一一	-191
一止攵	-192
⿱⿳	-193
人丨	-194
十罒	-195
十罒一心	-196
且一八	-197
由八	-198
▁201	-199
⺆冫	-200
𠃋丿	-201
𠃋丿人	-202
彐冖	-203
丿糸	-204
千口	-205
▁由	-206
䒑业	-207
宀㠯	-208
禾刂	-209
亠乂	-210
𠂊田	-211
丿尸	-212
廴聿	-213
𠂇巾	-214
冖車	-215
立朩斤	-216
▁「	-217
▁」	-218
亻弋	-219
宀女	-220
▁⿸⿸	-221
井一八	-222
▁⿶⿳⿰	-223
十口儿	-224
cc	-225
⿶⿱⿰	-226
廿又	-227
白小	-228
⿲	-229
⿱⿰⿱	-230
𠂆一口	-231
bd	-232
子攵	-233
匕匕	-234
丿尸斤	-235
⿵⿰	-236
𠂆又	-237
▁也	-238
㐅乂子	-239
▁200	-240
一二	-241
日乚	-242
䒑土大	-243
日一寸	-244
匚㐅	-245
77	-246
弋工	-247
▁⿱⿳	-248
歹刂	-249
覀女	-250
▁“	-251
士口	-252
人丶龴	-253
土口	-254
▁自	-255
亻寸	-256
▁⿰⿳	-257
爫冖	-258
▁⿲	-259
木目	-260
耂子攵	-261
▁⿵⿵	-262
日寸	-263
冂卄	-264
⿵⿵	-265
亠丷一	-266
扌立	-267
⿳𭕄	-268
884	-269
▁⿺⿱	-270
口八	-271
口王	-272
▁4	-273
王里	-274
▁⿵⿰	-275
龶𧘇	-276
日月	-277
夕卜	-278
人王	-279
一八月	-280
冖巾	-281
尢丶	-282
コ一	-283
冂刂	-284
牛冂刂	-285
禾斗	-286
王求	-287
⿸⿸	-288
▁5	-289
亻吏	-290
一口田	-291
▁;	-292
𠂒儿	-293
勹巳	-294
忄生	-295
丷八	-296
8661	-297
𠂊田灬	-298
冖车	-299
女攵	-300
▁及	-301
⿺⿱	-302
立十	-303
一由八	-304
十又	-305
耂日阝	-306
一巛	-307
一巛工	-308
▁⿱⿰⿱	-309
𠂒口	-310
𠂊冫寸	-311
刀口	-312
尸匕	-313
囗口	-314
▁小	-315
一厶儿	-316
▁"	-317
幺幺丱	-318
人一朩	-319
▁6	-320
土土	-321
习习	-322
一八土	-323
一土	-324
▁s	-325
爫冖又	-326
小丿目	-327
糸言	-328
糸言糸	-329
匕日	-330
重力	-331
⿵⿰	-332
⿱⿶⿱⿰	-333
卩又	-334
艹央	-335
▁生	-336
辶文	-337
口木	-338
⿵⿱	-339
王丷	-340
䒑土寸	-341
五口	-342
⿵⿵	-343
又寸	-344
口丂	-345
𠁣𠃛日	-346
䒑土我	-347
丿冂口	-348
口贝	-349
辶言	-350
亻丨	-351
▁7	-352
日大	-353
▁10	-354
亠丷厂	-355
▁a	-356
女口	-357
肀一	-358
⿻⿻	-359
宀八工	-360
龷八巳	-361
𠂇又	-362
⺌冖口田	-363
囗儿	-364
日生	-365
曲豆	-366
⿰⿳	-367
⿹⿶	-368
幺幺人	-369
儿丨	-370
土龰巳	-371
亠口小彡	-372
立日心	-373
禾女	-374
▁工	-375
85	-376
犬灬	-377
𠂊冫犬灬	-378
ス工	-379
冎口	-380
⺌冖口巾	-381
▁⿷	-382
戈十	-383
⿱⿱⿱	-384
己攵	-385
▁重	-386
一廾刂	-387
▁9	-388
米大	-389
入入	-390
肀一一	-391
𠂊巴	-392
一冉	-393
日一里	-394
▁于	-395
▁8	-396
⿳⿱	-397
丿冂	-398
夂⺀	-399
8665	-400
辶隹	-401
▁发	-402
夂力	-403
大丶	-404
日十月	-405
立女	-406
釆田	-407
▁t	-408
木丶	-409
er	-410
▁m	-411
一巾	-412
隹又	-413
儿土	-414
甲一戈	-415
▁c	-416
丷豕	-417
𠂇口	-418
二厶力	-419
土儿土	-420
白水	-421
▁⿳𭕄	-422
乂丶	-423
目八刂	-424
𠂉丶	-425
▁世	-426
力八	-427
禾日	-428
▁比	-429
00	-430
冂入	-431
5	-432
𫝀口	-433
亠几	-434
宀丰	-435
⿰⿰	-436
上卜	-437
勹虫	-438
方攵	-439
𫝀口㐄	-440
勹口	-441
丿大	-442
门日	-443
in	-444
一廾彡	-445
冂人	-446
木几	-447
⿱⿰⿴	-448
一业	-449
▁12	-450
丿夫	-451
▁本	-452
一廾刂土	-453
丿囗	-454
cbb	-455
龷由八	-456
ee	-457
⿰⿻	-458
▁二	-459
止匕二	-460
⿱⿲	-461
凵㐅	-462
口口隹	-463
▁⿰⿻	-464
尹口	-465
宀丰口	-466
口心	-467
丷口心	-468
火火	-469
氏丶	-470
⺌兀	-471
隹木	-472
戊一	-473
▁b	-474
or	-475
辶寸	-476
十口攵	-477
辶井	-478
亠丷冖巾	-479
爫冉	-480
▁199	-481
二人	-482
▁⿰⿰	-483
丿十	-484
丶艮	-485
十豆	-486
▁f	-487
on	-488
an	-489
且厶	-490
一𫝀	-491
卌一	-492
𠂉卌一	-493
▁已	-494
宀子	-495
䒑未	-496
宀匕	-497
虍几	-498
巳巳	-499
八口	-500
▁十	-501
人彡	-502
王见	-503
氵工	-504
口力	-505
▁⿱⿶⿱⿰	-506
礻土	-507
日乂	-508
▁⿹⿶	-509
𠂉大口	-510
▁巴	-511
▁女	-512
夕寸	-513
⿰⿳	-514
虍豕	-515
宀示	-516
禾重	-517
禾中	-518
䒑业日	-519
糸言糸弓	-520
▁11	-521
覀示	-522
几丶	-523
⺌月	-524
ce	-525
▁山	-526
▁p	-527
癶豆	-528
丷夫	-529
氵州	-530
𠂉丶皿	-531
𠂇工	-532
口卩	-533
亻本	-534
刀丿	-535
▁事	-536
⺌彐	-537
▁⿰⿱⿰	-538
⿰⿹	-539
田一	-540
⺊口戈	-541
止𣥂	-542
ea	-543
𠂉子	-544
⿱⿰⿴	-545
幺木	-546
幺白	-547
幺白幺木	-548
▁米	-549
刀牛	-550
日夂	-551
𠂉日夂	-552
土羊	-553
𠁣𠃛柬	-554
▁d	-555
▁h	-556
▁⿲㇇	-557
龷日	-558
罒夕	-559
十口月	-560
丘八	-561
丿囗夂	-562
一厶月	-563
▁民	-564
亠口冖	-565
𠂉十	-566
氵皮	-567
𠃌口	-568
亻言	-569
弋一止	-570
且一小	-571
⿱⿲	-572
コ一亅	-573
辶斤	-574
丿冂米大	-575
阝人	-576
礻申	-577
▁東	-578
米女攵	-579
丆口	-580
一白	-581
8665⿰	-582
口龰	-583
戊一口	-584
亠幺	-585
凵㐅禸	-586
▁⿰⿹	-587
8665⿱	-588
人匕	-589
夂朩	-590
⿱⿴⿱	-591
宀必	-592
尸禹	-593
土儿土丸	-594
厶厶	-595
亻牛	-596
▁又	-597
丿囗夂心	-598
亠丷日	-599
二阝	-600
刀二阝	-601
bf	-602
女也	-603
心夂	-604
la	-605
亻尹	-606
𠂉卌一灬	-607
▁18	-608
冖儿	-609
木寸	-610
▁/	-611
宀必山	-612
▁目	-613
日日	-614
▁东	-615
人人龰	-616
歹匕	-617
日木	-618
口口犬	-619
言十	-620
丩攵	-621
⿸⿴	-622
尸一口	-623
贝刂	-624
土𠃓	-625
肀一一田一	-626
甫寸	-627
日罒	-628
日罒又	-629
木艮	-630
𠂊田一	-631
en	-632
木子	-633
井一八贝	-634
纟戋	-635
丁口欠	-636
一口𧘇	-637
立月	-638
乚丿十	-639
纟且	-640
▁⿱⿵⿱	-641
爫木	-642
中一	-643
亠八	-644
衤刀	-645
宀八九	-646
▁15	-647
八夂	-648
8964	-649
辶大	-650
立日儿	-651
▁r	-652
身寸	-653
冖儿木	-654
▁n	-655
二丨凵	-656
▁g	-657
丨丿	-658
扌丁	-659
纟及	-660
▁⿵⿱	-661
勹口攵	-662
厶厶人彡	-663
66	-664
山而	-665
丷三	-666
⿹⿶	-667
亻门	-668
戊一女	-669
▁⿳⿱	-670
⿳⿰	-671
禾子	-672
土口𧘇	-673
bcb	-674
士衣	-675
口虫	-676
4⿱	-677
𠂊厂	-678
火火冖	-679
夕㐄	-680
宀谷	-681
㇇	-682
讠十	-683
𠃌丨	-684
刀丿心	-685
甘木	-686
雨田	-687
▁非	-688
艹禺	-689
⿲㇇	-690
囗丨	-691
彳艮	-692
丿虫	-693
丿口	-694
口丿口	-695
厂生	-696
丿七	-697
⿱⿹	-698
亻隹	-699
辶束	-700
丷八十	-701
bea	-702
▁l	-703
夂彡	-704
工力	-705
8960	-706
白王	-707
田力	-708
扌隹	-709
ar	-710
勹冫	-711
又土	-712
又又	-713
口十	-714
女子	-715
⿱⿸	-716
犬頁	-717
米犬頁	-718
▁16	-719
⿰⿱⿰	-720
厶大	-721
宀头	-722
厶大彡	-723
夂几	-724
▁i	-725
井一冉	-726
▁0	-727
山一	-728
▁⿱⿲	-729
一氺	-730
一氺丶	-731
八乂	-732
束攵	-733
⿶	-734
宀女木	-735
⿵⿱	-736
雨而	-737
辶車	-738
纟隹	-739
肀一一日	-740
▁17	-741
白丿十	-742
革力	-743
亻白	-744
⿰⿱⿱	-745
且力	-746
士口冖	-747
人丶龴頁	-748
扌斤	-749
⿱⿴	-750
一内	-751
辶不	-752
八人	-753
8661⿰	-754
口夫	-755
一厶土攵	-756
▁我	-757
肀口	-758
工攵	-759
▁广	-760
丿𠃌刂	-761
▁194	-762
車凵	-763
▁未	-764
亻隹心	-765
䒑自寸	-766
▁w	-767
上小	-768
es	-769
勹厶	-770
一口田刂	-771
⿺⿻	-772
▁⿰⿷	-773
丿廾	-774
一尢	-775
夂丰	-776
▁⿱⿴	-777
禾乃	-778
龷八氺	-779
虍豕刂	-780
士心	-781
⿺⿱	-782
夂卜	-783
扌丸	-784
彑氺	-785
人㔾	-786
𠘧又手	-787
⺌冖口土	-788
8661⿱	-789
尹口羊	-790
刀田	-791
上小又	-792
木示	-793
▁长	-794
乛头	-795
土龰戉	-796
▁198	-797
𠂉也	-798
▁14	-799
▁⿰⿱⿹	-800
人丶龴页	-801
糸言糸攵	-802
⺊口灬	-803
士𠃜	-804
⺌冖口黑	-805
▁195	-806
几㐅	-807
匚儿	-808
囗才	-809
▁13	-810
▁⿱⿰⿻	-811
⿱𭕄	-812
▁白	-813
8	-814
巳寸	-815
一自	-816
井一八土	-817
▁197	-818
扌非	-819
亻专	-820
耂匕	-821
▁来	-822
牛冂刂衣	-823
犭犬	-824
阝艮	-825
耂丂	-826
亻更	-827
廿巾	-828
儿言	-829
田心	-830
一𧘇	-831
井一𧘇	-832
豆頁	-833
㐅朩	-834
亻象	-835
▁手	-836
ti	-837
▁車	-838
囗丨𧰨	-839
勹又	-840
一自夂	-841
8665⿵⿵	-842
彐心	-843
戊一口心	-844
亻乃	-845
▁k	-846
日月皿	-847
立里	-848
勹口攵言	-849
丿二丨	-850
刀丫	-851
▁⿱⿰⿴	-852
一丨	-853
▁o	-854
𠂇又丶	-855
⿺⿸	-856
𠂉一	-857
丰阝	-858
木目心	-859
阝方	-860
一曲	-861
一曲日	-862
亠口子	-863
酉己	-864
▁入	-865
土土寸	-866
氵羊	-867
口耳	-868
气米	-869
氵夬	-870
▁e	-871
al	-872
冖一	-873
▁身	-874
讠人	-875
釆大	-876
丿冂釆大	-877
亠口冖丁	-878
丷酉	-879
厂力	-880
女母	-881
礻见	-882
亠父攵	-883
⿸⿱	-884
讠己	-885
纟内	-886
▁—	-887
彳聿	-888
𡗗氺	-889
▁⿰⿱⿴	-890
冖一豕	-891
𠂇工月	-892
⿱⿻⿱	-893
爿戈	-894
爿戈臣	-895
自心	-896
亻弗	-897
凵㐅禸隹	-898
囗大心	-899
艹冖	-900
纟己	-901
夂㐄	-902
扌巴	-903
▁196	-904
米斗	-905
一兀寸	-906
▁193	-907
▁for	-908
扌比	-909
广隶	-910
▁j	-911
cbd	-912
辶由	-913
▁30	-914
尸一口刂	-915
亻我	-916
龶糸	-917
厶虫	-918
龵目	-919
冂儿	-920
冂一	-921
厶八夂	-922
⿱⿱⿰	-923
阝日	-924
羊目	-925
is	-926
弓长	-927
十冖	-928
十冖糸	-929
比白	-930
礻且	-931
⿰⿹	-932
目廾	-933
⿰⿱⿴	-934
卅冖巾	-935
䒑山	-936
彐氺	-937
丨丨比	-938
宀寸	-939
mu	-940
▁_	-941
𠂊冫寸犬	-942
▁21	-943
力力	-944
言己	-945
▁z	-946
辶艮	-947
阝示	-948
尸口	-949
▁八	-950
辶车	-951
氵隹	-952
白巾	-953
口力刂	-954
氵又	-955
le	-956
▁土	-957
禾禾	-958
禾禾止	-959
⿱⿱⿻	-960
𠂇厶	-961
户方	-962
一龰頁	-963
▁车	-964
上小又目	-965
𠃊米	-966
艹田	-967
爿士衣	-968
七刀	-969
亡月	-970
冫欠贝	-971
亡月王	-972
亻衣	-973
刀口灬	-974
𠂊田灬禾	-975
▁专	-976
爫一	-977
木又	-978
8⿷	-979
车专	-980
⿳⿱⿻	-981
冫夬	-982
he	-983
⿱⿺	-984
𠘧口	-985
丿大口	-986
▁v	-987
口龶	-988
二乚	-989
斤斤	-990
de	-991
䒑亡	-992
▁2010	-993
𠃊人	-994
mula	-995
▁25	-996
立十力	-997
⿱⿵⿱	-998
0	-999
▁formula	-1000
日比	-1001
▁2009	-1002
冖方	-1003
亠丷冖方	-1004
▁角	-1005
▁九	-1006
𠂊亅	-1007
口又	-1008
▁州	-1009
𠂉一乁	-1010
冂二	-1011
⺆冫攵	-1012
ro	-1013
口木土	-1014
一亅	-1015
忄夬	-1016
阝東	-1017
▁史	-1018
虍豆	-1019
虍豆戈	-1020
▁192	-1021
⿱⿶⿳⿰	-1022
人一口手	-1023
口又一	-1024
耳口王	-1025
石皮	-1026
un	-1027
口口欠	-1028
it	-1029
⿶⿳⿰	-1030
一生	-1031
臼儿	-1032
▁才	-1033
⿱⿵	-1034
▁2011	-1035
白方攵	-1036
𠂇火	-1037
⿱⿹	-1038
𠁣𠃛口	-1039
夂丶	-1040
宀八犬	-1041
尹口阝	-1042
人㔾刂	-1043
亻以	-1044
女又	-1045
冫隹	-1046
艹来	-1047
戈刂	-1048
▁⿱⿱⿰	-1049
罒乑	-1050
▁乡	-1051
中一贝	-1052
谷卩	-1053
心丿	-1054
工頁	-1055
世木	-1056
一丂	-1057
丷夫㔾	-1058
⺄十	-1059
十口刂	-1060
里予	-1061
▁⿱⿶⿳⿰	-1062
㐅㐅	-1063
耳阝	-1064
夫见	-1065
000	-1066
䒑土永	-1067
el	-1068
⿱⿺	-1069
𡗗日	-1070
コ又	-1071
ic	-1072
46	-1073
at	-1074
冂丶	-1075
us	-1076
厂干	-1077
扌户	-1078
8665⿰⿱	-1079
龴疋	-1080
力口木	-1081
▁co	-1082
宀八方	-1083
隹口	-1084
丬士衣	-1085
戈戈	-1086
▁2012	-1087
几攵	-1088
山一几攵	-1089
▁⿻㇀	-1090
▁22	-1091
亠𠃊	-1092
▁子	-1093
コ一女	-1094
二丨刂	-1095
▁2013	-1096
尢丶丿	-1097
土儿土丸灬	-1098
⿸⿸	-1099
艹乂	-1100
十豆口	-1101
亠丷厂生	-1102
十贝	-1103
土八夂	-1104
▁2016	-1105
⿸⿱⿱	-1106
▁心	-1107
il	-1108
氵由	-1109
一龰页	-1110
𠂇厶隹	-1111
冖𧘇	-1112
勹缶	-1113
𠂊田一日	-1114
5⿱	-1115
人氺	-1116
口寸	-1117
门口	-1118
▁2014	-1119
宀丁	-1120
𠂉大豆	-1121
𠃌丨一	-1122
勹灬	-1123
ur	-1124
df	-1125
▁⿱⿵⿵	-1126
▁2015	-1127
▁2008	-1128
工页	-1129
隹隹又	-1130
▁24	-1131
竹朿	-1132
王王	-1133
又戈	-1134
𠂉乙	-1135
▁23	-1136
屯頁	-1137
▁zh	-1138
𠘧又耳	-1139
辶豕	-1140
⿲⿱	-1141
am	-1142
木羊	-1143
▁191	-1144
广予	-1145
87	-1146
巾白	-1147
王不	-1148
又见	-1149
䒑口	-1150
羊䒑口	-1151
肀一一田一刂	-1152
艹非	-1153
氏日	-1154
丬夕	-1155
8665⿺	-1156
木木手	-1157
▁2001	-1158
口止巨	-1159
丿皿	-1160
广土	-1161
氵酉	-1162
▁}	-1163
▁{	-1164
牙隹	-1165
st	-1166
匚㐅欠	-1167
亻十	-1168
▁the	-1169
辶力	-1170
▁⿱⿰⿱⿱	-1171
宀木	-1172
𠂊彐心	-1173
幺大	-1174
et	-1175
氵㔾	-1176
龶贝	-1177
戊一𣥂	-1178
⿰⿻	-1179
口口木	-1180
▁2017	-1181
幺幺灬	-1182
丷夫力	-1183
▁2007	-1184
士示	-1185
纟工	-1186
目八攵	-1187
▁!	-1188
氵隹十	-1189
丿之	-1190
士示欠	-1191
夂田	-1192
人人十	-1193
羊工	-1194
弓冫	-1195
▁永	-1196
𠘧又酉	-1197
彐冖巾	-1198
冖隹	-1199
𠂉巾	-1200
尸毛	-1201
囗人	-1202
夫夫	-1203
8661⿸⿸	-1204
▁母	-1205
𠂊田灬日	-1206
丬夕大	-1207
丰丰	-1208
氵聿	-1209
乛耳	-1210
夫夫日	-1211
乛耳攵	-1212
冂㐅	-1213
ch	-1214
衤里	-1215
▁2018	-1216
扌白	-1217
彡頁	-1218
⿰⿱⿹	-1219
䒑八	-1220
䒑八皿	-1221
户口	-1222
金艮	-1223
▁2006	-1224
日小	-1225
車斤	-1226
辶𠂤	-1227
⿱⿰⿱⿱	-1228
爫子	-1229
⿰⿳⿱⿻	-1230
广车	-1231
丿乚	-1232
习习白	-1233
𠂊贝	-1234
▁26	-1235
ing	-1236
一厶月攵	-1237
爿犬	-1238
▁瓦	-1239
金刂	-1240
木土	-1241
▁飛	-1242
刀金刂	-1243
囗韦	-1244
▁100	-1245
米女	-1246
口虫隹	-1247
895	-1248
扌丸灬	-1249
勹丿	-1250
凵土	-1251
幺幺灬頁	-1252
𠂉母攵	-1253
5⿰	-1254
歹刂灬	-1255
大口	-1256
𠃑大口	-1257
丷干丸	-1258
⿱⿱⿻	-1259
▁31	-1260
匕月	-1261
刀丿丶	-1262
▁⿱⿹	-1263
口夫隹	-1264
▁28	-1265
▁st	-1266
乡隹	-1267
罒非	-1268
▁27	-1269
人止	-1270
亻二	-1271
大丷	-1272
一彑	-1273
大丷日小	-1274
刀丿丶木	-1275
王丶	-1276
几口	-1277
戊𠃌皿	-1278
艹乙	-1279
犭虫	-1280
求攵	-1281
▁朱	-1282
予頁	-1283
囗人皿	-1284
亠口子攵	-1285
戈十車	-1286
▁2005	-1287
田皿	-1288
tion	-1289
as	-1290
▁书	-1291
舟见	-1292
ol	-1293
禾必	-1294
人人夂	-1295
凵田	-1296
文刂	-1297
日央	-1298
⿰⿸	-1299
一𣥂	-1300
▁甲	-1301
⿱⿵⿱	-1302
土止	-1303
▁⿱⿳𭕄	-1304
⿴⿱	-1305
尸由	-1306
▁in	-1307
⿻㇀	-1308
▁⿱⿰⿷	-1309
日业	-1310
一乚丿	-1311
一乚丿兀	-1312
匕匕心	-1313
▁木	-1314
土皮	-1315
▁x	-1316
冂二月	-1317
冂二月犬	-1318
⿰⿱⿵	-1319
𠂉大口日	-1320
日皿	-1321
▁29	-1322
▁承	-1323
木才	-1324
土儿土丸力	-1325
▁an	-1326
ow	-1327
弗贝	-1328
▁2000	-1329
木木示	-1330
▁且	-1331
耳又乑	-1332
⿳⿻	-1333
冖又	-1334
コ一冖又	-1335
阝东	-1336
亻又	-1337
一丰	-1338
▁>	-1339
子小	-1340
口口口	-1341
辶巛	-1342
ed	-1343
▁⿱⿱⿻	-1344
人人一	-1345
𠂉疋	-1346
月月	-1347
⿱⿻⿻	-1348
▁几	-1349
木及	-1350
ra	-1351
▁<	-1352
几丶木	-1353
▁190	-1354
八大	-1355
冂八大	-1356
▁⿸⿱	-1357
雨隹	-1358
▁⿲⿱	-1359
山夕	-1360
白小彡	-1361
丷酉寸	-1362
丨又	-1363
臼丨又	-1364
▁皮	-1365
▁u	-1366
冫水	-1367
8661⿵⿰	-1368
▁50	-1369
土土兀	-1370
▁⿹⿻	-1371
冂二月犬土	-1372
屯页	-1373
口止艮	-1374
▁口	-1375
夫丷	-1376
ig	-1377
▁2019	-1378
木木疋	-1379
广車	-1380
𠃋丿人刂	-1381
又隹	-1382
朿刂	-1383
▁⿱⿺	-1384
8661⿵	-1385
▁ch	-1386
口及	-1387
辶禺	-1388
爫罒	-1389
目艮	-1390
日大巾	-1391
干刂	-1392
ent	-1393
𠂊厂㔾	-1394
亻木	-1395
𠁣𠃛耳	-1396
雨彐	-1397
▁曲	-1398
扌戈	-1399
冖几	-1400
王缶	-1401
禾厶	-1402
石角	-1403
▁巨	-1404
宀于	-1405
禾火	-1406
木斤	-1407
冂口攵	-1408
▁2004	-1409
▁of	-1410
丶尸	-1411
ir	-1412
os	-1413
不口	-1414
▁ca	-1415
辶兆	-1416
十廾	-1417
龶母	-1418
▁y	-1419
犭㔾	-1420
田糸	-1421
▁⿶	-1422
▁⿱⿵	-1423
宀且	-1424
耳耳	-1425
耂匕日	-1426
口隹	-1427
戈廾	-1428
扌甫	-1429
幺幺斤	-1430
⿱⿳𭕄	-1431
弋丿	-1432
乛工	-1433
乛工一	-1434
士乛工一	-1435
艹两	-1436
丬犬	-1437
山石	-1438
丰寸	-1439
▁40	-1440
木木鬼	-1441
𠂒口非	-1442
木隹	-1443
夕㔾	-1444
艹重	-1445
钅艮	-1446
𩰋𩰊	-1447
缶夬	-1448
宀八牙	-1449
8977	-1450
車㔾	-1451
▁'	-1452
山隹	-1453
▁000	-1454
广大	-1455
中心	-1456
▁|	-1457
艹隹	-1458
艹隹臼	-1459
讠上	-1460
⿻⿺	-1461
▁田	-1462
止月	-1463
▁br	-1464
ac	-1465
厶又	-1466
爫龴	-1467
▁⿱⿻⿱	-1468
大丶心	-1469
戈十车	-1470
辶白	-1471
子皿	-1472
彑𧰨	-1473
𠃌冫	-1474
十豆寸	-1475
辶米	-1476
又又木	-1477
臣又	-1478
勹臼	-1479
om	-1480
ia	-1481
女生	-1482
䒑夫	-1483
⿱⿵⿵	-1484
口乎	-1485
丷酉大	-1486
id	-1487
阝車	-1488
刀巴	-1489
木白	-1490
冂大	-1491
𠂊冂大	-1492
土丶	-1493
▁2003	-1494
爫缶	-1495
▁=	-1496
▁革	-1497
大隹	-1498
子乚	-1499
氵气	-1500
⺊尸	-1501
火乍	-1502
比十	-1503
日十韦	-1504
禾女鬼	-1505
▁干	-1506
▁⿰⿵	-1507
▁丹	-1508
止𣥂頁	-1509
丿囗㐅	-1510
囗㐅	-1511
勹日	-1512
夕㐄木	-1513
氵甫	-1514
一丨虫	-1515
▁飞	-1516
⿰⿵	-1517
𠂤止	-1518
女又力	-1519
▁贝	-1520
车斤	-1521
月生	-1522
土厶卩	-1523
黑犬	-1524
厂㔾	-1525
𡗗禾	-1526
ut	-1527
川頁	-1528
丷夫氺	-1529
纟田	-1530
丰丰豆	-1531
20	-1532
▁2002	-1533
火火冖木	-1534
土攵	-1535
丿土攵	-1536
ot	-1537
户隹	-1538
贝攵	-1539
日大土	-1540
宀玉	-1541
46	-1542
8665⿱⿱	-1543
𠃊米斤	-1544
亡口	-1545
习习隹	-1546
大镸	-1547
亠口冖豕	-1548
亠𧘇	-1549
予页	-1550
木灬	-1551
⿷⿱	-1552
㡀攵	-1553
戈十衣	-1554
户口攵	-1555
亻戈	-1556
隹灬	-1557
▁士	-1558
黑土	-1559
丨丿彐	-1560
亠口冖毛	-1561
厂丁	-1562
扌乚	-1563
止𣥂页	-1564
木𠃓	-1565
⿱⿸	-1566
氵九	-1567
氵九木	-1568
十目	-1569
人人木隹	-1570
口丩	-1571
66⿰	-1572
阝且	-1573
田月	-1574
im	-1575
ec	-1576
▁al	-1577
扌疌	-1578
山豆	-1579
大隹寸	-1580
王朱	-1581
扌斤口	-1582
心皿	-1583
心皿丁	-1584
门耳	-1585
彡页	-1586
凵丨月	-1587
亠口冖几	-1588
勹甫	-1589
▁片	-1590
▁35	-1591
氵也	-1592
几丶心	-1593
气羊	-1594
um	-1595
土厶皿	-1596
爫木彡	-1597
亻五	-1598
亻山	-1599
口未	-1600
言川	-1601
火火冖力	-1602
𠂊田一羊	-1603
亠口子阝	-1604
爫工	-1605
爫工彐心	-1606
丷酉大阝	-1607
戈十隹	-1608
8960	-1609
em	-1610
艹冖力	-1611
▁]	-1612
扌丸力	-1613
▁60	-1614
女未	-1615
一田	-1616
一田一	-1617
⺌冖口手	-1618
肀一灬	-1619
肀一灬皿	-1620
十豆彡	-1621
▁牛	-1622
▁[	-1623
䒑土食	-1624
亻谷	-1625
王王必	-1626
iv	-1627
丨日	-1628
石更	-1629
龶夂	-1630
大示	-1631
幺力	-1632
礻乚	-1633
果页	-1634
丁頁	-1635
亚日	-1636
▁末	-1637
▁⿻⿺	-1638
田丁	-1639
禾且	-1640
不皿	-1641
糸攵	-1642
山一糸攵	-1643
𠂉母攵糸	-1644
▁ma	-1645
目八才	-1646
▁申	-1647
衤甫	-1648
囗木	-1649
▁han	-1650
𠂊田灬羊	-1651
▁⿱⿸	-1652
山豆几	-1653
〢又	-1654
▁1999	-1655
䒑土皿	-1656
▁⿺⿵	-1657
覀大	-1658
覀大巳	-1659
尸示	-1660
尸示寸	-1661
亠口了	-1662
言寸	-1663
▁1990	-1664
疋虫	-1665
辶千	-1666
九朩	-1667
⿱⿰⿸	-1668
耂子	-1669
ter	-1670
oo	-1671
▁甘	-1672
川页	-1673
二丨力	-1674
扌巨	-1675
▁门	-1676
中一㠯	-1677
50	-1678
丿巾	-1679
𠄎丿	-1680
尺⺀	-1681
歹刂衣	-1682
▁?	-1683
丰刀	-1684
木示隶	-1685
▁1998	-1686
串心	-1687
囗禾	-1688
亻乙	-1689
言方	-1690
车九	-1691
8⿰	-1692
⿱⿰⿱	-1693
山己	-1694
爿士	-1695
車欠	-1696
一日	-1697
厶厶一日	-1698
巳廾	-1699
0⿰	-1700
彐火	-1701
𠂉力	-1702
歺又	-1703
亻禺	-1704
丁页	-1705
▁la	-1706
日土	-1707
▁32	-1708
乚丿贝	-1709
▁80	-1710
土丷	-1711
▁⿳⿱⿻	-1712
㇇⿱	-1713
口口隹欠	-1714
⿴⿰	-1715
▁and	-1716
日干	-1717
ul	-1718
彳皮	-1719
纟丑	-1720
ad	-1721
冫中	-1722
▁1997	-1723
ri	-1724
牛攵	-1725
5⿱	-1726
夕㐄阝	-1727
乛水	-1728
乛水一	-1729
贝才	-1730
66⿱	-1731
and	-1732
土甫	-1733
艹罒	-1734
op	-1735
三丨	-1736
▁00	-1737
10	-1738
厶儿	-1739
𠂉一罒	-1740
ation	-1741
▁乐	-1742
扌广	-1743
纟东	-1744
▁189	-1745
弓土	-1746
冖木	-1747
立十土	-1748
宀申	-1749
彳重	-1750
亠口子丸	-1751
土龰㐅	-1752
▁1980	-1753
▁36	-1754
歹匕廾	-1755
▁45	-1756
言果	-1757
車九	-1758
巳灬	-1759
木兆	-1760
𦣞巳灬	-1761
▁70	-1762
𠂊田大	-1763
氵干	-1764
ay	-1765
歹朱	-1766
亻子	-1767
▁⿱⿰⿸	-1768
氵冘	-1769
扌斥	-1770
30	-1771
木不	-1772
8960⿰	-1773
言丁	-1774
th	-1775
艹人	-1776
艹人朩	-1777
镸彡	-1778
山己几	-1779
讠井	-1780
▁ar	-1781
▁+	-1782
⿳⿳	-1783
厶又乚	-1784
19	-1785
口月	-1786
夂口頁	-1787
言斥	-1788
▁90	-1789
▁de	-1790
8661⿻	-1791
一丨犬	-1792
土龰卜	-1793
冂二目	-1794
止匕糸	-1795
ers	-1796
幺𠃌	-1797
⿳⿱	-1798
工贝	-1799
歺又食	-1800
▁1996	-1801
口巴	-1802
艹见	-1803
日子	-1804
户隹頁	-1805
𠘧又皿	-1806
臣又土	-1807
扌兆	-1808
⿰⿵	-1809
目儿丶	-1810
十冖子	-1811
40	-1812
幺幺心	-1813
钅中	-1814
▁500	-1815
ag	-1816
车欠	-1817
阝车	-1818
礻羊	-1819
戊一火	-1820
爫臼	-1821
▁1994	-1822
丿厶	-1823
㡀攵巾	-1824
▁33	-1825
女且	-1826
讠方	-1827
8661⿰⿱	-1828
又丶	-1829
ie	-1830
▁乙	-1831
▁1995	-1832
48	-1833
工口寸	-1834
丷干犬	-1835
虫虫	-1836
⿰⿷	-1837
止匕木	-1838
▁sa	-1839
白小頁	-1840
亻犬	-1841
亠口子丸灬	-1842
䒑山刂	-1843
▁th	-1844
讠川	-1845
广由	-1846
ub	-1847
小大	-1848
衤卜	-1849
丶丶	-1850
丶丶丶	-1851
辶了	-1852
口止兆	-1853
木卯	-1854
木攵	-1855
oc	-1856
匕口	-1857
匕口灬	-1858
夂口页	-1859
艹罒冖	-1860
亻申	-1861
▁187	-1862
▁⿺⿻	-1863
▁1993	-1864
▁1992	-1865
▁com	-1866
大电	-1867
罒心	-1868
宀丰罒心	-1869
千口攵	-1870
𠃌丿	-1871
一大阝	-1872
5⿰⿱	-1873
▁188	-1874
钅戋	-1875
土口隹	-1876
▁186	-1877
66⿺	-1878
ov	-1879
车两	-1880
㇇⿱	-1881
⿰⿱⿺	-1882
▁头	-1883
▁tw	-1884
▁sh	-1885
▁un	-1886
▁1991	-1887
80	-1888
日大㣺	-1889
田一口	-1890
臼工	-1891
龙衣	-1892
口龶力	-1893
▁to	-1894
八刀頁	-1895
𠂒儿贝	-1896
一史	-1897
艹罒冖夕	-1898
氵白	-1899
ind	-1900
車甫	-1901
▁1950	-1902
▁re	-1903
革月	-1904
大寸	-1905
米立	-1906
▁37	-1907
▁q	-1908
丨丨一	-1909
千口乚	-1910
丰阝巾	-1911
土欠	-1912
8959	-1913
丿田	-1914
儿厶	-1915
冖儿干	-1916
11	-1917
▁韦	-1918
匕匕灬	-1919
田田	-1920
▁1970	-1921
▁1949	-1922
氵匚	-1923
▁示	-1924
王白	-1925
日王	-1926
▁34	-1927
▁sp	-1928
牛也	-1929
凵丨欠	-1930
凵乚	-1931
ard	-1932
冖见	-1933
金十	-1934
li	-1935
廿木	-1936
ta	-1937
艹方	-1938
十冖子力	-1939
忄不	-1940
12	-1941
人人刂	-1942
弓厶	-1943
na	-1944
人干	-1945
▁1988	-1946
8665⿹	-1947
ang	-1948
广发	-1949
▁39	-1950
勹口攵手	-1951
艹之	-1952
re	-1953
▁1989	-1954
臣又糸	-1955
▁⿰⿳⿱	-1956
扌石	-1957
爫子乚	-1958
木木幺	-1959
木彡	-1960
臼土	-1961
▁on	-1962
土夬	-1963
▁185	-1964
▁hk	-1965
ba	-1966
di	-1967
亻中	-1968
▁300	-1969
▁mar	-1970
▁1945	-1971
▁hans	-1972
25	-1973
千臼	-1974
⿰⿳⿱	-1975
灬史	-1976
▁1960	-1977
𠂉丶见	-1978
丰刀大	-1979
▁col	-1980
og	-1981
車斤日	-1982
讠寸	-1983
王文	-1984
▁言	-1985
丰丰彐心	-1986
矛木	-1987
石广	-1988
廿灬	-1989
ine	-1990
▁pro	-1991
旡旡	-1992
旡旡日	-1993
土川	-1994
ik	-1995
▁川	-1996
▁is	-1997
ph	-1998
凵丨月土	-1999
▁肉	-2000
21	-2001
▁⿳⿰	-2002
竹聿	-2003
勹田	-2004
av	-2005
〢又土	-2006
禾禾日	-2007
一火	-2008
▁55	-2009
▁1985	-2010
谷欠	-2011
王皮	-2012
▁谷	-2013
又欠	-2014
疒了	-2015
糸言糸心	-2016
pp	-2017
▁38	-2018
讠斥	-2019
⺊贝	-2020
戈𠂇	-2021
王文王	-2022
▁mo	-2023
▁1986	-2024
斤欠	-2025
舟皿	-2026
⿰⿺	-2027
冖牛	-2028
▁氏	-2029
氵永	-2030
▁46	-2031
口斤	-2032
▁见	-2033
15	-2034
果頁	-2035
土方	-2036
▁1987	-2037
衤由	-2038
人丶龴阝	-2039
▁1984	-2040
est	-2041
宀由	-2042
阝月	-2043
ion	-2044
扌𠃓	-2045
白小心	-2046
工丂	-2047
口一𧘇	-2048
女己	-2049
冂㐅刂	-2050
千口予	-2051
ows	-2052
厂㔾页	-2053
土鬼	-2054
亠父阝	-2055
土不	-2056
ou	-2057
车由	-2058
亻方	-2059
刀贝	-2060
丿丨刂	-2061
〢又糸	-2062
▁ne	-2063
▁43	-2064
艹戊	-2065
丘山	-2066
te	-2067
▁42	-2068
16	-2069
ess	-2070
钅十	-2071
口口丨	-2072
日十彡	-2073
▁1982	-2074
ss	-2075
犭言	-2076
土卜	-2077
犭言犬	-2078
土卜皿	-2079
厂里	-2080
▁1983	-2081
▁am	-2082
▁75	-2083
▁47	-2084
und	-2085
𠁣𠃛才	-2086
⿱⿰⿳	-2087
匕刂	-2088
讠丁	-2089
17	-2090
广木	-2091
忄隹	-2092
▁%	-2093
一八言	-2094
ts	-2095
丷夫刀	-2096
▁or	-2097
▁wind	-2098
匕頁	-2099
45	-2100
大弓	-2101
13	-2102
丷夫手	-2103
▁65	-2104
业䒑夫	-2105
ccdp	-2106
8665⿰⿱⿱	-2107
▁49	-2108
丿言	-2109
▁hd	-2110
衤谷	-2111
ver	-2112
47	-2113
厂彡頁	-2114
虍业	-2115
犭火	-2116
ber	-2117
▁fr	-2118
讠果	-2119
氵𠃓	-2120
彳氵	-2121
60	-2122
月巴	-2123
覀土	-2124
ly	-2125
犭王	-2126
宀丰口刂	-2127
毌贝	-2128
几又	-2129
up	-2130
▁con	-2131
35	-2132
女又心	-2133
▁1979	-2134
屯阝	-2135
巛火	-2136
亚心	-2137
▁150	-2138
井一八木	-2139
22	-2140
▁ro	-2141
ap	-2142
彐寸	-2143
▁400	-2144
扌由	-2145
sp	-2146
▁1978	-2147
▁windows	-2148
女彐	-2149
由丂	-2150
白儿	-2151
釆心	-2152
37	-2153
18	-2154
876	-2155
王册	-2156
由阝	-2157
▁en	-2158
田一口犬	-2159
辶万	-2160
𠂊田灬里	-2161
igh	-2162
口口田一口犬	-2163
子瓜	-2164
42	-2165
巛果	-2166
▁180	-2167
人一朩斗	-2168
ip	-2169
门才	-2170
㇇⿰	-2171
▁ii	-2172
口内	-2173
目八女	-2174
虍心	-2175
▁久	-2176
▁48	-2177
ge	-2178
ak	-2179
▁le	-2180
一厶廾	-2181
8⿱	-2182
戈十木	-2183
▁1981	-2184
月贝	-2185
耒毛	-2186
几木	-2187
勹米	-2188
卩丶	-2189
米且	-2190
𠂎丶	-2191
爫女	-2192
▁jo	-2193
土土卜	-2194
14	-2195
纟氏	-2196
90	-2197
23	-2198
▁tr	-2199
ell	-2200
ack	-2201
ue	-2202
▁1946	-2203
ist	-2204
一刂	-2205
8661⿱⿱	-2206
ity	-2207
丿𠃌攵	-2208
月永	-2209
氵皮女	-2210
▁斗	-2211
▁1958	-2212
ica	-2213
▁at	-2214
27	-2215
od	-2216
ab	-2217
▁te	-2218
26	-2219
竹毛	-2220
𠂉大巨	-2221
𠃊人欠	-2222
井一八⺀	-2223
束刂	-2224
ich	-2225
人一朩又	-2226
扌以	-2227
if	-2228
习习立	-2229
匚王	-2230
宀火	-2231
二厶鬼	-2232
丶丶丶皿	-2233
口口山	-2234
非一	-2235
▁64	-2236
尸巾	-2237
尸巾刂	-2238
▁1920	-2239
车甫	-2240
扌夫	-2241
▁44	-2242
日女	-2243
24	-2244
丷八月	-2245
口土	-2246
▁57	-2247
36	-2248
土隹	-2249
uc	-2250
▁56	-2251
歹戋	-2252
一大㣺	-2253
8665⿰⿱⿺	-2254
ong	-2255
木木石	-2256
▁1930	-2257
▁85	-2258
ear	-2259
ey	-2260
▁ex	-2261
▁1948	-2262
▁1940	-2263
29	-2264
冖且	-2265
亠幺田	-2266
▁1975	-2267
lay	-2268
扌甲	-2269
▁ph	-2270
匕页	-2271
bo	-2272
⿱⿱⿰	-2273
又阝	-2274
▁66	-2275
ill	-2276
▁1937	-2277
辶隶	-2278
女兆	-2279
垂阝	-2280
礻巳	-2281
𠃜目	-2282
女𦣞	-2283
氵王	-2284
▁120	-2285
灬心	-2286
28	-2287
犭讠	-2288
犭讠犬	-2289
▁so	-2290
▁1956	-2291
車由	-2292
▁⿱⿴⿱	-2293
癶豆阝	-2294
▁ad	-2295
虫朱	-2296
all	-2297
小隹	-2298
艹亡	-2299
𠂊丶	-2300
▁1947	-2301
8960⿱	-2302
𠂤十	-2303
ry	-2304
▁par	-2305
33	-2306
8661⿸	-2307
𠂊彐	-2308
乛水一灬	-2309
▁pr	-2310
言羊	-2311
66⿱⿻	-2312
▁1000	-2313
亻九	-2314
▁1941	-2315
▁丘	-2316
⺊又	-2317
▁⿰⿱⿻	-2318
覀贝	-2319
▁1976	-2320
朿朿	-2321
▁⿱⿰⿳	-2322
38	-2323
亻寸肉	-2324
ma	-2325
▁耳	-2326
sh	-2327
39	-2328
木乚	-2329
丷八牛	-2330
车斤日	-2331
▁1973	-2332
ian	-2333
厂万	-2334
角虫	-2335
土厶力	-2336
ve	-2337
▁1972	-2338
纟屯	-2339
▁bo	-2340
丿二丨刂	-2341
▁1966	-2342
氵欠	-2343
亠丷厂彡页	-2344
▁1955	-2345
▁76	-2346
彳钅	-2347
口贝力	-2348
▁1952	-2349
艹肃	-2350
▁cn	-2351
70	-2352
io	-2353
月刂心	-2354
竹龙	-2355
木木夕	-2356
49	-2357
32	-2358
車車	-2359
八刀页	-2360
丿丿心	-2361
▁600	-2362
▁59	-2363
人一朩攵	-2364
▁牙	-2365
▁1974	-2366
止匕角	-2367
肀月	-2368
8665⿰⿺	-2369
釆丂	-2370
丿囗釆丂	-2371
⿹⿻⿱	-2372
大冖牛	-2373
▁1977	-2374
bs	-2375
▁1968	-2376
非心	-2377
ff	-2378
▁ac	-2379
忄亡	-2380
44	-2381
⿹⿱	-2382
乛亅丿	-2383
man	-2384
女乃	-2385
▁1954	-2386
86	-2387
se	-2388
ft	-2389
▁95	-2390
▁77	-2391
▁1938	-2392
▁1964	-2393
▁1965	-2394
▁1939	-2395
彳金	-2396
ord	-2397
火丁	-2398
34	-2399
月几	-2400
⿻⿱	-2401
▁800	-2402
▁1971	-2403
▁1944	-2404
亻韦	-2405
田田土	-2406
enter	-2407
▁179	-2408
木朱	-2409
▁1959	-2410
十廾贝	-2411
氵欠皿	-2412
田比	-2413
▁jr	-2414
▁gr	-2415
ign	-2416
八口𧘇	-2417
牙阝	-2418
▁隶	-2419
亠里	-2420
亠里𧘇	-2421
⿱⿰⿷	-2422
▁1969	-2423
亻弋衣	-2424
▁yo	-2425
覀木	-2426
▁1957	-2427
31	-2428
▁cd	-2429
口欠	-2430
王白石	-2431
讠内	-2432
▁99	-2433
忄白	-2434
ud	-2435
一中	-2436
一中冖	-2437
▁1942	-2438
▁1967	-2439
75	-2440
⿱⿵	-2441
十月	-2442
十月丶	-2443
tic	-2444
▁sc	-2445
⿳⿳	-2446
▁nba	-2447
ice	-2448
▁58	-2449
▁88	-2450
又丶虫	-2451
▁1953	-2452
one	-2453
ps	-2454
石页	-2455
亻丨攵	-2456
艹禺力	-2457
口屯	-2458
冫欠口	-2459
非文	-2460
コ一丿	-2461
月刂刀	-2462
乃子	-2463
▁41	-2464
宀禺	-2465
▁1961	-2466
氵丁	-2467
䒑土女	-2468
ive	-2469
八刀皿	-2470
一丂阝	-2471
▁1935	-2472
扌爪	-2473
氵中	-2474
木卜	-2475
九丶	-2476
言刂	-2477
龷八㣺	-2478
▁69	-2479
▁1962	-2480
▁1963	-2481
41	-2482
▁1943	-2483
虫工	-2484
▁井	-2485
▁as	-2486
▁1936	-2487
⿰⿸⿸	-2488
予象	-2489
8665⿵	-2490
㐅乂木	-2491
43	-2492
ace	-2493
土里	-2494
㐅乂木大	-2495
▁51	-2496
ug	-2497
士冖	-2498
立𧰨	-2499
ate	-2500
▁尺	-2501
▁1951	-2502
⿰⿰	-2503
▁me	-2504
▁wh	-2505
qu	-2506
▁160	-2507
鬼斗	-2508
亻火	-2509
ith	-2510
石頁	-2511
▁52	-2512
辶韦	-2513
止匕隹	-2514
ty	-2515
氵女	-2516
▁goo	-2517
力力月	-2518
艹矛	-2519
扌口	-2520
立十言	-2521
▁sm	-2522
▁se	-2523
日大力	-2524
▁瓜	-2525
目隹	-2526
刀牛虫	-2527
▁⿰⿱⿺	-2528
▁ng	-2529
▁tv	-2530
一大口	-2531
宀八乙	-2532
▁cr	-2533
ore	-2534
pe	-2535
金重	-2536
扌皮	-2537
ton	-2538
ne	-2539
耒井	-2540
艹本	-2541
丰刀糸	-2542
门王	-2543
纟文	-2544
▁⿰⿸⿱⿱	-2545
65	-2546
▁1933	-2547
▁op	-2548
⿹⿻	-2549
匚儿力	-2550
ect	-2551
▁2020	-2552
⺌月刂	-2553
▁1927	-2554
亻士	-2555
宀必虫	-2556
▁67	-2557
而寸	-2558
一廾瓦	-2559
幺大隹	-2560
ock	-2561
亡心	-2562
▁177	-2563
土贝	-2564
ah	-2565
ix	-2566
ant	-2567
▁1928	-2568
丬士	-2569
讠羊	-2570
䒑土灬	-2571
46⿰	-2572
氵巨	-2573
氵巨木	-2574
▁it	-2575
son	-2576
▁be	-2577
斤丶	-2578
▁54	-2579
▁1931	-2580
水日	-2581
▁bl	-2582
▁79	-2583
▁⿻⿵	-2584
〢又贝	-2585
eam	-2586
▁1932	-2587
▁sch	-2588
▁68	-2589
ux	-2590
丘阝	-2591
户攵	-2592
end	-2593
▁ed	-2594
0⿱	-2595
8665⿻	-2596
𠁣𠃛王	-2597
▁id	-2598
▁ap	-2599
▁97	-2600
钅甫	-2601
▁厂	-2602
▁豆	-2603
▁1934	-2604
口非	-2605
尸水	-2606
▁sy	-2607
▁play	-2608
▁dv	-2609
▁cl	-2610
ens	-2611
▁96	-2612
ib	-2613
ga	-2614
宀八乍	-2615
gle	-2616
且厶心	-2617
▁car	-2618
▁inter	-2619
ment	-2620
⺌贝	-2621
▁gam	-2622
▁ra	-2623
▁hant	-2624
刀口阝	-2625
▁pa	-2626
▁53	-2627
ook	-2628
▁lin	-2629
千口甘	-2630
目目隹	-2631
亠丷厂彡	-2632
56	-2633
ond	-2634
▁1929	-2635
禾刂木	-2636
ight	-2637
▁110	-2638
⿸⿱	-2639
▁dr	-2640
亠田	-2641
丿糸心	-2642
mp	-2643
ina	-2644
厂万力	-2645
乃又	-2646
乃又皿	-2647
int	-2648
尸雨	-2649
目垂	-2650
ick	-2651
▁we	-2652
hn	-2653
コ一人	-2654
▁700	-2655
⺌冖口贝	-2656
▁⿰⿺	-2657
▁86	-2658
ern	-2659
▁ht	-2660
83	-2661
𠂉丶金	-2662
氵户	-2663
▁us	-2664
ke	-2665
8665⿸	-2666
⿻⿱	-2667
钅欠	-2668
▁man	-2669
士冖豆	-2670
𠁣𠃛虫	-2671
ii	-2672
扌斤言	-2673
卩示	-2674
▁89	-2675
▁1912	-2676
▁⿰⿳⿱⿻	-2677
▁⿳⿳	-2678
木干	-2679
讠刂	-2680
冫欠瓦	-2681
金欠	-2682
力口贝	-2683
丿木	-2684
▁87	-2685
▁hr	-2686
▁ak	-2687
▁⿻⿻	-2688
ll	-2689
ort	-2690
▁my	-2691
𠂤巾	-2692
▁no	-2693
▁new	-2694
乀丿口	-2695
▁72	-2696
丨丿巾	-2697
82	-2698
亻丨攵心	-2699
ld	-2700
王廾	-2701
忄乙	-2702
▁130	-2703
冫欠女	-2704
贝贝	-2705
▁mus	-2706
▁dvd	-2707
ance	-2708
▁140	-2709
不一	-2710
ory	-2711
耳又女	-2712
▁1925	-2713
自犬	-2714
尸示寸心	-2715
ung	-2716
立十月	-2717
yle	-2718
▁⿰⿱⿱⿱⿰	-2719
▁wor	-2720
▁1924	-2721
81	-2722
▁1919	-2723
▁臣	-2724
99	-2725
饣欠	-2726
▁1918	-2727
▁qu	-2728
▁⿱⿰⿱⿴	-2729
匚一	-2730
牛生	-2731
𠘧又糸	-2732
口尺	-2733
匕禾	-2734
忄艮	-2735
▁google	-2736
ure	-2737
▁⿰⿴	-2738
84	-2739
▁mon	-2740
▁1926	-2741
月干	-2742
so	-2743
ai	-2744
▁柬	-2745
▁mv	-2746
口巾	-2747
55	-2748
月力	-2749
tv	-2750
月非	-2751
▁250	-2752
▁ip	-2753
户月	-2754
厂彡	-2755
62	-2756
扌丑	-2757
▁170	-2758
小丿力	-2759
广比	-2760
▁1922	-2761
▁ge	-2762
亠口𧘇	-2763
lo	-2764
礻斤	-2765
53	-2766
xt	-2767
氵文	-2768
co	-2769
▁ho	-2770
▁1914	-2771
▁63	-2772
▁center	-2773
戊丶	-2774
丿士几	-2775
8661⿰⿱⿰	-2776
▁62	-2777
95	-2778
tr	-2779
𠁣𠃛人	-2780
目大	-2781
竹目大	-2782
▁61	-2783
iss	-2784
mm	-2785
皮頁	-2786
贝贝女	-2787
人目	-2788
冂一八	-2789
1900	-2790
八刀贝	-2791
iz	-2792
57	-2793
己心	-2794
▁sao	-2795
衤果	-2796
ck	-2797
立十讠	-2798
冫欠皿	-2799
8665⿰⿸	-2800
▁1913	-2801
⿰⿱⿱⿱⿰	-2802
▁166	-2803
▁john	-2804
八厶𧘇	-2805
乍心	-2806
59	-2807
ube	-2808
▁ser	-2809
67	-2810
石专	-2811
▁1917	-2812
dice	-2813
▁1923	-2814
爪巴	-2815
丷田一口	-2816
to	-2817
▁po	-2818
▁av	-2819
口口隹力	-2820
户攵聿	-2821
丂戈	-2822
禾丂戈	-2823
▁back	-2824
▁lov	-2825
▁codice	-2826
68	-2827
69	-2828
▁1921	-2829
▁ist	-2830
艹巴	-2831
ris	-2832
ide	-2833
艹夫	-2834
土龰干	-2835
me	-2836
气弗	-2837
甘欠	-2838
ans	-2839
木木火	-2840
▁comp	-2841
木象	-2842
ial	-2843
一巛工力	-2844
身弓	-2845
51	-2846
▁1911	-2847
52	-2848
8⿱⿵	-2849
▁3000	-2850
乀丿寸	-2851
ational	-2852
▁style	-2853
64	-2854
▁net	-2855
een	-2856
▁wil	-2857
8960⿳	-2858
cl	-2859
54	-2860
▁app	-2861
木東	-2862
5⿹	-2863
art	-2864
ary	-2865
▁dna	-2866
▁bb	-2867
0⿰⿱	-2868
ence	-2869
round	-2870
亻为	-2871
隹乃	-2872
8665⿱⿰	-2873
8661⿺	-2874
𠂇月阝	-2875
辶尺	-2876
92	-2877
58	-2878
广龙	-2879
span	-2880
目民	-2881
▁colspan	-2882
ire	-2883
▁met	-2884
幺冖牛	-2885
▁istat	-2886
㇇⿸	-2887
▁1900	-2888
▁can	-2889
口口一	-2890
▁74	-2891
▁sil	-2892
97	-2893
𠂊田一禾	-2894
▁1909	-2895
ier	-2896
▁er	-2897
㐅乂木大手	-2898
土申	-2899
land	-2900
ank	-2901
▁su	-2902
ies	-2903
age	-2904
门虫	-2905
亻為	-2906
▁pl	-2907
▁per	-2908
氵戋	-2909
▁78	-2910
▁73	-2911
⿻⿵	-2912
夕㔾心	-2913
⿸⿱⿱	-2914
▁yout	-2915
▁km	-2916
▁bar	-2917
父巴	-2918
▁el	-2919
犭瓜	-2920
5⿺	-2921
eat	-2922
ite	-2923
96	-2924
71	-2925
⿱⿻⿱	-2926
8⿰⿱	-2927
▁one	-2928
⿳⿻	-2929
76	-2930
車干	-2931
▁fo	-2932
缶工	-2933
▁now	-2934
▁101	-2935
𠘧又月	-2936
ky	-2937
匚非	-2938
▁止	-2939
▁mac	-2940
▁ag	-2941
78	-2942
一巛工頁	-2943
▁mic	-2944
目夂	-2945
▁71	-2946
冂人目夂	-2947
98	-2948
九日	-2949
▁es	-2950
▁1910	-2951
ley	-2952
72	-2953
93	-2954
8960⿰⿱	-2955
▁98	-2956
▁align	-2957
▁ha	-2958
63	-2959
口甫	-2960
▁犬	-2961
61	-2962
ish	-2963
非衣	-2964
亡目	-2965
𠁣𠃛甲	-2966
lar	-2967
皮页	-2968
▁82	-2969
▁do	-2970
人一口皿	-2971
ground	-2972
for	-2973
73	-2974
匚斤	-2975
▁bd	-2976
艮土	-2977
▁ga	-2978
疒艮	-2979
▁己	-2980
止龰	-2981
又力	-2982
▁ngc	-2983
74	-2984
▁81	-2985
▁⿻⿱	-2986
▁⿱⿰⿰	-2987
且一八頁	-2988
匚甲	-2989
▁tra	-2990
ath	-2991
口口几	-2992
▁ps	-2993
▁pc	-2994
米丂	-2995
are	-2996
▁⿱⿱⿲	-2997
79	-2998
厶牛	-2999
一八欠	-3000
ead	-3001
▁cor	-3002
ivers	-3003
▁900	-3004
丿二丨小	-3005
▁1905	-3006
ass	-3007
ust	-3008
人一朩土	-3009
▁coun	-3010
▁1915	-3011
ann	-3012
𠁣𠃛月	-3013
▁1916	-3014
ster	-3015
▁os	-3016
▁str	-3017
station	-3018
亻弋黑	-3019
▁background	-3020
▁sup	-3021
丿囗米丂	-3022
扌彐	-3023
iki	-3024
▁1901	-3025
iel	-3026
▁戊	-3027
▁em	-3028
94	-3029
▁84	-3030
ere	-3031
▁83	-3032
ile	-3033
女干	-3034
▁爪	-3035
ha	-3036
va	-3037
ok	-3038
own	-3039
▁欠	-3040
tive	-3041
▁cp	-3042
爿一	-3043
片爿一	-3044
ome	-3045
▁color	-3046
▁love	-3047
▁弓	-3048
▁playstation	-3049
氵谷	-3050
old	-3051
▁you	-3052
les	-3053
▁ep	-3054
ins	-3055
91	-3056
▁gen	-3057
▁1500	-3058
5%	-3059
八丂	-3060
且一八页	-3061
use	-3062
▁gro	-3063
▁go	-3064
▁gu	-3065
纟千	-3066
▁5000	-3067
▁youtube	-3068
▁sn	-3069
▁92	-3070
ool	-3071
立十束	-3072
▁all	-3073
石几	-3074
ys	-3075
▁nh	-3076
▁1903	-3077
5⿸	-3078
▁min	-3079
竹由	-3080
金甫	-3081
大隹田	-3082
ara	-3083
户犬	-3084
▁廿	-3085
▁text	-3086
pt	-3087
▁li	-3088
01	-3089
be	-3090
▁intern	-3091
▁sw	-3092
ime	-3093
木木彡	-3094
言隹	-3095
▁05	-3096
⺌冖口木	-3097
▁live	-3098
▁linux	-3099
▁res	-3100
▁ta	-3101
丰丰彐	-3102
弓瓜	-3103
ico	-3104
▁he	-3105
ms	-3106
▁1906	-3107
▁1908	-3108
宀八力	-3109
▁1907	-3110
book	-3111
66⿰⿱	-3112
口且	-3113
冫欠心	-3114
疋月	-3115
tp	-3116
ood	-3117
▁face	-3118
8960⿺	-3119
▁micro	-3120
▁med	-3121
0⿸	-3122
口一心	-3123
ho	-3124
ml	-3125
火火冖虫	-3126
王攵	-3127
立十瓜	-3128
▁91	-3129
ram	-3130
8665⿳	-3131
▁univers	-3132
一自戈	-3133
▁cla	-3134
王鬼	-3135
▁360	-3136
宀牛	-3137
▁ab	-3138
土立	-3139
⿰⿳⿱	-3140
▁des	-3141
▁93	-3142
▁with	-3143
木口	-3144
▁da	-3145
▁mat	-3146
纟韦	-3147
▁105	-3148
▁1904	-3149
5⿰⿱⿱	-3150
氵十	-3151
门木	-3152
▁silver	-3153
▁by	-3154
▁ste	-3155
巛果刂	-3156
km	-3157
▁ba	-3158
𠃋丿人力	-3159
⿱⿴⿱	-3160
竹目大糸	-3161
rom	-3162
uk	-3163
镸聿	-3164
▁06	-3165
tor	-3166
女亚	-3167
土及	-3168
▁dav	-3169
非車	-3170
ana	-3171
臣卜	-3172
氏丶阝	-3173
tc	-3174
ls	-3175
udi	-3176
犬廾	-3177
艹犬廾	-3178
▁09	-3179
▁char	-3180
per	-3181
氵必	-3182
口电	-3183
幺幺田	-3184
丨丨比土	-3185
冂卄頁	-3186
▁har	-3187
▁star	-3188
0⿻	-3189
▁fl	-3190
da	-3191
丆且	-3192
▁super	-3193
▁sec	-3194
艹牙	-3195
eng	-3196
▁world	-3197
▁ty	-3198
丿米	-3199
▁ea	-3200
sa	-3201
8665⿸⿸	-3202
lec	-3203
▁iii	-3204
enn	-3205
ose	-3206
火户	-3207
匕禾頁	-3208
▁lo	-3209
bert	-3210
▁尸	-3211
▁di	-3212
丿米丨	-3213
▁bro	-3214
氵山	-3215
酉州	-3216
▁pe	-3217
火东	-3218
耂日灬	-3219
冖果	-3220
彑冖果	-3221
▁94	-3222
ork	-3223
ower	-3224
urn	-3225
dr	-3226
ony	-3227
▁⿳⿻	-3228
言永	-3229
文而	-3230
士冖一	-3231
宀臣	-3232
八厶頁	-3233
ium	-3234
mer	-3235
pl	-3236
▁her	-3237
lex	-3238
ds	-3239
大田	-3240
▁dis	-3241
▁music	-3242
木东	-3243
▁mm	-3244
氵世	-3245
▁07	-3246
艹心	-3247
ame	-3248
八丂皿	-3249
尢力	-3250
▁bla	-3251
门甲	-3252
▁bas	-3253
br	-3254
覀米	-3255
⿰⿴	-3256
uth	-3257
5⿱⿱	-3258
▁air	-3259
der	-3260
▁akb	-3261
gb	-3262
▁01	-3263
▁school	-3264
▁350	-3265
stem	-3266
人一口頁	-3267
▁nor	-3268
▁cc	-3269
▁na	-3270
▁1898	-3271
ward	-3272
olog	-3273
丘丿	-3274
▁fa	-3275
▁1895	-3276
ata	-3277
▁ms	-3278
里予土	-3279
yn	-3280
▁08	-3281
ven	-3282
▁1902	-3283
口止戋	-3284
⿱⿵⿵	-3285
▁⿸⿸⿸	-3286
丷豕土	-3287
门人	-3288
anc	-3289
火柬	-3290
iti	-3291
扌发	-3292
▁页	-3293
▁束	-3294
▁⿷⿱	-3295
▁ua	-3296
ka	-3297
box	-3298
禾隹	-3299
果𧘇	-3300
亠果𧘇	-3301
羊乚	-3302
亻卜	-3303
ual	-3304
▁facebook	-3305
oth	-3306
▁je	-3307
▁ver	-3308
丨丨一刂	-3309
▁⿰⿱⿳	-3310
amp	-3311
耳火	-3312
虍几彡	-3313
▁gra	-3314
pr	-3315
犭里	-3316
禾刂牛	-3317
ical	-3318
宀八缶	-3319
6%	-3320
▁pet	-3321
米糸	-3322
扌卜	-3323
耳卯	-3324
eal	-3325
ki	-3326
ale	-3327
米糸廾	-3328
中𧘇	-3329
亠中𧘇	-3330
4%	-3331
鬼未	-3332
月方	-3333
月中	-3334
46⿱	-3335
3%	-3336
▁rec	-3337
▁ka	-3338
soft	-3339
eed	-3340
▁104	-3341
纟方	-3342
▁system	-3343
▁vis	-3344
vel	-3345
丿丿丶	-3346
禺心	-3347
▁ass	-3348
月𠃓	-3349
▁af	-3350
石欠	-3351
▁ww	-3352
ude	-3353
厶厶土	-3354
牛土	-3355
▁pol	-3356
甫方攵	-3357
钅内	-3358
ash	-3359
▁ib	-3360
口止止	-3361
月豕	-3362
8665⿱⿱⿱	-3363
7%	-3364
▁web	-3365
▁pla	-3366
8960⿸	-3367
▁⿰⿻⿵	-3368
凵㐅儿	-3369
千口甫	-3370
2%	-3371
▁dc	-3372
▁sur	-3373
▁mc	-3374
mb	-3375
▁up	-3376
cal	-3377
艹户	-3378
一白弓	-3379
liam	-3380
eet	-3381
▁ic	-3382
巛田	-3383
tain	-3384
臣又月	-3385
虍力	-3386
丿土攵心	-3387
ker	-3388
㡀攵廾	-3389
▁ス	-3390
▁央	-3391
▁4000	-3392
8%	-3393
▁int	-3394
▁jav	-3395
匚巾	-3396
冫東	-3397
歺又米	-3398
▁108	-3399
dp	-3400
itt	-3401
▁102	-3402
▁jam	-3403
▁bbc	-3404
▁vo	-3405
roid	-3406
▁1890	-3407
▁high	-3408
▁106	-3409
▁che	-3410
▁ref	-3411
犭且	-3412
册刂	-3413
▁gn	-3414
▁125	-3415
歹千	-3416
立口刂	-3417
▁04	-3418
月重	-3419
▁02	-3420
口里	-3421
ler	-3422
女我	-3423
▁103	-3424
▁ss	-3425
icon	-3426
▁del	-3427
ited	-3428
9%	-3429
▁red	-3430
▁mor	-3431
豸艮土	-3432
▁1896	-3433
⿺⿸	-3434
ner	-3435
口木𧘇	-3436
氵文刂	-3437
hz	-3438
asa	-3439
pa	-3440
▁220	-3441
▁gir	-3442
▁⿰⿸⿸	-3443
▁im	-3444
▁1200	-3445
丘丶	-3446
▁nowiki	-3447
▁off	-3448
▁mag	-3449
▁mark	-3450
▁wal	-3451
臣人	-3452
口于	-3453
▁hy	-3454
礻氏	-3455
ane	-3456
亻弋贝	-3457
彐一八車	-3458
士冖一禾	-3459
▁ir	-3460
▁頁	-3461
8665⿱⿲	-3462
纟丩	-3463
ille	-3464
▁william	-3465
申𠃓	-3466
▁microsoft	-3467
▁1897	-3468
饣虫	-3469
za	-3470
日隹	-3471
▁game	-3472
uch	-3473
▁val	-3474
▁cont	-3475
亠口了灬	-3476
彐氺刂	-3477
广户	-3478
1%	-3479
8661⿱⿰	-3480
覀土瓦	-3481
▁not	-3482
▁iv	-3483
月女	-3484
甘阝	-3485
▁1899	-3486
ula	-3487
▁ter	-3488
▁115	-3489
月土	-3490
▁team	-3491
▁⿱⿶	-3492
ink	-3493
▁册	-3494
亻弋山	-3495
氵心	-3496
𠂊田灬由	-3497
礻阝	-3498
▁android	-3499
𠂊冫寸水	-3500
illa	-3501
▁div	-3502
ont	-3503
ike	-3504
▁tvb	-3505
▁mr	-3506
ya	-3507
8661⿴	-3508
幺月	-3509
幺月乚	-3510
𠂇火皿	-3511
阝龙	-3512
讠隹	-3513
氵末	-3514
▁107	-3515
▁ev	-3516
▁兆	-3517
丶丶丶匕	-3518
▁enter	-3519
疒皮	-3520
eth	-3521
▁san	-3522
▁group	-3523
▁cb	-3524
▁war	-3525
05	-3526
▁1889	-3527
⺌冖口牙	-3528
▁university	-3529
▁ec	-3530
ise	-3531
tions	-3532
▁cy	-3533
ena	-3534
▁international	-3535
▁nhk	-3536
未攵	-3537
舟白	-3538
▁虫	-3539
王厶	-3540
▁舟	-3541
▁du	-3542
宀龙	-3543
▁卜	-3544
▁03	-3545
▁vi	-3546
⿰⿱⿶	-3547
丶丶丶匕彡	-3548
氵斤	-3549
𠂇口心	-3550
ings	-3551
▁iso	-3552
丷夫目	-3553
ble	-3554
oss	-3555
▁prod	-3556
木冖	-3557
木缶	-3558
木缶木冖	-3559
ks	-3560
ino	-3561
▁ig	-3562
▁⿵⿱⿱	-3563
扌末	-3564
ham	-3565
▁studi	-3566
氵夕	-3567
田皿頁	-3568
艹甘	-3569
ae	-3570
九力	-3571
一廾阝	-3572
iro	-3573
▁show	-3574
▁saint	-3575
月夫	-3576
▁109	-3577
che	-3578
▁ce	-3579
木更	-3580
way	-3581
▁111	-3582
▁240	-3583
彐一八车	-3584
雨文	-3585
oph	-3586
▁ke	-3587
▁david	-3588
▁ber	-3589
心心	-3590
▁450	-3591
urg	-3592
贝长	-3593
work	-3594
⿰⿸⿱⿱	-3595
▁50%	-3596
▁open	-3597
金隹	-3598
fa	-3599
▁lu	-3600
dy	-3601
丷十	-3602
门文	-3603
竹立	-3604
火頁	-3605
pm	-3606
ero	-3607
ult	-3608
冂口月	-3609
ement	-3610
▁et	-3611
▁1860	-3612
▁10%	-3613
wa	-3614
▁comm	-3615
go	-3616
tis	-3617
▁sd	-3618
▁big	-3619
自木	-3620
𠂎卩	-3621
▁1880	-3622
▁mi	-3623
8⿻	-3624
▁1600	-3625
▁128	-3626
03	-3627
▁112	-3628
ute	-3629
mo	-3630
▁she	-3631
▁bu	-3632
▁1894	-3633
⿰⿱⿰	-3634
▁day	-3635
▁cent	-3636
lin	-3637
ons	-3638
▁xbox	-3639
山我	-3640
ス工页	-3641
▁geor	-3642
▁bra	-3643
▁135	-3644
▁that	-3645
02	-3646
uro	-3647
46⿸	-3648
八厶页	-3649
𠂊冫寸酉	-3650
▁ind	-3651
▁tech	-3652
8665⿺⿱	-3653
▁cm	-3654
▁soc	-3655
羊丑	-3656
5⿳	-3657
匕禾页	-3658
▁fin	-3659
▁1800	-3660
▁ins	-3661
▁sol	-3662
𠂊小心	-3663
8661⿰⿳	-3664
cm	-3665
门柬	-3666
▁bea	-3667
▁pop	-3668
灬也	-3669
里儿土	-3670
虍文	-3671
▁eng	-3672
▁mil	-3673
▁lim	-3674
8⿱⿱	-3675
▁http	-3676
▁cro	-3677
▁ts	-3678
▁⿰⿱⿰⿱	-3679
car	-3680
甲一阝	-3681
▁reg	-3682
立十玉	-3683
ari	-3684
▁mich	-3685
▁paul	-3686
彑氺刂	-3687
▁1870	-3688
td	-3689
▁top	-3690
▁sam	-3691
亠口子丸土	-3692
▁sim	-3693
▁230	-3694
enti	-3695
era	-3696
▁national	-3697
虫丰	-3698
▁tom	-3699
𠘧又石	-3700
⿸⿸⿸	-3701
▁county	-3702
▁from	-3703
言乍	-3704
▁max	-3705
▁ds	-3706
巾长	-3707
木乚糸	-3708
▁1871	-3709
▁fc	-3710
▁mk	-3711
tit	-3712
▁113	-3713
▁don	-3714
丬夕水	-3715
▁gl	-3716
▁155	-3717
▁rich	-3718
▁1885	-3719
orn	-3720
let	-3721
亻朱	-3722
▁6000	-3723
04	-3724
〢又月	-3725
非车	-3726
▁black	-3727
⿷⿱	-3728
▁cs	-3729
糸言糸虫	-3730
▁trans	-3731
月长	-3732
石水	-3733
las	-3734
一止心	-3735
▁time	-3736
▁city	-3737
ze	-3738
▁118	-3739
fo	-3740
一龰匕	-3741
ene	-3742
▁games	-3743
08	-3744
▁mer	-3745
att	-3746
▁win	-3747
酉鬼	-3748
阝人土	-3749
日十戈	-3750
cy	-3751
▁fla	-3752
▁20%	-3753
▁sk	-3754
▁out	-3755
06	-3756
my	-3757
phone	-3758
po	-3759
gr	-3760
iver	-3761
▁kn	-3762
▁rad	-3763
⿰⿹⿶	-3764
ald	-3765
ael	-3766
▁sun	-3767
▁⿸⿱⿰	-3768
▁114	-3769
木矛木	-3770
osh	-3771
弋心	-3772
ife	-3773
▁122	-3774
▁was	-3775
大十	-3776
▁ang	-3777
que	-3778
erica	-3779
▁tri	-3780
str	-3781
▁sal	-3782
未攵厂里	-3783
日立	-3784
夂卜口	-3785
𠂇工月土	-3786
▁ur	-3787
口比	-3788
tiv	-3789
▁117	-3790
冂人禸	-3791
▁ios	-3792
▁type	-3793
厂犬	-3794
▁dj	-3795
▁ko	-3796
ese	-3797
▁pat	-3798
▁mp	-3799
爿女	-3800
any	-3801
竹二	-3802
▁280	-3803
▁power	-3804
衤彡	-3805
wn	-3806
ita	-3807
unt	-3808
▁210	-3809
谷欠心	-3810
山甲	-3811
八刀山	-3812
▁rock	-3813
▁116	-3814
ject	-3815
▁org	-3816
木果	-3817
bl	-3818
ark	-3819
osa	-3820
艹斤	-3821
▁bet	-3822
▁king	-3823
▁sing	-3824
itter	-3825
ital	-3826
钅隹	-3827
一儿	-3828
▁alex	-3829
▁james	-3830
▁sl	-3831
▁1884	-3832
父斤	-3833
▁are	-3834
▁utc	-3835
▁1892	-3836
扌予	-3837
几丶革	-3838
fc	-3839
⿳⿲	-3840
ics	-3841
▁fir	-3842
▁1886	-3843
por	-3844
▁america	-3845
艹内	-3846
▁jun	-3847
木冘	-3848
▁java	-3849
8665⿱⿻	-3850
line	-3851
口米	-3852
can	-3853
▁vol	-3854
木矛木心	-3855
bi	-3856
戈十口	-3857
钅月	-3858
女女	-3859
饣几	-3860
▁inc	-3861
▁kh	-3862
▁123	-3863
▁jap	-3864
ス工力	-3865
▁dir	-3866
▁class	-3867
▁oricon	-3868
▁1888	-3869
宀八弓	-3870
ior	-3871
▁only	-3872
▁ben	-3873
07	-3874
pg	-3875
▁1893	-3876
▁mod	-3877
▁rna	-3878
▁1887	-3879
ini	-3880
工水	-3881
ott	-3882
▁thom	-3883
▁90%	-3884
▁ibm	-3885
コ儿	-3886
白コ儿	-3887
革巴	-3888
8960⿰⿱⿱	-3889
丿丿皿	-3890
⿻⿵	-3891
mun	-3892
ology	-3893
礻也	-3894
▁kar	-3895
豆寸	-3896
▁michael	-3897
木隶	-3898
▁750	-3899
▁record	-3900
▁robert	-3901
▁320	-3902
艹朱	-3903
ield	-3904
▁cpu	-3905
del	-3906
ict	-3907
▁sar	-3908
▁260	-3909
▁iphone	-3910
▁free	-3911
▁121	-3912
▁127	-3913
by	-3914
berg	-3915
▁80%	-3916
▁ol	-3917
▁bel	-3918
▁bi	-3919
▁bm	-3920
▁1876	-3921
▁2500	-3922
5⿱⿳	-3923
ther	-3924
itch	-3925
竹目大厶	-3926
▁1861	-3927
▁ve	-3928
▁fe	-3929
ama	-3930
▁129	-3931
▁145	-3932
▁phil	-3933
▁ef	-3934
车干	-3935
▁techn	-3936
虫我	-3937
火巨	-3938
gh	-3939
▁1850	-3940
礻必	-3941
▁spec	-3942
⿻⿻	-3943
冫东	-3944
金金	-3945
▁rom	-3946
ase	-3947
▁wat	-3948
▁cap	-3949
▁hot	-3950
止止	-3951
▁bus	-3952
fe	-3953
vice	-3954
net	-3955
⿵⿱⿱	-3956
▁life	-3957
fer	-3958
▁best	-3959
▁lea	-3960
ism	-3961
ius	-3962
ora	-3963
clude	-3964
yl	-3965
ave	-3966
辶豆	-3967
▁1883	-3968
▁dan	-3969
ja	-3970
▁550	-3971
0⿱⿱	-3972
十豆口灬	-3973
父卩	-3974
又艮	-3975
cen	-3976
▁si	-3977
▁1868	-3978
▁30%	-3979
▁gdp	-3980
▁hol	-3981
▁boy	-3982
fr	-3983
ump	-3984
▁119	-3985
▁1891	-3986
▁colle	-3987
虍隹	-3988
ste	-3989
fs	-3990
火火冖玉	-3991
▁park	-3992
钅甲	-3993
⿱⿰⿹	-3994
100	-3995
▁chr	-3996
▁dream	-3997
ild	-3998
tainment	-3999
▁japan	-4000
▁⿰⿰⿴	-4001
氵弗	-4002
▁club	-4003
▁fil	-4004
㇇⿰⿱	-4005
亡女	-4006
▁124	-4007
礻乍	-4008
min	-4009
金柬	-4010
▁produc	-4011
▁丑	-4012
ily	-4013
hel	-4014
▁entertainment	-4015
▁126	-4016
▁oh	-4017
小土	-4018
▁1862	-4019
▁mg	-4020
09	-4021
▁media	-4022
▁arch	-4023
▁tour	-4024
▁fm	-4025
++	-4026
▁jack	-4027
凵丨阝	-4028
攵灬	-4029
𠂊彐攵灬	-4030
▁144	-4031
▁650	-4032
ange	-4033
▁1877	-4034
zz	-4035
▁133	-4036
白七	-4037
言朱	-4038
耒禺	-4039
女方	-4040
口夫艮	-4041
▁der	-4042
ors	-4043
▁hen	-4044
8661⿹	-4045
tra	-4046
▁dra	-4047
▁vir	-4048
▁1848	-4049
▁1867	-4050
▁137	-4051
▁gener	-4052
▁cat	-4053
▁rev	-4054
▁end	-4055
▁sg	-4056
石夕	-4057
▁ja	-4058
▁acc	-4059
▁1873	-4060
▁twitter	-4061
▁van	-4062
xy	-4063
iet	-4064
▁sci	-4065
▁175	-4066
▁nat	-4067
𠁣𠃛文	-4068
ano	-4069
金丑	-4070
▁⿸⿱⿱	-4071
▁sky	-4072
▁apple	-4073
its	-4074
tin	-4075
erson	-4076
▁1879	-4077
土文	-4078
▁dd	-4079
8661⿰⿱⿹	-4080
ko	-4081
200	-4082
木木毛	-4083
led	-4084
ull	-4085
8661⿱⿲	-4086
𠁣𠃛木	-4087
fl	-4088
▁40%	-4089
▁1864	-4090
罒方	-4091
⿱⿻⿻	-4092
▁wr	-4093
▁165	-4094
一也	-4095
▁tim	-4096
wan	-4097
▁1865	-4098
ger	-4099
▁禹	-4100
▁fire	-4101
form	-4102
▁1878	-4103
ws	-4104
cri	-4105
▁270	-4106
uss	-4107
▁1875	-4108
▁award	-4109
▁1882	-4110
▁house	-4111
▁152	-4112
禾几	-4113
eas	-4114
▁737	-4115
ution	-4116
ision	-4117
女口心	-4118
▁assoc	-4119
▁1840	-4120
竹本	-4121
⿱⿰⿰	-4122
▁gar	-4123
▁1881	-4124
iation	-4125
▁ok	-4126
▁mel	-4127
oll	-4128
▁intel	-4129
火土	-4130
▁aut	-4131
▁8000	-4132
▁dem	-4133
▁unix	-4134
艹巨	-4135
ugh	-4136
〢又立	-4137
臣又豆	-4138
人斗	-4139
▁dist	-4140
𠂊田一里	-4141
▁road	-4142
ct	-4143
央皿	-4144
vin	-4145
▁chris	-4146
▁first	-4147
urs	-4148
虫文	-4149
yth	-4150
▁sub	-4151
▁154	-4152
▁ul	-4153
▁imp	-4154
▁132	-4155
▁this	-4156
▁1874	-4157
▁bill	-4158
▁hel	-4159
艹甫	-4160
▁ger	-4161
▁lou	-4162
氵立	-4163
▁college	-4164
阝禺	-4165
▁richard	-4166
丹彡	-4167
千口刂	-4168
ritic	-4169
金丁	-4170
▁george	-4171
朿⺀	-4172
▁rep	-4173
ua	-4174
rol	-4175
宀丰口谷	-4176
undam	-4177
▁pub	-4178
火页	-4179
▁7000	-4180
gin	-4181
▁70%	-4182
▁west	-4183
we	-4184
▁art	-4185
▁les	-4186
▁aa	-4187
▁mem	-4188
𠂊田灬屯	-4189
凵丨隹	-4190
言柬	-4191
▁wii	-4192
𠂊彐阝	-4193
▁330	-4194
丿廾土	-4195
▁pan	-4196
▁1872	-4197
ert	-4198
氵木	-4199
▁gi	-4200
▁1863	-4201
▁fri	-4202
▁fam	-4203
▁cha	-4204
比土	-4205
8960⿱⿱	-4206
亻鬼	-4207
▁www	-4208
▁euro	-4209
㐅朩刂	-4210
▁乍	-4211
▁sir	-4212
▁gt	-4213
ien	-4214
▁adv	-4215
▁1400	-4216
▁hall	-4217
日大日	-4218
𠂉一罒金	-4219
匚隹	-4220
▁5%	-4221
▁rem	-4222
▁sr	-4223
bn	-4224
求衣	-4225
uck	-4226
一攵	-4227
▁pal	-4228
▁cv	-4229
阝井	-4230
▁abc	-4231
▁nt	-4232
▁north	-4233
▁138	-4234
ett	-4235
ake	-4236
▁mtv	-4237
include	-4238
𠂉大隹	-4239
▁est	-4240
木巨	-4241
▁atp	-4242
ura	-4243
▁sum	-4244
▁肃	-4245
▁bs	-4246
扌乃	-4247
▁139	-4248
口肃	-4249
▁156	-4250
木木非	-4251
▁ju	-4252
▁metac	-4253
▁studio	-4254
▁1866	-4255
ira	-4256
月刂灬	-4257
▁158	-4258
讠柬	-4259
▁charles	-4260
⿰⿱⿻	-4261
▁1300	-4262
ery	-4263
▁gp	-4264
▁cal	-4265
一丂頁	-4266
氵且	-4267
▁pri	-4268
▁mid	-4269
▁lang	-4270
扌丸土	-4271
▁1869	-4272
▁led	-4273
氵目	-4274
no	-4275
人彡戈	-4276
▁south	-4277
山谷	-4278
▁100%	-4279
讠朱	-4280
▁env	-4281
▁136	-4282
▁street	-4283
▁60%	-4284
▁html	-4285
▁ear	-4286
▁project	-4287
iew	-4288
▁service	-4289
▁131	-4290
▁may	-4291
▁ram	-4292
▁china	-4293
ates	-4294
▁over	-4295
▁land	-4296
ware	-4297
▁good	-4298
▁gundam	-4299
木甘	-4300
▁wa	-4301
ani	-4302
ella	-4303
▁metacritic	-4304
▁rh	-4305
田八夂	-4306
8⿱⿰⿱	-4307
▁148	-4308
▁log	-4309
▁ever	-4310
石石	-4311
龙土	-4312
ima	-4313
urt	-4314
▁if	-4315
王王比	-4316
艹于	-4317
oma	-4318
丿丿丶心	-4319
ensis	-4320
▁jose	-4321
rop	-4322
ous	-4323
ning	-4324
▁kbs	-4325
隹十	-4326
氵发	-4327
▁miss	-4328
▁134	-4329
▁lee	-4330
8661⿳	-4331
▁kg	-4332
▁thomas	-4333
▁peter	-4334
木鬼	-4335
ob	-4336
▁tc	-4337
金内	-4338
⿱⿻⿹	-4339
▁ob	-4340
▁sea	-4341
囗口禾	-4342
王王巴	-4343
gory	-4344
▁205	-4345
▁ray	-4346
▁gold	-4347
able	-4348
itz	-4349
▁sony	-4350
eder	-4351
▁christ	-4352
扌止	-4353
口龶阝	-4354
▁⿰⿱⿱⿱	-4355
▁office	-4356
丷干丸土	-4357
▁records	-4358
火言	-4359
▁168	-4360
▁1830	-4361
mus	-4362
unes	-4363
icode	-4364
▁146	-4365
▁long	-4366
8⿺	-4367
▁1700	-4368
eep	-4369
press	-4370
0⿱	-4371
▁141	-4372
▁unicode	-4373
▁limited	-4374
ular	-4375
火言火	-4376
▁will	-4377
▁ele	-4378
▁147	-4379
▁ah	-4380
▁380	-4381
▁arm	-4382
丬夕酉	-4383
示示	-4384
火言火又	-4385
▁ltd	-4386
▁line	-4387
人示	-4388
▁153	-4389
66⿸	-4390
ander	-4391
▁news	-4392
▁mov	-4393
8661⿱⿻	-4394
ns	-4395
gon	-4396
▁ni	-4397
▁but	-4398
▁tem	-4399
▁1100	-4400
▁hear	-4401
▁prin	-4402
月工	-4403
▁fi	-4404
▁mu	-4405
▁fun	-4406
vo	-4407
ents	-4408
ville	-4409
▁real	-4410
丬女	-4411
▁1853	-4412
8665⿰⿹	-4413
▁company	-4414
▁dig	-4415
▁256	-4416
ope	-4417
ple	-4418
▁747	-4419
言内	-4420
▁sbs	-4421
艹鬼	-4422
▁mbc	-4423
ny	-4424
ball	-4425
▁1858	-4426
pc	-4427
ada	-4428
氵于	-4429
uce	-4430
hc	-4431
eak	-4432
▁tor	-4433
▁chin	-4434
▁151	-4435
▁211	-4436
▁bur	-4437
耳心	-4438
▁wid	-4439
earch	-4440
▁lis	-4441
▁il	-4442
▁nasa	-4443
▁squ	-4444
eek	-4445
千口自心	-4446
▁cons	-4447
▁420	-4448
木丂	-4449
ling	-4450
▁143	-4451
▁1859	-4452
▁lam	-4453
𠂊冫寸木	-4454
idge	-4455
▁bal	-4456
ql	-4457
讠乍	-4458
▁fer	-4459
▁sig	-4460
ator	-4461
▁tal	-4462
忄束	-4463
▁kr	-4464
▁mal	-4465
竹生	-4466
ush	-4467
目八力	-4468
▁form	-4469
竹干	-4470
弓丨丿刂	-4471
ui	-4472
bor	-4473
一兀頁	-4474
▁1854	-4475
cation	-4476
▁25%	-4477
▁ann	-4478
▁hs	-4479
户攵口	-4480
▁1857	-4481
▁203	-4482
▁camp	-4483
▁roy	-4484
釆由	-4485
▁elec	-4486
匕水	-4487
▁225	-4488
▁mont	-4489
▁amd	-4490
▁ast	-4491
▁jon	-4492
氵及	-4493
▁direct	-4494
act	-4495
▁gnu	-4496
az	-4497
▁nov	-4498
▁pres	-4499
▁hal	-4500
▁act	-4501
▁american	-4502
▁ri	-4503
gen	-4504
金由	-4505
▁167	-4506
土丹	-4507
▁ham	-4508
丿皿乑	-4509
▁instit	-4510
▁inf	-4511
金巨	-4512
士冖业	-4513
日未	-4514
5⿱⿻	-4515
cript	-4516
▁sin	-4517
▁blue	-4518
口永	-4519
▁girls	-4520
▁157	-4521
▁por	-4522
▁mob	-4523
▁api	-4524
ated	-4525
亠田久	-4526
▁key	-4527
sch	-4528
com	-4529
▁235	-4530
▁mad	-4531
▁az	-4532
▁173	-4533
▁nav	-4534
▁cate	-4535
▁green	-4536
▁202	-4537
牛冂刂手	-4538
▁163	-4539
sm	-4540
▁east	-4541
木己	-4542
tif	-4543
▁149	-4544
▁301	-4545
▁340	-4546
禾火心	-4547
bal	-4548
纟申	-4549
101	-4550
▁214	-4551
▁215	-4552
▁alb	-4553
▁men	-4554
▁1856	-4555
▁ti	-4556
▁hor	-4557
mann	-4558
▁who	-4559
001	-4560
▁law	-4561
木册	-4562
▁mb	-4563
▁pp	-4564
▁pra	-4565
do	-4566
ota	-4567
onic	-4568
66⿱⿱	-4569
▁cra	-4570
▁home	-4571
▁mas	-4572
阝皮	-4573
▁xp	-4574
lic	-4575
gue	-4576
▁mul	-4577
艹止	-4578
▁cur	-4579
勹二	-4580
▁bit	-4581
▁kong	-4582
▁162	-4583
▁song	-4584
▁chem	-4585
▁isbn	-4586
▁soft	-4587
▁dos	-4588
▁hum	-4589
石申	-4590
▁pre	-4591
▁ru	-4592
▁jul	-4593
▁1851	-4594
▁girl	-4595
禾儿	-4596
▁tai	-4597
⿱⿱⿴⿱	-4598
丿囗㐅儿	-4599
▁1847	-4600
▁far	-4601
gy	-4602
▁lar	-4603
▁lib	-4604
▁hong	-4605
𠘧又金	-4606
▁tro	-4607
▁208	-4608
▁159	-4609
▁young	-4610
▁ai	-4611
▁network	-4612
▁name	-4613
▁onlyinclude	-4614
▁def	-4615
𡗗臼	-4616
饣我	-4617
▁ign	-4618
▁von	-4619
▁480	-4620
金屯	-4621
▁bab	-4622
丷干臼	-4623
▁178	-4624
▁ret	-4625
ci	-4626
▁association	-4627
▁1855	-4628
▁thr	-4629
0%	-4630
▁ova	-4631
ney	-4632
爫寸	-4633
▁space	-4634
女户	-4635
▁850	-4636
▁inst	-4637
lat	-4638
mi	-4639
▁vic	-4640
▁disc	-4641
▁how	-4642
▁var	-4643
▁band	-4644
▁207	-4645
▁nbc	-4646
8960⿻	-4647
▁category	-4648
土斤	-4649
▁ros	-4650
urch	-4651
▁15%	-4652
▁142	-4653
ury	-4654
▁leg	-4655
▁itunes	-4656
▁183	-4657
▁jean	-4658
▁champ	-4659
角斗	-4660
▁176	-4661
ester	-4662
vid	-4663
▁hist	-4664
▁batt	-4665
ford	-4666
▁209	-4667
rey	-4668
▁tbs	-4669
urus	-4670
木戋	-4671
▁two	-4672
广里	-4673
艹末	-4674
▁post	-4675
束欠	-4676
▁om	-4677
▁370	-4678
ello	-4679
▁town	-4680
▁gb	-4681
▁gala	-4682
弓米	-4683
弓米弓	-4684
▁va	-4685
ron	-4686
cher	-4687
orts	-4688
▁410	-4689
▁1852	-4690
gram	-4691
▁oper	-4692
▁river	-4693
als	-4694
▁ice	-4695
cade	-4696
▁206	-4697
▁white	-4698
钅垂	-4699
▁hi	-4700
star	-4701
▁die	-4702
▁1841	-4703
▁ze	-4704
丿丿刂	-4705
钅里	-4706
ship	-4707
si	-4708
▁bank	-4709
▁under	-4710
gbt	-4711
▁frank	-4712
▁1849	-4713
▁171	-4714
▁290	-4715
▁part	-4716
eau	-4717
▁169	-4718
艮心	-4719
▁doc	-4720
▁has	-4721
▁1846	-4722
▁ll	-4723
▁ly	-4724
burg	-4725
▁164	-4726
▁pas	-4727
钅由	-4728
▁pag	-4729
人目又	-4730
▁bor	-4731
wood	-4732
▁run	-4733
▁tur	-4734
▁430	-4735
▁ki	-4736
▁172	-4737
▁310	-4738
川一	-4739
▁usb	-4740
金垂	-4741
▁fran	-4742
▁science	-4743
▁204	-4744
▁state	-4745
日文	-4746
▁221	-4747
▁grand	-4748
den	-4749
▁internet	-4750
白鬼	-4751
ded	-4752
8665⿱⿴	-4753
▁syn	-4754
▁great	-4755
▁1%	-4756
厶廾	-4757
▁cg	-4758
▁rob	-4759
▁dom	-4760
▁tar	-4761
▁stand	-4762
ters	-4763
▁island	-4764
ids	-4765
女又弓	-4766
▁182	-4767
▁⿺⿱⿱	-4768
▁cbs	-4769
xx	-4770
▁au	-4771
▁td	-4772
▁bay	-4773
▁width	-4774
钅丁	-4775
▁book	-4776
▁cho	-4777
▁bon	-4778
ji	-4779
cess	-4780
tian	-4781
▁cctv	-4782
▁1844	-4783
ody	-4784
革斤	-4785
▁223	-4786
▁bc	-4787
0⿳	-4788
▁ceo	-4789
▁1815	-4790
▁1820	-4791
ction	-4792
▁161	-4793
▁alph	-4794
▁hill	-4795
▁year	-4796
▁your	-4797
tics	-4798
▁code	-4799
▁server	-4800
ddf	-4801
han	-4802
ral	-4803
▁cas	-4804
子皿力	-4805
▁184	-4806
500	-4807
▁dep	-4808
▁218	-4809
▁night	-4810
▁united	-4811
▁inv	-4812
0⿺	-4813
犬犬	-4814
▁glo	-4815
▁joseph	-4816
ret	-4817
ough	-4818
▁1843	-4819
▁246	-4820
▁1845	-4821
囗甫	-4822
▁ry	-4823
▁217	-4824
而女	-4825
▁222	-4826
土于	-4827
▁enviro	-4828
▁sen	-4829
▁commun	-4830
▁dec	-4831
8661⿱⿰⿱	-4832
▁⿻⿹	-4833
▁vii	-4834
▁10000	-4835
▁let	-4836
▁tu	-4837
zy	-4838
rew	-4839
木工	-4840
▁212	-4841
ations	-4842
▁181	-4843
▁store	-4844
ucn	-4845
一大虫	-4846
▁hu	-4847
▁sv	-4848
▁md	-4849
▁1812	-4850
忄鬼	-4851
▁dar	-4852
▁henry	-4853
▁401	-4854
gaz	-4855
更生	-4856
dition	-4857
扌弗	-4858
▁iucn	-4859
olf	-4860
ison	-4861
▁216	-4862
氵兆	-4863
巳八夂	-4864
止自	-4865
▁238	-4866
止自巳八夂	-4867
jo	-4868
ach	-4869
▁911	-4870
pper	-4871
▁plan	-4872
▁cast	-4873
▁gal	-4874
▁1842	-4875
▁prof	-4876
虫牙	-4877
▁440	-4878
▁sel	-4879
board	-4880
▁174	-4881
▁spr	-4882
lam	-4883
▁cry	-4884
▁way	-4885
▁ia	-4886
▁213	-4887
▁ara	-4888
▁rpg	-4889
edia	-4890
lan	-4891
▁ny	-4892
矛攵	-4893
▁285	-4894
⺌冖口衣	-4895
46⿰⿱	-4896
oto	-4897
ideo	-4898
ural	-4899
▁general	-4900
▁228	-4901
▁manag	-4902
annel	-4903
▁xx	-4904
亻隹月	-4905
𠘧又木	-4906
▁radio	-4907
ida	-4908
▁cross	-4909
钅丑	-4910
▁smith	-4911
tps	-4912
▁1814	-4913
▁litt	-4914
钅刂	-4915
8⿸	-4916
㐅乂玉	-4917
▁rea	-4918
▁engine	-4919
▁sat	-4920
▁db	-4921
ures	-4922
▁angel	-4923
cs	-4924
八厶儿	-4925
▁1789	-4926
▁jump	-4927
米子	-4928
▁ae	-4929
ni	-4930
▁rt	-4931
▁sha	-4932
日乍	-4933
ric	-4934
ops	-4935
▁pv	-4936
▁jan	-4937
▁heart	-4938
▁battle	-4939
▁production	-4940
▁冉	-4941
丷丨	-4942
丿乀	-4943
ola	-4944
▁sta	-4945
▁num	-4946
ye	-4947
▁jac	-4948
犭艮	-4949
rie	-4950
▁266	-4951
口犬	-4952
5⿱⿴	-4953
▁model	-4954
ces	-4955
▁mir	-4956
ona	-4957
▁section	-4958
▁bir	-4959
▁carl	-4960
▁magaz	-4961
▁work	-4962
▁https	-4963
▁party	-4964
ington	-4965
pan	-4966
▁church	-4967
▁mobile	-4968
丷酉犬	-4969
▁crh	-4970
raph	-4971
▁219	-4972
金甲	-4973
idae	-4974
⿸⿸⿸	-4975
▁plus	-4976
木方	-4977
▁franc	-4978
氵朱	-4979
𠂇月土	-4980
▁255	-4981
▁league	-4982
▁martin	-4983
丨丨比灬	-4984
耳止	-4985
rpm	-4986
rich	-4987
▁ado	-4988
▁fes	-4989
▁sports	-4990
▁snh	-4991
ato	-4992
▁comic	-4993
言且	-4994
gan	-4995
▁his	-4996
▁pt	-4997
▁265	-4998
木丶刂	-4999
▁asia	-5000
火田	-5001
▁core	-5002
▁louis	-5003
▁magazine	-5004
▁dm	-5005
▁edu	-5006
衤寸	-5007
▁steam	-5008
艹我	-5009
cast	-5010
omo	-5011
言牙	-5012
▁box	-5013
▁cam	-5014
▁1792	-5015
▁pass	-5016
erv	-5017
gar	-5018
▁expl	-5019
一乚	-5020
忄斤	-5021
一乚丶	-5022
丬夕木	-5023
▁god	-5024
▁research	-5025
▁den	-5026
▁light	-5027
艹艮	-5028
▁277	-5029
▁foot	-5030
▁275	-5031
▁jim	-5032
▁lgbt	-5033
cha	-5034
ets	-5035
▁online	-5036
201	-5037
▁cir	-5038
▁vs	-5039
▁wwe	-5040
宀石	-5041
▁xml	-5042
宀一	-5043
eee	-5044
▁pier	-5045
▁0%	-5046
▁610	-5047
▁1835	-5048
8665⿱⿹	-5049
▁little	-5050
▁just	-5051
▁mol	-5052
day	-5053
立十木	-5054
well	-5055
▁master	-5056
▁寸	-5057
氵虫	-5058
一兀页	-5059
▁channel	-5060
黑攵	-5061
▁cu	-5062
山一黑攵	-5063
peg	-5064
▁wi	-5065
▁aug	-5066
▁station	-5067
▁societ	-5068
乙水	-5069
▁ns	-5070
▁mur	-5071
▁fn	-5072
▁1832	-5073
hr	-5074
▁365	-5075
▁sti	-5076
酉禾	-5077
▁fox	-5078
▁moz	-5079
une	-5080
▁tg	-5081
▁bad	-5082
▁mit	-5083
亻两	-5084
▁fu	-5085
▁poly	-5086
▁sem	-5087
▁port	-5088
阝千	-5089
▁luc	-5090
velop	-5091
▁rs	-5092
爿士大	-5093
▁like	-5094
日斤	-5095
▁corpor	-5096
▁special	-5097
ten	-5098
▁pu	-5099
山民	-5100
reg	-5101
▁mary	-5102
▁3500	-5103
▁dl	-5104
field	-5105
hi	-5106
▁コ	-5107
▁aw	-5108
女口糸	-5109
▁1839	-5110
▁junior	-5111
iller	-5112
▁pi	-5113
▁001	-5114
▁muse	-5115
▁75%	-5116
aya	-5117
▁what	-5118
▁champion	-5119
▁720	-5120
▁640	-5121
永日	-5122
▁wo	-5123
inal	-5124
▁305	-5125
𠂊田一刂	-5126
▁1793	-5127
aga	-5128
▁950	-5129
▁institute	-5130
讠韦	-5131
▁cin	-5132
301	-5133
艹冖火	-5134
▁560	-5135
▁rub	-5136
ili	-5137
▁rel	-5138
▁non	-5139
pi	-5140
▁bh	-5141
▁ut	-5142
tical	-5143
▁victor	-5144
▁kw	-5145
▁sound	-5146
eel	-5147
▁ace	-5148
▁hea	-5149
▁1821	-5150
▁lg	-5151
ider	-5152
▁program	-5153
cat	-5154
▁ot	-5155
▁have	-5156
▁1795	-5157
▁226	-5158
▁pala	-5159
▁design	-5160
业阝	-5161
毛毛	-5162
▁journ	-5163
艹冖玉	-5164
8665⿵⿰	-5165
▁777	-5166
▁after	-5167
▁visual	-5168
火𠃓	-5169
▁sand	-5170
▁cf	-5171
▁edward	-5172
▁239	-5173
▁society	-5174
▁1836	-5175
tim	-5176
▁249	-5177
贝戋	-5178
onom	-5179
▁1838	-5180
▁229	-5181
▁288	-5182
▁540	-5183
▁video	-5184
金里	-5185
5⿰⿸	-5186
▁small	-5187
▁express	-5188
厂人	-5189
▁224	-5190
▁mt	-5191
▁vista	-5192
pn	-5193
▁501	-5194
▁lan	-5195
目兆	-5196
钅屯	-5197
▁520	-5198
▁tak	-5199
▁1824	-5200
lip	-5201
▁chi	-5202
▁develop	-5203
▁place	-5204
石乐	-5205
▁ya	-5206
▁low	-5207
▁1825	-5208
氵屯	-5209
▁gla	-5210
cil	-5211
▁pm	-5212
port	-5213
▁data	-5214
wor	-5215
▁htc	-5216
▁2021	-5217
face	-5218
▁232	-5219
▁1801	-5220
▁dor	-5221
▁hbo	-5222
㇇⿱⿱	-5223
▁1644	-5224
▁down	-5225
▁happ	-5226
ely	-5227
▁word	-5228
衤末	-5229
▁ieee	-5230
win	-5231
ocket	-5232
▁245	-5233
▁tel	-5234
▁galaxy	-5235
▁601	-5236
▁nam	-5237
▁tele	-5238
灬川	-5239
con	-5240
▁325	-5241
▁227	-5242
▁234	-5243
▁311	-5244
300	-5245
▁262	-5246
▁cer	-5247
▁anti	-5248
▁2022	-5249
mar	-5250
▁530	-5251
▁pac	-5252
▁prot	-5253
zo	-5254
人人攵	-5255
bus	-5256
士口頁	-5257
▁1806	-5258
亻田	-5259
▁580	-5260
▁680	-5261
▁maj	-5262
▁next	-5263
▁308	-5264
sta	-5265
匕水页	-5266
▁hon	-5267
丿𠃌攵虫	-5268
▁251	-5269
▁get	-5270
月寸	-5271
▁oc	-5272
esh	-5273
▁ml	-5274
𠂊彐隹	-5275
▁advance	-5276
ote	-5277
▁yu	-5278
▁1837	-5279
▁jer	-5280
▁mach	-5281
▁moon	-5282
yp	-5283
口丁	-5284
uld	-5285
ister	-5286
▁1831	-5287
▁bil	-5288
▁francis	-5289
iga	-5290
rome	-5291
▁rap	-5292
口王阝	-5293
off	-5294
▁steph	-5295
习习欠	-5296
▁233	-5297
▁rog	-5298
⿴⿱	-5299
▁460	-5300
▁final	-5301
▁anim	-5302
▁asp	-5303
gs	-5304
igo	-5305
囗口阝	-5306
time	-5307
▁aga	-5308
▁mos	-5309
▁union	-5310
8⿱⿰	-5311
▁hard	-5312
𦣞页	-5313
▁stra	-5314
tl	-5315
辶于	-5316
囗口示	-5317
▁385	-5318
▁aus	-5319
▁9000	-5320
▁second	-5321
▁390	-5322
▁taiwan	-5323
▁chinese	-5324
▁1833	-5325
▁pay	-5326
ional	-5327
db	-5328
▁bern	-5329
▁307	-5330
▁set	-5331
▁brown	-5332
▁more	-5333
vi	-5334
𠂊⺀	-5335
ami	-5336
max	-5337
force	-5338
▁level	-5339
𠂊⺀火	-5340
▁mozilla	-5341
cle	-5342
▁maria	-5343
▁dh	-5344
eck	-5345
oro	-5346
ros	-5347
▁mini	-5348
cas	-5349
▁emp	-5350
olution	-5351
kg	-5352
亡民	-5353
stein	-5354
▁fal	-5355
▁kir	-5356
▁sql	-5357
▁found	-5358
▁royal	-5359
ng	-5360
uri	-5361
亠口小頁	-5362
氵亡	-5363
丿囗㐅比	-5364
5⿻	-5365
𠁣𠃛心	-5366
▁1810	-5367
▁peop	-5368
je	-5369
▁fly	-5370
▁explor	-5371
cho	-5372
宀八巾	-5373
▁pap	-5374
ves	-5375
▁ren	-5376
lix	-5377
▁620	-5378
灬阝	-5379
ette	-5380
ights	-5381
金玉	-5382
𦣞頁	-5383
矛攵女	-5384
▁film	-5385
▁1776	-5386
501	-5387
釆田阝	-5388
火夬	-5389
fox	-5390
iter	-5391
▁ash	-5392
▁cup	-5393
▁control	-5394
▁gov	-5395
▁ax	-5396
▁bat	-5397
立十刀	-5398
▁arr	-5399
▁adobe	-5400
一由	-5401
8⿴	-5402
▁95%	-5403
▁mot	-5404
yr	-5405
uel	-5406
▁inde	-5407
▁corporation	-5408
▁flash	-5409
eter	-5410
▁stor	-5411
▁ku	-5412
▁236	-5413
ition	-5414
▁global	-5415
▁630	-5416
匚㐅瓦	-5417
▁square	-5418
▁243	-5419
▁equ	-5420
▁left	-5421
▁orig	-5422
▁1790	-5423
▁1834	-5424
▁electr	-5425
▁1822	-5426
▁distr	-5427
▁237	-5428
▁vr	-5429
lish	-5430
▁nm	-5431
▁242	-5432
▁1826	-5433
▁eric	-5434
▁technology	-5435
▁summer	-5436
一八石	-5437
▁303	-5438
▁512	-5439
尸九	-5440
▁510	-5441
66⿴	-5442
5⿱⿰⿴	-5443
扌斗	-5444
▁2%	-5445
▁had	-5446
▁289	-5447
▁802	-5448
▁1799	-5449
ection	-5450
ila	-5451
▁um	-5452
▁liv	-5453
ift	-5454
400	-5455
▁mvp	-5456
▁pen	-5457
口牙	-5458
vidia	-5459
▁digital	-5460
▁dam	-5461
▁mix	-5462
㇇⿸⿸	-5463
uct	-5464
▁tan	-5465
舟甲	-5466
▁sf	-5467
▁252	-5468
▁eli	-5469
ython	-5470
▁arts	-5471
▁which	-5472
扌母	-5473
380	-5474
厶口心	-5475
戊一小	-5476
lection	-5477
▁nvidia	-5478
日广	-5479
our	-5480
▁conc	-5481
0⿹	-5482
kin	-5483
▁315	-5484
other	-5485
nt	-5486
zer	-5487
▁pg	-5488
ache	-5489
ious	-5490
ness	-5491
ender	-5492
iff	-5493
▁ing	-5494
▁firefox	-5495
hd	-5496
bel	-5497
val	-5498
over	-5499
▁254	-5500
▁son	-5501
ility	-5502
iness	-5503
▁call	-5504
▁prem	-5505
▁960	-5506
agram	-5507
▁comput	-5508
▁244	-5509
▁ken	-5510
▁1791	-5511
▁touch	-5512
▁241	-5513
▁exp	-5514
antas	-5515
▁york	-5516
▁daniel	-5517
▁jas	-5518
▁1828	-5519
礻止	-5520
龷由八阝	-5521
▁1804	-5522
▁1813	-5523
▁vers	-5524
▁festiv	-5525
女疌	-5526
ental	-5527
▁hold	-5528
▁press	-5529
𠂉生	-5530
lor	-5531
▁ub	-5532
▁318	-5533
▁1829	-5534
bra	-5535
人人頁	-5536
ito	-5537
ume	-5538
▁sign	-5539
▁287	-5540
cus	-5541
▁qq	-5542
▁last	-5543
▁bbs	-5544
▁kl	-5545
▁pos	-5546
▁pin	-5547
401	-5548
ease	-5549
▁1823	-5550
▁fif	-5551
▁netf	-5552
▁again	-5553
▁pd	-5554
▁338	-5555
▁cnn	-5556
▁jt	-5557
ox	-5558
▁social	-5559
▁nu	-5560
▁1819	-5561
▁chil	-5562
▁software	-5563
▁gm	-5564
▁phone	-5565
▁312	-5566
row	-5567
▁618	-5568
▁build	-5569
刀口力	-5570
ascript	-5571
尸米	-5572
out	-5573
▁bey	-5574
𠂊小玉	-5575
▁apg	-5576
▁1818	-5577
▁253	-5578
▁1802	-5579
㇇⿻	-5580
▁see	-5581
▁269	-5582
▁hp	-5583
▁302	-5584
▁3%	-5585
▁470	-5586
▁1816	-5587
▁beat	-5588
▁alexander	-5589
ansp	-5590
▁247	-5591
▁adam	-5592
▁nad	-5593
▁tam	-5594
cr	-5595
▁ct	-5596
▁switch	-5597
二贝	-5598
▁264	-5599
▁ban	-5600
𠂊彐皮	-5601
▁304	-5602
▁rain	-5603
▁dance	-5604
▁festival	-5605
key	-5606
▁231	-5607
▁1775	-5608
▁head	-5609
▁europe	-5610
▁ff	-5611
▁netflix	-5612
夂月	-5613
ipp	-5614
una	-5615
▁cell	-5616
▁⿱⿻⿻	-5617
kh	-5618
bar	-5619
▁fx	-5620
▁1780	-5621
竹尹	-5622
▁nd	-5623
▁258	-5624
糸言糸金	-5625
丰寸灬	-5626
▁rail	-5627
▁people	-5628
▁273	-5629
▁323	-5630
▁vin	-5631
ipe	-5632
▁rd	-5633
▁psy	-5634
▁1794	-5635
▁force	-5636
▁football	-5637
▁series	-5638
▁268	-5639
▁chan	-5640
▁matt	-5641
癶豆几	-5642
▁main	-5643
oud	-5644
▁uss	-5645
▁viv	-5646
▁257	-5647
▁263	-5648
nes	-5649
⺊尸页	-5650
▁explorer	-5651
氵金	-5652
aka	-5653
els	-5654
▁248	-5655
▁1807	-5656
▁acade	-5657
▁public	-5658
ges	-5659
ema	-5660
▁346	-5661
▁beta	-5662
▁lady	-5663
火山	-5664
▁lond	-5665
▁astro	-5666
▁1796	-5667
▁point	-5668
▁pk	-5669
▁4500	-5670
▁langu	-5671
▁yg	-5672
▁hello	-5673
8665⿱⿰⿴	-5674
木由	-5675
▁1805	-5676
▁were	-5677
▁instagram	-5678
▁old	-5679
▁mun	-5680
▁1650	-5681
▁gard	-5682
䒑未阝	-5683
▁272	-5684
▁299	-5685
▁1645	-5686
▁1809	-5687
▁scott	-5688
▁christian	-5689
▁management	-5690
▁295	-5691
▁306	-5692
▁wood	-5693
▁district	-5694
▁yah	-5695
ule	-5696
木且	-5697
王民	-5698
2000	-5699
▁279	-5700
▁tcp	-5701
▁1750	-5702
▁block	-5703
▁queen	-5704
▁billboard	-5705
▁701	-5706
▁fair	-5707
cent	-5708
▁1803	-5709
▁pdf	-5710
▁wan	-5711
𠂊田灬比	-5712
col	-5713
▁gil	-5714
ograph	-5715
▁clar	-5716
▁276	-5717
▁2100	-5718
▁2400	-5719
▁pagasa	-5720
▁python	-5721
hs	-5722
彳方	-5723
竹及	-5724
ird	-5725
▁eb	-5726
play	-5727
ston	-5728
▁ipad	-5729
rick	-5730
▁dol	-5731
▁589	-5732
▁1798	-5733
▁1817	-5734
▁awards	-5735
▁bug	-5736
▁water	-5737
get	-5738
▁1808	-5739
▁286	-5740
▁386	-5741
▁767	-5742
▁kin	-5743
▁mode	-5744
▁425	-5745
▁ker	-5746
▁read	-5747
ization	-5748
▁family	-5749
▁eff	-5750
inger	-5751
▁baby	-5752
▁perf	-5753
▁cle	-5754
▁psp	-5755
▁fut	-5756
▁und	-5757
▁978	-5758
▁emu	-5759
人一口龙	-5760
▁1788	-5761
▁stan	-5762
uz	-5763
▁780	-5764
▁nca	-5765
▁wom	-5766
gi	-5767
▁1787	-5768
▁france	-5769
八厶瓦	-5770
▁museum	-5771
raft	-5772
▁council	-5773
▁cw	-5774
▁dev	-5775
▁shin	-5776
▁stud	-5777
▁820	-5778
▁vl	-5779
▁mess	-5780
▁javascript	-5781
▁deb	-5782
och	-5783
▁bf	-5784
▁hop	-5785
ren	-5786
▁296	-5787
omb	-5788
▁din	-5789
▁sca	-5790
▁sor	-5791
▁gps	-5792
▁660	-5793
▁dea	-5794
▁journal	-5795
▁andr	-5796
▁doub	-5797
ication	-5798
▁np	-5799
▁kon	-5800
▁mnet	-5801
isc	-5802
▁fac	-5803
▁some	-5804
eme	-5805
rad	-5806
▁ske	-5807
uf	-5808
▁gun	-5809
▁pie	-5810
▁stad	-5811
mon	-5812
elle	-5813
▁357	-5814
▁its	-5815
▁mike	-5816
▁central	-5817
8661⿱⿶⿱⿰	-5818
iko	-5819
▁gh	-5820
▁bul	-5821
▁note	-5822
rise	-5823
▁742	-5824
▁earth	-5825
▁london	-5826
彳非	-5827
▁ven	-5828
丿𠃌攵灬	-5829
▁multi	-5830
ova	-5831
▁801	-5832
▁bou	-5833
▁market	-5834
耳冘	-5835
▁mis	-5836
▁1580	-5837
▁1592	-5838
▁271	-5839
▁臼	-5840
yd	-5841
▁1783	-5842
kb	-5843
▁335	-5844
▁blu	-5845
▁ipod	-5846
ats	-5847
ips	-5848
▁710	-5849
▁tvbs	-5850
▁anton	-5851
匚久	-5852
肀二	-5853
▁278	-5854
▁centre	-5855
cel	-5856
▁1550	-5857
▁2600	-5858
vision	-5859
▁333	-5860
▁670	-5861
▁kel	-5862
▁ld	-5863
▁259	-5864
一户	-5865
▁mig	-5866
▁sche	-5867
▁well	-5868
▁zero	-5869
▁soul	-5870
▁313	-5871
▁730	-5872
▁leon	-5873
火虫	-5874
▁298	-5875
▁570	-5876
▁frame	-5877
▁od	-5878
日大手	-5879
▁485	-5880
▁281	-5881
ering	-5882
一夕	-5883
▁375	-5884
▁901	-5885
▁som	-5886
▁story	-5887
▁eg	-5888
口止果	-5889
▁415	-5890
▁conn	-5891
儿丨皿	-5892
▁alpha	-5893
kt	-5894
▁590	-5895
▁andrew	-5896
320	-5897
▁274	-5898
▁hom	-5899
▁say	-5900
久火	-5901
民攵	-5902
vis	-5903
▁abb	-5904
▁bud	-5905
▁mah	-5906
▁sho	-5907
▁dark	-5908
▁ipv	-5909
▁1568	-5910
ray	-5911
▁rb	-5912
▁album	-5913
▁319	-5914
▁hit	-5915
丿士贝	-5916
民攵心	-5917
▁secret	-5918
ions	-5919
▁324	-5920
▁kan	-5921
▁basic	-5922
▁mak	-5923
nd	-5924
豸艮心	-5925
▁dun	-5926
▁kit	-5927
46⿱	-5928
▁joh	-5929
▁jeff	-5930
钅本	-5931
osp	-5932
▁1827	-5933
一川	-5934
▁they	-5935
▁human	-5936
ines	-5937
▁2300	-5938
▁link	-5939
▁friend	-5940
王久	-5941
▁dt	-5942
▁cult	-5943
0⿵	-5944
ban	-5945
▁621	-5946
▁ten	-5947
▁gran	-5948
▁85%	-5949
▁kim	-5950
▁lum	-5951
▁lord	-5952
▁meth	-5953
▁begin	-5954
res	-5955
▁sus	-5956
men	-5957
▁ls	-5958
▁cop	-5959
til	-5960
▁dy	-5961
▁757	-5962
▁760	-5963
▁aaa	-5964
▁drive	-5965
oh	-5966
ful	-5967
▁282	-5968
⿱⿶⿱⿰	-5969
丷干丸手	-5970
ities	-5971
▁train	-5972
mhz	-5973
▁dur	-5974
▁four	-5975
war	-5976
▁267	-5977
▁2200	-5978
▁joe	-5979
uv	-5980
▁bob	-5981
▁pack	-5982
忄冘	-5983
anda	-5984
sson	-5985
▁kiss	-5986
▁lake	-5987
▁russ	-5988
木木阝	-5989
▁293	-5990
▁787	-5991
▁vel	-5992
弓也	-5993
dren	-5994
▁284	-5995
▁⿱⿰⿻⿱	-5996
▁round	-5997
▁327	-5998
▁283	-5999
▁tea	-6000
▁base	-6001
▁fantas	-6002
▁asc	-6003
▁ath	-6004
▁sund	-6005
▁edition	-6006
formation	-6007
▁261	-6008
▁mik	-6009
气山	-6010
禾央	-6011
eta	-6012
▁309	-6013
▁525	-6014
▁322	-6015
▁tex	-6016
mond	-6017
▁transp	-6018
▁316	-6019
▁shar	-6020
▁314	-6021
▁php	-6022
▁systems	-6023
▁development	-6024
尸比	-6025
8⿲	-6026
▁att	-6027
▁children	-6028
zen	-6029
▁mx	-6030
ency	-6031
tia	-6032
▁nar	-6033
ied	-6034
umb	-6035
日一頁	-6036
▁980	-6037
▁supp	-6038
▁328	-6039
▁ncaa	-6040
▁dragon	-6041
▁巾	-6042
▁bg	-6043
▁412	-6044
▁unit	-6045
iana	-6046
▁dim	-6047
宀心	-6048
itor	-6049
▁366	-6050
heim	-6051
▁903	-6052
▁1582	-6053
言夬	-6054
zi	-6055
46⿹	-6056
ast	-6057
▁345	-6058
▁amaz	-6059
▁355	-6060
▁ent	-6061
▁1553	-6062
氵耳	-6063
▁1080	-6064
lad	-6065
▁321	-6066
▁377	-6067
▁1811	-6068
▁sour	-6069
iii	-6070
▁331	-6071
▁830	-6072
▁anth	-6073
▁shell	-6074
▁austr	-6075
口垂	-6076
金川	-6077
▁490	-6078
▁tay	-6079
▁1571	-6080
女予	-6081
由月	-6082
▁hiv	-6083
table	-6084
cam	-6085
▁317	-6086
▁hay	-6087
▁1570	-6088
oe	-6089
oug	-6090
▁417	-6091
▁iec	-6092
▁mass	-6093
▁sla	-6094
▁every	-6095
less	-6096
▁359	-6097
▁fried	-6098
▁416	-6099
▁rows	-6100
▁1583	-6101
▁bell	-6102
8661⿱⿳	-6103
▁ay	-6104
𠂉大聿	-6105
vers	-6106
▁toky	-6107
sy	-6108
▁uc	-6109
ror	-6110
alia	-6111
▁334	-6112
▁860	-6113
▁fel	-6114
▁rfc	-6115
▁indi	-6116
▁405	-6117
▁fan	-6118
▁ron	-6119
▁pur	-6120
▁voice	-6121
▁1565	-6122
习习隹戈	-6123
house	-6124
▁prim	-6125
艹韦	-6126
▁nas	-6127
▁happy	-6128
▁there	-6129
▁produce	-6130
▁387	-6131
lation	-6132
901	-6133
ides	-6134
itan	-6135
▁758	-6136
▁hat	-6137
uber	-6138
▁583	-6139
▁1770	-6140
▁dest	-6141
▁zone	-6142
白田	-6143
▁abd	-6144
▁mom	-6145
▁wond	-6146
▁rowspan	-6147
cer	-6148
▁kde	-6149
▁1648	-6150
▁fifa	-6151
anga	-6152
▁1777	-6153
▁list	-6154
⿻⿹	-6155
bsd	-6156
不一阝	-6157
▁326	-6158
▁407	-6159
▁lor	-6160
▁our	-6161
▁count	-6162
▁beyond	-6163
tica	-6164
▁cli	-6165
▁got	-6166
▁person	-6167
▁history	-6168
ran	-6169
▁ee	-6170
ealth	-6171
▁three	-6172
▁works	-6173
hp	-6174
ible	-6175
mail	-6176
▁ye	-6177
▁pea	-6178
▁organ	-6179
dle	-6180
wer	-6181
▁uk	-6182
▁fra	-6183
▁marie	-6184
▁villa	-6185
▁ci	-6186
▁348	-6187
▁govern	-6188
扌龙	-6189
二丨心	-6190
立日欠	-6191
▁dia	-6192
ali	-6193
esis	-6194
▁emi	-6195
▁1784	-6196
▁1785	-6197
▁arth	-6198
于皿	-6199
▁rp	-6200
▁1778	-6201
ode	-6202
▁344	-6203
▁880	-6204
▁jyp	-6205
▁meg	-6206
▁ill	-6207
▁1640	-6208
▁card	-6209
isa	-6210
▁og	-6211
chen	-6212
▁steve	-6213
士口页	-6214
▁356	-6215
▁707	-6216
▁nex	-6217
lab	-6218
▁gy	-6219
▁404	-6220
▁stephen	-6221
▁354	-6222
▁their	-6223
▁operation	-6224
ria	-6225
core	-6226
stra	-6227
▁607	-6228
▁740	-6229
▁education	-6230
▁1661	-6231
▁edge	-6232
革央	-6233
▁tab	-6234
des	-6235
66⿻	-6236
▁411	-6237
▁tokyo	-6238
8661⿱⿱⿱	-6239
▁business	-6240
方土	-6241
方方土	-6242
▁690	-6243
▁1577	-6244
▁fore	-6245
▁math	-6246
rib	-6247
▁gall	-6248
▁535	-6249
▁1797	-6250
uction	-6251
▁other	-6252
▁291	-6253
▁421	-6254
▁solo	-6255
ken	-6256
ques	-6257
▁scr	-6258
▁audi	-6259
▁fall	-6260
atus	-6261
▁bmw	-6262
▁court	-6263
5⿹	-6264
ij	-6265
小丿女	-6266
▁ft	-6267
66⿰⿹	-6268
▁know	-6269
▁virt	-6270
▁bridge	-6271
nm	-6272
▁921	-6273
▁rac	-6274
▁1586	-6275
▁cook	-6276
▁ted	-6277
athan	-6278
▁crea	-6279
⿱⿰⿱⿴	-6280
elf	-6281
olo	-6282
66⿲	-6283
▁dog	-6284
▁spir	-6285
8661⿲	-6286
▁ey	-6287
▁za	-6288
门心	-6289
▁297	-6290
▁abo	-6291
▁ghz	-6292
▁side	-6293
刀丿止	-6294
5⿱⿰	-6295
▁445	-6296
▁930	-6297
▁samu	-6298
die	-6299
lie	-6300
▁2030	-6301
▁ball	-6302
▁1646	-6303
▁388	-6304
▁403	-6305
▁840	-6306
𠂊冫寸大	-6307
▁profess	-6308
mal	-6309
rix	-6310
勹口灬	-6311
立十子	-6312
▁343	-6313
▁bin	-6314
▁1521	-6315
▁feat	-6316
▁true	-6317
亻非	-6318
cape	-6319
▁384	-6320
木王	-6321
oli	-6322
▁tre	-6323
801	-6324
▁test	-6325
▁process	-6326
chi	-6327
▁810	-6328
▁aven	-6329
▁shad	-6330
gu	-6331
▁985	-6332
▁saf	-6333
▁1786	-6334
▁xm	-6335
66⿳	-6336
▁329	-6337
▁kor	-6338
▁wta	-6339
▁johnson	-6340
▁007	-6341
▁mmc	-6342
▁ton	-6343
▁1760	-6344
▁alan	-6345
耳𠃊	-6346
par	-6347
ific	-6348
▁bak	-6349
▁chap	-6350
din	-6351
utv	-6352
▁ie	-6353
▁libr	-6354
ission	-6355
ots	-6356
▁nc	-6357
▁292	-6358
▁402	-6359
▁465	-6360
▁feder	-6361
扌八	-6362
火火木	-6363
▁413	-6364
▁870	-6365
ector	-6366
▁qual	-6367
▁rat	-6368
𠂊田灬刂	-6369
600	-6370
ago	-6371
▁395	-6372
▁los	-6373
言非	-6374
▁fbi	-6375
▁field	-6376
▁order	-6377
▁8%	-6378
▁py	-6379
木木女	-6380
chan	-6381
▁352	-6382
▁brand	-6383
▁right	-6384
木乐	-6385
▁419	-6386
▁dat	-6387
▁pun	-6388
▁jess	-6389
▁number	-6390
601	-6391
▁yahoo	-6392
▁6%	-6393
凵丨皮	-6394
▁2700	-6395
厶口火	-6396
▁294	-6397
ved	-6398
▁ky	-6399
ects	-6400
▁466	-6401
▁conf	-6402
uma	-6403
▁rx	-6404
▁pierre	-6405
▁1368	-6406
▁prince	-6407
▁cher	-6408
▁528	-6409
▁aim	-6410
▁rose	-6411
▁581	-6412
▁start	-6413
ex	-6414
▁kk	-6415
▁jay	-6416
▁indust	-6417
▁gpl	-6418
▁via	-6419
▁999	-6420
▁fre	-6421
red	-6422
sen	-6423
utc	-6424
amin	-6425
▁1781	-6426
▁broad	-6427
▁viutv	-6428
钅白	-6429
▁389	-6430
▁sna	-6431
▁language	-6432
rod	-6433
▁502	-6434
▁ant	-6435
▁las	-6436
lion	-6437
▁beau	-6438
osaurus	-6439
▁single	-6440
▁336	-6441
bit	-6442
▁367	-6443
▁ess	-6444
ration	-6445
▁dead	-6446
▁track	-6447
kw	-6448
▁bang	-6449
▁boss	-6450
▁mpeg	-6451
▁342	-6452
▁358	-6453
▁raw	-6454
▁take	-6455
甲一斤	-6456
ming	-6457
▁442	-6458
ellow	-6459
▁1636	-6460
▁ring	-6461
▁627	-6462
▁js	-6463
untu	-6464
⿱⿰⿻⿱	-6465
▁555	-6466
▁625	-6467
▁1590	-6468
▁standard	-6469
af	-6470
▁酉	-6471
艹耳	-6472
讠且	-6473
▁refer	-6474
▁econom	-6475
▁7%	-6476
夂口隹	-6477
vent	-6478
▁505	-6479
▁ern	-6480
▁pon	-6481
▁information	-6482
▁337	-6483
冖水	-6484
▁bt	-6485
rent	-6486
▁1559	-6487
▁hotel	-6488
▁august	-6489
▁common	-6490
pot	-6491
幺大谷	-6492
▁339	-6493
⿱⿱⿲	-6494
▁ascii	-6495
▁states	-6496
▁appli	-6497
子子	-6498
扌夬	-6499
▁4%	-6500
iger	-6501
▁phys	-6502
山及	-6503
𠘧又缶	-6504
▁turn	-6505
幺小	-6506
eno	-6507
med	-6508
十罒心	-6509
▁imax	-6510
▁moun	-6511
acy	-6512
▁645	-6513
▁kenn	-6514
石见	-6515
▁970	-6516
冂二目力	-6517
▁lind	-6518
▁ruby	-6519
▁speed	-6520
▁lr	-6521
▁406	-6522
▁dal	-6523
▁times	-6524
▁academy	-6525
▁1610	-6526
ika	-6527
▁bag	-6528
▁map	-6529
itish	-6530
▁anal	-6531
▁liber	-6532
▁bre	-6533
人人龰耳	-6534
▁hun	-6535
糸言糸山	-6536
▁sport	-6537
▁source	-6538
ites	-6539
▁sant	-6540
▁santa	-6541
▁virgin	-6542
▁geforce	-6543
▁foundation	-6544
eri	-6545
▁619	-6546
▁ari	-6547
▁mhz	-6548
▁1622	-6549
▁1643	-6550
▁stage	-6551
▁british	-6552
▁nr	-6553
▁eos	-6554
▁tol	-6555
▁1642	-6556
▁gear	-6557
oop	-6558
人示田	-6559
▁399	-6560
▁laur	-6561
▁double	-6562
▁io	-6563
▁dyn	-6564
▁gon	-6565
▁gs	-6566
▁rc	-6567
▁brt	-6568
mph	-6569
▁1680	-6570
▁447	-6571
▁347	-6572
▁414	-6573
▁pot	-6574
▁1730	-6575
ado	-6576
hed	-6577
▁jud	-6578
▁pow	-6579
▁1763	-6580
ih	-6581
▁418	-6582
▁row	-6583
𭕄⿻	-6584
扌丸手	-6585
▁515	-6586
▁727	-6587
8661⿱⿱⿻	-6588
𠂆万	-6589
▁rot	-6590
刀丿丶米	-6591
▁williams	-6592
mad	-6593
▁gor	-6594
▁also	-6595
▁simon	-6596
▁access	-6597
▁studios	-6598
幺幺土	-6599
▁585	-6600
▁jos	-6601
▁2800	-6602
▁mytv	-6603
bin	-6604
tist	-6605
▁hero	-6606
esa	-6607
▁617	-6608
▁sug	-6609
ument	-6610
▁1723	-6611
▁chen	-6612
▁fort	-6613
▁1562	-6614
▁1683	-6615
▁flor	-6616
▁arthur	-6617
▁johann	-6618
▁351	-6619
▁1620	-6620
▁hyper	-6621
ols	-6622
亻瓦	-6623
工口	-6624
lah	-6625
▁ali	-6626
▁1517	-6627
▁kill	-6628
▁ross	-6629
8⿷	-6630
▁hm	-6631
▁rf	-6632
▁sts	-6633
ident	-6634
▁1547	-6635
▁kids	-6636
▁chang	-6637
▁opera	-6638
大力	-6639
ogue	-6640
▁kat	-6641
▁sas	-6642
▁when	-6643
van	-6644
▁ox	-6645
▁civ	-6646
erial	-6647
▁made	-6648
pro	-6649
匚儿戈	-6650
▁mam	-6651
▁wolf	-6652
▁15000	-6653
▁lv	-6654
▁lost	-6655
▁ther	-6656
▁wild	-6657
▁jackson	-6658
▁phot	-6659
ize	-6660
▁flo	-6661
▁1556	-6662
▁major	-6663
▁socket	-6664
5⿱⿰⿸	-6665
▁1625	-6666
▁nick	-6667
▁seed	-6668
▁tower	-6669
▁where	-6670
cell	-6671
▁622	-6672
▁639	-6673
▁eth	-6674
⿰⿱⿵	-6675
works	-6676
▁wiki	-6677
uts	-6678
▁abs	-6679
▁mba	-6680
▁rue	-6681
▁1782	-6682
▁jones	-6683
▁615	-6684
▁cba	-6685
▁fred	-6686
dom	-6687
▁bsd	-6688
▁1772	-6689
▁gw	-6690
▁uh	-6691
▁arc	-6692
har	-6693
▁770	-6694
▁920	-6695
▁gab	-6696
▁lot	-6697
▁lte	-6698
▁boys	-6699
▁cham	-6700
▁sunday	-6701
疒且	-6702
▁353	-6703
▁nik	-6704
▁file	-6705
5⿵	-6706
▁mill	-6707
▁view	-6708
▁427	-6709
▁arg	-6710
▁eleven	-6711
▁surface	-6712
▁cos	-6713
亠口小页	-6714
▁days	-6715
▁wall	-6716
▁collection	-6717
亻里	-6718
▁332	-6719
▁35%	-6720
𠂊田一非	-6721
▁1574	-6722
▁mega	-6723
▁css	-6724
▁nmb	-6725
▁1598	-6726
uy	-6727
艹弓	-6728
▁529	-6729
▁kam	-6730
▁1511	-6731
▁nicon	-6732
▁ik	-6733
fred	-6734
𠂊田灬兆	-6735
▁break	-6736
▁apache	-6737
ril	-6738
▁1628	-6739
▁⿳⿲	-6740
roll	-6741
▁irt	-6742
▁yes	-6743
▁gene	-6744
au	-6745
330	-6746
▁aff	-6747
▁gre	-6748
▁six	-6749
▁magic	-6750
▁tf	-6751
▁383	-6752
文糸	-6753
疒久	-6754
▁432	-6755
▁537	-6756
▁605	-6757
▁885	-6758
ments	-6759
▁voca	-6760
▁virtual	-6761
mes	-6762
tie	-6763
tice	-6764
▁341	-6765
▁wel	-6766
light	-6767
▁1662	-6768
▁division	-6769
工阝	-6770
uit	-6771
ches	-6772
▁gpu	-6773
▁gang	-6774
▁into	-6775
ove	-6776
▁cj	-6777
▁kd	-6778
▁371	-6779
▁most	-6780
▁action	-6781
▁niconico	-6782
▁gog	-6783
▁hip	-6784
▁albert	-6785
▁golden	-6786
▁interac	-6787
疒巴	-6788
gam	-6789
nia	-6790
▁1573	-6791
▁1630	-6792
▁karl	-6793
▁walter	-6794
0⿷	-6795
▁361	-6796
▁20000	-6797
▁lp	-6798
▁1660	-6799
▁ener	-6800
▁pict	-6801
贝贝缶	-6802
車斤土	-6803
bang	-6804
▁435	-6805
▁sars	-6806
▁tony	-6807
束頁	-6808
▁1755	-6809
aro	-6810
▁533	-6811
▁1779	-6812
▁2025	-6813
▁rand	-6814
▁never	-6815
丿大山	-6816
elli	-6817
▁408	-6818
▁mys	-6819
▁lew	-6820
▁blood	-6821
ference	-6822
目来	-6823
▁940	-6824
▁walk	-6825
▁548	-6826
▁910	-6827
▁eva	-6828
▁ext	-6829
▁inn	-6830
▁mcc	-6831
▁kt	-6832
▁hkt	-6833
▁make	-6834
▁than	-6835
酉干	-6836
loid	-6837
▁546	-6838
▁3200	-6839
彳弗	-6840
钅重	-6841
bby	-6842
▁577	-6843
abeth	-6844
worth	-6845
▁about	-6846
tier	-6847
▁tun	-6848
⿱⿶⿳⿰	-6849
▁auto	-6850
▁cosp	-6851
▁fish	-6852
▁45%	-6853
▁fs	-6854
iano	-6855
▁409	-6856
▁1560	-6857
▁398	-6858
▁549	-6859
▁705	-6860
▁ave	-6861
▁1621	-6862
▁1774	-6863
▁computer	-6864
ief	-6865
kins	-6866
▁527	-6867
▁ped	-6868
usion	-6869
gl	-6870
口龶见	-6871
▁536	-6872
ember	-6873
▁graph	-6874
▁1490	-6875
▁⿰⿱𭕄⿻	-6876
change	-6877
▁championship	-6878
人人耳	-6879
▁ddr	-6880
atory	-6881
▁nico	-6882
▁avenue	-6883
800	-6884
▁518	-6885
▁iss	-6886
▁talk	-6887
▁tm	-6888
木木米	-6889
▁smart	-6890
▁depart	-6891
bro	-6892
日大阝	-6893
▁sega	-6894
ective	-6895
▁player	-6896
▁season	-6897
wh	-6898
𠂊口比	-6899
▁1649	-6900
金白	-6901
▁bac	-6902
▁samuel	-6903
▁pix	-6904
▁cour	-6905
▁wonder	-6906
⿳𭕄	-6907
亻羊	-6908
ench	-6909
▁446	-6910
▁448	-6911
▁511	-6912
iction	-6913
dm	-6914
▁hyd	-6915
▁infin	-6916
▁future	-6917
▁committ	-6918
▁library	-6919
▁545	-6920
▁547	-6921
▁yam	-6922
oda	-6923
cept	-6924
▁523	-6925
▁790	-6926
▁1637	-6927
▁anna	-6928
240	-6929
bon	-6930
㇇⿴	-6931
▁aur	-6932
▁bah	-6933
ather	-6934
▁1765	-6935
▁mart	-6936
▁rade	-6937
▁alice	-6938
▁chrome	-6939
豸里	-6940
▁lc	-6941
▁499	-6942
▁611	-6943
▁theory	-6944
亚土	-6945
alk	-6946
umi	-6947
yer	-6948
乡隹瓦	-6949
▁516	-6950
▁cel	-6951
▁1624	-6952
▁乎	-6953
▁477	-6954
▁amp	-6955
▁seven	-6956
▁english	-6957
her	-6958
▁hx	-6959
▁487	-6960
▁bes	-6961
▁memor	-6962
▁cosplay	-6963
𠘧又心	-6964
issement	-6965
▁612	-6966
▁1535	-6967
▁1541	-6968
▁ori	-6969
▁1585	-6970
▁1634	-6971
rd	-6972
▁qs	-6973
▁tl	-6974
▁1720	-6975
▁metal	-6976
木石	-6977
cht	-6978
iny	-6979
▁12%	-6980
▁std	-6981
十口儿刂	-6982
▁1627	-6983
▁vita	-6984
▁robin	-6985
▁function	-6986
gn	-6987
▁396	-6988
▁476	-6989
▁cole	-6990
钅玉	-6991
▁pf	-6992
bour	-6993
▁439	-6994
▁506	-6995
▁georg	-6996
▁taylor	-6997
inae	-6998
▁479	-6999
▁tap	-7000
▁here	-7001
tern	-7002
▁455	-7003
▁cali	-7004
▁capital	-7005
▁556	-7006
▁dns	-7007
▁1748	-7008
▁kevin	-7009
8661⿱⿶⿳⿰	-7010
▁christoph	-7011
ees	-7012
oni	-7013
tex	-7014
▁alt	-7015
▁paris	-7016
日卯	-7017
▁brian	-7018
▁exper	-7019
▁422	-7020
▁433	-7021
▁bot	-7022
▁wea	-7023
▁stadium	-7024
▁european	-7025
▁kal	-7026
丨丨比阝	-7027
▁enterp	-7028
don	-7029
▁sex	-7030
▁vit	-7031
▁ck	-7032
ando	-7033
▁626	-7034
▁fab	-7035
▁1250	-7036
▁1629	-7037
▁death	-7038
▁theat	-7039
▁arrond	-7040
广羊	-7041
ety	-7042
▁522	-7043
▁1736	-7044
▁week	-7045
舟方	-7046
▁675	-7047
▁lead	-7048
▁451	-7049
▁1647	-7050
▁1724	-7051
▁mind	-7052
▁⿺⿱⿻⿻	-7053
▁arrondissement	-7054
王耳	-7055
5⿴	-7056
of	-7057
巾隹	-7058
ners	-7059
▁364	-7060
▁jus	-7061
▁nfl	-7062
▁1769	-7063
▁board	-7064
讠非	-7065
▁1631	-7066
bu	-7067
爫见	-7068
▁ati	-7069
▁parad	-7070
▁contin	-7071
ological	-7072
yan	-7073
▁mw	-7074
▁rr	-7075
▁349	-7076
▁368	-7077
▁519	-7078
▁method	-7079
back	-7080
▁486	-7081
▁567	-7082
▁aqu	-7083
▁1529	-7084
▁475	-7085
enger	-7086
▁dohc	-7087
▁full	-7088
▁patrick	-7089
▁369	-7090
▁1727	-7091
▁ubuntu	-7092
ori	-7093
▁area	-7094
▁eu	-7095
▁372	-7096
▁376	-7097
▁552	-7098
▁925	-7099
▁ala	-7100
▁ell	-7101
▁deep	-7102
▁doug	-7103
▁plat	-7104
▁443	-7105
▁1616	-7106
▁mars	-7107
▁pers	-7108
yo	-7109
辶十	-7110
mas	-7111
▁ow	-7112
禾几页	-7113
bach	-7114
▁397	-7115
▁685	-7116
▁services	-7117
▁framework	-7118
▁378	-7119
▁423	-7120
人一口页	-7121
▁priv	-7122
▁426	-7123
▁five	-7124
人人艮	-7125
口夫欠	-7126
ense	-7127
pson	-7128
▁373	-7129
▁508	-7130
▁secur	-7131
▁stone	-7132
▁radeon	-7133
一尸	-7134
疒豆	-7135
imax	-7136
▁ale	-7137
▁1651	-7138
土儿土丸𧘇	-7139
fri	-7140
pur	-7141
口口頁	-7142
▁363	-7143
▁517	-7144
▁pak	-7145
▁transport	-7146
▁sb	-7147
stal	-7148
▁1771	-7149
▁613	-7150
糸言糸木	-7151
ding	-7152
ogen	-7153
▁538	-7154
▁pad	-7155
▁reference	-7156
▁362	-7157
▁ris	-7158
コ一人贝	-7159
8665⿴	-7160
▁original	-7161
109	-7162
𠃊目八	-7163
▁381	-7164
▁614	-7165
▁990	-7166
▁1740	-7167
▁1745	-7168
▁garden	-7169
aki	-7170
tha	-7171
▁df	-7172
▁51%	-7173
▁tgv	-7174
gress	-7175
▁wilson	-7176
dc	-7177
▁99%	-7178
▁wing	-7179
▁rober	-7180
sk	-7181
▁453	-7182
▁nich	-7183
▁movie	-7184
▁spring	-7185
▁theatre	-7186
iva	-7187
▁586	-7188
▁655	-7189
▁lyn	-7190
▁5500	-7191
▁friedrich	-7192
ipei	-7193
▁436	-7194
▁any	-7195
▁hey	-7196
▁mes	-7197
▁1689	-7198
▁1762	-7199
▁1773	-7200
口亚	-7201
戋皿	-7202
▁lie	-7203
▁usa	-7204
目疌	-7205
阝鬼	-7206
hen	-7207
kia	-7208
uer	-7209
▁kv	-7210
▁lm	-7211
▁489	-7212
▁pia	-7213
▁stop	-7214
▁ix	-7215
▁xi	-7216
▁526	-7217
▁pci	-7218
▁burn	-7219
vey	-7220
▁18%	-7221
▁1487	-7222
▁magn	-7223
▁428	-7224
▁dif	-7225
▁1618	-7226
▁1619	-7227
▁907	-7228
▁jet	-7229
▁sher	-7230
cf	-7231
nam	-7232
▁que	-7233
▁1493	-7234
▁1545	-7235
▁offic	-7236
口頁	-7237
rac	-7238
▁717	-7239
anger	-7240
▁hand	-7241
▁lisa	-7242
▁committee	-7243
▁1757	-7244
▁lisp	-7245
▁stri	-7246
▁very	-7247
__	-7248
ages	-7249
▁joy	-7250
▁pse	-7251
▁won	-7252
▁1615	-7253
▁1670	-7254
▁penti	-7255
▁modern	-7256
▁mission	-7257
▁building	-7258
覀示瓜	-7259
odon	-7260
▁715	-7261
▁1544	-7262
▁1735	-7263
▁jenn	-7264
▁repub	-7265
5⿸	-7266
束力	-7267
▁534	-7268
▁635	-7269
▁kom	-7270
bourg	-7271
▁1505	-7272
王申	-7273
缶本	-7274
▁616	-7275
ating	-7276
▁health	-7277
▁457	-7278
▁gsm	-7279
▁wave	-7280
▁lucas	-7281
▁pacific	-7282
▁cz	-7283
▁606	-7284
▁1538	-7285
▁been	-7286
▁taipei	-7287
讠牙	-7288
▁gc	-7289
▁gem	-7290
▁1502	-7291
▁12000	-7292
▁dp	-7293
▁495	-7294
▁cube	-7295
uty	-7296
ries	-7297
▁488	-7298
▁539	-7299
▁636	-7300
▁det	-7301
▁fis	-7302
▁1603	-7303
▁6500	-7304
▁auth	-7305
▁women	-7306
oco	-7307
▁tt	-7308
未攵厂	-7309
▁392	-7310
▁age	-7311
▁fat	-7312
8⿰⿱⿱	-7313
▁michel	-7314
▁tb	-7315
▁532	-7316
山豆頁	-7317
view	-7318
▁815	-7319
▁jar	-7320
▁1688	-7321
▁alfred	-7322
钅目	-7323
ress	-7324
▁bmt	-7325
匚儿斗	-7326
▁bow	-7327
▁smk	-7328
rough	-7329
▁1609	-7330
8661⿰⿸	-7331
匕水頁	-7332
ways	-7333
▁379	-7334
▁lil	-7335
▁sav	-7336
▁tas	-7337
▁wik	-7338
▁1450	-7339
hl	-7340
日兆	-7341
▁2023	-7342
▁3600	-7343
金甘	-7344
▁587	-7345
▁hav	-7346
▁kab	-7347
▁mrna	-7348
case	-7349
▁98%	-7350
▁ral	-7351
▁nord	-7352
uan	-7353
lace	-7354
▁553	-7355
▁628	-7356
▁neo	-7357
▁pit	-7358
▁tot	-7359
▁stars	-7360
▁pentium	-7361
▁vocaloid	-7362
sl	-7363
朱阝	-7364
革末	-7365
▁454	-7366
▁624	-7367
▁711	-7368
▁sid	-7369
▁1370	-7370
▁roman	-7371
dd	-7372
▁9%	-7373
▁vv	-7374
戈戈皿	-7375
▁524	-7376
▁65%	-7377
▁825	-7378
▁haw	-7379
▁obs	-7380
▁1725	-7381
▁come	-7382
谷阝	-7383
▁431	-7384
▁him	-7385
▁dynam	-7386
▁parti	-7387
▁374	-7388
▁fda	-7389
▁1667	-7390
leg	-7391
uki	-7392
▁nan	-7393
火火冖火	-7394
ential	-7395
▁424	-7396
▁513	-7397
▁554	-7398
龙耳	-7399
▁xe	-7400
5⿲㇇	-7401
▁762	-7402
▁rol	-7403
▁perl	-7404
▁valley	-7405
inus	-7406
iron	-7407
▁623	-7408
▁629	-7409
▁money	-7410
bat	-7411
lev	-7412
▁rn	-7413
▁721	-7414
▁prop	-7415
▁marsh	-7416
▁ultra	-7417
▁gamespot	-7418
700	-7419
▁gas	-7420
tdown	-7421
▁1759	-7422
dor	-7423
oom	-7424
尢丶山	-7425
hard	-7426
▁1635	-7427
㇇⿺	-7428
▁394	-7429
▁503	-7430
▁1623	-7431
▁1764	-7432
▁watch	-7433
▁freder	-7434
mg	-7435
八刀阝	-7436
rian	-7437
▁713	-7438
▁1578	-7439
▁sail	-7440
▁active	-7441
utt	-7442
䒑土水	-7443
iday	-7444
▁637	-7445
▁1457	-7446
▁1466	-7447
▁1659	-7448
▁1756	-7449
ias	-7450
usta	-7451
▁nec	-7452
▁1569	-7453
目丁	-7454
▁gd	-7455
▁mand	-7456
ht	-7457
王韦	-7458
helm	-7459
▁551	-7460
inder	-7461
▁gate	-7462
▁mount	-7463
▁巳	-7464
acs	-7465
▁393	-7466
▁531	-7467
▁1050	-7468
▁alli	-7469
来贝	-7470
nel	-7471
▁dx	-7472
▁926	-7473
66⿱⿰	-7474
▁1768	-7475
▁pink	-7476
▁wester	-7477
一虫	-7478
down	-7479
凵丨一虫	-7480
⿸⿱⿰	-7481
▁body	-7482
▁archive	-7483
扌工	-7484
▁ek	-7485
▁438	-7486
▁kid	-7487
▁lud	-7488
▁1752	-7489
▁468	-7490
▁494	-7491
▁576	-7492
▁did	-7493
▁afri	-7494
▁espn	-7495
▁inte	-7496
▁motor	-7497
▁688	-7498
▁890	-7499
▁opp	-7500
▁anne	-7501
▁shop	-7502
▁jason	-7503
wr	-7504
钅贝	-7505
▁050	-7506
▁55%	-7507
▁dip	-7508
𠂊田灬非	-7509
▁1150	-7510
▁front	-7511
▁harris	-7512
▁portable	-7513
▁712	-7514
▁735	-7515
▁bol	-7516
▁1567	-7517
▁index	-7518
▁ville	-7519
lon	-7520
口止八	-7521
日一页	-7522
▁642	-7523
▁805	-7524
▁gnome	-7525
金土	-7526
ival	-7527
▁458	-7528
▁lcd	-7529
▁1733	-7530
nie	-7531
▁pb	-7532
▁542	-7533
▁588	-7534
▁1260	-7535
▁eliz	-7536
▁species	-7537
fi	-7538
㐅刂	-7539
木斥	-7540
艹冖虫	-7541
host	-7542
▁575	-7543
thers	-7544
▁1652	-7545
▁1758	-7546
▁think	-7547
▁fantasy	-7548
ade	-7549
chy	-7550
cia	-7551
▁604	-7552
aster	-7553
▁fern	-7554
▁hell	-7555
▁roll	-7556
木木糸	-7557
hema	-7558
▁521	-7559
▁cia	-7560
▁1601	-7561
▁fact	-7562
▁fami	-7563
亠丷厂生刂	-7564
▁lewis	-7565
▁roger	-7566
扌柬	-7567
fel	-7568
▁509	-7569
▁smap	-7570
8661⿱⿰⿱⿱	-7571
8665⿱⿶⿱⿰	-7572
hu	-7573
▁504	-7574
▁fro	-7575
▁lab	-7576
▁1632	-7577
▁resp	-7578
▁harry	-7579
▁energy	-7580
gie	-7581
一由心	-7582
▁544	-7583
▁acid	-7584
▁sweet	-7585
▁716	-7586
8661⿲㇇	-7587
口自	-7588
ost	-7589
月月刂	-7590
agne	-7591
▁452	-7592
▁ran	-7593
▁struct	-7594
▁termin	-7595
oy	-7596
止匕石	-7597
▁msn	-7598
▁nin	-7599
▁7500	-7600
▁lock	-7601
▁countdown	-7602
oa	-7603
gra	-7604
ater	-7605
▁429	-7606
▁962	-7607
▁tvn	-7608
▁1664	-7609
▁castle	-7610
囗屯	-7611
火韦	-7612
cep	-7613
▁1369	-7614
▁1728	-7615
▁blog	-7616
▁planet	-7617
▁complex	-7618
火火阝	-7619
禾儿頁	-7620
▁ccd	-7621
▁das	-7622
▁1604	-7623
▁1654	-7624
▁poem	-7625
ues	-7626
ears	-7627
▁936	-7628
▁cad	-7629
▁adhd	-7630
▁tell	-7631
8⿰⿸	-7632
▁565	-7633
▁566	-7634
▁ost	-7635
▁look	-7636
▁472	-7637
▁725	-7638
▁1575	-7639
▁1655	-7640
▁1729	-7641
▁foll	-7642
▁freed	-7643
八刀心	-7644
▁case	-7645
▁being	-7646
▁382	-7647
▁391	-7648
▁632	-7649
▁755	-7650
▁ful	-7651
▁snow	-7652
▁version	-7653
镸彡毛	-7654
▁437	-7655
▁765	-7656
▁kur	-7657
▁npc	-7658
ether	-7659
▁1767	-7660
▁march	-7661
▁ue	-7662
▁vt	-7663
ku	-7664
冂丨	-7665
▁kb	-7666
ancy	-7667
tran	-7668
▁vor	-7669
ennis	-7670
▁1572	-7671
▁1589	-7672
▁1595	-7673
▁anthony	-7674
▁557	-7675
▁1584	-7676
▁1613	-7677
𠃊目	-7678
▁507	-7679
▁514	-7680
▁634	-7681
▁648	-7682
▁bun	-7683
▁kle	-7684
▁spect	-7685
ain	-7686
fan	-7687
alis	-7688
▁646	-7689
peria	-7690
▁1701	-7691
met	-7692
▁isa	-7693
火欠	-7694
ties	-7695
▁686	-7696
▁785	-7697
▁1684	-7698
▁juan	-7699
▁wong	-7700
▁pascal	-7701
▁ois	-7702
▁1540	-7703
▁nokia	-7704
fly	-7705
𠃊目小	-7706
▁cash	-7707
▁mira	-7708
wi	-7709
▁dk	-7710
ique	-7711
▁lem	-7712
▁1626	-7713
▁cath	-7714
▁food	-7715
▁hein	-7716
▁machine	-7717
ala	-7718
bas	-7719
宀八串	-7720
▁vip	-7721
▁enterprise	-7722
▁christopher	-7723
ulu	-7724
▁bp	-7725
ones	-7726
▁vcd	-7727
▁1638	-7728
▁1685	-7729
▁avex	-7730
▁philipp	-7731
▁holdings	-7732
▁commission	-7733
▁interactive	-7734
▁687	-7735
▁1612	-7736
▁hosp	-7737
▁davis	-7738
▁alexand	-7739
目于	-7740
▁jp	-7741
▁658	-7742
▁fem	-7743
▁lol	-7744
▁nig	-7745
▁1350	-7746
▁1469	-7747
▁493	-7748
▁835	-7749
▁classic	-7750
门隹	-7751
⺊口乚	-7752
▁467	-7753
▁603	-7754
▁945	-7755
▁ufo	-7756
▁1478	-7757
▁1721	-7758
▁1751	-7759
▁1766	-7760
▁report	-7761
imo	-7762
ole	-7763
𠂇巾阝	-7764
▁561	-7765
▁1614	-7766
▁3166	-7767
▁engineering	-7768
zh	-7769
ars	-7770
ois	-7771
▁444	-7772
▁sac	-7773
▁path	-7774
▁rank	-7775
▁xperia	-7776
钅甘	-7777
cip	-7778
vet	-7779
女又巾	-7780
▁541	-7781
berry	-7782
▁1713	-7783
▁concert	-7784
ifi	-7785
tes	-7786
uda	-7787
▁mn	-7788
一由寸	-7789
oper	-7790
▁464	-7791
▁638	-7792
▁689	-7793
▁cit	-7794
▁nuc	-7795
5⿱⿱⿱	-7796
▁ryan	-7797
▁metro	-7798
rot	-7799
▁13%	-7800
▁aer	-7801
▁ans	-7802
▁hms	-7803
▁miller	-7804
▁wilhelm	-7805
忄千	-7806
bol	-7807
hol	-7808
atan	-7809
▁667	-7810
▁1754	-7811
264	-7812
ango	-7813
▁647	-7814
▁651	-7815
▁912	-7816
▁986	-7817
▁tag	-7818
▁1587	-7819
intosh	-7820
▁elizabeth	-7821
氵里	-7822
一丂页	-7823
endo	-7824
▁456	-7825
▁nak	-7826
▁mail	-7827
▁philip	-7828
kan	-7829
▁484	-7830
▁722	-7831
▁rod	-7832
▁based	-7833
▁const	-7834
▁gamec	-7835
女丑	-7836
lect	-7837
▁492	-7838
▁845	-7839
▁965	-7840
bes	-7841
tig	-7842
八刀木	-7843
▁975	-7844
▁1561	-7845
▁rick	-7846
350	-7847
agon	-7848
▁684	-7849
▁tnt	-7850
▁1639	-7851
▁coll	-7852
▁archit	-7853
▁directx	-7854
▁ks	-7855
▁441	-7856
▁731	-7857
▁937	-7858
▁1280	-7859
lus	-7860
▁cx	-7861
bers	-7862
▁498	-7863
▁itv	-7864
▁1526	-7865
▁1761	-7866
▁jane	-7867
▁sens	-7868
▁peace	-7869
▁showcase	-7870
8⿵	-7871
irs	-7872
一八糸	-7873
丷夫己	-7874
▁929	-7875
▁ica	-7876
ature	-7877
eater	-7878
▁1658	-7879
▁1753	-7880
▁arena	-7881
▁memory	-7882
110	-7883
osph	-7884
tech	-7885
▁559	-7886
▁568	-7887
▁cis	-7888
▁1496	-7889
▁allen	-7890
▁department	-7891
▁482	-7892
▁496	-7893
▁668	-7894
▁gian	-7895
uff	-7896
▁719	-7897
▁amazon	-7898
atch	-7899
▁arn	-7900
▁gri	-7901
▁room	-7902
▁wash	-7903
▁yosh	-7904
▁califor	-7905
erm	-7906
▁ud	-7907
扌丸𧘇	-7908
▁gamer	-7909
▁natural	-7910
hew	-7911
phy	-7912
▁915	-7913
▁bec	-7914
▁tit	-7915
▁maur	-7916
▁short	-7917
▁generation	-7918
▁government	-7919
门三	-7920
pend	-7921
▁918	-7922
▁aba	-7923
▁oce	-7924
▁oly	-7925
scape	-7926
▁3300	-7927
▁vice	-7928
▁extra	-7929
▁bigbang	-7930
via	-7931
oche	-7932
▁596	-7933
未攵厂牛	-7934
▁1707	-7935
▁1732	-7936
▁ling	-7937
▁marc	-7938
▁scot	-7939
▁macos	-7940
▁prime	-7941
▁histor	-7942
▁633	-7943
▁969	-7944
▁rela	-7945
▁scan	-7946
▁piece	-7947
oi	-7948
ils	-7949
▁lat	-7950
▁1593	-7951
▁turbo	-7952
▁victoria	-7953
钅巴	-7954
enz	-7955
▁863	-7956
▁1588	-7957
▁1690	-7958
▁atom	-7959
▁sain	-7960
▁advanced	-7961
▁483	-7962
▁mut	-7963
▁sud	-7964
▁dash	-7965
bis	-7966
▁562	-7967
▁598	-7968
▁pga	-7969
羊䒑口阝	-7970
▁1475	-7971
▁barb	-7972
▁diam	-7973
▁howard	-7974
纟非	-7975
▁nk	-7976
▁rg	-7977
䒑土心	-7978
▁zen	-7979
▁brun	-7980
▁gord	-7981
▁perfect	-7982
▁hospital	-7983
▁universal	-7984
zan	-7985
igan	-7986
▁469	-7987
▁cass	-7988
▁imag	-7989
▁khan	-7990
▁then	-7991
▁682	-7992
▁704	-7993
▁706	-7994
▁947	-7995
▁973	-7996
𠂉大巨木	-7997
music	-7998
▁1520	-7999
▁1607	-8000
▁pseud	-8001
▁twins	-8002
▁invest	-8003
lu	-8004
王玉	-8005
ppe	-8006
ione	-8007
▁449	-8008
▁751	-8009
▁846	-8010
▁vhs	-8011
▁fron	-8012
石本	-8013
ista	-8014
▁471	-8015
▁602	-8016
▁729	-8017
▁876	-8018
▁stat	-8019
▁597	-8020
▁718	-8021
▁nap	-8022
▁pul	-8023
▁1657	-8024
业㡀	-8025
mark	-8026
▁677	-8027
▁759	-8028
▁sad	-8029
▁fast	-8030
豸才	-8031
▁766	-8032
▁905	-8033
▁dear	-8034
▁formation	-8035
▁14%	-8036
▁434	-8037
▁573	-8038
▁eug	-8039
▁rca	-8040
▁1710	-8041
▁gram	-8042
▁elect	-8043
▁review	-8044
mw	-8045
py	-8046
山由	-8047
金戉	-8048
bow	-8049
zzo	-8050
▁kc	-8051
▁1460	-8052
▁gaon	-8053
▁lear	-8054
▁rest	-8055
▁symb	-8056
8661⿷	-8057
▁clark	-8058
灬又	-8059
gas	-8060
lis	-8061
rin	-8062
usa	-8063
▁ws	-8064
▁681	-8065
▁1726	-8066
▁catal	-8067
辶入	-8068
▁wu	-8069
▁571	-8070
▁tac	-8071
𠂊田灬方	-8072
under	-8073
▁1453	-8074
▁1555	-8075
▁1611	-8076
▁1737	-8077
▁hart	-8078
▁vision	-8079
hal	-8080
𠁣𠃛隹	-8081
bell	-8082
▁478	-8083
▁756	-8084
▁812	-8085
▁nac	-8086
▁bios	-8087
enberg	-8088
8960⿸⿸	-8089
tz	-8090
▁bos	-8091
▁exo	-8092
▁1530	-8093
▁nova	-8094
▁western	-8095
▁mountain	-8096
▁ria	-8097
▁artist	-8098
▁gamecube	-8099
口木火	-8100
▁atm	-8101
▁ras	-8102
▁scope	-8103
▁studies	-8104
乃小	-8105
▁aq	-8106
▁666	-8107
▁obj	-8108
▁1679	-8109
▁youtuber	-8110
冂一谷	-8111
card	-8112
▁738	-8113
▁813	-8114
▁atr	-8115
▁rud	-8116
▁tes	-8117
▁1380	-8118
▁1430	-8119
▁1524	-8120
▁1532	-8121
▁1717	-8122
▁1718	-8123
冂一谷又土	-8124
▁exile	-8125
▁attack	-8126
艹且	-8127
dez	-8128
omy	-8129
hedr	-8130
▁esp	-8131
人一口阝	-8132
▁1130	-8133
▁1454	-8134
氵巳	-8135
113	-8136
agar	-8137
▁847	-8138
▁1525	-8139
▁1675	-8140
▁penn	-8141
口言	-8142
701	-8143
bda	-8144
anni	-8145
more	-8146
▁1697	-8147
▁1715	-8148
▁hack	-8149
ax	-8150
车乚	-8151
▁nv	-8152
▁qt	-8153
⿱⿶	-8154
etta	-8155
▁609	-8156
▁fig	-8157
▁1492	-8158
▁1681	-8159
▁pear	-8160
rt	-8161
▁alg	-8162
▁fol	-8163
▁1633	-8164
▁1747	-8165
▁gary	-8166
▁lion	-8167
石隹	-8168
head	-8169
▁459	-8170
▁817	-8171
丨丨比米	-8172
craft	-8173
▁1481	-8174
▁1666	-8175
▁1742	-8176
▁frances	-8177
▁revolution	-8178
大火	-8179
山见	-8180
文口	-8181
灬大	-8182
cci	-8183
ogo	-8184
▁923	-8185
▁935	-8186
▁pent	-8187
▁storm	-8188
du	-8189
ophy	-8190
▁11%	-8191
▁hem	-8192
▁ncc	-8193
▁1523	-8194
▁1591	-8195
▁kick	-8196
▁guide	-8197
▁table	-8198
▁⿺⿸	-8199
口贝阝	-8200
ians	-8201
olis	-8202
▁16%	-8203
▁927	-8204
▁997	-8205
▁ges	-8206
▁caro	-8207
▁cris	-8208
▁viii	-8209
▁henri	-8210
▁match	-8211
▁security	-8212
钅不	-8213
木木止	-8214
ysis	-8215
▁ide	-8216
8⿱⿱⿻	-8217
▁1731	-8218
▁antonio	-8219
dal	-8220
uto	-8221
口口瓦	-8222
bury	-8223
▁558	-8224
▁702	-8225
▁821	-8226
46⿸⿸	-8227
▁1581	-8228
▁kara	-8229
▁triple	-8230
▁nf	-8231
▁boo	-8232
▁cac	-8233
▁1641	-8234
lim	-8235
▁nl	-8236
▁463	-8237
▁563	-8238
▁andy	-8239
8661⿰⿳⿱	-8240
必皿	-8241
疒羊	-8242
oon	-8243
▁bj	-8244
ross	-8245
▁dlc	-8246
▁1653	-8247
▁1738	-8248
▁olymp	-8249
vy	-8250
一未	-8251
阝垂	-8252
口止重	-8253
haus	-8254
▁17%	-8255
▁497	-8256
▁543	-8257
▁572	-8258
▁dsp	-8259
乛耳攵心	-8260
▁1672	-8261
▁tree	-8262
oshi	-8263
▁579	-8264
▁643	-8265
▁726	-8266
▁rim	-8267
▁cool	-8268
bridge	-8269
ension	-8270
竹世	-8271
𠂉丹	-8272
▁__	-8273
fore	-8274
▁708	-8275
▁hur	-8276
▁1564	-8277
▁1714	-8278
▁plaza	-8279
▁california	-8280
𠂉𠃓	-8281
丿丿火	-8282
iner	-8283
▁461	-8284
▁sis	-8285
▁1722	-8286
▁1739	-8287
▁dick	-8288
▁logo	-8289
▁airport	-8290
𠂇子攵	-8291
ulus	-8292
▁self	-8293
▁want	-8294
▁naver	-8295
▁donald	-8296
月井	-8297
1000	-8298
lass	-8299
▁714	-8300
▁xiii	-8301
▁through	-8302
zar	-8303
▁875	-8304
▁chu	-8305
▁pil	-8306
▁1699	-8307
▁camer	-8308
ulation	-8309
8⿱⿻	-8310
▁733	-8311
▁hud	-8312
acter	-8313
▁1734	-8314
▁mall	-8315
▁vent	-8316
▁johnny	-8317
▁singap	-8318
民日	-8319
▁582	-8320
▁745	-8321
▁816	-8322
▁823	-8323
▁sap	-8324
▁moham	-8325
▁commer	-8326
▁princip	-8327
aw	-8328
kn	-8329
mc	-8330
ales	-8331
wick	-8332
▁826	-8333
▁902	-8334
▁greg	-8335
▁civil	-8336
8661⿱⿴	-8337
▁command	-8338
▁forever	-8339
▁mathema	-8340
▁premium	-8341
▁49%	-8342
▁865	-8343
▁cccc	-8344
▁dual	-8345
▁wanna	-8346
▁carlos	-8347
雨非	-8348
anny	-8349
▁481	-8350
▁574	-8351
▁656	-8352
▁919	-8353
▁kad	-8354
▁sie	-8355
▁tog	-8356
eland	-8357
▁1563	-8358
▁whit	-8359
▁delta	-8360
▁macintosh	-8361
kar	-8362
uis	-8363
▁tp	-8364
▁649	-8365
▁811	-8366
▁hxd	-8367
▁put	-8368
▁tin	-8369
▁1599	-8370
▁openg	-8371
▁another	-8372
石木	-8373
105	-8374
▁sul	-8375
▁1514	-8376
▁living	-8377
▁perfor	-8378
日一毛	-8379
▁808	-8380
▁933	-8381
▁971	-8382
▁996	-8383
▁cut	-8384
▁1709	-8385
▁army	-8386
▁asian	-8387
▁chart	-8388
▁democ	-8389
▁years	-8390
▁middle	-8391
虫斗	-8392
25%	-8393
▁659	-8394
▁788	-8395
▁796	-8396
▁877	-8397
▁939	-8398
▁wol	-8399
▁1665	-8400
▁1744	-8401
▁bass	-8402
▁page	-8403
▁25000	-8404
▁medium	-8405
▁support	-8406
vc	-8407
wc	-8408
mur	-8409
▁474	-8410
▁657	-8411
▁938	-8412
iment	-8413
▁1602	-8414
▁1605	-8415
▁return	-8416
王禹	-8417
arc	-8418
acle	-8419
ilton	-8420
▁fate	-8421
▁quad	-8422
▁orange	-8423
▁against	-8424
▁francisco	-8425
icy	-8426
▁786	-8427
▁818	-8428
▁cdma	-8429
▁hugh	-8430
▁shah	-8431
▁friends	-8432
▁independ	-8433
▁dreamcast	-8434
▁ou	-8435
覀示刂	-8436
town	-8437
▁473	-8438
▁988	-8439
▁kay	-8440
▁lun	-8441
▁1576	-8442
▁dota	-8443
ography	-8444
▁sailor	-8445
tio	-8446
▁ji	-8447
ized	-8448
▁768	-8449
▁775	-8450
▁819	-8451
▁fit	-8452
▁1566	-8453
▁1673	-8454
▁dave	-8455
▁step	-8456
▁labor	-8457
▁local	-8458
ications	-8459
▁anderson	-8460
hip	-8461
▁hl	-8462
㇇⿹	-8463
▁569	-8464
▁578	-8465
▁908	-8466
▁951	-8467
▁etc	-8468
▁eye	-8469
▁kol	-8470
angel	-8471
utsch	-8472
▁1542	-8473
▁1749	-8474
▁spin	-8475
㇇⿰⿱⿱	-8476
▁ocean	-8477
▁ccccff	-8478
▁german	-8479
cp	-8480
ween	-8481
▁888	-8482
▁bernard	-8483
▁television	-8484
icus	-8485
▁33%	-8486
▁595	-8487
▁761	-8488
▁ach	-8489
▁zip	-8490
▁1687	-8491
▁atlan	-8492
▁audio	-8493
▁follow	-8494
丷田	-8495
▁hg	-8496
▁pn	-8497
丷田日	-8498
▁748	-8499
▁842	-8500
▁jes	-8501
▁wir	-8502
▁1001	-8503
▁1741	-8504
▁epic	-8505
▁palm	-8506
▁ghost	-8507
▁these	-8508
▁margar	-8509
▁country	-8510
口寸灬	-8511
ifer	-8512
▁746	-8513
▁jal	-8514
space	-8515
world	-8516
▁1669	-8517
▁azure	-8518
▁image	-8519
46⿷	-8520
▁wm	-8521
▁741	-8522
▁leo	-8523
order	-8524
▁sams	-8525
▁community	-8526
ido	-8527
▁fp	-8528
aker	-8529
ules	-8530
▁692	-8531
▁guy	-8532
▁jag	-8533
▁pod	-8534
office	-8535
▁freebsd	-8536
▁medical	-8537
非虫	-8538
▁lt	-8539
夫丷页	-8540
▁653	-8541
▁661	-8542
▁709	-8543
▁884	-8544
▁928	-8545
▁dee	-8546
▁hub	-8547
▁kra	-8548
▁1180	-8549
▁songs	-8550
▁associ	-8551
▁exchange	-8552
ev	-8553
arts	-8554
▁608	-8555
▁bom	-8556
▁use	-8557
弋一止贝	-8558
ament	-8559
▁wang	-8560
▁honey	-8561
▁twice	-8562
▁singapore	-8563
女臣	-8564
▁wp	-8565
body	-8566
▁822	-8567
▁957	-8568
▁ner	-8569
▁1536	-8570
▁1617	-8571
▁giov	-8572
▁orch	-8573
▁bruce	-8574
▁intell	-8575
310	-8576
▁dw	-8577
▁ez	-8578
▁pel	-8579
▁tax	-8580
▁1656	-8581
▁circ	-8582
▁coco	-8583
▁easy	-8584
▁scar	-8585
vention	-8586
▁legend	-8587
▁pictures	-8588
▁conference	-8589
greg	-8590
phal	-8591
reis	-8592
▁641	-8593
▁662	-8594
▁1127	-8595
▁bing	-8596
▁demo	-8597
▁hope	-8598
8960⿹	-8599
uka	-8600
▁644	-8601
istry	-8602
▁2024	-8603
▁gaga	-8604
▁kent	-8605
▁carol	-8606
▁canada	-8607
▁debian	-8608
▁monster	-8609
▁village	-8610
禺頁	-8611
耒巴	-8612
340	-8613
▁aj	-8614
ashi	-8615
onia	-8616
▁698	-8617
▁886	-8618
stone	-8619
kes	-8620
odes	-8621
▁914	-8622
▁add	-8623
▁stu	-8624
▁josh	-8625
阝止	-8626
orph	-8627
▁895	-8628
▁948	-8629
▁kai	-8630
tiful	-8631
▁1519	-8632
▁1537	-8633
▁1597	-8634
▁bran	-8635
▁drama	-8636
▁initi	-8637
iri	-8638
▁pw	-8639
立十糸	-8640
uary	-8641
▁979	-8642
estra	-8643
▁jimmy	-8644
▁walker	-8645
edy	-8646
▁1230	-8647
▁1676	-8648
▁urban	-8649
107	-8650
gio	-8651
▁ug	-8652
▁652	-8653
▁724	-8654
▁728	-8655
▁beh	-8656
▁1558	-8657
▁eyes	-8658
▁ster	-8659
▁author	-8660
ju	-8661
mic	-8662
wart	-8663
▁593	-8664
▁599	-8665
▁ats	-8666
▁raid	-8667
▁30000	-8668
▁activ	-8669
▁lambda	-8670
▁object	-8671
土丘	-8672
▁sq	-8673
▁bis	-8674
▁sequ	-8675
▁temple	-8676
▁xy	-8677
▁491	-8678
▁564	-8679
▁754	-8680
▁ian	-8681
lines	-8682
▁1674	-8683
▁admin	-8684
▁kelly	-8685
▁change	-8686
▁spirit	-8687
▁window	-8688
勹言	-8689
歹央	-8690
艹果	-8691
金皮	-8692
▁rm	-8693
▁vf	-8694
冖车阝	-8695
aria	-8696
▁839	-8697
▁955	-8698
shire	-8699
▁1522	-8700
▁1712	-8701
▁maca	-8702
▁gordon	-8703
▁winter	-8704
▁netscape	-8705
火乐	-8706
02%	-8707
103	-8708
120	-8709
▁594	-8710
▁827	-8711
▁946	-8712
sters	-8713
▁ober	-8714
▁lamigo	-8715
金本	-8716
oka	-8717
冂卄禾	-8718
lete	-8719
olic	-8720
▁896	-8721
▁dub	-8722
▁kun	-8723
▁benn	-8724
▁score	-8725
▁identi	-8726
▁nature	-8727
alo	-8728
ilog	-8729
▁exe	-8730
▁1527	-8731
▁root	-8732
▁trin	-8733
▁texas	-8734
▁search	-8735
pd	-8736
wd	-8737
▁683	-8738
▁tet	-8739
rence	-8740
▁1371	-8741
▁ward	-8742
▁factory	-8743
㇀⿰	-8744
lica	-8745
▁bee	-8746
▁teau	-8747
▁quick	-8748
▁steven	-8749
▁evolution	-8750
钅必	-8751
eda	-8752
put	-8753
othy	-8754
▁736	-8755
▁1746	-8756
▁benj	-8757
▁kind	-8758
▁prote	-8759
▁trust	-8760
▁proper	-8761
▁between	-8762
▁partners	-8763
▁beautiful	-8764
▁mf	-8765
▁676	-8766
▁toy	-8767
▁1220	-8768
▁1277	-8769
▁1435	-8770
▁1579	-8771
▁cover	-8772
▁wright	-8773
▁yellow	-8774
▁culture	-8775
▁perfume	-8776
ru	-8777
米果	-8778
amo	-8779
lem	-8780
lyn	-8781
arch	-8782
▁881	-8783
▁934	-8784
▁pip	-8785
overy	-8786
point	-8787
▁1606	-8788
▁jord	-8789
▁hunter	-8790
emb	-8791
het	-8792
ente	-8793
▁584	-8794
▁866	-8795
▁gay	-8796
▁sdk	-8797
▁factor	-8798
▁nation	-8799
▁sevent	-8800
▁environ	-8801
▁matthew	-8802
▁frederick	-8803
ici	-8804
▁ej	-8805
▁723	-8806
▁789	-8807
▁798	-8808
iting	-8809
▁fund	-8810
▁trade	-8811
▁opengl	-8812
▁jacques	-8813
日火	-8814
氵日	-8815
里灬	-8816
116	-8817
imi	-8818
ype	-8819
▁vp	-8820
illy	-8821
▁016	-8822
▁fur	-8823
▁hug	-8824
▁nit	-8825
▁1472	-8826
▁cycl	-8827
▁midi	-8828
▁samsung	-8829
kir	-8830
pal	-8831
▁oz	-8832
▁xl	-8833
▁824	-8834
火火冖水	-8835
▁3800	-8836
▁brad	-8837
chester	-8838
▁alliance	-8839
▁px	-8840
▁gui	-8841
▁hab	-8842
▁imm	-8843
▁idol	-8844
日方	-8845
00%	-8846
pie	-8847
wig	-8848
▁917	-8849
alian	-8850
▁grow	-8851
▁stay	-8852
月甫	-8853
▁806	-8854
▁855	-8855
▁968	-8856
▁977	-8857
▁ein	-8858
▁kap	-8859
▁plc	-8860
▁1440	-8861
▁1512	-8862
▁1702	-8863
vs	-8864
adi	-8865
ras	-8866
▁sz	-8867
▁xf	-8868
stad	-8869
▁913	-8870
▁tru	-8871
糸言糸手	-8872
▁used	-8873
▁republic	-8874
氵来	-8875
讠夬	-8876
▁mh	-8877
bank	-8878
▁809	-8879
▁ibn	-8880
▁url	-8881
▁1711	-8882
▁bomb	-8883
▁boot	-8884
104	-8885
emy	-8886
▁916	-8887
▁981	-8888
▁nom	-8889
▁1066	-8890
▁1508	-8891
▁daily	-8892
▁display	-8893
▁669	-8894
▁749	-8895
▁1276	-8896
▁1464	-8897
▁1510	-8898
▁would	-8899
▁forest	-8900
ono	-8901
㇇⿳	-8902
enne	-8903
▁592	-8904
▁833	-8905
▁995	-8906
▁oem	-8907
▁reb	-8908
▁rou	-8909
▁flow	-8910
▁differ	-8911
▁douglas	-8912
▁sj	-8913
口口页	-8914
dies	-8915
▁843	-8916
▁922	-8917
▁acp	-8918
▁1546	-8919
▁extr	-8920
motion	-8921
▁brook	-8922
▁fight	-8923
▁shinee	-8924
▁princess	-8925
ios	-8926
▁hz	-8927
▁iu	-8928
▁771	-8929
▁apm	-8930
▁hag	-8931
凵丨凵示	-8932
▁sarah	-8933
33%	-8934
inn	-8935
tus	-8936
▁nn	-8937
▁462	-8938
▁732	-8939
▁nel	-8940
▁mate	-8941
▁canon	-8942
▁creek	-8943
▁moore	-8944
▁agency	-8945
钅川	-8946
▁781	-8947
▁828	-8948
▁904	-8949
▁aust	-8950
▁prom	-8951
▁wifi	-8952
▁books	-8953
▁malay	-8954
▁financ	-8955
▁flight	-8956
▁kingdom	-8957
8⿹	-8958
zza	-8959
iler	-8960
▁838	-8961
▁882	-8962
▁caf	-8963
▁1024	-8964
▁1385	-8965
▁1663	-8966
▁jpeg	-8967
▁teen	-8968
▁remix	-8969
▁valve	-8970
▁russell	-8971
▁christmas	-8972
bw	-8973
aku	-8974
▁wc	-8975
▁739	-8976
▁1703	-8977
▁such	-8978
▁clear	-8979
▁total	-8980
▁jonathan	-8981
kit	-8982
▁020	-8983
▁784	-8984
▁uni	-8985
▁technolog	-8986
ree	-8987
▁tn	-8988
oria	-8989
▁1682	-8990
easure	-8991
ecture	-8992
▁still	-8993
虫冉	-8994
75%	-8995
ati	-8996
▁803	-8997
▁976	-8998
▁occ	-8999
▁rav	-9000
▁tee	-9001
▁blackp	-9002
▁creative	-9003
03%	-9004
▁fd	-9005
▁wy	-9006
ocus	-9007
onda	-9008
ving	-9009
▁691	-9010
▁924	-9011
▁iris	-9012
▁iron	-9013
▁skype	-9014
▁tourn	-9015
▁before	-9016
▁brothers	-9017
▁kp	-9018
anth	-9019
▁699	-9020
▁763	-9021
▁829	-9022
▁amx	-9023
▁sak	-9024
▁sed	-9025
𠂊田灬工	-9026
▁shir	-9027
▁benjamin	-9028
▁noinclude	-9029
102	-9030
gro	-9031
var	-9032
▁bn	-9033
夫夫车	-9034
itar	-9035
▁836	-9036
▁97%	-9037
▁iup	-9038
▁syl	-9039
▁1499	-9040
▁1668	-9041
▁1719	-9042
▁wise	-9043
rs	-9044
123	-9045
rap	-9046
▁1552	-9047
▁sola	-9048
▁doctor	-9049
▁administ	-9050
cad	-9051
cap	-9052
ying	-9053
▁acg	-9054
▁aps	-9055
▁obe	-9056
▁1040	-9057
▁1506	-9058
▁bart	-9059
▁crystal	-9060
▁diamond	-9061
▁premier	-9062
01%	-9063
习习廾	-9064
bber	-9065
▁tat	-9066
▁1420	-9067
▁hydro	-9068
▁lovel	-9069
饣耳	-9070
iah	-9071
oid	-9072
▁zu	-9073
bird	-9074
▁ipa	-9075
mance	-9076
▁1070	-9077
▁1557	-9078
▁born	-9079
▁coup	-9080
▁nint	-9081
▁pont	-9082
▁user	-9083
▁beach	-9084
▁pixel	-9085
8665⿰⿳	-9086
▁lf	-9087
otte	-9088
▁663	-9089
▁837	-9090
▁961	-9091
▁1705	-9092
dn	-9093
土隶	-9094
jan	-9095
mum	-9096
▁ei	-9097
▁uv	-9098
▁672	-9099
▁695	-9100
▁703	-9101
▁942	-9102
▁987	-9103
▁pav	-9104
▁child	-9105
▁yours	-9106
▁constr	-9107
▁powers	-9108
▁without	-9109
钅朱	-9110
ted	-9111
▁783	-9112
▁1340	-9113
▁1415	-9114
▁burg	-9115
▁gray	-9116
▁southern	-9117
05%	-9118
pad	-9119
icip	-9120
▁989	-9121
▁1125	-9122
▁1516	-9123
▁1596	-9124
▁jtbc	-9125
▁tang	-9126
▁publish	-9127
▁memorial	-9128
aru	-9129
yon	-9130
ists	-9131
▁887	-9132
▁ana	-9133
▁ark	-9134
ample	-9135
▁1275	-9136
▁billy	-9137
▁heaven	-9138
▁moment	-9139
dh	-9140
wo	-9141
14%	-9142
gate	-9143
▁744	-9144
▁psv	-9145
▁1390	-9146
▁1451	-9147
▁ford	-9148
▁cinem	-9149
▁together	-9150
▁washington	-9151
▁rif	-9152
lands	-9153
▁1330	-9154
▁lumia	-9155
▁morris	-9156
900	-9157
illi	-9158
▁849	-9159
▁897	-9160
▁1528	-9161
▁1543	-9162
▁proble	-9163
▁provin	-9164
▁spacex	-9165
▁thunder	-9166
15%	-9167
rum	-9168
▁678	-9169
▁ips	-9170
▁jak	-9171
▁sit	-9172
▁1442	-9173
▁1513	-9174
▁1549	-9175
▁1678	-9176
▁berg	-9177
▁franz	-9178
▁psych	-9179
uba	-9180
band	-9181
▁591	-9182
▁679	-9183
▁tma	-9184
▁yan	-9185
ibili	-9186
▁grace	-9187
▁youth	-9188
ination	-9189
▁electric	-9190
▁margaret	-9191
111	-9192
150	-9193
ser	-9194
口止石	-9195
0⿱⿰	-9196
izon	-9197
▁952	-9198
▁ree	-9199
▁wow	-9200
▁quar	-9201
▁soph	-9202
▁april	-9203
▁jacob	-9204
▁morning	-9205
08%	-9206
▁hc	-9207
▁752	-9208
▁gym	-9209
▁nts	-9210
▁1716	-9211
▁virginia	-9212
金朱	-9213
aha	-9214
lav	-9215
zel	-9216
▁631	-9217
𠂊田一屯	-9218
▁1382	-9219
▁need	-9220
66⿰⿱⿱	-9221
▁solid	-9222
▁environment	-9223
言斤	-9224
▁uf	-9225
anti	-9226
▁966	-9227
▁982	-9228
▁dll	-9229
▁saw	-9230
▁1554	-9231
▁4800	-9232
▁effect	-9233
▁freedom	-9234
▁include	-9235
▁bilibili	-9236
▁intellig	-9237
一阝	-9238
弓耳	-9239
ced	-9240
hai	-9241
▁vm	-9242
feld	-9243
▁lex	-9244
▁1686	-9245
▁8500	-9246
▁advent	-9247
▁distrib	-9248
▁municip	-9249
▁nintendo	-9250
大車	-9251
arm	-9252
oul	-9253
山大車	-9254
eyer	-9255
rier	-9256
▁amb	-9257
lement	-9258
▁minor	-9259
▁sigma	-9260
▁professional	-9261
04%	-9262
99%	-9263
det	-9264
hem	-9265
8⿱⿲	-9266
aten	-9267
▁23%	-9268
▁nem	-9269
▁rio	-9270
▁buff	-9271
▁appro	-9272
▁partic	-9273
▁travel	-9274
▁blackpink	-9275
190	-9276
▁002	-9277
▁gim	-9278
▁lip	-9279
▁kris	-9280
▁poin	-9281
▁mother	-9282
▁analysis	-9283
几止	-9284
户非	-9285
189	-9286
▁743	-9287
▁1594	-9288
▁3700	-9289
▁brea	-9290
▁sang	-9291
ything	-9292
▁oliver	-9293
▁england	-9294
▁primary	-9295
虫甘	-9296
▁fw	-9297
▁vc	-9298
rial	-9299
riel	-9300
▁883	-9301
▁kot	-9302
▁vas	-9303
eller	-9304
▁1010	-9305
▁1691	-9306
▁1692	-9307
▁nike	-9308
▁race	-9309
▁sciences	-9310
車乚	-9311
iser	-9312
▁673	-9313
▁1170	-9314
▁2050	-9315
▁bish	-9316
▁dean	-9317
▁host	-9318
▁them	-9319
▁qualif	-9320
nh	-9321
low	-9322
8⿱⿳	-9323
▁852	-9324
▁hid	-9325
▁1534	-9326
▁coff	-9327
▁requ	-9328
▁shot	-9329
▁abdul	-9330
▁della	-9331
▁stock	-9332
▁norman	-9333
▁technologies	-9334
sd	-9335
口黑	-9336
67%	-9337
eco	-9338
kien	-9339
▁889	-9340
▁rex	-9341
▁riv	-9342
▁1320	-9343
▁thor	-9344
8960⿵	-9345
▁guard	-9346
▁french	-9347
▁movement	-9348
气川	-9349
11%	-9350
125	-9351
elo	-9352
▁004	-9353
▁792	-9354
▁lac	-9355
▁nic	-9356
▁spy	-9357
▁1270	-9358
▁1445	-9359
▁instr	-9360
▁staff	-9361
▁tiger	-9362
▁leonard	-9363
虫丘	-9364
95%	-9365
▁iz	-9366
omer	-9367
▁664	-9368
▁814	-9369
▁862	-9370
▁864	-9371
▁cri	-9372
▁utf	-9373
⿰⿰⿱	-9374
▁1433	-9375
lag	-9376
▁zi	-9377
▁906	-9378
▁998	-9379
▁bap	-9380
▁1240	-9381
▁1677	-9382
▁1704	-9383
▁ming	-9384
▁belie	-9385
▁value	-9386
▁charlie	-9387
▁material	-9388
几歹	-9389
106	-9390
镸彡冉	-9391
osis	-9392
▁804	-9393
▁dsm	-9394
▁ntt	-9395
▁1234	-9396
▁1694	-9397
▁bobby	-9398
▁rainbow	-9399
二女	-9400
96%	-9401
▁zo	-9402
sten	-9403
▁693	-9404
▁949	-9405
▁967	-9406
▁aks	-9407
▁jin	-9408
▁seg	-9409
▁cafe	-9410
▁exec	-9411
▁iata	-9412
▁candy	-9413
▁graham	-9414
203	-9415
▁696	-9416
▁lon	-9417
▁oak	-9418
▁1030	-9419
▁1480	-9420
▁even	-9421
▁study	-9422
▁lawrence	-9423
▁financial	-9424
▁promotion	-9425
hy	-9426
▁bw	-9427
▁665	-9428
▁909	-9429
▁943	-9430
▁ade	-9431
▁beca	-9432
▁cost	-9433
▁sncf	-9434
▁worms	-9435
▁present	-9436
▁running	-9437
▁performance	-9438
▁productions	-9439
犭弗	-9440
13%	-9441
edo	-9442
idi	-9443
base	-9444
lard	-9445
▁779	-9446
▁794	-9447
▁807	-9448
▁851	-9449
▁aar	-9450
▁why	-9451
▁mala	-9452
▁scho	-9453
16%	-9454
cop	-9455
wal	-9456
toon	-9457
▁gig	-9458
color	-9459
▁1743	-9460
▁justin	-9461
▁velvet	-9462
▁giovanni	-9463
▁thompson	-9464
木巴	-9465
06%	-9466
85%	-9467
cin	-9468
uru	-9469
▁jb	-9470
▁734	-9471
▁844	-9472
▁972	-9473
▁clo	-9474
▁1278	-9475
▁1533	-9476
▁1696	-9477
▁mong	-9478
▁sent	-9479
▁reich	-9480
▁tommy	-9481
▁ground	-9482
▁jordan	-9483
115	-9484
21%	-9485
24%	-9486
ete	-9487
ulo	-9488
0⿰⿹	-9489
▁874	-9490
▁959	-9491
▁kil	-9492
▁1190	-9493
▁1608	-9494
▁4200	-9495
▁ange	-9496
▁chun	-9497
▁give	-9498
▁oliv	-9499
▁wars	-9500
▁police	-9501
▁roberts	-9502
目目	-9503
艹氏	-9504
121	-9505
27%	-9506
hib	-9507
目八阝	-9508
立十手	-9509
▁dag	-9510
▁away	-9511
▁lane	-9512
▁plant	-9513
8661⿰⿱⿱	-9514
王己	-9515
▁dn	-9516
▁694	-9517
▁753	-9518
▁831	-9519
▁898	-9520
▁amc	-9521
▁giv	-9522
▁1515	-9523
▁hamilton	-9524
▁messenger	-9525
px	-9526
木柬	-9527
豕豕	-9528
18%	-9529
orm	-9530
pes	-9531
lock	-9532
type	-9533
▁nes	-9534
▁rid	-9535
▁1011	-9536
▁1360	-9537
▁feel	-9538
▁mort	-9539
▁baron	-9540
▁later	-9541
▁deutsch	-9542
▁tolkien	-9543
17%	-9544
23%	-9545
omi	-9546
pin	-9547
▁030	-9548
▁fed	-9549
▁rgb	-9550
▁1140	-9551
▁1376	-9552
▁sainte	-9553
oke	-9554
▁956	-9555
▁cem	-9556
▁echo	-9557
▁less	-9558
▁chung	-9559
▁cyber	-9560
gg	-9561
07%	-9562
nik	-9563
rah	-9564
ski	-9565
乀丿虫	-9566
ledge	-9567
▁1279	-9568
▁1693	-9569
▁3400	-9570
▁ifpi	-9571
▁charl	-9572
▁century	-9573
▁destiny	-9574
▁application	-9575
42%	-9576
▁010	-9577
▁654	-9578
▁944	-9579
▁983	-9580
▁1404	-9581
▁1470	-9582
▁earl	-9583
▁sara	-9584
▁cinema	-9585
isk	-9586
▁jd	-9587
▁oe	-9588
▁017	-9589
▁848	-9590
▁jew	-9591
▁woo	-9592
▁1708	-9593
▁keep	-9594
▁rights	-9595
▁scheme	-9596
▁adm	-9597
▁cab	-9598
▁jen	-9599
▁vie	-9600
▁1403	-9601
▁ferr	-9602
friend	-9603
▁democra	-9604
▁justice	-9605
uh	-9606
32%	-9607
▁869	-9608
▁bam	-9609
▁bmg	-9610
▁lux	-9611
▁rig	-9612
ality	-9613
▁1388	-9614
▁1695	-9615
▁care	-9616
▁duke	-9617
▁pick	-9618
▁vocal	-9619
▁normal	-9620
▁universit	-9621
▁references	-9622
讠几	-9623
12%	-9624
虫虫皿	-9625
load	-9626
omet	-9627
room	-9628
▁052	-9629
▁hyp	-9630
▁vvv	-9631
▁1204	-9632
▁mack	-9633
▁maker	-9634
▁device	-9635
▁rapper	-9636
117	-9637
ben	-9638
uli	-9639
▁tk	-9640
火火刂	-9641
▁22%	-9642
▁797	-9643
▁899	-9644
▁cbe	-9645
▁dod	-9646
▁1548	-9647
▁bird	-9648
▁nine	-9649
▁40000	-9650
▁third	-9651
土亚	-9652
ahl	-9653
king	-9654
▁alf	-9655
▁rus	-9656
▁sou	-9657
▁tls	-9658
▁upd	-9659
▁1135	-9660
▁2900	-9661
▁coast	-9662
▁iupac	-9663
▁kitty	-9664
▁korea	-9665
▁symph	-9666
▁thing	-9667
▁northern	-9668
竹艮	-9669
▁vb	-9670
竹艮皿	-9671
orum	-9672
ring	-9673
▁841	-9674
▁891	-9675
▁993	-9676
▁dei	-9677
目目隹又	-9678
owski	-9679
▁philos	-9680
氵尺	-9681
58%	-9682
▁782	-9683
▁892	-9684
▁958	-9685
▁992	-9686
丰丰豆阝	-9687
eless	-9688
▁1392	-9689
▁1706	-9690
▁clos	-9691
▁ping	-9692
hedral	-9693
▁railway	-9694
▁tz	-9695
𠂒口阝	-9696
46⿹	-9697
▁932	-9698
▁much	-9699
▁phen	-9700
▁nexus	-9701
▁legacy	-9702
王月	-9703
122	-9704
98%	-9705
冂口木	-9706
▁24%	-9707
▁mee	-9708
▁yang	-9709
▁check	-9710
▁terra	-9711
▁metrop	-9712
土艮	-9713
戊臣	-9714
木比	-9715
77%	-9716
▁dz	-9717
ilia	-9718
▁080	-9719
▁ens	-9720
▁rib	-9721
▁1551	-9722
▁grant	-9723
▁motion	-9724
▁observ	-9725
▁origin	-9726
8665⿱⿰⿱	-9727
▁release	-9728
brid	-9729
▁769	-9730
㇇⿱⿰	-9731
▁1129	-9732
▁bear	-9733
▁half	-9734
▁lice	-9735
▁piet	-9736
▁50000	-9737
▁while	-9738
▁yoshiki	-9739
▁animation	-9740
▁federation	-9741
19%	-9742
82%	-9743
▁fb	-9744
▁gg	-9745
lier	-9746
▁nag	-9747
▁1206	-9748
▁shap	-9749
▁craig	-9750
▁today	-9751
▁private	-9752
衤夬	-9753
22%	-9754
▁qf	-9755
▁ui	-9756
ario	-9757
▁697	-9758
▁jst	-9759
▁1539	-9760
▁clin	-9761
▁gent	-9762
▁kath	-9763
▁prize	-9764
▁smile	-9765
▁theod	-9766
▁robinson	-9767
rik	-9768
late	-9769
utch	-9770
▁21%	-9771
▁764	-9772
▁954	-9773
▁ctv	-9774
▁own	-9775
pping	-9776
▁leop	-9777
▁luis	-9778
▁pure	-9779
▁holly	-9780
▁jerry	-9781
▁liter	-9782
▁flying	-9783
28%	-9784
34%	-9785
小丿衣	-9786
bson	-9787
▁cot	-9788
▁lay	-9789
▁1406	-9790
▁meet	-9791
▁node	-9792
▁alter	-9793
▁beauty	-9794
▁dennis	-9795
石𠃓	-9796
35%	-9797
386	-9798
boy	-9799
hic	-9800
▁674	-9801
▁atv	-9802
itary	-9803
▁hunt	-9804
▁australia	-9805
asi	-9806
bed	-9807
▁963	-9808
▁cum	-9809
丨丨比几	-9810
▁hend	-9811
▁otto	-9812
▁saab	-9813
▁event	-9814
▁sever	-9815
▁gallery	-9816
▁president	-9817
矛𧘇	-9818
钅皮	-9819
rov	-9820
pres	-9821
▁bib	-9822
▁hir	-9823
▁wer	-9824
▁ansi	-9825
▁vogue	-9826
▁flower	-9827
ppa	-9828
目八缶	-9829
▁pho	-9830
▁tha	-9831
▁vpn	-9832
▁1120	-9833
▁1448	-9834
▁grey	-9835
▁sohc	-9836
▁tong	-9837
▁wish	-9838
▁electronic	-9839
bab	-9840
bur	-9841
mod	-9842
力口衣	-9843
氵𠃓火	-9844
▁671	-9845
▁too	-9846
▁1356	-9847
▁corp	-9848
▁pret	-9849
▁palazzo	-9850
▁lovelive	-9851
㇀	-9852
47%	-9853
emi	-9854
wiki	-9855
▁015	-9856
▁931	-9857
▁ecc	-9858
▁pom	-9859
▁1215	-9860
▁both	-9861
▁doma	-9862
▁early	-9863
▁oracle	-9864
▁shadow	-9865
xa	-9866
37%	-9867
38%	-9868
65%	-9869
oux	-9870
ythm	-9871
▁893	-9872
▁dre	-9873
▁gap	-9874
cloud	-9875
▁1067	-9876
▁buck	-9877
▁icao	-9878
▁wool	-9879
53%	-9880
87%	-9881
kov	-9882
code	-9883
side	-9884
▁894	-9885
▁lev	-9886
▁xen	-9887
▁yak	-9888
▁past	-9889
▁andre	-9890
▁emule	-9891
▁india	-9892
▁keith	-9893
▁manga	-9894
▁sense	-9895
▁pocket	-9896
▁broadcast	-9897
疒山	-9898
86%	-9899
▁gf	-9900
▁hb	-9901
亠矛𧘇	-9902
▁774	-9903
▁941	-9904
▁isp	-9905
▁chall	-9906
▁gmail	-9907
▁discovery	-9908
山山	-9909
白匕	-9910
竹戋	-9911
52%	-9912
ount	-9913
▁878	-9914
▁dio	-9915
▁len	-9916
▁sco	-9917
▁1295	-9918
▁carp	-9919
▁sugar	-9920
▁circle	-9921
钅巨	-9922
66%	-9923
log	-9924
alle	-9925
▁854	-9926
▁amu	-9927
▁eco	-9928
▁kas	-9929
▁sce	-9930
▁1439	-9931
▁1509	-9932
▁1671	-9933
▁animax	-9934
▁campbell	-9935
▁heinrich	-9936
▁27%	-9937
▁795	-9938
▁jol	-9939
▁sli	-9940
▁1225	-9941
▁1413	-9942
▁peri	-9943
▁crazy	-9944
▁grande	-9945
▁element	-9946
▁cathedral	-9947
干干	-9948
202	-9949
29%	-9950
erg	-9951
mit	-9952
yes	-9953
tric	-9954
▁791	-9955
▁amy	-9956
108	-9957
126	-9958
226	-9959
30%	-9960
rid	-9961
▁eh	-9962
▁rk	-9963
eaux	-9964
▁776	-9965
▁tow	-9966
▁udp	-9967
▁wit	-9968
▁3100	-9969
▁cond	-9970
▁find	-9971
▁fine	-9972
timate	-9973
utions	-9974
▁domin	-9975
▁excel	-9976
▁medic	-9977
▁suite	-9978
▁integr	-9979
▁protoc	-9980
王页	-9981
49%	-9982
▁868	-9983
▁984	-9984
▁dro	-9985
shine	-9986
▁1494	-9987
▁astr	-9988
▁bour	-9989
▁horn	-9990
▁chief	-9991
▁creat	-9992
▁swing	-9993
44%	-9994
48%	-9995
▁832	-9996
▁834	-9997
▁ata	-9998
▁ces	-9999
▁sip	-10000
anche	-10001
▁1020	-10002
▁brit	-10003
▁font	-10004
▁trna	-10005
▁artic	-10006
8661⿰⿻	-10007
▁gogoro	-10008
▁retrie	-10009
zj	-10010
57%	-10011
93%	-10012
立十纟	-10013
agen	-10014
▁26%	-10015
▁pir	-10016
osaur	-10017
▁1185	-10018
▁carr	-10019
▁sata	-10020
▁ship	-10021
ipedia	-10022
▁anime	-10023
camatan	-10024
▁empire	-10025
▁stream	-10026
8661⿱⿵⿵	-10027
▁kenneth	-10028
禾末	-10029
97%	-10030
▁dg	-10031
▁964	-10032
▁bio	-10033
井一八言	-10034
liner	-10035
▁1375	-10036
▁1407	-10037
▁bond	-10038
▁null	-10039
▁senior	-10040
▁cinemas	-10041
▁kecamatan	-10042
kv	-10043
rh	-10044
人工	-10045
20%	-10046
36%	-10047
▁fg	-10048
mund	-10049
▁799	-10050
▁sab	-10051
▁tum	-10052
▁1060	-10053
▁1399	-10054
▁1498	-10055
▁ivan	-10056
▁ntfs	-10057
▁crown	-10058
▁marine	-10059
▁politi	-10060
▁simple	-10061
yt	-10062
毛求	-10063
45%	-10064
ffe	-10065
▁kj	-10066
▁867	-10067
▁afi	-10068
▁atc	-10069
▁fia	-10070
▁ves	-10071
▁1290	-10072
8665⿱⿵⿵	-10073
▁annivers	-10074
▁rockstar	-10075
▁interface	-10076
▁transform	-10077
ek	-10078
yu	-10079
26%	-10080
39%	-10081
40%	-10082
92%	-10083
▁nx	-10084
irus	-10085
ping	-10086
▁991	-10087
▁gaz	-10088
▁mud	-10089
▁1189	-10090
▁colon	-10091
8661⿰⿰	-10092
▁winner	-10093
▁bgcolor	-10094
▁character	-10095
水水	-10096
钅戉	-10097
360	-10098
50%	-10099
▁rw	-10100
tima	-10101
▁858	-10102
▁96%	-10103
▁jis	-10104
▁mta	-10105
illes	-10106
▁1214	-10107
▁plas	-10108
▁cooper	-10109
礻韦	-10110
rus	-10111
1911	-10112
▁bog	-10113
▁ich	-10114
▁1501	-10115
▁1698	-10116
▁cmos	-10117
▁para	-10118
▁trax	-10119
▁ralph	-10120
▁woman	-10121
▁canton	-10122
▁hudson	-10123
▁aircraft	-10124
▁economic	-10125
▁training	-10126
56%	-10127
88%	-10128
iso	-10129
0000	-10130
dium	-10131
tium	-10132
▁012	-10133
▁772	-10134
▁aes	-10135
▁llo	-10136
▁1137	-10137
▁gree	-10138
▁price	-10139
▁ernest	-10140
▁seventeen	-10141
aco	-10142
ards	-10143
▁778	-10144
▁mck	-10145
▁1138	-10146
▁1449	-10147
▁1531	-10148
▁hous	-10149
62%	-10150
69%	-10151
▁yf	-10152
▁872	-10153
▁barr	-10154
▁danc	-10155
▁jazz	-10156
8⿱⿶⿱⿰	-10157
▁basil	-10158
▁around	-10159
▁contra	-10160
▁nathan	-10161
▁strong	-10162
▁million	-10163
▁anniversary	-10164
王龙	-10165
46%	-10166
63%	-10167
▁gul	-10168
▁ome	-10169
dford	-10170
▁1425	-10171
▁1488	-10172
▁merc	-10173
▁barry	-10174
▁films	-10175
▁shang	-10176
一又	-10177
二儿	-10178
虫皿	-10179
fun	-10180
▁lz	-10181
▁28%	-10182
▁aux	-10183
𠂊田灬弗	-10184
illon	-10185
▁1160	-10186
▁1421	-10187
▁bull	-10188
▁bund	-10189
▁gith	-10190
ighter	-10191
▁titan	-10192
▁strate	-10193
▁stewart	-10194
目冘	-10195
09%	-10196
mel	-10197
lear	-10198
▁060	-10199
▁974	-10200
▁1328	-10201
▁1504	-10202
▁powerpc	-10203
41%	-10204
59%	-10205
68%	-10206
81%	-10207
89%	-10208
jet	-10209
owa	-10210
ants	-10211
asia	-10212
▁fav	-10213
▁mcd	-10214
▁tec	-10215
▁flag	-10216
▁imdb	-10217
▁joan	-10218
▁many	-10219
▁faith	-10220
▁vehic	-10221
▁github	-10222
jn	-10223
73%	-10224
oca	-10225
ores	-10226
▁ric	-10227
▁wav	-10228
一厶土阝	-10229
▁1265	-10230
▁1364	-10231
▁1412	-10232
▁1503	-10233
▁stein	-10234
▁susan	-10235
▁hybrid	-10236
43%	-10237
54%	-10238
bla	-10239
ige	-10240
iza	-10241
ting	-10242
▁879	-10243
▁hus	-10244
▁nim	-10245
▁1219	-10246
▁bent	-10247
▁draw	-10248
▁hang	-10249
▁scri	-10250
ification	-10251
王几	-10252
iae	-10253
▁wn	-10254
▁003	-10255
▁emo	-10256
▁rin	-10257
▁ssl	-10258
▁xxx	-10259
▁calc	-10260
▁epis	-10261
▁macb	-10262
▁terr	-10263
▁visa	-10264
▁mechan	-10265
▁continu	-10266
▁example	-10267
▁fortran	-10268
▁stanley	-10269
▁communications	-10270
氵龙	-10271
爿未	-10272
白木	-10273
虫乚	-10274
55%	-10275
84%	-10276
冂丶阝	-10277
▁040	-10278
▁43%	-10279
▁cec	-10280
▁rer	-10281
▁wes	-10282
丷八白木	-10283
lipse	-10284
▁soho	-10285
▁sult	-10286
▁baker	-10287
▁cloud	-10288
▁melon	-10289
▁paper	-10290
8661⿳𭕄	-10291
torrent	-10292
▁lucasarts	-10293
▁vh	-10294
link	-10295
▁36%	-10296
▁42%	-10297
▁psr	-10298
▁rip	-10299
▁shoot	-10300
▁aggreg	-10301
sc	-10302
丿干	-10303
71%	-10304
▁994	-10305
▁tir	-10306
▁1424	-10307
▁prix	-10308
▁larry	-10309
▁logic	-10310
▁angela	-10311
▁professor	-10312
dl	-10313
女以	-10314
72%	-10315
cch	-10316
dit	-10317
ket	-10318
uta	-10319
▁853	-10320
▁873	-10321
▁gmb	-10322
▁rah	-10323
▁spo	-10324
▁ufc	-10325
▁chal	-10326
▁trip	-10327
ecraft	-10328
▁signal	-10329
▁electron	-10330
艹豆	-10331
70%	-10332
gel	-10333
mat	-10334
igne	-10335
▁lap	-10336
style	-10337
uther	-10338
▁arms	-10339
▁cosm	-10340
▁idea	-10341
▁june	-10342
▁beast	-10343
▁chand	-10344
▁chica	-10345
▁monte	-10346
▁shock	-10347
su	-10348
231	-10349
31%	-10350
76%	-10351
dio	-10352
▁xd	-10353
▁cre	-10354
8⿱⿱⿱	-10355
uster	-10356
▁1394	-10357
▁1507	-10358
▁corn	-10359
▁same	-10360
▁suica	-10361
▁during	-10362
▁scienti	-10363
气乃	-10364
79%	-10365
abe	-10366
sty	-10367
▁ih	-10368
isch	-10369
life	-10370
▁070	-10371
▁773	-10372
▁859	-10373
▁sib	-10374
▁sse	-10375
▁1110	-10376
▁trea	-10377
▁brain	-10378
▁ernst	-10379
▁dreams	-10380
▁captain	-10381
▁yourself	-10382
钅土	-10383
▁013	-10384
▁19%	-10385
▁793	-10386
▁hin	-10387
▁nhl	-10388
▁1086	-10389
▁kamp	-10390
▁spar	-10391
▁tank	-10392
▁forum	-10393
▁hills	-10394
▁smack	-10395
▁region	-10396
▁resour	-10397
木予	-10398
51%	-10399
iden	-10400
▁ptt	-10401
人人龰心	-10402
istic	-10403
▁1115	-10404
▁hide	-10405
▁site	-10406
▁bishop	-10407
▁vincent	-10408
▁hh	-10409
土土阝	-10410
▁agm	-10411
ische	-10412
opter	-10413
▁1085	-10414
▁1227	-10415
▁1402	-10416
▁1409	-10417
▁each	-10418
▁emba	-10419
▁rate	-10420
▁canad	-10421
▁marcus	-10422
▁myster	-10423
gp	-10424
64%	-10425
8⿳	-10426
iac	-10427
peti	-10428
▁857	-10429
▁1465	-10430
▁mang	-10431
8661⿶	-10432
▁infor	-10433
▁montb	-10434
▁phase	-10435
▁range	-10436
▁carter	-10437
▁raymond	-10438
5⿷	-10439
mid	-10440
uen	-10441
勹巳刂	-10442
iles	-10443
lich	-10444
utes	-10445
▁fen	-10446
▁ole	-10447
▁vik	-10448
uring	-10449
▁1471	-10450
▁dawn	-10451
▁gangan	-10452
▁sunshine	-10453
广阝	-10454
火屯	-10455
礻乃	-10456
khz	-10457
▁iq	-10458
▁qr	-10459
cial	-10460
▁dot	-10461
▁ktv	-10462
▁nog	-10463
▁ple	-10464
▁1387	-10465
▁1497	-10466
▁1518	-10467
▁glad	-10468
▁roth	-10469
othing	-10470
▁certif	-10471
▁repres	-10472
▁gabriel	-10473
▁islands	-10474
▁official	-10475
口我	-10476
疒𠃓	-10477
uil	-10478
口止皮	-10479
▁953	-10480
▁gol	-10481
▁holy	-10482
▁incl	-10483
▁salv	-10484
▁terry	-10485
▁independent	-10486
60%	-10487
78%	-10488
▁bk	-10489
news	-10490
▁lok	-10491
▁mlb	-10492
0⿱⿱⿱	-10493
▁1155	-10494
▁gmbh	-10495
▁alive	-10496
▁griff	-10497
▁butter	-10498
▁morgan	-10499
▁complete	-10500
口甘	-10501
uti	-10502
uve	-10503
mers	-10504
▁38%	-10505
▁csm	-10506
▁1217	-10507
▁1377	-10508
▁temp	-10509
▁pedro	-10510
▁varia	-10511
▁herbert	-10512
▁greatest	-10513
口人	-10514
𠂇冂	-10515
205	-10516
80%	-10517
orp	-10518
sky	-10519
dale	-10520
▁sns	-10521
▁1099	-10522
▁rush	-10523
▁vern	-10524
▁11000	-10525
8960⿳⿳	-10526
▁knight	-10527
aa	-10528
112	-10529
129	-10530
61%	-10531
rim	-10532
sia	-10533
▁006	-10534
▁32%	-10535
▁kok	-10536
▁lav	-10537
▁lia	-10538
糸言糸子	-10539
▁1213	-10540
▁1495	-10541
▁5200	-10542
▁shel	-10543
▁sonic	-10544
itation	-10545
▁always	-10546
▁theater	-10547
彳来	-10548
249	-10549
chu	-10550
ovi	-10551
儿丨金	-10552
龶月见	-10553
road	-10554
tify	-10555
▁051	-10556
▁lod	-10557
▁1122	-10558
▁1211	-10559
▁size	-10560
▁tard	-10561
▁wake	-10562
▁johan	-10563
▁claude	-10564
▁safari	-10565
▁lb	-10566
eman	-10567
fort	-10568
▁025	-10569
▁856	-10570
▁hil	-10571
▁pid	-10572
▁tok	-10573
kreis	-10574
▁1210	-10575
▁vict	-10576
8661⿻㇀	-10577
▁provid	-10578
艹必	-10579
124	-10580
74%	-10581
kel	-10582
▁tx	-10583
士示隶	-10584
▁cbc	-10585
▁kos	-10586
▁1142	-10587
▁citi	-10588
▁insp	-10589
▁rule	-10590
▁concept	-10591
enge	-10592
fish	-10593
▁aub	-10594
▁1075	-10595
▁friday	-10596
▁architecture	-10597
ef	-10598
冂山	-10599
竹肃	-10600
0⿴	-10601
▁871	-10602
▁cow	-10603
▁hed	-10604
▁kee	-10605
▁ngo	-10606
𠂊田灬身	-10607
tains	-10608
▁1016	-10609
▁1161	-10610
▁1216	-10611
▁1274	-10612
亠丷厂彡頁	-10613
enburg	-10614
▁matrix	-10615
▁alphago	-10616
▁gregory	-10617
▁organization	-10618
▁communication	-10619
83%	-10620
lap	-10621
rat	-10622
▁ov	-10623
0⿱⿳	-10624
ichi	-10625
onna	-10626
plus	-10627
▁cub	-10628
▁sbl	-10629
▁sph	-10630
opsis	-10631
▁1224	-10632
▁1367	-10633
▁1485	-10634
▁cele	-10635
▁grav	-10636
▁risc	-10637
▁bloom	-10638
▁laura	-10639
▁vector	-10640
8661⿱⿳𭕄	-10641
▁evangel	-10642
▁document	-10643
▁smackdown	-10644
233	-10645
____	-10646
each	-10647
olas	-10648
▁dup	-10649
▁lit	-10650
▁mrs	-10651
▁raj	-10652
▁spl	-10653
▁1266	-10654
▁1285	-10655
▁gonz	-10656
▁hung	-10657
▁stem	-10658
▁choice	-10659
▁chicago	-10660
▁eclipse	-10661
▁jessica	-10662
▁graphics	-10663
94%	-10664
far	-10665
厶口阝	-10666
issa	-10667
▁44%	-10668
▁cgi	-10669
▁itu	-10670
⿱⿳⿳	-10671
ances	-10672
ields	-10673
▁1374	-10674
▁assist	-10675
▁chiang	-10676
▁solaris	-10677
▁cultural	-10678
▁jur	-10679
▁mpa	-10680
▁try	-10681
▁wto	-10682
丷干丸虫	-10683
▁1253	-10684
▁chrom	-10685
▁joint	-10686
▁minecraft	-10687
▁retrieved	-10688
▁丶	-10689
307	-10690
orus	-10691
▁1025	-10692
▁dong	-10693
▁wasp	-10694
▁cheng	-10695
▁genie	-10696
▁gusta	-10697
▁mysql	-10698
▁fusion	-10699
▁someth	-10700
▁represent	-10701
tb	-10702
月甲	-10703
金衣	-10704
乡隹土	-10705
人人且	-10706
bble	-10707
ever	-10708
▁bmp	-10709
▁bod	-10710
▁esc	-10711
▁fle	-10712
一中冖石	-10713
ovich	-10714
▁1410	-10715
▁1438	-10716
▁chat	-10717
▁mond	-10718
▁alber	-10719
ability	-10720
▁ludwig	-10721
▁warren	-10722
▁transit	-10723
bee	-10724
omp	-10725
come	-10726
pher	-10727
▁aud	-10728
▁sos	-10729
▁spa	-10730
▁⿱⿳⿻	-10731
丨丨比金	-10732
▁1405	-10733
▁pled	-10734
▁sean	-10735
stream	-10736
▁conso	-10737
▁helen	-10738
艹虫	-10739
金不	-10740
136	-10741
305	-10742
inc	-10743
set	-10744
aman	-10745
dell	-10746
▁geo	-10747
▁tig	-10748
▁wwf	-10749
▁1381	-10750
▁1429	-10751
▁1477	-10752
▁loop	-10753
▁nano	-10754
▁photo	-10755
8665⿹⿶	-10756
▁rhythm	-10757
山鬼	-10758
10%	-10759
195	-10760
204	-10761
nar	-10762
enda	-10763
till	-10764
▁abu	-10765
▁cox	-10766
▁dsi	-10767
▁nfc	-10768
▁1126	-10769
▁1397	-10770
▁1476	-10771
▁ikon	-10772
▁lite	-10773
▁oscar	-10774
▁estate	-10775
▁eastern	-10776
▁foreign	-10777
▁macbook	-10778
▁platform	-10779
▁progress	-10780
▁municipal	-10781
▁wikipedia	-10782
iy	-10783
lr	-10784
opa	-10785
一八皮	-10786
八刀土	-10787
wich	-10788
▁aac	-10789
▁bai	-10790
▁cfm	-10791
ected	-10792
inary	-10793
▁must	-10794
▁glass	-10795
▁truth	-10796
▁federal	-10797
▁myspace	-10798
▁ultimate	-10799
vm	-10800
umo	-10801
ined	-10802
vest	-10803
▁861	-10804
▁gan	-10805
▁nds	-10806
▁1116	-10807
▁elli	-10808
▁datab	-10809
▁columb	-10810
▁bittorrent	-10811
亻巨	-10812
扌垂	-10813
tek	-10814
▁aeg	-10815
▁nos	-10816
ience	-10817
stand	-10818
▁1235	-10819
▁nato	-10820
▁sept	-10821
▁autom	-10822
▁birth	-10823
▁shift	-10824
▁thank	-10825
▁disney	-10826
▁oxford	-10827
▁sultan	-10828
▁australian	-10829
扌东	-10830
etf	-10831
▁wz	-10832
重力灬	-10833
asis	-10834
shop	-10835
▁cct	-10836
▁drm	-10837
▁maz	-10838
▁tib	-10839
ccess	-10840
▁1139	-10841
▁cust	-10842
▁help	-10843
▁amazing	-10844
▁manager	-10845
▁learning	-10846
一隹	-10847
犭九	-10848
钅乙	-10849
002	-10850
dem	-10851
▁zf	-10852
▁34%	-10853
▁47%	-10854
▁92%	-10855
▁1241	-10856
▁affa	-10857
▁arab	-10858
▁flex	-10859
▁rise	-10860
▁unif	-10861
8665⿱⿳	-10862
▁better	-10863
▁palace	-10864
▁genesis	-10865
▁airlines	-10866
▁students	-10867
廴由	-10868
艹目	-10869
esp	-10870
tob	-10871
▁zn	-10872
木斤白	-10873
▁bae	-10874
▁ssd	-10875
▁xii	-10876
ienne	-10877
▁1355	-10878
▁1456	-10879
▁bahn	-10880
▁beck	-10881
▁clay	-10882
▁cnbc	-10883
bourne	-10884
▁devil	-10885
▁route	-10886
▁cherry	-10887
▁lovely	-10888
▁piazza	-10889
▁content	-10890
▁nicholas	-10891
▁convention	-10892
the	-10893
burn	-10894
tius	-10895
wald	-10896
▁37%	-10897
▁52%	-10898
▁elf	-10899
▁ftp	-10900
▁nab	-10901
▁tsa	-10902
ensen	-10903
▁1351	-10904
▁1389	-10905
▁1428	-10906
▁fash	-10907
▁joey	-10908
▁near	-10909
▁rosa	-10910
▁spot	-10911
▁vill	-10912
script	-10913
▁beats	-10914
▁danny	-10915
▁lotus	-10916
▁congress	-10917
▁protocol	-10918
▁transfer	-10919
had	-10920
oly	-10921
▁iw	-10922
▁jf	-10923
八厶心	-10924
east	-10925
fire	-10926
gins	-10927
html	-10928
ived	-10929
▁vil	-10930
▁1455	-10931
▁mile	-10932
▁proc	-10933
▁viet	-10934
▁assemb	-10935
▁combin	-10936
▁medicine	-10937
▁investment	-10938
舟中	-10939
ieu	-10940
丷夫言	-10941
5⿰⿰	-10942
ania	-10943
▁053	-10944
▁pew	-10945
ingen	-10946
▁1119	-10947
▁neil	-10948
▁vvvf	-10949
▁kings	-10950
▁athlon	-10951
▁pledis	-10952
▁current	-10953
fy	-10954
米巴	-10955
chin	-10956
ured	-10957
▁kla	-10958
▁llc	-10959
▁pam	-10960
ength	-10961
▁1004	-10962
▁1208	-10963
▁4400	-10964
▁aero	-10965
▁drop	-10966
▁karen	-10967
▁large	-10968
▁param	-10969
▁believe	-10970
金卯	-10971
262	-10972
▁sx	-10973
车斤土	-10974
char	-10975
▁eld	-10976
▁era	-10977
▁gcc	-10978
umont	-10979
▁1002	-10980
▁1187	-10981
▁1229	-10982
▁1287	-10983
▁1333	-10984
▁1373	-10985
▁4700	-10986
▁hipp	-10987
▁focus	-10988
▁maxim	-10989
▁victory	-10990
▁universe	-10991
▁nb	-10992
耳耳頁	-10993
illo	-10994
▁46%	-10995
▁ads	-10996
▁ddg	-10997
▁pda	-10998
▁sov	-10999
▁tsh	-11000
water	-11001
▁1044	-11002
▁1162	-11003
▁1271	-11004
▁1467	-11005
▁disp	-11006
▁rodr	-11007
▁sala	-11008
▁gross	-11009
▁coffee	-11010
▁domain	-11011
▁letter	-11012
▁allmusic	-11013
▁aggregate	-11014
▁francesco	-11015
▁structure	-11016
▁industrial	-11017
▁cinemascore	-11018
▁毌	-11019
口羊	-11020
▁rl	-11021
idas	-11022
uten	-11023
▁ore	-11024
66⿵⿰	-11025
▁1123	-11026
▁1414	-11027
▁1482	-11028
▁4300	-11029
▁beam	-11030
▁prac	-11031
olitan	-11032
▁13000	-11033
▁blues	-11034
▁nancy	-11035
▁shine	-11036
▁indian	-11037
▁openoffice	-11038
pha	-11039
幺幺子	-11040
ador	-11041
blue	-11042
▁ada	-11043
▁buk	-11044
▁eif	-11045
ative	-11046
▁1071	-11047
▁1111	-11048
▁1153	-11049
▁1167	-11050
▁1236	-11051
▁1257	-11052
▁1365	-11053
▁1427	-11054
▁wide	-11055
▁serge	-11056
▁swift	-11057
▁virus	-11058
▁rogers	-11059
▁disease	-11060
▁symbian	-11061
gun	-11062
▁fh	-11063
▁xv	-11064
▁gur	-11065
白丿十阝	-11066
▁1141	-11067
▁1282	-11068
▁bott	-11069
▁move	-11070
ularia	-11071
▁chain	-11072
▁update	-11073
▁military	-11074
fic	-11075
lac	-11076
▁oo	-11077
ched	-11078
flow	-11079
▁fuj	-11080
66⿱⿴	-11081
▁1358	-11082
▁1372	-11083
▁cann	-11084
▁elle	-11085
▁comics	-11086
▁episode	-11087
▁infinite	-11088
▁marshall	-11089
▁orchestra	-11090
114	-11091
ppm	-11092
esco	-11093
tile	-11094
▁vog	-11095
▁1157	-11096
▁1391	-11097
▁hdmi	-11098
▁pred	-11099
▁rein	-11100
▁rrna	-11101
▁synd	-11102
▁tiff	-11103
▁colum	-11104
▁venus	-11105
▁safety	-11106
▁barbara	-11107
▁constit	-11108
▁something	-11109
酉甘	-11110
128	-11111
aly	-11112
ims	-11113
izer	-11114
vais	-11115
▁57%	-11116
▁csi	-11117
▁duc	-11118
▁1042	-11119
▁1259	-11120
▁expo	-11121
46⿰⿱⿱	-11122
▁klein	-11123
▁anders	-11124
▁centro	-11125
▁mirror	-11126
▁policy	-11127
▁gamerank	-11128
木乍	-11129
nas	-11130
tik	-11131
▁xt	-11132
text	-11133
tron	-11134
▁054	-11135
▁flu	-11136
uchus	-11137
▁1283	-11138
▁dial	-11139
▁ebay	-11140
▁alone	-11141
▁laugh	-11142
8665⿵⿱	-11143
▁parker	-11144
▁screen	-11145
▁ericsson	-11146
▁gamerankings	-11147
冫牙	-11148
女朱	-11149
orpg	-11150
unch	-11151
▁005	-11152
▁48%	-11153
▁sag	-11154
▁suv	-11155
itive	-11156
▁1297	-11157
▁caen	-11158
▁cara	-11159
▁dipl	-11160
▁maxi	-11161
▁mono	-11162
▁prec	-11163
▁chies	-11164
▁close	-11165
▁eagle	-11166
▁macro	-11167
▁fellow	-11168
▁temper	-11169
▁defense	-11170
bye	-11171
dex	-11172
乀丿月	-11173
⿺⿵	-11174
enix	-11175
ires	-11176
▁090	-11177
▁daw	-11178
▁nct	-11179
▁ntv	-11180
▁nur	-11181
▁pdp	-11182
▁uci	-11183
▁1018	-11184
▁1221	-11185
▁1258	-11186
▁1281	-11187
▁1362	-11188
▁1418	-11189
▁1419	-11190
▁kang	-11191
▁16000	-11192
▁ready	-11193
▁bureau	-11194
▁chance	-11195
纟寸	-11196
bot	-11197
ged	-11198
▁hf	-11199
iola	-11200
jang	-11201
▁066	-11202
▁29%	-11203
▁cbd	-11204
▁ets	-11205
▁rst	-11206
▁sep	-11207
▁1073	-11208
▁1147	-11209
▁1207	-11210
▁avbw	-11211
▁kirk	-11212
▁18000	-11213
▁eddie	-11214
▁synth	-11215
▁austin	-11216
▁nelson	-11217
▁rachel	-11218
▁valent	-11219
▁protein	-11220
▁frontier	-11221
kk	-11222
175	-11223
250	-11224
户攵木	-11225
bras	-11226
idea	-11227
ivan	-11228
▁phd	-11229
▁thy	-11230
▁1035	-11231
▁1329	-11232
▁berry	-11233
▁adrian	-11234
▁personal	-11235
虍乎	-11236
金目	-11237
imir	-11238
▁hap	-11239
▁pic	-11240
▁corr	-11241
▁kern	-11242
▁aaron	-11243
▁adams	-11244
▁belle	-11245
▁thumb	-11246
▁higher	-11247
禾干	-11248
nah	-11249
itas	-11250
▁mcg	-11251
where	-11252
▁1183	-11253
▁1461	-11254
▁drum	-11255
▁fung	-11256
▁poss	-11257
▁driver	-11258
▁competi	-11259
▁product	-11260
vd	-11261
▁疋	-11262
005	-11263
▁tj	-11264
anus	-11265
ares	-11266
omon	-11267
▁ion	-11268
▁jor	-11269
▁kha	-11270
▁rpm	-11271
▁wah	-11272
▁wiz	-11273
▁zim	-11274
⿺⿱⿱	-11275
gamer	-11276
▁rang	-11277
▁fleet	-11278
▁innov	-11279
▁chiesa	-11280
▁mmorpg	-11281
▁simula	-11282
▁fashion	-11283
▁ced	-11284
▁wrc	-11285
arian	-11286
utive	-11287
▁1131	-11288
▁1192	-11289
▁1408	-11290
▁harm	-11291
▁heat	-11292
▁iptv	-11293
▁late	-11294
▁orth	-11295
▁evans	-11296
▁opens	-11297
▁lantis	-11298
▁vehicle	-11299
▁landkreis	-11300
白巴	-11301
gus	-11302
▁gba	-11303
▁ppm	-11304
▁wee	-11305
▁1049	-11306
▁1072	-11307
▁1337	-11308
▁mers	-11309
▁label	-11310
▁minister	-11311
217	-11312
isy	-11313
mah	-11314
nic	-11315
ours	-11316
▁fnc	-11317
▁het	-11318
▁nut	-11319
▁pbs	-11320
▁rie	-11321
▁snk	-11322
▁syd	-11323
▁ups	-11324
tives	-11325
▁1386	-11326
▁1395	-11327
▁1398	-11328
▁twin	-11329
▁chick	-11330
▁steel	-11331
▁murray	-11332
王頁	-11333
𠂆一	-11334
onse	-11335
▁53%	-11336
▁aid	-11337
▁frs	-11338
▁lag	-11339
orrow	-11340
▁1128	-11341
▁1346	-11342
▁1483	-11343
▁emil	-11344
▁surv	-11345
ternal	-11346
▁singh	-11347
▁cather	-11348
▁melody	-11349
▁paradise	-11350
▁everything	-11351
▁艮	-11352
氵民	-11353
▁yi	-11354
ante	-11355
ffer	-11356
olia	-11357
tery	-11358
▁56%	-11359
▁duo	-11360
▁lai	-11361
▁nod	-11362
arius	-11363
▁1077	-11364
▁1156	-11365
▁1175	-11366
▁1366	-11367
▁4600	-11368
▁dock	-11369
▁rabb	-11370
▁rome	-11371
▁sham	-11372
▁canal	-11373
▁relig	-11374
▁argent	-11375
▁introd	-11376
▁monkey	-11377
▁african	-11378
▁shanghai	-11379
▁syndrome	-11380
八月	-11381
金必	-11382
eni	-11383
▁gk	-11384
ardo	-11385
look	-11386
▁88%	-11387
▁eur	-11388
▁oss	-11389
chell	-11390
lated	-11391
▁1005	-11392
▁1252	-11393
▁1284	-11394
▁ietf	-11395
▁sist	-11396
▁trig	-11397
ession	-11398
▁alexa	-11399
▁emacs	-11400
▁lloyd	-11401
亡阝	-11402
enc	-11403
phi	-11404
roy	-11405
▁qe	-11406
凵丨又	-11407
iral	-11408
▁67%	-11409
▁bgm	-11410
▁dhc	-11411
▁wen	-11412
▁1095	-11413
▁1264	-11414
▁1307	-11415
▁1436	-11416
▁dome	-11417
▁mama	-11418
▁amiga	-11419
▁animal	-11420
▁orient	-11421
▁select	-11422
▁because	-11423
▁conserv	-11424
▁liberty	-11425
90%	-11426
uar	-11427
▁vy	-11428
▁afl	-11429
▁eid	-11430
▁mim	-11431
stadt	-11432
▁1048	-11433
▁1348	-11434
▁alto	-11435
▁jaco	-11436
▁supr	-11437
▁cctld	-11438
▁lucky	-11439
▁medal	-11440
▁squad	-11441
▁boulev	-11442
▁stefan	-11443
▁diction	-11444
▁georges	-11445
▁director	-11446
▁reaction	-11447
▁hollywood	-11448
▁technical	-11449
321	-11450
扌丸贝	-11451
atar	-11452
▁018	-11453
▁gav	-11454
▁gtk	-11455
▁rum	-11456
▁1233	-11457
▁1286	-11458
▁apec	-11459
▁mine	-11460
▁nerv	-11461
▁perry	-11462
osition	-11463
▁course	-11464
▁electro	-11465
▁nuclear	-11466
艹长	-11467
118	-11468
enu	-11469
夫夫車	-11470
enet	-11471
▁86%	-11472
▁kem	-11473
▁tau	-11474
▁uri	-11475
track	-11476
▁1118	-11477
▁momo	-11478
▁uber	-11479
▁cells	-11480
▁libre	-11481
▁licen	-11482
▁member	-11483
亻夫	-11484
匚口	-11485
135	-11486
▁jn	-11487
▁lh	-11488
▁bye	-11489
▁dbc	-11490
▁eve	-11491
▁kum	-11492
▁tul	-11493
▁wed	-11494
丿𠃌攵贝	-11495
▁1378	-11496
▁dang	-11497
▁gaud	-11498
▁igbt	-11499
▁meta	-11500
▁trib	-11501
▁reddit	-11502
▁stuart	-11503
tt	-11504
oga	-11505
▁ao	-11506
icar	-11507
▁cyp	-11508
▁dft	-11509
▁enc	-11510
▁pcr	-11511
▁psi	-11512
▁sax	-11513
▁sod	-11514
▁1019	-11515
▁1121	-11516
▁1177	-11517
▁1246	-11518
▁aver	-11519
▁14000	-11520
▁kkbox	-11521
▁camera	-11522
▁things	-11523
▁turner	-11524
▁chamber	-11525
▁regional	-11526
瓦千	-11527
阝食	-11528
vens	-11529
▁93%	-11530
▁94%	-11531
▁ars	-11532
▁mev	-11533
▁1054	-11534
▁1218	-11535
▁1226	-11536
▁1357	-11537
▁emer	-11538
▁stro	-11539
▁tool	-11540
urance	-11541
▁cemet	-11542
▁harold	-11543
▁jeremy	-11544
▁though	-11545
▁japanese	-11546
▁tomorrow	-11547
▁boulevard	-11548
160	-11549
call	-11550
ovan	-11551
▁011	-11552
▁dum	-11553
▁gis	-11554
▁gly	-11555
▁ico	-11556
▁oil	-11557
andro	-11558
ports	-11559
▁1143	-11560
▁1195	-11561
▁1238	-11562
▁1314	-11563
▁1396	-11564
▁1452	-11565
▁1468	-11566
冂二月犬鬼	-11567
▁upper	-11568
▁georgia	-11569
氵丰	-11570
虫且	-11571
讠工	-11572
hof	-11573
zip	-11574
▁ln	-11575
46⿴	-11576
cock	-11577
edit	-11578
igny	-11579
▁58%	-11580
▁chc	-11581
▁dak	-11582
▁fib	-11583
▁gif	-11584
▁hog	-11585
▁pfa	-11586
▁wei	-11587
▁1256	-11588
▁1411	-11589
▁1441	-11590
▁1459	-11591
▁diff	-11592
▁mean	-11593
diepie	-11594
▁julia	-11595
▁lance	-11596
8661⿱⿵	-11597
▁manuel	-11598
▁racing	-11599
▁cemetery	-11600
▁imperial	-11601
▁physical	-11602
▁catherine	-11603
月羊	-11604
艹千	-11605
127	-11606
370	-11607
91%	-11608
ava	-11609
pon	-11610
crip	-11611
▁ard	-11612
▁emd	-11613
▁eun	-11614
▁gau	-11615
▁sri	-11616
icket	-11617
▁1013	-11618
▁1261	-11619
▁1291	-11620
▁1322	-11621
▁1336	-11622
▁1484	-11623
▁boom	-11624
▁ella	-11625
▁lons	-11626
▁nest	-11627
▁vlad	-11628
titude	-11629
▁going	-11630
▁quant	-11631
▁sharp	-11632
▁import	-11633
▁trinity	-11634
▁database	-11635
▁pewdiepie	-11636
lib	-11637
oko	-11638
uke	-11639
▁xb	-11640
▁xc	-11641
▁72%	-11642
▁cvt	-11643
▁ssh	-11644
8⿰⿱⿴	-11645
▁1205	-11646
▁1231	-11647
▁1232	-11648
▁1416	-11649
▁2040	-11650
▁samp	-11651
149	-11652
207	-11653
apa	-11654
jax	-11655
nos	-11656
ppy	-11657
rel	-11658
rio	-11659
▁xa	-11660
一丂瓜	-11661
aign	-11662
etch	-11663
tick	-11664
▁emm	-11665
▁vod	-11666
onkey	-11667
▁1363	-11668
▁1417	-11669
▁1444	-11670
▁layer	-11671
▁volume	-11672
8665⿰⿱⿰	-11673
▁hermann	-11674
▁sunrise	-11675
▁constant	-11676
▁distribution	-11677
且隹	-11678
口皿	-11679
206	-11680
▁kf	-11681
𠂉口皿	-11682
endy	-11683
lain	-11684
rame	-11685
tors	-11686
▁ald	-11687
▁ask	-11688
▁eso	-11689
▁liu	-11690
▁1055	-11691
▁2026	-11692
▁cand	-11693
▁cord	-11694
▁dram	-11695
▁feed	-11696
▁hash	-11697
▁colin	-11698
▁disco	-11699
borough	-11700
formula	-11701
▁lollip	-11702
▁newton	-11703
▁console	-11704
▁fighter	-11705
▁tonight	-11706
▁infinity	-11707
▁philippe	-11708
爿羊	-11709
aci	-11710
lys	-11711
uin	-11712
▁fk	-11713
▁rv	-11714
8⿵⿵	-11715
dorf	-11716
igen	-11717
▁009	-11718
▁63%	-11719
▁87%	-11720
▁ela	-11721
▁fee	-11722
▁hoo	-11723
▁kaz	-11724
▁oct	-11725
▁rag	-11726
mania	-11727
▁1076	-11728
▁1194	-11729
▁1199	-11730
▁1308	-11731
▁lily	-11732
▁said	-11733
▁could	-11734
▁fresh	-11735
▁mario	-11736
▁pride	-11737
▁fisher	-11738
▁survey	-11739
牛毛	-11740
151	-11741
bil	-11742
isi	-11743
lio	-11744
▁jh	-11745
erve	-11746
onex	-11747
▁ate	-11748
▁ipo	-11749
▁vul	-11750
▁1103	-11751
▁1113	-11752
▁1132	-11753
▁1324	-11754
▁1359	-11755
▁crow	-11756
▁fell	-11757
▁prov	-11758
▁rout	-11759
▁verd	-11760
▁agent	-11761
▁toulo	-11762
▁nothing	-11763
▁columbia	-11764
▁selection	-11765
丿手	-11766
女册	-11767
酉乍	-11768
金田	-11769
cco	-11770
edi	-11771
sha	-11772
▁jj	-11773
chus	-11774
elin	-11775
iman	-11776
lips	-11777
▁41%	-11778
▁66%	-11779
▁cul	-11780
▁tah	-11781
eased	-11782
▁1008	-11783
▁1017	-11784
▁1191	-11785
▁1335	-11786
▁1437	-11787
▁5600	-11788
▁jung	-11789
▁riaa	-11790
▁save	-11791
▁shan	-11792
▁sales	-11793
▁maurice	-11794
▁toulouse	-11795
金乙	-11796
oku	-11797
山己见	-11798
▁dry	-11799
▁khz	-11800
▁wag	-11801
▁1027	-11802
▁1037	-11803
▁1325	-11804
▁cern	-11805
▁chee	-11806
▁peak	-11807
▁vick	-11808
▁macau	-11809
▁posix	-11810
▁utric	-11811
8665⿰⿰	-11812
▁experience	-11813
讠卜	-11814
119	-11815
etz	-11816
eus	-11817
▁nj	-11818
宀八土	-11819
月刂见	-11820
ised	-11821
▁31%	-11822
▁dvb	-11823
▁kop	-11824
▁1059	-11825
▁1097	-11826
▁1242	-11827
▁1327	-11828
▁1349	-11829
▁1486	-11830
▁flat	-11831
▁peng	-11832
▁sans	-11833
▁vall	-11834
▁webs	-11835
roller	-11836
▁stern	-11837
▁bullet	-11838
▁watson	-11839
8661⿱⿱⿰	-11840
▁secretary	-11841
pat	-11842
▁gj	-11843
𠁣𠃛一	-11844
pler	-11845
rell	-11846
▁065	-11847
▁gdi	-11848
▁gue	-11849
▁muk	-11850
ening	-11851
layer	-11852
▁1107	-11853
▁1352	-11854
▁1443	-11855
⿺⿱⿻⿻	-11856
▁geoff	-11857
▁telec	-11858
▁please	-11859
▁counter	-11860
▁profile	-11861
▁challenge	-11862
▁different	-11863
攵虫	-11864
月龙	-11865
虫内	-11866
jun	-11867
▁mj	-11868
口止夫	-11869
amoo	-11870
erse	-11871
esse	-11872
ieux	-11873
▁abl	-11874
▁dad	-11875
▁fai	-11876
▁gad	-11877
▁pok	-11878
▁rab	-11879
士冖一木	-11880
cated	-11881
oshop	-11882
▁1101	-11883
▁cyan	-11884
▁mans	-11885
▁mick	-11886
▁sier	-11887
▁carlo	-11888
▁berlin	-11889
▁miguel	-11890
▁statis	-11891
▁nations	-11892
▁utricularia	-11893
ahn	-11894
gir	-11895
kon	-11896
rys	-11897
zon	-11898
▁xs	-11899
ingo	-11900
▁89%	-11901
▁oxy	-11902
▁rak	-11903
囗⺌日瓦	-11904
tique	-11905
▁1065	-11906
▁1198	-11907
▁crim	-11908
▁exid	-11909
▁luke	-11910
▁luna	-11911
▁trim	-11912
▁cable	-11913
▁frequ	-11914
▁glory	-11915
▁inside	-11916
▁tardis	-11917
▁brother	-11918
▁working	-11919
▁charlotte	-11920
▁photoshop	-11921
亻千	-11922
004	-11923
bbs	-11924
▁wb	-11925
覀土阝	-11926
ardi	-11927
ecca	-11928
talk	-11929
▁fcc	-11930
▁gtp	-11931
▁vid	-11932
▁zam	-11933
eline	-11934
ragon	-11935
sport	-11936
▁0001	-11937
▁1289	-11938
▁6400	-11939
▁lanc	-11940
▁rice	-11941
▁atlas	-11942
▁sandy	-11943
▁title	-11944
▁unity	-11945
▁africa	-11946
ditional	-11947
▁forward	-11948
▁journey	-11949
▁lollipop	-11950
▁province	-11951
▁remember	-11952
▁starship	-11953
▁following	-11954
eto	-11955
iev	-11956
vor	-11957
abad	-11958
ired	-11959
wall	-11960
▁fps	-11961
▁jpg	-11962
▁pig	-11963
▁pvc	-11964
▁1124	-11965
▁1146	-11966
▁1267	-11967
▁1313	-11968
▁7200	-11969
▁aiko	-11970
▁dell	-11971
▁words	-11972
▁saturn	-11973
▁extreme	-11974
▁highway	-11975
▁atlantic	-11976
▁oriental	-11977
▁authority	-11978
003	-11979
born	-11980
cycl	-11981
itis	-11982
▁bed	-11983
▁dic	-11984
▁rsa	-11985
istan	-11986
▁1069	-11987
▁1166	-11988
▁1174	-11989
▁ting	-11990
▁magne	-11991
▁shall	-11992
▁tyler	-11993
8661⿳⿱	-11994
▁catholic	-11995
▁political	-11996
▁administration	-11997
180	-11998
ikh	-11999
▁jc	-12000
㐅乂土	-12001
▁84%	-12002
▁smg	-12003
▁1056	-12004
▁1134	-12005
▁1272	-12006
▁1310	-12007
▁wine	-12008
▁lower	-12009
▁article	-12010
▁collins	-12011
▁ireland	-12012
▁problem	-12013
▁canadian	-12014
mf	-12015
bah	-12016
lea	-12017
etti	-12018
omys	-12019
othe	-12020
▁83%	-12021
▁vre	-12022
▁1294	-12023
▁1347	-12024
▁1474	-12025
▁dyna	-12026
▁esta	-12027
▁isab	-12028
▁ucla	-12029
▁elite	-12030
▁sleep	-12031
▁cortex	-12032
▁making	-12033
▁spider	-12034
▁alterna	-12035
▁outlook	-12036
▁industry	-12037
火斤	-12038
钅来	-12039
arma	-12040
ceae	-12041
ives	-12042
▁dab	-12043
▁dop	-12044
▁fus	-12045
▁mia	-12046
▁nah	-12047
▁nay	-12048
▁1102	-12049
▁1273	-12050
▁1345	-12051
▁btob	-12052
▁isis	-12053
▁navig	-12054
▁filter	-12055
▁ronald	-12056
▁target	-12057
▁gilbert	-12058
▁schools	-12059
▁showtime	-12060
131	-12061
山而页	-12062
arin	-12063
onne	-12064
▁022	-12065
▁hak	-12066
▁htm	-12067
46⿱⿱	-12068
lable	-12069
▁1106	-12070
▁5300	-12071
▁buch	-12072
▁buzz	-12073
▁carn	-12074
▁cold	-12075
▁lamb	-12076
▁nand	-12077
▁atenu	-12078
▁chuck	-12079
▁heavy	-12080
▁jalan	-12081
▁xhtml	-12082
8665⿳𭕄	-12083
▁arnold	-12084
▁strike	-12085
▁borough	-12086
▁vietnam	-12087
▁pj	-12088
quin	-12089
▁54%	-12090
▁1223	-12091
▁1248	-12092
▁1426	-12093
▁5400	-12094
▁6600	-12095
▁fear	-12096
▁hass	-12097
▁kurt	-12098
▁pand	-12099
omatic	-12100
▁spark	-12101
starter	-12102
▁compact	-12103
▁spotify	-12104
▁ユ	-12105
319	-12106
450	-12107
jar	-12108
mor	-12109
▁067	-12110
▁rug	-12111
▁sic	-12112
▁1014	-12113
▁1090	-12114
▁1239	-12115
▁1255	-12116
▁3900	-12117
▁push	-12118
▁ultr	-12119
▁corps	-12120
▁quest	-12121
8960⿱⿰	-12122
▁cookie	-12123
▁father	-12124
8960⿱⿱⿱	-12125
▁phoenix	-12126
▁operations	-12127
gt	-12128
口瓜	-12129
扌千	-12130
303	-12131
aye	-12132
igi	-12133
hill	-12134
▁039	-12135
▁etf	-12136
▁moo	-12137
▁orb	-12138
encer	-12139
▁1169	-12140
▁1181	-12141
▁1251	-12142
▁1462	-12143
▁1473	-12144
▁bald	-12145
▁disk	-12146
▁hour	-12147
▁kate	-12148
▁liqu	-12149
▁once	-12150
▁paint	-12151
▁solar	-12152
▁border	-12153
▁julius	-12154
▁lincol	-12155
▁quarter	-12156
▁johannes	-12157
▁knowledge	-12158
▁secondary	-12159
gal	-12160
unk	-12161
亠父力	-12162
ande	-12163
chat	-12164
hell	-12165
▁019	-12166
▁62%	-12167
▁ffe	-12168
▁kaw	-12169
▁scp	-12170
▁sut	-12171
▁ttc	-12172
▁wai	-12173
▁0000	-12174
▁1117	-12175
▁1159	-12176
▁1171	-12177
▁hook	-12178
▁term	-12179
tional	-12180
▁theor	-12181
▁andrea	-12182
▁docomo	-12183
▁encore	-12184
▁period	-12185
▁russian	-12186
▁campaign	-12187
▁protection	-12188
▁tournament	-12189
qi	-12190
cem	-12191
neo	-12192
tah	-12193
▁vu	-12194
▁048	-12195
▁gto	-12196
▁pau	-12197
▁png	-12198
▁roc	-12199
▁thi	-12200
▁1015	-12201
▁1078	-12202
▁1163	-12203
▁fitz	-12204
▁guer	-12205
▁mann	-12206
utsche	-12207
▁agree	-12208
▁felix	-12209
▁muham	-12210
▁print	-12211
▁silva	-12212
▁since	-12213
▁sword	-12214
▁kirara	-12215
▁lincoln	-12216
▁student	-12217
▁mitchell	-12218
▁publishing	-12219
fm	-12220
850	-12221
fin	-12222
ocy	-12223
gang	-12224
nell	-12225
▁093	-12226
▁afc	-12227
▁fad	-12228
▁1045	-12229
▁1136	-12230
▁1431	-12231
▁1479	-12232
▁5800	-12233
▁brig	-12234
▁bush	-12235
▁omni	-12236
▁owen	-12237
▁pain	-12238
ctions	-12239
▁cohen	-12240
▁crist	-12241
▁kabup	-12242
▁sorry	-12243
▁wings	-12244
▁campus	-12245
▁circus	-12246
▁ferdin	-12247
▁includ	-12248
▁paypal	-12249
▁gaudens	-12250
▁goodbye	-12251
▁kickstarter	-12252
酉丁	-12253
263	-12254
fet	-12255
loy	-12256
mos	-12257
口耳戈	-12258
city	-12259
ustr	-12260
▁39%	-12261
▁78%	-12262
▁diy	-12263
▁fon	-12264
▁lep	-12265
▁lif	-12266
▁sdn	-12267
▁til	-12268
▁1094	-12269
▁1203	-12270
▁1422	-12271
▁bdsm	-12272
▁riot	-12273
▁serv	-12274
▁error	-12275
▁honor	-12276
▁islam	-12277
▁liner	-12278
▁share	-12279
▁arcade	-12280
▁combat	-12281
▁depend	-12282
▁linear	-12283
▁account	-12284
▁success	-12285
▁fernando	-12286
▁objective	-12287
▁dictionary	-12288
▁laboratory	-12289
宀𡗗	-12290
270	-12291
▁hn	-12292
eria	-12293
last	-12294
▁aig	-12295
▁ape	-12296
▁cun	-12297
▁irc	-12298
▁mbe	-12299
▁ngt	-12300
▁nsa	-12301
8⿱⿰⿴	-12302
▁1006	-12303
▁1087	-12304
▁1154	-12305
▁1263	-12306
▁6800	-12307
▁hugo	-12308
▁json	-12309
▁lucy	-12310
▁pcie	-12311
▁ques	-12312
▁jesus	-12313
▁month	-12314
▁rubber	-12315
▁message	-12316
▁quality	-12317
▁kabupaten	-12318
土龙	-12319
言工	-12320
140	-12321
211	-12322
999	-12323
cos	-12324
▁jk	-12325
eror	-12326
lash	-12327
mour	-12328
tiva	-12329
▁024	-12330
▁82%	-12331
▁icd	-12332
▁imf	-12333
▁jel	-12334
▁nbl	-12335
▁yun	-12336
okawa	-12337
▁1034	-12338
▁1209	-12339
▁1323	-12340
▁1489	-12341
▁9600	-12342
▁fuck	-12343
▁hits	-12344
▁contem	-12345
▁models	-12346
▁finance	-12347
▁telecom	-12348
▁sequence	-12349
▁cambridge	-12350
fb	-12351
竹巴	-12352
213	-12353
220	-12354
lak	-12355
web	-12356
aser	-12357
rael	-12358
▁alo	-12359
▁gat	-12360
▁hex	-12361
▁nir	-12362
▁rss	-12363
▁shu	-12364
dress	-12365
graph	-12366
▁1088	-12367
▁1179	-12368
▁1228	-12369
▁1303	-12370
▁1447	-12371
▁trop	-12372
manuel	-12373
▁brave	-12374
▁clock	-12375
▁prada	-12376
▁phenom	-12377
▁points	-12378
▁welcome	-12379
尢王	-12380
虫亡	-12381
134	-12382
bet	-12383
utz	-12384
anto	-12385
erie	-12386
gest	-12387
tish	-12388
wave	-12389
火火冖糸	-12390
burgh	-12391
istol	-12392
▁1302	-12393
▁1393	-12394
▁drug	-12395
▁goes	-12396
▁notes	-12397
▁using	-12398
▁branch	-12399
▁dynamic	-12400
▁chemical	-12401
▁terminal	-12402
▁postscript	-12403
▁broadcasting	-12404
rp	-12405
230	-12406
lal	-12407
elia	-12408
lett	-12409
▁77%	-12410
▁dix	-12411
▁ioc	-12412
▁rup	-12413
5⿱⿰⿱	-12414
annon	-12415
otype	-12416
▁1096	-12417
▁1148	-12418
▁1158	-12419
▁1202	-12420
▁1237	-12421
▁1458	-12422
▁1463	-12423
▁1491	-12424
▁anto	-12425
▁evan	-12426
▁grim	-12427
▁rece	-12428
▁sanc	-12429
▁shaw	-12430
▁task	-12431
berger	-12432
▁capit	-12433
▁laser	-12434
▁pitch	-12435
▁sunny	-12436
▁trail	-12437
▁corner	-12438
▁novell	-12439
▁sydney	-12440
▁quantum	-12441
▁franklin	-12442
▁executive	-12443
礻石	-12444
衤氏	-12445
jon	-12446
丿皿卩	-12447
▁035	-12448
▁acm	-12449
▁fix	-12450
▁tcl	-12451
onald	-12452
ually	-12453
▁1247	-12454
▁1262	-12455
▁1299	-12456
▁lung	-12457
▁nice	-12458
▁niss	-12459
▁pete	-12460
▁emily	-12461
▁kinki	-12462
▁forces	-12463
▁guitar	-12464
▁reason	-12465
▁chronic	-12466
▁caroline	-12467
耒㠯	-12468
beat	-12469
cale	-12470
ktop	-12471
udio	-12472
▁gel	-12473
▁gom	-12474
▁lpl	-12475
▁pab	-12476
▁rey	-12477
▁uns	-12478
andra	-12479
ucker	-12480
▁1003	-12481
▁1133	-12482
▁1151	-12483
▁1293	-12484
▁1341	-12485
▁1384	-12486
▁kiha	-12487
▁pang	-12488
▁ahmad	-12489
▁edwin	-12490
▁petit	-12491
▁however	-12492
bul	-12493
▁ij	-12494
▁pz	-12495
▁qb	-12496
ames	-12497
athy	-12498
essa	-12499
▁alc	-12500
▁icc	-12501
▁ott	-12502
▁pcm	-12503
erner	-12504
▁1063	-12505
▁1152	-12506
▁1186	-12507
▁1288	-12508
▁benz	-12509
▁cald	-12510
▁emma	-12511
▁male	-12512
▁mint	-12513
▁pere	-12514
▁marco	-12515
▁bandar	-12516
▁random	-12517
▁schwar	-12518
▁allstar	-12519
▁assembly	-12520
▁networks	-12521
199	-12522
229	-12523
dif	-12524
pen	-12525
lian	-12526
▁037	-12527
▁056	-12528
▁lad	-12529
▁lig	-12530
▁ord	-12531
▁phi	-12532
▁uhf	-12533
▁1046	-12534
▁1081	-12535
▁1173	-12536
▁1446	-12537
▁mood	-12538
▁tung	-12539
▁wins	-12540
▁blade	-12541
▁snake	-12542
▁fedora	-12543
▁gaming	-12544
▁kadokawa	-12545
▁mountains	-12546
168	-12547
308	-12548
thy	-12549
业㡀甫	-12550
几木刂	-12551
日女阝	-12552
▁ain	-12553
▁kus	-12554
▁liz	-12555
▁bone	-12556
▁quin	-12557
▁adult	-12558
▁elena	-12559
▁giuse	-12560
▁melan	-12561
▁wagon	-12562
▁coming	-12563
▁commod	-12564
▁script	-12565
▁within	-12566
▁beauvais	-12567
田疋	-12568
007	-12569
lia	-12570
勹日阝	-12571
▁crj	-12572
▁faa	-12573
▁foo	-12574
▁peg	-12575
十冖田疋	-12576
inois	-12577
▁1104	-12578
▁1144	-12579
▁1165	-12580
▁1254	-12581
▁schw	-12582
▁giant	-12583
▁mason	-12584
▁louise	-12585
▁jennifer	-12586
▁commander	-12587
cu	-12588
兆頁	-12589
208	-12590
yah	-12591
▁gx	-12592
人人心	-12593
女又手	-12594
▁046	-12595
▁amr	-12596
▁hod	-12597
▁sue	-12598
▁vib	-12599
▁yui	-12600
⿰⿻⿵	-12601
▁1009	-12602
▁1326	-12603
▁1434	-12604
▁adap	-12605
▁dame	-12606
▁erik	-12607
▁fans	-12608
▁neut	-12609
▁ruth	-12610
▁temu	-12611
tended	-12612
uation	-12613
▁bound	-12614
▁collec	-12615
▁doremi	-12616
▁format	-12617
▁julian	-12618
▁result	-12619
▁singles	-12620
▁informer	-12621
▁symphony	-12622
hg	-12623
言卜	-12624
step	-12625
umer	-12626
▁iau	-12627
onica	-12628
▁1028	-12629
▁1182	-12630
▁1212	-12631
▁1301	-12632
▁dian	-12633
▁octa	-12634
▁tenn	-12635
⿰⿱⿰⿱	-12636
ensive	-12637
▁treat	-12638
▁carbon	-12639
▁leslie	-12640
▁chapter	-12641
▁coaster	-12642
▁persona	-12643
▁supreme	-12644
▁aviation	-12645
口食	-12646
130	-12647
224	-12648
api	-12649
mut	-12650
ogn	-12651
omm	-12652
oso	-12653
ovo	-12654
▁xo	-12655
勹冫金	-12656
enia	-12657
esto	-12658
midt	-12659
▁pyr	-12660
▁1145	-12661
▁1269	-12662
▁1296	-12663
▁1311	-12664
▁gond	-12665
▁hood	-12666
▁spor	-12667
▁cliff	-12668
▁known	-12669
▁excell	-12670
▁pretty	-12671
▁connect	-12672
▁metropolitan	-12673
匕十	-12674
土更	-12675
言山	-12676
龙石	-12677
133	-12678
470	-12679
bad	-12680
dia	-12681
rag	-12682
iant	-12683
opus	-12684
rock	-12685
▁gec	-12686
▁loc	-12687
▁shi	-12688
▁1012	-12689
▁1309	-12690
▁bash	-12691
▁boyz	-12692
▁punk	-12693
▁reed	-12694
▁saga	-12695
⺌冖口田刂	-12696
idence	-12697
▁catch	-12698
▁ching	-12699
▁cream	-12700
▁marqu	-12701
▁miles	-12702
▁nucle	-12703
▁rapid	-12704
▁harvey	-12705
▁played	-12706
▁shield	-12707
▁trance	-12708
255	-12709
▁008	-12710
▁apu	-12711
▁enh	-12712
▁fsa	-12713
▁kis	-12714
▁kub	-12715
▁mri	-12716
▁nee	-12717
▁rhe	-12718
▁wet	-12719
erous	-12720
▁1041	-12721
▁1176	-12722
▁1184	-12723
▁amar	-12724
▁cock	-12725
▁ligo	-12726
▁loss	-12727
▁salt	-12728
▁joker	-12729
▁bright	-12730
▁eugene	-12731
▁olympic	-12732
▁computing	-12733
ei	-12734
七木	-12735
323	-12736
apy	-12737
hot	-12738
riz	-12739
氵七木	-12740
mont	-12741
rica	-12742
urst	-12743
▁cet	-12744
▁exc	-12745
▁neu	-12746
▁sof	-12747
▁yar	-12748
aries	-12749
mouth	-12750
▁1401	-12751
▁beth	-12752
▁brid	-12753
▁cape	-12754
▁jtwc	-12755
▁mips	-12756
▁sull	-12757
cephal	-12758
▁coach	-12759
▁diego	-12760
▁warri	-12761
▁accord	-12762
▁conver	-12763
▁nikola	-12764
▁rocket	-12765
亻丁	-12766
口龙	-12767
豕生	-12768
405	-12769
uga	-12770
loss	-12771
ucky	-12772
ults	-12773
▁085	-12774
▁cie	-12775
▁fas	-12776
child	-12777
forge	-12778
▁1093	-12779
▁1196	-12780
▁1201	-12781
▁enti	-12782
▁glen	-12783
▁khal	-12784
▁soci	-12785
▁editor	-12786
▁hammer	-12787
▁deutsche	-12788
▁malaysia	-12789
▁adventure	-12790
▁programming	-12791
▁construction	-12792
艹乡	-12793
0⿲	-12794
tab	-12795
tar	-12796
▁zz	-12797
isen	-12798
ishi	-12799
▁aec	-12800
▁avc	-12801
itten	-12802
▁1032	-12803
▁1112	-12804
▁1114	-12805
▁1149	-12806
▁1197	-12807
▁dart	-12808
▁july	-12809
▁load	-12810
▁symp	-12811
elling	-12812
▁aster	-12813
▁jesse	-12814
▁claire	-12815
▁gerald	-12816
▁stella	-12817
▁waters	-12818
▁jeffrey	-12819
▁products	-12820
女为	-12821
159	-12822
257	-12823
agn	-12824
icz	-12825
xin	-12826
▁uu	-12827
5⿵⿰	-12828
care	-12829
cope	-12830
▁64%	-12831
night	-12832
▁1047	-12833
▁1292	-12834
▁bind	-12835
▁duck	-12836
▁hoch	-12837
▁pump	-12838
▁raja	-12839
▁umts	-12840
caster	-12841
▁betty	-12842
▁huang	-12843
▁scale	-12844
▁cornel	-12845
▁foster	-12846
▁reality	-12847
ep	-12848
jk	-12849
辶甫	-12850
uni	-12851
olph	-12852
▁91%	-12853
▁amg	-12854
▁arp	-12855
▁hai	-12856
▁lga	-12857
▁pes	-12858
▁sey	-12859
▁ski	-12860
▁smo	-12861
ished	-12862
▁1033	-12863
▁1068	-12864
▁1109	-12865
▁alco	-12866
▁aria	-12867
▁bord	-12868
▁bron	-12869
▁chak	-12870
▁chip	-12871
▁choc	-12872
▁isle	-12873
ermont	-12874
▁krist	-12875
▁ridge	-12876
▁rifle	-12877
▁yonex	-12878
▁custom	-12879
▁parliam	-12880
▁players	-12881
▁spencer	-12882
土己	-12883
广鬼	-12884
137	-12885
228	-12886
atha	-12887
eady	-12888
pass	-12889
ungs	-12890
▁chs	-12891
𠂊田一巴	-12892
▁1361	-12893
▁uefa	-12894
▁wiss	-12895
▁zepp	-12896
▁eight	-12897
▁falls	-12898
▁harper	-12899
▁holiday	-12900
▁languages	-12901
eb	-12902
kr	-12903
mt	-12904
囗寸	-12905
罒不	-12906
dec	-12907
▁qa	-12908
虍几食	-12909
ento	-12910
ilus	-12911
kell	-12912
stan	-12913
▁68%	-12914
▁81%	-12915
▁inj	-12916
▁raz	-12917
⿰⿱⿳	-12918
▁5700	-12919
▁bach	-12920
▁hind	-12921
▁ller	-12922
▁span	-12923
▁thir	-12924
▁brows	-12925
▁hearts	-12926
▁render	-12927
▁kennedy	-12928
▁clermont	-12929
▁muhammad	-12930
▁commercial	-12931
舟山	-12932
uya	-12933
▁044	-12934
▁egg	-12935
▁gin	-12936
▁jup	-12937
▁lcc	-12938
itage	-12939
▁8859	-12940
▁dies	-12941
▁ratp	-12942
▁bruno	-12943
▁gamma	-12944
▁meyer	-12945
▁piano	-12946
▁wayne	-12947
▁phillips	-12948
文寸	-12949
139	-12950
ogy	-12951
▁oy	-12952
asse	-12953
hood	-12954
rice	-12955
wide	-12956
▁74%	-12957
▁amo	-12958
▁aoa	-12959
▁apa	-12960
▁eps	-12961
▁jab	-12962
▁mai	-12963
▁1083	-12964
▁nana	-12965
▁pale	-12966
▁behav	-12967
▁vorbis	-12968
▁warner	-12969
▁gfriend	-12970
▁license	-12971
▁mamamoo	-12972
▁november	-12973
▁relation	-12974
▁alternative	-12975
▁intelligence	-12976
161	-12977
256	-12978
caf	-12979
dae	-12980
gis	-12981
iao	-12982
㇀⿱	-12983
anne	-12984
▁075	-12985
▁dou	-12986
▁haj	-12987
▁mph	-12988
▁pcb	-12989
▁xiv	-12990
ansas	-12991
▁1039	-12992
▁1057	-12993
▁1312	-12994
▁1315	-12995
▁bugs	-12996
▁clim	-12997
▁farm	-12998
▁incr	-12999
▁leaf	-13000
▁kanon	-13001
▁latin	-13002
▁stack	-13003
8665⿺⿻	-13004
▁called	-13005
▁falcon	-13006
▁gibson	-13007
▁kindle	-13008
▁resist	-13009
▁treaty	-13010
▁scholar	-13011
▁terminus	-13012
▁parliament	-13013
fx	-13014
216	-13015
⿱⿳𭕄	-13016
inga	-13017
west	-13018
▁cyn	-13019
▁due	-13020
▁ghq	-13021
▁hik	-13022
▁mbs	-13023
▁mex	-13024
0⿶⿳⿰	-13025
eston	-13026
▁2035	-13027
▁ajax	-13028
▁inves	-13029
▁pearl	-13030
▁sebas	-13031
ception	-13032
▁growth	-13033
▁sexual	-13034
▁fiction	-13035
▁giuseppe	-13036
bh	-13037
日巨	-13038
钅卯	-13039
钅女	-13040
188	-13041
197	-13042
222	-13043
dan	-13044
ilo	-13045
jin	-13046
lif	-13047
rea	-13048
コ一心	-13049
game	-13050
iper	-13051
olin	-13052
olla	-13053
▁028	-13054
▁hmv	-13055
▁ira	-13056
▁lau	-13057
▁ned	-13058
▁ppp	-13059
𠂊田灬予	-13060
court	-13061
▁1268	-13062
▁1342	-13063
▁2029	-13064
▁elis	-13065
▁bourg	-13066
▁merce	-13067
▁opent	-13068
ibility	-13069
▁joshua	-13070
▁talent	-13071
▁extended	-13072
氵为	-13073
006	-13074
227	-13075
zig	-13076
匚王力	-13077
vier	-13078
▁bao	-13079
▁esa	-13080
▁och	-13081
▁tav	-13082
▁zoo	-13083
frame	-13084
▁bene	-13085
▁grid	-13086
▁wnba	-13087
porary	-13088
▁hands	-13089
▁paralle	-13090
▁basilica	-13091
▁harrison	-13092
yx	-13093
口艮	-13094
gai	-13095
gic	-13096
lai	-13097
orh	-13098
zzi	-13099
▁rj	-13100
3000	-13101
▁021	-13102
▁tus	-13103
aceae	-13104
▁1029	-13105
▁1188	-13106
▁6300	-13107
▁abra	-13108
▁gone	-13109
▁inno	-13110
▁pant	-13111
▁rena	-13112
▁atari	-13113
▁rosen	-13114
▁sdram	-13115
▁groups	-13116
▁sierra	-13117
▁fischer	-13118
▁register	-13119
169	-13120
302	-13121
upt	-13122
wen	-13123
▁lx	-13124
enty	-13125
isse	-13126
uron	-13127
▁092	-13128
▁ble	-13129
▁gli	-13130
▁nih	-13131
anner	-13132
eaker	-13133
▁1023	-13134
▁bean	-13135
▁cout	-13136
▁exit	-13137
▁mist	-13138
▁sett	-13139
▁skin	-13140
▁above	-13141
▁ninja	-13142
▁prism	-13143
8661⿵⿵	-13144
▁ladies	-13145
▁meeting	-13146
▁industries	-13147
132	-13148
156	-13149
170	-13150
len	-13151
扌丸虫	-13152
日十阝	-13153
horn	-13154
inda	-13155
osed	-13156
▁014	-13157
▁029	-13158
▁als	-13159
▁aol	-13160
▁cav	-13161
▁itf	-13162
▁lsd	-13163
▁psa	-13164
▁1021	-13165
▁1074	-13166
▁1318	-13167
▁else	-13168
▁evil	-13169
▁hulu	-13170
▁kung	-13171
▁rare	-13172
▁teng	-13173
▁analy	-13174
▁avbwu	-13175
▁chase	-13176
▁click	-13177
▁josef	-13178
▁rebecca	-13179
▁timothy	-13180
yg	-13181
155	-13182
306	-13183
503	-13184
737	-13185
尢丶彡	-13186
ibus	-13187
▁alp	-13188
▁cru	-13189
▁hdr	-13190
▁sys	-13191
▁yet	-13192
囗⺌日刂	-13193
▁1108	-13194
▁1344	-13195
▁1379	-13196
▁bath	-13197
▁copy	-13198
▁craw	-13199
▁scsi	-13200
▁semi	-13201
▁shak	-13202
▁todd	-13203
▁chess	-13204
▁stray	-13205
▁cookies	-13206
▁mystery	-13207
▁michelle	-13208
▁controller	-13209
hk	-13210
prs	-13211
▁rz	-13212
aldo	-13213
iton	-13214
latz	-13215
mani	-13216
mart	-13217
▁apt	-13218
▁lik	-13219
▁sio	-13220
▁vim	-13221
endor	-13222
matic	-13223
▁1089	-13224
▁1193	-13225
▁1432	-13226
▁5100	-13227
▁homo	-13228
▁proj	-13229
▁seat	-13230
▁stre	-13231
▁upon	-13232
▁atlus	-13233
▁augus	-13234
▁blake	-13235
▁eidos	-13236
▁horse	-13237
▁julie	-13238
▁regula	-13239
▁unesco	-13240
▁dancing	-13241
▁identity	-13242
▁presents	-13243
▁commodore	-13244
▁eurogamer	-13245
▁artsvision	-13246
▁championships	-13247
犭白	-13248
165	-13249
asp	-13250
eah	-13251
又又页	-13252
cdma	-13253
hold	-13254
wind	-13255
▁61%	-13256
▁nou	-13257
itude	-13258
rique	-13259
uctor	-13260
▁1339	-13261
▁aids	-13262
▁fiba	-13263
▁sram	-13264
▁35000	-13265
▁array	-13266
▁lights	-13267
▁baseball	-13268
▁property	-13269
▁variable	-13270
▁interchange	-13271
月瓜	-13272
162	-13273
286	-13274
law	-13275
▁lj	-13276
apur	-13277
eron	-13278
rypt	-13279
▁eat	-13280
▁edi	-13281
▁els	-13282
▁gnz	-13283
▁mvc	-13284
▁pax	-13285
▁yuk	-13286
▁cryp	-13287
▁does	-13288
▁goth	-13289
▁maus	-13290
▁ride	-13291
▁sexy	-13292
tivity	-13293
▁wells	-13294
▁capcom	-13295
▁encycl	-13296
▁porter	-13297
▁approach	-13298
▁astronom	-13299
▁translation	-13300
火文	-13301
164	-13302
215	-13303
5⿲	-13304
ghz	-13305
hop	-13306
▁++	-13307
0⿸⿸	-13308
pent	-13309
▁072	-13310
▁ais	-13311
▁lak	-13312
▁tep	-13313
▁tid	-13314
break	-13315
ching	-13316
ookie	-13317
▁hoff	-13318
▁jade	-13319
▁safe	-13320
▁viva	-13321
▁bella	-13322
▁chaos	-13323
▁crime	-13324
▁mccar	-13325
▁omega	-13326
▁duncan	-13327
▁marina	-13328
▁should	-13329
▁affairs	-13330
▁lovelyz	-13331
▁paradox	-13332
▁nacional	-13333
▁economics	-13334
▁september	-13335
口申	-13336
mia	-13337
nis	-13338
rif	-13339
▁vx	-13340
宀八兆	-13341
5⿵⿵	-13342
abil	-13343
atra	-13344
▁dlp	-13345
▁git	-13346
▁piz	-13347
▁vga	-13348
人一朩田	-13349
▁infl	-13350
▁jake	-13351
▁tail	-13352
▁tale	-13353
ampton	-13354
▁quart	-13355
▁those	-13356
▁adidas	-13357
▁matter	-13358
▁sounds	-13359
▁angeles	-13360
▁ferdinand	-13361
138	-13362
770	-13363
彑𧰨土	-13364
日巨火	-13365
ided	-13366
vard	-13367
▁073	-13368
▁atl	-13369
▁doi	-13370
▁lyc	-13371
▁mao	-13372
fried	-13373
▁1064	-13374
▁1098	-13375
▁1243	-13376
▁caus	-13377
▁folk	-13378
▁hern	-13379
▁nadp	-13380
▁poli	-13381
▁pour	-13382
▁bible	-13383
▁isaac	-13384
▁santi	-13385
▁calvin	-13386
▁female	-13387
▁hughes	-13388
▁palais	-13389
▁panzer	-13390
▁psycho	-13391
▁musical	-13392
▁roberto	-13393
152	-13394
214	-13395
bre	-13396
leh	-13397
los	-13398
eech	-13399
lang	-13400
▁cdc	-13401
▁koh	-13402
▁ktm	-13403
5⿱⿱⿰	-13404
unier	-13405
▁1038	-13406
▁1222	-13407
▁1353	-13408
▁2027	-13409
▁bret	-13410
▁goal	-13411
▁gott	-13412
▁hier	-13413
▁sogo	-13414
▁swan	-13415
▁ahmed	-13416
▁demon	-13417
▁destr	-13418
▁shish	-13419
isation	-13420
▁angels	-13421
▁basket	-13422
▁berger	-13423
▁boston	-13424
▁cheung	-13425
▁sophie	-13426
▁circuit	-13427
▁nicolas	-13428
▁sullivan	-13429
▁agreement	-13430
▁blackberry	-13431
▁historical	-13432
扌甘	-13433
水皿	-13434
钅了	-13435
192	-13436
261	-13437
404	-13438
509	-13439
jah	-13440
九朩隹	-13441
mbps	-13442
scha	-13443
tres	-13444
zone	-13445
▁hua	-13446
▁ims	-13447
▁sme	-13448
▁vio	-13449
▁6200	-13450
▁amph	-13451
▁buil	-13452
▁date	-13453
▁icon	-13454
▁info	-13455
▁lich	-13456
▁till	-13457
▁tune	-13458
anning	-13459
▁cycle	-13460
▁molec	-13461
▁sistar	-13462
▁techno	-13463
▁haskell	-13464
▁stories	-13465
hm	-13466
辶刀	-13467
365	-13468
aran	-13469
emon	-13470
icks	-13471
ipro	-13472
ound	-13473
▁cfa	-13474
▁epr	-13475
▁sia	-13476
㇀⿰⿱	-13477
lette	-13478
osaic	-13479
▁1031	-13480
▁1053	-13481
▁1092	-13482
▁1316	-13483
▁1331	-13484
▁1332	-13485
▁1423	-13486
▁dere	-13487
▁joel	-13488
▁ohio	-13489
㇇⿱⿱⿱	-13490
▁acous	-13491
▁irish	-13492
▁neuro	-13493
▁stard	-13494
▁teams	-13495
▁troub	-13496
▁franco	-13497
▁marion	-13498
▁address	-13499
▁borland	-13500
▁openbsd	-13501
▁popular	-13502
▁mercedes	-13503
▁constitution	-13504
山来	-13505
157	-13506
486	-13507
㇇⿵	-13508
ayan	-13509
uche	-13510
▁cog	-13511
▁csl	-13512
▁ech	-13513
▁phy	-13514
▁sbd	-13515
46⿱⿰	-13516
rical	-13517
tober	-13518
▁gaba	-13519
▁hiro	-13520
▁decem	-13521
▁janet	-13522
▁wrest	-13523
▁santos	-13524
▁vmware	-13525
▁officer	-13526
▁scandal	-13527
▁programme	-13528
193	-13529
777	-13530
kal	-13531
raw	-13532
sey	-13533
zia	-13534
▁hw	-13535
爫子阝	-13536
gers	-13537
roph	-13538
▁068	-13539
▁73%	-13540
▁cid	-13541
▁ged	-13542
▁gum	-13543
▁isu	-13544
▁rov	-13545
▁suz	-13546
▁tyr	-13547
etype	-13548
▁1079	-13549
▁2047	-13550
▁sons	-13551
master	-13552
▁trent	-13553
▁killer	-13554
▁liquid	-13555
▁frequency	-13556
竹罒	-13557
331	-13558
uku	-13559
习习中	-13560
cens	-13561
inax	-13562
ulin	-13563
▁061	-13564
▁gmt	-13565
▁gpa	-13566
▁osi	-13567
▁xav	-13568
amine	-13569
icate	-13570
icial	-13571
times	-13572
▁1052	-13573
▁1168	-13574
▁1319	-13575
▁biow	-13576
▁enix	-13577
▁xeon	-13578
ements	-13579
▁blast	-13580
▁lover	-13581
▁plane	-13582
▁compan	-13583
▁compon	-13584
▁genius	-13585
▁glados	-13586
▁nissan	-13587
▁rising	-13588
▁busters	-13589
▁january	-13590
vr	-13591
870	-13592
gia	-13593
▁mq	-13594
ging	-13595
wire	-13596
▁043	-13597
▁adi	-13598
▁emb	-13599
▁gmp	-13600
▁svg	-13601
▁tub	-13602
▁ucs	-13603
▁1061	-13604
▁1172	-13605
▁maya	-13606
▁oppo	-13607
▁pony	-13608
▁robb	-13609
▁swim	-13610
▁athle	-13611
▁denis	-13612
▁deter	-13613
▁naval	-13614
▁butler	-13615
▁verycd	-13616
▁leaders	-13617
▁critical	-13618
▁governor	-13619
▁straight	-13620
干阝	-13621
方阝	-13622
气亚	-13623
禺页	-13624
009	-13625
roe	-13626
ppon	-13627
uman	-13628
▁69%	-13629
▁boe	-13630
▁cus	-13631
▁gag	-13632
▁nun	-13633
▁ong	-13634
▁tip	-13635
▁⿱⿴⿰	-13636
𠃋丿人頁	-13637
idual	-13638
▁1245	-13639
▁1306	-13640
▁1317	-13641
▁1343	-13642
▁fail	-13643
▁febr	-13644
▁mash	-13645
▁simp	-13646
▁void	-13647
▁bibli	-13648
▁grass	-13649
▁create	-13650
▁israel	-13651
▁cartoon	-13652
▁horizon	-13653
▁indiana	-13654
▁spirits	-13655
▁verilog	-13656
▁workshop	-13657
aj	-13658
匕示	-13659
旡灬	-13660
纟甘	-13661
143	-13662
167	-13663
304	-13664
abi	-13665
say	-13666
xxx	-13667
▁ew	-13668
▁qi	-13669
丷夫豕	-13670
彐水皿	-13671
𠂆一㔾	-13672
ault	-13673
mura	-13674
▁099	-13675
▁bmi	-13676
▁cio	-13677
▁deg	-13678
▁iia	-13679
▁sau	-13680
▁umb	-13681
angle	-13682
brain	-13683
▁1022	-13684
▁chia	-13685
▁dens	-13686
▁funk	-13687
▁gprs	-13688
▁opus	-13689
opedia	-13690
▁algor	-13691
▁cause	-13692
▁false	-13693
▁noble	-13694
cations	-13695
▁impact	-13696
▁rabbit	-13697
▁stephan	-13698
▁weather	-13699
▁associates	-13700
▁scientific	-13701
勹匕	-13702
日电	-13703
米白	-13704
艹欠	-13705
akh	-13706
def	-13707
eli	-13708
▁zk	-13709
匕示頁	-13710
ener	-13711
lies	-13712
▁auf	-13713
▁rez	-13714
arium	-13715
ifica	-13716
illus	-13717
▁4100	-13718
▁aaaa	-13719
▁caps	-13720
▁cres	-13721
▁diva	-13722
▁fame	-13723
▁gare	-13724
▁kala	-13725
▁zoom	-13726
▁bryan	-13727
▁rebel	-13728
▁seine	-13729
▁allison	-13730
▁bioware	-13731
▁lisieux	-13732
▁masters	-13733
▁perform	-13734
▁rolling	-13735
▁treasure	-13736
▁competition	-13737
rc	-13738
⿷⿺	-13739
184	-13740
209	-13741
lov	-13742
top	-13743
vas	-13744
8⿵⿰	-13745
ager	-13746
ally	-13747
eads	-13748
rium	-13749
▁049	-13750
▁dvi	-13751
▁sae	-13752
尸示寸火	-13753
▁1105	-13754
▁1178	-13755
▁1304	-13756
▁anat	-13757
▁bian	-13758
▁casa	-13759
▁driv	-13760
▁foss	-13761
▁kota	-13762
▁ntsb	-13763
▁pica	-13764
▁wait	-13765
▁honda	-13766
▁marty	-13767
▁mills	-13768
▁marvel	-13769
▁werner	-13770
▁gateway	-13771
▁physics	-13772
▁investig	-13773
pf	-13774
179	-13775
map	-13776
ucl	-13777
oman	-13778
▁023	-13779
▁097	-13780
▁nez	-13781
▁pcc	-13782
▁tia	-13783
known	-13784
vania	-13785
▁1298	-13786
▁1383	-13787
▁aqua	-13788
▁golf	-13789
▁milk	-13790
▁pico	-13791
▁17000	-13792
▁bonus	-13793
▁casey	-13794
▁clean	-13795
▁heter	-13796
▁imper	-13797
▁leung	-13798
▁ordin	-13799
▁reader	-13800
ographic	-13801
standing	-13802
▁andreas	-13803
▁bradley	-13804
▁enhance	-13805
▁mercury	-13806
▁picture	-13807
▁december	-13808
▁illinois	-13809
▁railroad	-13810
▁response	-13811
▁insurance	-13812
▁philosoph	-13813
▁solutions	-13814
▁qualifying	-13815
lc	-13816
145	-13817
alie	-13818
ocer	-13819
taur	-13820
▁071	-13821
▁074	-13822
▁089	-13823
▁typ	-13824
▁voy	-13825
▁wis	-13826
凵丨月木	-13827
▁alta	-13828
▁cort	-13829
▁macd	-13830
▁madr	-13831
▁ment	-13832
▁vevo	-13833
▁among	-13834
▁chair	-13835
▁robot	-13836
▁tales	-13837
▁cancer	-13838
▁demand	-13839
▁monica	-13840
▁realme	-13841
▁string	-13842
▁verdun	-13843
▁saunier	-13844
▁vladimir	-13845
sw	-13846
口甲	-13847
265	-13848
iku	-13849
shi	-13850
tak	-13851
八刀手	-13852
uted	-13853
▁034	-13854
▁055	-13855
▁dul	-13856
▁eti	-13857
▁igg	-13858
▁sek	-13859
▁tpp	-13860
shock	-13861
tista	-13862
▁1338	-13863
▁dana	-13864
▁gill	-13865
▁pula	-13866
▁clarke	-13867
▁fields	-13868
▁peters	-13869
▁admiral	-13870
▁bennett	-13871
▁thomson	-13872
tf	-13873
忄中	-13874
174	-13875
218	-13876
357	-13877
hes	-13878
anna	-13879
▁59%	-13880
▁dax	-13881
▁mei	-13882
▁sms	-13883
▁spe	-13884
▁sto	-13885
人一口刂	-13886
itzer	-13887
▁1164	-13888
▁2028	-13889
▁2150	-13890
▁chow	-13891
▁frag	-13892
▁nina	-13893
▁pter	-13894
▁simi	-13895
▁subs	-13896
ceptor	-13897
▁flick	-13898
▁inner	-13899
▁nitro	-13900
▁units	-13901
▁getchu	-13902
▁norton	-13903
▁olivia	-13904
▁desktop	-13905
▁dynamics	-13906
▁scotland	-13907
▁butterfly	-13908
▁democracy	-13909
金且	-13910
730	-13911
bak	-13912
ept	-13913
mud	-13914
▁xr	-13915
este	-13916
oder	-13917
odus	-13918
sted	-13919
▁dhl	-13920
▁hos	-13921
▁jvc	-13922
▁msc	-13923
▁pah	-13924
▁tut	-13925
uffle	-13926
▁1043	-13927
▁bert	-13928
▁jojo	-13929
▁lara	-13930
▁mant	-13931
▁mons	-13932
▁pola	-13933
▁phant	-13934
▁rules	-13935
▁snapd	-13936
▁thorn	-13937
▁langon	-13938
▁schema	-13939
▁optical	-13940
▁package	-13941
▁academic	-13942
▁equation	-13943
▁released	-13944
▁democratic	-13945
225	-13946
460	-13947
875	-13948
aris	-13949
quet	-13950
rain	-13951
tial	-13952
waii	-13953
▁047	-13954
▁dri	-13955
▁luk	-13956
▁ont	-13957
▁wim	-13958
▁zun	-13959
▁zur	-13960
艹罒冖目	-13961
asaki	-13962
illac	-13963
rahim	-13964
▁1007	-13965
▁1354	-13966
▁door	-13967
▁linda	-13968
▁lines	-13969
▁panas	-13970
embourg	-13971
▁jaguar	-13972
▁myself	-13973
▁laurent	-13974
彐𧰨	-13975
351	-13976
402	-13977
480	-13978
ako	-13979
eem	-13980
▁jg	-13981
▁yy	-13982
enna	-13983
gres	-13984
idad	-13985
isha	-13986
quar	-13987
rail	-13988
uced	-13989
▁032	-13990
▁062	-13991
▁76%	-13992
▁gee	-13993
▁ket	-13994
▁mtu	-13995
▁svd	-13996
▁urs	-13997
ellar	-13998
▁1036	-13999
▁1244	-14000
▁2033	-14001
▁2758	-14002
▁6100	-14003
▁ciel	-14004
▁pool	-14005
▁voip	-14006
▁loren	-14007
▁canyon	-14008
▁edmund	-14009
▁kaiser	-14010
▁kather	-14011
▁maggie	-14012
▁mosaic	-14013
▁pepper	-14014
▁weekly	-14015
▁antoine	-14016
▁holland	-14017
犭甲	-14018
232	-14019
aps	-14020
iam	-14021
phe	-14022
abet	-14023
hall	-14024
phin	-14025
▁036	-14026
▁71%	-14027
▁alm	-14028
▁ida	-14029
▁kre	-14030
8⿶⿳⿰	-14031
souri	-14032
▁1305	-14033
▁auch	-14034
▁came	-14035
▁clou	-14036
▁dale	-14037
▁eden	-14038
▁mead	-14039
▁bleach	-14040
▁lonely	-14041
▁phosph	-14042
▁sister	-14043
▁alberto	-14044
▁cluster	-14045
▁october	-14046
▁schmidt	-14047
▁wallace	-14048
▁heritage	-14049
▁chemistry	-14050
囗コ	-14051
176	-14052
280	-14053
dam	-14054
kat	-14055
loe	-14056
teo	-14057
tir	-14058
▁bv	-14059
66⿹	-14060
▁042	-14061
▁095	-14062
▁cim	-14063
▁cms	-14064
▁hst	-14065
▁kul	-14066
▁ley	-14067
▁lng	-14068
▁yas	-14069
𠂊田一方	-14070
metal	-14071
▁9500	-14072
▁aber	-14073
▁acqu	-14074
▁cart	-14075
▁gddr	-14076
▁purp	-14077
omorph	-14078
▁abbey	-14079
▁lands	-14080
▁separ	-14081
▁yamaha	-14082
▁grammar	-14083
▁passion	-14084
▁restaur	-14085
▁carolina	-14086
▁truetype	-14087
▁wonderful	-14088
▁snapdragon	-14089
js	-14090
臼人	-14091
158	-14092
906	-14093
▁vk	-14094
▁096	-14095
▁gtx	-14096
▁lub	-14097
▁lup	-14098
▁tic	-14099
cence	-14100
▁1026	-14101
▁1321	-14102
▁1334	-14103
▁apol	-14104
▁brew	-14105
▁luck	-14106
▁navy	-14107
▁soap	-14108
▁fritz	-14109
▁glise	-14110
▁heath	-14111
▁indiv	-14112
▁manuf	-14113
▁bailey	-14114
▁palmer	-14115
▁holding	-14116
▁leopard	-14117
口刀	-14118
王干	-14119
238	-14120
emo	-14121
lew	-14122
tid	-14123
ugu	-14124
▁eo	-14125
▁gq	-14126
▁ym	-14127
2010	-14128
arte	-14129
mans	-14130
onso	-14131
▁bry	-14132
▁coe	-14133
▁csp	-14134
▁gou	-14135
▁sai	-14136
▁tie	-14137
ijing	-14138
radar	-14139
▁6700	-14140
▁edit	-14141
▁gior	-14142
▁lamp	-14143
▁pard	-14144
▁pend	-14145
▁buddh	-14146
▁namco	-14147
▁petro	-14148
▁atomic	-14149
▁davies	-14150
▁kernel	-14151
▁terror	-14152
8661⿶⿳⿰	-14153
▁formosa	-14154
▁ibrahim	-14155
▁monitor	-14156
▁theorem	-14157
▁algorith	-14158
▁elements	-14159
▁institut	-14160
▁katherine	-14161
▁panasonic	-14162
▁soundtrack	-14163
cn	-14164
金巴	-14165
166	-14166
177	-14167
333	-14168
anz	-14169
ocl	-14170
▁wd	-14171
土龰丩	-14172
宀八果	-14173
豕豕火	-14174
arat	-14175
opro	-14176
▁064	-14177
▁bts	-14178
▁coo	-14179
▁dac	-14180
▁dow	-14181
▁epa	-14182
▁hla	-14183
▁kes	-14184
0⿰⿱⿴	-14185
itain	-14186
recht	-14187
▁2048	-14188
▁anci	-14189
▁bard	-14190
▁ndez	-14191
▁agric	-14192
▁amuse	-14193
▁bukit	-14194
▁legal	-14195
▁wales	-14196
▁gustav	-14197
▁roland	-14198
▁rounds	-14199
▁twitch	-14200
▁illustr	-14201
▁acoustic	-14202
▁birthday	-14203
▁magnetic	-14204
▁missouri	-14205
▁extension	-14206
▁including	-14207
▁nationale	-14208
▁associated	-14209
▁integrated	-14210
ao	-14211
508	-14212
603	-14213
bia	-14214
hat	-14215
tec	-14216
▁hv	-14217
▁vg	-14218
inos	-14219
mill	-14220
uala	-14221
ulum	-14222
▁038	-14223
▁agn	-14224
▁mbk	-14225
▁tis	-14226
iland	-14227
owitz	-14228
radio	-14229
▁1249	-14230
▁2049	-14231
▁degr	-14232
▁imac	-14233
▁ntsc	-14234
▁acfun	-14235
▁crypt	-14236
▁wowow	-14237
▁aqours	-14238
▁patric	-14239
▁wizard	-14240
▁wireless	-14241
▁wolfgang	-14242
tn	-14243
亻及	-14244
忄里	-14245
186	-14246
esi	-14247
iad	-14248
kas	-14249
0001	-14250
etry	-14251
olds	-14252
▁078	-14253
▁079	-14254
▁apr	-14255
▁osp	-14256
▁tox	-14257
丿𠃌攵犬	-14258
attan	-14259
oplan	-14260
▁gimp	-14261
▁uniq	-14262
schaft	-14263
▁fever	-14264
▁gradu	-14265
▁jewel	-14266
▁joyce	-14267
▁noise	-14268
▁bandai	-14269
▁chapel	-14270
▁silent	-14271
▁sungai	-14272
▁carrier	-14273
▁shadows	-14274
▁kentucky	-14275
▁manufact	-14276
▁opentype	-14277
▁parallel	-14278
▁winchester	-14279
▁observatory	-14280
196	-14281
458	-14282
gpp	-14283
▁bx	-14284
山而頁	-14285
ared	-14286
main	-14287
tism	-14288
ushi	-14289
▁fft	-14290
▁kud	-14291
▁nis	-14292
▁wad	-14293
人一口廾	-14294
drive	-14295
▁1082	-14296
▁8800	-14297
▁avai	-14298
▁bagn	-14299
▁casp	-14300
▁haus	-14301
▁mare	-14302
▁sind	-14303
▁wien	-14304
strong	-14305
▁carry	-14306
▁diana	-14307
▁favor	-14308
▁revol	-14309
▁witch	-14310
▁barbus	-14311
▁client	-14312
▁selina	-14313
▁abraham	-14314
▁memories	-14315
▁temperature	-14316
gf	-14317
mh	-14318
yi	-14319
广厶	-14320
金彡	-14321
178	-14322
254	-14323
tai	-14324
weg	-14325
▁eq	-14326
1200	-14327
phus	-14328
▁033	-14329
▁057	-14330
▁088	-14331
▁jia	-14332
▁kod	-14333
▁lop	-14334
▁pou	-14335
ators	-14336
stock	-14337
▁2250	-14338
▁jing	-14339
▁mast	-14340
▁role	-14341
▁tess	-14342
▁tube	-14343
▁vide	-14344
▁besan	-14345
▁bless	-14346
▁jenny	-14347
▁kitch	-14348
▁manif	-14349
▁soldi	-14350
▁tools	-14351
▁italia	-14352
▁troyes	-14353
▁brandon	-14354
▁mohammad	-14355
▁resources	-14356
▁wordpress	-14357
259	-14358
has	-14359
onn	-14360
aldi	-14361
gart	-14362
ondo	-14363
▁cod	-14364
▁alma	-14365
▁mith	-14366
▁send	-14367
▁sets	-14368
▁colla	-14369
▁jamie	-14370
▁jorge	-14371
▁teddy	-14372
▁100000	-14373
▁cnblue	-14374
▁delphi	-14375
▁murphy	-14376
▁reform	-14377
▁toyota	-14378
▁webkit	-14379
▁phantom	-14380
▁publica	-14381
▁reading	-14382
▁chandler	-14383
▁regiment	-14384
▁marketing	-14385
木日	-14386
礻禺	-14387
008	-14388
456	-14389
▁ux	-14390
ffff	-14391
oter	-14392
tivo	-14393
▁027	-14394
▁gha	-14395
▁naz	-14396
▁nxt	-14397
▁orn	-14398
▁roo	-14399
▁tud	-14400
ersch	-14401
▁1091	-14402
▁chol	-14403
▁guil	-14404
▁mina	-14405
▁nash	-14406
▁sinc	-14407
▁trap	-14408
▁ellen	-14409
▁pilot	-14410
▁redmi	-14411
▁toshi	-14412
▁gainax	-14413
▁herman	-14414
▁marian	-14415
▁artists	-14416
▁lieuten	-14417
▁schwarz	-14418
▁shuffle	-14419
▁stevens	-14420
▁storage	-14421
▁woollim	-14422
▁consider	-14423
▁michigan	-14424
▁philosophy	-14425
▁intelligent	-14426
uw	-14427
154	-14428
171	-14429
182	-14430
ffy	-14431
mul	-14432
wei	-14433
enau	-14434
enko	-14435
free	-14436
nine	-14437
oron	-14438
ssen	-14439
▁gai	-14440
▁pch	-14441
▁tft	-14442
media	-14443
▁baba	-14444
▁herz	-14445
▁lala	-14446
▁lynn	-14447
⿰⿱⿱⿻	-14448
▁cache	-14449
▁knock	-14450
▁lives	-14451
▁montr	-14452
▁tears	-14453
▁trick	-14454
issance	-14455
▁charge	-14456
▁heroes	-14457
▁kepler	-14458
▁length	-14459
▁effects	-14460
▁shirley	-14461
▁agricult	-14462
▁distance	-14463
▁position	-14464
▁dualshock	-14465
lb	-14466
fen	-14467
fil	-14468
fit	-14469
loo	-14470
oft	-14471
run	-14472
人彡食	-14473
arum	-14474
cann	-14475
esty	-14476
most	-14477
ught	-14478
▁026	-14479
▁agb	-14480
▁dah	-14481
▁gos	-14482
▁psl	-14483
▁zea	-14484
emont	-14485
▁deal	-14486
▁iast	-14487
▁maps	-14488
minton	-14489
uments	-14490
▁annie	-14491
▁nigel	-14492
▁crisis	-14493
▁establ	-14494
▁nicola	-14495
▁vernon	-14496
▁charter	-14497
▁leopold	-14498
▁reserve	-14499
▁worldwide	-14500
▁environmental	-14501
口卜	-14502
山卯	-14503
251	-14504
▁zw	-14505
丶艮阝	-14506
厶大三	-14507
1917	-14508
borg	-14509
cott	-14510
ocks	-14511
ongo	-14512
uter	-14513
▁045	-14514
▁bsp	-14515
▁crt	-14516
▁ler	-14517
chaft	-14518
ticus	-14519
▁blan	-14520
▁capp	-14521
▁diet	-14522
▁drag	-14523
▁mits	-14524
▁reyn	-14525
▁allan	-14526
▁issue	-14527
▁jules	-14528
▁links	-14529
▁linked	-14530
▁plasma	-14531
▁queens	-14532
▁twenty	-14533
▁usenet	-14534
▁airways	-14535
▁evening	-14536
▁gamespy	-14537
▁numbers	-14538
▁playing	-14539
▁alexandra	-14540
fd	-14541
855	-14542
dev	-14543
pet	-14544
uca	-14545
upp	-14546
zin	-14547
▁hj	-14548
orre	-14549
rett	-14550
▁069	-14551
▁084	-14552
▁091	-14553
▁dud	-14554
▁egy	-14555
▁fos	-14556
▁raf	-14557
▁rai	-14558
▁vac	-14559
▁xtr	-14560
口口隹頁	-14561
⿱⿰⿻	-14562
▁fork	-14563
▁koch	-14564
▁peer	-14565
▁pern	-14566
▁vari	-14567
willer	-14568
▁60000	-14569
▁aless	-14570
▁amber	-14571
▁bring	-14572
▁elvis	-14573
▁fairy	-14574
▁greek	-14575
▁spike	-14576
▁whole	-14577
▁accept	-14578
▁decade	-14579
▁prison	-14580
▁contain	-14581
▁convers	-14582
▁edwards	-14583
▁montana	-14584
▁relative	-14585
▁happiness	-14586
扌束	-14587
灬尺	-14588
礻兆	-14589
艹及	-14590
223	-14591
boo	-14592
wak	-14593
baby	-14594
boys	-14595
iong	-14596
▁agp	-14597
▁apc	-14598
▁jsp	-14599
▁kow	-14600
▁lec	-14601
▁une	-14602
▁vix	-14603
▁vos	-14604
▁zar	-14605
maker	-14606
▁chop	-14607
▁gand	-14608
▁goto	-14609
▁kyle	-14610
▁niel	-14611
▁sten	-14612
bility	-14613
▁chlor	-14614
▁draft	-14615
▁scene	-14616
▁seoul	-14617
▁until	-14618
▁appear	-14619
▁scream	-14620
▁baptist	-14621
▁fantasia	-14622
▁lieutenant	-14623
土广	-14624
女比	-14625
纟予	-14626
罒衣	-14627
144	-14628
403	-14629
802	-14630
ape	-14631
cmg	-14632
ieh	-14633
▁nz	-14634
▁vz	-14635
戊𠃌阝	-14636
ithe	-14637
lean	-14638
wara	-14639
▁058	-14640
▁083	-14641
▁dit	-14642
▁hbl	-14643
▁hof	-14644
▁scb	-14645
▁tms	-14646
inson	-14647
keley	-14648
▁dhcp	-14649
▁laws	-14650
▁loud	-14651
▁mara	-14652
▁tiny	-14653
▁ware	-14654
▁alleg	-14655
▁equip	-14656
▁jelly	-14657
▁morph	-14658
▁barnes	-14659
▁compos	-14660
▁critic	-14661
▁examin	-14662
▁indica	-14663
▁magnus	-14664
▁applied	-14665
▁identif	-14666
▁pierrot	-14667
▁several	-14668
▁february	-14669
▁shishamo	-14670
▁specific	-14671
▁mathematica	-14672
▁introduction	-14673
井丶	-14674
deo	-14675
haw	-14676
jee	-14677
kie	-14678
▁vn	-14679
▁wg	-14680
amer	-14681
baum	-14682
endi	-14683
▁059	-14684
▁081	-14685
▁lug	-14686
▁pep	-14687
▁rts	-14688
▁ska	-14689
insky	-14690
quest	-14691
▁coal	-14692
▁glas	-14693
▁larg	-14694
▁myth	-14695
▁snap	-14696
▁spex	-14697
▁stur	-14698
▁grove	-14699
▁tibet	-14700
▁desire	-14701
▁falcom	-14702
▁lancer	-14703
▁tennis	-14704
▁capitol	-14705
▁feature	-14706
▁whitney	-14707
▁interest	-14708
▁madhouse	-14709
▁multiple	-14710
▁postgres	-14711
▁armstrong	-14712
▁carpenter	-14713
▁processing	-14714
▁contemporary	-14715
qa	-14716
tu	-14717
一𧰨	-14718
气㐅	-14719
虫乍	-14720
言干	-14721
172	-14722
ail	-14723
mac	-14724
uls	-14725
ader	-14726
hail	-14727
rill	-14728
teen	-14729
walk	-14730
▁098	-14731
▁bwv	-14732
▁ett	-14733
▁gut	-14734
▁oth	-14735
▁tos	-14736
▁wak	-14737
▁⿱⿳⿳	-14738
▁aacs	-14739
▁abba	-14740
▁cruz	-14741
▁diss	-14742
▁done	-14743
▁kore	-14744
▁mund	-14745
▁rfid	-14746
▁scor	-14747
▁yard	-14748
▁yuen	-14749
hausen	-14750
player	-14751
▁algol	-14752
▁apink	-14753
▁caval	-14754
▁damon	-14755
▁dirty	-14756
▁exhib	-14757
▁speak	-14758
ylvania	-14759
▁matlab	-14760
▁britain	-14761
▁similar	-14762
▁walking	-14763
▁commerce	-14764
▁spectrum	-14765
▁badminton	-14766
▁directory	-14767
355	-14768
406	-14769
407	-14770
502	-14771
905	-14772
agh	-14773
eae	-14774
rog	-14775
tle	-14776
㡀攵目	-14777
田田糸	-14778
atum	-14779
camp	-14780
emen	-14781
ieri	-14782
lade	-14783
mune	-14784
ogon	-14785
ulty	-14786
▁adp	-14787
▁biz	-14788
▁chn	-14789
▁gob	-14790
▁haz	-14791
▁hig	-14792
▁kav	-14793
▁koi	-14794
▁tad	-14795
▁dice	-14796
▁guin	-14797
▁item	-14798
▁koda	-14799
▁levi	-14800
▁vamp	-14801
▁whee	-14802
▁yoho	-14803
kinson	-14804
▁blanc	-14805
▁brack	-14806
▁chrys	-14807
▁edgar	-14808
▁porta	-14809
▁holmes	-14810
▁magnum	-14811
▁burning	-14812
▁defence	-14813
▁maxwell	-14814
▁chaumont	-14815
▁richardson	-14816
万力	-14817
八方	-14818
141	-14819
356	-14820
asv	-14821
fol	-14822
lik	-14823
pus	-14824
rup	-14825
2500	-14826
ican	-14827
ouch	-14828
pool	-14829
▁ctr	-14830
▁laf	-14831
▁noc	-14832
asser	-14833
ogram	-14834
ornis	-14835
▁axis	-14836
▁boun	-14837
▁cala	-14838
▁lenn	-14839
▁mete	-14840
▁nadh	-14841
▁porn	-14842
▁tier	-14843
㇇⿱⿰⿱	-14844
▁embed	-14845
▁modif	-14846
▁plate	-14847
▁traff	-14848
8661⿺⿱	-14849
ression	-14850
▁events	-14851
▁rudolf	-14852
▁balance	-14853
▁request	-14854
▁romance	-14855
▁springs	-14856
▁wonders	-14857
女為	-14858
田攵	-14859
joy	-14860
pel	-14861
ulf	-14862
十廾兀	-14863
白匕旡	-14864
艹冖土	-14865
bold	-14866
mine	-14867
name	-14868
omed	-14869
vely	-14870
▁063	-14871
▁atf	-14872
▁dao	-14873
▁hul	-14874
▁jct	-14875
▁kry	-14876
▁mhc	-14877
▁uml	-14878
tress	-14879
video	-14880
▁1058	-14881
▁bras	-14882
▁byte	-14883
▁crew	-14884
▁glay	-14885
▁kaka	-14886
▁tall	-14887
ellite	-14888
ousand	-14889
▁adolf	-14890
▁apost	-14891
▁argon	-14892
▁derek	-14893
▁oasis	-14894
▁prima	-14895
▁tempo	-14896
▁celebr	-14897
▁config	-14898
▁credit	-14899
▁beijing	-14900
▁initial	-14901
▁millenn	-14902
▁promise	-14903
▁everyday	-14904
▁thousand	-14905
▁classical	-14906
亠臼	-14907
月申	-14908
钅田	-14909
309	-14910
465	-14911
nap	-14912
亠臼𧘇	-14913
尹口頁	-14914
amax	-14915
girl	-14916
otes	-14917
▁aix	-14918
▁baa	-14919
▁gea	-14920
▁hes	-14921
▁sah	-14922
▁tao	-14923
▁zel	-14924
canth	-14925
▁aeon	-14926
▁apps	-14927
▁dion	-14928
▁dior	-14929
▁siri	-14930
▁wick	-14931
▁chong	-14932
▁civic	-14933
▁costa	-14934
▁daisy	-14935
▁formos	-14936
▁gentle	-14937
▁keroro	-14938
▁cameron	-14939
▁chicken	-14940
▁edonkey	-14941
▁fortune	-14942
▁basketball	-14943
▁centroliner	-14944
石朱	-14945
金我	-14946
352	-14947
erc	-14948
fff	-14949
liz	-14950
yar	-14951
▁oa	-14952
agan	-14953
erno	-14954
stro	-14955
▁leh	-14956
▁lhc	-14957
▁pps	-14958
▁rox	-14959
▁ses	-14960
ighty	-14961
ither	-14962
▁fies	-14963
▁gulf	-14964
▁held	-14965
▁ital	-14966
▁sana	-14967
▁vega	-14968
▁conse	-14969
▁glenn	-14970
▁quint	-14971
▁swiss	-14972
▁gloria	-14973
▁remote	-14974
lication	-14975
▁carroll	-14976
▁wolfram	-14977
▁automatic	-14978
wy	-14979
日𠃓	-14980
194	-14981
kor	-14982
vie	-14983
冖几心	-14984
𠃜目阝	-14985
atsu	-14986
fare	-14987
icia	-14988
pora	-14989
▁041	-14990
▁aro	-14991
▁fah	-14992
▁hui	-14993
▁hut	-14994
▁mum	-14995
▁tik	-14996
endar	-14997
▁1062	-14998
▁1084	-14999
▁2060	-15000
▁anno	-15001
▁hess	-15002
▁kerr	-15003
▁kwok	-15004
▁lpga	-15005
▁meas	-15006
▁thai	-15007
ingham	-15008
▁angle	-15009
▁blind	-15010
▁craft	-15011
▁dutch	-15012
▁overs	-15013
▁pages	-15014
▁rider	-15015
▁secure	-15016
▁members	-15017
▁disorder	-15018
▁elementary	-15019
▁expression	-15020
隹隹	-15021
198	-15022
tax	-15023
夫丷阝	-15024
立十衣	-15025
羊乚厶	-15026
46⿻	-15027
lake	-15028
lare	-15029
tale	-15030
word	-15031
▁077	-15032
▁082	-15033
▁aik	-15034
▁dex	-15035
▁diz	-15036
▁ecm	-15037
▁eia	-15038
▁fay	-15039
▁kei	-15040
▁nie	-15041
66⿰⿰	-15042
tranz	-15043
▁eeee	-15044
▁fold	-15045
▁lith	-15046
▁noah	-15047
▁pati	-15048
▁soon	-15049
▁⿰⿱⿱⿻	-15050
▁cours	-15051
▁amanda	-15052
▁defini	-15053
▁pietro	-15054
▁powell	-15055
▁savage	-15056
▁adtranz	-15057
▁verizon	-15058
▁geoffrey	-15059
▁ministry	-15060
▁montbard	-15061
▁patricia	-15062
▁mathematics	-15063
⿳⿶	-15064
210	-15065
239	-15066
358	-15067
gom	-15068
hor	-15069
tel	-15070
udo	-15071
▁jy	-15072
▁zx	-15073
ilon	-15074
rete	-15075
▁dcc	-15076
▁ltp	-15077
▁rng	-15078
▁txt	-15079
▁wpa	-15080
▁zan	-15081
丿𠃌攵金	-15082
▁2160	-15083
▁bala	-15084
▁barn	-15085
▁capt	-15086
▁hann	-15087
▁iowa	-15088
▁mora	-15089
▁nguy	-15090
▁smar	-15091
▁coord	-15092
▁derby	-15093
▁floyd	-15094
▁hutch	-15095
▁often	-15096
▁weiss	-15097
▁escape	-15098
▁murder	-15099
▁nippon	-15100
▁resort	-15101
▁zetima	-15102
▁experim	-15103
▁fellows	-15104
▁shannon	-15105
▁spexial	-15106
▁therapy	-15107
▁tiffany	-15108
▁mohammed	-15109
▁elisabeth	-15110
▁synthesis	-15111
▁enterbrain	-15112
▁initiative	-15113
▁institution	-15114
153	-15115
173	-15116
409	-15117
chs	-15118
hev	-15119
upa	-15120
mons	-15121
ucks	-15122
▁beg	-15123
▁ina	-15124
▁ola	-15125
▁rae	-15126
▁xsl	-15127
㇇⿰⿰	-15128
group	-15129
▁2046	-15130
▁7800	-15131
▁bold	-15132
▁doll	-15133
▁hair	-15134
▁jumo	-15135
▁metz	-15136
▁oecd	-15137
▁puma	-15138
▁rear	-15139
▁suit	-15140
▁wear	-15141
▁eeeeee	-15142
▁groove	-15143
▁height	-15144
▁marcel	-15145
▁parade	-15146
▁status	-15147
▁newtype	-15148
▁berkeley	-15149
▁question	-15150
▁mediawiki	-15151
▁gamesradar	-15152
wu	-15153
亻求	-15154
钅彡	-15155
191	-15156
359	-15157
416	-15158
cor	-15159
anta	-15160
chel	-15161
iste	-15162
rico	-15163
sapp	-15164
tide	-15165
tila	-15166
▁031	-15167
▁cvs	-15168
▁dil	-15169
▁dms	-15170
▁ops	-15171
▁roh	-15172
▁rpc	-15173
▁snp	-15174
▁bits	-15175
▁hsbc	-15176
▁kane	-15177
▁labs	-15178
▁omar	-15179
▁wwdc	-15180
▁zion	-15181
▁globe	-15182
▁grade	-15183
▁meego	-15184
▁notre	-15185
▁ouest	-15186
▁pablo	-15187
▁stere	-15188
▁taste	-15189
▁tetra	-15190
▁fergus	-15191
▁geomet	-15192
▁jensen	-15193
▁openss	-15194
▁citizen	-15195
▁houston	-15196
▁indones	-15197
▁microsd	-15198
ellschaft	-15199
▁pleasure	-15200
▁scottish	-15201
▁cherbourg	-15202
▁electronics	-15203
nn	-15204
pb	-15205
183	-15206
bec	-15207
oun	-15208
atin	-15209
cont	-15210
rics	-15211
shaw	-15212
▁ack	-15213
▁ams	-15214
▁atx	-15215
▁crc	-15216
▁kak	-15217
▁nev	-15218
▁omn	-15219
▁tiz	-15220
onder	-15221
▁aclu	-15222
▁chim	-15223
▁duch	-15224
▁guid	-15225
▁leed	-15226
▁nega	-15227
▁nist	-15228
▁ogle	-15229
▁polo	-15230
▁risk	-15231
▁slow	-15232
▁22000	-15233
▁along	-15234
▁sampa	-15235
0⿰⿱⿱⿱⿰	-15236
▁albums	-15237
▁ashley	-15238
▁binary	-15239
▁darwin	-15240
▁expans	-15241
▁kinect	-15242
▁konami	-15243
▁nights	-15244
▁ancient	-15245
▁fighting	-15246
▁strategic	-15247
iu	-15248
氵内	-15249
米更	-15250
金夫	-15251
门一	-15252
276	-15253
fts	-15254
uge	-15255
士冖车	-15256
eler	-15257
opia	-15258
real	-15259
▁cpr	-15260
▁ees	-15261
▁eta	-15262
▁gia	-15263
▁icu	-15264
▁nia	-15265
▁tse	-15266
▁wrx	-15267
teron	-15268
▁8086	-15269
▁gale	-15270
▁mime	-15271
▁poor	-15272
▁rafa	-15273
▁sync	-15274
▁vine	-15275
▁liver	-15276
▁reach	-15277
▁slash	-15278
▁types	-15279
▁wendy	-15280
▁chanel	-15281
▁leader	-15282
▁margin	-15283
▁output	-15284
▁presid	-15285
▁download	-15286
▁township	-15287
▁principle	-15288
▁individual	-15289
▁encyclopedia	-15290
𠂉斤	-15291
505	-15292
665	-15293
bir	-15294
eye	-15295
inx	-15296
▁fv	-15297
龶夂夫	-15298
ahan	-15299
anet	-15300
eets	-15301
itus	-15302
lord	-15303
ylon	-15304
▁arb	-15305
▁bid	-15306
▁ibf	-15307
▁lus	-15308
▁sop	-15309
▁ssg	-15310
ensor	-15311
ibada	-15312
▁4900	-15313
▁dors	-15314
▁herm	-15315
▁manh	-15316
▁spas	-15317
▁tran	-15318
▁choco	-15319
▁ellis	-15320
▁exist	-15321
▁penns	-15322
▁roche	-15323
▁schne	-15324
▁teles	-15325
▁torre	-15326
▁wheel	-15327
▁write	-15328
8661⿰⿹	-15329
lington	-15330
▁bottom	-15331
▁dollar	-15332
▁deliver	-15333
▁session	-15334
▁receptor	-15335
▁resource	-15336
▁equipment	-15337
▁sourceforge	-15338
▁thunderbird	-15339
土垂	-15340
163	-15341
271	-15342
375	-15343
455	-15344
457	-15345
660	-15346
oki	-15347
冖車阝	-15348
5⿱⿺	-15349
cker	-15350
gren	-15351
pers	-15352
▁bri	-15353
▁dfa	-15354
▁ivy	-15355
▁lms	-15356
▁nil	-15357
▁seo	-15358
▁tna	-15359
▁tod	-15360
▁ttl	-15361
erver	-15362
inkle	-15363
iston	-15364
itory	-15365
izing	-15366
▁bend	-15367
▁beng	-15368
▁dust	-15369
▁lens	-15370
▁mbps	-15371
▁sina	-15372
▁vend	-15373
▁ying	-15374
icient	-15375
▁bened	-15376
▁boris	-15377
▁carca	-15378
▁gucci	-15379
▁novel	-15380
▁ports	-15381
▁radar	-15382
▁ratio	-15383
▁reven	-15384
▁unter	-15385
▁brooks	-15386
▁flickr	-15387
▁summit	-15388
▁bedford	-15389
▁harbour	-15390
▁whatsapp	-15391
▁champions	-15392
▁christine	-15393
▁lightning	-15394
▁smalltalk	-15395
▁transportation	-15396
氵央	-15397
429	-15398
ams	-15399
chn	-15400
cue	-15401
hav	-15402
▁xz	-15403
匕火頁	-15404
目八心	-15405
idel	-15406
mitt	-15407
ogne	-15408
▁086	-15409
▁79%	-15410
▁ani	-15411
▁bpm	-15412
▁cah	-15413
▁ego	-15414
▁laz	-15415
▁lut	-15416
▁miz	-15417
▁vig	-15418
ernet	-15419
kirch	-15420
▁7400	-15421
▁8300	-15422
▁flip	-15423
▁lept	-15424
▁musa	-15425
▁80000	-15426
▁avran	-15427
▁brass	-15428
▁vegas	-15429
▁harmon	-15430
▁hidden	-15431
▁parish	-15432
▁thread	-15433
▁wesley	-15434
________	-15435
▁gardens	-15436
▁lorenzo	-15437
▁related	-15438
▁applications	-15439
石斤	-15440
门韦	-15441
295	-15442
atz	-15443
fta	-15444
zil	-15445
▁jl	-15446
▁qc	-15447
二厶刂	-15448
lift	-15449
thal	-15450
thor	-15451
▁abi	-15452
▁acs	-15453
▁cip	-15454
▁edm	-15455
▁gew	-15456
▁mea	-15457
▁mug	-15458
▁pso	-15459
▁rho	-15460
▁zak	-15461
▁zfc	-15462
block	-15463
brand	-15464
guard	-15465
leton	-15466
▁1051	-15467
▁alas	-15468
▁fuse	-15469
▁hawk	-15470
▁mana	-15471
▁nero	-15472
▁sank	-15473
▁seam	-15474
▁vene	-15475
▁went	-15476
▁zach	-15477
▁zico	-15478
▁absol	-15479
▁blair	-15480
▁bunny	-15481
▁mausu	-15482
▁saman	-15483
▁selec	-15484
▁volks	-15485
▁apollo	-15486
▁aurora	-15487
▁connor	-15488
▁speech	-15489
▁griffin	-15490
▁regular	-15491
▁zealand	-15492
▁midnight	-15493
▁morrison	-15494
▁tactical	-15495
▁innovation	-15496
▁powerpoint	-15497
▁restaurant	-15498
bj	-15499
236	-15500
▁lw	-15501
▁xu	-15502
夂卜日	-15503
anes	-15504
atti	-15505
bine	-15506
comm	-15507
kbps	-15508
otus	-15509
unge	-15510
▁094	-15511
▁aia	-15512
▁asa	-15513
▁ecu	-15514
▁fog	-15515
▁jax	-15516
▁jub	-15517
▁ota	-15518
▁sik	-15519
▁siv	-15520
▁sty	-15521
annad	-15522
ulata	-15523
vious	-15524
▁mari	-15525
▁chcoo	-15526
▁irene	-15527
▁jakob	-15528
▁scala	-15529
▁across	-15530
▁bigorre	-15531
▁madonna	-15532
▁behavior	-15533
▁positive	-15534
▁jefferson	-15535
fu	-15536
木角	-15537
181	-15538
332	-15539
666	-15540
hyd	-15541
nan	-15542
qua	-15543
▁cq	-15544
bern	-15545
iani	-15546
oven	-15547
▁aph	-15548
▁dus	-15549
▁ish	-15550
▁job	-15551
▁kdl	-15552
▁lys	-15553
▁msm	-15554
▁sma	-15555
▁vag	-15556
▁wap	-15557
▁yee	-15558
ianus	-15559
idium	-15560
▁flav	-15561
▁phra	-15562
▁zeta	-15563
▁buddy	-15564
▁dress	-15565
▁floor	-15566
▁gates	-15567
▁limit	-15568
▁merry	-15569
▁tribe	-15570
▁answer	-15571
▁kotaku	-15572
▁marsan	-15573
▁module	-15574
▁purple	-15575
▁rivers	-15576
▁clement	-15577
▁florida	-15578
▁unknown	-15579
▁richmond	-15580
▁avranches	-15581
▁powershot	-15582
▁manchester	-15583
▁postgresql	-15584
▁resistance	-15585
氵自	-15586
犭广	-15587
269	-15588
gor	-15589
▁zd	-15590
千口氏	-15591
colm	-15592
pack	-15593
▁ami	-15594
▁dts	-15595
▁evo	-15596
▁nup	-15597
▁pvp	-15598
front	-15599
ovsky	-15600
tidae	-15601
umann	-15602
uttle	-15603
▁alth	-15604
▁boat	-15605
▁chad	-15606
▁chao	-15607
▁chas	-15608
▁ding	-15609
▁evol	-15610
▁goss	-15611
▁mori	-15612
▁oled	-15613
▁rage	-15614
▁rico	-15615
▁uefi	-15616
transp	-15617
ughter	-15618
▁allow	-15619
▁gecko	-15620
▁punch	-15621
▁quake	-15622
8661⿳⿰	-15623
osuchus	-15624
▁angelo	-15625
▁archae	-15626
▁lovers	-15627
▁mojang	-15628
▁nicole	-15629
▁nogent	-15630
▁pseudo	-15631
cription	-15632
▁gravity	-15633
▁langres	-15634
▁mirande	-15635
▁radical	-15636
▁rosetta	-15637
▁polytech	-15638
辶求	-15639
金卜	-15640
235	-15641
605	-15642
606	-15643
653	-15644
903	-15645
arn	-15646
fax	-15647
yal	-15648
▁mz	-15649
4000	-15650
ccus	-15651
iate	-15652
mith	-15653
omen	-15654
sons	-15655
tige	-15656
▁076	-15657
▁hok	-15658
▁ipc	-15659
▁lal	-15660
▁osm	-15661
▁tlc	-15662
▁zee	-15663
▁zig	-15664
▁7600	-15665
▁emin	-15666
▁kumi	-15667
▁lass	-15668
▁lest	-15669
▁loen	-15670
▁ofdm	-15671
▁smrt	-15672
▁sold	-15673
▁viol	-15674
▁banks	-15675
▁rotem	-15676
▁sabah	-15677
▁annual	-15678
▁defeat	-15679
▁weapon	-15680
▁malcolm	-15681
▁missing	-15682
▁opteron	-15683
▁theodor	-15684
▁darkness	-15685
▁soribada	-15686
▁theodore	-15687
▁babymetal	-15688
▁materials	-15689
▁literature	-15690
▁pennsylvania	-15691
pu	-15692
252	-15693
426	-15694
cro	-15695
enf	-15696
nor	-15697
▁vd	-15698
丷干攵	-15699
白匕卩	-15700
𠁣𠃛言	-15701
0⿰⿸	-15702
four	-15703
isto	-15704
lair	-15705
mule	-15706
▁087	-15707
▁adj	-15708
▁aic	-15709
▁dmc	-15710
▁efi	-15711
▁gne	-15712
▁hee	-15713
▁jug	-15714
▁slo	-15715
▁ssa	-15716
▁zap	-15717
eeper	-15718
emble	-15719
ersey	-15720
igade	-15721
▁3001	-15722
▁avro	-15723
▁eval	-15724
▁hole	-15725
▁mell	-15726
▁nate	-15727
▁sage	-15728
▁seth	-15729
▁warp	-15730
kirche	-15731
schild	-15732
schule	-15733
▁45000	-15734
▁crush	-15735
▁neway	-15736
▁recon	-15737
▁sight	-15738
▁uncle	-15739
▁garnet	-15740
▁libert	-15741
▁monday	-15742
▁singer	-15743
▁economy	-15744
▁falling	-15745
▁historic	-15746
▁mapframe	-15747
▁satellite	-15748
▁connection	-15749
口乍	-15750
钅衣	-15751
282	-15752
428	-15753
bay	-15754
qui	-15755
tur	-15756
▁jw	-15757
clus	-15758
esia	-15759
hart	-15760
olan	-15761
rant	-15762
rine	-15763
umin	-15764
▁cly	-15765
▁mgm	-15766
▁nus	-15767
▁pis	-15768
▁rit	-15769
basic	-15770
encia	-15771
estic	-15772
tiste	-15773
▁7300	-15774
▁allo	-15775
▁ango	-15776
▁finn	-15777
▁halo	-15778
▁herr	-15779
▁plug	-15780
▁suff	-15781
tility	-15782
▁advis	-15783
▁arsen	-15784
▁ayumi	-15785
▁moody	-15786
▁natur	-15787
▁shake	-15788
▁strat	-15789
▁europa	-15790
▁meteor	-15791
▁salins	-15792
▁assault	-15793
▁clannad	-15794
▁eternal	-15795
▁harmony	-15796
▁harvest	-15797
▁subject	-15798
▁warrior	-15799
▁bernhard	-15800
▁emmanuel	-15801
▁intermed	-15802
▁religion	-15803
▁shopping	-15804
▁dangerous	-15805
jd	-15806
oz	-15807
月彡	-15808
284	-15809
chr	-15810
ecy	-15811
hon	-15812
uxe	-15813
镸彡兀	-15814
opal	-15815
otto	-15816
pret	-15817
quer	-15818
ylie	-15819
▁ags	-15820
▁kah	-15821
▁kev	-15822
▁qew	-15823
ignan	-15824
otten	-15825
▁2036	-15826
▁abcd	-15827
▁chau	-15828
▁doom	-15829
▁hund	-15830
▁join	-15831
▁kend	-15832
▁miui	-15833
▁pair	-15834
▁shim	-15835
▁sung	-15836
ometer	-15837
▁blitz	-15838
▁comet	-15839
▁debut	-15840
▁romeo	-15841
▁vreux	-15842
▁woods	-15843
mission	-15844
▁figure	-15845
▁forbes	-15846
▁irving	-15847
▁magdal	-15848
▁takara	-15849
▁viktor	-15850
▁wagner	-15851
▁maximum	-15852
▁seasons	-15853
▁crawford	-15854
▁embedded	-15855
▁monument	-15856
▁motorola	-15857
▁problems	-15858
▁continental	-15859
土巳	-15860
475	-15861
mol	-15862
tml	-15863
1897	-15864
2001	-15865
8⿸⿸	-15866
angu	-15867
fect	-15868
ilis	-15869
▁bej	-15870
▁dss	-15871
▁ere	-15872
▁erp	-15873
▁kwk	-15874
▁meh	-15875
▁usp	-15876
▁zer	-15877
▁zis	-15878
▁9800	-15879
▁bint	-15880
▁blow	-15881
▁dans	-15882
▁dias	-15883
▁drew	-15884
▁rift	-15885
▁robo	-15886
▁turt	-15887
▁typh	-15888
▁vivo	-15889
▁aleks	-15890
▁entry	-15891
▁neigh	-15892
▁spice	-15893
▁bonnie	-15894
▁curtis	-15895
▁kansas	-15896
▁macrom	-15897
▁native	-15898
▁quadro	-15899
▁sidney	-15900
▁atlanta	-15901
▁concern	-15902
▁dorothy	-15903
▁emperor	-15904
▁imaging	-15905
▁traffic	-15906
▁junction	-15907
▁alexandre	-15908
▁important	-15909
▁standards	-15910
kl	-15911
廿尺	-15912
242	-15913
353	-15914
775	-15915
883	-15916
enk	-15917
hua	-15918
yak	-15919
▁fy	-15920
▁hq	-15921
▁kz	-15922
itri	-15923
wski	-15924
▁cmg	-15925
▁cts	-15926
▁ddt	-15927
▁ils	-15928
▁joo	-15929
▁lcs	-15930
▁mca	-15931
▁rut	-15932
▁wig	-15933
elles	-15934
▁bree	-15935
▁gift	-15936
▁henn	-15937
▁maha	-15938
▁tone	-15939
▁wire	-15940
▁boost	-15941
▁bulld	-15942
▁forms	-15943
▁given	-15944
▁icoca	-15945
▁johor	-15946
▁kuala	-15947
▁logan	-15948
▁patri	-15949
▁retro	-15950
▁riley	-15951
▁assess	-15952
▁concep	-15953
▁desert	-15954
▁bristol	-15955
▁chapman	-15956
▁harvard	-15957
▁respons	-15958
▁determin	-15959
▁internal	-15960
▁practice	-15961
▁pressure	-15962
▁functions	-15963
▁treatment	-15964
▁wrestling	-15965
▁difference	-15966
弋甘	-15967
禾果	-15968
888	-15969
agi	-15970
3100	-15971
itia	-15972
list	-15973
▁aek	-15974
▁img	-15975
▁kro	-15976
▁mcp	-15977
▁pha	-15978
aller	-15979
▁init	-15980
▁mati	-15981
▁moto	-15982
▁pine	-15983
▁tram	-15984
▁verb	-15985
saurus	-15986
▁benny	-15987
▁bravo	-15988
▁greno	-15989
▁rever	-15990
▁ribon	-15991
▁ricar	-15992
▁satur	-15993
▁scout	-15994
▁sparc	-15995
▁split	-15996
▁ending	-15997
▁frankf	-15998
▁jacobs	-15999
▁lauren	-16000
▁luther	-16001
▁sphere	-16002
8665⿱⿱⿰	-16003
▁activex	-16004
▁brigade	-16005
▁browser	-16006
▁dynasty	-16007
▁miracle	-16008
▁replace	-16009
▁simpson	-16010
▁stardust	-16011
▁beginning	-16012
yk	-16013
亻兆	-16014
讠山	-16015
豆工	-16016
钅方	-16017
饣戋	-16018
338	-16019
fps	-16020
opo	-16021
▁dq	-16022
一内阝	-16023
hand	-16024
idan	-16025
phia	-16026
tham	-16027
ulla	-16028
vich	-16029
▁dma	-16030
▁jum	-16031
▁lfa	-16032
▁nen	-16033
▁nio	-16034
▁ols	-16035
▁pim	-16036
▁rpk	-16037
▁una	-16038
▁yen	-16039
凵丨王攵	-16040
𠂊田一由	-16041
antin	-16042
▁cuda	-16043
▁herc	-16044
▁lips	-16045
▁soar	-16046
▁syfy	-16047
▁vela	-16048
㐅乂木大石	-16049
ishing	-16050
▁bever	-16051
▁curie	-16052
▁curve	-16053
▁eugen	-16054
▁frost	-16055
▁paolo	-16056
▁randy	-16057
8960⿰⿹	-16058
▁baobab	-16059
▁fuller	-16060
▁infant	-16061
▁patrol	-16062
▁teresa	-16063
▁auguste	-16064
▁contact	-16065
▁greater	-16066
▁cyanogen	-16067
▁grenoble	-16068
▁potential	-16069
▁liberation	-16070
▁generations	-16071
中皿	-16072
土甘	-16073
氵乐	-16074
258	-16075
399	-16076
flo	-16077
▁zr	-16078
▁⿷⿸	-16079
1500	-16080
acty	-16081
atta	-16082
club	-16083
idon	-16084
ises	-16085
ride	-16086
uria	-16087
wehr	-16088
▁asm	-16089
▁cyc	-16090
▁eds	-16091
▁gus	-16092
▁lic	-16093
▁moa	-16094
▁nmr	-16095
▁orc	-16096
▁rtl	-16097
annes	-16098
archy	-16099
flops	-16100
iling	-16101
olens	-16102
raine	-16103
▁7100	-16104
▁ecfa	-16105
▁lump	-16106
▁nept	-16107
▁socc	-16108
▁tina	-16109
▁wade	-16110
▁camel	-16111
▁curry	-16112
▁eleph	-16113
▁heinz	-16114
▁mixed	-16115
▁phila	-16116
▁prosp	-16117
▁rocky	-16118
▁tsing	-16119
▁tumbl	-16120
▁broken	-16121
▁fiesta	-16122
▁finder	-16123
▁multim	-16124
▁nichol	-16125
▁xavier	-16126
▁workers	-16127
▁deadline	-16128
▁politics	-16129
▁available	-16130
▁universities	-16131
fz	-16132
立束	-16133
竹见	-16134
296	-16135
856	-16136
857	-16137
anx	-16138
eac	-16139
fon	-16140
vic	-16141
yne	-16142
▁ql	-16143
cate	-16144
inth	-16145
oday	-16146
ovic	-16147
uler	-16148
▁alv	-16149
▁ism	-16150
▁jah	-16151
▁mbt	-16152
▁nix	-16153
▁rdf	-16154
enses	-16155
▁aman	-16156
▁aval	-16157
▁hers	-16158
▁norm	-16159
eneuve	-16160
▁alien	-16161
▁clara	-16162
▁dijon	-16163
▁impro	-16164
▁levin	-16165
▁paulo	-16166
▁pulau	-16167
▁sally	-16168
▁cities	-16169
▁conrad	-16170
▁descri	-16171
▁jackie	-16172
▁korean	-16173
▁methyl	-16174
▁webster	-16175
▁chromium	-16176
▁contents	-16177
▁expansion	-16178
▁quicktime	-16179
▁libreoffice	-16180
373	-16181
608	-16182
jam	-16183
▁uz	-16184
▁zb	-16185
八刀廾	-16186
艹冖糸	-16187
1001	-16188
boot	-16189
otti	-16190
shan	-16191
tico	-16192
tree	-16193
wise	-16194
▁anu	-16195
▁hcl	-16196
▁mdr	-16197
▁mey	-16198
▁miu	-16199
▁mmx	-16200
▁nai	-16201
▁sdf	-16202
0⿰⿳⿱	-16203
games	-16204
lican	-16205
rison	-16206
▁gour	-16207
▁guns	-16208
▁marg	-16209
▁mbit	-16210
▁quiz	-16211
▁tear	-16212
▁yuri	-16213
inique	-16214
▁brock	-16215
▁crash	-16216
▁genus	-16217
▁hydra	-16218
▁leave	-16219
▁santo	-16220
▁ziers	-16221
▁horace	-16222
▁hotels	-16223
▁rafael	-16224
▁tienne	-16225
▁faculty	-16226
▁letters	-16227
▁opening	-16228
▁tenness	-16229
▁thought	-16230
▁website	-16231
▁athletic	-16232
▁according	-16233
▁direction	-16234
▁everybody	-16235
▁sebastian	-16236
▁superstar	-16237
▁publications	-16238
虫见	-16239
275	-16240
550	-16241
raf	-16242
tag	-16243
土口彡	-16244
0⿵⿰	-16245
anan	-16246
eaks	-16247
etto	-16248
icom	-16249
plex	-16250
▁ait	-16251
▁ama	-16252
▁cfc	-16253
▁iga	-16254
▁iis	-16255
▁oma	-16256
▁psc	-16257
▁spd	-16258
▁usc	-16259
▁wyn	-16260
▁xyz	-16261
athon	-16262
▁adri	-16263
▁beer	-16264
▁boul	-16265
▁camb	-16266
▁cari	-16267
▁giul	-16268
▁gren	-16269
▁hast	-16270
▁jaya	-16271
▁mens	-16272
▁scen	-16273
▁slip	-16274
▁thin	-16275
▁whis	-16276
▁zeit	-16277
lander	-16278
▁32000	-16279
▁atrac	-16280
▁bains	-16281
▁britt	-16282
▁conca	-16283
▁moder	-16284
▁named	-16285
▁navar	-16286
▁shirt	-16287
▁stick	-16288
▁wimax	-16289
▁fourth	-16290
▁genome	-16291
▁jerome	-16292
▁nieder	-16293
▁patter	-16294
▁biology	-16295
▁missile	-16296
▁pattern	-16297
▁silicon	-16298
▁unified	-16299
▁operator	-16300
▁robertson	-16301
eo	-16302
▁皿	-16303
廿丨	-16304
alt	-16305
ceu	-16306
dha	-16307
pps	-16308
rai	-16309
rit	-16310
ync	-16311
木木土	-16312
0⿱⿻	-16313
cchi	-16314
eric	-16315
vaux	-16316
▁dmm	-16317
▁eck	-16318
▁elo	-16319
▁gev	-16320
▁gta	-16321
▁gug	-16322
▁ked	-16323
▁ldl	-16324
▁mie	-16325
▁slc	-16326
▁smt	-16327
▁viz	-16328
▁yum	-16329
廿丨冖巾	-16330
▁2080	-16331
▁7700	-16332
▁9700	-16333
▁adsl	-16334
▁amus	-16335
▁bike	-16336
▁dena	-16337
▁mask	-16338
▁pros	-16339
▁tanh	-16340
▁vera	-16341
system	-16342
▁attra	-16343
▁donna	-16344
▁mouse	-16345
▁zhang	-16346
omotive	-16347
▁chakra	-16348
▁condom	-16349
▁crytek	-16350
▁elliot	-16351
▁honour	-16352
▁limoux	-16353
▁oculus	-16354
▁really	-16355
▁sprint	-16356
▁travis	-16357
▁betamax	-16358
▁flowers	-16359
▁germany	-16360
▁trouble	-16361
▁colorado	-16362
▁contract	-16363
▁solution	-16364
▁millennium	-16365
▁resolution	-16366
▁transition	-16367
户衣	-16368
月兆	-16369
爿木	-16370
钅乚	-16371
273	-16372
378	-16373
408	-16374
avi	-16375
bie	-16376
ipa	-16377
tiz	-16378
▁wf	-16379
▁ys	-16380
力口肉	-16381
pple	-16382
▁coa	-16383
▁dai	-16384
▁dha	-16385
▁ene	-16386
▁fet	-16387
▁lez	-16388
▁lsa	-16389
▁ptr	-16390
▁roe	-16391
▁smi	-16392
▁spc	-16393
丷干攵皿	-16394
allow	-16395
iency	-16396
oting	-16397
ulate	-16398
▁8700	-16399
▁alle	-16400
▁deca	-16401
▁fang	-16402
▁hyde	-16403
▁moss	-16404
▁quan	-16405
▁rene	-16406
▁sole	-16407
▁tart	-16408
▁trem	-16409
厶厶一日戈	-16410
▁cyrix	-16411
▁enemy	-16412
▁europ	-16413
▁guang	-16414
▁juice	-16415
▁lynch	-16416
▁marin	-16417
▁outer	-16418
▁pyram	-16419
▁schwe	-16420
▁shore	-16421
▁worth	-16422
▁behind	-16423
▁breath	-16424
▁loving	-16425
▁supers	-16426
▁vivian	-16427
▁giorgio	-16428
▁jenkins	-16429
▁kampung	-16430
▁concepts	-16431
▁dinosaur	-16432
▁enhanced	-16433
▁condition	-16434
▁henderson	-16435
▁molecular	-16436
np	-16437
亻王	-16438
比必	-16439
368	-16440
369	-16441
376	-16442
iry	-16443
▁yh	-16444
0⿱⿲	-16445
gard	-16446
noon	-16447
oney	-16448
pped	-16449
▁alx	-16450
▁esr	-16451
▁idf	-16452
▁mec	-16453
▁muc	-16454
▁siu	-16455
▁unc	-16456
▁xin	-16457
▁yau	-16458
丿冂米丂	-16459
store	-16460
tinum	-16461
▁8100	-16462
▁cnet	-16463
▁fand	-16464
▁kwan	-16465
▁leuc	-16466
▁ones	-16467
▁tara	-16468
▁writ	-16469
▁yuki	-16470
▁arrow	-16471
▁birds	-16472
▁brent	-16473
▁diane	-16474
▁marks	-16475
▁mercy	-16476
▁miami	-16477
▁paras	-16478
▁carmen	-16479
▁clover	-16480
▁dallas	-16481
▁mental	-16482
▁nforce	-16483
▁trophy	-16484
▁beatles	-16485
▁consult	-16486
▁elliott	-16487
▁gamepro	-16488
▁gardner	-16489
▁macross	-16490
▁montgom	-16491
▁sisters	-16492
▁psychology	-16493
▁villeneuve	-16494
口更	-16495
虫毛	-16496
468	-16497
892	-16498
ela	-16499
elt	-16500
pla	-16501
umn	-16502
▁bz	-16503
▁vj	-16504
扌斤虫	-16505
ades	-16506
alli	-16507
boro	-16508
cour	-16509
eroy	-16510
gles	-16511
icum	-16512
iers	-16513
iros	-16514
quel	-16515
▁afp	-16516
▁ccc	-16517
▁iba	-16518
▁ifa	-16519
▁kou	-16520
▁ktx	-16521
▁yeh	-16522
eness	-16523
etric	-16524
gency	-16525
icher	-16526
ilion	-16527
leigh	-16528
liffe	-16529
▁alge	-16530
▁phoe	-16531
▁qwer	-16532
▁stag	-16533
▁volt	-16534
▁wein	-16535
minute	-16536
▁coron	-16537
▁input	-16538
▁loire	-16539
▁maple	-16540
▁miche	-16541
▁miner	-16542
▁optim	-16543
▁pione	-16544
▁rural	-16545
▁theta	-16546
▁trich	-16547
▁voith	-16548
▁weber	-16549
berland	-16550
limited	-16551
▁amoled	-16552
▁jersey	-16553
▁jessie	-16554
▁ticket	-16555
▁weight	-16556
8665⿱⿰⿳	-16557
▁animals	-16558
▁concord	-16559
▁endless	-16560
▁heights	-16561
▁imagine	-16562
▁madison	-16563
▁pearson	-16564
▁results	-16565
▁ricardo	-16566
▁solomon	-16567
▁trident	-16568
▁activity	-16569
▁florence	-16570
▁strategy	-16571
▁superior	-16572
▁assistant	-16573
▁catalogue	-16574
▁manhattan	-16575
▁relations	-16576
dx	-16577
wb	-16578
xp	-16579
钅我	-16580
244	-16581
354	-16582
469	-16583
495	-16584
604	-16585
887	-16586
899	-16587
bau	-16588
iph	-16589
iya	-16590
jay	-16591
lei	-16592
anor	-16593
ened	-16594
feed	-16595
fton	-16596
iere	-16597
omes	-16598
yang	-16599
▁avi	-16600
▁bip	-16601
▁blg	-16602
▁lom	-16603
▁luv	-16604
▁opt	-16605
▁owl	-16606
▁ppt	-16607
▁ruf	-16608
▁zoe	-16609
antes	-16610
count	-16611
isoft	-16612
ppers	-16613
▁cars	-16614
▁cogn	-16615
▁dela	-16616
▁indo	-16617
▁leap	-16618
▁lect	-16619
▁lyon	-16620
▁opti	-16621
▁shor	-16622
▁slam	-16623
▁toys	-16624
▁yeah	-16625
▁27000	-16626
▁armor	-16627
▁cardi	-16628
▁erich	-16629
▁klaus	-16630
▁leeds	-16631
▁armani	-16632
▁nether	-16633
▁penins	-16634
▁qwerty	-16635
▁tumblr	-16636
cephalus	-16637
▁chester	-16638
▁mapping	-16639
▁methods	-16640
transport	-16641
▁audition	-16642
▁decision	-16643
▁platinum	-16644
▁tennessee	-16645
▁montgomery	-16646
mk	-16647
彳且	-16648
角瓜	-16649
364	-16650
476	-16651
483	-16652
497	-16653
602	-16654
853	-16655
889	-16656
907	-16657
eap	-16658
kos	-16659
pod	-16660
一大刂	-16661
1903	-16662
fall	-16663
fest	-16664
imal	-16665
iona	-16666
osus	-16667
reza	-16668
▁cns	-16669
▁csf	-16670
▁dsl	-16671
▁esi	-16672
▁fug	-16673
▁iib	-16674
▁ine	-16675
▁isc	-16676
▁kri	-16677
▁lid	-16678
▁mip	-16679
▁qui	-16680
十豆口心	-16681
0⿰⿱⿱	-16682
atore	-16683
enade	-16684
power	-16685
wagen	-16686
▁grub	-16687
▁lgpl	-16688
▁msci	-16689
▁raph	-16690
▁seng	-16691
▁symm	-16692
estone	-16693
heimer	-16694
ically	-16695
ophone	-16696
tively	-16697
▁basin	-16698
▁delay	-16699
▁inhib	-16700
▁percy	-16701
▁twist	-16702
▁become	-16703
▁former	-16704
▁hannah	-16705
▁hassan	-16706
▁inform	-16707
▁milton	-16708
▁tablet	-16709
▁baldwin	-16710
▁buffalo	-16711
▁liberal	-16712
▁variety	-16713
▁anything	-16714
▁anywhere	-16715
▁baptiste	-16716
▁singular	-16717
▁ventures	-16718
▁powerbook	-16719
石比	-16720
142	-16721
234	-16722
459	-16723
461	-16724
504	-16725
667	-16726
890	-16727
how	-16728
hpa	-16729
leb	-16730
mag	-16731
mex	-16732
xis	-16733
▁gv	-16734
▁pq	-16735
士口力	-16736
erto	-16737
oles	-16738
shot	-16739
ture	-16740
wing	-16741
▁aip	-16742
▁dsc	-16743
▁eis	-16744
▁kut	-16745
▁lua	-16746
▁mtd	-16747
▁srb	-16748
rises	-16749
sburg	-16750
▁bess	-16751
▁edin	-16752
▁forg	-16753
▁isla	-16754
▁noir	-16755
▁phon	-16756
▁tres	-16757
struct	-16758
sworth	-16759
weiler	-16760
▁anglo	-16761
▁indie	-16762
▁mende	-16763
ensions	-16764
▁abstra	-16765
▁fraser	-16766
▁gregor	-16767
▁legion	-16768
▁martha	-16769
▁mighty	-16770
▁rescue	-16771
▁changes	-16772
▁destruc	-16773
▁horipro	-16774
▁mikhail	-16775
▁mohamed	-16776
▁stellar	-16777
▁discover	-16778
▁hamasaki	-16779
▁telltale	-16780
▁schneider	-16781
▁significa	-16782
▁properties	-16783
▁silverlight	-16784
▁wissembourg	-16785
扌专	-16786
扌门	-16787
395	-16788
454	-16789
472	-16790
774	-16791
776	-16792
858	-16793
864	-16794
tap	-16795
unn	-16796
ills	-16797
only	-16798
▁arx	-16799
▁kag	-16800
▁kiv	-16801
▁mls	-16802
▁neg	-16803
▁ssr	-16804
▁tpe	-16805
▁wcw	-16806
acity	-16807
taine	-16808
▁2650	-16809
▁cron	-16810
▁duty	-16811
▁eure	-16812
▁gibb	-16813
▁hime	-16814
▁lago	-16815
▁scha	-16816
▁webb	-16817
⿰⿱⿱⿱	-16818
▁bitch	-16819
▁claud	-16820
▁freak	-16821
▁humph	-16822
▁luigi	-16823
▁quinn	-16824
▁raven	-16825
▁tango	-16826
▁bernay	-16827
▁finger	-16828
▁gerard	-16829
▁icloud	-16830
▁minnes	-16831
▁mongol	-16832
▁impreza	-16833
▁objects	-16834
▁richter	-16835
▁writing	-16836
▁negative	-16837
▁certified	-16838
▁emergency	-16839
▁recording	-16840
▁unlimited	-16841
▁alexandria	-16842
▁excellence	-16843
▁population	-16844
▁conservation	-16845
口角	-16846
耳冉	-16847
453	-16848
479	-16849
993	-16850
dek	-16851
十又目	-16852
bolt	-16853
ffen	-16854
ient	-16855
▁ame	-16856
▁bia	-16857
▁cay	-16858
▁cpa	-16859
▁ctu	-16860
▁iic	-16861
▁nhs	-16862
ately	-16863
ersen	-16864
olith	-16865
riage	-16866
▁alam	-16867
▁alba	-16868
▁ante	-16869
▁carm	-16870
▁cats	-16871
▁espa	-16872
▁evel	-16873
▁fest	-16874
▁foix	-16875
▁hors	-16876
▁kira	-16877
▁raff	-16878
▁trav	-16879
ssonne	-16880
▁68000	-16881
▁brett	-16882
▁files	-16883
▁hobby	-16884
▁immun	-16885
▁kappa	-16886
▁matth	-16887
▁nexon	-16888
▁plain	-16889
▁prior	-16890
▁stark	-16891
▁theme	-16892
▁towns	-16893
8661⿲⿱	-16894
▁cotton	-16895
▁degree	-16896
▁deluxe	-16897
▁regina	-16898
▁blender	-16899
▁celeron	-16900
▁isabella	-16901
▁algorithm	-16902
▁minnesota	-16903
▁navigator	-16904
▁carcassonne	-16905
mn	-16906
火羊	-16907
187	-16908
464	-16909
474	-16910
507	-16911
551	-16912
852	-16913
902	-16914
hun	-16915
odo	-16916
opp	-16917
otr	-16918
sex	-16919
vir	-16920
cend	-16921
eart	-16922
garh	-16923
inan	-16924
sing	-16925
zens	-16926
▁aca	-16927
▁adl	-16928
▁arl	-16929
▁bic	-16930
▁csa	-16931
▁edg	-16932
▁hoy	-16933
▁mez	-16934
▁mog	-16935
▁nfa	-16936
▁nsx	-16937
▁ugc	-16938
▁yer	-16939
▁ymc	-16940
books	-16941
ethyl	-16942
itsch	-16943
▁2034	-16944
▁8400	-16945
▁arte	-16946
▁dino	-16947
▁fips	-16948
▁garo	-16949
▁gplv	-16950
▁graf	-16951
▁ivpp	-16952
▁poll	-16953
▁sale	-16954
▁shen	-16955
▁turk	-16956
wealth	-16957
▁artif	-16958
▁brien	-16959
▁glock	-16960
▁msnbc	-16961
▁penny	-16962
▁takes	-16963
▁trace	-16964
uration	-16965
▁cannon	-16966
▁divers	-16967
▁hubert	-16968
▁jennie	-16969
▁minute	-16970
▁mosfet	-16971
▁prepar	-16972
▁anthrop	-16973
▁clinton	-16974
▁gerhard	-16975
▁jupiter	-16976
▁ranking	-16977
▁testing	-16978
▁griffith	-16979
▁largenti	-16980
▁angelababy	-16981
艹卯	-16982
148	-16983
253	-16984
297	-16985
fal	-16986
spa	-16987
tae	-16988
▁nw	-16989
2011	-16990
2012	-16991
imon	-16992
inet	-16993
ippi	-16994
mbit	-16995
oire	-16996
rows	-16997
▁aed	-16998
▁alr	-16999
▁bau	-17000
▁cps	-17001
▁ebs	-17002
▁fow	-17003
▁gib	-17004
▁gru	-17005
▁ire	-17006
▁mpc	-17007
▁rcs	-17008
▁reh	-17009
▁uic	-17010
井一𧘇力	-17011
inski	-17012
ockey	-17013
oland	-17014
oming	-17015
▁amor	-17016
▁intr	-17017
▁lvmh	-17018
▁mica	-17019
▁parc	-17020
▁pull	-17021
▁tata	-17022
▁tick	-17023
▁youb	-17024
▁21000	-17025
▁chels	-17026
▁crane	-17027
▁jonas	-17028
▁leigh	-17029
▁mayer	-17030
▁means	-17031
ococcus	-17032
▁edmond	-17033
▁shader	-17034
▁stanag	-17035
▁zimmer	-17036
▁barrett	-17037
▁binding	-17038
▁calling	-17039
▁feeling	-17040
▁lambert	-17041
▁miranda	-17042
▁tournon	-17043
▁external	-17044
▁latitude	-17045
▁sterling	-17046
▁indonesia	-17047
▁leadership	-17048
▁certificate	-17049
▁investments	-17050
▁experimental	-17051
王丁	-17052
427	-17053
898	-17054
enh	-17055
roc	-17056
▁zy	-17057
隹隹牛	-17058
𠂉大匕	-17059
aper	-17060
isla	-17061
ocom	-17062
orie	-17063
▁bma	-17064
▁buy	-17065
▁igm	-17066
▁ink	-17067
▁kov	-17068
▁lob	-17069
▁ryo	-17070
▁sfc	-17071
▁ufj	-17072
iplex	-17073
state	-17074
▁5900	-17075
▁8200	-17076
▁8600	-17077
▁caes	-17078
▁cave	-17079
▁chro	-17080
▁iran	-17081
▁taxi	-17082
▁yuan	-17083
▁clamp	-17084
▁compi	-17085
▁dolce	-17086
▁fifth	-17087
▁latex	-17088
▁mouth	-17089
▁ricky	-17090
▁volvo	-17091
asaurus	-17092
▁enough	-17093
▁guilla	-17094
▁portal	-17095
▁roguel	-17096
▁sketch	-17097
▁soccer	-17098
8661⿰⿱⿴	-17099
▁christi	-17100
▁partner	-17101
▁waiting	-17102
▁warning	-17103
▁augustus	-17104
▁laughing	-17105
▁mcdonald	-17106
▁planning	-17107
▁evangelion	-17108
[...]
