<pad>	0
<unk>	0
[CLS]	0
[SEP]	0
[MASK]	0
(	0
)	0
”	0
-	0
.	0
–	0
£	0
€	0
▁⿰	-0
▁⿱	-1
▁⿰⿱	-2
▁,	-3
▁⿸	-4
▁⿱⿱	-5
勹丶	-6
▁⿺	-7
▁。	-8
▁⿻	-9
⿱⿱	-10
▁⿱⿰	-11
▁⿵	-12
一八	-13
▁⿴	-14
一口	-15
▁⿳	-16
▁⿹	-17
▁年	-18
▁1	-19
一龰	-20
幺芉	-21
▁⿰⿱⿱	-22
▁、	-23
特一八	-24
土寸	-25
㡏土	-26
▁一	-27
一厶	-28
目八	-29
⿱⿰	-30
口口	-31
口丨	-32
⿱⿴	-33
二丨	-34
▁人	-35
十口	-36
▁⿱⿻	-37
▁2	-38
日一	-39
丁口	-40
𠘧又	-41
亠口	-42
人一	-43
▁⿱⿱⿱	-44
𠂇月	-45
一人	-46
一厶土	-47
一廾	-48
夂口	-49
⿰⿱	-50
人人	-51
▁⿰⿸	-52
口一	-53
⿱⿻	-54
𠁣𠃛	-55
亠丷	-56
戊𠃌	-57
禾口	-58
▁為	-59
一止	-60
丿𠃌	-61
龷八	-62
䬎彐	-63
▁以	-64
一丁	-65
▁月	-66
㐅乂	-67
▁日	-68
▁20	-69
乛亅	-70
甲一	-71
亠土	-72
乀丿	-73
耂日	-74
囗玉	-75
二厶	-76
▁19	-77
⺌日	-78
囗⺌日	-79
▁⿱⿳	-80
▁为	-81
冂口	-82
八厶	-83
丿丿	-84
土也	-85
⿹⿻	-86
凵丨	-87
一兀	-88
人⺀	-89
八刀	-90
厶口	-91
人丶	-92
▁⿷	-93
⺌冖	-94
▁⿲	-95
幺幺	-96
立口	-97
人一口	-98
⺊一	-99
凵丨凵	-100
䒑土	-101
一漹	-102
▁⿸⿸	-103
▁⿵⿰	-104
一大	-105
弓丨	-106
丷干	-107
⺊口	-108
亻也	-109
立口阝	-110
特一八斤	-111
䒑自	-112
土厶	-113
▁⿱⿰⿱	-114
𠂊冫	-115
亠口小	-116
⺌冖口	-117
𠂉大	-118
𠂉母	-119
丶硴	-120
丨丨	-121
日十	-122
夕口	-123
目儿	-124
▁⿺⿱	-125
弓丨丿	-126
耳又	-127
⿳⿰	-128
乚丿	-129
亻乍	-130
止匕	-131
▁⿵⿵	-132
丿士	-133
▁生	-134
立日	-135
冂一口	-136
口止	-137
▁⿶	-138
▁⿰⿳	-139
䬎彐一八	-140
一厶土刂	-141
夕夕	-142
力口	-143
▁于	-144
土龰	-145
一卜	-146
儿口	-147
⿱⿳	-148
▁:	-149
小丿	-150
亠父	-151
▁》	-152
▁《	-153
▁⿳𭕄	-154
且一	-155
宀豕	-156
㧖匕	-157
宀八	-158
龶月	-159
亻立	-160
立朩	-161
㪭丿	-162
▁及	-163
▁由	-164
▁⿱⿶	-165
月刂	-166
𠂊小	-167
木木	-168
幺夂	-169
冫欠	-170
冖子	-171
衤皮	-172
▁民	-173
干丷	-174
▁本	-175
▁3	-176
亠巾	-177
丿丨	-178
口儿	-179
▁·	-180
囗大	-181
一心	-182
▁⿶⿳⿰	-183
一止攵	-184
甲一一	-185
人丨	-186
十罒	-187
十罒一心	-188
由八	-189
▁子	-190
且一八	-191
▁201	-192
⺆冫	-193
𠃋丿	-194
𠃋丿人	-195
丿糸	-196
▁自	-197
千口	-198
䒑业	-199
宀㠯	-200
禾刂	-201
亠乂	-202
𠂊田	-203
丿尸	-204
廴聿	-205
𠂇巾	-206
冖車	-207
立朩斤	-208
▁「	-209
▁」	-210
亻弋	-211
宀女	-212
井一八	-213
十口儿	-214
䬎彐冖	-215
▁⿱⿶⿱⿰	-216
廿又	-217
白小	-218
▁也	-219
𠂆一口	-220
囗呦	-221
匕匕	-222
子攵	-223
丿尸斤	-224
𠂆又	-225
㐅乂子	-226
▁200	-227
一二	-228
日乚	-229
日一寸	-230
䒑土大	-231
匚㐅	-232
峴灬	-233
弋工	-234
歹刂	-235
覀女	-236
▁“	-237
士口	-238
人丶龴	-239
土口	-240
亻寸	-241
蟽寸	-242
▁4	-243
爫冖	-244
冖巾	-245
木目	-246
▁事	-247
耂子攵	-248
冂卄	-249
⿵⿵	-250
▁山	-251
日寸	-252
▁5	-253
亠丷一	-254
扌立	-255
▁⿰⿰	-256
▁⿰⿻	-257
▁小	-258
▁入	-259
▁口	-260
揗一	-261
口八	-262
口王	-263
▁世	-264
▁二	-265
王里	-266
▁工	-267
▁州	-268
龶𧘇	-269
日月	-270
夕卜	-271
櫵一	-272
人王	-273
丶葭	-274
特一八月	-275
尢丶	-276
コ一	-277
冂刂	-278
牛冂刂	-279
禾斗	-280
王求	-281
▁十	-282
亻吏	-283
一口田	-284
▁;	-285
𠂒儿	-286
勹巳	-287
忄生	-288
丷八	-289
▁6	-290
𠂊田灬	-291
冖车	-292
女攵	-293
立十	-294
一由八	-295
十又	-296
▁重	-297
▁⿰⿹	-298
㪭一	-299
耂日阝	-300
一巛	-301
一巛工	-302
▁发	-303
𠂒口	-304
𠂊冫寸	-305
刀口	-306
囗口	-307
尸匕	-308
▁7	-309
一厶儿	-310
▁⿹⿶	-311
▁士	-312
▁"	-313
幺幺丱	-314
人一朩	-315
▁比	-316
土土	-317
习习	-318
▁8	-319
特一八土	-320
一土	-321
亠斌	-322
爫冖又	-323
湥月	-324
糸言	-325
糸言糸	-326
小丿目	-327
匕日	-328
重力	-329
▁s	-330
▁米	-331
⿵⿰	-332
▁目	-333
卩又	-334
艹央	-335
辶文	-336
▁⿲㇇	-337
口木	-338
王丷	-339
⿵⿱	-340
䒑土寸	-341
幺芉隹	-342
▁⿰⿱⿰	-343
一㚱	-344
五口	-345
又寸	-346
口丂	-347
䒑土我	-348
𠁣𠃛日	-349
丿冂口	-350
口贝	-351
▁9	-352
辶言	-353
亻丨	-354
日大	-355
▁长	-356
▁10	-357
亠丷厂	-358
女口	-359
肀一	-360
⿻⿻	-361
宀八工	-362
▁c	-363
龷八巳	-364
▁⿱⿲	-365
𠂇又	-366
▁a	-367
⺌冖口田	-368
囗儿	-369
日生	-370
曲豆	-371
幺幺人	-372
儿丨	-373
土龰巳	-374
一㚱一	-375
⿹⿶	-376
▁巴	-377
亠口小彡	-378
立日心	-379
禾女	-380
葭卩	-381
▁⿱⿰⿴	-382
犬灬	-383
𠂊冫犬灬	-384
冎口	-385
ス工	-386
⺌冖口巾	-387
▁女	-388
戈十	-389
⿱⿱⿱	-390
▁東	-391
己攵	-392
一廾刂	-393
入入	-394
米大	-395
肀一一	-396
𠂊巴	-397
一冉	-398
日一里	-399
▁来	-400
⿳⿱	-401
丿冂	-402
夂⺀	-403
辶隹	-404
▁心	-405
夂力	-406
大丶	-407
日十月	-408
▁⿵⿱	-409
立女	-410
▁东	-411
釆田	-412
木丶	-413
er	-414
一巾	-415
隹又	-416
儿土	-417
▁t	-418
甲一戈	-419
丷豕	-420
土儿土	-421
𠂇口	-422
二厶力	-423
白水	-424
乂丶	-425
▁m	-426
目八刂	-427
𠂉丶	-428
力八	-429
禾日	-430
00	-431
冂入	-432
▁手	-433
𫝀口	-434
▁車	-435
亠几	-436
宀丰	-437
上卜	-438
勹虫	-439
𫝀口㐄	-440
方攵	-441
勹口	-442
丿大	-443
门日	-444
in	-445
一廾彡	-446
▁12	-447
冂人	-448
▁18	-449
𠂊冫溬	-450
𠂊冫溬示	-451
木几	-452
⿱⿰⿴	-453
一业	-454
丿夫	-455
一廾刂土	-456
▁已	-457
丿囗	-458
▁b	-459
龷由八	-460
▁⿱⿴	-461
⿱⿲	-462
止匕二	-463
凵㐅	-464
口口隹	-465
尹口	-466
宀丰口	-467
口心	-468
火火	-469
丷口心	-470
氏丶	-471
an	-472
⺌兀	-473
隹木	-474
戊一	-475
or	-476
辶寸	-477
十口攵	-478
▁史	-479
辶井	-480
亠丷冖巾	-481
爫冉	-482
二人	-483
▁199	-484
丿十	-485
丶艮	-486
十豆	-487
on	-488
▁车	-489
▁f	-490
且厶	-491
卌一	-492
𠂉卌一	-493
一𫝀	-494
▁身	-495
宀子	-496
䒑未	-497
巳巳	-498
虍几	-499
八口	-500
宀匕	-501
人彡	-502
氵工	-503
口力	-504
王见	-505
▁示	-506
礻土	-507
日乂	-508
𠂉大口	-509
⿰⿳	-510
虍豕	-511
宀示	-512
夕寸	-513
▁11	-514
禾重	-515
糸言糸弓	-516
䒑业日	-517
禾中	-518
锊一	-519
覀示	-520
⺌月	-521
几丶	-522
撈女攵	-523
▁⿱⿵⿱	-524
癶豆	-525
▁p	-526
丷夫	-527
𠂉丶皿	-528
氵州	-529
𠂇工	-530
口卩	-531
亻本	-532
刀丿	-533
⺌彐	-534
田一	-535
止𣥂	-536
⺊口戈	-537
𠂉子	-538
幺木	-539
幺白	-540
幺白幺木	-541
刀牛	-542
土羊	-543
日夂	-544
𠂉日夂	-545
𠁣𠃛柬	-546
块刀	-547
龷日	-548
罒夕	-549
十口月	-550
丿囗夂	-551
丘八	-552
一厶月	-553
▁h	-554
▁d	-555
亠口冖	-556
𠂉十	-557
氵皮	-558
𠃌口	-559
亻言	-560
弋一止	-561
且一小	-562
コ一亅	-563
▁曲	-564
辶斤	-565
丿冂米大	-566
▁非	-567
阝人	-568
礻申	-569
丆口	-570
米女攵	-571
一白	-572
口龰	-573
丶葭阝	-574
戊一口	-575
亠幺	-576
凵㐅禸	-577
▁⿰⿱⿴	-578
▁又	-579
夂朩	-580
人匕	-581
⿱⿴⿱	-582
土儿土丸	-583
宀必	-584
厶厶	-585
尸禹	-586
亻牛	-587
丿囗夂心	-588
亠丷日	-589
二阝	-590
刀二阝	-591
𠂆鮪	-592
艹騜	-593
▁片	-594
▁角	-595
女也	-596
心夂	-597
la	-598
木寸	-599
𠂉卌一灬	-600
亻尹	-601
冖儿	-602
▁/	-603
土斌	-604
宀必山	-605
en	-606
日日	-607
▁⿳⿱	-608
人人龰	-609
歹匕	-610
▁0	-611
日木	-612
言十	-613
口口犬	-614
▁未	-615
丩攵	-616
⿸⿴	-617
尸一口	-618
贝刂	-619
▁⿰⿱⿹	-620
土𠃓	-621
肀一一田一	-622
▁⿳⿰	-623
甫寸	-624
日罒	-625
日罒又	-626
木艮	-627
幺芉且	-628
𠂊田一	-629
▁198	-630
木子	-631
井一八贝	-632
▁白	-633
▁⿱⿱⿰	-634
丁口欠	-635
一口𧘇	-636
纟戋	-637
月䦯	-638
立月䦯	-639
▁15	-640
乚丿十	-641
爫木	-642
纟且	-643
中一	-644
亠八	-645
衤刀	-646
宀八九	-647
ar	-648
八夂	-649
辶大	-650
立日儿	-651
身寸	-652
▁且	-653
冖儿木	-654
二丨凵	-655
扌丁	-656
丨丿	-657
纟及	-658
勹口攵	-659
厶厶人彡	-660
▁g	-661
山而	-662
丷三	-663
亻门	-664
戊一女	-665
禾子	-666
土口𧘇	-667
𠂊蛖	-668
士衣	-669
▁r	-670
口虫	-671
𠂊厂	-672
火火冖	-673
▁⿱⿶⿳⿰	-674
夕㐄	-675
▁书	-676
宀谷	-677
讠十	-678
▁n	-679
𠃌丨	-680
刀丿心	-681
甘木	-682
雨田	-683
艹禺	-684
▁言	-685
㡏子	-686
囗丨	-687
▁广	-688
▁16	-689
彳艮	-690
丿虫	-691
丿口	-692
口丿口	-693
▁八	-694
▁⿰⿷	-695
厂生	-696
丿七	-697
▁⿺⿻	-698
⿱⿹	-699
亻隹	-700
▁土	-701
辶束	-702
丷八十	-703
門山	-704
夂彡	-705
工力	-706
白王	-707
田力	-708
扌隹	-709
勹冫	-710
▁17	-711
又土	-712
又又	-713
口十	-714
女子	-715
⿱⿸	-716
▁%	-717
▁⿱⿻⿱	-718
犬頁	-719
米犬頁	-720
▁l	-721
▁我	-722
夂几	-723
厶大	-724
宀头	-725
厶大彡	-726
井一冉	-727
山一	-728
一氺	-729
一氺丶	-730
幆王	-731
王幆王	-732
▁瓦	-733
八乂	-734
▁i	-735
束攵	-736
▁九	-737
宀女木	-738
雨而	-739
▁⿱⿱⿻	-740
辶車	-741
䬎卩	-742
纟隹	-743
▁母	-744
▁⿱⿹	-745
es	-746
肀一一日	-747
白丿十	-748
革力	-749
亻白	-750
⿰⿱⿱	-751
▁己	-752
▁田	-753
且力	-754
士口冖	-755
人丶龴頁	-756
コ一斌	-757
扌斤	-758
▁⿱⿺	-759
一内	-760
八人	-761
甈冖巾	-762
口夫	-763
辶不	-764
一厶土攵	-765
車凵	-766
工攵	-767
肀口	-768
丿𠃌刂	-769
▁194	-770
at	-771
亻隹心	-772
䒑自寸	-773
上小	-774
▁w	-775
▁197	-776
一口田刂	-777
勹厶	-778
丿廾	-779
夂丰	-780
一尢	-781
禾乃	-782
龷八氺	-783
虍豕刂	-784
亠斌又	-785
士心	-786
⿺⿱	-787
夂卜	-788
彑氺	-789
𠘧又手	-790
扌丸	-791
人㔾	-792
⺌冖口土	-793
al	-794
尹口羊	-795
▁14	-796
▁⿱⿵	-797
块刀田	-798
上小又	-799
木示	-800
乛头	-801
▁⿻㇀	-802
土龰戉	-803
𠂉也	-804
ic	-805
▁⿱⿰⿱⿱	-806
▁13	-807
幺芉及	-808
▁门	-809
糸言糸攵	-810
⺌冖口黑	-811
人丶龴页	-812
⺊口灬	-813
士𠃜	-814
▁川	-815
▁195	-816
几㐅	-817
匚儿	-818
▁⿱⿰⿻	-819
囗才	-820
⿱𭕄	-821
一自	-822
井一八土	-823
巳寸	-824
幺芉己	-825
扌非	-826
㵞灬	-827
亻专	-828
耂匕	-829
牛冂刂衣	-830
門灬	-831
犭犬	-832
阝艮	-833
▁氏	-834
▁央	-835
耂丂	-836
▁乐	-837
亻更	-838
儿言	-839
廿巾	-840
一𧘇	-841
井一𧘇	-842
豆頁	-843
田心	-844
㐅朩	-845
▁⿳⿱⿻	-846
亻象	-847
勹又	-848
囗丨𧰨	-849
▁⿲⿱	-850
一自夂	-851
▁乡	-852
▁196	-853
▁甲	-854
彐心	-855
戊一口心	-856
▁e	-857
▁才	-858
亻乃	-859
日月皿	-860
立里	-861
勹口攵言	-862
▁木	-863
丿二丨	-864
丫㫔	-865
刀丫㫔	-866
一丨	-867
𠂇又丶	-868
⿺⿸	-869
𠂉一	-870
阝方	-871
木目心	-872
一曲	-873
一曲日	-874
丰阝	-875
亠口子	-876
酉己	-877
土土寸	-878
▁牙	-879
▁⿱⿵⿵	-880
氵羊	-881
口耳	-882
气米	-883
氵夬	-884
冖一	-885
▁k	-886
讠人	-887
釆大	-888
丿冂釆大	-889
▁o	-890
亠口冖丁	-891
▁止	-892
丷酉	-893
厂力	-894
女母	-895
亠父攵	-896
⿸⿱	-897
礻见	-898
讠己	-899
纟内	-900
▁—	-901
彳聿	-902
𡗗氺	-903
冖一豕	-904
𠂇工月	-905
is	-906
爿戈	-907
爿戈臣	-908
自心	-909
凵㐅禸隹	-910
亻弗	-911
囗大心	-912
艹冖	-913
夂㐄	-914
纟己	-915
扌巴	-916
米斗	-917
一兀寸	-918
▁193	-919
广隶	-920
扌比	-921
▁30	-922
▁for	-923
辶由	-924
▁j	-925
尸一口刂	-926
亻我	-927
幺芉内	-928
龶糸	-929
厶虫	-930
涗八	-931
龵目	-932
冂儿	-933
冂一	-934
厶八夂	-935
阝日	-936
羊目	-937
▁革	-938
丿䖻	-939
弓长	-940
躯卩	-941
▁承	-942
十冖	-943
十冖糸	-944
比白	-945
礻且	-946
▁_	-947
⿰⿹	-948
目廾	-949
▁21	-950
䒑山	-951
丨丨比	-952
宀寸	-953
卅冖巾	-954
彐氺	-955
▁专	-956
𠂊冫寸犬	-957
mu	-958
le	-959
it	-960
力力	-961
▁⿱⿳𭕄	-962
言己	-963
辶艮	-964
▁z	-965
尸口	-966
阝示	-967
䱘山	-968
氵隹	-969
辶车	-970
he	-971
白巾	-972
口力刂	-973
氵又	-974
禾禾	-975
禾禾止	-976
𠂇厶	-977
户方	-978
一龰頁	-979
艹田	-980
爿士衣	-981
上小又目	-982
𠃊米	-983
▁25	-984
七刀	-985
亡月	-986
亻衣	-987
亡月王	-988
冫欠贝	-989
𠂊田灬禾	-990
刀口灬	-991
爫一	-992
木又	-993
车专	-994
冫夬	-995
𠘧口	-996
丿大口	-997
口龶	-998
二乚	-999
斤斤	-1000
䒑亡	-1001
𠃊人	-1002
▁2010	-1003
mula	-1004
▁v	-1005
立十力	-1006
⿱⿵⿱	-1007
冖方	-1008
亠丷冖方	-1009
日比	-1010
▁formula	-1011
▁2009	-1012
▁丹	-1013
𠂊亅	-1014
口又	-1015
冂二	-1016
⺆冫攵	-1017
𠂉一乁	-1018
▁永	-1019
阝東	-1020
口木土	-1021
一亅	-1022
忄夬	-1023
el	-1024
ro	-1025
虍豆	-1026
虍豆戈	-1027
▁192	-1028
人一口手	-1029
口又一	-1030
石皮	-1031
耳口王	-1032
口口欠	-1033
un	-1034
一生	-1035
臼儿	-1036
am	-1037
白方攵	-1038
▁2011	-1039
𠂇火	-1040
𠁣𠃛口	-1041
䱘一	-1042
宀八犬	-1043
夂丶	-1044
尹口阝	-1045
人㔾刂	-1046
亻以	-1047
女又	-1048
冫隹	-1049
艹来	-1050
戈刂	-1051
▁皮	-1052
罒乑	-1053
𠂉鮪	-1054
谷卩	-1055
中一贝	-1056
心丿	-1057
工頁	-1058
世木	-1059
一丂	-1060
丷夫㔾	-1061
st	-1062
⺄十	-1063
里予	-1064
十口刂	-1065
耳阝	-1066
㐅㐅	-1067
夫见	-1068
000	-1069
丶葭月	-1070
䒑土永	-1071
⿱⿺	-1072
𡗗日	-1073
コ又	-1074
▁久	-1075
冂丶	-1076
厂干	-1077
▁22	-1078
扌户	-1079
▁头	-1080
龴疋	-1081
力口木	-1082
宀八方	-1083
▁co	-1084
隹口	-1085
▁飛	-1086
丬士衣	-1087
戈戈	-1088
▁2012	-1089
几攵	-1090
山一几攵	-1091
il	-1092
亠𠃊	-1093
コ一女	-1094
二丨刂	-1095
▁⿻⿺	-1096
尢丶丿	-1097
土儿土丸灬	-1098
▁2013	-1099
⿸⿸	-1100
▁24	-1101
re	-1102
十豆口	-1103
艹乂	-1104
亠丷厂生	-1105
十贝	-1106
土八夂	-1107
⿸⿱⿱	-1108
▁2016	-1109
ion	-1110
氵由	-1111
一龰页	-1112
𠂇厶隹	-1113
冖𧘇	-1114
勹缶	-1115
𠂊田一日	-1116
▁23	-1117
口寸	-1118
人氺	-1119
门口	-1120
▁2014	-1121
宀丁	-1122
𠂉大豆	-1123
ac	-1124
勹灬	-1125
𠃌丨一	-1126
▁2015	-1127
▁2008	-1128
工页	-1129
隹隹又	-1130
竹朿	-1131
et	-1132
王王	-1133
▁zh	-1134
𠂉乙	-1135
又戈	-1136
屯頁	-1137
𠘧又耳	-1138
辶豕	-1139
葭旡	-1140
木羊	-1141
▁191	-1142
广予	-1143
巾白	-1144
䒑口	-1145
羊䒑口	-1146
王不	-1147
又见	-1148
▁⿰⿳⿱⿻	-1149
肀一一田一刂	-1150
艹非	-1151
撈女	-1152
氏日	-1153
丬夕	-1154
木木手	-1155
▁2001	-1156
口止巨	-1157
广土	-1158
丿皿	-1159
us	-1160
氵酉	-1161
▁the	-1162
▁⿱⿸	-1163
▁束	-1164
▁}	-1165
▁{	-1166
牙隹	-1167
亻十	-1168
擊灬	-1169
匚㐅欠	-1170
▁末	-1171
宀木	-1172
辶力	-1173
幺芉工	-1174
𠂊彐心	-1175
幺大	-1176
▁干	-1177
⿰⿻	-1178
氵㔾	-1179
戊一𣥂	-1180
龶贝	-1181
as	-1182
口口木	-1183
▁2017	-1184
幺幺灬	-1185
丷夫力	-1186
士示	-1187
目八攵	-1188
▁2007	-1189
氵隹十	-1190
纟工	-1191
▁!	-1192
丿之	-1193
士示欠	-1194
▁⿰⿵	-1195
▁28	-1196
夂田	-1197
人人十	-1198
▁26	-1199
▁⿱⿰⿷	-1200
羊工	-1201
弓冫	-1202
𠘧又酉	-1203
彐冖巾	-1204
冖隹	-1205
尸毛	-1206
𠂉巾	-1207
囗人	-1208
夫夫	-1209
ur	-1210
丰丰	-1211
𠂊田灬日	-1212
乛耳	-1213
丬夕大	-1214
氵聿	-1215
乛耳攵	-1216
夫夫日	-1217
冂㐅	-1218
衤里	-1219
扌白	-1220
▁2018	-1221
彡頁	-1222
䒑八	-1223
䒑八皿	-1224
户口	-1225
▁见	-1226
金艮	-1227
▁2006	-1228
日小	-1229
車斤	-1230
辶𠂤	-1231
爫子	-1232
▁27	-1233
广车	-1234
习习白	-1235
丿乚	-1236
骒心夂	-1237
𠂊贝	-1238
爿犬	-1239
一厶月攵	-1240
ing	-1241
▁臣	-1242
金刂	-1243
▁31	-1244
▁尺	-1245
木土	-1246
块刀金刂	-1247
囗韦	-1248
口虫隹	-1249
米女	-1250
▁朱	-1251
扌丸灬	-1252
勹丿	-1253
凵土	-1254
▁st	-1255
幺幺灬頁	-1256
𠂉母攵	-1257
▁100	-1258
▁⿹⿻	-1259
歹刂灬	-1260
大口	-1261
𠃑大口	-1262
丷干丸	-1263
▁贝	-1264
▁⿸⿱	-1265
㧖匕月	-1266
⿱⿱⿻	-1267
刀丿丶	-1268
口夫隹	-1269
乡隹	-1270
罒非	-1271
人止	-1272
亻二	-1273
大丷	-1274
王丶	-1275
▁⿱⿰⿸	-1276
刀丿丶木	-1277
大丷日小	-1278
一彑	-1279
几口	-1280
戊𠃌皿	-1281
求攵	-1282
予頁	-1283
艹乙	-1284
犭虫	-1285
囗人皿	-1286
亠口子攵	-1287
戈十車	-1288
ol	-1289
▁2005	-1290
ed	-1291
田皿	-1292
▁几	-1293
ch	-1294
禾必	-1295
舟见	-1296
▁谷	-1297
文刂	-1298
人人夂	-1299
⿰⿸	-1300
▁牛	-1301
凵田	-1302
日央	-1303
一𣥂	-1304
▁29	-1305
土止	-1306
⿴⿱	-1307
尸由	-1308
▁in	-1309
▁飞	-1310
匕匕心	-1311
日业	-1312
一乚丿	-1313
一乚丿兀	-1314
ent	-1315
冂二月	-1316
冂二月犬	-1317
土皮	-1318
⿰⿱⿵	-1319
𠂉大口日	-1320
一䖻	-1321
一䖻卩	-1322
日皿	-1323
土儿土丸力	-1324
木才	-1325
罂一	-1326
▁x	-1327
ow	-1328
弗贝	-1329
木木示	-1330
▁2000	-1331
耳又乑	-1332
阝东	-1333
▁an	-1334
⿳⿻	-1335
冖又	-1336
コ一冖又	-1337
亻又	-1338
一丰	-1339
口口口	-1340
子小	-1341
▁>	-1342
辶巛	-1343
人人一	-1344
月月	-1345
𠂉疋	-1346
▁50	-1347
⿱⿻⿻	-1348
id	-1349
▁巨	-1350
木及	-1351
几丶木	-1352
ig	-1353
▁<	-1354
▁190	-1355
八大	-1356
冂八大	-1357
雨隹	-1358
白小彡	-1359
山夕	-1360
丷酉寸	-1361
丨又	-1362
臼丨又	-1363
土土兀	-1364
冫水	-1365
冂二月犬土	-1366
口止艮	-1367
屯页	-1368
夫丷	-1369
木木疋	-1370
▁2019	-1371
蟽心	-1372
广車	-1373
ut	-1374
𠃋丿人刂	-1375
朿刂	-1376
又隹	-1377
ad	-1378
口及	-1379
辶禺	-1380
目艮	-1381
葭寸	-1382
爫罒	-1383
日大巾	-1384
干刂	-1385
𠂊厂㔾	-1386
𠁣𠃛耳	-1387
亻木	-1388
雨彐	-1389
扌戈	-1390
冖几	-1391
王缶	-1392
▁ch	-1393
禾厶	-1394
宀于	-1395
石角	-1396
禾火	-1397
木斤	-1398
冂口攵	-1399
▁2004	-1400
▁of	-1401
不口	-1402
丶尸	-1403
辶兆	-1404
os	-1405
十廾	-1406
龶母	-1407
犭㔾	-1408
▁40	-1409
田糸	-1410
宀且	-1411
▁耳	-1412
耂匕日	-1413
耳耳	-1414
▁斗	-1415
戈廾	-1416
口隹	-1417
▁⿰⿱⿺	-1418
幺幺斤	-1419
扌甫	-1420
弋丿	-1421
乛工	-1422
乛工一	-1423
士乛工一	-1424
▁y	-1425
山石	-1426
艹两	-1427
丬犬	-1428
丰寸	-1429
木木鬼	-1430
幺芉田	-1431
𠂒口非	-1432
▁000	-1433
木隹	-1434
夕㔾	-1435
𩰋𩰊	-1436
艹重	-1437
車㔾	-1438
缶夬	-1439
罒俩	-1440
宀八牙	-1441
钅艮	-1442
幺芉柬	-1443
▁'	-1444
罒俩𧘇	-1445
亠斌弓	-1446
山隹	-1447
▁乎	-1448
广大	-1449
中心	-1450
艹隹	-1451
艹隹臼	-1452
▁|	-1453
▁u	-1454
讠上	-1455
▁br	-1456
止月	-1457
厶又	-1458
爫龴	-1459
▁申	-1460
大丶心	-1461
戈十车	-1462
子皿	-1463
辶白	-1464
彑𧰨	-1465
十豆寸	-1466
辶米	-1467
𠃌冫	-1468
又又木	-1469
臣又	-1470
勹臼	-1471
om	-1472
女生	-1473
䒑夫	-1474
iv	-1475
口乎	-1476
丷酉大	-1477
阝車	-1478
刀巴	-1479
木白	-1480
ot	-1481
冂大	-1482
𠂊冂大	-1483
土丶	-1484
爫缶	-1485
大隹	-1486
▁2003	-1487
子乚	-1488
氵气	-1489
火乍	-1490
ir	-1491
摸一	-1492
⺊尸	-1493
▁=	-1494
比十	-1495
日十韦	-1496
禾女鬼	-1497
ia	-1498
夕㐄木	-1499
止𣥂頁	-1500
囗㐅	-1501
丿囗㐅	-1502
勹日	-1503
氵甫	-1504
一丨虫	-1505
▁⿰⿳⿱	-1506
𠂤止	-1507
⿰⿵	-1508
▁厂	-1509
女又力	-1510
月生	-1511
车斤	-1512
土厶卩	-1513
黑犬	-1514
im	-1515
厂㔾	-1516
川頁	-1517
𡗗禾	-1518
▁甘	-1519
丷夫氺	-1520
丰丰豆	-1521
纟田	-1522
50	-1523
火火冖木	-1524
▁2002	-1525
ec	-1526
土攵	-1527
丿土攵	-1528
户隹	-1529
囗㐅籝	-1530
贝攵	-1531
宀玉	-1532
日大土	-1533
20	-1534
▁⿰⿺	-1535
习习隹	-1536
𠃊米斤	-1537
亡口	-1538
亠口冖豕	-1539
大镸	-1540
亠𧘇	-1541
予页	-1542
⿷⿱	-1543
木灬	-1544
㡀攵	-1545
户口攵	-1546
戈十衣	-1547
亻戈	-1548
隹灬	-1549
▁肉	-1550
黑土	-1551
亠口冖毛	-1552
丨丿彐	-1553
木𠃓	-1554
扌乚	-1555
厂丁	-1556
止𣥂页	-1557
氵九	-1558
氵九木	-1559
人人木隹	-1560
▁井	-1561
十目	-1562
口丩	-1563
阝且	-1564
田月	-1565
一锊	-1566
一锊厂	-1567
扌疌	-1568
大隹寸	-1569
山豆	-1570
王朱	-1571
扌斤口	-1572
▁al	-1573
ag	-1574
▁189	-1575
心皿	-1576
心皿丁	-1577
凵丨月	-1578
彡页	-1579
门耳	-1580
亠口冖几	-1581
勹甫	-1582
氵也	-1583
几丶心	-1584
▁60	-1585
ation	-1586
um	-1587
气羊	-1588
土厶皿	-1589
爫木彡	-1590
em	-1591
亻五	-1592
亻山	-1593
言川	-1594
口未	-1595
火火冖力	-1596
𠂊田一羊	-1597
亠口子阝	-1598
爫工	-1599
爫工彐心	-1600
丷酉大阝	-1601
戈十隹	-1602
▁]	-1603
艹冖力	-1604
幺芉丑	-1605
扌丸力	-1606
女未	-1607
一田	-1608
一田一	-1609
⺌冖口手	-1610
肀一灬	-1611
肀一灬皿	-1612
十豆彡	-1613
▁[	-1614
䒑土食	-1615
▁35	-1616
od	-1617
王王必	-1618
亻谷	-1619
丨日	-1620
石更	-1621
龶夂	-1622
幺力	-1623
大示	-1624
礻乚	-1625
丁頁	-1626
果页	-1627
亚日	-1628
田丁	-1629
不皿	-1630
禾且	-1631
山一糸	-1632
山一糸攵	-1633
▁00	-1634
𠂉母攵糸	-1635
目八才	-1636
衤甫	-1637
and	-1638
ay	-1639
囗木	-1640
▁⿺⿵	-1641
▁32	-1642
山豆几	-1643
𠂊田灬羊	-1644
〢又	-1645
▁乙	-1646
▁1999	-1647
䒑土皿	-1648
覀大	-1649
覀大巳	-1650
尸示	-1651
尸示寸	-1652
言寸	-1653
亠口了	-1654
ap	-1655
疋虫	-1656
▁1990	-1657
辶千	-1658
九朩	-1659
耂子	-1660
▁+	-1661
二丨力	-1662
川页	-1663
扌巨	-1664
▁han	-1665
中一㠯	-1666
▁80	-1667
▁36	-1668
𠄎丿	-1669
丿巾	-1670
歹刂衣	-1671
尺⺀	-1672
▁?	-1673
丰刀	-1674
幺芉糸	-1675
木示隶	-1676
▁1998	-1677
串心	-1678
囗禾	-1679
言方	-1680
亻乙	-1681
⿱⿰⿱	-1682
爿士	-1683
车九	-1684
山己	-1685
車欠	-1686
一日	-1687
厶厶一日	-1688
ter	-1689
巳廾	-1690
▁45	-1691
彐火	-1692
歺又	-1693
▁韦	-1694
𠂉力	-1695
亻禺	-1696
▁33	-1697
丁页	-1698
日土	-1699
乚丿贝	-1700
▁⿱⿰⿳	-1701
土丷	-1702
㇇⿱	-1703
op	-1704
口口隹欠	-1705
▁and	-1706
日干	-1707
⿴⿰	-1708
▁de	-1709
▁la	-1710
彳皮	-1711
ul	-1712
纟丑	-1713
oc	-1714
冫中	-1715
▁1997	-1716
▁188	-1717
牛攵	-1718
▁70	-1719
夕㐄阝	-1720
乛水	-1721
乛水一	-1722
土甫	-1723
贝才	-1724
艹罒	-1725
▁丘	-1726
三丨	-1727
og	-1728
𠂉一罒	-1729
厶儿	-1730
ce	-1731
扌广	-1732
冖木	-1733
纟东	-1734
弓土	-1735
彳重	-1736
立十土	-1737
宀申	-1738
土龰㐅	-1739
亠口子丸	-1740
言果	-1741
▁1980	-1742
▁90	-1743
歹匕廾	-1744
車九	-1745
木兆	-1746
巳灬	-1747
𦣞巳灬	-1748
𠂊田大	-1749
氵干	-1750
10	-1751
亻子	-1752
歹朱	-1753
氵冘	-1754
扌斥	-1755
▁34	-1756
言丁	-1757
木不	-1758
艹人	-1759
艹人朩	-1760
镸彡	-1761
山己几	-1762
▁38	-1763
讠井	-1764
⿳⿳	-1765
av	-1766
厶又乚	-1767
言斥	-1768
口月	-1769
夂口頁	-1770
一丨犬	-1771
ers	-1772
土龰卜	-1773
冂二目	-1774
止匕糸	-1775
ie	-1776
幺𠃌	-1777
歺又食	-1778
工贝	-1779
口巴	-1780
▁187	-1781
日子	-1782
艹见	-1783
户隹頁	-1784
𠘧又皿	-1785
▁1996	-1786
臣又土	-1787
19	-1788
▁re	-1789
扌兆	-1790
目儿丶	-1791
十冖子	-1792
幺幺心	-1793
一㚱一心	-1794
钅中	-1795
▁500	-1796
礻羊	-1797
ub	-1798
车欠	-1799
立月䦯衣	-1800
阝车	-1801
▁ar	-1802
戊一火	-1803
爫臼	-1804
▁37	-1805
▁186	-1806
臼籝	-1807
▁1994	-1808
㡀攵巾	-1809
丿厶	-1810
女且	-1811
讠方	-1812
又丶	-1813
▁1995	-1814
工口寸	-1815
th	-1816
虫虫	-1817
丷干犬	-1818
ip	-1819
白小頁	-1820
止匕木	-1821
䒑山刂	-1822
亻犬	-1823
亠口子丸灬	-1824
讠川	-1825
广由	-1826
小大	-1827
衤卜	-1828
木攵	-1829
丶丶	-1830
丶丶丶	-1831
口止兆	-1832
木卯	-1833
▁』	-1834
▁『	-1835
辶了	-1836
▁〉	-1837
▁〈	-1838
㧖匕口	-1839
艹罒冖	-1840
㧖匕口灬	-1841
夂口页	-1842
30	-1843
亻申	-1844
ard	-1845
▁1993	-1846
▁1992	-1847
罒心	-1848
宀丰罒心	-1849
大电	-1850
▁com	-1851
𠃌丿	-1852
一大阝	-1853
千口攵	-1854
▁瓜	-1855
ov	-1856
钅戋	-1857
土口隹	-1858
ak	-1859
车两	-1860
ab	-1861
▁tw	-1862
▁th	-1863
48	-1864
ind	-1865
▁un	-1866
▁1991	-1867
40	-1868
▁39	-1869
日大㣺	-1870
田一口	-1871
口龶力	-1872
臼工	-1873
龙衣	-1874
八刀頁	-1875
艹罒冖夕	-1876
𠂒儿贝	-1877
氵白	-1878
▁sh	-1879
車甫	-1880
▁1950	-1881
革月	-1882
ct	-1883
大寸	-1884
米立	-1885
丨丨一	-1886
千口乚	-1887
丰阝巾	-1888
土欠	-1889
一閗	-1890
一閗一	-1891
丿田	-1892
儿厶	-1893
冖儿干	-1894
▁48	-1895
est	-1896
匕匕灬	-1897
qu	-1898
▁42	-1899
田田	-1900
ik	-1901
▁1970	-1902
▁1949	-1903
ud	-1904
氵匚	-1905
▁55	-1906
ra	-1907
▁to	-1908
王白	-1909
日王	-1910
▁46	-1911
牛也	-1912
凵乚	-1913
凵丨欠	-1914
▁sp	-1915
▁隶	-1916
金十	-1917
冖见	-1918
艹方	-1919
廿木	-1920
十冖子力	-1921
忄不	-1922
ist	-1923
人人刂	-1924
弓厶	-1925
人干	-1926
ang	-1927
▁1988	-1928
ine	-1929
勹口攵手	-1930
艹之	-1931
臣又糸	-1932
广发	-1933
▁1989	-1934
臼土	-1935
木木幺	-1936
扌石	-1937
▁75	-1938
▁hk	-1939
木彡	-1940
爫子乚	-1941
土夬	-1942
▁le	-1943
亻中	-1944
ill	-1945
▁hans	-1946
▁300	-1947
▁1945	-1948
▁sa	-1949
▁mar	-1950
峴灬史	-1951
千臼	-1952
𠂊蛖丶	-1953
▁47	-1954
▁1960	-1955
丰刀大	-1956
𠂉丶见	-1957
▁on	-1958
▁43	-1959
▁col	-1960
丰丰彐心	-1961
車斤日	-1962
王文	-1963
讠寸	-1964
矛木	-1965
廿灬	-1966
石广	-1967
旡旡	-1968
旡旡日	-1969
▁pro	-1970
if	-1971
土川	-1972
▁te	-1973
▁豆	-1974
凵丨月土	-1975
▁41	-1976
▁⿳⿳	-1977
竹聿	-1978
▁is	-1979
勹田	-1980
▁65	-1981
〢又土	-1982
禾禾日	-1983
▁tr	-1984
𠂎葭卩	-1985
一火	-1986
80	-1987
ess	-1988
▁1985	-1989
▁44	-1990
ob	-1991
谷欠	-1992
王皮	-1993
又欠	-1994
糸言糸心	-1995
疒了	-1996
讠斥	-1997
⺊贝	-1998
戈𠂇	-1999
王文王	-2000
▁52	-2001
▁1986	-2002
斤欠	-2003
▁49	-2004
舟皿	-2005
冖牛	-2006
60	-2007
▁64	-2008
氵永	-2009
na	-2010
ba	-2011
bo	-2012
土方	-2013
口斤	-2014
果頁	-2015
衤由	-2016
▁1987	-2017
宀由	-2018
人丶龴阝	-2019
▁1984	-2020
阝月	-2021
扌𠃓	-2022
up	-2023
工丂	-2024
白小心	-2025
口一𧘇	-2026
女己	-2027
冂㐅刂	-2028
11	-2029
▁ne	-2030
▁185	-2031
千口予	-2032
厂㔾页	-2033
ok	-2034
土鬼	-2035
▁⿱⿴⿱	-2036
ows	-2037
亠父阝	-2038
土不	-2039
亻方	-2040
车由	-2041
ell	-2042
块刀贝	-2043
艹戊	-2044
丿丨刂	-2045
〢又糸	-2046
丘山	-2047
ice	-2048
und	-2049
▁⿻⿱	-2050
口口丨	-2051
钅十	-2052
日十彡	-2053
▁1982	-2054
犭言	-2055
厂里	-2056
犭言犬	-2057
土卜	-2058
土卜皿	-2059
12	-2060
▁1983	-2061
▁62	-2062
𠁣𠃛才	-2063
▁am	-2064
㧖匕刂	-2065
讠丁	-2066
▁56	-2067
广木	-2068
忄隹	-2069
▁53	-2070
一八言	-2071
all	-2072
▁as	-2073
丷夫刀	-2074
te	-2075
▁58	-2076
匕頁	-2077
▁wind	-2078
ian	-2079
▁ap	-2080
▁hd	-2081
大弓	-2082
丷夫手	-2083
幺芉氏	-2084
70	-2085
业䒑夫	-2086
▁or	-2087
熭一	-2088
熭熭一	-2089
㪭丿言	-2090
衤谷	-2091
▁yo	-2092
厂彡頁	-2093
虍业	-2094
犭火	-2095
ive	-2096
讠果	-2097
幺芉屯	-2098
▁54	-2099
氵𠃓	-2100
覀土	-2101
彳氵	-2102
月巴	-2103
犭王	-2104
io	-2105
▁丈	-2106
几又	-2107
宀丰口刂	-2108
毌贝	-2109
女又心	-2110
屯阝	-2111
▁con	-2112
ack	-2113
▁1979	-2114
巛火	-2115
▁be	-2116
▁51	-2117
亚心	-2118
井一八木	-2119
ver	-2120
▁150	-2121
彐寸	-2122
⿶⿳⿰	-2123
▁⿻⿵	-2124
▁虫	-2125
扌由	-2126
▁册	-2127
▁at	-2128
▁1978	-2129
女彐	-2130
▁windows	-2131
▁400	-2132
由丂	-2133
▁卜	-2134
白儿	-2135
釆心	-2136
▁57	-2137
王册	-2138
ph	-2139
田一口犬	-2140
由阝	-2141
▁go	-2142
辶万	-2143
▁ma	-2144
▁⿰⿱⿱⿱⿰	-2145
口口田一口犬	-2146
igh	-2147
𠂊田灬里	-2148
子瓜	-2149
巛果	-2150
art	-2151
人一朩斗	-2152
▁180	-2153
门才	-2154
口内	-2155
目八女	-2156
▁72	-2157
虍心	-2158
ge	-2159
一厶廾	-2160
▁76	-2161
戈十木	-2162
▁59	-2163
▁ii	-2164
▁1981	-2165
耒毛	-2166
几木	-2167
▁se	-2168
月贝	-2169
▁en	-2170
勹米	-2171
卩丶	-2172
𠂎丶	-2173
米且	-2174
土土卜	-2175
爫女	-2176
ity	-2177
▁63	-2178
ert	-2179
▁⿰⿱⿻	-2180
纟氏	-2181
▁肃	-2182
sp	-2183
ant	-2184
oh	-2185
▁1946	-2186
▁73	-2187
一刂	-2188
丿𠃌攵	-2189
▁85	-2190
月永	-2191
氵皮女	-2192
▁68	-2193
▁66	-2194
▁1958	-2195
ib	-2196
▁⿰⿸⿸	-2197
21	-2198
ich	-2199
▁99	-2200
▁fr	-2201
竹毛	-2202
井一八⺀	-2203
𠂉大巨	-2204
束刂	-2205
▁95	-2206
𠃊人欠	-2207
▁74	-2208
人一朩又	-2209
扌以	-2210
习习立	-2211
匚王	-2212
宀火	-2213
二厶鬼	-2214
bs	-2215
丶丶丶皿	-2216
非一	-2217
口口山	-2218
▁184	-2219
尸巾	-2220
尸巾刂	-2221
艹肅	-2222
车甫	-2223
扌夫	-2224
▁1920	-2225
幺芉文	-2226
▁pr	-2227
日女	-2228
丷八月	-2229
▁61	-2230
口土	-2231
土隹	-2232
歹戋	-2233
一大㣺	-2234
▁sc	-2235
▁69	-2236
木木石	-2237
▁ad	-2238
ong	-2239
▁1930	-2240
▁88	-2241
▁ex	-2242
▁1948	-2243
▁1940	-2244
冖且	-2245
亠幺田	-2246
lay	-2247
▁1975	-2248
扌甲	-2249
▁bo	-2250
▁q	-2251
丶葭欠	-2252
匕页	-2253
又阝	-2254
▁寸	-2255
⿱⿱⿰	-2256
▁ph	-2257
▁67	-2258
女兆	-2259
▁1937	-2260
辶隶	-2261
垂阝	-2262
礻巳	-2263
氵王	-2264
𠃜目	-2265
▁⿰⿸⿱⿱	-2266
女𦣞	-2267
峴灬心	-2268
▁78	-2269
▁120	-2270
車由	-2271
▁77	-2272
一史	-2273
犭讠	-2274
犭讠犬	-2275
▁1956	-2276
15	-2277
癶豆阝	-2278
ate	-2279
ug	-2280
虫朱	-2281
▁兆	-2282
小隹	-2283
艹亡	-2284
𠂊丶	-2285
𠂤十	-2286
▁1947	-2287
𠂊彐	-2288
乛水一灬	-2289
ry	-2290
亻九	-2291
言羊	-2292
25	-2293
▁1941	-2294
▁183	-2295
uc	-2296
⺊又	-2297
ey	-2298
覀贝	-2299
16	-2300
▁1000	-2301
朿朿	-2302
▁1976	-2303
亻寸肉	-2304
bc	-2305
▁179	-2306
ort	-2307
▁98	-2308
丷八牛	-2309
木乚	-2310
▁⿰⿴	-2311
车斤日	-2312
▁1973	-2313
厂万	-2314
角虫	-2315
土厶力	-2316
纟屯	-2317
▁1972	-2318
丿二丨刂	-2319
氵欠	-2320
18	-2321
17	-2322
亠丷厂彡页	-2323
▁97	-2324
▁1966	-2325
▁1955	-2326
▁1952	-2327
彳钅	-2328
口贝力	-2329
▁cn	-2330
艹肃	-2331
▁79	-2332
▁96	-2333
月刂心	-2334
車車	-2335
木木夕	-2336
竹龙	-2337
▁so	-2338
13	-2339
▁犬	-2340
八刀页	-2341
丿丿心	-2342
ix	-2343
人一朩攵	-2344
ly	-2345
ord	-2346
▁600	-2347
ect	-2348
肀月	-2349
止匕角	-2350
▁1974	-2351
釆丂	-2352
丿囗釆丂	-2353
⿹⿻⿱	-2354
大冖牛	-2355
彳金	-2356
▁1977	-2357
▁1968	-2358
非心	-2359
▁86	-2360
忄亡	-2361
ft	-2362
⿹⿱	-2363
乛亅丿	-2364
ens	-2365
女乃	-2366
▁1954	-2367
▁頁	-2368
14	-2369
▁ac	-2370
▁1938	-2371
▁1964	-2372
▁1965	-2373
▁1939	-2374
▁83	-2375
23	-2376
▁87	-2377
火丁	-2378
月几	-2379
ast	-2380
▁1944	-2381
亻韦	-2382
田田土	-2383
▁89	-2384
▁800	-2385
▁1971	-2386
木朱	-2387
氵欠皿	-2388
▁1959	-2389
十廾贝	-2390
ace	-2391
田比	-2392
ign	-2393
▁jr	-2394
八口𧘇	-2395
▁84	-2396
牙阝	-2397
▁93	-2398
24	-2399
亠里	-2400
亠里𧘇	-2401
㪭灬	-2402
▁1969	-2403
亻弋衣	-2404
man	-2405
覀木	-2406
▁1957	-2407
▁cd	-2408
口欠	-2409
王白石	-2410
忄白	-2411
讠内	-2412
一中	-2413
一中冖	-2414
▁1942	-2415
ah	-2416
ue	-2417
▁me	-2418
▁1967	-2419
⿱⿵	-2420
ain	-2421
十月	-2422
十月丶	-2423
22	-2424
▁1953	-2425
ff	-2426
又丶虫	-2427
one	-2428
▁nba	-2429
end	-2430
石页	-2431
艹禺力	-2432
亻丨攵	-2433
▁⿳⿻	-2434
冫欠口	-2435
口屯	-2436
▁⿻⿻	-2437
コ一丿	-2438
非文	-2439
月刂刀	-2440
乃子	-2441
氵丁	-2442
▁cent	-2443
宀禺	-2444
䒑土女	-2445
▁1961	-2446
一丂阝	-2447
八刀皿	-2448
▁gr	-2449
▁1935	-2450
木卜	-2451
扌爪	-2452
氵中	-2453
九丶	-2454
言刂	-2455
龷八㣺	-2456
▁it	-2457
▁1962	-2458
▁1963	-2459
虫工	-2460
▁05	-2461
▁1943	-2462
▁we	-2463
▁1936	-2464
㐅乂木	-2465
▁丑	-2466
予象	-2467
ore	-2468
㐅乂木大	-2469
土里	-2470
▁op	-2471
ss	-2472
士冖	-2473
▁ed	-2474
立𧰨	-2475
立十幆	-2476
▁he	-2477
⿰⿰	-2478
▁1951	-2479
鬼斗	-2480
▁160	-2481
ust	-2482
石頁	-2483
亻火	-2484
止匕隹	-2485
辶韦	-2486
氵女	-2487
ith	-2488
力力月	-2489
艹矛	-2490
ight	-2491
扌口	-2492
立十言	-2493
▁sm	-2494
ne	-2495
28	-2496
▁mo	-2497
日大力	-2498
26	-2499
目隹	-2500
▁94	-2501
刀牛虫	-2502
一大口	-2503
ps	-2504
▁178	-2505
宀八乙	-2506
29	-2507
▁tv	-2508
ma	-2509
金重	-2510
扌皮	-2511
▁wh	-2512
耒井	-2513
丰刀糸	-2514
iz	-2515
木西	-2516
艹本	-2517
门王	-2518
▁id	-2519
纟文	-2520
▁1933	-2521
ire	-2522
ies	-2523
匚儿力	-2524
27	-2525
ux	-2526
⺌月刂	-2527
▁ro	-2528
▁1927	-2529
宀必虫	-2530
int	-2531
▁2020	-2532
亻士	-2533
而寸	-2534
一廾瓦	-2535
幺大隹	-2536
pe	-2537
亡心	-2538
ock	-2539
sh	-2540
土贝	-2541
▁舟	-2542
▁1928	-2543
▁06	-2544
丬士	-2545
讠羊	-2546
䒑土灬	-2547
▁cl	-2548
巨木	-2549
氵巨木	-2550
斤丶	-2551
櫵一史	-2552
水日	-2553
▁1931	-2554
ond	-2555
〢又贝	-2556
▁09	-2557
丘阝	-2558
▁1932	-2559
▁car	-2560
户攵	-2561
▁sch	-2562
▁cod	-2563
𠁣𠃛王	-2564
▁页	-2565
钅甫	-2566
▁1934	-2567
口非	-2568
尸水	-2569
▁bl	-2570
▁play	-2571
ber	-2572
▁sy	-2573
▁dv	-2574
ick	-2575
ure	-2576
宀八乍	-2577
且厶心	-2578
ii	-2579
▁hant	-2580
▁inter	-2581
⺌贝	-2582
刀口阝	-2583
▁gam	-2584
tt	-2585
unt	-2586
90	-2587
ern	-2588
目目隹	-2589
千口甘	-2590
亠丷厂彡	-2591
ial	-2592
▁07	-2593
禾刂木	-2594
▁1929	-2595
▁110	-2596
▁08	-2597
丿糸心	-2598
▁177	-2599
亠田	-2600
▁⿱⿰⿱⿴	-2601
ai	-2602
厂万力	-2603
乃又	-2604
乃又皿	-2605
尸雨	-2606
▁⿸⿱⿱	-2607
son	-2608
ment	-2609
目垂	-2610
亠斌心	-2611
se	-2612
コ一人	-2613
▁par	-2614
▁ge	-2615
⺌冖口贝	-2616
▁cr	-2617
▁700	-2618
mm	-2619
𠂉丶金	-2620
▁mac	-2621
氵户	-2622
▁joh	-2623
钅欠	-2624
𠁣𠃛虫	-2625
士冖豆	-2626
一䖻卩示	-2627
ung	-2628
扌斤言	-2629
▁弓	-2630
35	-2631
▁qu	-2632
▁1912	-2633
木干	-2634
▁ng	-2635
冫欠瓦	-2636
金欠	-2637
▁lin	-2638
讠刂	-2639
丿木	-2640
力口贝	-2641
▁el	-2642
ina	-2643
𠂤巾	-2644
▁man	-2645
ier	-2646
ath	-2647
45	-2648
▁my	-2649
乀丿口	-2650
▁new	-2651
▁ak	-2652
丨丿巾	-2653
王廾	-2654
亻丨攵心	-2655
▁⿱⿰⿰	-2656
▁us	-2657
▁130	-2658
▁hr	-2659
冫欠女	-2660
忄乙	-2661
贝贝	-2662
不一	-2663
▁140	-2664
co	-2665
ory	-2666
▁爪	-2667
▁dvd	-2668
耳又女	-2669
立十月	-2670
yle	-2671
▁1925	-2672
自犬	-2673
尸示寸心	-2674
az	-2675
▁柬	-2676
▁1924	-2677
▁71	-2678
▁dr	-2679
▁1919	-2680
▁wor	-2681
xt	-2682
饣欠	-2683
▁1918	-2684
ogle	-2685
𠘧又糸	-2686
▁04	-2687
匚一	-2688
▁158	-2689
牛生	-2690
cl	-2691
匕禾	-2692
口尺	-2693
忄艮	-2694
▁google	-2695
月干	-2696
▁mv	-2697
▁ip	-2698
▁1926	-2699
▁82	-2700
so	-2701
⿻⿱	-2702
口巾	-2703
▁av	-2704
月力	-2705
▁03	-2706
▁81	-2707
▁ho	-2708
户月	-2709
月非	-2710
厂彡	-2711
▁250	-2712
▁170	-2713
扌丑	-2714
小丿力	-2715
ont	-2716
广比	-2717
亠口𧘇	-2718
▁1922	-2719
▁156	-2720
▁mus	-2721
礻斤	-2722
ld	-2723
氵文	-2724
▁1914	-2725
ide	-2726
iss	-2727
戊丶	-2728
▁center	-2729
丿士几	-2730
▁175	-2731
𠁣𠃛人	-2732
目大	-2733
竹目大	-2734
aw	-2735
ish	-2736
▁92	-2737
皮頁	-2738
▁157	-2739
人目	-2740
冂一八	-2741
▁⿸⿸⿸	-2742
贝贝女	-2743
1900	-2744
八刀贝	-2745
己心	-2746
▁sao	-2747
衤果	-2748
36	-2749
ube	-2750
立十讠	-2751
▁155	-2752
冫欠皿	-2753
▁1913	-2754
八厶𧘇	-2755
▁john	-2756
乍心	-2757
▁ag	-2758
▁comp	-2759
▁⿷⿱	-2760
▁ser	-2761
石专	-2762
▁1917	-2763
▁1923	-2764
爪巴	-2765
ational	-2766
丂戈	-2767
禾丂戈	-2768
au	-2769
口口隹力	-2770
丷田一口	-2771
户攵聿	-2772
ans	-2773
▁ist	-2774
▁back	-2775
▁165	-2776
ala	-2777
ep	-2778
▁01	-2779
▁codice	-2780
ton	-2781
▁1921	-2782
艹巴	-2783
▁176	-2784
艹夫	-2785
土龰干	-2786
▁style	-2787
气弗	-2788
木木火	-2789
age	-2790
一巛工力	-2791
甘欠	-2792
38	-2793
▁lov	-2794
木象	-2795
身弓	-2796
▁fo	-2797
▁1911	-2798
ary	-2799
乀丿寸	-2800
▁3000	-2801
mp	-2802
▁net	-2803
▁164	-2804
▁no	-2805
コ一斌欠	-2806
ach	-2807
▁105	-2808
km	-2809
lar	-2810
▁po	-2811
木東	-2812
▁91	-2813
round	-2814
▁欠	-2815
▁ab	-2816
▁dna	-2817
anc	-2818
亻为	-2819
▁168	-2820
隹乃	-2821
𠂇月阝	-2822
▁sup	-2823
辶尺	-2824
37	-2825
广龙	-2826
me	-2827
目民	-2828
span	-2829
ile	-2830
▁met	-2831
▁colspan	-2832
幺冖牛	-2833
34	-2834
▁166	-2835
▁⿱⿱⿲	-2836
ann	-2837
▁istat	-2838
▁1900	-2839
口口一	-2840
▁159	-2841
▁尸	-2842
𠂊田一禾	-2843
ank	-2844
▁1909	-2845
土申	-2846
㐅乂木大手	-2847
▁肅	-2848
ass	-2849
ite	-2850
▁sil	-2851
ime	-2852
亻為	-2853
门虫	-2854
氵戋	-2855
are	-2856
▁戊	-2857
▁lo	-2858
39	-2859
夕㔾心	-2860
ke	-2861
▁ste	-2862
▁pc	-2863
▁yout	-2864
ta	-2865
amp	-2866
父巴	-2867
iel	-2868
▁02	-2869
▁app	-2870
犭瓜	-2871
▁mic	-2872
ium	-2873
land	-2874
▁er	-2875
⿱⿻⿱	-2876
▁per	-2877
▁125	-2878
車干	-2879
𠘧又月	-2880
▁101	-2881
缶工	-2882
匚非	-2883
▁now	-2884
目夂	-2885
冂人目夂	-2886
ction	-2887
九日	-2888
一巛工頁	-2889
▁one	-2890
32	-2891
▁1910	-2892
▁all	-2893
▁align	-2894
▁106	-2895
ts	-2896
75	-2897
▁bar	-2898
非衣	-2899
口甫	-2900
ky	-2901
亡目	-2902
▁pl	-2903
𠁣𠃛甲	-2904
皮页	-2905
ck	-2906
人一口皿	-2907
匚斤	-2908
ground	-2909
艮土	-2910
tv	-2911
▁bd	-2912
止龰	-2913
ae	-2914
疒艮	-2915
又力	-2916
▁ngc	-2917
且一八頁	-2918
匚甲	-2919
▁sn	-2920
▁108	-2921
▁⿵⿱⿱	-2922
口口几	-2923
▁115	-2924
ence	-2925
厶牛	-2926
米丂	-2927
ica	-2928
▁ps	-2929
特一八欠	-2930
ivers	-2931
▁154	-2932
丿二丨小	-2933
▁145	-2934
ical	-2935
▁900	-2936
▁1905	-2937
old	-2938
人一朩土	-2939
31	-2940
▁1915	-2941
ance	-2942
𠁣𠃛月	-2943
▁1916	-2944
ere	-2945
ley	-2946
▁104	-2947
iki	-2948
▁do	-2949
station	-2950
亻弋黑	-2951
▁background	-2952
▁jo	-2953
丿囗米丂	-2954
▁pe	-2955
扌彐	-2956
▁gre	-2957
▁will	-2958
▁1901	-2959
mb	-2960
▁fre	-2961
cc	-2962
ase	-2963
▁os	-2964
女干	-2965
▁cp	-2966
▁cor	-2967
▁128	-2968
act	-2969
own	-2970
▁ep	-2971
爿一	-2972
片爿一	-2973
for	-2974
▁color	-2975
▁107	-2976
33	-2977
lat	-2978
▁playstation	-2979
▁135	-2980
氵谷	-2981
ool	-2982
▁fl	-2983
八丂	-2984
且一八页	-2985
ri	-2986
▁love	-2987
▁1500	-2988
▁gro	-2989
▁youtube	-2990
book	-2991
纟千	-2992
▁mod	-2993
立十束	-2994
▁5000	-2995
▁es	-2996
▁you	-2997
石几	-2998
▁廿	-2999
▁109	-3000
▁1903	-3001
ys	-3002
▁text	-3003
ome	-3004
土斌攵	-3005
竹由	-3006
大隹田	-3007
金甫	-3008
户犬	-3009
iam	-3010
▁gen	-3011
ash	-3012
▁min	-3013
we	-3014
▁149	-3015
ga	-3016
▁118	-3017
▁136	-3018
les	-3019
▁nh	-3020
▁ind	-3021
ms	-3022
use	-3023
▁intern	-3024
▁127	-3025
言隹	-3026
木木彡	-3027
▁pa	-3028
ram	-3029
uk	-3030
⺌冖口木	-3031
▁rob	-3032
ve	-3033
per	-3034
▁linux	-3035
丰丰彐	-3036
弓瓜	-3037
▁167	-3038
▁1906	-3039
▁1908	-3040
▁1907	-3041
宀八力	-3042
▁gu	-3043
▁live	-3044
口且	-3045
▁med	-3046
疋月	-3047
▁mat	-3048
冫欠心	-3049
▁ut	-3050
ml	-3051
▁mon	-3052
▁mag	-3053
▁ic	-3054
▁169	-3055
▁micro	-3056
46	-3057
口一心	-3058
立十瓜	-3059
火火冖虫	-3060
王攵	-3061
pr	-3062
▁360	-3063
一自戈	-3064
▁146	-3065
▁univers	-3066
王鬼	-3067
宀牛	-3068
▁148	-3069
⿰⿳⿱	-3070
土立	-3071
ho	-3072
木口	-3073
▁with	-3074
▁des	-3075
▁116	-3076
▁1904	-3077
纟韦	-3078
ale	-3079
▁int	-3080
氵十	-3081
门木	-3082
▁cla	-3083
▁禹	-3084
巛果刂	-3085
▁silver	-3086
▁by	-3087
ict	-3088
𠃋丿人力	-3089
▁em	-3090
镸聿	-3091
竹目大糸	-3092
ise	-3093
ult	-3094
ame	-3095
非車	-3096
rom	-3097
土及	-3098
女亚	-3099
der	-3100
ara	-3101
va	-3102
氏丶阝	-3103
▁dav	-3104
臣卜	-3105
▁138	-3106
eng	-3107
▁face	-3108
犬廾	-3109
艹犬廾	-3110
口电	-3111
氵必	-3112
冂卄頁	-3113
47	-3114
丨丨比土	-3115
49	-3116
幺幺田	-3117
▁137	-3118
丆且	-3119
enn	-3120
▁world	-3121
▁rec	-3122
艹牙	-3123
丿米	-3124
hel	-3125
▁super	-3126
▁ty	-3127
匕禾頁	-3128
ose	-3129
火户	-3130
丿米丨	-3131
▁129	-3132
▁har	-3133
pl	-3134
氵山	-3135
酉州	-3136
af	-3137
亠斌大	-3138
ins	-3139
冖果	-3140
火东	-3141
gb	-3142
耂日灬	-3143
彑冖果	-3144
urn	-3145
▁126	-3146
▁su	-3147
▁iii	-3148
ork	-3149
▁bro	-3150
▁char	-3151
▁139	-3152
ade	-3153
de	-3154
ower	-3155
▁ent	-3156
▁star	-3157
ony	-3158
▁chr	-3159
▁117	-3160
言永	-3161
士冖一	-3162
▁119	-3163
文而	-3164
宀臣	-3165
八厶頁	-3166
𠂊蛖力	-3167
42	-3168
▁fe	-3169
▁music	-3170
lex	-3171
木东	-3172
大田	-3173
氵世	-3174
▁350	-3175
▁mc	-3176
八丂皿	-3177
尢力	-3178
艹心	-3179
dr	-3180
▁can	-3181
yn	-3182
门甲	-3183
▁pet	-3184
▁count	-3185
亻丈	-3186
覀米	-3187
▁res	-3188
▁air	-3189
▁147	-3190
▁bla	-3191
▁htt	-3192
▁km	-3193
tr	-3194
▁gl	-3195
▁akb	-3196
▁⿰⿱⿳	-3197
▁school	-3198
uth	-3199
stem	-3200
ward	-3201
人一口頁	-3202
▁her	-3203
olog	-3204
▁ms	-3205
▁1898	-3206
ee	-3207
itt	-3208
▁ib	-3209
丘丿	-3210
▁1895	-3211
ana	-3212
ster	-3213
里予土	-3214
▁stud	-3215
⿱⿵⿵	-3216
ata	-3217
▁1902	-3218
口止戋	-3219
丷豕土	-3220
火柬	-3221
门人	-3222
扌发	-3223
▁sw	-3224
da	-3225
ics	-3226
禾隹	-3227
86	-3228
box	-3229
ca	-3230
果𧘇	-3231
亠果𧘇	-3232
oth	-3233
▁web	-3234
羊乚	-3235
亻卜	-3236
▁⿺⿸	-3237
lo	-3238
▁facebook	-3239
▁up	-3240
▁ua	-3241
▁⿰⿻⿵	-3242
丨丨一刂	-3243
耳火	-3244
▁je	-3245
虍几彡	-3246
du	-3247
宀八缶	-3248
禾刂牛	-3249
犭里	-3250
米糸	-3251
耳卯	-3252
米糸廾	-3253
扌卜	-3254
ha	-3255
▁nor	-3256
41	-3257
中𧘇	-3258
亠中𧘇	-3259
鬼未	-3260
幺芉丩	-3261
▁str	-3262
月方	-3263
▁dis	-3264
月中	-3265
▁ir	-3266
丿丿丶	-3267
▁system	-3268
纟方	-3269
▁di	-3270
禺心	-3271
石欠	-3272
ink	-3273
▁part	-3274
月𠃓	-3275
soft	-3276
orn	-3277
▁ht	-3278
厶厶土	-3279
ler	-3280
牛土	-3281
甫方攵	-3282
▁af	-3283
mer	-3284
钅内	-3285
▁ass	-3286
月豕	-3287
口止止	-3288
▁dc	-3289
凵㐅儿	-3290
▁pol	-3291
br	-3292
ls	-3293
千口甫	-3294
ual	-3295
be	-3296
艹户	-3297
一白弓	-3298
43	-3299
丿土攵心	-3300
ike	-3301
▁sur	-3302
巛田	-3303
▁che	-3304
臣又月	-3305
㡀攵廾	-3306
丶葭虫	-3307
艹西	-3308
ode	-3309
虍力	-3310
dp	-3311
asa	-3312
▁4000	-3313
▁jav	-3314
冫東	-3315
歺又米	-3316
匚巾	-3317
ille	-3318
ude	-3319
▁ver	-3320
▁red	-3321
▁ev	-3322
▁bbc	-3323
▁102	-3324
▁high	-3325
▁1890	-3326
犭且	-3327
oci	-3328
▁jam	-3329
ugh	-3330
册刂	-3331
▁ref	-3332
歹千	-3333
roid	-3334
立口刂	-3335
att	-3336
ius	-3337
▁gn	-3338
▁103	-3339
uch	-3340
ane	-3341
icon	-3342
▁220	-3343
口里	-3344
月重	-3345
ald	-3346
女我	-3347
ax	-3348
▁mark	-3349
hz	-3350
sc	-3351
ited	-3352
ood	-3353
▁pre	-3354
▁inst	-3355
豸艮土	-3356
▁1896	-3357
▁et	-3358
口木𧘇	-3359
▁li	-3360
pt	-3361
氵文刂	-3362
▁gir	-3363
cm	-3364
▁del	-3365
▁ra	-3366
▁not	-3367
sa	-3368
100	-3369
木丈	-3370
▁nowiki	-3371
丘丶	-3372
▁off	-3373
臣人	-3374
礻氏	-3375
口于	-3376
䬎彐一八車	-3377
ner	-3378
▁hy	-3379
亻弋贝	-3380
▁im	-3381
▁1200	-3382
士冖一禾	-3383
65	-3384
▁ele	-3385
▁william	-3386
▁1897	-3387
纟丩	-3388
申𠃓	-3389
▁microsoft	-3390
饣虫	-3391
日隹	-3392
ition	-3393
亠口了灬	-3394
覀土瓦	-3395
彐氺刂	-3396
广户	-3397
ien	-3398
ream	-3399
ave	-3400
44	-3401
月女	-3402
illa	-3403
▁1899	-3404
甘阝	-3405
ement	-3406
▁team	-3407
土斌阝	-3408
ject	-3409
亻弋山	-3410
▁iv	-3411
▁mr	-3412
ds	-3413
氵心	-3414
礻阝	-3415
𠂊田灬由	-3416
▁cont	-3417
𠂊冫寸水	-3418
幺芉申	-3419
▁android	-3420
▁tvb	-3421
▁div	-3422
▁art	-3423
▁are	-3424
幺月	-3425
幺月乚	-3426
𠂇火皿	-3427
阝龙	-3428
ake	-3429
▁ss	-3430
氵末	-3431
讠隹	-3432
疒皮	-3433
丶丶丶匕	-3434
▁val	-3435
gr	-3436
▁1889	-3437
⺌冖口牙	-3438
▁group	-3439
eth	-3440
ek	-3441
pm	-3442
▁colle	-3443
▁university	-3444
▁saint	-3445
▁war	-3446
▁ter	-3447
▁cy	-3448
▁game	-3449
王厶	-3450
未攵	-3451
▁⿸⿱⿰	-3452
▁巾	-3453
▁nhk	-3454
oph	-3455
舟白	-3456
oss	-3457
▁⿳⿲	-3458
𠂇口心	-3459
▁international	-3460
宀龙	-3461
▁240	-3462
氵斤	-3463
⿰⿱⿶	-3464
丶丶丶匕彡	-3465
able	-3466
丷夫目	-3467
ings	-3468
▁sec	-3469
木冖	-3470
木缶	-3471
木缶木冖	-3472
扌末	-3473
▁cap	-3474
一廾阝	-3475
氵夕	-3476
fl	-3477
木更	-3478
▁mm	-3479
ico	-3480
田皿頁	-3481
200	-3482
艹甘	-3483
iro	-3484
▁act	-3485
九力	-3486
心心	-3487
▁ke	-3488
▁sd	-3489
▁wal	-3490
▁show	-3491
月夫	-3492
ott	-3493
56	-3494
雨文	-3495
䬎彐一八车	-3496
pa	-3497
▁iso	-3498
▁450	-3499
▁111	-3500
ons	-3501
▁david	-3502
月土	-3503
urg	-3504
vel	-3505
ild	-3506
▁du	-3507
贝长	-3508
▁⿱⿻⿻	-3509
▁ec	-3510
金隹	-3511
▁da	-3512
ene	-3513
ino	-3514
work	-3515
丷十	-3516
火頁	-3517
竹立	-3518
门文	-3519
ero	-3520
rit	-3521
冂口月	-3522
▁⿰⿱⿰⿱	-3523
▁ig	-3524
▁1860	-3525
▁comm	-3526
yl	-3527
▁big	-3528
自木	-3529
𠂎卩	-3530
▁1880	-3531
▁bas	-3532
85	-3533
▁pla	-3534
⿰⿱⿰	-3535
▁1600	-3536
ka	-3537
99	-3538
▁112	-3539
▁1894	-3540
▁robert	-3541
66	-3542
▁230	-3543
山我	-3544
▁day	-3545
▁xbox	-3546
ス工页	-3547
ear	-3548
▁geor	-3549
▁ca	-3550
▁christ	-3551
ute	-3552
▁that	-3553
𠂊冫寸酉	-3554
八厶页	-3555
uro	-3556
匕禾页	-3557
▁tech	-3558
羊丑	-3559
▁210	-3560
cr	-3561
▁vi	-3562
𠂊小心	-3563
oo	-3564
ife	-3565
way	-3566
▁1800	-3567
门柬	-3568
▁pop	-3569
峴灬也	-3570
里儿土	-3571
95	-3572
▁mor	-3573
▁ce	-3574
▁open	-3575
虍文	-3576
sm	-3577
▁eng	-3578
▁cro	-3579
▁ta	-3580
ki	-3581
ena	-3582
▁lim	-3583
▁http	-3584
▁fin	-3585
立十玉	-3586
彑氺刂	-3587
甲一阝	-3588
▁ang	-3589
▁1870	-3590
▁paul	-3591
87	-3592
亠口子丸土	-3593
▁reg	-3594
▁280	-3595
ael	-3596
▁top	-3597
que	-3598
▁bu	-3599
▁fa	-3600
▁produ	-3601
ari	-3602
▁mk	-3603
▁mich	-3604
▁113	-3605
虫丰	-3606
𠘧又石	-3607
言乍	-3608
▁sim	-3609
▁fc	-3610
▁tom	-3611
▁national	-3612
▁county	-3613
木乚糸	-3614
▁from	-3615
巾长	-3616
牛西	-3617
▁max	-3618
▁sam	-3619
any	-3620
▁1871	-3621
丬夕水	-3622
ark	-3623
by	-3624
po	-3625
▁1885	-3626
亻朱	-3627
ese	-3628
▁sol	-3629
▁bre	-3630
〢又月	-3631
非车	-3632
糸言糸虫	-3633
▁pat	-3634
▁sk	-3635
▁don	-3636
石水	-3637
▁trans	-3638
月长	-3639
一止心	-3640
era	-3641
let	-3642
▁city	-3643
▁114	-3644
▁rich	-3645
▁⿰⿹⿶	-3646
▁time	-3647
▁kh	-3648
一龰匕	-3649
▁black	-3650
ett	-3651
酉鬼	-3652
▁6000	-3653
▁games	-3654
ism	-3655
▁rad	-3656
日十戈	-3657
阝人土	-3658
▁酉	-3659
ron	-3660
▁cc	-3661
za	-3662
55	-3663
▁out	-3664
▁sl	-3665
osh	-3666
fo	-3667
木矛木	-3668
lin	-3669
▁kn	-3670
弋心	-3671
▁260	-3672
iver	-3673
口比	-3674
大十	-3675
▁win	-3676
▁was	-3677
日立	-3678
未攵厂里	-3679
▁cal	-3680
𠂇工月土	-3681
冂人禸	-3682
▁amer	-3683
夂卜口	-3684
ya	-3685
幺芉方	-3686
ior	-3687
77	-3688
ng	-3689
▁122	-3690
oll	-3691
▁park	-3692
▁艮	-3693
▁cm	-3694
▁ios	-3695
▁dj	-3696
phone	-3697
厂犬	-3698
port	-3699
竹二	-3700
衤彡	-3701
爿女	-3702
▁type	-3703
enc	-3704
谷欠心	-3705
lic	-3706
▁vis	-3707
八刀山	-3708
▁mer	-3709
山甲	-3710
64	-3711
89	-3712
▁org	-3713
ric	-3714
▁mp	-3715
木果	-3716
艹斤	-3717
▁inc	-3718
▁power	-3719
▁ts	-3720
▁king	-3721
fc	-3722
钅隹	-3723
itter	-3724
▁sing	-3725
一儿	-3726
▁ww	-3727
▁rock	-3728
51	-3729
▁alex	-3730
扌予	-3731
▁james	-3732
父斤	-3733
▁ha	-3734
79	-3735
几丶革	-3736
▁1886	-3737
▁1892	-3738
▁utc	-3739
艹内	-3740
net	-3741
▁1884	-3742
▁123	-3743
ham	-3744
ital	-3745
▁alb	-3746
木冘	-3747
▁il	-3748
口米	-3749
木矛木心	-3750
亠斌虫	-3751
▁sal	-3752
ied	-3753
aph	-3754
戈十口	-3755
▁vo	-3756
ex	-3757
ven	-3758
▁lib	-3759
bl	-3760
女女	-3761
钅月	-3762
osa	-3763
▁bill	-3764
go	-3765
▁ber	-3766
饣几	-3767
fa	-3768
▁1888	-3769
ス工力	-3770
▁ur	-3771
▁fla	-3772
▁java	-3773
▁fir	-3774
▁jap	-3775
▁gt	-3776
▁oricon	-3777
▁class	-3778
宀八弓	-3779
▁only	-3780
▁cat	-3781
▁san	-3782
▁record	-3783
iff	-3784
▁sun	-3785
コ儿	-3786
躯白	-3787
躯白コ儿	-3788
▁1893	-3789
▁1887	-3790
pg	-3791
⿻⿵	-3792
工水	-3793
▁thom	-3794
礻也	-3795
▁ibm	-3796
▁bm	-3797
▁320	-3798
▁750	-3799
革巴	-3800
ology	-3801
丿丿皿	-3802
ield	-3803
豆寸	-3804
▁cre	-3805
▁michael	-3806
58	-3807
木隶	-3808
59	-3809
▁na	-3810
67	-3811
艹朱	-3812
▁cpu	-3813
▁kar	-3814
▁sar	-3815
ors	-3816
itch	-3817
las	-3818
▁vol	-3819
ertain	-3820
▁jun	-3821
▁rna	-3822
▁iphone	-3823
mun	-3824
▁1876	-3825
▁ol	-3826
ution	-3827
▁lt	-3828
▁121	-3829
竹目大厶	-3830
▁2500	-3831
▁best	-3832
▁cs	-3833
berg	-3834
虫我	-3835
app	-3836
▁1861	-3837
▁270	-3838
车干	-3839
57	-3840
▁1850	-3841
火巨	-3842
礻必	-3843
▁ba	-3844
一㚱一土	-3845
冫东	-3846
金金	-3847
rol	-3848
68	-3849
▁spec	-3850
▁ant	-3851
▁techn	-3852
▁wat	-3853
inc	-3854
止止	-3855
ull	-3856
eration	-3857
uck	-3858
▁stre	-3859
dy	-3860
▁bel	-3861
▁hot	-3862
▁124	-3863
▁550	-3864
▁nat	-3865
▁rom	-3866
▁ef	-3867
▁arm	-3868
辶豆	-3869
▁bet	-3870
▁mil	-3871
▁ds	-3872
十豆口灬	-3873
line	-3874
▁1868	-3875
父卩	-3876
又艮	-3877
▁1883	-3878
ral	-3879
▁gdp	-3880
▁ben	-3881
▁she	-3882
虍隹	-3883
▁dan	-3884
火火冖玉	-3885
▁sub	-3886
▁1891	-3887
▁boy	-3888
钅甲	-3889
ini	-3890
⿱⿰⿹	-3891
▁⿰⿰⿴	-3892
▁serv	-3893
氵弗	-3894
▁entertain	-3895
▁club	-3896
▁mart	-3897
▁dream	-3898
ily	-3899
53	-3900
▁japan	-3901
亡女	-3902
▁end	-3903
礻乍	-3904
金柬	-3905
ange	-3906
88	-3907
▁°	-3908
▁144	-3909
▁est	-3910
▁ga	-3911
▁bi	-3912
▁fil	-3913
▁lu	-3914
立月䦯土	-3915
▁133	-3916
▁entertainment	-3917
小土	-3918
fs	-3919
▁vir	-3920
▁650	-3921
攵灬	-3922
𠂊彐攵灬	-3923
▁arch	-3924
▁1862	-3925
凵丨阝	-3926
▁oh	-3927
▁fm	-3928
▁jack	-3929
▁media	-3930
▁巳	-3931
▁life	-3932
白七	-3933
▁sg	-3934
▁tre	-3935
女方	-3936
口夫艮	-3937
▁tour	-3938
言朱	-3939
ora	-3940
clude	-3941
耒禺	-3942
▁fire	-3943
ump	-3944
▁mi	-3945
▁1848	-3946
▁1867	-3947
▁1877	-3948
▁mont	-3949
97	-3950
▁van	-3951
石夕	-3952
ipt	-3953
96	-3954
▁twitter	-3955
▁1873	-3956
ada	-3957
𠁣𠃛文	-3958
金丑	-3959
form	-3960
▁ko	-3961
▁⿻⿹	-3962
xy	-3963
bi	-3964
▁1879	-3965
▁apple	-3966
cd	-3967
土文	-3968
erson	-3969
▁award	-3970
▁sky	-3971
ita	-3972
uss	-3973
木木毛	-3974
urt	-3975
𠁣𠃛木	-3976
▁hen	-3977
▁may	-3978
ano	-3979
▁tra	-3980
▁ul	-3981
罒方	-3982
▁1864	-3983
ks	-3984
che	-3985
▁mg	-3986
its	-3987
櫵一也	-3988
▁152	-3989
ision	-3990
▁1878	-3991
▁kr	-3992
▁rev	-3993
▁1865	-3994
▁ok	-3995
61	-3996
▁1875	-3997
▁dist	-3998
禾几	-3999
▁1882	-4000
▁dd	-4001
▁house	-4002
▁port	-4003
ula	-4004
女口心	-4005
▁tim	-4006
▁737	-4007
竹本	-4008
▁der	-4009
▁aut	-4010
▁乍	-4011
▁abc	-4012
▁1881	-4013
▁132	-4014
▁1840	-4015
火土	-4016
wn	-4017
▁hol	-4018
▁8000	-4019
led	-4020
ger	-4021
bn	-4022
52	-4023
人斗	-4024
min	-4025
臣又豆	-4026
▁unix	-4027
艹巨	-4028
yth	-4029
〢又立	-4030
ated	-4031
▁road	-4032
▁sport	-4033
𠂊田一里	-4034
98	-4035
urs	-4036
央皿	-4037
虫文	-4038
▁intel	-4039
▁dem	-4040
▁imp	-4041
▁project	-4042
oro	-4043
▁dire	-4044
▁this	-4045
▁phil	-4046
▁禺	-4047
▁1874	-4048
▁first	-4049
艹甫	-4050
丹彡	-4051
▁line	-4052
▁college	-4053
▁richard	-4054
氵立	-4055
阝禺	-4056
78	-4057
ze	-4058
㚱一	-4059
冖㚱一	-4060
▁associ	-4061
金丁	-4062
千口刂	-4063
▁good	-4064
▁pd	-4065
iew	-4066
▁mel	-4067
朿⺀	-4068
▁george	-4069
ij	-4070
▁ast	-4071
undam	-4072
𠂊彐阝	-4073
ection	-4074
宀丰口谷	-4075
▁330	-4076
火页	-4077
凵丨隹	-4078
𠂊田灬屯	-4079
▁adv	-4080
▁west	-4081
ific	-4082
▁fam	-4083
▁7000	-4084
言柬	-4085
▁mem	-4086
▁hall	-4087
54	-4088
氵木	-4089
丿廾土	-4090
▁hel	-4091
▁wii	-4092
▁sir	-4093
▁dec	-4094
▁1872	-4095
eral	-4096
▁bus	-4097
▁1863	-4098
por	-4099
ator	-4100
▁street	-4101
gin	-4102
比土	-4103
com	-4104
▁luc	-4105
ci	-4106
▁ve	-4107
㐅朩刂	-4108
▁gar	-4109
亻鬼	-4110
▁euro	-4111
▁www	-4112
69	-4113
▁pub	-4114
ama	-4115
日大日	-4116
▁les	-4117
𠂉一罒金	-4118
匚隹	-4119
ery	-4120
ates	-4121
求衣	-4122
▁mad	-4123
一攵	-4124
阝井	-4125
▁cv	-4126
▁rem	-4127
▁1400	-4128
▁sr	-4129
▁mtv	-4130
▁if	-4131
▁wil	-4132
▁mid	-4133
𠂉大隹	-4134
include	-4135
ations	-4136
▁cam	-4137
ular	-4138
▁⿰⿱⿱⿱	-4139
木巨	-4140
▁atp	-4141
扌乃	-4142
▁metac	-4143
口肃	-4144
wan	-4145
▁pal	-4146
rop	-4147
▁led	-4148
木木非	-4149
▁land	-4150
▁gp	-4151
▁si	-4152
ensis	-4153
月刂灬	-4154
▁unic	-4155
▁charles	-4156
一丂頁	-4157
讠柬	-4158
▁north	-4159
▁134	-4160
63	-4161
▁ann	-4162
▁free	-4163
▁131	-4164
氵且	-4165
▁1300	-4166
▁studio	-4167
扌丸土	-4168
ety	-4169
ris	-4170
▁1866	-4171
丶葭我	-4172
▁sum	-4173
▁1869	-4174
氵目	-4175
人彡戈	-4176
mo	-4177
山谷	-4178
ste	-4179
▁lang	-4180
▁205	-4181
ateg	-4182
▁wr	-4183
讠朱	-4184
▁env	-4185
ista	-4186
▁rh	-4187
ions	-4188
ville	-4189
▁html	-4190
▁ear	-4191
▁mob	-4192
62	-4193
ritic	-4194
li	-4195
▁ram	-4196
▁pi	-4197
▁over	-4198
木甘	-4199
press	-4200
ware	-4201
田八夂	-4202
隹十	-4203
▁gold	-4204
▁metacritic	-4205
石石	-4206
▁ju	-4207
▁china	-4208
艹于	-4209
王王比	-4210
龙土	-4211
丿丿丶心	-4212
ani	-4213
▁gundam	-4214
臼籝由	-4215
▁ever	-4216
▁kbs	-4217
氵发	-4218
to	-4219
▁log	-4220
▁208	-4221
ican	-4222
▁thomas	-4223
▁ka	-4224
cp	-4225
木鬼	-4226
ura	-4227
▁peter	-4228
▁direct	-4229
⿱⿻⿹	-4230
▁inf	-4231
ws	-4232
囗口禾	-4233
金内	-4234
▁ob	-4235
▁miss	-4236
▁141	-4237
王王巴	-4238
▁south	-4239
ker	-4240
扌止	-4241
▁ger	-4242
vin	-4243
丷干丸土	-4244
cess	-4245
▁sony	-4246
ny	-4247
▁jose	-4248
火言	-4249
unes	-4250
口龶阝	-4251
▁380	-4252
▁ray	-4253
itz	-4254
▁records	-4255
▁franc	-4256
▁mir	-4257
500	-4258
ford	-4259
mus	-4260
▁limited	-4261
▁grand	-4262
ason	-4263
▁1830	-4264
▁unicode	-4265
▁nt	-4266
火言火	-4267
▁sci	-4268
▁1700	-4269
72	-4270
ko	-4271
▁bab	-4272
▁pan	-4273
▁bs	-4274
丬夕酉	-4275
火言火又	-4276
▁冉	-4277
人示	-4278
示示	-4279
▁310	-4280
ally	-4281
▁ltd	-4282
▁153	-4283
幺芉肅	-4284
▁256	-4285
▁long	-4286
ander	-4287
▁dom	-4288
str	-4289
▁but	-4290
▁143	-4291
月工	-4292
uis	-4293
▁news	-4294
▁office	-4295
▁tem	-4296
▁mov	-4297
▁company	-4298
wa	-4299
76	-4300
丬女	-4301
艹鬼	-4302
▁1853	-4303
▁wid	-4304
73	-4305
言内	-4306
▁sbs	-4307
▁1100	-4308
氵于	-4309
ble	-4310
ents	-4311
ella	-4312
▁151	-4313
口肅	-4314
▁1858	-4315
▁mbc	-4316
ja	-4317
82	-4318
ope	-4319
耳心	-4320
res	-4321
ball	-4322
▁209	-4323
ui	-4324
ush	-4325
▁290	-4326
▁370	-4327
▁fun	-4328
74	-4329
木丂	-4330
亠斌廾	-4331
▁fi	-4332
▁420	-4333
▁aa	-4334
▁dig	-4335
千口自心	-4336
▁real	-4337
𠂊冫寸木	-4338
84	-4339
▁nasa	-4340
idge	-4341
ns	-4342
▁1859	-4343
ql	-4344
讠乍	-4345
一兀頁	-4346
亠斌木	-4347
▁ham	-4348
▁just	-4349
ther	-4350
▁211	-4351
竹干	-4352
▁203	-4353
▁form	-4354
忄束	-4355
竹生	-4356
▁cct	-4357
目八力	-4358
els	-4359
▁ah	-4360
弓丨丿刂	-4361
▁⿺⿱⿱	-4362
▁chin	-4363
▁225	-4364
▁sig	-4365
户攵口	-4366
▁1854	-4367
釆由	-4368
ule	-4369
▁mot	-4370
▁east	-4371
▁臼	-4372
▁1857	-4373
fe	-4374
ester	-4375
▁747	-4376
kg	-4377
▁camp	-4378
▁173	-4379
匕水	-4380
氵及	-4381
▁amd	-4382
▁roy	-4383
▁squ	-4384
ling	-4385
▁163	-4386
▁andre	-4387
ua	-4388
▁850	-4389
▁202	-4390
▁214	-4391
▁235	-4392
▁gnu	-4393
▁jon	-4394
▁american	-4395
土丹	-4396
71	-4397
日未	-4398
丿皿乑	-4399
sch	-4400
▁tal	-4401
金由	-4402
▁instit	-4403
ative	-4404
金巨	-4405
no	-4406
▁nov	-4407
士冖业	-4408
口永	-4409
▁162	-4410
▁production	-4411
pc	-4412
81	-4413
▁api	-4414
▁mal	-4415
▁301	-4416
▁340	-4417
▁blue	-4418
亠田久	-4419
▁key	-4420
83	-4421
丶葭几	-4422
禾火心	-4423
▁who	-4424
▁batt	-4425
94	-4426
▁ign	-4427
牛冂刂手	-4428
▁nav	-4429
木己	-4430
▁xp	-4431
▁lis	-4432
纟申	-4433
▁1856	-4434
asc	-4435
▁hal	-4436
ival	-4437
▁law	-4438
木册	-4439
▁lee	-4440
艹止	-4441
▁soft	-4442
▁az	-4443
▁fer	-4444
阝皮	-4445
▁lar	-4446
▁kong	-4447
勹二	-4448
▁215	-4449
▁girls	-4450
▁soc	-4451
cs	-4452
ello	-4453
▁chem	-4454
▁song	-4455
91	-4456
▁tor	-4457
▁isbn	-4458
▁sant	-4459
agon	-4460
my	-4461
▁hum	-4462
▁great	-4463
▁cast	-4464
禾儿	-4465
ody	-4466
▁elect	-4467
93	-4468
石申	-4469
▁dos	-4470
▁1851	-4471
▁categ	-4472
▁girl	-4473
star	-4474
uz	-4475
⿱⿱⿴⿱	-4476
丿囗㐅儿	-4477
▁hong	-4478
𠘧又金	-4479
▁jul	-4480
▁hs	-4481
▁young	-4482
▁band	-4483
𡗗臼	-4484
▁network	-4485
ury	-4486
▁far	-4487
▁mill	-4488
金屯	-4489
▁onlyinclude	-4490
饣我	-4491
▁name	-4492
101	-4493
urch	-4494
▁bal	-4495
▁home	-4496
ila	-4497
▁142	-4498
丷干臼	-4499
▁von	-4500
▁⿱⿰⿻⿱	-4501
▁dl	-4502
▁green	-4503
▁ret	-4504
▁1847	-4505
ih	-4506
石西	-4507
red	-4508
mann	-4509
▁association	-4510
▁tai	-4511
▁1855	-4512
爫寸	-4513
女户	-4514
vid	-4515
fer	-4516
▁rap	-4517
92	-4518
▁leg	-4519
▁ova	-4520
▁pres	-4521
ocal	-4522
▁207	-4523
▁itunes	-4524
▁206	-4525
▁how	-4526
ous	-4527
▁gala	-4528
▁nbc	-4529
▁vict	-4530
▁night	-4531
土斤	-4532
▁category	-4533
▁td	-4534
▁171	-4535
ou	-4536
▁bb	-4537
▁post	-4538
▁480	-4539
▁hist	-4540
▁inv	-4541
▁ext	-4542
角斗	-4543
ips	-4544
▁410	-4545
▁jean	-4546
mi	-4547
▁champ	-4548
▁mb	-4549
▁204	-4550
ipp	-4551
▁cg	-4552
艹末	-4553
urus	-4554
gbt	-4555
广里	-4556
木戋	-4557
束欠	-4558
▁tbs	-4559
ats	-4560
▁town	-4561
弓米	-4562
弓米弓	-4563
nd	-4564
▁two	-4565
▁disc	-4566
ney	-4567
ague	-4568
▁1852	-4569
▁soci	-4570
▁frank	-4571
▁221	-4572
▁river	-4573
▁430	-4574
▁white	-4575
▁pp	-4576
钅垂	-4577
丿丿刂	-4578
gram	-4579
▁1841	-4580
▁heart	-4581
▁tro	-4582
▁bank	-4583
钅里	-4584
艮心	-4585
ota	-4586
ning	-4587
erv	-4588
ty	-4589
▁218	-4590
300	-4591
ios	-4592
▁172	-4593
▁om	-4594
人目又	-4595
钅由	-4596
burg	-4597
▁sin	-4598
▁usb	-4599
▁doc	-4600
川一	-4601
金垂	-4602
ids	-4603
ret	-4604
▁has	-4605
▁ros	-4606
▁anim	-4607
▁state	-4608
日文	-4609
白鬼	-4610
▁161	-4611
厶廾	-4612
wood	-4613
▁sat	-4614
▁md	-4615
▁internet	-4616
gy	-4617
▁cbs	-4618
▁pag	-4619
▁ai	-4620
▁die	-4621
▁1849	-4622
▁mak	-4623
▁1846	-4624
unc	-4625
▁sv	-4626
▁182	-4627
zo	-4628
▁def	-4629
▁tur	-4630
▁stand	-4631
▁island	-4632
女又弓	-4633
▁223	-4634
▁217	-4635
▁tar	-4636
▁hill	-4637
idae	-4638
▁mu	-4639
▁light	-4640
ache	-4641
▁bay	-4642
革斤	-4643
▁width	-4644
钅丁	-4645
ira	-4646
▁cctv	-4647
▁1844	-4648
▁book	-4649
▁distr	-4650
▁under	-4651
▁rub	-4652
cript	-4653
▁hor	-4654
ima	-4655
ional	-4656
▁ceo	-4657
▁1815	-4658
▁1820	-4659
▁year	-4660
▁ly	-4661
▁238	-4662
▁alph	-4663
obe	-4664
▁mt	-4665
▁your	-4666
xx	-4667
gen	-4668
▁222	-4669
子皿力	-4670
ison	-4671
▁server	-4672
ets	-4673
▁216	-4674
ape	-4675
▁ll	-4676
▁181	-4677
犬犬	-4678
▁united	-4679
ely	-4680
▁174	-4681
▁228	-4682
▁joseph	-4683
▁gb	-4684
▁var	-4685
囗甫	-4686
而女	-4687
▁212	-4688
▁1843	-4689
▁bur	-4690
▁401	-4691
土于	-4692
▁enviro	-4693
▁ice	-4694
ift	-4695
▁10000	-4696
▁commun	-4697
▁vii	-4698
ree	-4699
▁xx	-4700
ops	-4701
▁dar	-4702
▁911	-4703
▁dev	-4704
木工	-4705
▁dh	-4706
一大虫	-4707
▁store	-4708
▁bon	-4709
▁cle	-4710
400	-4711
ucn	-4712
▁440	-4713
▁cur	-4714
rich	-4715
▁1845	-4716
▁space	-4717
忄鬼	-4718
更生	-4719
olf	-4720
ye	-4721
▁1812	-4722
▁henry	-4723
▁rt	-4724
lation	-4725
扌弗	-4726
▁iucn	-4727
▁cas	-4728
▁dep	-4729
▁litt	-4730
巳八夂	-4731
▁let	-4732
氵兆	-4733
▁que	-4734
止自	-4735
als	-4736
▁cons	-4737
止自巳八夂	-4738
▁cho	-4739
▁bob	-4740
pp	-4741
▁prof	-4742
our	-4743
虫牙	-4744
zy	-4745
▁way	-4746
ather	-4747
▁fran	-4748
si	-4749
▁section	-4750
▁db	-4751
▁cry	-4752
▁rpg	-4753
▁213	-4754
矛攵	-4755
⺌冖口衣	-4756
▁tele	-4757
▁1842	-4758
board	-4759
▁1814	-4760
亻隹月	-4761
ideo	-4762
▁god	-4763
▁manag	-4764
钅丑	-4765
▁255	-4766
𠘧又木	-4767
▁run	-4768
▁219	-4769
钅刂	-4770
▁001	-4771
den	-4772
▁jac	-4773
▁model	-4774
㐅乂玉	-4775
▁smith	-4776
▁engine	-4777
▁265	-4778
米子	-4779
八厶儿	-4780
ures	-4781
uv	-4782
▁pv	-4783
▁cross	-4784
▁jump	-4785
▁son	-4786
日乍	-4787
azine	-4788
isc	-4789
ural	-4790
▁expl	-4791
丷丨	-4792
ji	-4793
▁battle	-4794
mat	-4795
▁bit	-4796
edia	-4797
丿乀	-4798
▁sel	-4799
犭艮	-4800
ister	-4801
▁ft	-4802
▁spr	-4803
▁radio	-4804
▁carl	-4805
口犬	-4806
annel	-4807
uct	-4808
▁ry	-4809
▁mobile	-4810
▁1789	-4811
ird	-4812
ense	-4813
▁hu	-4814
▁cf	-4815
raft	-4816
▁core	-4817
▁264	-4818
ida	-4819
丷酉犬	-4820
▁num	-4821
▁https	-4822
▁church	-4823
▁jan	-4824
▁general	-4825
金甲	-4826
▁comic	-4827
⿸⿸⿸	-4828
▁390	-4829
木方	-4830
氵朱	-4831
▁cha	-4832
▁plus	-4833
▁275	-4834
𠂇月土	-4835
▁party	-4836
▁service	-4837
field	-4838
▁league	-4839
▁control	-4840
▁martin	-4841
耳止	-4842
rpm	-4843
▁tu	-4844
木丶刂	-4845
丨丨比灬	-4846
ington	-4847
▁arr	-4848
▁lgbt	-4849
bor	-4850
言且	-4851
ato	-4852
▁rep	-4853
▁snh	-4854
▁work	-4855
▁fn	-4856
火田	-4857
aya	-4858
well	-4859
▁louis	-4860
▁kg	-4861
▁magazine	-4862
▁au	-4863
earch	-4864
▁pala	-4865
衤寸	-4866
艹我	-4867
▁steam	-4868
▁dm	-4869
言牙	-4870
cy	-4871
lad	-4872
▁pass	-4873
一乚	-4874
ars	-4875
▁gi	-4876
一乚丶	-4877
▁ct	-4878
▁1792	-4879
忄斤	-4880
▁his	-4881
▁foot	-4882
丬夕木	-4883
▁research	-4884
▁460	-4885
▁online	-4886
艹艮	-4887
▁conc	-4888
▁mas	-4889
▁xml	-4890
宀一	-4891
▁cir	-4892
▁mult	-4893
▁bad	-4894
▁box	-4895
▁jim	-4896
▁mit	-4897
宀石	-4898
▁bh	-4899
▁crh	-4900
▁wwe	-4901
▁little	-4902
▁365	-4903
▁610	-4904
▁sports	-4905
▁fest	-4906
▁pier	-4907
velop	-4908
立十木	-4909
▁master	-4910
黑攵	-4911
山一黑攵	-4912
▁muse	-4913
氵虫	-4914
一兀页	-4915
▁aug	-4916
▁moz	-4917
peg	-4918
cher	-4919
▁1835	-4920
▁aust	-4921
▁station	-4922
▁305	-4923
乙水	-4924
▁sand	-4925
une	-4926
jo	-4927
oid	-4928
▁226	-4929
ox	-4930
爿士大	-4931
▁950	-4932
▁poly	-4933
酉禾	-4934
▁men	-4935
亻两	-4936
阝千	-4937
▁tg	-4938
▁sound	-4939
▁fox	-4940
▁1832	-4941
▁mount	-4942
日斤	-4943
201	-4944
▁like	-4945
▁set	-4946
▁sem	-4947
▁asia	-4948
山民	-4949
cast	-4950
▁vs	-4951
▁560	-4952
▁mary	-4953
▁junior	-4954
▁plan	-4955
▁gal	-4956
ni	-4957
ship	-4958
女口糸	-4959
▁3500	-4960
▁corpor	-4961
ili	-4962
▁640	-4963
gar	-4964
▁ny	-4965
▁ins	-4966
▁special	-4967
永日	-4968
▁249	-4969
▁institute	-4970
▁720	-4971
𠂊田一刂	-4972
hr	-4973
讠韦	-4974
▁777	-4975
▁den	-4976
▁channel	-4977
艹冖火	-4978
pan	-4979
adem	-4980
ient	-4981
▁239	-4982
▁bea	-4983
hell	-4984
▁229	-4985
▁1793	-4986
asy	-4987
uel	-4988
igo	-4989
▁224	-4990
▁520	-4991
▁code	-4992
▁1839	-4993
yr	-4994
▁ae	-4995
艹冖玉	-4996
▁530	-4997
▁victor	-4998
▁have	-4999
iana	-5000
▁245	-5001
▁1821	-5002
▁program	-5003
esh	-5004
off	-5005
eter	-5006
▁pac	-5007
▁540	-5008
▁design	-5009
业阝	-5010
毛毛	-5011
aga	-5012
▁1795	-5013
▁journ	-5014
fr	-5015
▁glob	-5016
▁marc	-5017
▁ki	-5018
▁325	-5019
gan	-5020
tor	-5021
▁232	-5022
火𠃓	-5023
▁brit	-5024
▁edward	-5025
▁234	-5026
▁1824	-5027
▁word	-5028
▁501	-5029
金里	-5030
▁society	-5031
▁lg	-5032
▁308	-5033
贝戋	-5034
▁point	-5035
▁227	-5036
▁1838	-5037
▁small	-5038
301	-5039
▁after	-5040
bert	-5041
▁express	-5042
▁ze	-5043
厂人	-5044
钅屯	-5045
out	-5046
▁262	-5047
▁att	-5048
▁visual	-5049
▁1836	-5050
▁video	-5051
目兆	-5052
▁kw	-5053
▁bor	-5054
▁develop	-5055
▁non	-5056
olution	-5057
▁vista	-5058
ider	-5059
氵屯	-5060
石乐	-5061
▁680	-5062
▁1825	-5063
▁601	-5064
ious	-5065
▁iee	-5066
acy	-5067
ility	-5068
▁next	-5069
ola	-5070
▁⿴⿱	-5071
▁prot	-5072
▁hbo	-5073
▁tak	-5074
▁down	-5075
衤末	-5076
001	-5077
501	-5078
▁580	-5079
▁nam	-5080
vent	-5081
▁low	-5082
▁mol	-5083
▁1644	-5084
▁ieee	-5085
▁public	-5086
▁pt	-5087
▁251	-5088
▁1801	-5089
▁scott	-5090
ocket	-5091
lish	-5092
▁galaxy	-5093
▁311	-5094
▁ti	-5095
峴灬川	-5096
▁233	-5097
亻田	-5098
▁2021	-5099
uld	-5100
ette	-5101
人人攵	-5102
ces	-5103
▁syn	-5104
▁happ	-5105
pi	-5106
pn	-5107
士口頁	-5108
▁fed	-5109
▁1806	-5110
och	-5111
▁htc	-5112
▁data	-5113
atic	-5114
▁lam	-5115
▁2022	-5116
ona	-5117
▁ml	-5118
▁maj	-5119
丿𠃌攵虫	-5120
匕水页	-5121
月寸	-5122
辶西	-5123
▁470	-5124
▁moon	-5125
𠂊彐隹	-5126
▁307	-5127
口丁	-5128
▁bern	-5129
wor	-5130
bit	-5131
ize	-5132
win	-5133
▁more	-5134
▁hon	-5135
▁jer	-5136
ple	-5137
▁cin	-5138
▁hard	-5139
口王阝	-5140
inal	-5141
ao	-5142
▁map	-5143
▁1831	-5144
▁steph	-5145
ization	-5146
习习欠	-5147
▁1837	-5148
▁hom	-5149
辶于	-5150
▁mur	-5151
yd	-5152
囗口阝	-5153
▁rog	-5154
▁wo	-5155
▁dor	-5156
yp	-5157
▁gh	-5158
▁taiwan	-5159
𦣞页	-5160
ogr	-5161
▁pm	-5162
▁mos	-5163
▁found	-5164
囗口示	-5165
▁kir	-5166
▁9000	-5167
▁246	-5168
gs	-5169
oto	-5170
▁pay	-5171
亠口小頁	-5172
▁mach	-5173
▁chinese	-5174
ois	-5175
▁mom	-5176
▁science	-5177
▁皿	-5178
rome	-5179
lam	-5180
𠂊⺀	-5181
face	-5182
▁brown	-5183
aker	-5184
𠂊⺀火	-5185
▁236	-5186
亡民	-5187
▁level	-5188
▁mozilla	-5189
▁asc	-5190
▁right	-5191
▁sql	-5192
▁303	-5193
▁620	-5194
▁fal	-5195
down	-5196
▁second	-5197
▁emp	-5198
▁1833	-5199
▁francis	-5200
rie	-5201
▁royal	-5202
▁237	-5203
▁630	-5204
丿囗㐅比	-5205
氵亡	-5206
01	-5207
𠁣𠃛心	-5208
▁spe	-5209
▁1810	-5210
stein	-5211
▁peop	-5212
▁call	-5213
▁angel	-5214
𦣞頁	-5215
宀八巾	-5216
▁sen	-5217
金玉	-5218
▁mini	-5219
▁explor	-5220
max	-5221
▁cup	-5222
▁rs	-5223
▁323	-5224
▁bec	-5225
▁film	-5226
▁union	-5227
矛攵女	-5228
▁fly	-5229
▁place	-5230
▁champion	-5231
▁512	-5232
▁som	-5233
▁1776	-5234
▁285	-5235
▁eric	-5236
▁wa	-5237
釆田阝	-5238
ness	-5239
ender	-5240
▁rain	-5241
火夬	-5242
▁242	-5243
▁254	-5244
▁266	-5245
fox	-5246
立十刀	-5247
▁what	-5248
▁aud	-5249
ost	-5250
▁pap	-5251
di	-5252
▁ni	-5253
▁243	-5254
▁gov	-5255
一由	-5256
ency	-5257
▁adobe	-5258
▁corporation	-5259
▁eb	-5260
▁jt	-5261
arch	-5262
▁315	-5263
▁318	-5264
▁flash	-5265
▁liv	-5266
uri	-5267
▁orig	-5268
orm	-5269
▁ax	-5270
▁left	-5271
匚㐅瓦	-5272
▁equ	-5273
▁matt	-5274
▁had	-5275
▁fu	-5276
幺芉非	-5277
▁510	-5278
▁802	-5279
▁dam	-5280
▁square	-5281
col	-5282
601	-5283
▁1790	-5284
▁technology	-5285
▁252	-5286
▁338	-5287
▁ub	-5288
▁241	-5289
▁244	-5290
尸九	-5291
▁bt	-5292
特一八石	-5293
▁1826	-5294
▁1834	-5295
mhz	-5296
▁ace	-5297
立月䦯耳	-5298
▁mvp	-5299
扌斗	-5300
▁gra	-5301
▁1822	-5302
ume	-5303
▁aw	-5304
▁ku	-5305
▁cit	-5306
vidia	-5307
▁1799	-5308
口牙	-5309
▁exp	-5310
▁maria	-5311
舟甲	-5312
▁248	-5313
ython	-5314
▁pent	-5315
厶口心	-5316
force	-5317
men	-5318
▁263	-5319
▁1828	-5320
▁nvidia	-5321
over	-5322
iness	-5323
▁which	-5324
nt	-5325
扌母	-5326
日广	-5327
▁sf	-5328
戊一小	-5329
▁get	-5330
▁mix	-5331
agram	-5332
other	-5333
▁arts	-5334
▁dt	-5335
▁pg	-5336
▁fif	-5337
▁gard	-5338
▁digital	-5339
▁rd	-5340
701	-5341
ipe	-5342
▁firefox	-5343
600	-5344
▁last	-5345
lor	-5346
龷由八阝	-5347
▁comput	-5348
▁960	-5349
▁card	-5350
▁christian	-5351
礻止	-5352
▁247	-5353
▁258	-5354
▁1791	-5355
▁final	-5356
▁cu	-5357
人人頁	-5358
▁253	-5359
▁hold	-5360
▁daniel	-5361
ote	-5362
▁york	-5363
▁touch	-5364
女疌	-5365
▁660	-5366
▁tam	-5367
▁head	-5368
▁vers	-5369
▁vr	-5370
▁269	-5371
▁press	-5372
𠂉生	-5373
▁vl	-5374
▁277	-5375
▁1804	-5376
▁1813	-5377
▁1829	-5378
ros	-5379
sport	-5380
elle	-5381
▁bbs	-5382
mon	-5383
▁qq	-5384
▁arc	-5385
aster	-5386
mar	-5387
▁wi	-5388
▁268	-5389
▁sign	-5390
▁978	-5391
ago	-5392
▁1823	-5393
▁summer	-5394
▁302	-5395
▁304	-5396
▁312	-5397
▁festival	-5398
ices	-5399
▁hit	-5400
▁1818	-5401
▁again	-5402
380	-5403
▁ns	-5404
ater	-5405
▁618	-5406
▁1819	-5407
onom	-5408
▁ken	-5409
▁software	-5410
▁operation	-5411
▁adam	-5412
▁enter	-5413
row	-5414
umb	-5415
刀口力	-5416
▁build	-5417
▁cnn	-5418
▁social	-5419
𠂊小玉	-5420
2000	-5421
zer	-5422
▁hand	-5423
ascript	-5424
尸米	-5425
▁apg	-5426
▁clar	-5427
▁273	-5428
日西	-5429
ev	-5430
▁231	-5431
▁1816	-5432
▁europe	-5433
▁257	-5434
▁ing	-5435
▁1802	-5436
▁alexander	-5437
flix	-5438
ters	-5439
▁fact	-5440
anna	-5441
夂月	-5442
401	-5443
kin	-5444
▁mah	-5445
▁nad	-5446
▁chi	-5447
二贝	-5448
ique	-5449
▁deb	-5450
▁global	-5451
▁switch	-5452
▁wood	-5453
𠂊彐皮	-5454
▁beat	-5455
ika	-5456
▁tran	-5457
▁fx	-5458
▁299	-5459
▁570	-5460
▁bat	-5461
gl	-5462
▁sav	-5463
▁1775	-5464
▁cell	-5465
ran	-5466
▁276	-5467
▁pos	-5468
▁hp	-5469
▁chil	-5470
▁cop	-5471
▁1780	-5472
▁netflix	-5473
▁old	-5474
▁august	-5475
zi	-5476
糸言糸金	-5477
▁phone	-5478
丰寸灬	-5479
竹尹	-5480
▁295	-5481
▁bey	-5482
▁rail	-5483
▁people	-5484
癶豆几	-5485
▁acc	-5486
▁psy	-5487
▁football	-5488
▁series	-5489
▁princ	-5490
▁ult	-5491
▁1794	-5492
氵金	-5493
▁cb	-5494
▁viv	-5495
801	-5496
▁circ	-5497
▁fant	-5498
▁bc	-5499
⺊尸页	-5500
▁272	-5501
火山	-5502
▁306	-5503
▁lady	-5504
▁und	-5505
▁uss	-5506
▁explorer	-5507
▁astro	-5508
▁pk	-5509
▁386	-5510
▁cra	-5511
▁1807	-5512
▁lond	-5513
▁279	-5514
▁701	-5515
▁academ	-5516
▁1796	-5517
木由	-5518
氵西	-5519
▁langu	-5520
▁yg	-5521
▁288	-5522
▁296	-5523
▁asp	-5524
▁1805	-5525
▁were	-5526
▁hello	-5527
▁gm	-5528
iga	-5529
▁286	-5530
▁instagram	-5531
tl	-5532
omb	-5533
▁4500	-5534
▁nm	-5535
ograph	-5536
▁ash	-5537
▁management	-5538
䒑未阝	-5539
▁1645	-5540
▁1650	-5541
▁district	-5542
nes	-5543
▁1809	-5544
王民	-5545
▁dance	-5546
▁od	-5547
▁767	-5548
木且	-5549
▁kl	-5550
▁tcp	-5551
▁billboard	-5552
▁pu	-5553
▁pen	-5554
▁tel	-5555
▁nu	-5556
key	-5557
▁278	-5558
▁820	-5559
▁block	-5560
▁fri	-5561
▁1750	-5562
𠂊田灬比	-5563
▁python	-5564
ible	-5565
▁375	-5566
▁bir	-5567
▁bug	-5568
竹及	-5569
rick	-5570
▁tan	-5571
▁1803	-5572
彳方	-5573
awa	-5574
▁pin	-5575
▁ipad	-5576
▁georg	-5577
hd	-5578
▁yu	-5579
▁357	-5580
▁prem	-5581
▁pagasa	-5582
▁ker	-5583
▁yah	-5584
▁1798	-5585
▁1808	-5586
▁awards	-5587
▁333	-5588
▁psp	-5589
▁read	-5590
▁family	-5591
oe	-5592
▁490	-5593
▁counc	-5594
▁og	-5595
▁dol	-5596
▁eff	-5597
▁gab	-5598
▁2400	-5599
▁force	-5600
人一口龙	-5601
▁ren	-5602
ohc	-5603
▁ff	-5604
▁fut	-5605
▁baby	-5606
▁perf	-5607
▁vocal	-5608
▁bf	-5609
▁emu	-5610
▁fair	-5611
▁2100	-5612
▁298	-5613
db	-5614
▁1817	-5615
八厶瓦	-5616
▁780	-5617
▁1788	-5618
▁water	-5619
▁museum	-5620
▁cw	-5621
▁council	-5622
▁335	-5623
▁mess	-5624
▁javascript	-5625
ren	-5626
▁271	-5627
inger	-5628
▁274	-5629
▁alt	-5630
▁dark	-5631
▁alf	-5632
▁hop	-5633
▁wom	-5634
▁1787	-5635
▁gps	-5636
cho	-5637
iko	-5638
▁doub	-5639
▁journal	-5640
sk	-5641
ident	-5642
▁mnet	-5643
⿶⿱⿰	-5644
▁ru	-5645
▁259	-5646
iy	-5647
lab	-5648
▁313	-5649
▁385	-5650
aven	-5651
▁cult	-5652
kh	-5653
▁pdf	-5654
▁mike	-5655
▁stad	-5656
▁319	-5657
▁din	-5658
▁va	-5659
▁730	-5660
▁gun	-5661
aka	-5662
osp	-5663
▁earth	-5664
彳非	-5665
▁ea	-5666
丿𠃌攵灬	-5667
▁market	-5668
▁sab	-5669
耳冘	-5670
oma	-5671
rad	-5672
rey	-5673
▁inform	-5674
▁710	-5675
▁london	-5676
▁central	-5677
▁901	-5678
▁chan	-5679
▁meth	-5680
vision	-5681
▁chris	-5682
▁np	-5683
▁324	-5684
▁801	-5685
▁1580	-5686
esis	-5687
▁670	-5688
▁ipod	-5689
▁albert	-5690
▁main	-5691
肀二	-5692
▁1783	-5693
▁conn	-5694
▁tvbs	-5695
▁1592	-5696
▁anton	-5697
▁centre	-5698
匚久	-5699
▁261	-5700
ating	-5701
vo	-5702
oud	-5703
▁ven	-5704
▁1550	-5705
▁sche	-5706
▁2600	-5707
▁well	-5708
▁eg	-5709
櫵一户	-5710
▁bud	-5711
▁its	-5712
▁ske	-5713
▁beta	-5714
▁soul	-5715
火虫	-5716
iii	-5717
日大手	-5718
▁267	-5719
▁frame	-5720
▁ide	-5721
▁mun	-5722
▁rod	-5723
一夕	-5724
ias	-5725
▁mig	-5726
▁sor	-5727
▁friend	-5728
▁edition	-5729
ues	-5730
▁590	-5731
▁ye	-5732
▁287	-5733
▁bell	-5734
▁basic	-5735
金肅	-5736
儿丨皿	-5737
口止果	-5738
▁281	-5739
▁four	-5740
▁round	-5741
▁story	-5742
▁front	-5743
▁ja	-5744
▁say	-5745
▁kill	-5746
▁757	-5747
民攵	-5748
cept	-5749
▁gall	-5750
▁andrew	-5751
con	-5752
久火	-5753
豸艮心	-5754
mond	-5755
▁bul	-5756
▁1568	-5757
▁leon	-5758
▁zero	-5759
▁album	-5760
▁284	-5761
▁arg	-5762
▁ipv	-5763
丿士贝	-5764
民攵心	-5765
ti	-5766
play	-5767
▁282	-5768
▁309	-5769
▁link	-5770
▁sb	-5771
▁328	-5772
▁ban	-5773
▁meg	-5774
320	-5775
ines	-5776
▁289	-5777
▁alpha	-5778
ria	-5779
▁rb	-5780
▁lord	-5781
▁fried	-5782
▁999	-5783
kb	-5784
▁283	-5785
▁589	-5786
cha	-5787
▁316	-5788
▁2300	-5789
▁jeff	-5790
▁stat	-5791
▁human	-5792
vi	-5793
王久	-5794
钅本	-5795
caa	-5796
▁they	-5797
ful	-5798
ova	-5799
櫵一川	-5800
▁314	-5801
⿱⿶⿱⿰	-5802
▁293	-5803
▁327	-5804
▁uc	-5805
▁1827	-5806
get	-5807
iter	-5808
丷干丸手	-5809
▁um	-5810
▁880	-5811
▁dur	-5812
▁kim	-5813
▁begin	-5814
ston	-5815
▁345	-5816
▁aaa	-5817
▁note	-5818
▁prop	-5819
▁sund	-5820
▁kon	-5821
▁drive	-5822
▁334	-5823
do	-5824
ering	-5825
▁317	-5826
▁322	-5827
▁760	-5828
▁sho	-5829
nm	-5830
tern	-5831
bsd	-5832
木木阝	-5833
忄冘	-5834
▁hi	-5835
▁355	-5836
▁pack	-5837
▁tit	-5838
▁stan	-5839
弓也	-5840
car	-5841
dren	-5842
▁331	-5843
▁russ	-5844
▁ath	-5845
▁2200	-5846
禾央	-5847
una	-5848
▁mcc	-5849
kt	-5850
lie	-5851
▁lake	-5852
yt	-5853
气山	-5854
ami	-5855
▁php	-5856
▁swe	-5857
je	-5858
▁joe	-5859
▁359	-5860
▁lab	-5861
▁326	-5862
▁830	-5863
▁lat	-5864
▁base	-5865
▁list	-5866
▁development	-5867
ities	-5868
▁⿺⿱⿻⿻	-5869
▁405	-5870
▁unit	-5871
▁systems	-5872
尸比	-5873
▁321	-5874
▁742	-5875
▁prim	-5876
▁trip	-5877
▁children	-5878
日一頁	-5879
▁train	-5880
▁ncaa	-5881
heim	-5882
▁fort	-5883
▁lum	-5884
hs	-5885
宀心	-5886
▁bg	-5887
▁903	-5888
▁hay	-5889
▁tc	-5890
▁dim	-5891
▁kiss	-5892
ania	-5893
▁amaz	-5894
▁mx	-5895
ado	-5896
言夬	-5897
▁1811	-5898
bus	-5899
eta	-5900
▁dy	-5901
▁ot	-5902
▁1582	-5903
▁shar	-5904
氵耳	-5905
less	-5906
▁dragon	-5907
don	-5908
▁sour	-5909
▁test	-5910
金川	-5911
▁exc	-5912
▁tay	-5913
口垂	-5914
女予	-5915
▁gil	-5916
▁hiv	-5917
▁1553	-5918
▁lamb	-5919
▁secret	-5920
由月	-5921
▁583	-5922
▁425	-5923
▁cook	-5924
▁1571	-5925
▁407	-5926
▁758	-5927
▁iec	-5928
ror	-5929
𠂉大聿	-5930
▁1570	-5931
ati	-5932
▁344	-5933
▁educ	-5934
▁rows	-5935
▁there	-5936
▁anth	-5937
▁ay	-5938
▁nc	-5939
alth	-5940
▁ld	-5941
▁fel	-5942
▁vel	-5943
▁1583	-5944
▁rfc	-5945
▁1770	-5946
▁1648	-5947
▁dest	-5948
▁gla	-5949
▁const	-5950
sl	-5951
艹韦	-5952
▁607	-5953
df	-5954
▁5°	-5955
▁007	-5956
习习隹戈	-5957
▁mass	-5958
▁court	-5959
800	-5960
▁356	-5961
▁zone	-5962
▁707	-5963
▁fan	-5964
▁inn	-5965
▁toky	-5966
hp	-5967
kw	-5968
▁404	-5969
▁kat	-5970
sen	-5971
白田	-5972
▁354	-5973
▁wond	-5974
ember	-5975
house	-5976
▁fifa	-5977
▁rowspan	-5978
▁1777	-5979
esc	-5980
▁some	-5981
▁happy	-5982
▁740	-5983
▁787	-5984
▁lind	-5985
不一阝	-5986
▁works	-5987
▁beyond	-5988
▁history	-5989
uber	-5990
▁ple	-5991
▁organ	-5992
▁person	-5993
▁297	-5994
▁346	-5995
▁1565	-5996
▁villa	-5997
hi	-5998
mg	-5999
二丨心	-6000
▁our	-6001
扌龙	-6002
立日欠	-6003
mail	-6004
▁pas	-6005
▁marie	-6006
▁ia	-6007
anda	-6008
▁atl	-6009
▁govern	-6010
anth	-6011
▁kde	-6012
▁1080	-6013
▁980	-6014
▁ten	-6015
▁nd	-6016
▁oc	-6017
于皿	-6018
ole	-6019
▁1784	-6020
▁860	-6021
▁ill	-6022
▁arth	-6023
士口页	-6024
itte	-6025
▁690	-6026
▁jyp	-6027
▁nar	-6028
方土	-6029
方方土	-6030
▁emi	-6031
▁1640	-6032
▁steve	-6033
▁object	-6034
▁ri	-6035
▁291	-6036
▁1778	-6037
sd	-6038
▁921	-6039
▁qual	-6040
elf	-6041
▁their	-6042
▁465	-6043
▁840	-6044
iger	-6045
▁hat	-6046
▁america	-6047
eck	-6048
革央	-6049
▁lor	-6050
▁edge	-6051
▁403	-6052
▁por	-6053
▁1797	-6054
olk	-6055
▁abo	-6056
ban	-6057
ito	-6058
▁419	-6059
▁virt	-6060
▁business	-6061
▁384	-6062
▁621	-6063
▁cab	-6064
▁395	-6065
▁dal	-6066
▁rac	-6067
▁sus	-6068
of	-6069
▁rat	-6070
▁1661	-6071
▁prin	-6072
isa	-6073
幺芉予	-6074
▁343	-6075
▁smart	-6076
▁three	-6077
▁329	-6078
▁930	-6079
▁pur	-6080
▁fall	-6081
▁prom	-6082
lan	-6083
▁bmw	-6084
▁solo	-6085
▁scr	-6086
▁sla	-6087
小丿女	-6088
▁other	-6089
▁math	-6090
uf	-6091
athan	-6092
▁know	-6093
▁tokyo	-6094
iano	-6095
▁352	-6096
▁810	-6097
▁fore	-6098
▁seed	-6099
▁bridge	-6100
▁opt	-6101
▁ted	-6102
▁spir	-6103
700	-6104
▁ie	-6105
▁292	-6106
▁got	-6107
▁queen	-6108
▁shell	-6109
门心	-6110
刀丿止	-6111
ques	-6112
▁dog	-6113
▁saf	-6114
▁tex	-6115
ument	-6116
▁samu	-6117
立十子	-6118
chen	-6119
▁beaut	-6120
▁brand	-6121
▁gy	-6122
勹口灬	-6123
▁294	-6124
▁uk	-6125
icle	-6126
▁start	-6127
▁profess	-6128
𠂊冫寸大	-6129
▁1521	-6130
▁diff	-6131
▁402	-6132
▁770	-6133
▁1785	-6134
亻非	-6135
木王	-6136
val	-6137
▁ron	-6138
▁chap	-6139
▁feat	-6140
utv	-6141
lect	-6142
火火木	-6143
▁process	-6144
190	-6145
oli	-6146
▁336	-6147
▁358	-6148
▁448	-6149
▁caf	-6150
▁fac	-6151
耳𠃊	-6152
▁2030	-6153
▁deep	-6154
▁ey	-6155
▁367	-6156
▁581	-6157
▁mmc	-6158
▁nex	-6159
▁wta	-6160
▁true	-6161
▁johnson	-6162
▁plat	-6163
▁shad	-6164
扌八	-6165
▁hip	-6166
▁1760	-6167
▁aven	-6168
ission	-6169
▁rp	-6170
▁555	-6171
▁libr	-6172
▁rose	-6173
▁trav	-6174
oy	-6175
▁pot	-6176
▁1586	-6177
▁525	-6178
𠂊田灬刂	-6179
▁field	-6180
▁1577	-6181
▁ball	-6182
▁ton	-6183
▁function	-6184
言非	-6185
iti	-6186
▁fbi	-6187
▁jay	-6188
▁jess	-6189
▁order	-6190
▁philip	-6191
▁stephen	-6192
凵丨皮	-6193
木木女	-6194
▁1646	-6195
木乐	-6196
▁406	-6197
▁sha	-6198
▁conf	-6199
▁yahoo	-6200
▁number	-6201
lis	-6202
▁342	-6203
▁alan	-6204
erm	-6205
rent	-6206
▁2700	-6207
par	-6208
厶口火	-6209
itor	-6210
▁339	-6211
▁337	-6212
▁indust	-6213
din	-6214
ves	-6215
▁870	-6216
▁dat	-6217
▁los	-6218
unter	-6219
▁pierre	-6220
▁rx	-6221
▁1368	-6222
▁break	-6223
gi	-6224
901	-6225
die	-6226
▁502	-6227
▁415	-6228
▁bang	-6229
▁sea	-6230
ector	-6231
▁1786	-6232
▁carol	-6233
▁action	-6234
sson	-6235
▁548	-6236
▁viutv	-6237
gh	-6238
▁mik	-6239
▁broad	-6240
rt	-6241
▁gpl	-6242
▁505	-6243
▁raw	-6244
oon	-6245
war	-6246
▁ern	-6247
▁single	-6248
钅白	-6249
osaurus	-6250
▁py	-6251
▁moh	-6252
▁add	-6253
▁language	-6254
▁kan	-6255
▁1781	-6256
▁347	-6257
▁mis	-6258
uy	-6259
anga	-6260
▁399	-6261
▁dead	-6262
▁take	-6263
amin	-6264
▁rot	-6265
▁track	-6266
甲一斤	-6267
▁tod	-6268
▁1636	-6269
rd	-6270
▁mpeg	-6271
dom	-6272
pot	-6273
▁jos	-6274
ellow	-6275
▁boss	-6276
▁wild	-6277
▁970	-6278
▁speed	-6279
艹耳	-6280
med	-6281
▁bin	-6282
▁cher	-6283
▁greg	-6284
▁phot	-6285
▁econom	-6286
untu	-6287
▁619	-6288
▁aim	-6289
▁kin	-6290
aki	-6291
▁cinem	-6292
讠且	-6293
▁ess	-6294
▁jud	-6295
▁information	-6296
夂口隹	-6297
▁485	-6298
冖水	-6299
▁tt	-6300
ming	-6301
▁1590	-6302
▁merc	-6303
▁austral	-6304
utc	-6305
▁side	-6306
子子	-6307
ots	-6308
幺大谷	-6309
▁common	-6310
bon	-6311
▁pow	-6312
▁⿰⿱⿵	-6313
▁turn	-6314
▁states	-6315
▁standard	-6316
𠘧又缶	-6317
▁ascii	-6318
扌夬	-6319
山及	-6320
石见	-6321
mad	-6322
十罒心	-6323
▁phys	-6324
幺小	-6325
erty	-6326
▁imax	-6327
▁hotel	-6328
▁bag	-6329
冂二目力	-6330
day	-6331
ece	-6332
mph	-6333
ove	-6334
▁kk	-6335
▁1610	-6336
▁anal	-6337
▁kenn	-6338
▁ruby	-6339
▁stra	-6340
iva	-6341
人人龰耳	-6342
人示田	-6343
▁academy	-6344
▁foundation	-6345
reg	-6346
▁dyn	-6347
▁brt	-6348
糸言糸山	-6349
▁348	-6350
▁1622	-6351
▁refer	-6352
▁virgin	-6353
▁geforce	-6354
▁ky	-6355
▁times	-6356
▁british	-6357
ef	-6358
▁fle	-6359
aro	-6360
▁dia	-6361
刀丿丶米	-6362
▁1559	-6363
▁pont	-6364
eri	-6365
▁351	-6366
▁eos	-6367
▁tab	-6368
▁williams	-6369
hed	-6370
▁ring	-6371
▁view	-6372
▁see	-6373
▁1723	-6374
▁produce	-6375
▁education	-6376
▁collection	-6377
▁cad	-6378
幺幺土	-6379
▁1730	-6380
ser	-6381
▁1643	-6382
▁1680	-6383
▁ale	-6384
▁1517	-6385
elli	-6386
▁416	-6387
▁920	-6388
▁fab	-6389
▁row	-6390
▁where	-6391
𠂆万	-6392
𭕄⿻	-6393
扌丸手	-6394
atus	-6395
▁427	-6396
▁985	-6397
▁1763	-6398
▁simon	-6399
▁stage	-6400
▁source	-6401
▁353	-6402
▁also	-6403
▁double	-6404
▁studios	-6405
chi	-6406
ants	-6407
▁via	-6408
▁santa	-6409
▁access	-6410
▁332	-6411
▁366	-6412
▁eth	-6413
light	-6414
▁mytv	-6415
▁uh	-6416
ments	-6417
nh	-6418
zz	-6419
▁week	-6420
▁johann	-6421
▁528	-6422
▁kam	-6423
▁2800	-6424
▁arthur	-6425
▁435	-6426
▁abs	-6427
▁1628	-6428
▁1683	-6429
▁most	-6430
亻瓦	-6431
工口	-6432
apt	-6433
▁sug	-6434
▁flor	-6435
▁wolf	-6436
▁voice	-6437
▁interact	-6438
head	-6439
大力	-6440
門木	-6441
elly	-6442
▁bac	-6443
▁mam	-6444
▁1642	-6445
chan	-6446
▁377	-6447
▁1562	-6448
▁pict	-6449
▁ross	-6450
▁chang	-6451
▁magic	-6452
andy	-6453
ogue	-6454
▁383	-6455
▁dun	-6456
▁when	-6457
ief	-6458
iny	-6459
匚儿戈	-6460
▁341	-6461
▁535	-6462
▁1620	-6463
ify	-6464
▁605	-6465
▁kids	-6466
dle	-6467
▁major	-6468
▁xm	-6469
丿大山	-6470
▁jackson	-6471
ril	-6472
▁15000	-6473
▁socket	-6474
uit	-6475
▁ox	-6476
▁cba	-6477
▁wiki	-6478
▁371	-6479
▁civ	-6480
▁lost	-6481
▁tower	-6482
▁409	-6483
▁sac	-6484
▁chen	-6485
▁398	-6486
▁1625	-6487
▁1772	-6488
▁jones	-6489
▁387	-6490
▁408	-6491
▁rue	-6492
▁wall	-6493
▁361	-6494
▁file	-6495
▁nick	-6496
▁1782	-6497
▁laur	-6498
▁boys	-6499
疒且	-6500
▁nr	-6501
▁432	-6502
▁625	-6503
▁cer	-6504
▁gang	-6505
▁sunday	-6506
亠口小页	-6507
▁mountain	-6508
亻里	-6509
▁940	-6510
works	-6511
ved	-6512
▁1660	-6513
▁mba	-6514
▁1547	-6515
▁days	-6516
▁eleven	-6517
olo	-6518
▁rf	-6519
▁gog	-6520
𠂊田一非	-6521
艹弓	-6522
bar	-6523
▁abd	-6524
▁lte	-6525
▁nmb	-6526
▁yes	-6527
▁1511	-6528
▁1598	-6529
330	-6530
rix	-6531
▁gw	-6532
vers	-6533
▁css	-6534
▁irt	-6535
▁1556	-6536
▁into	-6537
▁nicon	-6538
▁invest	-6539
熭丶	-6540
esa	-6541
▁910	-6542
𠂊田灬兆	-6543
erial	-6544
▁1574	-6545
▁cham	-6546
▁apache	-6547
dc	-6548
▁nas	-6549
ified	-6550
▁opera	-6551
文糸	-6552
疒久	-6553
▁tf	-6554
▁aff	-6555
▁ped	-6556
▁705	-6557
wer	-6558
▁cj	-6559
anced	-6560
𠂊口比	-6561
▁six	-6562
▁1662	-6563
▁every	-6564
▁division	-6565
工阝	-6566
疒巴	-6567
▁lr	-6568
▁gpu	-6569
lah	-6570
▁388	-6571
▁511	-6572
▁kal	-6573
▁blood	-6574
▁communic	-6575
▁niconico	-6576
ides	-6577
▁790	-6578
▁1630	-6579
▁prince	-6580
bro	-6581
車斤土	-6582
▁sts	-6583
abeth	-6584
▁shine	-6585
▁lp	-6586
▁396	-6587
▁412	-6588
▁sars	-6589
▁than	-6590
istr	-6591
▁2025	-6592
▁karl	-6593
▁theat	-6594
▁golden	-6595
▁kt	-6596
贝贝缶	-6597
▁hkt	-6598
▁sta	-6599
ental	-6600
束頁	-6601
㪭灬阝	-6602
▁tony	-6603
▁walter	-6604
▁611	-6605
▁1573	-6606
▁1779	-6607
▁20000	-6608
ken	-6609
zen	-6610
目来	-6611
mes	-6612
▁lew	-6613
▁nik	-6614
▁ener	-6615
▁nec	-6616
▁wel	-6617
▁rest	-6618
▁never	-6619
▁368	-6620
▁499	-6621
▁506	-6622
▁rel	-6623
▁walk	-6624
▁virtual	-6625
彳弗	-6626
酉干	-6627
钅重	-6628
▁417	-6629
▁612	-6630
▁fish	-6631
▁hero	-6632
▁tb	-6633
▁466	-6634
⿱⿶⿳⿰	-6635
change	-6636
▁about	-6637
▁gon	-6638
▁kle	-6639
▁tun	-6640
▁1624	-6641
▁cosp	-6642
▁surface	-6643
▁1560	-6644
▁1621	-6645
cle	-6646
ench	-6647
▁378	-6648
▁414	-6649
▁445	-6650
▁455	-6651
▁ddr	-6652
▁make	-6653
▁lc	-6654
▁476	-6655
▁556	-6656
▁925	-6657
▁1774	-6658
▁computer	-6659
ges	-6660
▁418	-6661
▁bil	-6662
▁yam	-6663
usion	-6664
dm	-6665
口龶见	-6666
▁627	-6667
▁1490	-6668
▁3200	-6669
▁mind	-6670
iction	-6671
240	-6672
▁376	-6673
▁eva	-6674
▁oct	-6675
atory	-6676
▁1755	-6677
▁⿰⿱𭕄⿻	-6678
人人耳	-6679
bang	-6680
▁364	-6681
▁made	-6682
▁avenue	-6683
木木米	-6684
▁gear	-6685
▁graph	-6686
▁depart	-6687
ols	-6688
▁rc	-6689
▁439	-6690
▁lot	-6691
▁1634	-6692
日大阝	-6693
▁645	-6694
▁esc	-6695
▁player	-6696
▁io	-6697
▁samuel	-6698
金白	-6699
omo	-6700
▁479	-6701
worth	-6702
▁sega	-6703
▁wonder	-6704
▁electron	-6705
bra	-6706
her	-6707
▁389	-6708
▁442	-6709
▁talk	-6710
▁transport	-6711
⿳𭕄	-6712
亻羊	-6713
▁pun	-6714
iant	-6715
▁475	-6716
▁1637	-6717
▁library	-6718
alk	-6719
kins	-6720
▁426	-6721
▁433	-6722
▁reb	-6723
prise	-6724
▁future	-6725
豸里	-6726
▁422	-6727
▁pix	-6728
issement	-6729
utt	-6730
▁727	-6731
gress	-6732
▁brad	-6733
𠘧又心	-6734
▁std	-6735
▁infin	-6736
▁effect	-6737
▁theory	-6738
▁english	-6739
亚土	-6740
乡隹瓦	-6741
▁1649	-6742
gam	-6743
mas	-6744
▁hx	-6745
▁369	-6746
▁cel	-6747
▁iss	-6748
▁1748	-6749
▁381	-6750
▁bah	-6751
▁bot	-6752
▁1535	-6753
▁memor	-6754
▁cosplay	-6755
rac	-6756
▁508	-6757
▁sas	-6758
▁gor	-6759
▁abb	-6760
▁kab	-6761
十口儿刂	-6762
▁1541	-6763
木石	-6764
▁seven	-6765
钅玉	-6766
ghz	-6767
▁622	-6768
▁1627	-6769
gn	-6770
uma	-6771
▁kd	-6772
ists	-6773
▁349	-6774
▁397	-6775
▁bsd	-6776
▁1720	-6777
▁robin	-6778
▁taylor	-6779
▁tm	-6780
▁chart	-6781
ogen	-6782
▁451	-6783
▁518	-6784
bour	-6785
icus	-6786
inae	-6787
▁fat	-6788
▁1724	-6789
▁magn	-6790
▁nico	-6791
▁capital	-6792
▁christoph	-6793
sb	-6794
han	-6795
umi	-6796
▁428	-6797
▁567	-6798
▁1629	-6799
▁443	-6800
▁486	-6801
▁full	-6802
▁kevin	-6803
日卯	-6804
▁519	-6805
▁hyd	-6806
gu	-6807
▁1736	-6808
▁rade	-6809
▁brian	-6810
esco	-6811
▁gem	-6812
▁joy	-6813
▁pad	-6814
▁vita	-6815
▁stadium	-6816
▁european	-6817
广羊	-6818
▁pf	-6819
▁411	-6820
▁552	-6821
▁ott	-6822
丨丨比阝	-6823
▁mars	-6824
舟方	-6825
vis	-6826
▁373	-6827
▁death	-6828
▁ス	-6829
▁423	-6830
▁617	-6831
▁arrond	-6832
▁method	-6833
▁generation	-6834
▁363	-6835
▁blu	-6836
▁nfl	-6837
▁1529	-6838
▁lead	-6839
▁648	-6840
▁committe	-6841
王耳	-6842
▁mh	-6843
ando	-6844
▁1250	-6845
▁eliz	-6846
▁board	-6847
▁arrondissement	-6848
巾隹	-6849
▁kc	-6850
▁639	-6851
▁372	-6852
▁453	-6853
▁711	-6854
▁890	-6855
▁comb	-6856
爫见	-6857
讠非	-6858
oni	-6859
丶葭耳	-6860
▁sid	-6861
▁990	-6862
▁1631	-6863
▁here	-6864
▁mega	-6865
▁parad	-6866
▁chrome	-6867
▁contin	-6868
ersh	-6869
▁362	-6870
▁655	-6871
▁aqu	-6872
▁533	-6873
enger	-6874
▁dohc	-6875
cf	-6876
▁1585	-6877
▁1765	-6878
▁patrick	-6879
back	-6880
▁loc	-6881
▁ubuntu	-6882
ru	-6883
ali	-6884
leg	-6885
▁aj	-6886
▁aur	-6887
▁paris	-6888
辶十	-6889
tex	-6890
▁436	-6891
▁1538	-6892
▁1616	-6893
▁1727	-6894
▁deut	-6895
禾几页	-6896
ages	-6897
▁area	-6898
▁repub	-6899
▁framework	-6900
▁tl	-6901
口口頁	-6902
▁413	-6903
▁509	-6904
人一口页	-6905
▁five	-6906
▁services	-6907
oda	-6908
口夫欠	-6909
▁pak	-6910
uce	-6911
▁825	-6912
▁burn	-6913
▁priv	-6914
土儿土丸𧘇	-6915
▁stone	-6916
mw	-6917
疒豆	-6918
▁vt	-6919
人人艮	-6920
▁457	-6921
▁715	-6922
▁cant	-6923
▁radeon	-6924
一尸	-6925
▁ee	-6926
ites	-6927
▁907	-6928
▁1618	-6929
▁1740	-6930
▁gc	-6931
▁815	-6932
▁offic	-6933
▁js	-6934
pson	-6935
▁495	-6936
▁1769	-6937
▁mode	-6938
ological	-6939
ten	-6940
▁dp	-6941
▁379	-6942
糸言糸木	-6943
▁1647	-6944
▁doug	-6945
ray	-6946
▁lv	-6947
▁606	-6948
▁1771	-6949
▁michel	-6950
▁advance	-6951
nam	-6952
view	-6953
コ一人贝	-6954
𠃊目八	-6955
▁585	-6956
▁717	-6957
▁kom	-6958
▁garden	-6959
▁wilson	-6960
▁392	-6961
▁tgv	-6962
▁1651	-6963
▁1745	-6964
▁metal	-6965
isk	-6966
rin	-6967
▁nich	-6968
▁jacob	-6969
▁table	-6970
▁theatre	-6971
▁df	-6972
ipei	-6973
read	-6974
▁lay	-6975
▁lyn	-6976
▁friedrich	-6977
戋皿	-6978
目疌	-6979
▁515	-6980
▁haw	-6981
▁1773	-6982
▁movie	-6983
口亚	-6984
▁bmt	-6985
▁spring	-6986
阝鬼	-6987
▁pb	-6988
▁hey	-6989
▁1762	-6990
▁cour	-6991
▁615	-6992
iance	-6993
▁pers	-6994
▁stop	-6995
▁alice	-6996
wh	-6997
air	-6998
▁rr	-6999
亠斌金	-7000
▁529	-7001
▁dip	-7002
▁pci	-7003
▁1545	-7004
▁concert	-7005
▁394	-7006
▁424	-7007
▁sex	-7008
▁watch	-7009
▁pacific	-7010
▁050	-7011
▁rele	-7012
▁wing	-7013
▁ix	-7014
▁503	-7015
▁pit	-7016
▁tot	-7017
▁anti	-7018
▁committee	-7019
口頁	-7020
▁ik	-7021
▁438	-7022
▁553	-7023
▁1619	-7024
▁thro	-7025
eld	-7026
uan	-7027
▁ci	-7028
▁454	-7029
▁926	-7030
anger	-7031
▁1493	-7032
▁lisp	-7033
▁stor	-7034
▁very	-7035
▁0°	-7036
▁762	-7037
▁pse	-7038
▁tri	-7039
▁won	-7040
▁1615	-7041
▁modern	-7042
▁mission	-7043
缶本	-7044
raw	-7045
bach	-7046
ough	-7047
▁532	-7048
▁549	-7049
▁dns	-7050
▁sher	-7051
▁building	-7052
覀示瓜	-7053
▁nac	-7054
▁1670	-7055
▁1735	-7056
▁5500	-7057
束力	-7058
ocr	-7059
▁ow	-7060
▁nok	-7061
▁jenn	-7062
▁lucas	-7063
▁health	-7064
王申	-7065
uki	-7066
▁374	-7067
▁431	-7068
ollow	-7069
▁nord	-7070
vet	-7071
▁554	-7072
▁713	-7073
▁kit	-7074
iller	-7075
▁1505	-7076
▁1544	-7077
▁1689	-7078
▁lisa	-7079
▁wave	-7080
pro	-7081
reme	-7082
讠牙	-7083
mal	-7084
nie	-7085
▁hm	-7086
▁gsm	-7087
▁1502	-7088
▁1603	-7089
ardo	-7090
▁him	-7091
▁12000	-7092
▁secur	-7093
▁taipei	-7094
ido	-7095
▁auth	-7096
▁women	-7097
山豆頁	-7098
未攵厂	-7099
acle	-7100
▁447	-7101
▁been	-7102
▁cube	-7103
ori	-7104
▁468	-7105
▁537	-7106
▁ala	-7107
匚儿斗	-7108
▁458	-7109
▁daw	-7110
▁sap	-7111
▁1609	-7112
▁1757	-7113
▁6500	-7114
钅目	-7115
▁qs	-7116
▁bow	-7117
▁flo	-7118
▁wik	-7119
金甘	-7120
▁ls	-7121
ches	-7122
▁jet	-7123
▁kv	-7124
匕水頁	-7125
illy	-7126
▁575	-7127
▁712	-7128
▁805	-7129
▁age	-7130
▁det	-7131
▁smk	-7132
▁1487	-7133
▁report	-7134
日兆	-7135
▁534	-7136
▁dir	-7137
▁1450	-7138
▁3600	-7139
▁pasc	-7140
action	-7141
109	-7142
▁522	-7143
▁amp	-7144
▁ati	-7145
▁pia	-7146
ives	-7147
▁obs	-7148
bourg	-7149
▁mrna	-7150
▁pentium	-7151
▁fda	-7152
▁dynam	-7153
朱阝	-7154
革末	-7155
fri	-7156
▁393	-7157
▁ali	-7158
▁lie	-7159
▁anne	-7160
▁pink	-7161
▁alfred	-7162
har	-7163
▁cz	-7164
戈戈皿	-7165
inus	-7166
▁429	-7167
▁538	-7168
▁come	-7169
▁vocaloid	-7170
谷阝	-7171
▁vv	-7172
▁504	-7173
▁bes	-7174
▁usa	-7175
▁resp	-7176
vey	-7177
▁xe	-7178
▁523	-7179
ences	-7180
▁1667	-7181
▁1688	-7182
ways	-7183
▁551	-7184
火火冖火	-7185
ige	-7186
oke	-7187
▁any	-7188
▁enc	-7189
▁tvn	-7190
▁1623	-7191
▁freder	-7192
龙耳	-7193
▁ya	-7194
iron	-7195
▁536	-7196
▁1725	-7197
▁valley	-7198
▁gamespot	-7199
尢丶山	-7200
▁494	-7201
▁1370	-7202
▁hart	-7203
▁money	-7204
▁jar	-7205
▁1635	-7206
▁marsh	-7207
▁sweet	-7208
ification	-7209
▁portable	-7210
met	-7211
1000	-7212
ians	-7213
▁604	-7214
▁ost	-7215
ature	-7216
▁2023	-7217
▁auto	-7218
ande	-7219
▁relat	-7220
八刀阝	-7221
▁1578	-7222
▁active	-7223
ulat	-7224
▁675	-7225
䒑土水	-7226
iday	-7227
▁576	-7228
▁1764	-7229
▁stars	-7230
helm	-7231
▁547	-7232
▁716	-7233
目丁	-7234
▁fred	-7235
王韦	-7236
▁421	-7237
▁531	-7238
▁545	-7239
▁718	-7240
凵丨一	-7241
▁437	-7242
▁lan	-7243
▁carr	-7244
▁fast	-7245
erg	-7246
▁gd	-7247
ucle	-7248
▁624	-7249
eland	-7250
▁1728	-7251
▁jason	-7252
▁review	-7253
扌工	-7254
来贝	-7255
▁gs	-7256
stal	-7257
▁565	-7258
▁1050	-7259
▁sail	-7260
▁wester	-7261
110	-7262
口止八	-7263
▁382	-7264
▁452	-7265
▁fro	-7266
凵丨一虫	-7267
▁1759	-7268
▁body	-7269
▁hyper	-7270
▁archive	-7271
case	-7272
▁rab	-7273
▁vit	-7274
▁inte	-7275
hard	-7276
▁lud	-7277
▁tas	-7278
▁1260	-7279
▁espn	-7280
▁gate	-7281
▁shop	-7282
▁emb	-7283
▁1768	-7284
钅贝	-7285
lon	-7286
𠂊田灬非	-7287
▁1752	-7288
▁1756	-7289
▁harris	-7290
oom	-7291
▁765	-7292
▁autom	-7293
▁index	-7294
日一页	-7295
▁anna	-7296
▁hell	-7297
▁gnome	-7298
▁think	-7299
金土	-7300
木木糸	-7301
▁507	-7302
▁918	-7303
▁lcd	-7304
▁1569	-7305
▁1652	-7306
亠丷厂生刂	-7307
㐅刂	-7308
enz	-7309
hen	-7310
▁dx	-7311
▁391	-7312
▁472	-7313
▁626	-7314
▁755	-7315
▁962	-7316
▁ara	-7317
▁1150	-7318
▁1659	-7319
▁energy	-7320
▁species	-7321
木斥	-7322
ils	-7323
nel	-7324
艹冖虫	-7325
▁632	-7326
▁1758	-7327
▁roll	-7328
▁short	-7329
▁fantasy	-7330
▁658	-7331
▁fern	-7332
▁perl	-7333
▁929	-7334
▁kid	-7335
▁mut	-7336
▁fami	-7337
▁rand	-7338
▁step	-7339
▁lewis	-7340
▁roger	-7341
扌柬	-7342
▁524	-7343
▁546	-7344
▁912	-7345
▁lem	-7346
▁1601	-7347
▁original	-7348
▁557	-7349
▁acid	-7350
▁poem	-7351
▁harry	-7352
冂丨	-7353
一由心	-7354
幺芉虫	-7355
oria	-7356
▁rol	-7357
▁oper	-7358
▁struct	-7359
口自	-7360
月月刂	-7361
▁544	-7362
▁603	-7363
▁614	-7364
otion	-7365
▁mort	-7366
▁mathe	-7367
▁planet	-7368
止匕石	-7369
alis	-7370
▁577	-7371
▁termin	-7372
囗屯	-7373
asia	-7374
▁586	-7375
▁msn	-7376
▁1632	-7377
火韦	-7378
禾儿頁	-7379
oper	-7380
▁fem	-7381
▁1664	-7382
▁1729	-7383
▁7500	-7384
▁castle	-7385
time	-7386
▁527	-7387
▁barb	-7388
▁tell	-7389
▁countdown	-7390
▁1466	-7391
▁lock	-7392
elo	-7393
火火阝	-7394
endo	-7395
▁477	-7396
▁pic	-7397
▁1654	-7398
▁ital	-7399
▁freed	-7400
yan	-7401
▁lm	-7402
ancy	-7403
▁516	-7404
▁1733	-7405
▁adhd	-7406
▁blog	-7407
▁look	-7408
▁complex	-7409
host	-7410
▁667	-7411
▁1457	-7412
len	-7413
八刀心	-7414
▁467	-7415
▁561	-7416
▁nan	-7417
▁neo	-7418
scape	-7419
▁1604	-7420
▁cost	-7421
▁march	-7422
ifi	-7423
imo	-7424
▁did	-7425
▁soh	-7426
▁case	-7427
▁spect	-7428
▁version	-7429
ht	-7430
bre	-7431
镸彡毛	-7432
▁493	-7433
ether	-7434
▁being	-7435
▁differ	-7436
aver	-7437
▁444	-7438
▁456	-7439
▁496	-7440
▁mand	-7441
▁snow	-7442
omy	-7443
teau	-7444
▁aer	-7445
▁bol	-7446
▁cut	-7447
▁1567	-7448
▁492	-7449
▁rib	-7450
▁pascal	-7451
▁anthony	-7452
ione	-7453
ennis	-7454
▁1655	-7455
𠃊目	-7456
▁kb	-7457
ners	-7458
▁487	-7459
▁684	-7460
▁714	-7461
▁mhz	-7462
▁1613	-7463
▁1684	-7464
▁coll	-7465
ulu	-7466
▁kap	-7467
▁npc	-7468
peria	-7469
▁1638	-7470
▁bart	-7471
▁pra	-7472
▁1584	-7473
▁metro	-7474
火欠	-7475
▁596	-7476
▁634	-7477
▁915	-7478
▁mys	-7479
▁1701	-7480
▁cath	-7481
▁food	-7482
▁wong	-7483
▁solar	-7484
▁xi	-7485
▁464	-7486
▁568	-7487
▁1612	-7488
▁1626	-7489
▁juan	-7490
▁nokia	-7491
𠃊目小	-7492
ized	-7493
▁628	-7494
▁vip	-7495
▁1572	-7496
▁1767	-7497
▁cash	-7498
een	-7499
▁bp	-7500
▁jp	-7501
宀八串	-7502
tran	-7503
▁sak	-7504
▁1369	-7505
▁1540	-7506
▁1614	-7507
▁hein	-7508
▁applic	-7509
▁machine	-7510
dit	-7511
⺊口乚	-7512
▁446	-7513
▁598	-7514
▁668	-7515
▁enterprise	-7516
olic	-7517
▁484	-7518
▁498	-7519
▁kur	-7520
▁vcd	-7521
▁trib	-7522
▁holdings	-7523
▁commission	-7524
▁christopher	-7525
▁interactive	-7526
tz	-7527
▁651	-7528
▁cia	-7529
inder	-7530
▁avex	-7531
▁hosp	-7532
▁ryan	-7533
▁davis	-7534
▁alexand	-7535
目于	-7536
▁4°	-7537
▁559	-7538
▁636	-7539
▁969	-7540
▁ufo	-7541
itect	-7542
thers	-7543
▁season	-7544
scr	-7545
▁541	-7546
▁719	-7547
▁fis	-7548
▁1595	-7549
▁gene	-7550
▁path	-7551
▁gamec	-7552
fly	-7553
女又巾	-7554
▁1350	-7555
▁cart	-7556
▁classic	-7557
门隹	-7558
▁1721	-7559
钅甘	-7560
𠂇巾阝	-7561
atan	-7562
▁441	-7563
▁629	-7564
▁748	-7565
▁1478	-7566
▁1526	-7567
▁rank	-7568
▁sens	-7569
▁engineering	-7570
lu	-7571
eno	-7572
pur	-7573
onic	-7574
▁818	-7575
▁gas	-7576
▁nin	-7577
▁1589	-7578
▁1713	-7579
▁xperia	-7580
▁731	-7581
▁hub	-7582
▁1751	-7583
rum	-7584
一由寸	-7585
▁1575	-7586
▁1754	-7587
intosh	-7588
▁miller	-7589
忄千	-7590
▁973	-7591
▁atr	-7592
▁hms	-7593
▁sud	-7594
▁wilhelm	-7595
▁elizabeth	-7596
氵里	-7597
▁483	-7598
▁812	-7599
▁923	-7600
▁cav	-7601
▁3166	-7602
▁exper	-7603
▁orient	-7604
ress	-7605
▁449	-7606
▁616	-7607
▁863	-7608
▁ful	-7609
▁vor	-7610
▁ud	-7611
一丂页	-7612
oche	-7613
▁434	-7614
▁482	-7615
▁905	-7616
▁tap	-7617
▁capt	-7618
▁kore	-7619
女丑	-7620
▁dk	-7621
▁562	-7622
▁685	-7623
▁704	-7624
▁751	-7625
▁936	-7626
▁rud	-7627
▁tag	-7628
▁based	-7629
oa	-7630
▁alg	-7631
▁calif	-7632
▁product	-7633
▁department	-7634
八刀木	-7635
itan	-7636
▁489	-7637
▁1639	-7638
agar	-7639
▁526	-7640
▁666	-7641
▁nak	-7642
▁tnt	-7643
▁1469	-7644
▁1561	-7645
▁1766	-7646
▁gord	-7647
▁past	-7648
▁514	-7649
▁623	-7650
▁gib	-7651
▁rick	-7652
▁smap	-7653
▁directx	-7654
▁706	-7655
▁759	-7656
▁hyp	-7657
▁itv	-7658
▁jane	-7659
▁mail	-7660
▁wash	-7661
▁showcase	-7662
丷夫己	-7663
▁635	-7664
▁826	-7665
▁zip	-7666
特一八糸	-7667
ension	-7668
▁pseud	-7669
▁cx	-7670
rian	-7671
▁517	-7672
▁587	-7673
▁602	-7674
▁682	-7675
▁876	-7676
berry	-7677
▁1280	-7678
▁1658	-7679
▁room	-7680
▁arena	-7681
inn	-7682
icip	-7683
▁30°	-7684
▁756	-7685
▁813	-7686
▁1753	-7687
▁1761	-7688
▁memory	-7689
▁2°	-7690
▁539	-7691
▁597	-7692
▁613	-7693
▁681	-7694
▁isa	-7695
▁tang	-7696
▁amazon	-7697
▁vent	-7698
▁californ	-7699
门三	-7700
扌丸𧘇	-7701
music	-7702
▁bigbang	-7703
oshi	-7704
▁469	-7705
▁tog	-7706
▁spot	-7707
▁piece	-7708
▁perfect	-7709
▁government	-7710
▁mw	-7711
▁471	-7712
▁478	-7713
▁488	-7714
▁558	-7715
▁609	-7716
▁oly	-7717
▁1690	-7718
▁3300	-7719
cht	-7720
osph	-7721
▁ccd	-7722
▁dre	-7723
未攵厂牛	-7724
▁dash	-7725
▁diam	-7726
▁allen	-7727
▁macos	-7728
▁advanced	-7729
ones	-7730
▁571	-7731
▁823	-7732
▁bun	-7733
▁1587	-7734
▁1707	-7735
▁1732	-7736
kn	-7737
ales	-7738
sche	-7739
▁914	-7740
▁oce	-7741
▁atom	-7742
ference	-7743
▁victoria	-7744
钅巴	-7745
etta	-7746
▁573	-7747
▁927	-7748
▁sad	-7749
▁1685	-7750
▁gamer	-7751
▁architect	-7752
䒑土心	-7753
▁688	-7754
▁das	-7755
iment	-7756
▁1496	-7757
▁twins	-7758
▁pga	-7759
羊䒑口阝	-7760
▁vinc	-7761
ential	-7762
▁howard	-7763
纟非	-7764
cat	-7765
▁1475	-7766
▁1593	-7767
▁andr	-7768
▁need	-7769
▁peace	-7770
▁hospital	-7771
azz	-7772
▁637	-7773
▁vic	-7774
▁1520	-7775
py	-7776
豸才	-7777
uda	-7778
▁qt	-7779
igan	-7780
onia	-7781
▁817	-7782
▁945	-7783
▁jas	-7784
𠂉大巨木	-7785
03	-7786
王玉	-7787
▁6°	-7788
anny	-7789
▁459	-7790
▁588	-7791
▁638	-7792
▁811	-7793
▁997	-7794
▁hem	-7795
▁lev	-7796
▁1524	-7797
▁gran	-7798
▁symb	-7799
▁universal	-7800
石本	-7801
rod	-7802
ifer	-7803
▁816	-7804
▁vhs	-7805
▁1607	-7806
▁ling	-7807
orough	-7808
▁industr	-7809
▁republic	-7810
lv	-7811
hal	-7812
▁574	-7813
▁821	-7814
▁975	-7815
▁cis	-7816
业㡀	-7817
▁721	-7818
▁928	-7819
▁las	-7820
under	-7821
▁turbo	-7822
▁ultra	-7823
金戉	-7824
▁656	-7825
▁1710	-7826
▁1718	-7827
▁1726	-7828
ea	-7829
arm	-7830
▁eu	-7831
▁eug	-7832
▁mes	-7833
▁gaon	-7834
▁imag	-7835
山由	-7836
峴灬又	-7837
mark	-7838
▁948	-7839
▁hab	-7840
▁feel	-7841
enberg	-7842
▁clark	-7843
▁formation	-7844
辶入	-7845
aria	-7846
▁497	-7847
▁1460	-7848
▁1611	-7849
▁catal	-7850
▁storm	-7851
▁airport	-7852
𠁣𠃛隹	-7853
▁463	-7854
▁542	-7855
▁563	-7856
▁725	-7857
𠂊田灬方	-7858
900	-7859
ski	-7860
▁572	-7861
▁esp	-7862
▁pul	-7863
▁rca	-7864
▁1737	-7865
▁brun	-7866
▁gram	-7867
▁pain	-7868
▁polit	-7869
▁natural	-7870
乃小	-7871
bow	-7872
▁543	-7873
▁735	-7874
asure	-7875
▁1530	-7876
▁1555	-7877
▁1717	-7878
▁bios	-7879
▁matthe	-7880
▁western	-7881
▁youtuber	-7882
▁nl	-7883
bers	-7884
▁521	-7885
▁708	-7886
▁nic	-7887
▁vin	-7888
epend	-7889
▁1453	-7890
▁gamecube	-7891
▁revolution	-7892
口木火	-7893
eman	-7894
olis	-7895
▁zen	-7896
imate	-7897
▁1588	-7898
▁ther	-7899
▁studies	-7900
120	-7901
acs	-7902
冂一谷	-7903
▁002	-7904
▁686	-7905
▁722	-7906
▁khan	-7907
冂一谷又土	-7908
▁attack	-7909
▁mn	-7910
hedr	-7911
▁579	-7912
▁582	-7913
▁775	-7914
▁atm	-7915
▁1380	-7916
▁1675	-7917
▁nucle	-7918
▁roman	-7919
hl	-7920
口言	-7921
艹且	-7922
▁702	-7923
▁824	-7924
人一口阝	-7925
▁1130	-7926
▁1454	-7927
▁1532	-7928
▁1657	-7929
▁scope	-7930
氵巳	-7931
fan	-7932
▁nv	-7933
more	-7934
▁633	-7935
▁796	-7936
▁1430	-7937
▁1715	-7938
▁penn	-7939
▁cloud	-7940
het	-7941
ente	-7942
▁643	-7943
▁908	-7944
▁edu	-7945
▁kel	-7946
▁lun	-7947
▁1525	-7948
▁cycl	-7949
▁dear	-7950
▁hack	-7951
▁france	-7952
▁support	-7953
文口	-7954
石隹	-7955
车乚	-7956
𠂉丹	-7957
峴灬大	-7958
atch	-7959
▁474	-7960
▁578	-7961
▁986	-7962
▁kad	-7963
山见	-7964
agu	-7965
ogo	-7966
▁pw	-7967
▁461	-7968
▁nap	-7969
丨丨比米	-7970
▁1523	-7971
▁1666	-7972
▁1679	-7973
▁gary	-7974
ype	-7975
▁937	-7976
▁ncc	-7977
▁nob	-7978
▁1738	-7979
▁lion	-7980
▁exile	-7981
oi	-7982
大火	-7983
▁965	-7984
▁bos	-7985
▁put	-7986
▁cass	-7987
▁local	-7988
▁prime	-7989
▁triple	-7990
gas	-7991
▁8°	-7992
▁wc	-7993
口贝阝	-7994
▁808	-7995
▁1681	-7996
▁kick	-7997
▁match	-7998
ination	-7999
▁antonio	-8000
▁championship	-8001
必皿	-8002
rid	-8003
ysis	-8004
▁919	-8005
▁1591	-8006
▁1714	-8007
▁1747	-8008
▁nova	-8009
▁security	-8010
钅不	-8011
▁fd	-8012
▁xf	-8013
口口瓦	-8014
木木止	-8015
bell	-8016
fore	-8017
▁608	-8018
▁902	-8019
▁1481	-8020
▁1731	-8021
mc	-8022
lav	-8023
▁996	-8024
▁1492	-8025
▁1734	-8026
▁mall	-8027
▁want	-8028
▁888	-8029
▁1581	-8030
▁cool	-8031
▁olymp	-8032
▁644	-8033
▁649	-8034
▁657	-8035
▁698	-8036
▁971	-8037
▁dlc	-8038
▁dsp	-8039
▁ric	-8040
▁1514	-8041
▁andy	-8042
▁viii	-8043
▁donald	-8044
▁independ	-8045
一未	-8046
疒羊	-8047
阝垂	-8048
lim	-8049
口止重	-8050
ulus	-8051
▁arn	-8052
▁shin	-8053
▁then	-8054
bb	-8055
uff	-8056
▁ck	-8057
乛耳攵心	-8058
▁1633	-8059
▁1641	-8060
▁1653	-8061
rs	-8062
丿丿火	-8063
ross	-8064
▁ble	-8065
▁⿰⿰⿱	-8066
▁pear	-8067
02	-8068
竹世	-8069
rot	-8070
▁aq	-8071
▁bj	-8072
𠂇子攵	-8073
arts	-8074
tech	-8075
▁hud	-8076
ancer	-8077
craft	-8078
▁1564	-8079
▁1722	-8080
▁dick	-8081
▁xiii	-8082
▁contr	-8083
▁plaza	-8084
▁california	-8085
𠂉𠃓	-8086
bol	-8087
iac	-8088
▁7°	-8089
▁569	-8090
▁709	-8091
▁806	-8092
▁828	-8093
▁pep	-8094
acter	-8095
▁1672	-8096
▁kind	-8097
▁naver	-8098
iph	-8099
usa	-8100
幺芉寸	-8101
▁947	-8102
antic	-8103
▁yosh	-8104
▁command	-8105
月井	-8106
▁473	-8107
▁595	-8108
▁689	-8109
▁875	-8110
▁1739	-8111
▁epic	-8112
▁mond	-8113
▁self	-8114
▁johnny	-8115
▁through	-8116
aku	-8117
haus	-8118
▁659	-8119
▁cos	-8120
▁intell	-8121
民日	-8122
▁1°	-8123
odon	-8124
wick	-8125
▁012	-8126
▁761	-8127
▁hav	-8128
▁1742	-8129
▁moham	-8130
▁singap	-8131
▁481	-8132
▁cond	-8133
▁commer	-8134
▁princip	-8135
▁mathemat	-8136
▁wu	-8137
▁pod	-8138
▁1697	-8139
▁bord	-8140
▁logo	-8141
▁civil	-8142
▁vision	-8143
▁premium	-8144
▁macintosh	-8145
agne	-8146
▁642	-8147
▁687	-8148
▁738	-8149
▁886	-8150
▁dub	-8151
▁hur	-8152
▁cccc	-8153
bridge	-8154
▁treat	-8155
▁carlos	-8156
雨非	-8157
arc	-8158
gie	-8159
gon	-8160
▁004	-8161
▁593	-8162
▁768	-8163
▁924	-8164
▁hxd	-8165
▁pil	-8166
▁1563	-8167
▁xl	-8168
日一毛	-8169
▁662	-8170
▁951	-8171
▁1605	-8172
▁1744	-8173
▁dual	-8174
▁grav	-8175
▁openg	-8176
▁living	-8177
▁another	-8178
▁forever	-8179
王禹	-8180
石木	-8181
pla	-8182
▁nk	-8183
agen	-8184
iful	-8185
▁564	-8186
▁rim	-8187
itive	-8188
▁bass	-8189
▁shir	-8190
▁25000	-8191
vc	-8192
虫斗	-8193
town	-8194
▁653	-8195
▁785	-8196
ilton	-8197
istry	-8198
▁tree	-8199
▁middle	-8200
▁513	-8201
▁827	-8202
count	-8203
▁font	-8204
▁palm	-8205
▁years	-8206
▁orange	-8207
bury	-8208
▁599	-8209
▁641	-8210
▁692	-8211
▁819	-8212
▁957	-8213
▁kay	-8214
▁ras	-8215
▁1665	-8216
▁cosm	-8217
▁quad	-8218
ography	-8219
▁medium	-8220
覀示刂	-8221
▁90°	-8222
▁ein	-8223
▁thr	-8224
▁1709	-8225
▁hugh	-8226
lection	-8227
▁return	-8228
▁against	-8229
▁francisco	-8230
amo	-8231
inte	-8232
▁741	-8233
▁913	-8234
▁1749	-8235
▁army	-8236
▁page	-8237
▁image	-8238
▁perfor	-8239
▁friends	-8240
▁dreamcast	-8241
stra	-8242
sung	-8243
vard	-8244
▁020	-8245
▁676	-8246
▁955	-8247
▁lil	-8248
ienne	-8249
▁1415	-8250
▁1602	-8251
▁dota	-8252
▁fate	-8253
▁lear	-8254
▁asian	-8255
▁prote	-8256
▁sailor	-8257
▁661	-8258
▁798	-8259
▁ach	-8260
istic	-8261
▁dave	-8262
▁sent	-8263
▁anderson	-8264
ains	-8265
▁594	-8266
▁683	-8267
▁933	-8268
ische	-8269
▁ange	-8270
▁easy	-8271
▁ccccff	-8272
▁medical	-8273
▁television	-8274
▁mf	-8275
▁25°	-8276
▁566	-8277
▁guy	-8278
▁sie	-8279
ening	-8280
▁cdma	-8281
office	-8282
edy	-8283
sky	-8284
▁fs	-8285
▁ug	-8286
anch	-8287
greg	-8288
ween	-8289
▁584	-8290
▁646	-8291
▁1673	-8292
▁2024	-8293
▁these	-8294
▁follow	-8295
▁integr	-8296
丷田	-8297
mur	-8298
丷田日	-8299
口寸灬	-8300
lass	-8301
phal	-8302
▁491	-8303
▁652	-8304
▁⿱⿳⿳	-8305
▁1576	-8306
▁azure	-8307
▁ghost	-8308
▁legend	-8309
▁margar	-8310
▁country	-8311
▁community	-8312
bu	-8313
hn	-8314
350	-8315
orf	-8316
oul	-8317
▁iz	-8318
▁1669	-8319
icy	-8320
wart	-8321
▁lac	-8322
▁whe	-8323
uster	-8324
▁kent	-8325
▁wang	-8326
▁fp	-8327
▁hg	-8328
▁nf	-8329
▁wm	-8330
▁wp	-8331
夫丷页	-8332
擊灬阝	-8333
▁647	-8334
▁fit	-8335
▁1741	-8336
▁freebsd	-8337
非虫	-8338
uto	-8339
ashi	-8340
▁979	-8341
▁jal	-8342
▁sed	-8343
▁songs	-8344
▁exchange	-8345
▁コ	-8346
zzo	-8347
▁829	-8348
▁toy	-8349
弋一止贝	-8350
▁1001	-8351
▁1180	-8352
▁giov	-8353
▁orch	-8354
▁singapore	-8355
女臣	-8356
▁ou	-8357
▁tp	-8358
▁726	-8359
▁917	-8360
▁jes	-8361
▁tax	-8362
▁1127	-8363
▁honey	-8364
耒巴	-8365
▁729	-8366
▁occ	-8367
▁1536	-8368
▁hope	-8369
▁jord	-8370
▁maur	-8371
script	-8372
▁trust	-8373
ulation	-8374
▁democr	-8375
▁wright	-8376
dh	-8377
nn	-8378
aco	-8379
orph	-8380
▁845	-8381
▁881	-8382
▁938	-8383
▁use	-8384
▁1230	-8385
uction	-8386
▁audio	-8387
▁bruce	-8388
▁labor	-8389
▁monster	-8390
▁pictures	-8391
禺頁	-8392
mont	-8393
▁754	-8394
▁lou	-8395
itude	-8396
▁1699	-8397
▁canada	-8398
▁debian	-8399
▁flight	-8400
▁village	-8401
aa	-8402
▁822	-8403
▁chu	-8404
▁ident	-8405
▁opens	-8406
hu	-8407
np	-8408
▁20°	-8409
▁855	-8410
▁exo	-8411
world	-8412
▁1537	-8413
▁1542	-8414
▁1599	-8415
▁josh	-8416
阝止	-8417
ulf	-8418
立十糸	-8419
▁848	-8420
▁935	-8421
▁exe	-8422
▁gaga	-8423
put	-8424
aten	-8425
uary	-8426
▁bom	-8427
▁pip	-8428
▁1519	-8429
▁ferr	-8430
▁raid	-8431
▁jimmy	-8432
▁lamigo	-8433
150	-8434
bis	-8435
odes	-8436
▁592	-8437
▁916	-8438
▁995	-8439
▁gaz	-8440
▁tet	-8441
estra	-8442
▁demo	-8443
▁grad	-8444
▁3°	-8445
▁981	-8446
▁pel	-8447
▁wan	-8448
rence	-8449
▁1558	-8450
▁1617	-8451
▁sequ	-8452
▁shah	-8453
▁urban	-8454
▁author	-8455
▁german	-8456
ez	-8457
105	-8458
oca	-8459
▁968	-8460
▁lip	-8461
▁lambda	-8462
iq	-8463
土丘	-8464
ras	-8465
▁sq	-8466
▁eye	-8467
▁leo	-8468
ament	-8469
▁1687	-8470
▁1712	-8471
▁coco	-8472
▁eyes	-8473
▁fund	-8474
▁admin	-8475
▁delta	-8476
▁change	-8477
▁spirit	-8478
▁temple	-8479
歹央	-8480
▁733	-8481
▁kol	-8482
▁lad	-8483
▁1676	-8484
▁ward	-8485
▁30000	-8486
▁kelly	-8487
▁window	-8488
▁culture	-8489
勹言	-8490
艹果	-8491
金皮	-8492
▁dw	-8493
冖车阝	-8494
ilog	-8495
▁809	-8496
stone	-8497
▁1597	-8498
▁must	-8499
▁spin	-8500
▁motor	-8501
▁nation	-8502
▁netscape	-8503
火乐	-8504
iri	-8505
▁ks	-8506
lete	-8507
space	-8508
▁benn	-8509
▁gent	-8510
▁keep	-8511
▁gordon	-8512
金本	-8513
340	-8514
▁ek	-8515
冂卄禾	-8516
▁669	-8517
▁784	-8518
▁843	-8519
▁976	-8520
▁nature	-8521
113	-8522
pent	-8523
stad	-8524
▁699	-8525
▁766	-8526
▁bak	-8527
▁bed	-8528
▁1566	-8529
▁1674	-8530
▁texas	-8531
▁winter	-8532
▁evolution	-8533
▁835	-8534
▁904	-8535
▁beh	-8536
▁bert	-8537
▁bing	-8538
▁walker	-8539
ules	-8540
▁745	-8541
▁horn	-8542
▁medic	-8543
▁ocean	-8544
▁quick	-8545
▁factory	-8546
钅必	-8547
iet	-8548
▁oz	-8549
othy	-8550
angel	-8551
▁1527	-8552
▁benj	-8553
▁gray	-8554
▁quest	-8555
▁histor	-8556
▁sevent	-8557
▁between	-8558
aru	-8559
uka	-8560
anni	-8561
▁732	-8562
▁cec	-8563
▁1220	-8564
▁1435	-8565
▁1522	-8566
▁1656	-8567
▁bomb	-8568
▁ober	-8569
▁root	-8570
▁activ	-8571
▁cover	-8572
▁yellow	-8573
▁beautiful	-8574
米果	-8575
▁010	-8576
▁724	-8577
▁771	-8578
overy	-8579
▁whit	-8580
▁perfume	-8581
▁conference	-8582
phy	-8583
uts	-8584
riel	-8585
▁882	-8586
▁885	-8587
▁934	-8588
▁gay	-8589
▁sdk	-8590
▁tat	-8591
▁1371	-8592
▁1606	-8593
▁1746	-8594
▁beau	-8595
▁cert	-8596
▁forest	-8597
▁environ	-8598
▁matthew	-8599
▁frederick	-8600
▁sj	-8601
▁678	-8602
▁3800	-8603
▁score	-8604
▁opengl	-8605
▁jacques	-8606
▁samsung	-8607
wd	-8608
日火	-8609
氵日	-8610
里灬	-8611
▁xy	-8612
▁781	-8613
▁hug	-8614
▁imm	-8615
▁url	-8616
▁1579	-8617
▁kitt	-8618
▁midi	-8619
chester	-8620
atherine	-8621
08	-8622
日方	-8623
emb	-8624
iers	-8625
▁695	-8626
▁988	-8627
▁sle	-8628
火火冖水	-8629
▁morn	-8630
iation	-8631
▁search	-8632
▁president	-8633
bf	-8634
iser	-8635
▁1024	-8636
▁1512	-8637
▁stay	-8638
▁vc	-8639
▁plc	-8640
▁wol	-8641
▁grow	-8642
▁kara	-8643
月甫	-8644
emy	-8645
▁ibn	-8646
▁ral	-8647
▁1472	-8648
▁ville	-8649
▁financ	-8650
05	-8651
nik	-8652
▁px	-8653
anne	-8654
reen	-8655
rett	-8656
▁015	-8657
▁814	-8658
▁887	-8659
糸言糸手	-8660
▁1711	-8661
▁boot	-8662
▁used	-8663
氵来	-8664
讠夬	-8665
▁xt	-8666
reis	-8667
▁ans	-8668
▁1508	-8669
▁1510	-8670
▁1702	-8671
▁alliance	-8672
gio	-8673
kan	-8674
wig	-8675
▁vp	-8676
▁462	-8677
▁788	-8678
▁803	-8679
▁neg	-8680
▁ria	-8681
ising	-8682
▁daily	-8683
▁scien	-8684
▁display	-8685
yo	-8686
ced	-8687
▁786	-8688
▁1440	-8689
▁beach	-8690
▁would	-8691
▁blackp	-8692
rov	-8693
stic	-8694
▁016	-8695
▁703	-8696
▁842	-8697
▁kun	-8698
▁lic	-8699
▁oem	-8700
凵丨凵示	-8701
eless	-8702
▁mate	-8703
▁wars	-8704
▁moore	-8705
▁origin	-8706
▁douglas	-8707
▁transform	-8708
rat	-8709
▁vf	-8710
口口页	-8711
▁691	-8712
▁998	-8713
▁acp	-8714
▁apm	-8715
▁ian	-8716
▁flow	-8717
▁brook	-8718
▁fight	-8719
▁plant	-8720
▁shinee	-8721
adi	-8722
▁763	-8723
▁amb	-8724
▁fur	-8725
▁nit	-8726
▁1276	-8727
▁repr	-8728
▁creek	-8729
▁wanna	-8730
▁knight	-8731
钅川	-8732
▁kp	-8733
▁663	-8734
▁679	-8735
▁939	-8736
▁wifi	-8737
▁canon	-8738
▁sarah	-8739
▁agency	-8740
▁princess	-8741
bw	-8742
iah	-8743
imi	-8744
▁ez	-8745
▁iw	-8746
iner	-8747
▁672	-8748
▁1663	-8749
▁idol	-8750
▁prov	-8751
▁henri	-8752
▁malay	-8753
▁russell	-8754
ards	-8755
itar	-8756
▁783	-8757
▁seg	-8758
▁1464	-8759
▁cole	-8760
▁jpeg	-8761
▁remix	-8762
ador	-8763
▁such	-8764
ologies	-8765
▁professional	-8766
dn	-8767
kir	-8768
▁728	-8769
▁865	-8770
▁922	-8771
▁alc	-8772
inton	-8773
▁incl	-8774
▁valve	-8775
▁jonathan	-8776
▁003	-8777
▁books	-8778
▁kingdom	-8779
▁creative	-8780
▁christmas	-8781
虫冉	-8782
bal	-8783
▁hc	-8784
▁lh	-8785
iler	-8786
▁025	-8787
▁677	-8788
▁897	-8789
▁gui	-8790
▁kot	-8791
▁1534	-8792
▁1703	-8793
▁twice	-8794
ju	-8795
bes	-8796
oko	-8797
亠斌手	-8798
izon	-8799
▁591	-8800
▁iup	-8801
▁1682	-8802
▁psych	-8803
▁skype	-8804
▁advent	-8805
▁diamond	-8806
▁brothers	-8807
▁electric	-8808
fort	-8809
▁743	-8810
▁846	-8811
▁amx	-8812
▁ner	-8813
𠂊田灬工	-8814
▁1719	-8815
▁host	-8816
▁tourn	-8817
▁before	-8818
▁benjamin	-8819
▁noinclude	-8820
夫夫车	-8821
isch	-8822
▁961	-8823
▁982	-8824
▁obe	-8825
▁1040	-8826
▁1420	-8827
▁1528	-8828
▁iron	-8829
▁nint	-8830
nc	-8831
tp	-8832
abe	-8833
edd	-8834
ema	-8835
pal	-8836
▁792	-8837
▁895	-8838
▁kai	-8839
▁kor	-8840
▁1010	-8841
▁1277	-8842
▁1668	-8843
▁solid	-8844
▁trade	-8845
ability	-8846
▁premier	-8847
▁673	-8848
▁952	-8849
▁pon	-8850
▁scar	-8851
▁yours	-8852
ku	-8853
饣耳	-8854
▁ji	-8855
习习廾	-8856
bird	-8857
oker	-8858
▁862	-8859
▁aac	-8860
▁acg	-8861
▁1506	-8862
▁1552	-8863
▁hydro	-8864
▁pixel	-8865
ired	-8866
▁804	-8867
▁877	-8868
▁bib	-8869
mance	-8870
▁1070	-8871
▁1340	-8872
▁coup	-8873
▁mast	-8874
▁hunter	-8875
▁administr	-8876
rah	-8877
▁794	-8878
▁906	-8879
▁ipa	-8880
aceae	-8881
▁1234	-8882
▁child	-8883
04	-8884
aj	-8885
土隶	-8886
idi	-8887
mum	-8888
▁030	-8889
▁883	-8890
▁ark	-8891
▁ges	-8892
▁stu	-8893
▁1275	-8894
▁1705	-8895
▁earl	-8896
▁constr	-8897
钅朱	-8898
side	-8899
▁909	-8900
▁nom	-8901
▁southern	-8902
oft	-8903
▁bw	-8904
tion	-8905
▁664	-8906
▁aba	-8907
▁jak	-8908
ample	-8909
▁jtbc	-8910
▁moment	-8911
▁publish	-8912
▁without	-8913
▁memorial	-8914
▁ws	-8915
▁967	-8916
▁1390	-8917
▁burg	-8918
▁ford	-8919
▁gust	-8920
▁trin	-8921
▁billy	-8922
otte	-8923
▁052	-8924
▁852	-8925
▁864	-8926
▁pav	-8927
▁psv	-8928
▁smile	-8929
▁still	-8930
▁heaven	-8931
▁washington	-8932
band	-8933
feld	-8934
roll	-8935
▁665	-8936
▁833	-8937
▁gig	-8938
▁mul	-8939
▁1513	-8940
▁1516	-8941
▁lumia	-8942
▁morris	-8943
▁proble	-8944
▁bernard	-8945
▁thunder	-8946
▁together	-8947
mod	-8948
▁744	-8949
▁838	-8950
▁874	-8951
▁etc	-8952
▁ips	-8953
▁lon	-8954
▁tru	-8955
ibili	-8956
▁1546	-8957
▁gill	-8958
▁franz	-8959
▁spacex	-8960
▁blackpink	-8961
▁uf	-8962
亠斌山	-8963
▁779	-8964
▁hir	-8965
▁1125	-8966
▁1330	-8967
▁1557	-8968
▁born	-8969
▁soph	-8970
▁youth	-8971
几止	-8972
aha	-8973
hol	-8974
▁fw	-8975
▁696	-8976
▁752	-8977
▁898	-8978
▁dod	-8979
▁wow	-8980
▁1596	-8981
▁vice	-8982
▁total	-8983
▁margaret	-8984
口止石	-8985
olar	-8986
▁080	-8987
▁tib	-8988
▁1451	-8989
▁1543	-8990
▁trad	-8991
uve	-8992
罂一阝	-8993
▁753	-8994
▁807	-8995
▁889	-8996
▁946	-8997
▁cub	-8998
▁gym	-8999
▁ntt	-9000
▁1499	-9001
▁april	-9002
▁crystal	-9003
▁freedom	-9004
▁bilibili	-9005
▁virginia	-9006
eb	-9007
言斤	-9008
金朱	-9009
alo	-9010
▁631	-9011
▁723	-9012
▁892	-9013
▁dut	-9014
𠂊田一屯	-9015
ittor	-9016
▁synd	-9017
▁wise	-9018
▁environment	-9019
弓耳	-9020
ring	-9021
▁693	-9022
lands	-9023
lines	-9024
▁1678	-9025
▁8500	-9026
▁quant	-9027
▁select	-9028
▁intellig	-9029
07	-9030
大車	-9031
山大車	-9032
eron	-9033
ping	-9034
▁694	-9035
▁956	-9036
▁hunt	-9037
▁distrib	-9038
▁municip	-9039
▁nintendo	-9040
06	-9041
lag	-9042
▁ej	-9043
▁saw	-9044
▁1554	-9045
▁minor	-9046
cus	-9047
tha	-9048
▁lux	-9049
▁buff	-9050
▁nike	-9051
▁charl	-9052
▁grace	-9053
▁sigma	-9054
▁morning	-9055
户非	-9056
▁uv	-9057
▁847	-9058
▁851	-9059
▁866	-9060
eller	-9061
▁1066	-9062
▁1716	-9063
▁mother	-9064
▁primary	-9065
▁analysis	-9066
虫甘	-9067
▁gim	-9068
▁pom	-9069
▁sit	-9070
▁spy	-9071
▁tma	-9072
▁1011	-9073
▁bish	-9074
▁sang	-9075
ything	-9076
▁england	-9077
車乚	-9078
▁sz	-9079
▁za	-9080
ration	-9081
▁lovel	-9082
▁study	-9083
▁oliver	-9084
▁sciences	-9085
口黑	-9086
hai	-9087
▁9°	-9088
▁rg	-9089
▁ue	-9090
▁654	-9091
▁789	-9092
▁993	-9093
▁dll	-9094
anche	-9095
▁1170	-9096
▁1445	-9097
▁1548	-9098
▁1594	-9099
▁bond	-9100
kar	-9101
▁iu	-9102
▁vm	-9103
▁wy	-9104
▁xc	-9105
aron	-9106
eyer	-9107
▁005	-9108
▁006	-9109
▁769	-9110
▁869	-9111
▁943	-9112
▁1320	-9113
▁1382	-9114
▁2050	-9115
▁3700	-9116
▁4800	-9117
▁bird	-9118
▁coff	-9119
▁cris	-9120
▁prod	-9121
▁shot	-9122
▁bobby	-9123
▁della	-9124
▁stock	-9125
▁french	-9126
▁present	-9127
▁technologies	-9128
emi	-9129
▁958	-9130
▁972	-9131
▁983	-9132
▁987	-9133
▁fig	-9134
▁nem	-9135
▁rex	-9136
▁1270	-9137
▁1692	-9138
▁staff	-9139
▁movement	-9140
气川	-9141
虫丘	-9142
ono	-9143
▁lex	-9144
illon	-9145
point	-9146
▁abdul	-9147
108	-9148
116	-9149
▁utf	-9150
antis	-9151
▁requ	-9152
▁snap	-9153
sy	-9154
wo	-9155
onda	-9156
▁931	-9157
▁bod	-9158
▁rif	-9159
▁1240	-9160
▁1691	-9161
▁guide	-9162
▁value	-9163
▁ground	-9164
▁material	-9165
二女	-9166
几歹	-9167
107	-9168
jan	-9169
oco	-9170
▁hz	-9171
镸彡冉	-9172
ocus	-9173
▁896	-9174
▁899	-9175
▁dsm	-9176
▁nts	-9177
▁tin	-9178
osoph	-9179
▁1704	-9180
▁ming	-9181
▁pure	-9182
▁sncf	-9183
▁belie	-9184
▁graham	-9185
▁zu	-9186
▁764	-9187
▁797	-9188
▁942	-9189
▁959	-9190
▁kec	-9191
▁exec	-9192
▁iata	-9193
▁user	-9194
▁charlie	-9195
aba	-9196
▁rm	-9197
color	-9198
▁1030	-9199
▁1480	-9200
▁1694	-9201
▁berg	-9202
▁cand	-9203
▁crit	-9204
▁shel	-9205
▁columb	-9206
▁rainbow	-9207
▁lawrence	-9208
kv	-9209
▁697	-9210
▁844	-9211
▁adm	-9212
▁1686	-9213
▁cafe	-9214
▁chic	-9215
▁tiger	-9216
▁worms	-9217
▁running	-9218
▁financial	-9219
犭弗	-9220
艹氏	-9221
gate	-9222
▁831	-9223
▁977	-9224
▁oak	-9225
▁oliv	-9226
vention	-9227
▁factor	-9228
▁productions	-9229
木巴	-9230
目目	-9231
▁841	-9232
▁944	-9233
▁pir	-9234
ience	-9235
▁1385	-9236
▁1442	-9237
▁give	-9238
▁mong	-9239
▁them	-9240
▁tolk	-9241
▁justin	-9242
▁velvet	-9243
▁giovanni	-9244
▁thompson	-9245
▁performance	-9246
lia	-9247
ario	-9248
ilia	-9249
▁013	-9250
▁736	-9251
▁746	-9252
▁891	-9253
▁aps	-9254
▁1515	-9255
▁1608	-9256
▁dean	-9257
▁teen	-9258
▁tommy	-9259
▁jordan	-9260
▁norman	-9261
dl	-9262
104	-9263
sta	-9264
▁782	-9265
▁839	-9266
▁954	-9267
▁hid	-9268
▁wir	-9269
▁away	-9270
▁appro	-9271
▁steven	-9272
px	-9273
tc	-9274
木柬	-9275
uer	-9276
▁tn	-9277
目八阝	-9278
立十手	-9279
▁734	-9280
▁776	-9281
▁992	-9282
▁amc	-9283
▁1190	-9284
▁1360	-9285
▁1433	-9286
▁baron	-9287
▁reich	-9288
王己	-9289
eco	-9290
eda	-9291
hib	-9292
zza	-9293
▁jb	-9294
base	-9295
lock	-9296
▁kil	-9297
▁rgb	-9298
▁1278	-9299
▁1743	-9300
▁4200	-9301
▁lane	-9302
▁hamilton	-9303
▁messenger	-9304
豕豕	-9305
丿䖻虫	-9306
lard	-9307
▁haz	-9308
▁why	-9309
▁1696	-9310
▁brig	-9311
▁cann	-9312
▁chun	-9313
▁later	-9314
▁phill	-9315
▁tolkien	-9316
103	-9317
roy	-9318
▁vb	-9319
ante	-9320
omet	-9321
ouse	-9322
▁674	-9323
▁963	-9324
▁aks	-9325
▁typ	-9326
▁1693	-9327
▁chung	-9328
▁sainte	-9329
▁universit	-9330
wc	-9331
wr	-9332
ledge	-9333
▁1677	-9334
▁care	-9335
▁clear	-9336
▁doctor	-9337
▁promotion	-9338
▁federation	-9339
aca	-9340
log	-9341
乀丿虫	-9342
𠂊蛖⺀	-9343
osis	-9344
▁795	-9345
▁nel	-9346
▁1404	-9347
▁multi	-9348
▁police	-9349
▁century	-9350
▁application	-9351
uli	-9352
uru	-9353
▁cem	-9354
▁jin	-9355
▁1140	-9356
lr	-9357
虫虫皿	-9358
ythm	-9359
▁932	-9360
▁cbe	-9361
▁eag	-9362
▁1549	-9363
▁1708	-9364
▁echo	-9365
friend	-9366
▁scheme	-9367
aps	-9368
▁799	-9369
▁941	-9370
▁1470	-9371
▁3400	-9372
▁ifpi	-9373
▁pick	-9374
▁grant	-9375
▁connect	-9376
▁destiny	-9377
102	-9378
106	-9379
ben	-9380
▁fb	-9381
▁774	-9382
▁894	-9383
▁bmg	-9384
odore	-9385
▁1129	-9386
▁1279	-9387
▁duke	-9388
▁thor	-9389
▁references	-9390
ei	-9391
讠几	-9392
kov	-9393
▁ei	-9394
亠斌子	-9395
alle	-9396
orum	-9397
rain	-9398
▁017	-9399
▁vvv	-9400
▁1403	-9401
▁buck	-9402
▁hend	-9403
▁mack	-9404
▁maker	-9405
▁rapper	-9406
hem	-9407
火火刂	-9408
illo	-9409
▁bam	-9410
▁upd	-9411
目目隹又	-9412
owski	-9413
▁dram	-9414
▁40000	-9415
▁coast	-9416
▁northern	-9417
土亚	-9418
khz	-9419
▁jd	-9420
𠂒口阝	-9421
▁854	-9422
▁tls	-9423
▁tol	-9424
▁1533	-9425
▁2900	-9426
▁nine	-9427
▁iupac	-9428
▁symph	-9429
▁thing	-9430
▁multip	-9431
▁provid	-9432
▁gabriel	-9433
▁justice	-9434
王月	-9435
竹艮	-9436
iod	-9437
竹艮皿	-9438
▁clo	-9439
丰丰豆阝	-9440
▁1135	-9441
▁1204	-9442
▁1376	-9443
▁both	-9444
▁less	-9445
▁phen	-9446
▁rights	-9447
▁deutsch	-9448
▁broadcast	-9449
氵尺	-9450
asi	-9451
boy	-9452
omi	-9453
▁060	-9454
▁jew	-9455
hedral	-9456
▁kitty	-9457
formula	-9458
▁railway	-9459
冂口木	-9460
brid	-9461
room	-9462
▁964	-9463
▁nig	-9464
cloud	-9465
▁1448	-9466
▁1706	-9467
▁clos	-9468
▁jung	-9469
▁much	-9470
▁yang	-9471
▁nexus	-9472
▁third	-9473
▁while	-9474
▁legacy	-9475
▁observ	-9476
▁travel	-9477
木比	-9478
lec	-9479
pin	-9480
pos	-9481
▁749	-9482
▁778	-9483
▁878	-9484
▁893	-9485
▁rid	-9486
▁sib	-9487
▁korea	-9488
▁metrop	-9489
土艮	-9490
戊臣	-9491
衤夬	-9492
203	-9493
▁832	-9494
▁868	-9495
shire	-9496
▁mang	-9497
▁release	-9498
hy	-9499
vert	-9500
▁671	-9501
▁989	-9502
▁null	-9503
▁terr	-9504
▁animation	-9505
▁electronic	-9506
wal	-9507
▁qf	-9508
bank	-9509
mund	-9510
▁070	-9511
▁1206	-9512
▁1214	-9513
▁1392	-9514
▁half	-9515
▁kath	-9516
▁meet	-9517
▁today	-9518
▁compet	-9519
▁private	-9520
iles	-9521
▁984	-9522
▁bra	-9523
▁ctv	-9524
▁jst	-9525
▁koh	-9526
▁yak	-9527
▁1539	-9528
▁1551	-9529
▁craig	-9530
▁gener	-9531
▁holly	-9532
▁prize	-9533
▁robinson	-9534
cer	-9535
▁040	-9536
▁791	-9537
eline	-9538
▁leop	-9539
▁luis	-9540
▁50000	-9541
▁jerry	-9542
▁milit	-9543
▁beauty	-9544
▁flying	-9545
▁scient	-9546
小丿衣	-9547
omer	-9548
▁dei	-9549
▁hob	-9550
▁xen	-9551
ality	-9552
▁arab	-9553
▁dennis	-9554
▁motion	-9555
▁yoshiki	-9556
石𠃓	-9557
iae	-9558
mit	-9559
rus	-9560
yon	-9561
▁991	-9562
▁cum	-9563
▁shaw	-9564
▁event	-9565
▁australia	-9566
zh	-9567
ppm	-9568
▁884	-9569
▁atv	-9570
▁own	-9571
丨丨比几	-9572
▁1406	-9573
▁saab	-9574
▁cyber	-9575
▁extra	-9576
▁sever	-9577
▁gogoro	-9578
▁gallery	-9579
矛𧘇	-9580
钅皮	-9581
anta	-9582
▁858	-9583
▁ghz	-9584
▁kaz	-9585
▁pau	-9586
▁1120	-9587
▁ansi	-9588
▁sohc	-9589
▁vogue	-9590
rig	-9591
氵𠃓火	-9592
目八缶	-9593
▁739	-9594
▁974	-9595
▁nag	-9596
▁vpn	-9597
▁glad	-9598
▁tong	-9599
▁wish	-9600
▁palazzo	-9601
rh	-9602
力口衣	-9603
▁10°	-9604
▁jen	-9605
▁veh	-9606
▁1138	-9607
▁bull	-9608
▁find	-9609
▁artist	-9610
▁lovelive	-9611
▁philosoph	-9612
aux	-9613
▁836	-9614
▁849	-9615
▁pie	-9616
▁1215	-9617
▁early	-9618
▁oracle	-9619
▁shadow	-9620
▁concept	-9621
▁million	-9622
arn	-9623
mel	-9624
▁tk	-9625
▁sod	-9626
▁icao	-9627
▁wool	-9628
zj	-9629
ava	-9630
▁857	-9631
▁867	-9632
▁ads	-9633
ended	-9634
▁1695	-9635
▁bour	-9636
▁dise	-9637
▁brain	-9638
▁emule	-9639
▁keith	-9640
▁campbell	-9641
▁partners	-9642
山山	-9643
疒山	-9644
钅巨	-9645
ads	-9646
亠矛𧘇	-9647
ader	-9648
anus	-9649
eder	-9650
iven	-9651
▁isp	-9652
▁gmail	-9653
▁element	-9654
▁discovery	-9655
gg	-9656
白匕	-9657
竹戋	-9658
▁gg	-9659
▁amu	-9660
▁nim	-9661
▁3100	-9662
▁calc	-9663
▁ping	-9664
▁ster	-9665
▁chrom	-9666
▁sense	-9667
▁flower	-9668
▁grande	-9669
▁pocket	-9670
fun	-9671
▁853	-9672
▁873	-9673
▁roc	-9674
▁1225	-9675
▁1388	-9676
▁1439	-9677
▁corp	-9678
▁fine	-9679
▁ship	-9680
▁chall	-9681
▁animax	-9682
▁protoc	-9683
▁heinrich	-9684
干干	-9685
oen	-9686
▁hb	-9687
idea	-9688
▁772	-9689
▁837	-9690
▁mud	-9691
▁otto	-9692
▁crazy	-9693
▁circle	-9694
▁normal	-9695
▁cathedral	-9696
▁872	-9697
▁lif	-9698
▁sip	-9699
▁1375	-9700
▁1413	-9701
▁1509	-9702
▁india	-9703
edo	-9704
gel	-9705
irus	-9706
lich	-9707
▁sco	-9708
▁udp	-9709
▁wer	-9710
▁1020	-9711
▁1671	-9712
▁grey	-9713
▁domin	-9714
▁excel	-9715
▁swing	-9716
王页	-9717
nar	-9718
▁amy	-9719
▁guard	-9720
▁suite	-9721
水水	-9722
禾末	-9723
123	-9724
pie	-9725
立十纟	-9726
igen	-9727
olla	-9728
sten	-9729
▁011	-9730
▁793	-9731
▁859	-9732
▁ecl	-9733
▁lav	-9734
▁raj	-9735
▁tow	-9736
井一八言	-9737
shine	-9738
▁1407	-9739
ipedia	-9740
▁retrie	-9741
▁879	-9742
▁dag	-9743
▁suc	-9744
osaur	-9745
▁bund	-9746
▁node	-9747
amatan	-9748
▁crown	-9749
▁empire	-9750
▁senior	-9751
▁stream	-9752
▁kenneth	-9753
rn	-9754
毛求	-9755
▁fg	-9756
rica	-9757
▁994	-9758
▁deg	-9759
▁fib	-9760
▁1060	-9761
▁gain	-9762
▁sept	-9763
▁sugar	-9764
▁simple	-9765
▁stewart	-9766
▁kecamatan	-9767
su	-9768
人工	-9769
121	-9770
1911	-9771
▁949	-9772
▁atc	-9773
▁bis	-9774
liner	-9775
▁1328	-9776
▁1498	-9777
▁scot	-9778
▁beast	-9779
▁drama	-9780
▁magnet	-9781
▁marine	-9782
▁structure	-9783
礻韦	-9784
ail	-9785
aza	-9786
uil	-9787
yes	-9788
▁gf	-9789
▁lf	-9790
king	-9791
▁afi	-9792
▁ich	-9793
▁1290	-9794
▁1494	-9795
▁1698	-9796
▁bent	-9797
▁ntfs	-9798
▁colon	-9799
▁prest	-9800
▁annivers	-9801
▁rockstar	-9802
iza	-9803
tes	-9804
▁fia	-9805
▁1356	-9806
▁1412	-9807
▁shoot	-9808
▁ernest	-9809
▁winner	-9810
▁bgcolor	-9811
▁character	-9812
钅戉	-9813
ket	-9814
▁hl	-9815
▁fra	-9816
▁raf	-9817
▁1425	-9818
▁quar	-9819
▁sata	-9820
▁trna	-9821
ecraft	-9822
▁liter	-9823
iu	-9824
kit	-9825
▁gap	-9826
▁tum	-9827
▁1531	-9828
▁cmos	-9829
▁ivan	-9830
stream	-9831
▁anime	-9832
▁check	-9833
▁ralph	-9834
▁hudson	-9835
▁includ	-9836
▁powerpc	-9837
▁aircraft	-9838
▁economic	-9839
▁training	-9840
bat	-9841
▁eh	-9842
esta	-9843
iste	-9844
▁rip	-9845
opter	-9846
▁manga	-9847
pet	-9848
▁dn	-9849
▁nx	-9850
▁773	-9851
▁aid	-9852
▁toul	-9853
▁stein	-9854
oki	-9855
▁yf	-9856
▁zo	-9857
etty	-9858
▁966	-9859
▁ela	-9860
▁shang	-9861
▁woman	-9862
▁around	-9863
▁nathan	-9864
▁strong	-9865
▁anniversary	-9866
王龙	-9867
目冘	-9868
櫵一又	-9869
chin	-9870
elin	-9871
ilis	-9872
▁jis	-9873
▁vie	-9874
▁xxx	-9875
▁1067	-9876
▁1295	-9877
▁1504	-9878
▁june	-9879
ighter	-9880
▁barry	-9881
gp	-9882
二儿	-9883
虫皿	-9884
lus	-9885
▁nb	-9886
▁953	-9887
𠂊田灬弗	-9888
▁1137	-9889
▁1501	-9890
▁1503	-9891
▁gith	-9892
▁trax	-9893
▁basil	-9894
▁chand	-9895
▁films	-9896
igne	-9897
ting	-9898
wiki	-9899
▁60°	-9900
▁ome	-9901
▁rio	-9902
▁1219	-9903
▁1421	-9904
▁1449	-9905
▁hang	-9906
▁imdb	-9907
▁crist	-9908
▁continu	-9909
oku	-9910
char	-9911
▁maz	-9912
▁tsh	-9913
▁vas	-9914
▁1160	-9915
▁barr	-9916
▁tank	-9917
▁visa	-9918
▁writ	-9919
▁faith	-9920
▁github	-9921
▁hybrid	-9922
eca	-9923
ede	-9924
nas	-9925
▁aux	-9926
一厶土阝	-9927
▁epis	-9928
▁rout	-9929
▁salv	-9930
▁seventeen	-9931
bla	-9932
can	-9933
owa	-9934
ango	-9935
enti	-9936
▁018	-9937
ances	-9938
▁1518	-9939
▁appe	-9940
▁draw	-9941
▁site	-9942
▁mechan	-9943
yu	-9944
爿未	-9945
王几	-9946
ipse	-9947
link	-9948
▁856	-9949
▁duc	-9950
▁ens	-9951
▁try	-9952
▁1016	-9953
▁baker	-9954
▁logic	-9955
▁melon	-9956
▁aggreg	-9957
▁example	-9958
▁fortran	-9959
▁stanley	-9960
氵龙	-9961
白木	-9962
虫乚	-9963
冂丶阝	-9964
imes	-9965
unch	-9966
▁mta	-9967
▁sul	-9968
▁tee	-9969
▁wah	-9970
丷八白木	-9971
▁1364	-9972
▁drop	-9973
▁many	-9974
▁soho	-9975
▁lucasarts	-9976
eli	-9977
▁051	-9978
▁psr	-9979
enson	-9980
▁1424	-9981
▁chief	-9982
▁paper	-9983
▁strateg	-9984
丿干	-9985
女以	-9986
gir	-9987
▁vh	-9988
ever	-9989
▁834	-9990
▁bog	-9991
▁riv	-9992
▁ufc	-9993
▁corn	-9994
▁kamp	-9995
▁prix	-9996
▁larry	-9997
▁raymond	-9998
▁professor	-9999
wi	-10000
iola	-10001
▁871	-10002
▁fav	-10003
▁gmb	-10004
▁bapt	-10005
▁flag	-10006
▁ernst	-10007
竹肅	-10008
艹豆	-10009
jet	-10010
▁rw	-10011
aser	-10012
▁dup	-10013
▁ptt	-10014
▁sti	-10015
▁wim	-10016
uther	-10017
▁1507	-10018
▁180°	-10019
▁arms	-10020
▁risc	-10021
▁sult	-10022
▁⿰⿱⿱⿻	-10023
▁titan	-10024
▁canton	-10025
▁signal	-10026
▁vincent	-10027
▁yourself	-10028
▁communications	-10029
386	-10030
cal	-10031
kes	-10032
▁dg	-10033
etic	-10034
▁1394	-10035
▁suica	-10036
▁during	-10037
▁conserv	-10038
气乃	-10039
▁qr	-10040
ende	-10041
fish	-10042
▁nhl	-10043
▁tec	-10044
人人龰心	-10045
▁heat	-10046
▁hide	-10047
▁holy	-10048
▁init	-10049
▁candy	-10050
▁shock	-10051
▁region	-10052
▁captain	-10053
钅土	-10054
▁kep	-10055
▁tir	-10056
▁1115	-10057
▁1211	-10058
▁forum	-10059
▁smack	-10060
▁sonic	-10061
▁resour	-10062
木予	-10063
mid	-10064
▁ces	-10065
▁csm	-10066
▁kas	-10067
▁wes	-10068
▁1110	-10069
▁1409	-10070
▁cord	-10071
▁jazz	-10072
▁belle	-10073
▁canad	-10074
▁bishop	-10075
▁marcus	-10076
䱘木	-10077
礻乃	-10078
▁tx	-10079
土土阝	-10080
▁agm	-10081
▁nes	-10082
▁1402	-10083
▁each	-10084
▁rush	-10085
▁rhythm	-10086
fire	-10087
▁ktv	-10088
▁heav	-10089
▁race	-10090
▁phase	-10091
▁range	-10092
▁carter	-10093
广阝	-10094
360	-10095
isy	-10096
iya	-10097
ogn	-10098
set	-10099
sia	-10100
uge	-10101
勹巳刂	-10102
▁ana	-10103
▁nog	-10104
uring	-10105
▁1224	-10106
▁gren	-10107
▁roth	-10108
▁samp	-10109
▁gangan	-10110
▁myster	-10111
▁sunshine	-10112
vd	-10113
口我	-10114
火屯	-10115
▁wn	-10116
▁048	-10117
▁bae	-10118
▁mlb	-10119
othing	-10120
▁butter	-10121
▁repres	-10122
▁islands	-10123
▁solution	-10124
▁independent	-10125
疒𠃓	-10126
rik	-10127
▁iq	-10128
▁lz	-10129
口止皮	-10130
ares	-10131
izer	-10132
mers	-10133
▁lod	-10134
▁ole	-10135
▁1213	-10136
▁1471	-10137
▁emba	-10138
▁rate	-10139
▁sold	-10140
▁tard	-10141
▁vill	-10142
▁herbert	-10143
▁nab	-10144
▁ssl	-10145
▁tau	-10146
▁tea	-10147
▁umb	-10148
▁vac	-10149
▁1111	-10150
▁gmbh	-10151
▁vern	-10152
▁terry	-10153
▁dreams	-10154
口甘	-10155
▁hh	-10156
儿丨金	-10157
news	-10158
▁053	-10159
▁rah	-10160
▁sns	-10161
▁too	-10162
▁pedro	-10163
▁interface	-10164
口人	-10165
𠂇冂	-10166
cin	-10167
龶月见	-10168
▁40°	-10169
▁gly	-10170
▁jab	-10171
▁spl	-10172
▁sse	-10173
▁tes	-10174
糸言糸子	-10175
kreis	-10176
▁1185	-10177
▁1399	-10178
▁joint	-10179
▁morgan	-10180
▁bn	-10181
▁kj	-10182
asha	-10183
onne	-10184
▁dro	-10185
▁1428	-10186
▁bust	-10187
▁cust	-10188
▁rule	-10189
▁11000	-10190
▁alive	-10191
▁monte	-10192
▁complete	-10193
uh	-10194
彳来	-10195
orp	-10196
櫵一大	-10197
ased	-10198
▁aub	-10199
▁cbc	-10200
▁hut	-10201
▁laz	-10202
▁vik	-10203
▁5200	-10204
▁bure	-10205
▁loop	-10206
▁size	-10207
lement	-10208
▁price	-10209
▁safari	-10210
艹必	-10211
oka	-10212
▁bk	-10213
aste	-10214
card	-10215
▁861	-10216
▁pid	-10217
▁1126	-10218
▁1210	-10219
▁1438	-10220
▁dawn	-10221
▁wake	-10222
itation	-10223
▁transit	-10224
ittorrent	-10225
▁architecture	-10226
ims	-10227
士示隶	-10228
▁cow	-10229
▁hil	-10230
▁ran	-10231
▁tok	-10232
𠂊田灬身	-10233
▁1227	-10234
▁insp	-10235
▁sung	-10236
▁cooper	-10237
▁communication	-10238
竹肃	-10239
ovi	-10240
▁ui	-10241
▁054	-10242
▁hed	-10243
▁llo	-10244
▁mck	-10245
▁1075	-10246
▁1217	-10247
▁1429	-10248
▁chal	-10249
▁innov	-10250
▁always	-10251
▁friday	-10252
▁matrix	-10253
▁minister	-10254
冂山	-10255
310	-10256
apa	-10257
olas	-10258
orus	-10259
▁sbl	-10260
▁⿱⿳⿻	-10261
▁cele	-10262
▁lanc	-10263
▁wait	-10264
亠丷厂彡頁	-10265
▁alphago	-10266
▁gregory	-10267
▁organization	-10268
115	-10269
231	-10270
cia	-10271
▁jc	-10272
shop	-10273
▁ngo	-10274
opsis	-10275
ovich	-10276
▁hung	-10277
▁kala	-10278
▁mala	-10279
enburg	-10280
▁bloom	-10281
▁griff	-10282
▁laura	-10283
▁assist	-10284
▁evangel	-10285
▁greatest	-10286
▁smackdown	-10287
厶口阝	-10288
enge	-10289
▁jur	-10290
▁mrs	-10291
▁1025	-10292
▁bear	-10293
▁gonz	-10294
▁mile	-10295
▁pant	-10296
▁sister	-10297
▁vector	-10298
▁chicago	-10299
▁eclipse	-10300
▁theater	-10301
▁document	-10302
▁丶	-10303
226	-10304
avi	-10305
pat	-10306
blue	-10307
onna	-10308
▁cgi	-10309
▁dab	-10310
▁itu	-10311
▁wto	-10312
ields	-10313
▁tact	-10314
▁chiang	-10315
▁solaris	-10316
▁cinemasc	-10317
▁graphics	-10318
▁minecraft	-10319
117	-10320
dale	-10321
ined	-10322
▁45°	-10323
丷干丸虫	-10324
▁1253	-10325
▁1274	-10326
▁1387	-10327
▁1405	-10328
▁gian	-10329
▁same	-10330
▁sean	-10331
▁wasp	-10332
▁federal	-10333
▁jessica	-10334
▁represent	-10335
▁retrieved	-10336
乡隹土	-10337
人人且	-10338
come	-10339
▁ats	-10340
ingen	-10341
stand	-10342
▁1265	-10343
▁1410	-10344
▁1495	-10345
▁1497	-10346
▁dong	-10347
▁cheng	-10348
▁genie	-10349
▁helen	-10350
▁mysql	-10351
▁fusion	-10352
▁someth	-10353
▁warren	-10354
eh	-10355
月甲	-10356
金衣	-10357
eler	-10358
▁aeg	-10359
▁dot	-10360
▁sph	-10361
一中冖石	-10362
丨丨比金	-10363
特一八皮	-10364
▁1122	-10365
▁1374	-10366
▁stem	-10367
▁altern	-10368
▁ludwig	-10369
▁cultural	-10370
山鬼	-10371
nic	-10372
uba	-10373
uta	-10374
▁lb	-10375
burn	-10376
ichi	-10377
▁ade	-10378
▁aes	-10379
▁bmp	-10380
▁cox	-10381
▁roh	-10382
inary	-10383
▁0000	-10384
▁1161	-10385
▁pand	-10386
▁pled	-10387
09	-10388
艹虫	-10389
金不	-10390
ahn	-10391
chu	-10392
▁pn	-10393
elia	-10394
wald	-10395
▁kos	-10396
▁len	-10397
▁lit	-10398
▁wwf	-10399
▁1465	-10400
▁ikon	-10401
▁hills	-10402
▁content	-10403
▁leonard	-10404
250	-10405
aby	-10406
aci	-10407
tel	-10408
the	-10409
▁dsi	-10410
▁nfc	-10411
▁1216	-10412
▁1414	-10413
▁1488	-10414
▁rise	-10415
▁conso	-10416
▁estate	-10417
▁eastern	-10418
▁foreign	-10419
▁include	-10420
▁macbook	-10421
▁platform	-10422
▁municipal	-10423
▁wikipedia	-10424
aks	-10425
etz	-10426
lem	-10427
八刀土	-10428
urst	-10429
wich	-10430
▁cfm	-10431
▁kaw	-10432
▁xii	-10433
▁1229	-10434
▁1381	-10435
▁truth	-10436
▁myspace	-10437
▁official	-10438
▁progress	-10439
▁ultimate	-10440
亻巨	-10441
ades	-10442
izen	-10443
▁019	-10444
▁024	-10445
▁abu	-10446
▁woo	-10447
▁1018	-10448
▁help	-10449
▁datab	-10450
▁glass	-10451
▁bittorrent	-10452
tb	-10453
扌垂	-10454
del	-10455
raf	-10456
var	-10457
▁kf	-10458
▁wz	-10459
cent	-10460
enet	-10461
▁lag	-10462
▁tig	-10463
▁1235	-10464
▁1476	-10465
▁assemb	-10466
▁disney	-10467
▁oxford	-10468
▁sultan	-10469
▁learning	-10470
▁australian	-10471
▁industrial	-10472
vm	-10473
扌东	-10474
etf	-10475
ugg	-10476
▁zf	-10477
重力灬	-10478
cole	-10479
enda	-10480
▁bio	-10481
▁drm	-10482
▁1002	-10483
▁1139	-10484
▁1155	-10485
▁clay	-10486
▁curt	-10487
▁kink	-10488
▁nato	-10489
▁afric	-10490
▁devil	-10491
▁param	-10492
▁shift	-10493
▁claude	-10494
▁amazing	-10495
▁manager	-10496
犭九	-10497
艹目	-10498
钅乙	-10499
▁ih	-10500
ived	-10501
roph	-10502
▁ore	-10503
▁sis	-10504
▁wit	-10505
▁1116	-10506
▁1367	-10507
▁nano	-10508
ership	-10509
▁birth	-10510
▁serge	-10511
▁better	-10512
▁cherry	-10513
▁indian	-10514
▁palace	-10515
▁genesis	-10516
▁airlines	-10517
▁students	-10518
廴由	-10519
木斤白	-10520
auer	-10521
edes	-10522
igny	-10523
▁nct	-10524
▁nds	-10525
ensen	-10526
▁1004	-10527
▁1123	-10528
▁bott	-10529
▁cnbc	-10530
▁fash	-10531
▁lite	-10532
bourne	-10533
▁danny	-10534
▁route	-10535
▁choice	-10536
▁lovely	-10537
▁piazza	-10538
▁nicholas	-10539
122	-10540
▁xd	-10541
ager	-10542
enne	-10543
etti	-10544
gins	-10545
olin	-10546
▁009	-10547
▁gcc	-10548
▁suz	-10549
▁1086	-10550
▁4400	-10551
▁bahn	-10552
▁joey	-10553
▁lotus	-10554
▁oscar	-10555
▁spark	-10556
▁congress	-10557
▁protocol	-10558
▁jf	-10559
丷夫言	-10560
八厶心	-10561
flow	-10562
▁035	-10563
▁gob	-10564
▁1236	-10565
▁1241	-10566
▁brav	-10567
▁spac	-10568
▁stev	-10569
▁medicine	-10570
▁transfer	-10571
▁investment	-10572
舟中	-10573
bas	-10574
ieu	-10575
rim	-10576
ength	-10577
iform	-10578
▁1418	-10579
▁4300	-10580
▁neil	-10581
▁vari	-10582
▁vvvf	-10583
▁beats	-10584
▁thank	-10585
▁athlon	-10586
▁domain	-10587
▁pledis	-10588
▁current	-10589
米巴	-10590
金卯	-10591
opa	-10592
pad	-10593
issa	-10594
▁022	-10595
▁ddg	-10596
▁elf	-10597
▁llc	-10598
▁rer	-10599
▁sos	-10600
▁suv	-10601
umont	-10602
▁1189	-10603
▁1351	-10604
▁4700	-10605
▁beam	-10606
▁sham	-10607
▁large	-10608
▁swift	-10609
▁teach	-10610
▁different	-10611
125	-10612
iev	-10613
tea	-10614
▁fh	-10615
车斤土	-10616
▁kum	-10617
▁ssd	-10618
丶葭月土	-10619
▁1119	-10620
▁1208	-10621
▁1377	-10622
▁viet	-10623
ession	-10624
▁chain	-10625
▁focus	-10626
▁intro	-10627
▁theor	-10628
▁virus	-10629
▁believe	-10630
▁victory	-10631
bel	-10632
des	-10633
tek	-10634
▁sx	-10635
耳耳頁	-10636
asis	-10637
itas	-10638
▁ftp	-10639
▁nod	-10640
▁pew	-10641
▁rus	-10642
▁blues	-10643
▁gross	-10644
▁nancy	-10645
▁coffee	-10646
▁letter	-10647
▁allmusic	-10648
▁aggregate	-10649
▁francesco	-10650
▁cinemascore	-10651
▁毌	-10652
口羊	-10653
iot	-10654
izz	-10655
▁zn	-10656
幺幺子	-10657
alia	-10658
ises	-10659
lett	-10660
▁1271	-10661
▁1329	-10662
▁1333	-10663
▁rosa	-10664
olitan	-10665
▁kings	-10666
▁openoffice	-10667
126	-10668
uen	-10669
▁xv	-10670
idas	-10671
imir	-10672
ours	-10673
pers	-10674
rise	-10675
uten	-10676
▁lap	-10677
▁sov	-10678
▁1044	-10679
▁1128	-10680
▁dipl	-10681
▁flex	-10682
▁move	-10683
▁13000	-10684
▁affair	-10685
▁bright	-10686
▁rogers	-10687
▁disease	-10688
▁symbian	-10689
▁marshall	-10690
▁military	-10691
111	-10692
low	-10693
▁hf	-10694
▁ov	-10695
look	-10696
▁ald	-10697
▁bai	-10698
▁buk	-10699
▁ced	-10700
▁eif	-10701
▁pam	-10702
白丿十阝	-10703
▁1153	-10704
▁1218	-10705
▁1477	-10706
▁1485	-10707
▁karen	-10708
▁krist	-10709
▁maxim	-10710
▁safety	-10711
▁update	-10712
▁valent	-10713
▁account	-10714
rup	-10715
▁tj	-10716
ivan	-10717
mbps	-10718
▁dah	-10719
▁fuj	-10720
▁hus	-10721
▁mcg	-10722
▁1358	-10723
▁1397	-10724
▁boule	-10725
▁laugh	-10726
▁comics	-10727
▁height	-10728
▁mirror	-10729
▁constit	-10730
▁episode	-10731
▁infinite	-10732
酉甘	-10733
enu	-10734
乀丿月	-10735
apur	-10736
iden	-10737
ilus	-10738
▁hun	-10739
▁kla	-10740
▁yan	-10741
layer	-10742
▁1141	-10743
▁1283	-10744
▁1391	-10745
▁elle	-10746
▁hdmi	-10747
▁rrna	-10748
▁tiff	-10749
▁vall	-10750
▁cinema	-10751
▁policy	-10752
▁orchestra	-10753
▁something	-10754
lac	-10755
vre	-10756
▁jum	-10757
orton	-10758
▁1162	-10759
▁1373	-10760
▁1419	-10761
▁bala	-10762
▁adrian	-10763
▁anders	-10764
▁barbara	-10765
▁defense	-10766
▁gamerank	-10767
▁universe	-10768
木乍	-10769
bye	-10770
▁014	-10771
▁gan	-10772
▁raz	-10773
▁vog	-10774
uchus	-10775
▁0001	-10776
▁1035	-10777
▁1099	-10778
▁1372	-10779
▁caen	-10780
▁ebay	-10781
▁near	-10782
ularia	-10783
▁alone	-10784
▁close	-10785
▁klein	-10786
▁venus	-10787
▁fellow	-10788
▁ericsson	-10789
▁frontier	-10790
▁gamerankings	-10791
冫牙	-10792
女朱	-10793
ipop	-10794
orpg	-10795
vais	-10796
▁pdp	-10797
▁ups	-10798
▁1221	-10799
▁1482	-10800
▁dial	-10801
▁expo	-10802
▁kirk	-10803
itions	-10804
▁chies	-10805
▁crypt	-10806
▁pract	-10807
▁steel	-10808
▁thumb	-10809
乡葭	-10810
249	-10811
pen	-10812
乡葭阝	-10813
body	-10814
▁aus	-10815
▁csi	-10816
▁geo	-10817
▁ion	-10818
▁lob	-10819
▁ntv	-10820
▁voc	-10821
ivity	-10822
water	-10823
▁1048	-10824
▁1118	-10825
▁1226	-10826
▁1285	-10827
▁1348	-10828
▁1427	-10829
▁16000	-10830
▁18000	-10831
▁eagle	-10832
▁synth	-10833
▁argent	-10834
▁bureau	-10835
▁philipp	-10836
▁疋	-10837
纟寸	-10838
iao	-10839
osc	-10840
▁jh	-10841
▁oo	-10842
ober	-10843
▁ate	-10844
▁tsa	-10845
▁uci	-10846
▁1258	-10847
▁1314	-10848
▁avbw	-10849
▁feed	-10850
▁kang	-10851
▁berry	-10852
▁eddie	-10853
▁react	-10854
▁ready	-10855
▁sleep	-10856
▁austin	-10857
▁centro	-10858
▁nelson	-10859
▁parker	-10860
▁rachel	-10861
▁protein	-10862
rez	-10863
▁qe	-10864
凵丨又	-10865
户攵木	-10866
arin	-10867
bast	-10868
▁eid	-10869
▁phd	-10870
▁wav	-10871
▁1207	-10872
▁1282	-10873
▁1362	-10874
▁rang	-10875
▁vert	-10876
▁temper	-10877
vs	-10878
虍乎	-10879
金目	-10880
233	-10881
kel	-10882
▁rn	-10883
▁tz	-10884
uced	-10885
vest	-10886
▁bee	-10887
▁pda	-10888
▁rhe	-10889
gamer	-10890
▁late	-10891
▁maxi	-10892
▁poss	-10893
▁aaron	-10894
▁adams	-10895
▁personal	-10896
禾干	-10897
ete	-10898
gun	-10899
ieux	-10900
▁039	-10901
▁flu	-10902
▁job	-10903
andal	-10904
where	-10905
▁1071	-10906
▁1073	-10907
▁1281	-10908
▁drum	-10909
▁flat	-10910
▁gaud	-10911
▁kern	-10912
▁susan	-10913
▁driver	-10914
▁fashion	-10915
eto	-10916
othe	-10917
▁090	-10918
▁ets	-10919
▁mim	-10920
▁syd	-10921
▁1013	-10922
▁1131	-10923
▁1142	-10924
▁1436	-10925
▁orth	-10926
▁fleet	-10927
▁chiesa	-10928
▁higher	-10929
▁mmorpg	-10930
▁simula	-10931
bot	-10932
tic	-10933
aton	-10934
lace	-10935
olia	-10936
road	-10937
▁008	-10938
▁nut	-10939
▁pok	-10940
▁wrc	-10941
utive	-10942
▁1389	-10943
▁1408	-10944
▁1455	-10945
▁elli	-10946
▁iptv	-10947
▁mama	-10948
▁evans	-10949
▁montb	-10950
▁landkreis	-10951
ll	-10952
白巴	-10953
114	-10954
dal	-10955
gro	-10956
iral	-10957
jang	-10958
type	-10959
▁cbd	-10960
▁rpm	-10961
▁zim	-10962
stadt	-10963
▁1147	-10964
▁carn	-10965
▁parl	-10966
▁rein	-10967
▁vlad	-10968
former	-10969
▁murray	-10970
▁vehicle	-10971
itis	-10972
omon	-10973
ught	-10974
ving	-10975
▁093	-10976
▁fnc	-10977
▁gba	-10978
▁pbs	-10979
▁snk	-10980
▁wiz	-10981
orrow	-10982
▁1187	-10983
▁1456	-10984
▁1461	-10985
▁emil	-10986
▁fung	-10987
▁nerv	-10988
▁wald	-10989
▁chick	-10990
▁lloyd	-10991
▁singh	-10992
▁lantis	-10993
▁constant	-10994
rc	-10995
八月	-10996
氵民	-10997
王頁	-10998
𠂆一	-10999
204	-11000
utes	-11001
▁ard	-11002
▁frs	-11003
ships	-11004
▁1183	-11005
▁1467	-11006
▁mers	-11007
▁canal	-11008
▁varia	-11009
▁shanghai	-11010
▁nn	-11011
▁xb	-11012
agan	-11013
rell	-11014
ucci	-11015
▁056	-11016
▁hin	-11017
▁1017	-11018
▁2026	-11019
▁beca	-11020
▁dock	-11021
▁verd	-11022
▁initi	-11023
▁relig	-11024
▁monkey	-11025
▁syndrome	-11026
亡阝	-11027
金必	-11028
abi	-11029
sea	-11030
amer	-11031
arth	-11032
bras	-11033
text	-11034
▁065	-11035
▁duo	-11036
▁oss	-11037
▁thy	-11038
▁1175	-11039
▁1238	-11040
▁1259	-11041
▁1416	-11042
▁cort	-11043
▁ietf	-11044
▁emacs	-11045
▁phoen	-11046
html	-11047
▁kok	-11048
▁nur	-11049
▁unt	-11050
▁1005	-11051
▁1019	-11052
▁1337	-11053
▁1398	-11054
▁apec	-11055
▁cala	-11056
▁danc	-11057
▁dome	-11058
▁para	-11059
▁rome	-11060
▁twin	-11061
▁animal	-11062
▁import	-11063
▁because	-11064
▁gilbert	-11065
▁gk	-11066
ries	-11067
▁029	-11068
▁15°	-11069
▁afl	-11070
▁pri	-11071
▁1072	-11072
▁1257	-11073
▁1346	-11074
▁leed	-11075
▁surv	-11076
▁wend	-11077
▁amiga	-11078
▁cctld	-11079
▁kkbox	-11080
▁lucky	-11081
ibility	-11082
▁diction	-11083
▁director	-11084
▁paradise	-11085
▁reaction	-11086
▁hollywood	-11087
yx	-11088
一隹	-11089
129	-11090
isi	-11091
▁dz	-11092
扌丸贝	-11093
ffic	-11094
▁021	-11095
▁gau	-11096
▁gtk	-11097
▁rum	-11098
▁sic	-11099
▁sut	-11100
▁1014	-11101
▁1121	-11102
▁1264	-11103
▁1284	-11104
▁1411	-11105
▁4600	-11106
▁loll	-11107
▁alexa	-11108
▁libre	-11109
▁perry	-11110
▁course	-11111
▁boulevard	-11112
▁selection	-11113
▁everything	-11114
▁distribution	-11115
lt	-11116
艹长	-11117
agh	-11118
夫夫車	-11119
atar	-11120
last	-11121
load	-11122
▁eco	-11123
▁eve	-11124
etime	-11125
onkey	-11126
▁1124	-11127
▁1307	-11128
▁1324	-11129
▁1355	-11130
▁mine	-11131
▁trig	-11132
▁cells	-11133
▁melody	-11134
▁member	-11135
▁chamber	-11136
▁georges	-11137
▁reference	-11138
▁technical	-11139
▁convention	-11140
亻夫	-11141
匚口	-11142
112	-11143
307	-11144
ivo	-11145
幺芉甘	-11146
▁abl	-11147
▁dft	-11148
▁spa	-11149
丶葭阝食	-11150
丿𠃌攵贝	-11151
▁1192	-11152
▁1246	-11153
▁1266	-11154
▁1365	-11155
▁1483	-11156
▁hipp	-11157
▁igbt	-11158
▁julia	-11159
▁photo	-11160
itional	-11161
▁reddit	-11162
▁stuart	-11163
gt	-11164
瓦千	-11165
mah	-11166
ocy	-11167
cial	-11168
gest	-11169
▁028	-11170
▁067	-11171
▁kem	-11172
▁lai	-11173
▁naz	-11174
▁oil	-11175
▁pcr	-11176
▁vod	-11177
▁1085	-11178
▁1101	-11179
▁1252	-11180
▁1468	-11181
▁dang	-11182
ective	-11183
▁14000	-11184
▁jeremy	-11185
▁things	-11186
▁turner	-11187
▁liberty	-11188
▁regional	-11189
akh	-11190
tty	-11191
ardi	-11192
ovan	-11193
▁bye	-11194
▁dbc	-11195
▁fad	-11196
▁tac	-11197
icket	-11198
▁boom	-11199
▁extr	-11200
▁mono	-11201
▁pred	-11202
▁sylv	-11203
urance	-11204
▁cemet	-11205
▁print	-11206
▁robot	-11207
▁camera	-11208
▁harold	-11209
▁though	-11210
▁nuclear	-11211
▁japanese	-11212
yg	-11213
讠工	-11214
abad	-11215
ibus	-11216
uche	-11217
▁gur	-11218
▁hap	-11219
▁jag	-11220
▁lyc	-11221
▁uri	-11222
▁1103	-11223
▁1113	-11224
▁1336	-11225
▁1378	-11226
▁alto	-11227
▁ultr	-11228
冂二月犬鬼	-11229
▁upper	-11230
▁stefan	-11231
月羊	-11232
氵丰	-11233
艹千	-11234
虫且	-11235
124	-11236
eni	-11237
esp	-11238
ikh	-11239
lee	-11240
▁wb	-11241
▁bgm	-11242
▁emd	-11243
▁era	-11244
▁eun	-11245
▁sax	-11246
andro	-11247
▁1143	-11248
▁1157	-11249
▁1297	-11250
▁1441	-11251
▁aero	-11252
▁guid	-11253
diepie	-11254
▁fresh	-11255
▁bullet	-11256
▁manuel	-11257
▁racing	-11258
▁forward	-11259
▁cemetery	-11260
▁imperial	-11261
▁catherine	-11262
202	-11263
agn	-11264
rys	-11265
aign	-11266
born	-11267
▁alp	-11268
▁ask	-11269
▁cet	-11270
▁kak	-11271
▁1054	-11272
▁1228	-11273
▁1287	-11274
▁2040	-11275
▁wide	-11276
istics	-11277
▁medal	-11278
▁pride	-11279
▁astron	-11280
▁trinity	-11281
▁database	-11282
▁tomorrow	-11283
▁pewdiepie	-11284
oz	-11285
erd	-11286
iley	-11287
rame	-11288
▁cvt	-11289
▁emm	-11290
▁rup	-11291
▁ssh	-11292
▁1248	-11293
▁1261	-11294
▁1395	-11295
▁1437	-11296
▁1444	-11297
▁1452	-11298
▁hash	-11299
▁sara	-11300
▁going	-11301
▁layer	-11302
▁squad	-11303
▁arnold	-11304
▁columbia	-11305
且隹	-11306
犭更	-11307
金田	-11308
ilt	-11309
▁fk	-11310
一丂瓜	-11311
inum	-11312
onse	-11313
▁kre	-11314
istar	-11315
▁1232	-11316
▁5600	-11317
▁aver	-11318
▁ella	-11319
▁stro	-11320
ternal	-11321
▁volume	-11322
▁console	-11323
▁fighter	-11324
▁hermann	-11325
▁sunrise	-11326
口皿	-11327
umn	-11328
𠂉口皿	-11329
anti	-11330
quer	-11331
▁hog	-11332
▁pps	-11333
▁rig	-11334
▁tah	-11335
▁1134	-11336
▁1205	-11337
▁1291	-11338
▁1308	-11339
▁uber	-11340
▁colin	-11341
▁label	-11342
▁georgia	-11343
▁philippe	-11344
dd	-11345
爿羊	-11346
bin	-11347
hof	-11348
▁gol	-11349
▁jor	-11350
chell	-11351
▁1034	-11352
▁1231	-11353
▁1443	-11354
▁1484	-11355
▁beck	-11356
▁chat	-11357
▁cyan	-11358
▁lily	-11359
▁piet	-11360
▁webs	-11361
▁agent	-11362
▁could	-11363
▁mario	-11364
▁fisher	-11365
▁newton	-11366
▁powers	-11367
▁survey	-11368
牛毛	-11369
酉乍	-11370
128	-11371
asp	-11372
cep	-11373
erve	-11374
ised	-11375
isen	-11376
onex	-11377
rypt	-11378
▁044	-11379
▁liu	-11380
▁pfa	-11381
track	-11382
▁1114	-11383
▁1335	-11384
▁1396	-11385
▁barc	-11386
▁crow	-11387
▁mean	-11388
▁said	-11389
▁claud	-11390
▁compos	-11391
▁device	-11392
▁nothing	-11393
女册	-11394
金乙	-11395
eme	-11396
hop	-11397
▁jj	-11398
㪭丿手	-11399
▁ipo	-11400
▁lol	-11401
▁1194	-11402
▁1223	-11403
▁1313	-11404
▁1417	-11405
▁cern	-11406
▁mans	-11407
▁nest	-11408
▁riaa	-11409
elling	-11410
uation	-11411
▁quart	-11412
▁tonight	-11413
▁toulouse	-11414
fb	-11415
dia	-11416
oga	-11417
phi	-11418
宀八土	-11419
山己见	-11420
▁amo	-11421
▁muk	-11422
▁vul	-11423
土斌攵虫	-11424
istan	-11425
▁1132	-11426
▁1156	-11427
▁1167	-11428
▁1349	-11429
▁1363	-11430
▁bald	-11431
▁male	-11432
▁sans	-11433
▁vick	-11434
▁corps	-11435
▁macau	-11436
▁posix	-11437
▁utric	-11438
duction	-11439
▁counter	-11440
讠卜	-11441
aly	-11442
aur	-11443
fet	-11444
mut	-11445
van	-11446
▁gj	-11447
口止夫	-11448
月刂见	-11449
life	-11450
▁dvb	-11451
▁ord	-11452
▁1008	-11453
▁1037	-11454
▁1042	-11455
▁3900	-11456
▁peak	-11457
▁sales	-11458
▁stern	-11459
▁celebr	-11460
▁watson	-11461
▁maurice	-11462
▁secretary	-11463
lb	-11464
亻千	-11465
虫内	-11466
epp	-11467
oly	-11468
uca	-11469
𠁣𠃛一	-11470
wall	-11471
▁kop	-11472
encer	-11473
▁cold	-11474
▁momo	-11475
▁peng	-11476
▁salt	-11477
▁trim	-11478
▁cable	-11479
▁carlo	-11480
▁geoff	-11481
▁please	-11482
▁nations	-11483
▁profile	-11484
▁working	-11485
月龙	-11486
ady	-11487
ais	-11488
apy	-11489
▁mj	-11490
amoo	-11491
ires	-11492
▁gav	-11493
▁gdi	-11494
▁hex	-11495
囗⺌日瓦	-11496
士冖一木	-11497
oshop	-11498
vince	-11499
▁1191	-11500
▁7200	-11501
▁kurt	-11502
▁sala	-11503
▁sier	-11504
▁macro	-11505
▁miguel	-11506
▁catholic	-11507
▁challenge	-11508
▁utricularia	-11509
yer	-11510
㐅乂土	-11511
omys	-11512
▁037	-11513
▁eso	-11514
▁oxy	-11515
▁pig	-11516
▁1198	-11517
▁1286	-11518
▁1325	-11519
▁1426	-11520
▁agre	-11521
▁barn	-11522
▁exid	-11523
▁luke	-11524
▁mick	-11525
▁rice	-11526
▁frequ	-11527
▁illust	-11528
▁period	-11529
▁tardis	-11530
▁infinity	-11531
▁charlotte	-11532
覀土阝	-11533
away	-11534
iman	-11535
▁dry	-11536
▁gtp	-11537
▁kra	-11538
▁vid	-11539
▁1076	-11540
▁1107	-11541
▁chel	-11542
▁atlas	-11543
▁bound	-11544
▁glory	-11545
▁sandy	-11546
▁unity	-11547
▁berlin	-11548
▁extreme	-11549
▁journey	-11550
▁lollipop	-11551
▁remember	-11552
▁following	-11553
▁photoshop	-11554
nos	-11555
▁nj	-11556
▁dio	-11557
▁eur	-11558
▁jpg	-11559
▁nay	-11560
▁pvc	-11561
▁vil	-11562
▁wei	-11563
ually	-11564
▁1323	-11565
▁1327	-11566
▁1366	-11567
▁1386	-11568
▁aiko	-11569
▁shall	-11570
▁title	-11571
▁words	-11572
▁filter	-11573
▁highway	-11574
▁chemical	-11575
▁authority	-11576
▁administration	-11577
305	-11578
zip	-11579
asse	-11580
ingo	-11581
quin	-11582
▁cyp	-11583
▁fcc	-11584
▁fps	-11585
▁1027	-11586
▁1233	-11587
▁1352	-11588
▁6600	-11589
▁appl	-11590
▁nand	-11591
▁ting	-11592
▁weap	-11593
▁ronald	-11594
▁collins	-11595
▁roberts	-11596
▁physical	-11597
vr	-11598
火斤	-11599
▁qb	-11600
▁085	-11601
▁gis	-11602
▁smg	-11603
court	-11604
▁1055	-11605
▁isab	-11606
▁wine	-11607
▁lower	-11608
▁tyler	-11609
▁inside	-11610
▁saturn	-11611
▁article	-11612
▁compact	-11613
▁ireland	-11614
▁problem	-11615
▁canadian	-11616
▁province	-11617
mt	-11618
180	-11619
uke	-11620
▁ao	-11621
ured	-11622
▁066	-11623
▁aco	-11624
▁dak	-11625
▁nos	-11626
▁1177	-11627
▁1294	-11628
▁1310	-11629
▁1345	-11630
▁5400	-11631
▁dell	-11632
▁seas	-11633
▁ucla	-11634
▁elite	-11635
▁cortex	-11636
▁spider	-11637
▁brother	-11638
▁dynamic	-11639
▁outlook	-11640
▁spotify	-11641
▁industry	-11642
mf	-11643
钅来	-11644
136	-11645
api	-11646
edi	-11647
neo	-11648
▁vk	-11649
▁dop	-11650
▁1028	-11651
▁1117	-11652
▁1146	-11653
▁1174	-11654
▁1239	-11655
▁1256	-11656
▁1273	-11657
▁5300	-11658
▁bash	-11659
▁btob	-11660
▁sull	-11661
▁navig	-11662
▁sharp	-11663
▁schools	-11664
▁showtime	-11665
cn	-11666
mor	-11667
uin	-11668
▁pj	-11669
山而页	-11670
3000	-11671
esse	-11672
hood	-11673
▁075	-11674
▁bub	-11675
▁htm	-11676
▁ioc	-11677
▁irc	-11678
rique	-11679
▁1095	-11680
▁1106	-11681
▁1136	-11682
▁1326	-11683
▁1474	-11684
▁buch	-11685
▁fell	-11686
▁isis	-11687
▁ment	-11688
▁trop	-11689
▁atenu	-11690
▁chron	-11691
▁chuck	-11692
▁jalan	-11693
▁xhtml	-11694
▁making	-11695
▁strike	-11696
▁target	-11697
▁borough	-11698
▁collect	-11699
▁vietnam	-11700
220	-11701
aye	-11702
irs	-11703
isan	-11704
▁072	-11705
▁ada	-11706
▁fus	-11707
▁scp	-11708
annon	-11709
▁hass	-11710
▁hood	-11711
▁prec	-11712
▁sword	-11713
starter	-11714
▁electro	-11715
tre	-11716
wen	-11717
▁rl	-11718
mill	-11719
▁023	-11720
▁etf	-11721
▁sag	-11722
▁wag	-11723
▁1090	-11724
▁1148	-11725
▁1203	-11726
▁1272	-11727
▁1357	-11728
▁6400	-11729
▁mint	-11730
▁push	-11731
ifying	-11732
▁heavy	-11733
▁cookie	-11734
▁father	-11735
▁phoenix	-11736
▁quarter	-11737
▁atlantic	-11738
▁starship	-11739
▁knowledge	-11740
▁operations	-11741
rp	-11742
口瓜	-11743
扌千	-11744
mol	-11745
rab	-11746
▁vy	-11747
▁xo	-11748
cell	-11749
▁092	-11750
▁haj	-11751
▁hod	-11752
▁png	-11753
anner	-11754
ators	-11755
etype	-11756
illes	-11757
▁1359	-11758
▁5800	-11759
▁hour	-11760
▁liqu	-11761
▁lung	-11762
▁encore	-11763
▁julius	-11764
▁lincol	-11765
▁johannes	-11766
▁secondary	-11767
▁protection	-11768
▁construction	-11769
uez	-11770
亠父力	-11771
aris	-11772
cycl	-11773
ecca	-11774
ores	-11775
▁afc	-11776
▁ars	-11777
▁gad	-11778
▁gto	-11779
▁psi	-11780
iving	-11781
▁1242	-11782
▁1347	-11783
▁attr	-11784
▁fuck	-11785
▁owen	-11786
▁colla	-11787
▁felix	-11788
▁therm	-11789
▁border	-11790
▁docomo	-11791
▁russian	-11792
▁campaign	-11793
▁tournament	-11794
321	-11795
lyn	-11796
zan	-11797
口耳戈	-11798
eria	-11799
erse	-11800
▁068	-11801
▁ari	-11802
▁bou	-11803
▁ffe	-11804
▁nah	-11805
▁suk	-11806
▁zam	-11807
▁1006	-11808
▁1163	-11809
▁dyna	-11810
▁fitz	-11811
▁guer	-11812
▁kate	-11813
▁save	-11814
▁combat	-11815
▁goodbye	-11816
▁lincoln	-11817
▁student	-11818
▁fernando	-11819
▁political	-11820
▁publishing	-11821
言工	-11822
jun	-11823
web	-11824
gang	-11825
▁mev	-11826
▁nir	-11827
火火冖糸	-11828
arian	-11829
▁1045	-11830
▁1078	-11831
▁1097	-11832
▁1322	-11833
▁1434	-11834
▁1459	-11835
▁6800	-11836
▁9600	-11837
▁gond	-11838
▁omni	-11839
▁capit	-11840
▁cohen	-11841
▁kabup	-11842
▁muham	-11843
▁sorry	-11844
▁wings	-11845
▁arcade	-11846
▁campus	-11847
▁circus	-11848
▁ferdin	-11849
▁kirara	-11850
▁paypal	-11851
▁rubber	-11852
▁gaudens	-11853
▁kickstarter	-11854
酉丁	-11855
262	-11856
ibe	-11857
▁045	-11858
▁apt	-11859
▁gec	-11860
▁hak	-11861
▁sdn	-11862
▁wai	-11863
▁1181	-11864
▁1486	-11865
▁bdsm	-11866
▁buzz	-11867
▁mann	-11868
▁mist	-11869
▁islam	-11870
▁liner	-11871
▁month	-11872
▁share	-11873
▁contem	-11874
▁depend	-11875
▁mitchell	-11876
▁dictionary	-11877
▁laboratory	-11878
宀𡗗	-11879
fla	-11880
ogl	-11881
pel	-11882
▁jk	-11883
isse	-11884
opus	-11885
▁35°	-11886
▁imf	-11887
▁rak	-11888
▁sri	-11889
▁tul	-11890
▁1015	-11891
▁1102	-11892
▁1462	-11893
▁bush	-11894
▁duck	-11895
▁hugo	-11896
▁idea	-11897
▁json	-11898
▁lucy	-11899
▁once	-11900
▁pcie	-11901
▁jesus	-11902
▁silva	-11903
▁models	-11904
▁message	-11905
▁quality	-11906
▁success	-11907
▁kabupaten	-11908
▁objective	-11909
土龙	-11910
尢王	-11911
igi	-11912
unk	-11913
zel	-11914
ared	-11915
ault	-11916
▁aig	-11917
▁ata	-11918
▁diy	-11919
▁egg	-11920
▁fen	-11921
▁gom	-11922
▁mbe	-11923
▁nbl	-11924
andra	-11925
okawa	-11926
▁1049	-11927
▁1158	-11928
▁1267	-11929
▁1431	-11930
▁1446	-11931
▁1473	-11932
▁hits	-11933
▁shan	-11934
▁error	-11935
▁giant	-11936
▁honor	-11937
▁since	-11938
▁branch	-11939
▁points	-11940
▁script	-11941
▁african	-11942
▁telecom	-11943
▁cambridge	-11944
竹巴	-11945
140	-11946
anie	-11947
hold	-11948
▁het	-11949
dress	-11950
graph	-11951
otype	-11952
▁1154	-11953
▁1209	-11954
▁1303	-11955
▁benz	-11956
▁cott	-11957
▁catch	-11958
▁disco	-11959
▁phenom	-11960
虫亡	-11961
118	-11962
akes	-11963
ames	-11964
nell	-11965
real	-11966
burgh	-11967
▁1094	-11968
▁1251	-11969
▁1263	-11970
▁1447	-11971
▁1479	-11972
▁drug	-11973
▁goes	-11974
▁term	-11975
donald	-11976
▁clock	-11977
▁mason	-11978
▁notes	-11979
▁using	-11980
▁transp	-11981
▁finance	-11982
▁postscript	-11983
▁broadcasting	-11984
ako	-11985
nde	-11986
city	-11987
wave	-11988
▁dix	-11989
▁lig	-11990
▁nsa	-11991
▁pab	-11992
▁shu	-11993
▁tcl	-11994
▁1171	-11995
▁chip	-11996
▁flav	-11997
▁tung	-11998
manuel	-11999
▁brave	-12000
▁pitch	-12001
▁sunny	-12002
▁trail	-12003
▁novell	-12004
▁sydney	-12005
▁quantum	-12006
▁caroline	-12007
▁franklin	-12008
▁terminal	-12009
▁executive	-12010
礻石	-12011
衤氏	-12012
450	-12013
dan	-12014
丿皿卩	-12015
1200	-12016
eppe	-12017
otic	-12018
▁acm	-12019
▁dum	-12020
▁icc	-12021
▁ngt	-12022
▁rsa	-12023
erner	-12024
▁1179	-12025
▁1237	-12026
▁1302	-12027
▁1458	-12028
▁cogn	-12029
▁evan	-12030
▁gius	-12031
▁riot	-12032
▁task	-12033
▁corre	-12034
▁emily	-12035
▁prada	-12036
▁corner	-12037
▁forces	-12038
▁guitar	-12039
耒㠯	-12040
217	-12041
rem	-12042
yll	-12043
acht	-12044
ktop	-12045
quis	-12046
▁baz	-12047
▁fix	-12048
▁lpl	-12049
▁lut	-12050
▁yet	-12051
▁1003	-12052
▁1202	-12053
▁1341	-12054
▁1393	-12055
▁niss	-12056
▁pete	-12057
▁ahmad	-12058
▁edwin	-12059
▁bandar	-12060
▁screen	-12061
▁however	-12062
▁welcome	-12063
▁ij	-12064
acon	-12065
odor	-12066
ruct	-12067
▁dic	-12068
▁gif	-12069
▁uhf	-12070
▁uni	-12071
ected	-12072
forge	-12073
▁1038	-12074
▁1151	-12075
▁1491	-12076
berger	-12077
▁cliff	-12078
▁kinki	-12079
▁laser	-12080
▁random	-12081
▁schwar	-12082
▁sebast	-12083
▁allstar	-12084
▁assembly	-12085
▁networks	-12086
pd	-12087
gal	-12088
omm	-12089
▁pz	-12090
athy	-12091
teen	-12092
▁mpa	-12093
▁myc	-12094
▁yun	-12095
aries	-12096
istol	-12097
▁1059	-12098
▁1195	-12099
▁1247	-12100
▁1301	-12101
▁1463	-12102
▁bach	-12103
▁choc	-12104
▁elena	-12105
▁marco	-12106
▁africa	-12107
▁claire	-12108
▁fedora	-12109
▁gaming	-12110
▁kadokawa	-12111
▁mountains	-12112
田疋	-12113
jon	-12114
业㡀甫	-12115
几木刂	-12116
勹日阝	-12117
日女阝	-12118
aldi	-12119
aper	-12120
enia	-12121
ishi	-12122
rock	-12123
▁rss	-12124
▁sof	-12125
十冖田疋	-12126
ellar	-12127
night	-12128
order	-12129
▁1063	-12130
▁1104	-12131
▁1152	-12132
▁emma	-12133
▁folk	-12134
▁goth	-12135
▁wins	-12136
▁adult	-12137
▁snake	-12138
▁wagon	-12139
▁coming	-12140
▁format	-12141
▁within	-12142
▁beauvais	-12143
gus	-12144
rio	-12145
▁vu	-12146
女又手	-12147
2010	-12148
talk	-12149
ucky	-12150
▁096	-12151
▁099	-12152
▁crj	-12153
▁icd	-12154
▁jax	-12155
▁peg	-12156
▁unc	-12157
▁1009	-12158
▁1077	-12159
▁1422	-12160
▁bone	-12161
▁clin	-12162
▁erik	-12163
▁fans	-12164
▁kiha	-12165
▁neut	-12166
▁reed	-12167
▁ruth	-12168
▁julian	-12169
▁louise	-12170
▁informer	-12171
▁jennifer	-12172
▁adventure	-12173
▁commander	-12174
兆頁	-12175
ele	-12176
ovo	-12177
rag	-12178
sha	-12179
▁gx	-12180
▁uu	-12181
人人心	-12182
0000	-12183
ffer	-12184
midt	-12185
▁cun	-12186
▁faa	-12187
▁fol	-12188
emann	-12189
▁1262	-12190
▁beth	-12191
▁dame	-12192
▁temu	-12193
⺌冖口田刂	-12194
▁andrea	-12195
▁doremi	-12196
▁result	-12197
▁shield	-12198
▁chapter	-12199
▁persona	-12200
▁singles	-12201
▁symphony	-12202
bh	-12203
言卜	-12204
phe	-12205
▁lj	-12206
勹冫金	-12207
chus	-12208
ller	-12209
okie	-12210
▁073	-12211
▁ket	-12212
▁kub	-12213
▁lcc	-12214
▁sne	-12215
▁1012	-12216
▁1112	-12217
▁1254	-12218
▁1309	-12219
▁1384	-12220
▁dart	-12221
▁drag	-12222
▁frag	-12223
▁schw	-12224
▁swan	-12225
▁tenn	-12226
ensive	-12227
▁carbon	-12228
▁leslie	-12229
▁coaster	-12230
▁supreme	-12231
▁aviation	-12232
▁institution	-12233
sw	-12234
七木	-12235
口食	-12236
icz	-12237
rap	-12238
sey	-12239
氵七木	-12240
chat	-12241
cock	-12242
enzo	-12243
ults	-12244
▁027	-12245
▁ain	-12246
▁mee	-12247
▁phi	-12248
inois	-12249
▁1056	-12250
▁1145	-12251
▁1212	-12252
▁1293	-12253
▁1311	-12254
▁1318	-12255
▁dian	-12256
▁disk	-12257
▁blade	-12258
▁known	-12259
▁miles	-12260
▁polar	-12261
▁rapid	-12262
▁accord	-12263
▁excell	-12264
▁trance	-12265
▁musical	-12266
▁metropolitan	-12267
匕十	-12268
土更	-12269
言山	-12270
龙石	-12271
emo	-12272
fin	-12273
tte	-12274
essa	-12275
ieri	-12276
plus	-12277
▁apu	-12278
▁fai	-12279
▁pyr	-12280
▁boyz	-12281
▁loss	-12282
▁ching	-12283
▁might	-12284
▁harvey	-12285
▁played	-12286
亻丁	-12287
arat	-12288
atti	-12289
step	-12290
▁kus	-12291
erous	-12292
frame	-12293
▁5700	-12294
▁anto	-12295
▁fear	-12296
▁gast	-12297
▁ligo	-12298
▁diego	-12299
▁petit	-12300
▁phant	-12301
▁eugene	-12302
▁olympic	-12303
▁computing	-12304
▁experience	-12305
fm	-12306
kk	-12307
bad	-12308
uga	-12309
anto	-12310
icks	-12311
west	-12312
▁055	-12313
▁071	-12314
▁fsa	-12315
▁rey	-12316
▁sio	-12317
▁yui	-12318
▁1069	-12319
▁1096	-12320
▁1173	-12321
▁1184	-12322
▁1201	-12323
▁1289	-12324
▁brid	-12325
▁even	-12326
▁jtwc	-12327
▁trap	-12328
▁joker	-12329
▁nikola	-12330
zt	-12331
口龙	-12332
豕生	-12333
cio	-12334
lov	-12335
▁xa	-12336
aman	-12337
tery	-12338
▁097	-12339
▁aec	-12340
▁hib	-12341
▁jup	-12342
▁mri	-12343
▁sep	-12344
child	-12345
onica	-12346
▁1159	-12347
▁1186	-12348
▁1199	-12349
▁120°	-12350
▁1401	-12351
▁2029	-12352
▁mari	-12353
▁shap	-12354
▁⿱⿱⿱⿱	-12355
apping	-12356
▁coach	-12357
▁prism	-12358
▁warri	-12359
▁pretty	-12360
▁rocket	-12361
▁malaysia	-12362
▁programming	-12363
qi	-12364
艹乡	-12365
205	-12366
207	-12367
▁074	-12368
▁lia	-12369
▁tic	-12370
radio	-12371
▁1021	-12372
▁1029	-12373
▁1068	-12374
▁1144	-12375
▁1149	-12376
▁1296	-12377
▁bind	-12378
▁harm	-12379
▁hind	-12380
▁mips	-12381
▁saga	-12382
▁sett	-12383
▁symp	-12384
▁thir	-12385
ermont	-12386
▁array	-12387
▁huang	-12388
▁jesse	-12389
▁editor	-12390
▁gerald	-12391
▁hammer	-12392
▁jeffrey	-12393
▁deutsche	-12394
▁products	-12395
▁register	-12396
hg	-12397
女为	-12398
480	-12399
▁ln	-12400
▁034	-12401
▁avc	-12402
▁enh	-12403
▁neu	-12404
▁1182	-12405
▁1196	-12406
▁1489	-12407
▁iris	-12408
▁leaf	-12409
▁pale	-12410
▁pang	-12411
▁ratp	-12412
▁umts	-12413
iament	-12414
icular	-12415
▁ridge	-12416
▁scale	-12417
▁cornel	-12418
▁foster	-12419
▁reality	-12420
▁scholar	-12421
辶甫	-12422
230	-12423
olph	-12424
umer	-12425
▁amg	-12426
▁rin	-12427
▁tub	-12428
ucker	-12429
▁1032	-12430
▁1041	-12431
▁july	-12432
▁falls	-12433
▁rifle	-12434
▁yonex	-12435
▁custom	-12436
▁players	-12437
▁clermont	-12438
土己	-12439
广鬼	-12440
aea	-12441
ija	-12442
duct	-12443
▁047	-12444
▁079	-12445
▁dra	-12446
𠂊田一巴	-12447
▁100°	-12448
▁1023	-12449
▁1109	-12450
▁1255	-12451
▁8859	-12452
▁gott	-12453
▁isle	-12454
▁mant	-12455
▁pump	-12456
▁uefa	-12457
▁wiss	-12458
▁aster	-12459
▁cream	-12460
▁linear	-12461
▁waters	-12462
▁languages	-12463
囗寸	-12464
罒不	-12465
舟山	-12466
uni	-12467
▁zz	-12468
虍几食	-12469
kell	-12470
▁064	-12471
▁cah	-12472
▁lga	-12473
▁wet	-12474
▁1093	-12475
▁1133	-12476
▁1315	-12477
▁bruno	-12478
▁imper	-12479
▁johan	-12480
▁wayne	-12481
▁harper	-12482
▁render	-12483
▁resist	-12484
▁holiday	-12485
▁kennedy	-12486
▁spencer	-12487
▁muhammad	-12488
▁phillips	-12489
▁agreement	-12490
leh	-12491
orh	-12492
▁061	-12493
▁arp	-12494
▁cep	-12495
▁cyt	-12496
▁iau	-12497
▁mia	-12498
▁rav	-12499
chaft	-12500
▁1039	-12501
▁1299	-12502
▁chak	-12503
▁dies	-12504
▁exit	-12505
▁rece	-12506
▁scala	-12507
▁license	-12508
文寸	-12509
elt	-12510
iper	-12511
late	-12512
▁049	-12513
▁083	-12514
▁eps	-12515
▁ett	-12516
▁rag	-12517
▁xiv	-12518
ansas	-12519
itage	-12520
▁cape	-12521
▁kung	-12522
▁loud	-12523
▁span	-12524
▁behav	-12525
▁eight	-12526
▁meyer	-12527
▁stray	-12528
▁athlet	-12529
▁talent	-12530
▁vorbis	-12531
▁warner	-12532
▁illustr	-12533
▁mamamoo	-12534
▁november	-12535
rk	-12536
211	-12537
hou	-12538
ilo	-12539
emon	-12540
esia	-12541
wide	-12542
▁032	-12543
▁078	-12544
▁hmv	-12545
▁lok	-12546
▁mex	-12547
itten	-12548
▁1081	-12549
▁1288	-12550
▁1292	-12551
▁amar	-12552
▁bugs	-12553
▁cock	-12554
▁farm	-12555
▁glen	-12556
▁hoch	-12557
anning	-12558
▁pearl	-12559
▁stack	-12560
▁called	-12561
▁falcon	-12562
▁gibson	-12563
▁treaty	-12564
▁terminus	-12565
▁parliament	-12566
▁alternative	-12567
▁intelligence	-12568
130	-12569
bec	-12570
enh	-12571
nen	-12572
⿱⿳𭕄	-12573
avar	-12574
hill	-12575
pass	-12576
▁026	-12577
▁cid	-12578
▁cyn	-12579
▁ghq	-12580
▁hik	-12581
▁1087	-12582
▁1316	-12583
▁1361	-12584
▁2035	-12585
▁ajax	-12586
▁goal	-12587
▁nice	-12588
▁gamma	-12589
▁recep	-12590
▁growth	-12591
▁joshua	-12592
▁kindle	-12593
▁laurent	-12594
▁giuseppe	-12595
▁straight	-12596
▁interchange	-12597
日巨	-12598
钅卯	-12599
钅女	-12600
319	-12601
iso	-12602
ogy	-12603
rel	-12604
▁oy	-12605
コ一心	-12606
匚王力	-12607
ding	-12608
etto	-12609
▁043	-12610
▁058	-12611
▁aoa	-12612
▁dad	-12613
▁dob	-12614
▁due	-12615
▁lau	-12616
▁mbs	-12617
▁nih	-12618
▁tip	-12619
𠂊田灬予	-12620
inter	-12621
▁1176	-12622
▁1268	-12623
▁foss	-12624
▁grid	-12625
porary	-12626
▁betty	-12627
▁opent	-12628
▁sdram	-12629
▁gustav	-12630
▁sexual	-12631
▁gfriend	-12632
▁extended	-12633
fi	-12634
氵为	-12635
ibr	-12636
▁lx	-12637
core	-12638
enty	-12639
quet	-12640
▁069	-12641
▁098	-12642
▁ppp	-12643
▁vim	-12644
▁1108	-12645
▁360°	-12646
▁bron	-12647
▁copy	-12648
▁gone	-12649
▁isra	-12650
idence	-12651
▁heter	-12652
▁strat	-12653
▁groups	-12654
▁paralle	-12655
▁harrison	-12656
口艮	-12657
206	-12658
ieg	-12659
nig	-12660
ply	-12661
▁rv	-12662
ctic	-12663
lain	-12664
mani	-12665
▁038	-12666
▁cie	-12667
▁ict	-12668
lable	-12669
mania	-12670
▁1083	-12671
▁1312	-12672
▁4100	-12673
▁wnba	-12674
▁hanna	-12675
▁rosen	-12676
▁fischer	-12677
犭白	-12678
175	-12679
sty	-12680
扌丸虫	-12681
erie	-12682
este	-12683
latz	-12684
▁046	-12685
▁088	-12686
▁095	-12687
▁ado	-12688
▁gut	-12689
▁kob	-12690
▁lsd	-12691
▁sae	-12692
𠂊冫溬言	-12693
aland	-12694
▁1269	-12695
▁1339	-12696
▁5100	-12697
▁6300	-12698
▁elis	-12699
▁above	-12700
▁atari	-12701
▁bourg	-12702
▁ninja	-12703
▁ladies	-12704
▁carpent	-12705
▁meeting	-12706
▁basilica	-12707
▁eurogamer	-12708
▁industries	-12709
cas	-12710
hip	-12711
prs	-12712
日十阝	-12713
mart	-12714
uron	-12715
▁059	-12716
▁062	-12717
▁amr	-12718
▁aol	-12719
▁cru	-12720
▁esa	-12721
▁lak	-12722
▁tep	-12723
▁yuk	-12724
▁zet	-12725
囗⺌日刂	-12726
oides	-12727
▁1166	-12728
▁cout	-12729
▁else	-12730
▁evil	-12731
▁rare	-12732
▁teng	-12733
▁zepp	-12734
▁avbwu	-12735
▁chase	-12736
▁crime	-12737
▁josef	-12738
▁kanon	-12739
▁angela	-12740
▁sierra	-12741
▁cookies	-12742
▁rebecca	-12743
▁subject	-12744
▁timothy	-12745
ecd	-12746
ici	-12747
尢丶彡	-12748
achi	-12749
lang	-12750
uate	-12751
▁089	-12752
▁hdr	-12753
▁itf	-12754
▁khz	-12755
▁mai	-12756
▁tid	-12757
unier	-12758
ustic	-12759
▁1432	-12760
▁bath	-12761
▁craw	-12762
▁crim	-12763
▁hook	-12764
▁hulu	-12765
▁khal	-12766
▁punk	-12767
▁ride	-12768
▁scsi	-12769
▁blake	-12770
▁chess	-12771
▁incre	-12772
▁quint	-12773
▁mystery	-12774
▁popular	-12775
▁michelle	-12776
▁commercial	-12777
afe	-12778
bee	-12779
jin	-12780
mos	-12781
roc	-12782
ucl	-12783
aldo	-12784
otto	-12785
▁077	-12786
▁cul	-12787
▁dee	-12788
▁gin	-12789
▁1074	-12790
▁1165	-12791
▁1169	-12792
▁1197	-12793
▁1338	-12794
▁aids	-12795
▁dunc	-12796
▁edit	-12797
▁sexy	-12798
▁spar	-12799
▁upon	-12800
▁35000	-12801
▁atlus	-12802
▁eidos	-12803
▁horse	-12804
▁indic	-12805
▁julie	-12806
▁latin	-12807
▁encycl	-12808
▁unesco	-12809
▁dancing	-12810
▁identity	-12811
▁presents	-12812
▁variable	-12813
▁commodore	-12814
▁artsvision	-12815
▁controller	-12816
▁championships	-12817
308	-12818
zig	-12819
▁hj	-12820
又又页	-12821
cont	-12822
iani	-12823
inda	-12824
▁apa	-12825
▁fid	-12826
▁och	-12827
erton	-12828
▁1423	-12829
▁bean	-12830
▁fiba	-12831
▁jade	-12832
▁sram	-12833
▁click	-12834
▁emerg	-12835
▁wells	-12836
▁should	-12837
▁baseball	-12838
▁property	-12839
月瓜	-12840
hev	-12841
opy	-12842
ska	-12843
code	-12844
ungs	-12845
▁28°	-12846
▁als	-12847
▁cim	-12848
▁gnz	-12849
▁mvc	-12850
break	-12851
▁1065	-12852
▁1379	-12853
▁does	-12854
▁hoff	-12855
▁maus	-12856
▁nana	-12857
▁todd	-12858
▁capcom	-12859
▁harmon	-12860
▁porter	-12861
▁resort	-12862
▁fiction	-12863
▁approach	-12864
▁economics	-12865
口申	-12866
火文	-12867
160	-12868
bie	-12869
cos	-12870
uya	-12871
▁rk	-12872
atha	-12873
game	-12874
horn	-12875
wind	-12876
▁033	-12877
▁mab	-12878
▁sob	-12879
▁tus	-12880
▁vga	-12881
▁wis	-12882
icles	-12883
▁1344	-12884
▁2047	-12885
▁amph	-12886
▁infl	-12887
▁sinc	-12888
▁tail	-12889
ampton	-12890
▁blanc	-12891
▁chaos	-12892
▁those	-12893
▁trent	-12894
▁hearts	-12895
▁liquid	-12896
▁postgr	-12897
▁affairs	-12898
▁angeles	-12899
▁frances	-12900
▁lovelyz	-12901
▁paradox	-12902
▁nacional	-12903
▁september	-12904
▁constitution	-12905
151	-12906
oce	-12907
▁jy	-12908
▁vx	-12909
宀八兆	-12910
iber	-12911
▁dlp	-12912
▁lub	-12913
人一朩田	-12914
aling	-12915
▁1046	-12916
▁1222	-12917
▁6200	-12918
▁jake	-12919
▁lons	-12920
▁pour	-12921
dragon	-12922
▁bible	-12923
▁demon	-12924
▁irish	-12925
▁adidas	-12926
▁hughes	-12927
▁matter	-12928
▁reason	-12929
▁roberto	-12930
pf	-12931
208	-12932
229	-12933
ams	-12934
bur	-12935
彑𧰨土	-12936
日巨火	-12937
abil	-12938
ipro	-12939
ulin	-12940
▁doi	-12941
▁mph	-12942
▁pcm	-12943
▁ttc	-12944
odont	-12945
▁1088	-12946
▁1193	-12947
▁2027	-12948
▁aria	-12949
▁safe	-12950
▁bella	-12951
▁bened	-12952
▁blast	-12953
▁isaac	-12954
▁subst	-12955
▁basket	-12956
▁berger	-12957
▁calvin	-12958
▁female	-12959
▁nicolas	-12960
▁ferdinand	-12961
水皿	-12962
119	-12963
bul	-12964
sar	-12965
▁zb	-12966
fect	-12967
▁036	-12968
▁063	-12969
▁084	-12970
▁27°	-12971
▁epr	-12972
▁kau	-12973
▁ktm	-12974
▁pch	-12975
▁rug	-12976
fried	-12977
▁1026	-12978
▁1098	-12979
▁1243	-12980
▁caus	-12981
▁clim	-12982
▁hern	-12983
▁load	-12984
▁nadp	-12985
▁pray	-12986
▁raja	-12987
▁skin	-12988
▁tale	-12989
▁till	-12990
▁vend	-12991
▁ahmed	-12992
▁craft	-12993
▁cycle	-12994
▁gamep	-12995
▁molec	-12996
▁shish	-12997
▁teams	-12998
isation	-12999
▁angels	-13000
▁boston	-13001
▁cheung	-13002
▁santos	-13003
▁sophie	-13004
▁circuit	-13005
▁sullivan	-13006
hk	-13007
扌甘	-13008
钅了	-13009
iku	-13010
ned	-13011
九朩隹	-13012
aire	-13013
aran	-13014
ayan	-13015
ivid	-13016
ocer	-13017
▁042	-13018
▁cac	-13019
▁cdc	-13020
▁iia	-13021
▁sys	-13022
verse	-13023
▁1319	-13024
▁hier	-13025
▁icon	-13026
▁ohio	-13027
▁semi	-13028
▁viva	-13029
▁omega	-13030
▁marina	-13031
▁panzer	-13032
▁sistar	-13033
▁haskell	-13034
▁investig	-13035
▁blackberry	-13036
辶刀	-13037
lax	-13038
mac	-13039
run	-13040
udi	-13041
爫子阝	-13042
▁091	-13043
▁50°	-13044
▁chs	-13045
▁csl	-13046
▁mao	-13047
illus	-13048
osaic	-13049
▁1064	-13050
▁1331	-13051
▁abra	-13052
▁bard	-13053
▁sogo	-13054
▁duncan	-13055
▁franco	-13056
▁marion	-13057
▁address	-13058
▁borland	-13059
▁openbsd	-13060
山来	-13061
195	-13062
ilar	-13063
inet	-13064
▁057	-13065
▁ged	-13066
▁gum	-13067
▁lep	-13068
▁sbd	-13069
▁sli	-13070
▁tyr	-13071
rahim	-13072
▁1321	-13073
▁anat	-13074
▁bene	-13075
▁dere	-13076
▁joel	-13077
▁defin	-13078
▁janet	-13079
▁troub	-13080
▁wrest	-13081
▁vmware	-13082
▁horizon	-13083
▁officer	-13084
▁stories	-13085
▁mercedes	-13086
▁specific	-13087
▁programme	-13088
esi	-13089
law	-13090
map	-13091
gers	-13092
oire	-13093
▁boh	-13094
▁gat	-13095
▁ims	-13096
▁sme	-13097
▁1033	-13098
▁1092	-13099
▁1168	-13100
▁febr	-13101
▁hiro	-13102
▁homo	-13103
▁pter	-13104
▁rena	-13105
▁hands	-13106
▁naval	-13107
▁killer	-13108
ographic	-13109
▁bennett	-13110
▁frequency	-13111
▁scientific	-13112
竹罒	-13113
127	-13114
bet	-13115
gis	-13116
iak	-13117
mud	-13118
uku	-13119
▁xs	-13120
习习中	-13121
aine	-13122
alli	-13123
▁gmp	-13124
▁gmt	-13125
▁loh	-13126
▁svg	-13127
▁tav	-13128
▁1007	-13129
▁1317	-13130
▁1332	-13131
▁1353	-13132
▁2028	-13133
▁2150	-13134
▁biow	-13135
▁enix	-13136
▁mash	-13137
▁xeon	-13138
▁neuro	-13139
▁compon	-13140
▁create	-13141
▁genius	-13142
▁glados	-13143
▁nissan	-13144
▁palais	-13145
▁rising	-13146
▁busters	-13147
▁january	-13148
iw	-13149
气亚	-13150
禺页	-13151
135	-13152
199	-13153
had	-13154
nan	-13155
▁rj	-13156
inos	-13157
ithe	-13158
obar	-13159
▁081	-13160
▁094	-13161
▁23°	-13162
▁cip	-13163
▁ecc	-13164
▁git	-13165
▁liz	-13166
▁⿱⿴⿰	-13167
brain	-13168
▁1047	-13169
▁1079	-13170
▁1245	-13171
▁bast	-13172
▁luna	-13173
▁oppo	-13174
▁pony	-13175
▁reve	-13176
▁swim	-13177
▁denis	-13178
▁butler	-13179
▁rabbit	-13180
▁verycd	-13181
▁perform	-13182
▁governor	-13183
匕示	-13184
干阝	-13185
方阝	-13186
米白	-13187
纟甘	-13188
arr	-13189
kal	-13190
say	-13191
alie	-13192
wing	-13193
wire	-13194
▁kod	-13195
▁rov	-13196
▁ust	-13197
䬎彐水皿	-13198
𠃋丿人頁	-13199
angle	-13200
ively	-13201
lette	-13202
▁1022	-13203
▁1031	-13204
▁1053	-13205
▁1057	-13206
▁1343	-13207
▁2758	-13208
▁dens	-13209
▁fail	-13210
▁sons	-13211
▁void	-13212
opedia	-13213
▁lance	-13214
▁pharm	-13215
▁piano	-13216
▁stard	-13217
▁thorn	-13218
▁compan	-13219
▁cartoon	-13220
▁indiana	-13221
▁scandal	-13222
▁spirits	-13223
▁verilog	-13224
▁sequence	-13225
▁workshop	-13226
rb	-13227
旡灬	-13228
145	-13229
aze	-13230
xxx	-13231
丷夫豕	-13232
匕示頁	-13233
𠂆一㔾	-13234
arum	-13235
arus	-13236
rail	-13237
▁els	-13238
▁sau	-13239
▁tpp	-13240
astic	-13241
▁1052	-13242
▁1304	-13243
▁1306	-13244
▁diva	-13245
▁gprs	-13246
▁grim	-13247
▁opus	-13248
▁proc	-13249
▁schl	-13250
▁algor	-13251
▁cause	-13252
▁deter	-13253
▁false	-13254
▁grass	-13255
▁lover	-13256
▁demand	-13257
▁nicola	-13258
▁thread	-13259
▁admiral	-13260
▁allison	-13261
▁andreas	-13262
▁picture	-13263
▁associates	-13264
勹匕	-13265
日电	-13266
艹欠	-13267
oux	-13268
inga	-13269
zone	-13270
▁082	-13271
▁auf	-13272
▁lik	-13273
edded	-13274
uston	-13275
▁1061	-13276
▁fame	-13277
▁gare	-13278
▁zoom	-13279
▁plane	-13280
▁seine	-13281
▁stick	-13282
▁accept	-13283
▁impact	-13284
▁werner	-13285
▁bioware	-13286
▁holland	-13287
▁lisieux	-13288
▁rolling	-13289
▁treasure	-13290
▁historical	-13291
▁competition	-13292
⿷⿺	-13293
213	-13294
omp	-13295
endi	-13296
ging	-13297
stre	-13298
▁22°	-13299
▁26°	-13300
▁bau	-13301
▁dax	-13302
▁kis	-13303
▁noc	-13304
▁osi	-13305
▁pcb	-13306
▁tut	-13307
▁urs	-13308
尸示寸火	-13309
aguar	-13310
ianus	-13311
uffle	-13312
▁1334	-13313
▁2048	-13314
▁aaaa	-13315
▁bian	-13316
▁hear	-13317
▁hous	-13318
▁joan	-13319
▁milk	-13320
▁nipp	-13321
▁ntsb	-13322
▁clean	-13323
▁mills	-13324
▁noble	-13325
▁marvel	-13326
▁reader	-13327
▁gateway	-13328
▁masters	-13329
▁physics	-13330
tn	-13331
yi	-13332
fil	-13333
pop	-13334
▁yi	-13335
▁zk	-13336
atis	-13337
mura	-13338
uman	-13339
▁ong	-13340
▁orb	-13341
▁sah	-13342
known	-13343
shock	-13344
▁1036	-13345
▁1178	-13346
▁mund	-13347
▁tool	-13348
▁bonus	-13349
▁casey	-13350
▁leung	-13351
▁ordin	-13352
▁reform	-13353
standing	-13354
▁bradley	-13355
▁mercury	-13356
▁december	-13357
▁illinois	-13358
▁institut	-13359
▁relation	-13360
▁response	-13361
▁vladimir	-13362
▁insurance	-13363
▁solutions	-13364
▁qualifying	-13365
aq	-13366
kr	-13367
lc	-13368
mh	-13369
gia	-13370
rog	-13371
八刀手	-13372
arte	-13373
ases	-13374
orre	-13375
▁dvi	-13376
▁pup	-13377
▁tox	-13378
人一口刂	-13379
凵丨月木	-13380
▁1105	-13381
▁1342	-13382
▁1383	-13383
▁golf	-13384
▁kend	-13385
▁vevo	-13386
▁17000	-13387
▁among	-13388
▁bryan	-13389
▁chair	-13390
▁separ	-13391
▁bleach	-13392
▁lights	-13393
▁realme	-13394
▁verdun	-13395
▁saunier	-13396
cw	-13397
口甲	-13398
2008	-13399
▁bmi	-13400
▁igg	-13401
▁ppm	-13402
▁thi	-13403
▁voy	-13404
arium	-13405
illac	-13406
▁luck	-13407
▁misso	-13408
▁reach	-13409
▁terra	-13410
▁clarke	-13411
▁fields	-13412
▁string	-13413
▁thomson	-13414
▁critical	-13415
▁oriental	-13416
▁scotland	-13417
▁democracy	-13418
忄中	-13419
ech	-13420
ged	-13421
▁hw	-13422
▁jg	-13423
▁mq	-13424
▁vg	-13425
2500	-13426
isha	-13427
iton	-13428
onde	-13429
onte	-13430
rice	-13431
▁bry	-13432
▁msc	-13433
▁pah	-13434
▁ucs	-13435
anton	-13436
▁chia	-13437
▁dust	-13438
▁kota	-13439
▁lept	-13440
▁mons	-13441
▁prob	-13442
▁sind	-13443
▁flick	-13444
▁inner	-13445
▁sanct	-13446
▁units	-13447
▁cancer	-13448
▁getchu	-13449
▁monica	-13450
▁norton	-13451
▁olivia	-13452
▁psycho	-13453
▁recogn	-13454
▁desktop	-13455
▁academic	-13456
▁dynamics	-13457
▁butterfly	-13458
▁translation	-13459
lf	-13460
金且	-13461
257	-13462
405	-13463
fff	-13464
lib	-13465
odus	-13466
▁041	-13467
▁cfa	-13468
▁dhl	-13469
▁gag	-13470
▁gpa	-13471
▁jvc	-13472
▁ves	-13473
▁zur	-13474
艹罒冖目	-13475
glise	-13476
itzer	-13477
mouth	-13478
▁1172	-13479
▁1298	-13480
▁9500	-13481
▁date	-13482
▁funk	-13483
▁info	-13484
▁jojo	-13485
▁nina	-13486
asonic	-13487
▁rules	-13488
embourg	-13489
▁langon	-13490
▁peters	-13491
▁contain	-13492
▁package	-13493
▁weather	-13494
▁equation	-13495
▁released	-13496
fy	-13497
xa	-13498
131	-13499
134	-13500
aft	-13501
alt	-13502
anz	-13503
hor	-13504
▁qw	-13505
abet	-13506
oder	-13507
wski	-13508
▁alm	-13509
▁dul	-13510
▁lhc	-13511
▁luk	-13512
▁sms	-13513
asaki	-13514
ipper	-13515
▁door	-13516
▁grac	-13517
▁nied	-13518
▁pard	-13519
omorph	-13520
▁greek	-13521
▁innoc	-13522
▁linda	-13523
▁paint	-13524
▁tales	-13525
ruction	-13526
▁jaguar	-13527
▁maggie	-13528
▁myself	-13529
▁schema	-13530
▁territ	-13531
▁antoine	-13532
▁schmidt	-13533
彐𧰨	-13534
coo	-13535
fta	-13536
lys	-13537
ithm	-13538
ophy	-13539
opro	-13540
ylus	-13541
▁dud	-13542
▁fet	-13543
▁hag	-13544
▁mtu	-13545
▁sey	-13546
▁svd	-13547
ernet	-13548
▁1354	-13549
▁6100	-13550
▁chow	-13551
▁maya	-13552
▁norm	-13553
▁rodr	-13554
▁alleg	-13555
▁canyon	-13556
▁edmund	-13557
▁phosph	-13558
▁weekly	-13559
▁railroad	-13560
▁chemistry	-13561
cu	-13562
▁豸	-13563
犭甲	-13564
舟西	-13565
235	-13566
sma	-13567
▁wt	-13568
dorf	-13569
▁cli	-13570
acker	-13571
radar	-13572
rical	-13573
▁1043	-13574
▁1164	-13575
▁1305	-13576
▁auch	-13577
▁came	-13578
▁caps	-13579
▁pool	-13580
▁voip	-13581
ically	-13582
▁heath	-13583
▁kaiser	-13584
▁lonely	-13585
▁yamaha	-13586
▁october	-13587
▁wallace	-13588
▁heritage	-13589
▁wonderful	-13590
▁integrated	-13591
rg	-13592
囗コ	-13593
228	-13594
mpa	-13595
▁wd	-13596
achy	-13597
lest	-13598
mans	-13599
ulum	-13600
▁eup	-13601
▁hst	-13602
▁lng	-13603
▁lup	-13604
▁omn	-13605
𠂊田一方	-13606
arius	-13607
awaii	-13608
essel	-13609
ufact	-13610
▁1188	-13611
▁apol	-13612
▁casa	-13613
▁eden	-13614
▁fold	-13615
▁gddr	-13616
▁hast	-13617
▁navy	-13618
▁send	-13619
▁sket	-13620
▁abbey	-13621
▁mosaic	-13622
▁palmer	-13623
▁pepper	-13624
▁carolina	-13625
▁truetype	-13626
臼人	-13627
金巴	-13628
oir	-13629
roe	-13630
宀八果	-13631
lier	-13632
show	-13633
uted	-13634
▁gtx	-13635
▁isu	-13636
▁zun	-13637
amine	-13638
metal	-13639
recht	-13640
sters	-13641
▁1249	-13642
▁2049	-13643
▁gaba	-13644
▁gior	-13645
▁soap	-13646
▁temp	-13647
master	-13648
▁buddh	-13649
▁ellen	-13650
▁fritz	-13651
▁nitro	-13652
▁bailey	-13653
▁techno	-13654
▁formosa	-13655
▁holding	-13656
▁leopard	-13657
▁passion	-13658
▁restaur	-13659
▁katherine	-13660
▁panasonic	-13661
▁snapdragon	-13662
口刀	-13663
王干	-13664
256	-13665
ffe	-13666
jar	-13667
teo	-13668
uzz	-13669
▁gq	-13670
▁xr	-13671
▁yy	-13672
土龰丩	-13673
1917	-13674
idad	-13675
onso	-13676
▁24°	-13677
▁bic	-13678
▁csp	-13679
▁ont	-13680
ijing	-13681
▁2250	-13682
▁aber	-13683
▁anci	-13684
schaft	-13685
▁agric	-13686
▁compi	-13687
▁legal	-13688
▁namco	-13689
▁davies	-13690
▁patric	-13691
▁terror	-13692
▁ibrahim	-13693
▁monitor	-13694
▁optical	-13695
▁theorem	-13696
▁elements	-13697
▁extension	-13698
▁soundtrack	-13699
gf	-13700
306	-13701
ieh	-13702
kat	-13703
oop	-13704
zon	-13705
▁ym	-13706
豕豕火	-13707
beat	-13708
ndez	-13709
▁apr	-13710
drive	-13711
oplan	-13712
ports	-13713
vania	-13714
▁dale	-13715
▁pend	-13716
▁tune	-13717
▁bukit	-13718
▁wales	-13719
▁client	-13720
▁roland	-13721
▁rounds	-13722
▁twitch	-13723
▁alberto	-13724
▁carrier	-13725
▁birthday	-13726
▁magnetic	-13727
▁manufact	-13728
▁missouri	-13729
▁including	-13730
▁nationale	-13731
▁associated	-13732
▁democratic	-13733
149	-13734
286	-13735
730	-13736
lea	-13737
vil	-13738
▁bv	-13739
▁hv	-13740
▁uw	-13741
ener	-13742
rine	-13743
▁bts	-13744
▁ida	-13745
▁mbk	-13746
▁ris	-13747
ached	-13748
antha	-13749
owitz	-13750
▁imac	-13751
▁mend	-13752
▁ntsc	-13753
▁spee	-13754
▁vide	-13755
▁acfun	-13756
▁amuse	-13757
▁chrys	-13758
▁wowow	-13759
ication	-13760
lington	-13761
▁aqours	-13762
▁atomic	-13763
▁silent	-13764
▁sounds	-13765
▁wizard	-13766
▁grammar	-13767
▁parallel	-13768
▁wireless	-13769
▁wolfgang	-13770
rm	-13771
亻及	-13772
忄里	-13773
eye	-13774
2001	-13775
2012	-13776
ched	-13777
enko	-13778
▁agn	-13779
▁boo	-13780
▁cus	-13781
▁fft	-13782
▁ira	-13783
▁kee	-13784
▁orn	-13785
▁pax	-13786
▁pes	-13787
▁sia	-13788
▁til	-13789
▁wed	-13790
丿𠃌攵犬	-13791
▁ciel	-13792
▁kyle	-13793
▁lamp	-13794
▁lect	-13795
▁pine	-13796
▁uniq	-13797
▁wien	-13798
strong	-13799
borough	-13800
▁bandai	-13801
▁chapel	-13802
▁sungai	-13803
▁shadows	-13804
▁acoustic	-13805
▁kentucky	-13806
▁opentype	-13807
▁essential	-13808
▁winchester	-13809
▁observatory	-13810
uw	-13811
䱘几	-13812
302	-13813
303	-13814
365	-13815
404	-13816
737	-13817
gpp	-13818
oor	-13819
weg	-13820
▁hn	-13821
山而頁	-13822
comm	-13823
▁uns	-13824
人一口廾	-13825
▁1089	-13826
▁8800	-13827
▁avai	-13828
▁bagn	-13829
▁bend	-13830
▁grub	-13831
▁carry	-13832
▁favor	-13833
▁witch	-13834
▁barbus	-13835
▁everyd	-13836
▁kernel	-13837
▁majest	-13838
▁secure	-13839
▁selina	-13840
▁abraham	-13841
▁memories	-13842
▁temperature	-13843
广厶	-13844
金彡	-13845
bak	-13846
tra	-13847
uns	-13848
atin	-13849
etry	-13850
imer	-13851
ondo	-13852
udio	-13853
uver	-13854
▁076	-13855
▁087	-13856
▁dow	-13857
▁rut	-13858
▁1244	-13859
▁6700	-13860
▁haus	-13861
▁jing	-13862
▁kris	-13863
▁role	-13864
▁tube	-13865
▁besan	-13866
▁bless	-13867
▁diana	-13868
▁fever	-13869
▁instr	-13870
▁joyce	-13871
▁lines	-13872
▁manif	-13873
▁noise	-13874
▁tools	-13875
imental	-13876
▁murphy	-13877
▁queens	-13878
▁toyota	-13879
▁troyes	-13880
▁leopold	-13881
▁mohammad	-13882
▁resources	-13883
▁wordpress	-13884
227	-13885
olt	-13886
oso	-13887
▁eq	-13888
arta	-13889
avan	-13890
gypt	-13891
iong	-13892
main	-13893
ushi	-13894
▁atf	-13895
▁coe	-13896
▁epa	-13897
▁hai	-13898
▁kes	-13899
▁kud	-13900
▁osp	-13901
▁shi	-13902
attan	-13903
ersch	-13904
stock	-13905
▁bint	-13906
▁dhcp	-13907
▁mead	-13908
▁mith	-13909
▁nash	-13910
▁sets	-13911
lished	-13912
▁adapt	-13913
▁chlor	-13914
▁estab	-13915
▁jamie	-13916
▁jenny	-13917
▁jorge	-13918
▁pilot	-13919
▁write	-13920
▁cnblue	-13921
▁delphi	-13922
▁desire	-13923
▁stella	-13924
▁webkit	-13925
▁brandon	-13926
▁phantom	-13927
▁reading	-13928
▁schwarz	-13929
▁stevens	-13930
▁chandler	-13931
▁regiment	-13932
▁marketing	-13933
▁intelligent	-13934
木日	-13935
礻禺	-13936
ffy	-13937
nez	-13938
shi	-13939
cott	-13940
kbps	-13941
most	-13942
nine	-13943
ococ	-13944
▁dcc	-13945
▁ecm	-13946
▁gel	-13947
▁gul	-13948
▁kul	-13949
▁lop	-13950
▁nxt	-13951
▁sek	-13952
▁vio	-13953
▁zoo	-13954
elles	-13955
▁blind	-13956
▁cache	-13957
▁redmi	-13958
▁gainax	-13959
▁herman	-13960
▁kepler	-13961
▁libert	-13962
▁artists	-13963
▁lieuten	-13964
▁playing	-13965
▁regular	-13966
▁shuffle	-13967
▁agricult	-13968
▁philosophy	-13969
nu	-13970
lik	-13971
loe	-13972
upt	-13973
▁bx	-13974
▁ux	-13975
ismo	-13976
mine	-13977
oble	-13978
rico	-13979
▁coo	-13980
▁hla	-13981
▁jed	-13982
▁rox	-13983
▁smo	-13984
▁zap	-13985
▁abba	-13986
▁alma	-13987
▁fork	-13988
▁gimp	-13989
▁rust	-13990
▁annie	-13991
▁tears	-13992
▁teddy	-13993
issance	-13994
▁100000	-13995
▁charge	-13996
▁heroes	-13997
▁length	-13998
▁destroy	-13999
▁effects	-14000
▁individ	-14001
▁shirley	-14002
▁dualshock	-14003
708	-14004
人彡食	-14005
anor	-14006
atum	-14007
ffff	-14008
mour	-14009
oron	-14010
rill	-14011
▁agb	-14012
▁bsp	-14013
▁crt	-14014
▁ctr	-14015
▁tft	-14016
media	-14017
quest	-14018
▁badm	-14019
▁diet	-14020
▁iast	-14021
▁lich	-14022
▁lynn	-14023
▁jakob	-14024
▁jules	-14025
▁knock	-14026
▁nigel	-14027
▁swiss	-14028
▁tibet	-14029
▁linked	-14030
▁vernon	-14031
▁charter	-14032
▁evening	-14033
▁gamespy	-14034
▁initial	-14035
▁woollim	-14036
▁michigan	-14037
▁worldwide	-14038
▁instrument	-14039
▁environmental	-14040
口卜	-14041
山卯	-14042
139	-14043
486	-14044
hes	-14045
丶艮阝	-14046
厶大三	-14047
4000	-14048
▁fes	-14049
▁kah	-14050
▁mec	-14051
▁rai	-14052
▁tia	-14053
▁yas	-14054
▁koch	-14055
▁mits	-14056
▁pico	-14057
▁scor	-14058
ention	-14059
▁60000	-14060
▁amber	-14061
▁draft	-14062
▁issue	-14063
▁links	-14064
▁plate	-14065
▁chance	-14066
▁italia	-14067
▁twenty	-14068
▁usenet	-14069
▁airways	-14070
▁reserve	-14071
▁storage	-14072
▁alexandra	-14073
▁introduction	-14074
arp	-14075
asv	-14076
cro	-14077
▁vz	-14078
name	-14079
oman	-14080
ongo	-14081
▁agp	-14082
▁eat	-14083
▁ell	-14084
▁leh	-14085
口口隹頁	-14086
▁brew	-14087
▁lala	-14088
▁larg	-14089
▁peer	-14090
▁purp	-14091
▁reyn	-14092
▁aless	-14093
▁bring	-14094
▁fairy	-14095
▁honda	-14096
▁jewel	-14097
▁whole	-14098
▁compar	-14099
▁crisis	-14100
▁examin	-14101
▁prison	-14102
▁scream	-14103
▁edwards	-14104
▁feature	-14105
▁numbers	-14106
▁similar	-14107
▁relative	-14108
▁automatic	-14109
▁happiness	-14110
万力	-14111
井丶	-14112
扌束	-14113
礻兆	-14114
艹及	-14115
133	-14116
263	-14117
508	-14118
603	-14119
lap	-14120
vas	-14121
峴灬尺	-14122
田田糸	-14123
file	-14124
iere	-14125
rand	-14126
▁apc	-14127
▁gle	-14128
▁jsp	-14129
▁lec	-14130
▁psa	-14131
▁taw	-14132
▁vix	-14133
ifier	-14134
leton	-14135
▁meta	-14136
▁tiny	-14137
willer	-14138
▁allan	-14139
▁elvis	-14140
▁kitch	-14141
▁morph	-14142
▁seoul	-14143
▁spike	-14144
▁toshi	-14145
▁until	-14146
▁decade	-14147
▁montana	-14148
▁distance	-14149
▁connection	-14150
▁lieutenant	-14151
pb	-14152
土广	-14153
女比	-14154
纟予	-14155
罒衣	-14156
503	-14157
cmg	-14158
gne	-14159
joy	-14160
onn	-14161
戊𠃌阝	-14162
eric	-14163
icia	-14164
iffe	-14165
xton	-14166
▁hbl	-14167
▁kow	-14168
▁nil	-14169
▁sce	-14170
▁sue	-14171
▁tie	-14172
▁bras	-14173
▁cruz	-14174
▁glas	-14175
▁laws	-14176
▁niel	-14177
▁ware	-14178
▁yuen	-14179
▁bibli	-14180
▁equip	-14181
▁schne	-14182
▁trick	-14183
▁barnes	-14184
▁magnus	-14185
▁applied	-14186
▁capitol	-14187
▁consort	-14188
▁pierrot	-14189
▁several	-14190
▁february	-14191
▁interest	-14192
▁multiple	-14193
▁shishamo	-14194
▁contemporary	-14195
八方	-14196
177	-14197
215	-14198
hat	-14199
lev	-14200
oba	-14201
tml	-14202
uti	-14203
▁zi	-14204
ilon	-14205
uret	-14206
walk	-14207
▁bwv	-14208
▁cms	-14209
▁ech	-14210
▁gai	-14211
▁mum	-14212
▁paw	-14213
▁tms	-14214
▁une	-14215
▁vos	-14216
block	-14217
izing	-14218
▁2033	-14219
▁done	-14220
▁myth	-14221
▁spex	-14222
▁trac	-14223
ershot	-14224
▁damon	-14225
▁grove	-14226
▁scene	-14227
ylvania	-14228
▁falcom	-14229
▁hypert	-14230
▁interp	-14231
▁plasma	-14232
▁tennis	-14233
▁cluster	-14234
▁whitney	-14235
▁postgres	-14236
▁armstrong	-14237
▁badminton	-14238
▁processing	-14239
一𧰨	-14240
气㐅	-14241
虫乍	-14242
言干	-14243
155	-14244
802	-14245
ahu	-14246
erc	-14247
loo	-14248
vor	-14249
㡀攵目	-14250
1500	-14251
baum	-14252
imal	-14253
▁086	-14254
▁arb	-14255
▁hof	-14256
▁jct	-14257
▁jia	-14258
▁kry	-14259
▁mei	-14260
asser	-14261
ornis	-14262
▁1091	-14263
▁audi	-14264
▁chop	-14265
▁coal	-14266
▁mell	-14267
▁phyl	-14268
▁rfid	-14269
▁sach	-14270
▁yard	-14271
▁yoho	-14272
▁algol	-14273
▁apink	-14274
▁dirty	-14275
▁exhib	-14276
▁jelly	-14277
▁lives	-14278
▁pages	-14279
▁credit	-14280
▁israel	-14281
▁lancer	-14282
▁matlab	-14283
▁britain	-14284
▁maxwell	-14285
▁walking	-14286
▁commerce	-14287
▁madhouse	-14288
▁spectrum	-14289
▁directory	-14290
197	-14291
216	-14292
gom	-14293
ocl	-14294
▁oe	-14295
艹冖土	-14296
anet	-14297
elot	-14298
erto	-14299
hail	-14300
mune	-14301
pool	-14302
quar	-14303
tron	-14304
ulty	-14305
▁aic	-14306
▁cay	-14307
▁koi	-14308
▁ley	-14309
▁piz	-14310
▁sai	-14311
▁yao	-14312
▁yar	-14313
heart	-14314
▁1082	-14315
▁chau	-14316
▁pula	-14317
▁stur	-14318
▁edgar	-14319
▁natur	-14320
▁except	-14321
▁holmes	-14322
▁keroro	-14323
▁magnum	-14324
▁rudolf	-14325
▁burning	-14326
▁clement	-14327
▁chaumont	-14328
▁carpenter	-14329
▁richardson	-14330
304	-14331
eed	-14332
far	-14333
ahan	-14334
ogon	-14335
olds	-14336
omat	-14337
rant	-14338
▁29°	-14339
▁adp	-14340
▁dao	-14341
▁wen	-14342
▁xav	-14343
ogram	-14344
video	-14345
▁1058	-14346
▁axis	-14347
▁chol	-14348
▁diss	-14349
▁goto	-14350
▁item	-14351
▁nadh	-14352
▁porn	-14353
kinson	-14354
ousand	-14355
▁feder	-14356
▁events	-14357
▁beijing	-14358
▁springs	-14359
▁wonders	-14360
女為	-14361
田攵	-14362
185	-14363
dam	-14364
eus	-14365
ijn	-14366
see	-14367
▁wg	-14368
十廾兀	-14369
白匕旡	-14370
atsu	-14371
girl	-14372
rale	-14373
sted	-14374
▁fay	-14375
▁hig	-14376
▁hul	-14377
▁mhc	-14378
▁sou	-14379
keley	-14380
▁apps	-14381
▁byte	-14382
▁canc	-14383
▁dior	-14384
▁glay	-14385
▁herz	-14386
▁lass	-14387
▁lenn	-14388
▁maps	-14389
▁tall	-14390
▁thre	-14391
▁vamp	-14392
ellite	-14393
▁adolf	-14394
▁apost	-14395
▁brack	-14396
▁derek	-14397
▁dutch	-14398
▁oasis	-14399
▁config	-14400
▁baptist	-14401
▁millenn	-14402
▁promise	-14403
▁romance	-14404
▁thousand	-14405
▁basketball	-14406
▁mathematica	-14407
亠呦	-14408
亠臼	-14409
月申	-14410
石朱	-14411
钅田	-14412
214	-14413
jek	-14414
亠臼𧘇	-14415
尹口頁	-14416
2007	-14417
borg	-14418
elyn	-14419
esto	-14420
opia	-14421
ound	-14422
rete	-14423
▁aix	-14424
▁hok	-14425
▁uml	-14426
▁aeon	-14427
▁crew	-14428
▁gale	-14429
▁kerr	-14430
▁levi	-14431
▁mete	-14432
▁mina	-14433
▁wick	-14434
▁chong	-14435
▁civic	-14436
▁drink	-14437
▁speak	-14438
▁tempo	-14439
▁wheel	-14440
▁wille	-14441
▁formos	-14442
▁gentle	-14443
▁gloria	-14444
▁produc	-14445
▁cameron	-14446
▁chicken	-14447
▁defence	-14448
▁edonkey	-14449
▁fortune	-14450
▁request	-14451
▁fantasia	-14452
▁position	-14453
▁classical	-14454
▁centroliner	-14455
金我	-14456
隹隹	-14457
doc	-14458
▁zw	-14459
amax	-14460
atra	-14461
iang	-14462
oris	-14463
▁18°	-14464
▁aik	-14465
▁chn	-14466
▁fah	-14467
▁ink	-14468
▁orc	-14469
▁tad	-14470
idium	-14471
iling	-14472
▁bold	-14473
▁budd	-14474
▁dion	-14475
▁gulf	-14476
▁kann	-14477
▁thai	-14478
▁conse	-14479
▁costa	-14480
▁glenn	-14481
▁trial	-14482
▁unter	-14483
▁remote	-14484
▁carroll	-14485
▁provinc	-14486
▁wolfram	-14487
▁contract	-14488
▁everyday	-14489
日𠃓	-14490
222	-14491
ipa	-14492
oha	-14493
tti	-14494
冖几心	-14495
夫丷阝	-14496
羊乚厶	-14497
𠃜目阝	-14498
2018	-14499
eeee	-14500
gren	-14501
▁031	-14502
▁baa	-14503
▁gew	-14504
▁gos	-14505
▁lal	-14506
▁nev	-14507
endar	-14508
ither	-14509
▁2060	-14510
▁beng	-14511
▁held	-14512
▁kwok	-14513
▁lpga	-14514
▁mare	-14515
▁siri	-14516
▁vega	-14517
▁vine	-14518
▁floyd	-14519
▁limit	-14520
▁murder	-14521
▁regulat	-14522
▁stellar	-14523
▁disorder	-14524
▁ministry	-14525
▁elementary	-14526
▁expression	-14527
169	-14528
192	-14529
232	-14530
370	-14531
tar	-14532
▁zx	-14533
立十衣	-14534
1001	-14535
hall	-14536
phus	-14537
rics	-14538
▁edg	-14539
▁eia	-14540
▁lug	-14541
▁txt	-14542
tranz	-14543
▁2046	-14544
▁flip	-14545
▁herm	-14546
▁lith	-14547
▁metz	-14548
▁nguy	-14549
▁sync	-14550
ischen	-14551
schule	-14552
▁22000	-14553
▁cours	-14554
▁patri	-14555
▁petro	-14556
▁prima	-14557
▁amanda	-14558
▁powell	-14559
▁savage	-14560
▁adtranz	-14561
▁concord	-14562
▁therapy	-14563
▁tiffany	-14564
▁verizon	-14565
▁geoffrey	-14566
▁junction	-14567
▁mohammed	-14568
▁montbard	-14569
▁monument	-14570
▁patricia	-14571
▁elisabeth	-14572
▁synthesis	-14573
▁gamesradar	-14574
▁mathematics	-14575
⿳⿶	-14576
351	-14577
402	-14578
uls	-14579
2011	-14580
2017	-14581
anco	-14582
fare	-14583
fast	-14584
lair	-14585
▁cai	-14586
▁foo	-14587
▁hcl	-14588
▁hos	-14589
▁hui	-14590
▁jub	-14591
▁rng	-14592
▁tse	-14593
▁wpa	-14594
丿𠃌攵金	-14595
front	-14596
▁7800	-14597
▁gree	-14598
▁hair	-14599
▁iowa	-14600
▁noah	-14601
▁soon	-14602
▁witt	-14603
ingham	-14604
▁derby	-14605
▁exist	-14606
▁often	-14607
▁sight	-14608
▁weiss	-14609
▁whats	-14610
▁escape	-14611
▁nippon	-14612
▁output	-14613
▁pietro	-14614
▁zetima	-14615
▁fellows	-14616
▁shannon	-14617
▁spexial	-14618
▁direction	-14619
▁enterbrain	-14620
▁initiative	-14621
eo	-14622
yk	-14623
137	-14624
138	-14625
156	-14626
atz	-14627
▁fv	-14628
otes	-14629
▁biz	-14630
▁cot	-14631
▁hac	-14632
▁tao	-14633
▁tha	-14634
▁xsl	-14635
arten	-14636
ennes	-14637
etics	-14638
ilder	-14639
▁1062	-14640
▁deal	-14641
▁dice	-14642
▁doll	-14643
▁jumo	-14644
▁manh	-14645
▁oecd	-14646
▁prev	-14647
▁puma	-14648
▁suit	-14649
▁coord	-14650
▁daisy	-14651
▁punch	-14652
▁rider	-14653
▁roche	-14654
▁uncle	-14655
▁eeeeee	-14656
▁groove	-14657
▁kinect	-14658
▁propos	-14659
▁status	-14660
▁newtype	-14661
▁berkeley	-14662
▁mediawiki	-14663
sz	-14664
亻求	-14665
钅彡	-14666
161	-14667
290	-14668
502	-14669
gle	-14670
inx	-14671
udo	-14672
2009	-14673
ceed	-14674
clus	-14675
erno	-14676
▁bid	-14677
▁boc	-14678
▁cvs	-14679
▁dex	-14680
▁dms	-14681
▁rpc	-14682
▁snp	-14683
encia	-14684
enses	-14685
iston	-14686
▁1084	-14687
▁bits	-14688
▁hsbc	-14689
▁labs	-14690
▁wwdc	-14691
▁zion	-14692
escent	-14693
▁along	-14694
▁ellis	-14695
▁grade	-14696
▁meego	-14697
▁notre	-14698
▁ouest	-14699
▁pablo	-14700
▁taste	-14701
▁worth	-14702
▁concep	-14703
▁darwin	-14704
▁fergus	-14705
▁geomet	-14706
▁jensen	-14707
▁ancient	-14708
▁assault	-14709
▁houston	-14710
▁indones	-14711
▁microsd	-14712
ellschaft	-14713
▁question	-14714
▁scottish	-14715
▁cherbourg	-14716
▁electronics	-14717
bm	-14718
米更	-14719
238	-14720
264	-14721
enk	-14722
lak	-14723
tur	-14724
utz	-14725
lash	-14726
mind	-14727
ogne	-14728
ylon	-14729
▁dac	-14730
▁oth	-14731
▁siv	-14732
ensor	-14733
▁4900	-14734
▁aclu	-14735
▁duch	-14736
▁ogle	-14737
▁omar	-14738
▁slow	-14739
▁sampa	-14740
▁stere	-14741
▁albums	-14742
▁ashley	-14743
▁binary	-14744
▁bottom	-14745
▁desert	-14746
▁expans	-14747
▁konami	-14748
▁marian	-14749
▁bedford	-14750
▁session	-14751
▁pleasure	-14752
▁strategic	-14753
氵内	-14754
金夫	-14755
门一	-14756
251	-14757
efi	-14758
pha	-14759
tax	-14760
ugu	-14761
士冖车	-14762
anes	-14763
boys	-14764
isto	-14765
mons	-14766
oint	-14767
▁icu	-14768
▁muc	-14769
▁naw	-14770
▁sop	-14771
▁wrx	-14772
ascar	-14773
maker	-14774
▁8086	-14775
▁defe	-14776
▁polo	-14777
▁poor	-14778
▁sank	-14779
▁zach	-14780
▁globe	-14781
▁slash	-14782
▁types	-14783
▁chanel	-14784
▁leader	-14785
▁margin	-14786
▁radical	-14787
▁principle	-14788
▁individual	-14789
▁encyclopedia	-14790
▁ユ	-14791
土垂	-14792
𠂉斤	-14793
龶夂夫	-14794
chia	-14795
eton	-14796
oven	-14797
wser	-14798
▁atx	-14799
▁crc	-14800
▁ssg	-14801
▁syl	-14802
▁wak	-14803
ibada	-14804
teron	-14805
▁8300	-14806
▁braz	-14807
▁dhar	-14808
▁eure	-14809
▁phon	-14810
▁ying	-14811
▁80000	-14812
▁penns	-14813
▁ratio	-14814
▁wendy	-14815
▁dollar	-14816
▁parade	-14817
▁fighting	-14818
▁receptor	-14819
▁resource	-14820
▁whatsapp	-14821
▁equipment	-14822
▁sourceforge	-14823
▁thunderbird	-14824
gw	-14825
210	-14826
280	-14827
dma	-14828
▁ew	-14829
冖車阝	-14830
目八心	-14831
2016	-14832
feed	-14833
fest	-14834
lord	-14835
▁aab	-14836
▁emo	-14837
▁ivy	-14838
▁lms	-14839
▁obl	-14840
▁ruf	-14841
▁tna	-14842
▁vig	-14843
onder	-14844
▁7300	-14845
▁7400	-14846
▁dent	-14847
▁dors	-14848
▁kane	-14849
▁emper	-14850
▁gucci	-14851
▁maint	-14852
▁torre	-14853
▁brooks	-14854
▁flickr	-14855
▁harbour	-14856
▁lorenzo	-14857
▁champions	-14858
▁lightning	-14859
▁smalltalk	-14860
▁transportation	-14861
hm	-14862
jd	-14863
kj	-14864
氵央	-14865
179	-14866
193	-14867
239	-14868
jee	-14869
▁rz	-14870
匕火頁	-14871
acha	-14872
illi	-14873
phin	-14874
unge	-14875
▁acs	-14876
▁alv	-14877
▁bpm	-14878
▁dfa	-14879
▁dil	-14880
▁ltp	-14881
▁scb	-14882
▁tik	-14883
▁ttl	-14884
▁ucc	-14885
icity	-14886
inkle	-14887
kirch	-14888
ovsky	-14889
▁2036	-14890
▁hawk	-14891
estyle	-14892
hausen	-14893
phalus	-14894
▁avran	-14895
▁boris	-14896
▁brass	-14897
▁clann	-14898
▁liver	-14899
▁reven	-14900
▁vegas	-14901
version	-14902
▁hidden	-14903
▁parish	-14904
▁summit	-14905
▁wesley	-14906
▁conduct	-14907
▁gardens	-14908
▁measure	-14909
▁related	-14910
▁christine	-14911
▁powerpoint	-14912
▁applications	-14913
tu	-14914
石斤	-14915
门韦	-14916
152	-14917
166	-14918
188	-14919
ijk	-14920
▁lw	-14921
二厶刂	-14922
幺芉由	-14923
𠁣𠃛言	-14924
crib	-14925
omed	-14926
orie	-14927
▁edm	-14928
▁ibf	-14929
▁seo	-14930
▁zfc	-14931
guard	-14932
insky	-14933
▁este	-14934
▁mime	-14935
▁risk	-14936
▁wear	-14937
▁zico	-14938
schild	-14939
▁absol	-14940
▁blair	-14941
▁brett	-14942
▁bunny	-14943
▁irene	-14944
▁lands	-14945
▁mausu	-14946
▁radar	-14947
▁volks	-14948
▁apollo	-14949
▁connor	-14950
▁griffin	-14951
▁consider	-14952
▁midnight	-14953
▁morrison	-14954
▁tactical	-14955
▁innovation	-14956
▁restaurant	-14957
162	-14958
255	-14959
acc	-14960
agi	-14961
bir	-14962
gra	-14963
hin	-14964
lez	-14965
los	-14966
zia	-14967
▁cq	-14968
▁xu	-14969
▁xz	-14970
夂卜日	-14971
erne	-14972
list	-14973
otus	-14974
udes	-14975
▁ack	-14976
▁ecu	-14977
▁miz	-14978
▁zak	-14979
▁zan	-14980
aller	-14981
asing	-14982
matic	-14983
place	-14984
ridge	-14985
▁anno	-14986
▁fuse	-14987
▁hess	-14988
▁tier	-14989
▁wire	-14990
▁zeta	-14991
▁liber	-14992
▁prior	-14993
▁across	-14994
▁aurora	-14995
▁kotaku	-14996
▁module	-14997
▁nights	-14998
▁purple	-14999
▁speech	-15000
▁bigorre	-15001
▁madonna	-15002
▁zealand	-15003
▁behavior	-15004
▁certific	-15005
▁jefferson	-15006
▁manchester	-15007
木角	-15008
209	-15009
505	-15010
ahl	-15011
dar	-15012
eti	-15013
ped	-15014
rew	-15015
千口氏	-15016
0001	-15017
1897	-15018
colm	-15019
live	-15020
ocks	-15021
thor	-15022
▁19°	-15023
▁ams	-15024
▁hes	-15025
▁ish	-15026
▁kdl	-15027
▁msm	-15028
▁nun	-15029
▁pvp	-15030
▁rae	-15031
▁ses	-15032
▁sto	-15033
▁tos	-15034
▁wad	-15035
▁wap	-15036
ption	-15037
ulate	-15038
▁1051	-15039
▁alas	-15040
▁goss	-15041
▁mord	-15042
▁mori	-15043
▁pere	-15044
▁sana	-15045
cement	-15046
imedia	-15047
inator	-15048
▁angle	-15049
▁gates	-15050
▁miche	-15051
▁answer	-15052
▁marsan	-15053
▁rivers	-15054
▁transm	-15055
▁consult	-15056
▁florida	-15057
▁unknown	-15058
▁descript	-15059
▁positive	-15060
▁richmond	-15061
▁township	-15062
▁avranches	-15063
▁powershot	-15064
▁postgresql	-15065
▁resistance	-15066
氵自	-15067
犭广	-15068
242	-15069
606	-15070
abo	-15071
dna	-15072
mul	-15073
pse	-15074
2014	-15075
3100	-15076
mbit	-15077
opal	-15078
pton	-15079
sons	-15080
▁cic	-15081
▁ipc	-15082
▁rou	-15083
▁yee	-15084
ignan	-15085
umann	-15086
uttle	-15087
▁boat	-15088
▁dana	-15089
▁koda	-15090
▁oled	-15091
▁uefi	-15092
▁went	-15093
ughter	-15094
utical	-15095
▁allow	-15096
▁boost	-15097
▁buddy	-15098
▁gecko	-15099
▁merry	-15100
▁novel	-15101
▁orbit	-15102
▁quake	-15103
▁rotem	-15104
▁sabah	-15105
▁meteor	-15106
▁mojang	-15107
▁nicole	-15108
▁nogent	-15109
▁gravity	-15110
▁langres	-15111
▁malcolm	-15112
▁mirande	-15113
▁rosetta	-15114
▁theodor	-15115
▁polytech	-15116
js	-15117
辶求	-15118
金卜	-15119
钅衣	-15120
259	-15121
270	-15122
ccc	-15123
chr	-15124
lew	-15125
ohn	-15126
opt	-15127
▁jw	-15128
aeus	-15129
eces	-15130
hart	-15131
ipes	-15132
▁fog	-15133
▁nup	-15134
▁sik	-15135
▁uic	-15136
▁zig	-15137
ilian	-15138
▁3001	-15139
▁7600	-15140
▁alth	-15141
▁berk	-15142
▁emin	-15143
▁evol	-15144
▁finn	-15145
▁lens	-15146
▁leuc	-15147
▁loen	-15148
▁ofdm	-15149
▁rage	-15150
▁smrt	-15151
▁spas	-15152
▁turt	-15153
▁viol	-15154
▁angelo	-15155
▁annual	-15156
▁conrad	-15157
▁weapon	-15158
▁clannad	-15159
▁economy	-15160
▁opteron	-15161
▁darkness	-15162
▁soribada	-15163
▁theodore	-15164
▁babymetal	-15165
▁materials	-15166
▁literature	-15167
▁resolution	-15168
▁pennsylvania	-15169
mn	-15170
132	-15171
165	-15172
254	-15173
iat	-15174
qua	-15175
sec	-15176
▁jl	-15177
▁qa	-15178
丷干攵	-15179
白匕卩	-15180
aint	-15181
chel	-15182
fall	-15183
hand	-15184
imon	-15185
inth	-15186
mule	-15187
omen	-15188
part	-15189
▁aia	-15190
▁beg	-15191
▁cio	-15192
▁dmc	-15193
▁dts	-15194
▁iib	-15195
▁kha	-15196
▁laf	-15197
▁tlc	-15198
ersey	-15199
ished	-15200
▁avro	-15201
▁eval	-15202
▁hala	-15203
▁hole	-15204
▁hund	-15205
▁kumi	-15206
▁leap	-15207
▁marg	-15208
▁musa	-15209
▁sage	-15210
▁seth	-15211
▁45000	-15212
▁banks	-15213
▁blitz	-15214
▁britt	-15215
▁crush	-15216
▁egypt	-15217
▁floor	-15218
▁neway	-15219
▁recon	-15220
▁archae	-15221
▁forbes	-15222
▁monday	-15223
▁motoro	-15224
▁falling	-15225
▁mapframe	-15226
▁satellite	-15227
yc	-15228
口乍	-15229
164	-15230
605	-15231
608	-15232
fit	-15233
nor	-15234
via	-15235
eaux	-15236
ento	-15237
eper	-15238
iami	-15239
iate	-15240
ippi	-15241
▁bej	-15242
▁cly	-15243
▁efi	-15244
▁kaf	-15245
▁mgm	-15246
▁zis	-15247
enter	-15248
▁9999	-15249
▁chad	-15250
▁mora	-15251
▁pair	-15252
▁sale	-15253
厶厶一日戈	-15254
▁arsen	-15255
▁ayumi	-15256
▁freak	-15257
▁moody	-15258
▁shake	-15259
▁trend	-15260
▁americ	-15261
▁deport	-15262
▁salins	-15263
▁contact	-15264
▁harmony	-15265
▁harvest	-15266
▁statist	-15267
▁warrior	-15268
▁bernhard	-15269
▁intermed	-15270
▁problems	-15271
▁religion	-15272
▁shopping	-15273
▁dangerous	-15274
bj	-15275
月彡	-15276
157	-15277
168	-15278
196	-15279
218	-15280
arh	-15281
chy	-15282
nis	-15283
sum	-15284
urb	-15285
uxe	-15286
镸彡兀	-15287
angu	-15288
boot	-15289
olan	-15290
▁hoh	-15291
▁qew	-15292
etric	-15293
otten	-15294
ulata	-15295
vreux	-15296
▁doom	-15297
▁ecfa	-15298
▁gift	-15299
▁guil	-15300
▁miui	-15301
▁mixt	-15302
▁nate	-15303
▁panc	-15304
▁seal	-15305
▁slip	-15306
▁tone	-15307
ometer	-15308
▁comet	-15309
▁dress	-15310
▁logan	-15311
▁phila	-15312
▁woods	-15313
▁bonnie	-15314
▁figure	-15315
▁irving	-15316
▁kansas	-15317
▁magdal	-15318
▁singer	-15319
▁viktor	-15320
▁wagner	-15321
▁liberal	-15322
▁maximum	-15323
▁seasons	-15324
▁crawford	-15325
▁download	-15326
▁embedded	-15327
▁emmanuel	-15328
▁motorola	-15329
▁pressure	-15330
▁continental	-15331
fz	-15332
▁囗	-15333
土巳	-15334
604	-15335
653	-15336
fps	-15337
kie	-15338
kon	-15339
mec	-15340
ups	-15341
▁nz	-15342
▁oa	-15343
alon	-15344
four	-15345
inct	-15346
▁anc	-15347
▁ave	-15348
▁dok	-15349
▁erp	-15350
▁img	-15351
▁kwk	-15352
▁osm	-15353
▁pim	-15354
attle	-15355
▁9800	-15356
▁blow	-15357
▁ding	-15358
▁hila	-15359
▁tart	-15360
▁vala	-15361
atives	-15362
system	-15363
▁chanc	-15364
▁debut	-15365
▁entry	-15366
▁europ	-15367
▁kuala	-15368
▁neigh	-15369
▁porta	-15370
▁romeo	-15371
▁infant	-15372
▁macrom	-15373
▁native	-15374
▁patrol	-15375
▁quadro	-15376
▁sidney	-15377
▁atlanta	-15378
▁concern	-15379
▁dorothy	-15380
▁emperor	-15381
▁imaging	-15382
▁traffic	-15383
▁determin	-15384
▁historic	-15385
▁alexandre	-15386
▁important	-15387
▁standards	-15388
dx	-15389
廿尺	-15390
弋甘	-15391
266	-15392
403	-15393
raz	-15394
yne	-15395
▁kz	-15396
idan	-15397
shan	-15398
tale	-15399
ulla	-15400
ylie	-15401
▁aek	-15402
▁asm	-15403
▁cmg	-15404
▁ils	-15405
▁kei	-15406
▁mug	-15407
▁nis	-15408
▁wig	-15409
basic	-15410
otive	-15411
▁alta	-15412
▁baob	-15413
▁disp	-15414
▁hann	-15415
▁lump	-15416
▁mens	-15417
▁nist	-15418
▁punt	-15419
▁rift	-15420
▁scen	-15421
▁susp	-15422
▁turb	-15423
▁vivo	-15424
▁volt	-15425
ements	-15426
kirche	-15427
▁advis	-15428
▁bulld	-15429
▁chant	-15430
▁forms	-15431
▁frost	-15432
▁given	-15433
▁icoca	-15434
▁johor	-15435
▁melan	-15436
▁paras	-15437
▁assess	-15438
▁marcel	-15439
▁reserv	-15440
▁brigade	-15441
▁bristol	-15442
▁chapman	-15443
▁harvard	-15444
▁respons	-15445
▁simpson	-15446
▁destruct	-15447
▁internal	-15448
▁practice	-15449
▁functions	-15450
▁treatment	-15451
▁wrestling	-15452
▁liberation	-15453
禾果	-15454
钅方	-15455
905	-15456
nia	-15457
▁dq	-15458
▁hq	-15459
avia	-15460
bold	-15461
otti	-15462
thal	-15463
▁giv	-15464
▁lcs	-15465
▁rpk	-15466
▁spd	-15467
antin	-15468
brand	-15469
erver	-15470
raine	-15471
▁2034	-15472
▁dans	-15473
▁halo	-15474
▁herc	-15475
▁morg	-15476
▁typh	-15477
ologie	-15478
▁benny	-15479
▁choco	-15480
▁heinz	-15481
▁mixed	-15482
▁raven	-15483
▁ribon	-15484
▁scout	-15485
▁sparc	-15486
▁split	-15487
▁curtis	-15488
▁frankf	-15489
▁luther	-15490
▁teresa	-15491
▁activex	-15492
▁browser	-15493
▁dynasty	-15494
▁miracle	-15495
▁missing	-15496
▁beginning	-15497
wy	-15498
亻兆	-15499
讠山	-15500
豆工	-15501
饣戋	-15502
174	-15503
456	-15504
hpa	-15505
itr	-15506
riz	-15507
▁fy	-15508
▁mz	-15509
▁qi	-15510
▁⿷⿸	-15511
一内阝	-15512
ects	-15513
iker	-15514
oday	-15515
▁32°	-15516
▁adj	-15517
▁boe	-15518
▁itt	-15519
▁kav	-15520
凵丨王攵	-15521
𠂊田一由	-15522
annes	-15523
archy	-15524
▁7100	-15525
▁cuda	-15526
▁drew	-15527
▁graf	-15528
▁nept	-15529
▁rode	-15530
▁syfy	-15531
㐅乂木大石	-15532
struct	-15533
▁bever	-15534
▁curie	-15535
▁eugen	-15536
▁paolo	-15537
▁randy	-15538
▁satur	-15539
▁shape	-15540
▁baobab	-15541
▁ending	-15542
▁fiesta	-15543
▁takara	-15544
▁deliver	-15545
▁greater	-15546
▁phillip	-15547
▁cyanogen	-15548
▁grenoble	-15549
▁politics	-15550
▁generations	-15551
mk	-15552
中皿	-15553
土甘	-15554
氵乐	-15555
143	-15556
ioc	-15557
yar	-15558
▁eo	-15559
▁zd	-15560
▁zr	-15561
club	-15562
icum	-15563
itus	-15564
oney	-15565
oter	-15566
ovic	-15567
unce	-15568
wehr	-15569
▁36°	-15570
▁ags	-15571
▁kne	-15572
▁mbt	-15573
▁nmr	-15574
▁ols	-15575
▁rtl	-15576
▁xyz	-15577
iques	-15578
olens	-15579
▁7700	-15580
▁8700	-15581
▁cald	-15582
▁nast	-15583
▁nero	-15584
▁soar	-15585
▁tram	-15586
▁aleks	-15587
▁alien	-15588
▁bravo	-15589
▁curve	-15590
▁eleph	-15591
▁prosp	-15592
▁rocky	-15593
▁tsing	-15594
▁tumbl	-15595
▁finder	-15596
▁methyl	-15597
▁nichol	-15598
▁rafael	-15599
▁weight	-15600
▁xavier	-15601
▁auguste	-15602
▁thought	-15603
▁workers	-15604
▁deadline	-15605
▁available	-15606
▁reflection	-15607
▁universities	-15608
kl	-15609
wu	-15610
立束	-15611
竹见	-15612
167	-15613
184	-15614
iry	-15615
upa	-15616
▁wf	-15617
1100	-15618
adia	-15619
atur	-15620
aves	-15621
lake	-15622
▁37°	-15623
▁jah	-15624
▁kro	-15625
▁lfa	-15626
▁mpl	-15627
▁nus	-15628
▁yum	-15629
wagen	-15630
ziers	-15631
▁9700	-15632
▁lara	-15633
▁plug	-15634
▁vela	-15635
▁wade	-15636
▁yeah	-15637
eneuve	-15638
▁curry	-15639
▁dijon	-15640
▁guild	-15641
▁lemon	-15642
▁levin	-15643
▁paulo	-15644
▁pulau	-15645
▁sally	-15646
▁shore	-15647
jection	-15648
▁cities	-15649
▁jackie	-15650
▁korean	-15651
▁lauren	-15652
▁sphere	-15653
▁sprint	-15654
▁missile	-15655
▁webster	-15656
▁chromium	-15657
▁contents	-15658
▁everybody	-15659
▁expansion	-15660
▁quicktime	-15661
▁robertson	-15662
▁libreoffice	-15663
407	-15664
fre	-15665
mag	-15666
tec	-15667
tim	-15668
yst	-15669
八刀廾	-15670
艹冖糸	-15671
2013	-15672
asan	-15673
uler	-15674
▁alo	-15675
▁cts	-15676
▁lom	-15677
▁meh	-15678
▁mey	-15679
▁ort	-15680
▁pec	-15681
▁ptr	-15682
▁sdf	-15683
▁tis	-15684
▁usc	-15685
▁wyn	-15686
▁zer	-15687
ained	-15688
games	-15689
ially	-15690
obile	-15691
style	-15692
▁2160	-15693
▁aqua	-15694
▁bike	-15695
▁bung	-15696
▁herr	-15697
▁rend	-15698
▁repl	-15699
▁tanh	-15700
inique	-15701
tienne	-15702
▁crash	-15703
▁genus	-15704
▁leave	-15705
▁revol	-15706
osuchus	-15707
▁broken	-15708
▁elliot	-15709
▁faculty	-15710
▁lambert	-15711
▁letters	-15712
▁opening	-15713
▁website	-15714
▁athletic	-15715
▁according	-15716
▁algorithm	-15717
▁construct	-15718
▁superstar	-15719
▁publications	-15720
pu	-15721
虫见	-15722
176	-15723
358	-15724
602	-15725
906	-15726
cue	-15727
ifa	-15728
lio	-15729
ync	-15730
▁ql	-15731
土口彡	-15732
ably	-15733
iese	-15734
ipur	-15735
▁ddt	-15736
▁dsc	-15737
▁eds	-15738
▁lid	-15739
▁lys	-15740
▁mdr	-15741
▁mip	-15742
▁owl	-15743
▁psc	-15744
▁slo	-15745
▁smt	-15746
▁zar	-15747
athon	-15748
heast	-15749
iplex	-15750
sonne	-15751
▁8100	-15752
▁bout	-15753
▁chir	-15754
▁gour	-15755
▁kall	-15756
▁thin	-15757
▁whis	-15758
▁zeit	-15759
lander	-15760
▁32000	-15761
▁bains	-15762
▁brock	-15763
▁coron	-15764
▁named	-15765
▁navar	-15766
▁retro	-15767
▁shirt	-15768
▁wimax	-15769
avarman	-15770
▁fourth	-15771
▁genome	-15772
▁horace	-15773
▁jerome	-15774
▁patter	-15775
▁biology	-15776
▁pattern	-15777
▁silicon	-15778
▁tenness	-15779
▁unified	-15780
▁operator	-15781
▁stardust	-15782
▁sebastian	-15783
eg	-15784
sr	-15785
xi	-15786
廿丨	-15787
146	-15788
147	-15789
288	-15790
jay	-15791
orb	-15792
木木土	-15793
alus	-15794
gard	-15795
iche	-15796
wise	-15797
▁ait	-15798
▁anu	-15799
▁cpr	-15800
▁ded	-15801
▁dss	-15802
▁ees	-15803
▁haf	-15804
▁iis	-15805
▁pcl	-15806
▁slc	-15807
▁usp	-15808
▁yau	-15809
廿丨冖巾	-15810
iella	-15811
iency	-15812
ilion	-15813
▁2038	-15814
▁adsl	-15815
▁conv	-15816
▁mask	-15817
▁moss	-15818
▁raff	-15819
▁vera	-15820
▁verb	-15821
▁cyrix	-15822
▁emplo	-15823
▁input	-15824
▁lynch	-15825
▁miami	-15826
▁rever	-15827
▁riley	-15828
▁santo	-15829
▁voith	-15830
▁zhang	-15831
▁breath	-15832
▁condom	-15833
▁crytek	-15834
▁limoux	-15835
▁oculus	-15836
▁really	-15837
▁travis	-15838
▁betamax	-15839
▁germany	-15840
▁colorado	-15841
▁enhanced	-15842
▁singular	-15843
▁molecular	-15844
▁millennium	-15845
sf	-15846
户衣	-15847
月兆	-15848
爿木	-15849
钅乚	-15850
144	-15851
357	-15852
eau	-15853
iji	-15854
top	-15855
▁yh	-15856
力口肉	-15857
囗呦力	-15858
2003	-15859
aise	-15860
omes	-15861
onto	-15862
quez	-15863
ucks	-15864
▁dmm	-15865
▁eck	-15866
▁ems	-15867
▁eta	-15868
▁ism	-15869
▁ked	-15870
▁kev	-15871
▁nai	-15872
▁ned	-15873
▁pso	-15874
▁qui	-15875
▁siu	-15876
▁spc	-15877
▁ssa	-15878
丷干攵皿	-15879
allow	-15880
ignac	-15881
oting	-15882
▁beer	-15883
▁bore	-15884
▁boul	-15885
▁chch	-15886
▁cnet	-15887
▁fang	-15888
▁parc	-15889
▁rene	-15890
▁sole	-15891
▁symm	-15892
▁yuri	-15893
erties	-15894
minute	-15895
▁arrow	-15896
▁clara	-15897
▁enemy	-15898
▁guang	-15899
▁outer	-15900
▁pyram	-15901
▁schwe	-15902
▁spice	-15903
▁behind	-15904
▁loving	-15905
▁pseudo	-15906
▁vivian	-15907
▁elliott	-15908
▁flowers	-15909
▁gamepro	-15910
▁giorgio	-15911
▁jenkins	-15912
▁kampung	-15913
▁trouble	-15914
▁concepts	-15915
▁assistant	-15916
▁condition	-15917
▁henderson	-15918
bt	-15919
dt	-15920
亻王	-15921
比必	-15922
236	-15923
285	-15924
706	-15925
mie	-15926
rna	-15927
1300	-15928
1903	-15929
alan	-15930
eroy	-15931
grad	-15932
iros	-15933
noon	-15934
pack	-15935
stan	-15936
usse	-15937
▁alx	-15938
▁ani	-15939
▁jus	-15940
▁mct	-15941
▁viz	-15942
丿冂米丂	-15943
acher	-15944
icher	-15945
▁2080	-15946
▁aman	-15947
▁amus	-15948
▁henn	-15949
▁hyde	-15950
▁stag	-15951
▁trag	-15952
▁yuki	-15953
player	-15954
weiler	-15955
▁birds	-15956
▁brent	-15957
▁donna	-15958
▁marin	-15959
▁mercy	-15960
▁mouse	-15961
▁sheph	-15962
▁theme	-15963
▁weber	-15964
imation	-15965
▁appear	-15966
▁clover	-15967
▁dallas	-15968
▁hotels	-15969
▁nforce	-15970
▁trophy	-15971
▁beatles	-15972
▁eternal	-15973
▁gardner	-15974
▁montgom	-15975
▁trident	-15976
▁dinosaur	-15977
▁manhattan	-15978
▁relations	-15979
▁psychology	-15980
▁villeneuve	-15981
口更	-15982
虫毛	-15983
777	-15984
org	-15985
uty	-15986
▁uz	-15987
扌斤虫	-15988
acom	-15989
iona	-15990
ydro	-15991
▁12°	-15992
▁34°	-15993
▁afp	-15994
▁asa	-15995
▁coa	-15996
▁gug	-15997
▁ktx	-15998
▁luv	-15999
▁mcp	-16000
▁ops	-16001
▁yeh	-16002
rance	-16003
▁alge	-16004
▁arct	-16005
▁cars	-16006
▁eccl	-16007
▁mage	-16008
▁phoe	-16009
▁quiz	-16010
▁slam	-16011
▁toll	-16012
▁27000	-16013
▁armor	-16014
▁asper	-16015
▁erich	-16016
▁loire	-16017
▁marks	-16018
▁pione	-16019
▁rural	-16020
▁theta	-16021
▁trich	-16022
▁twist	-16023
limited	-16024
▁amoled	-16025
▁carmen	-16026
▁expert	-16027
▁jersey	-16028
▁jessie	-16029
▁ticket	-16030
▁heights	-16031
▁imagine	-16032
▁madison	-16033
▁pearson	-16034
▁results	-16035
▁ricardo	-16036
▁solomon	-16037
▁activity	-16038
▁florence	-16039
▁strategy	-16040
▁superior	-16041
▁catalogue	-16042
fx	-16043
钅我	-16044
189	-16045
406	-16046
550	-16047
dor	-16048
oks	-16049
▁qc	-16050
vich	-16051
▁blg	-16052
▁doh	-16053
▁pem	-16054
▁yen	-16055
ently	-16056
▁alam	-16057
▁arte	-16058
▁chao	-16059
▁dena	-16060
▁jill	-16061
▁join	-16062
▁kwan	-16063
▁lyon	-16064
▁toys	-16065
▁wein	-16066
lababy	-16067
▁stark	-16068
asaurus	-16069
▁analyt	-16070
▁armani	-16071
▁gregor	-16072
▁hannah	-16073
▁mongol	-16074
▁penins	-16075
▁qwerty	-16076
▁tumblr	-16077
▁chester	-16078
▁mapping	-16079
▁methods	-16080
▁audition	-16081
▁decision	-16082
▁tennessee	-16083
▁montgomery	-16084
彳且	-16085
角瓜	-16086
261	-16087
344	-16088
702	-16089
azi	-16090
flo	-16091
gee	-16092
sto	-16093
一大刂	-16094
士口力	-16095
2015	-16096
akan	-16097
alat	-16098
enau	-16099
iale	-16100
reza	-16101
▁aro	-16102
▁avi	-16103
▁bip	-16104
▁ccr	-16105
▁csf	-16106
▁dit	-16107
▁diz	-16108
▁iga	-16109
▁iic	-16110
▁ppt	-16111
十豆口心	-16112
iscus	-16113
isoft	-16114
otech	-16115
power	-16116
▁8200	-16117
▁cave	-16118
▁edin	-16119
▁lgpl	-16120
▁mcle	-16121
▁msci	-16122
▁ones	-16123
▁seng	-16124
▁sten	-16125
ending	-16126
heimer	-16127
ophone	-16128
▁atrac	-16129
▁delay	-16130
▁digic	-16131
▁inhib	-16132
▁juice	-16133
▁klaus	-16134
▁percy	-16135
▁become	-16136
▁former	-16137
▁hassan	-16138
▁legion	-16139
▁lovers	-16140
▁martha	-16141
▁milton	-16142
▁nether	-16143
▁animals	-16144
▁baldwin	-16145
▁buffalo	-16146
▁macross	-16147
▁variety	-16148
▁anything	-16149
▁anywhere	-16150
▁baptiste	-16151
▁platinum	-16152
▁signific	-16153
▁ventures	-16154
▁powerbook	-16155
石比	-16156
247	-16157
gev	-16158
hab	-16159
jam	-16160
odo	-16161
yah	-16162
zar	-16163
zin	-16164
▁pq	-16165
▁vj	-16166
appy	-16167
ened	-16168
quel	-16169
shaw	-16170
uria	-16171
vaux	-16172
word	-16173
▁aip	-16174
▁ccc	-16175
▁cns	-16176
▁esi	-16177
▁gia	-16178
▁gue	-16179
▁hua	-16180
▁pha	-16181
▁tpe	-16182
▁ymc	-16183
emble	-16184
olith	-16185
▁0002	-16186
▁2650	-16187
▁carb	-16188
▁fand	-16189
▁hime	-16190
▁isla	-16191
▁nach	-16192
▁reid	-16193
▁tort	-16194
▁wann	-16195
estone	-16196
island	-16197
▁anglo	-16198
▁towns	-16199
berland	-16200
ensions	-16201
▁cannon	-16202
▁fraser	-16203
▁honour	-16204
▁mighty	-16205
▁rescue	-16206
▁barrett	-16207
▁mikhail	-16208
▁mohamed	-16209
▁sisters	-16210
▁addition	-16211
▁discover	-16212
▁hamasaki	-16213
▁telltale	-16214
▁schneider	-16215
▁properties	-16216
▁instruction	-16217
▁silverlight	-16218
▁wissembourg	-16219
扌专	-16220
扌门	-16221
耳冉	-16222
154	-16223
224	-16224
afa	-16225
aff	-16226
ept	-16227
jah	-16228
obi	-16229
yal	-16230
1919	-16231
icht	-16232
only	-16233
rina	-16234
ssen	-16235
▁38°	-16236
▁ami	-16237
▁arx	-16238
▁buy	-16239
▁dsl	-16240
▁eli	-16241
▁jug	-16242
▁kut	-16243
▁lua	-16244
▁mls	-16245
▁wcw	-16246
acity	-16247
ersen	-16248
riage	-16249
▁8400	-16250
▁capp	-16251
▁duty	-16252
▁forg	-16253
▁poll	-16254
▁tess	-16255
anthus	-16256
▁alter	-16257
▁arist	-16258
▁bitch	-16259
▁filip	-16260
▁luigi	-16261
▁nexon	-16262
▁quinn	-16263
▁tango	-16264
enstein	-16265
▁bernay	-16266
▁gerard	-16267
▁icloud	-16268
▁mental	-16269
▁metall	-16270
▁minnes	-16271
▁prepar	-16272
▁changes	-16273
▁endless	-16274
▁horipro	-16275
▁impreza	-16276
▁richter	-16277
▁writing	-16278
▁negative	-16279
▁certified	-16280
▁emergency	-16281
▁recording	-16282
▁unlimited	-16283
▁alexandria	-16284
▁excellence	-16285
▁population	-16286
▁conservation	-16287
口角	-16288
141	-16289
265	-16290
355	-16291
aho	-16292
cam	-16293
gat	-16294
mex	-16295
pon	-16296
十又目	-16297
bolt	-16298
iago	-16299
icom	-16300
mitt	-16301
odle	-16302
rons	-16303
▁abi	-16304
▁ctu	-16305
▁ego	-16306
▁evo	-16307
▁ico	-16308
▁ldl	-16309
▁mmx	-16310
▁rcs	-16311
▁sna	-16312
▁srb	-16313
▁zel	-16314
ately	-16315
inski	-16316
▁118°	-16317
▁carm	-16318
▁chok	-16319
▁emer	-16320
▁espa	-16321
▁foix	-16322
▁popc	-16323
▁quot	-16324
▁shim	-16325
▁sina	-16326
▁yand	-16327
wealth	-16328
▁68000	-16329
▁abstr	-16330
▁caval	-16331
▁expos	-16332
▁files	-16333
▁humph	-16334
▁kappa	-16335
▁matth	-16336
▁resid	-16337
▁carcas	-16338
▁improv	-16339
▁regina	-16340
ransport	-16341
▁anthrop	-16342
▁balance	-16343
▁blender	-16344
▁celeron	-16345
▁gerhard	-16346
▁objects	-16347
▁isabella	-16348
▁minnesota	-16349
▁navigator	-16350
▁carcassonne	-16351
wb	-16352
▁隹	-16353
火羊	-16354
艹卯	-16355
158	-16356
186	-16357
271	-16358
409	-16359
855	-16360
blo	-16361
esk	-16362
lal	-16363
▁gv	-16364
anan	-16365
chem	-16366
yang	-16367
▁21°	-16368
▁46°	-16369
▁80°	-16370
▁adl	-16371
▁cps	-16372
▁ene	-16373
▁fas	-16374
▁ifa	-16375
▁nfa	-16376
▁nix	-16377
▁nsx	-16378
▁ugc	-16379
▁xin	-16380
illed	-16381
oland	-16382
▁8600	-16383
▁fips	-16384
▁foll	-16385
▁gplv	-16386
▁ivpp	-16387
▁oste	-16388
▁pert	-16389
▁pill	-16390
▁pull	-16391
▁quin	-16392
▁sort	-16393
▁youb	-16394
▁brien	-16395
▁crane	-16396
▁marqu	-16397
▁msnbc	-16398
▁penny	-16399
▁divers	-16400
▁hubert	-16401
▁jennie	-16402
▁minute	-16403
▁mosfet	-16404
▁stanag	-16405
▁telesc	-16406
▁feeling	-16407
▁jupiter	-16408
▁ranking	-16409
▁testing	-16410
▁compress	-16411
▁griffith	-16412
▁largenti	-16413
▁laughing	-16414
▁mcdonald	-16415
▁angelababy	-16416
▁certificate	-16417
犭贝	-16418
488	-16419
551	-16420
gow	-16421
▁yb	-16422
anya	-16423
awak	-16424
lane	-16425
phia	-16426
rien	-16427
▁eap	-16428
▁ebs	-16429
▁fow	-16430
▁ler	-16431
▁lus	-16432
▁mog	-16433
▁ufj	-16434
▁una	-16435
▁xxi	-16436
井一𧘇力	-16437
atore	-16438
ethyl	-16439
lator	-16440
ockey	-16441
oming	-16442
ungen	-16443
▁5900	-16444
▁alco	-16445
▁chim	-16446
▁garo	-16447
▁giul	-16448
▁hors	-16449
▁iran	-16450
▁lvmh	-16451
▁rost	-16452
▁shak	-16453
▁shib	-16454
▁turk	-16455
engine	-16456
ipping	-16457
onduct	-16458
prises	-16459
▁21000	-16460
▁autoc	-16461
▁hobby	-16462
▁mayer	-16463
▁means	-16464
ococcus	-16465
▁degree	-16466
▁deluxe	-16467
▁edmond	-16468
▁soccer	-16469
▁zimmer	-16470
▁binding	-16471
▁calling	-16472
▁miranda	-16473
▁tournon	-16474
▁latitude	-16475
▁sterling	-16476
▁indonesia	-16477
▁leadership	-16478
▁particular	-16479
▁investments	-16480
▁experimental	-16481
bg	-16482
rf	-16483
王丁	-16484
159	-16485
252	-16486
655	-16487
ifl	-16488
kor	-16489
oti	-16490
spa	-16491
隹隹牛	-16492
𠂉大匕	-16493
apan	-16494
atro	-16495
inux	-16496
leen	-16497
mith	-16498
muse	-16499
olta	-16500
pern	-16501
▁bma	-16502
▁bmd	-16503
▁cfc	-16504
▁cpa	-16505
▁dma	-16506
▁hew	-16507
▁hoy	-16508
▁igm	-16509
▁mpc	-16510
▁sfc	-16511
▁vag	-16512
▁zoe	-16513
凵㐅八夂	-16514
anium	-16515
antes	-16516
books	-16517
lated	-16518
▁0080	-16519
▁caes	-16520
▁lynx	-16521
▁marx	-16522
▁pash	-16523
▁tick	-16524
▁vest	-16525
saurus	-16526
untime	-16527
▁basin	-16528
▁clamp	-16529
▁diane	-16530
▁fifth	-16531
▁glock	-16532
▁latex	-16533
▁maple	-16534
▁mouth	-16535
▁ricky	-16536
▁shaft	-16537
▁enough	-16538
▁garnet	-16539
▁guilla	-16540
▁portal	-16541
▁roguel	-16542
▁sketch	-16543
▁clinton	-16544
▁members	-16545
▁warning	-16546
▁augustus	-16547
▁planning	-16548
▁prestige	-16549
▁evangelion	-16550
▁experiment	-16551
▁independence	-16552
▁hypertransport	-16553
qa	-16554
uo	-16555
309	-16556
356	-16557
408	-16558
458	-16559
504	-16560
903	-16561
daq	-16562
kas	-16563
odi	-16564
ryn	-16565
ucc	-16566
yat	-16567
▁tq	-16568
勹丿牛	-16569
木木日	-16570
care	-16571
hrer	-16572
note	-16573
pace	-16574
▁adc	-16575
▁apl	-16576
▁dea	-16577
▁fuk	-16578
▁hoc	-16579
▁kag	-16580
▁nhs	-16581
▁wps	-16582
achim	-16583
inson	-16584
ories	-16585
plate	-16586
▁belt	-16587
▁cerv	-16588
▁ctrl	-16589
▁judy	-16590
▁kell	-16591
▁pong	-16592
▁seek	-16593
▁stef	-16594
▁taxi	-16595
▁yong	-16596
▁yves	-16597
▁zard	-16598
iensis	-16599
ifolia	-16600
▁alain	-16601
▁below	-16602
▁blink	-16603
▁cisco	-16604
▁eniac	-16605
▁goose	-16606
▁jonas	-16607
▁kenny	-16608
▁marit	-16609
▁shark	-16610
▁tribe	-16611
uration	-16612
▁entity	-16613
▁fabric	-16614
▁hollow	-16615
▁jewish	-16616
▁serial	-16617
▁strept	-16618
▁telnet	-16619
▁willie	-16620
▁andrews	-16621
▁citizen	-16622
▁mississ	-16623
▁neutral	-16624
▁partner	-16625
▁purpose	-16626
▁although	-16627
▁altkirch	-16628
▁stephanie	-16629
▁rothschild	-16630
▁includeonly	-16631
▁commonwealth	-16632
pv	-16633
竹乍	-16634
艹以	-16635
鬼隹	-16636
198	-16637
245	-16638
284	-16639
kee	-16640
rai	-16641
rak	-16642
vik	-16643
▁bz	-16644
▁zg	-16645
亻隹贝	-16646
2800	-16647
acki	-16648
inen	-16649
into	-16650
kong	-16651
mare	-16652
raph	-16653
stea	-16654
vill	-16655
▁31°	-16656
▁70°	-16657
▁aph	-16658
▁arl	-16659
▁cpg	-16660
▁gsh	-16661
▁kiv	-16662
▁mca	-16663
▁mcl	-16664
▁moa	-16665
▁wee	-16666
▁zum	-16667
口口口阝	-16668
ables	-16669
ibald	-16670
query	-16671
▁4217	-16672
▁acer	-16673
▁casc	-16674
▁cope	-16675
▁cray	-16676
▁dino	-16677
▁gett	-16678
▁guns	-16679
▁noel	-16680
▁reef	-16681
▁twil	-16682
▁vire	-16683
亠丷冖巾口	-16684
etimes	-16685
▁corey	-16686
▁exped	-16687
▁icann	-16688
▁lingu	-16689
▁mende	-16690
▁pulse	-16691
▁veloc	-16692
▁berryz	-16693
▁column	-16694
▁darren	-16695
▁freddy	-16696
▁option	-16697
▁oxygen	-16698
▁shader	-16699
▁static	-16700
▁tarbes	-16701
▁voyage	-16702
▁winamp	-16703
▁complet	-16704
▁contrib	-16705
▁partido	-16706
▁astronom	-16707
▁breaking	-16708
▁clinical	-16709
▁external	-16710
▁ftisland	-16711
▁graduate	-16712
▁reynolds	-16713
▁operating	-16714
▁potential	-16715
▁supercell	-16716
cz	-16717
fd	-16718
王兆	-16719
𠂉毛	-16720
ela	-16721
fax	-16722
hoe	-16723
ods	-16724
sex	-16725
一丁心	-16726
arez	-16727
chor	-16728
emen	-16729
emia	-16730
igma	-16731
uchi	-16732
uela	-16733
user	-16734
witz	-16735
▁dyl	-16736
▁fec	-16737
▁gta	-16738
▁gus	-16739
▁psl	-16740
▁rit	-16741
▁ryo	-16742
▁sdl	-16743
▁tsm	-16744
▁tud	-16745
▁tvs	-16746
atops	-16747
iting	-16748
state	-16749
▁abcd	-16750
▁alba	-16751
▁choi	-16752
▁coop	-16753
▁ddos	-16754
▁fuel	-16755
▁jaya	-16756
▁knox	-16757
▁saul	-16758
▁siem	-16759
▁webb	-16760
▁yuan	-16761
illing	-16762
ishing	-16763
▁70000	-16764
▁bones	-16765
▁effic	-16766
▁elisa	-16767
▁impro	-16768
▁rubin	-16769
▁salon	-16770
▁banana	-16771
▁benson	-16772
▁finals	-16773
▁priest	-16774
▁proton	-16775
▁rather	-16776
▁tablet	-16777
▁trevor	-16778
▁tunnel	-16779
▁neoplan	-16780
▁percent	-16781
▁tracker	-16782
▁waiting	-16783
▁canonical	-16784
▁roguelike	-16785
▁wonderswan	-16786
jm	-16787
uj	-16788
zn	-16789
口丫	-16790
夂糸	-16791
广心	-16792
182	-16793
269	-16794
282	-16795
287	-16796
359	-16797
509	-16798
amb	-16799
cor	-16800
fam	-16801
iou	-16802
▁uo	-16803
2004	-16804
angi	-16805
etus	-16806
ffen	-16807
geon	-16808
heit	-16809
wara	-16810
ynos	-16811
▁dew	-16812
▁paz	-16813
▁pst	-16814
usson	-16815
▁0011	-16816
▁cola	-16817
▁dela	-16818
▁fing	-16819
▁flet	-16820
▁fool	-16821
▁hert	-16822
▁moto	-16823
▁neal	-16824
▁perc	-16825
▁saml	-16826
▁sauv	-16827
▁siam	-16828
▁slim	-16829
▁surf	-16830
▁chloe	-16831
▁elias	-16832
▁flora	-16833
▁geass	-16834
▁leeds	-16835
▁ponte	-16836
▁barcel	-16837
▁cotton	-16838
▁domest	-16839
▁eduard	-16840
▁herald	-16841
▁labour	-16842
▁weaver	-16843
▁certain	-16844
▁chronic	-16845
▁context	-16846
▁freeman	-16847
▁segment	-16848
▁various	-16849
▁youbike	-16850
▁triangle	-16851
▁christina	-16852
▁coutances	-16853
▁crossfire	-16854
vy	-16855
170	-16856
irt	-16857
jew	-16858
lei	-16859
obo	-16860
anka	-16861
anza	-16862
awan	-16863
enna	-16864
iele	-16865
inea	-16866
kamp	-16867
rond	-16868
spot	-16869
werk	-16870
▁16°	-16871
▁btr	-16872
▁dtv	-16873
▁gce	-16874
▁jkt	-16875
▁neb	-16876
▁nia	-16877
▁pwm	-16878
▁ucl	-16879
▁yer	-16880
冂一口且	-16881
工口寸阝	-16882
andez	-16883
borne	-16884
eston	-16885
gaard	-16886
olate	-16887
onian	-16888
▁2037	-16889
▁adel	-16890
▁bess	-16891
▁brie	-16892
▁dwar	-16893
▁hers	-16894
▁holl	-16895
▁kale	-16896
▁lime	-16897
▁plum	-16898
▁sohr	-16899
▁suse	-16900
▁tina	-16901
▁cecil	-16902
▁citiz	-16903
▁prius	-16904
▁rania	-16905
▁semic	-16906
▁treas	-16907
▁xanga	-16908
essions	-16909
osphere	-16910
▁danger	-16911
▁jeanne	-16912
▁maison	-16913
▁moving	-16914
▁nebras	-16915
▁nobody	-16916
▁ultras	-16917
▁aniplex	-16918
▁fitness	-16919
▁killing	-16920
▁kitchen	-16921
▁openssl	-16922
▁sneaker	-16923
▁alphabet	-16924
▁creation	-16925
▁twilight	-16926
▁component	-16927
▁principal	-16928
▁sometimes	-16929
▁soundcloud	-16930
木弋	-16931
生生	-16932
金兆	-16933
钅火	-16934
187	-16935
237	-16936
246	-16937
457	-16938
657	-16939
fig	-16940
rex	-16941
▁nw	-16942
2100	-16943
idis	-16944
idus	-16945
onga	-16946
rest	-16947
ried	-16948
sein	-16949
▁akm	-16950
▁chh	-16951
▁eas	-16952
▁ike	-16953
▁nsc	-16954
▁ocn	-16955
▁oma	-16956
▁pne	-16957
▁pud	-16958
▁pus	-16959
agnet	-16960
antan	-16961
ifera	-16962
ignon	-16963
odora	-16964
utter	-16965
▁2032	-16966
▁alum	-16967
▁ampl	-16968
▁dumb	-16969
▁gand	-16970
▁kktv	-16971
▁simd	-16972
▁sulf	-16973
▁troy	-16974
▁vene	-16975
▁vint	-16976
▁xing	-16977
ughton	-16978
▁aacsb	-16979
▁ambro	-16980
▁clare	-16981
▁cocoa	-16982
▁dolce	-16983
▁konst	-16984
▁metra	-16985
▁sarre	-16986
▁tracy	-16987
▁bundes	-16988
▁colors	-16989
▁conver	-16990
▁sacred	-16991
▁supers	-16992
▁teredo	-16993
▁carrera	-16994
▁enrique	-16995
▁nebraska	-16996
▁philadel	-16997
▁communist	-16998
▁adventures	-16999
▁mississippi	-17000
xp	-17001
乃木	-17002
225	-17003
295	-17004
awk	-17005
bed	-17006
hey	-17007
mea	-17008
otr	-17009
qui	-17010
vic	-17011
▁bq	-17012
2700	-17013
ados	-17014
arya	-17015
athe	-17016
mant	-17017
rows	-17018
udan	-17019
uter	-17020
▁dai	-17021
▁dys	-17022
▁fsb	-17023
▁jaw	-17024
▁rau	-17025
▁vom	-17026
▁wma	-17027
activ	-17028
amina	-17029
icate	-17030
▁0800	-17031
▁belg	-17032
▁cros	-17033
▁deen	-17034
▁dmit	-17035
▁maid	-17036
▁mitt	-17037
▁mosc	-17038
▁seam	-17039
▁sick	-17040
▁suff	-17041
▁thal	-17042
▁tiss	-17043
▁barth	-17044
▁brick	-17045
▁confl	-17046
▁hydra	-17047
▁marty	-17048
▁pasha	-17049
▁tesla	-17050
▁castel	-17051
▁cobras	-17052
▁dakota	-17053
▁julien	-17054
▁jungle	-17055
▁nieder	-17056
▁outlet	-17057
▁proced	-17058
▁proper	-17059
▁algebra	-17060
▁colonel	-17061
▁italian	-17062
▁trigger	-17063
▁sandwich	-17064
▁telegram	-17065
▁consortium	-17066
▁functional	-17067
▁wonderland	-17068
金求	-17069
钅卜	-17070
王王木	-17071
3001	-17072
beck	-17073
[...]
